<pad>	0
<unk>	0
[CLS]	0
[SEP]	0
[MASK]	0
(	0
)	0
”	0
-	0
.	0
–	0
£	0
€	0
▁,	-0
▁的	-1
▁。	-2
▁年	-3
▁1	-4
▁、	-5
▁一	-6
▁在	-7
▁中	-8
▁是	-9
▁人	-10
▁2	-11
▁大	-12
▁有	-13
▁和	-14
▁為	-15
▁以	-16
▁月	-17
▁日	-18
▁20	-19
▁了	-20
▁国	-21
▁19	-22
▁为	-23
▁地	-24
▁國	-25
▁於	-26
▁成	-27
▁上	-28
▁公	-29
▁不	-30
▁出	-31
▁行	-32
▁他	-33
▁部	-34
▁斯	-35
▁之	-36
▁名	-37
▁其	-38
▁主	-39
▁作	-40
▁生	-41
▁分	-42
▁方	-43
▁于	-44
▁到	-45
▁下	-46
▁用	-47
▁西	-48
▁:	-49
▁第	-50
▁》	-51
▁《	-52
▁而	-53
▁家	-54
▁位	-55
▁由	-56
▁及	-57
▁後	-58
▁時	-59
▁民	-60
▁被	-61
▁本	-62
▁法	-63
▁学	-64
▁南	-65
▁市	-66
▁·	-67
▁會	-68
▁同	-69
▁多	-70
▁3	-71
▁可	-72
▁里	-73
▁政	-74
▁个	-75
▁201	-76
▁子	-77
▁自	-78
▁任	-79
▁特	-80
▁文	-81
▁高	-82
▁北	-83
▁」	-84
▁「	-85
▁加	-86
▁德	-87
▁新	-88
▁最	-89
▁海	-90
▁與	-91
▁克	-92
▁前	-93
▁代	-94
▁也	-95
▁平	-96
▁利	-97
▁后	-98
▁等	-99
▁所	-100
▁學	-101
▁200	-102
▁三	-103
▁度	-104
▁個	-105
▁因	-106
▁面	-107
▁建	-108
▁得	-109
▁此	-110
▁美	-111
▁道	-112
▁“	-113
▁物	-114
▁要	-115
▁事	-116
▁教	-117
▁至	-118
▁时	-119
▁立	-120
▁路	-121
▁山	-122
▁会	-123
▁拉	-124
▁入	-125
▁小	-126
▁口	-127
▁能	-128
▁世	-129
▁尔	-130
▁二	-131
▁發	-132
▁4	-133
▁理	-134
▁合	-135
▁州	-136
▁工	-137
▁表	-138
▁外	-139
▁定	-140
▁区	-141
▁區	-142
▁天	-143
▁期	-144
▁但	-145
▁科	-146
▁化	-147
▁球	-148
▁台	-149
▁次	-150
▁十	-151
▁5	-152
▁使	-153
▁全	-154
▁;	-155
▁通	-156
▁性	-157
▁者	-158
▁共	-159
▁式	-160
▁重	-161
▁並	-162
▁都	-163
▁安	-164
▁发	-165
▁布	-166
▁來	-167
▁力	-168
▁士	-169
▁6	-170
▁站	-171
▁"	-172
▁军	-173
▁軍	-174
▁院	-175
▁比	-176
▁基	-177
▁原	-178
▁城	-179
▁相	-180
▁s	-181
▁王	-182
▁爾	-183
▁米	-184
▁省	-185
▁明	-186
▁動	-187
▁目	-188
▁長	-189
▁司	-190
▁正	-191
▁这	-192
▁英	-193
▁對	-194
▁7	-195
▁治	-196
▁水	-197
▁系	-198
▁開	-199
▁尼	-200
▁格	-201
▁金	-202
▁制	-203
▁府	-204
▁与	-205
▁c	-206
▁這	-207
▁长	-208
▁10	-209
▁a	-210
▁8	-211
▁列	-212
▁如	-213
▁四	-214
▁或	-215
▁元	-216
▁起	-217
▁影	-218
▁員	-219
▁電	-220
▁港	-221
▁巴	-222
▁亞	-223
▁对	-224
▁首	-225
▁現	-226
▁提	-227
▁女	-228
▁星	-229
▁常	-230
▁當	-231
▁阿	-232
▁東	-233
▁經	-234
▁改	-235
▁演	-236
▁9	-237
▁来	-238
▁并	-239
▁間	-240
▁進	-241
▁林	-242
▁量	-243
▁過	-244
▁心	-245
▁开	-246
▁东	-247
▁向	-248
▁然	-249
▁就	-250
▁接	-251
▁始	-252
er	-253
▁賽	-254
▁m	-255
▁t	-256
▁戰	-257
▁动	-258
▁界	-259
▁體	-260
▁员	-261
▁將	-262
▁意	-263
▁曾	-264
▁管	-265
00	-266
▁手	-267
▁委	-268
▁內	-269
▁車	-270
▁機	-271
▁受	-272
▁卡	-273
▁交	-274
▁程	-275
▁指	-276
▁河	-277
▁場	-278
▁包	-279
▁保	-280
▁形	-281
in	-282
▁色	-283
▁机	-284
▁12	-285
▁亚	-286
▁b	-287
▁已	-288
▁18	-289
▁音	-290
▁流	-291
▁型	-292
▁镇	-293
▁内	-294
▁香	-295
▁直	-296
▁些	-297
▁該	-298
▁馬	-299
an	-300
▁集	-301
▁总	-302
or	-303
▁经	-304
▁过	-305
▁进	-306
▁太	-307
▁史	-308
▁線	-309
▁199	-310
▁稱	-311
▁夫	-312
▁f	-313
▁隊	-314
▁校	-315
▁车	-316
▁五	-317
▁身	-318
▁空	-319
▁字	-320
▁品	-321
on	-322
▁更	-323
▁现	-324
▁社	-325
▁示	-326
▁朝	-327
▁展	-328
▁業	-329
▁电	-330
▁该	-331
▁11	-332
▁间	-333
▁江	-334
▁县	-335
▁种	-336
▁種	-337
▁兩	-338
▁古	-339
▁設	-340
▁业	-341
▁持	-342
▁數	-343
▁灣	-344
▁马	-345
▁p	-346
▁各	-347
▁官	-348
▁選	-349
▁将	-350
▁反	-351
▁洲	-352
▁回	-353
▁战	-354
▁著	-355
▁命	-356
▁体	-357
▁京	-358
▁取	-359
▁羅	-360
▁h	-361
▁活	-362
▁造	-363
▁達	-364
▁普	-365
▁信	-366
▁局	-367
▁d	-368
▁光	-369
▁少	-370
▁设	-371
▁支	-372
▁族	-373
▁称	-374
▁当	-375
▁石	-376
▁曲	-377
▁神	-378
▁解	-379
▁近	-380
▁数	-381
▁非	-382
▁清	-383
▁情	-384
▁聯	-385
▁只	-386
▁罗	-387
▁队	-388
▁研	-389
▁約	-390
▁每	-391
▁它	-392
▁又	-393
▁件	-394
▁縣	-395
▁蘭	-396
▁联	-397
▁村	-398
▁運	-399
▁波	-400
▁即	-401
▁属	-402
▁片	-403
▁放	-404
▁號	-405
▁角	-406
▁關	-407
▁她	-408
la	-409
▁伊	-410
▁華	-411
▁總	-412
en	-413
▁則	-414
▁/	-415
▁商	-416
▁版	-417
▁統	-418
▁武	-419
▁运	-420
▁密	-421
▁知	-422
▁收	-423
▁樂	-424
▁括	-425
▁計	-426
▁两	-427
▁先	-428
▁未	-429
▁們	-430
▁座	-431
▁李	-432
▁屬	-433
▁场	-434
▁往	-435
▁去	-436
▁無	-437
▁根	-438
▁198	-439
▁器	-440
▁白	-441
▁线	-442
▁組	-443
▁产	-444
▁福	-445
▁再	-446
▁議	-447
▁初	-448
▁组	-449
▁歌	-450
▁果	-451
▁华	-452
▁赛	-453
▁究	-454
ar	-455
▁15	-456
▁視	-457
▁统	-458
▁r	-459
▁且	-460
▁六	-461
▁达	-462
▁n	-463
▁派	-464
▁从	-465
▁語	-466
▁引	-467
▁打	-468
▁從	-469
▁g	-470
▁兵	-471
▁足	-472
▁号	-473
▁级	-474
▁亦	-475
▁今	-476
▁域	-477
▁居	-478
▁语	-479
▁完	-480
▁关	-481
▁们	-482
▁帝	-483
▁季	-484
▁播	-485
▁威	-486
▁除	-487
▁塔	-488
▁宗	-489
▁书	-490
▁计	-491
▁令	-492
▁務	-493
▁段	-494
▁服	-495
▁育	-496
▁參	-497
▁實	-498
▁產	-499
▁團	-500
▁說	-501
▁結	-502
▁花	-503
▁很	-504
▁兰	-505
▁查	-506
▁言	-507
▁義	-508
▁广	-509
▁門	-510
▁八	-511
▁16	-512
▁速	-513
▁土	-514
▁修	-515
▁置	-516
▁島	-517
▁功	-518
▁l	-519
▁宣	-520
▁希	-521
▁存	-522
▁推	-523
▁另	-524
▁约	-525
▁死	-526
▁客	-527
▁周	-528
▁投	-529
▁好	-530
▁類	-531
▁傳	-532
▁舉	-533
▁我	-534
▁率	-535
▁超	-536
▁供	-537
▁17	-538
▁獲	-539
▁雷	-540
▁洛	-541
▁吉	-542
▁認	-543
▁务	-544
▁處	-545
▁哈	-546
▁实	-547
▁單	-548
▁党	-549
▁i	-550
▁源	-551
▁具	-552
▁博	-553
▁父	-554
▁0	-555
▁单	-556
▁求	-557
▁班	-558
▁街	-559
▁九	-560
▁案	-561
▁青	-562
▁印	-563
▁田	-564
es	-565
▁男	-566
▁瓦	-567
▁母	-568
▁维	-569
▁維	-570
▁议	-571
▁伯	-572
▁己	-573
▁書	-574
▁例	-575
▁参	-576
▁勒	-577
▁故	-578
▁張	-579
▁助	-580
▁臺	-581
▁湖	-582
▁还	-583
▁义	-584
▁沙	-585
▁火	-586
▁194	-587
▁別	-588
▁航	-589
▁廣	-590
▁均	-591
▁導	-592
▁帶	-593
▁那	-594
▁落	-595
▁致	-596
▁百	-597
▁應	-598
▁整	-599
▁攻	-600
▁皇	-601
▁w	-602
▁份	-603
▁197	-604
at	-605
▁技	-606
▁點	-607
▁模	-608
▁資	-609
▁副	-610
▁增	-611
▁早	-612
▁图	-613
▁铁	-614
▁容	-615
▁劇	-616
▁萬	-617
▁变	-618
▁选	-619
▁擊	-620
▁專	-621
▁半	-622
▁群	-623
al	-624
▁龍	-625
▁处	-626
▁越	-627
▁说	-628
▁游	-629
▁告	-630
▁万	-631
▁七	-632
▁師	-633
▁失	-634
▁變	-635
▁黨	-636
ic	-637
▁易	-638
▁登	-639
▁门	-640
▁堂	-641
▁川	-642
▁級	-643
▁团	-644
▁领	-645
▁境	-646
▁深	-647
▁14	-648
▁积	-649
▁点	-650
▁領	-651
▁紀	-652
▁195	-653
▁导	-654
▁室	-655
▁排	-656
▁積	-657
▁13	-658
▁结	-659
▁奥	-660
▁传	-661
▁塞	-662
▁升	-663
▁苏	-664
▁需	-665
▁製	-666
▁应	-667
▁黑	-668
▁風	-669
▁央	-670
▁食	-671
▁連	-672
▁節	-673
▁氏	-674
▁获	-675
▁標	-676
▁无	-677
▁席	-678
▁象	-679
▁頭	-680
▁e	-681
▁限	-682
▁射	-683
▁何	-684
▁类	-685
▁196	-686
▁乐	-687
▁沒	-688
▁老	-689
▁甲	-690
▁畫	-691
▁像	-692
▁真	-693
▁辖	-694
▁轉	-695
▁据	-696
▁仍	-697
▁盟	-698
▁乡	-699
▁k	-700
▁警	-701
▁報	-702
▁千	-703
▁才	-704
▁條	-705
▁托	-706
▁木	-707
▁考	-708
▁鐵	-709
▁施	-710
▁奇	-711
▁便	-712
▁步	-713
▁防	-714
▁想	-715
▁際	-716
▁權	-717
▁配	-718
▁森	-719
▁據	-720
▁o	-721
▁決	-722
▁牙	-723
▁感	-724
▁氣	-725
▁洋	-726
▁奧	-727
▁认	-728
▁論	-729
▁师	-730
▁哥	-731
▁住	-732
▁止	-733
▁术	-734
▁低	-735
▁留	-736
▁姆	-737
▁病	-738
▁纳	-739
▁效	-740
▁视	-741
▁—	-742
▁记	-743
▁报	-744
▁历	-745
▁魚	-746
▁曼	-747
▁律	-748
▁纪	-749
is	-750
▁恩	-751
▁還	-752
▁埃	-753
▁底	-754
▁術	-755
▁察	-756
▁佛	-757
▁泰	-758
▁離	-759
▁料	-760
▁把	-761
▁唱	-762
▁迪	-763
▁冠	-764
▁193	-765
▁素	-766
▁蒙	-767
▁志	-768
▁30	-769
▁移	-770
▁j	-771
▁納	-772
▁創	-773
▁降	-774
▁強	-775
▁批	-776
▁俄	-777
▁for	-778
▁票	-779
▁圖	-780
▁景	-781
▁看	-782
▁消	-783
▁革	-784
▁康	-785
▁阳	-786
▁风	-787
▁職	-788
▁则	-789
▁息	-790
▁着	-791
▁控	-792
▁續	-793
▁承	-794
▁算	-795
▁张	-796
▁愛	-797
▁獎	-798
▁21	-799
▁念	-800
▁祖	-801
▁觀	-802
▁親	-803
▁索	-804
▁专	-805
▁遊	-806
▁授	-807
▁z	-808
it	-809
▁带	-810
mu	-811
le	-812
▁典	-813
▁标	-814
▁許	-815
▁較	-816
▁負	-817
▁記	-818
▁_	-819
▁论	-820
▁藏	-821
▁思	-822
▁守	-823
▁做	-824
▁友	-825
▁瑞	-826
▁拔	-827
▁际	-828
he	-829
▁精	-830
▁没	-831
▁别	-832
▁汉	-833
▁房	-834
▁岛	-835
▁責	-836
▁办	-837
▁見	-838
▁陸	-839
▁督	-840
▁題	-841
▁附	-842
▁園	-843
▁依	-844
▁望	-845
▁夏	-846
▁权	-847
▁照	-848
▁裝	-849
▁v	-850
▁述	-851
▁转	-852
▁質	-853
▁章	-854
▁錄	-855
▁抗	-856
▁决	-857
▁調	-858
▁节	-859
▁资	-860
▁击	-861
▁編	-862
▁歷	-863
▁停	-864
▁2010	-865
▁条	-866
▁退	-867
▁25	-868
▁职	-869
▁網	-870
▁毛	-871
▁辦	-872
▁丹	-873
▁牌	-874
▁2009	-875
▁圣	-876
mula	-877
▁草	-878
▁澳	-879
▁复	-880
▁formula	-881
▁构	-882
▁蘇	-883
▁封	-884
▁丁	-885
▁陳	-886
▁永	-887
▁快	-888
▁气	-889
▁左	-890
▁堡	-891
▁隨	-892
▁坦	-893
▁破	-894
▁富	-895
el	-896
▁邦	-897
▁192	-898
▁船	-899
▁終	-900
▁候	-901
ro	-902
▁值	-903
▁聖	-904
▁歐	-905
▁爭	-906
▁營	-907
▁陆	-908
▁拿	-909
▁戲	-910
▁給	-911
▁鎮	-912
un	-913
▁般	-914
▁唐	-915
▁問	-916
am	-917
▁協	-918
▁極	-919
▁擔	-920
▁梅	-921
▁调	-922
▁含	-923
▁2011	-924
▁萨	-925
▁隆	-926
▁莫	-927
▁突	-928
▁举	-929
▁郡	-930
▁准	-931
▁划	-932
▁皮	-933
▁眾	-934
▁旅	-935
▁似	-936
▁寺	-937
▁延	-938
▁创	-939
▁黃	-940
▁争	-941
▁网	-942
▁朗	-943
▁莱	-944
▁植	-945
▁蒂	-946
▁項	-947
▁规	-948
▁試	-949
▁注	-950
▁必	-951
▁興	-952
▁随	-953
000	-954
▁强	-955
▁尚	-956
as	-957
▁济	-958
▁嘉	-959
▁走	-960
▁剧	-961
▁樣	-962
▁兒	-963
▁店	-964
▁切	-965
▁藝	-966
▁离	-967
▁久	-968
us	-969
▁架	-970
▁岸	-971
▁右	-972
▁护	-973
▁邊	-974
▁协	-975
▁头	-976
▁co	-977
▁野	-978
▁装	-979
▁连	-980
▁飛	-981
▁鄉	-982
▁漢	-983
▁编	-984
▁規	-985
▁2012	-986
▁22	-987
▁亡	-988
▁倫	-989
▁给	-990
▁轄	-991
▁核	-992
▁讓	-993
▁龙	-994
▁弟	-995
▁质	-996
▁售	-997
▁油	-998
▁判	-999
il	-1000
▁熱	-1001
▁館	-1002
▁春	-1003
▁環	-1004
▁2013	-1005
▁衛	-1006
et	-1007
▁雄	-1008
▁题	-1009
▁艾	-1010
▁弗	-1011
▁備	-1012
▁2016	-1013
▁遭	-1014
▁佳	-1015
▁層	-1016
▁構	-1017
▁馆	-1018
▁24	-1019
▁繼	-1020
▁占	-1021
▁2015	-1022
▁2014	-1023
▁短	-1024
▁薩	-1025
ion	-1026
▁问	-1027
▁筑	-1028
ac	-1029
▁端	-1030
▁担	-1031
▁圍	-1032
▁2008	-1033
▁鲁	-1034
▁策	-1035
▁護	-1036
▁輯	-1037
▁股	-1038
▁耶	-1039
ur	-1040
▁雙	-1041
▁zh	-1042
▁逐	-1043
▁評	-1044
▁23	-1045
▁黄	-1046
▁卫	-1047
▁许	-1048
▁戏	-1049
▁役	-1050
▁样	-1051
▁项	-1052
▁送	-1053
▁宁	-1054
▁諾	-1055
▁旗	-1056
▁191	-1057
▁晚	-1058
▁营	-1059
▁獨	-1060
▁聲	-1061
▁劃	-1062
▁环	-1063
▁赫	-1064
▁費	-1065
▁籍	-1066
▁观	-1067
▁帕	-1068
▁亲	-1069
▁酒	-1070
▁松	-1071
▁序	-1072
▁}	-1073
▁{	-1074
▁寫	-1075
▁菲	-1076
▁2001	-1077
▁伦	-1078
▁宋	-1079
▁末	-1080
▁殺	-1081
▁雅	-1082
▁暴	-1083
▁摩	-1084
▁the	-1085
▁若	-1086
▁距	-1087
▁什	-1088
▁边	-1089
▁园	-1090
▁乘	-1091
▁束	-1092
▁欧	-1093
▁终	-1094
▁響	-1095
▁微	-1096
▁诺	-1097
▁署	-1098
▁紅	-1099
▁范	-1100
▁陽	-1101
▁农	-1102
▁兼	-1103
▁秀	-1104
▁干	-1105
▁织	-1106
▁勝	-1107
▁歲	-1108
▁备	-1109
▁證	-1110
▁2017	-1111
▁红	-1112
▁準	-1113
▁!	-1114
▁2007	-1115
▁款	-1116
▁敗	-1117
▁頓	-1118
▁沃	-1119
▁庭	-1120
▁庄	-1121
▁良	-1122
▁胡	-1123
▁续	-1124
▁醫	-1125
▁尾	-1126
▁血	-1127
▁略	-1128
▁善	-1129
▁免	-1130
▁彈	-1131
▁兴	-1132
▁津	-1133
▁差	-1134
▁烏	-1135
▁散	-1136
▁奖	-1137
▁28	-1138
▁2006	-1139
▁2018	-1140
▁裡	-1141
▁较	-1142
▁采	-1143
▁甚	-1144
▁婚	-1145
▁魯	-1146
▁濟	-1147
▁予	-1148
▁桥	-1149
▁峰	-1150
▁銀	-1151
▁26	-1152
re	-1153
▁艦	-1154
▁拍	-1155
▁狀	-1156
▁樓	-1157
▁儿	-1158
▁见	-1159
▁朱	-1160
▁库	-1161
▁臣	-1162
▁假	-1163
▁卻	-1164
▁杜	-1165
▁屆	-1166
▁追	-1167
▁征	-1168
▁復	-1169
▁医	-1170
▁喜	-1171
▁雖	-1172
▁热	-1173
▁害	-1174
▁27	-1175
▁顯	-1176
▁围	-1177
▁尺	-1178
▁黎	-1179
▁100	-1180
ing	-1181
▁写	-1182
▁贝	-1183
▁韓	-1184
▁背	-1185
▁证	-1186
▁烈	-1187
▁31	-1188
▁st	-1189
▁板	-1190
▁話	-1191
▁劉	-1192
▁玉	-1193
▁舞	-1194
▁仁	-1195
▁測	-1196
▁爆	-1197
▁互	-1198
▁层	-1199
▁盛	-1200
▁織	-1201
▁爱	-1202
▁独	-1203
▁企	-1204
▁罪	-1205
▁众	-1206
▁评	-1207
▁双	-1208
▁習	-1209
▁沿	-1210
▁採	-1211
▁媒	-1212
▁預	-1213
ed	-1214
▁詞	-1215
▁云	-1216
▁录	-1217
▁廷	-1218
▁酸	-1219
▁艺	-1220
▁載	-1221
▁透	-1222
▁援	-1223
ol	-1224
▁谷	-1225
▁2005	-1226
▁舰	-1227
▁试	-1228
▁救	-1229
st	-1230
▁僅	-1231
▁請	-1232
ch	-1233
▁画	-1234
▁牛	-1235
▁继	-1236
▁秘	-1237
▁址	-1238
▁余	-1239
▁宮	-1240
▁屋	-1241
▁介	-1242
▁几	-1243
▁執	-1244
▁遠	-1245
▁態	-1246
▁响	-1247
▁映	-1248
▁昌	-1249
▁届	-1250
▁飞	-1251
▁陈	-1252
▁萊	-1253
▁梁	-1254
▁貝	-1255
▁荷	-1256
▁佈	-1257
▁刘	-1258
▁in	-1259
▁溫	-1260
ent	-1261
▁溪	-1262
▁智	-1263
▁君	-1264
▁幾	-1265
▁声	-1266
▁an	-1267
▁滿	-1268
▁坡	-1269
▁勢	-1270
▁29	-1271
▁槍	-1272
▁戶	-1273
ow	-1274
▁徒	-1275
▁材	-1276
▁2000	-1277
▁x	-1278
▁楼	-1279
▁價	-1280
▁费	-1281
▁拜	-1282
▁確	-1283
▁係	-1284
▁>	-1285
▁杀	-1286
▁巡	-1287
▁敦	-1288
▁益	-1289
▁童	-1290
▁郎	-1291
▁按	-1292
▁仅	-1293
▁皆	-1294
▁玩	-1295
▁190	-1296
▁禁	-1297
▁混	-1298
▁巨	-1299
▁橋	-1300
▁某	-1301
▁途	-1302
▁壓	-1303
▁<	-1304
▁探	-1305
id	-1306
▁刻	-1307
▁极	-1308
▁冰	-1309
▁午	-1310
ig	-1311
▁築	-1312
▁夜	-1313
▁50	-1314
▁翰	-1315
▁霍	-1316
▁遇	-1317
▁旋	-1318
▁讀	-1319
▁替	-1320
▁描	-1321
▁跟	-1322
▁羽	-1323
▁刊	-1324
▁撤	-1325
▁簡	-1326
▁u	-1327
▁穆	-1328
▁岁	-1329
▁吸	-1330
▁宇	-1331
▁2019	-1332
▁聞	-1333
▁顿	-1334
ad	-1335
▁ch	-1336
▁培	-1337
▁麗	-1338
▁符	-1339
▁你	-1340
▁眼	-1341
▁炮	-1342
▁難	-1343
▁找	-1344
▁户	-1345
▁雲	-1346
▁禮	-1347
▁确	-1348
▁测	-1349
▁殿	-1350
▁佩	-1351
▁刺	-1352
▁乌	-1353
▁爵	-1354
▁聚	-1355
▁毒	-1356
▁话	-1357
▁休	-1358
▁叶	-1359
▁私	-1360
▁2004	-1361
▁召	-1362
▁犯	-1363
▁充	-1364
▁返	-1365
▁唯	-1366
▁監	-1367
▁否	-1368
▁奉	-1369
▁寶	-1370
▁斗	-1371
▁温	-1372
os	-1373
▁農	-1374
▁幕	-1375
▁责	-1376
▁逃	-1377
▁庫	-1378
▁漫	-1379
▁靠	-1380
▁耳	-1381
▁擁	-1382
▁傷	-1383
▁雨	-1384
▁操	-1385
▁洪	-1386
▁茨	-1387
▁庆	-1388
▁缺	-1389
▁麥	-1390
▁of	-1391
▁捕	-1392
▁y	-1393
▁验	-1394
▁状	-1395
▁固	-1396
▁岩	-1397
▁魔	-1398
▁斷	-1399
▁戈	-1400
▁側	-1401
▁穿	-1402
▁範	-1403
▁葉	-1404
▁佔	-1405
▁練	-1406
▁000	-1407
▁優	-1408
▁震	-1409
▁竹	-1410
▁細	-1411
▁訊	-1412
▁雪	-1413
▁远	-1414
▁激	-1415
▁银	-1416
▁让	-1417
▁露	-1418
▁異	-1419
▁坐	-1420
▁刑	-1421
▁骨	-1422
▁況	-1423
▁40	-1424
▁忠	-1425
▁飾	-1426
▁满	-1427
▁廠	-1428
▁乎	-1429
▁翻	-1430
▁坑	-1431
▁靈	-1432
▁br	-1433
▁显	-1434
▁赤	-1435
▁輕	-1436
▁識	-1437
▁尤	-1438
▁'	-1439
▁词	-1440
▁胞	-1441
▁輪	-1442
▁舊	-1443
▁娜	-1444
▁申	-1445
▁迫	-1446
ut	-1447
▁负	-1448
▁須	-1449
▁抵	-1450
▁姓	-1451
▁习	-1452
▁待	-1453
▁肯	-1454
▁|	-1455
▁換	-1456
▁呼	-1457
▁兄	-1458
▁徐	-1459
▁态	-1460
▁妻	-1461
▁驗	-1462
▁攝	-1463
▁载	-1464
om	-1465
▁浙	-1466
▁廳	-1467
▁陣	-1468
▁桑	-1469
▁絕	-1470
▁嚴	-1471
▁陵	-1472
ir	-1473
▁秋	-1474
▁临	-1475
iv	-1476
▁侵	-1477
ot	-1478
▁遗	-1479
▁柏	-1480
▁惠	-1481
▁价	-1482
▁戴	-1483
▁侧	-1484
▁2003	-1485
▁压	-1486
▁汽	-1487
▁餘	-1488
▁宫	-1489
▁=	-1490
▁炸	-1491
▁孩	-1492
ia	-1493
▁湾	-1494
▁潮	-1495
▁孔	-1496
▁韩	-1497
▁董	-1498
▁週	-1499
▁鰭	-1500
▁芬	-1501
▁疑	-1502
▁歸	-1503
▁畢	-1504
▁鬥	-1505
▁篇	-1506
▁吳	-1507
▁厂	-1508
▁急	-1509
▁融	-1510
▁甘	-1511
▁健	-1512
50	-1513
▁奏	-1514
▁傑	-1515
▁避	-1516
▁努	-1517
▁毕	-1518
▁简	-1519
▁卷	-1520
▁默	-1521
▁辛	-1522
▁丽	-1523
▁识	-1524
▁魏	-1525
▁细	-1526
▁胜	-1527
▁监	-1528
▁慶	-1529
▁偏	-1530
▁順	-1531
▁泽	-1532
▁榜	-1533
▁泛	-1534
▁2002	-1535
20	-1536
ec	-1537
▁泉	-1538
▁况	-1539
▁断	-1540
▁莉	-1541
▁墓	-1542
im	-1543
▁码	-1544
▁概	-1545
▁榮	-1546
▁请	-1547
▁衣	-1548
▁宝	-1549
▁套	-1550
▁啟	-1551
▁绝	-1552
▁翼	-1553
▁败	-1554
▁执	-1555
▁危	-1556
▁杰	-1557
▁难	-1558
▁隔	-1559
▁佐	-1560
▁楊	-1561
▁杨	-1562
▁裁	-1563
▁渡	-1564
▁樹	-1565
▁舍	-1566
▁呈	-1567
▁驻	-1568
▁墨	-1569
▁卢	-1570
▁殖	-1571
▁宜	-1572
▁迎	-1573
▁厅	-1574
▁譯	-1575
▁预	-1576
▁雜	-1577
▁归	-1578
▁購	-1579
▁階	-1580
▁涉	-1581
▁染	-1582
▁毫	-1583
▁井	-1584
▁阻	-1585
▁虎	-1586
▁叫	-1587
▁御	-1588
▁弹	-1589
▁億	-1590
▁肉	-1591
▁冷	-1592
▁扎	-1593
▁輸	-1594
▁孫	-1595
▁迷	-1596
▁孙	-1597
▁圈	-1598
▁捷	-1599
▁瑪	-1600
▁臨	-1601
▁奪	-1602
▁廉	-1603
ag	-1604
▁析	-1605
▁銷	-1606
▁豐	-1607
▁秦	-1608
▁付	-1609
▁辑	-1610
▁險	-1611
▁漸	-1612
▁減	-1613
▁189	-1614
▁al	-1615
▁换	-1616
▁严	-1617
▁珠	-1618
▁恐	-1619
▁氧	-1620
▁哲	-1621
▁函	-1622
▁拥	-1623
▁贵	-1624
▁亮	-1625
▁葡	-1626
▁乾	-1627
▁池	-1628
▁伍	-1629
▁琴	-1630
em	-1631
▁轮	-1632
▁截	-1633
▁仙	-1634
▁闻	-1635
um	-1636
▁招	-1637
▁侯	-1638
▁賓	-1639
▁彩	-1640
▁匹	-1641
▁碼	-1642
▁訓	-1643
▁享	-1644
ation	-1645
▁寧	-1646
▁味	-1647
▁症	-1648
▁频	-1649
ter	-1650
▁俱	-1651
▁齐	-1652
▁釋	-1653
▁麻	-1654
▁徵	-1655
▁洞	-1656
▁60	-1657
od	-1658
▁妹	-1659
▁暗	-1660
▁麦	-1661
▁硬	-1662
▁紐	-1663
▁尊	-1664
▁藥	-1665
▁鐘	-1666
▁綱	-1667
▁势	-1668
▁瑟	-1669
▁遺	-1670
▁町	-1671
▁颗	-1672
▁销	-1673
▁租	-1674
▁豪	-1675
▁倒	-1676
▁奈	-1677
▁礼	-1678
▁吴	-1679
▁頂	-1680
▁旧	-1681
▁液	-1682
▁俗	-1683
▁昂	-1684
▁崇	-1685
▁養	-1686
▁棲	-1687
▁读	-1688
▁鲜	-1689
▁徽	-1690
▁詩	-1691
▁藍	-1692
▁药	-1693
▁借	-1694
▁冬	-1695
▁圓	-1696
▁逝	-1697
and	-1698
▁繁	-1699
▁盃	-1700
▁簽	-1701
▁凱	-1702
▁勞	-1703
▁楚	-1704
▁齊	-1705
▁优	-1706
▁財	-1707
▁输	-1708
▁晋	-1709
▁蓋	-1710
▁補	-1711
▁估	-1712
▁1990	-1713
▁诗	-1714
ay	-1715
▁鱼	-1716
ap	-1717
▁]	-1718
▁邀	-1719
▁顺	-1720
▁蛋	-1721
▁併	-1722
▁乙	-1723
▁劳	-1724
▁夠	-1725
▁討	-1726
▁玛	-1727
▁迁	-1728
▁昭	-1729
▁遷	-1730
▁1999	-1731
▁[	-1732
▁錦	-1733
▁拒	-1734
▁币	-1735
▁曹	-1736
▁树	-1737
▁柱	-1738
▁跨	-1739
▁儀	-1740
▁茲	-1741
▁郭	-1742
▁陶	-1743
▁振	-1744
▁han	-1745
▁掌	-1746
▁腦	-1747
▁頻	-1748
▁伐	-1749
▁廟	-1750
▁35	-1751
▁萄	-1752
▁鄭	-1753
▁杂	-1754
▁乃	-1755
▁患	-1756
▁1998	-1757
▁裂	-1758
▁弱	-1759
▁?	-1760
▁浦	-1761
▁鼓	-1762
▁盖	-1763
▁尽	-1764
▁淡	-1765
▁蔡	-1766
▁適	-1767
▁裔	-1768
▁零	-1769
▁軟	-1770
▁絲	-1771
▁檢	-1772
▁莎	-1773
▁幼	-1774
▁浪	-1775
▁隸	-1776
▁兹	-1777
▁晉	-1778
▁恢	-1779
▁訪	-1780
▁轨	-1781
▁顶	-1782
▁困	-1783
▁虽	-1784
▁and	-1785
▁菌	-1786
▁審	-1787
▁陷	-1788
▁障	-1789
▁滑	-1790
▁喬	-1791
▁异	-1792
▁韦	-1793
▁鮮	-1794
▁粉	-1795
▁盧	-1796
▁旁	-1797
▁货	-1798
▁歡	-1799
▁覺	-1800
▁la	-1801
▁络	-1802
▁輛	-1803
▁牧	-1804
▁却	-1805
▁菜	-1806
▁冲	-1807
▁译	-1808
▁灵	-1809
▁貴	-1810
▁伤	-1811
60	-1812
▁检	-1813
oc	-1814
▁彼	-1815
op	-1816
▁亿	-1817
▁競	-1818
ul	-1819
▁藤	-1820
▁駐	-1821
▁32	-1822
▁謝	-1823
▁签	-1824
▁80	-1825
▁00	-1826
▁韋	-1827
▁挥	-1828
▁講	-1829
▁纽	-1830
▁偶	-1831
▁誌	-1832
▁宿	-1833
▁练	-1834
▁扩	-1835
▁丘	-1836
▁1997	-1837
▁疆	-1838
▁鄰	-1839
▁丰	-1840
▁壁	-1841
▁188	-1842
▁敵	-1843
▁熙	-1844
▁de	-1845
▁埔	-1846
▁敏	-1847
▁祭	-1848
▁搭	-1849
▁涅	-1850
▁課	-1851
▁赵	-1852
▁亨	-1853
▁伴	-1854
10	-1855
og	-1856
▁勇	-1857
▁昆	-1858
▁徑	-1859
▁幫	-1860
▁70	-1861
▁衝	-1862
▁允	-1863
▁1980	-1864
▁阶	-1865
ce	-1866
▁柯	-1867
▁桃	-1868
▁财	-1869
▁荣	-1870
▁貨	-1871
▁澤	-1872
30	-1873
▁軌	-1874
▁答	-1875
▁审	-1876
▁45	-1877
▁促	-1878
av	-1879
▁衡	-1880
▁擴	-1881
▁脈	-1882
▁仔	-1883
▁汗	-1884
▁遍	-1885
▁績	-1886
▁re	-1887
▁沈	-1888
▁拆	-1889
▁糖	-1890
▁珍	-1891
▁幅	-1892
▁殊	-1893
▁幸	-1894
▁杯	-1895
▁讲	-1896
▁訴	-1897
▁宅	-1898
▁轻	-1899
19	-1900
▁凯	-1901
▁療	-1902
▁谢	-1903
▁孟	-1904
▁养	-1905
▁額	-1906
▁訂	-1907
ie	-1908
▁棒	-1909
▁亂	-1910
▁輻	-1911
▁句	-1912
▁赴	-1913
▁幻	-1914
▁灰	-1915
▁碑	-1916
▁茶	-1917
▁沉	-1918
▁孝	-1919
▁擇	-1920
▁启	-1921
▁紫	-1922
▁覆	-1923
▁燃	-1924
▁侍	-1925
▁械	-1926
▁艘	-1927
▁跑	-1928
▁顧	-1929
▁厚	-1930
▁鏡	-1931
▁奴	-1932
▁遣	-1933
▁揮	-1934
▁葬	-1935
▁90	-1936
ub	-1937
▁+	-1938
▁阵	-1939
▁綠	-1940
▁廢	-1941
48	-1942
▁諸	-1943
ers	-1944
▁塘	-1945
▁聽	-1946
▁乔	-1947
▁寬	-1948
▁祥	-1949
▁宽	-1950
▁磁	-1951
▁1994	-1952
▁盤	-1953
▁敬	-1954
▁减	-1955
▁幣	-1956
▁挑	-1957
▁騎	-1958
▁软	-1959
▁餐	-1960
40	-1961
▁襲	-1962
▁诸	-1963
▁500	-1964
▁1996	-1965
▁懷	-1966
▁複	-1967
▁疾	-1968
▁鳥	-1969
▁滅	-1970
▁ar	-1971
▁释	-1972
▁献	-1973
▁柴	-1974
▁钟	-1975
▁38	-1976
▁倍	-1977
▁姐	-1978
▁獻	-1979
▁叛	-1980
▁尖	-1981
▁箭	-1982
▁賣	-1983
▁慈	-1984
▁33	-1985
▁〉	-1986
▁伸	-1987
▁惡	-1988
▁〈	-1989
▁训	-1990
▁摄	-1991
▁艇	-1992
▁晶	-1993
▁綫	-1994
▁187	-1995
▁葛	-1996
▁柳	-1997
▁枚	-1998
▁願	-1999
▁1995	-2000
▁访	-2001
▁够	-2002
▁凡	-2003
▁剛	-2004
th	-2005
▁撞	-2006
▁慢	-2007
▁辽	-2008
▁尋	-2009
▁棋	-2010
▁刀	-2011
▁螺	-2012
▁妮	-2013
▁熟	-2014
▁堅	-2015
ip	-2016
▁36	-2017
▁跳	-2018
▁补	-2019
▁仰	-2020
▁誤	-2021
▁橫	-2022
▁庙	-2023
▁苦	-2024
▁憲	-2025
▁宾	-2026
▁辆	-2027
▁购	-2028
▁钱	-2029
▁折	-2030
▁』	-2031
▁談	-2032
▁1992	-2033
▁么	-2034
▁伏	-2035
▁恒	-2036
▁额	-2037
▁『	-2038
▁com	-2039
▁遂	-2040
▁须	-2041
▁敌	-2042
▁匈	-2043
▁1993	-2044
▁朋	-2045
▁枪	-2046
▁雕	-2047
▁燕	-2048
▁险	-2049
▁tw	-2050
▁1991	-2051
▁桂	-2052
▁圆	-2053
ind	-2054
▁慕	-2055
▁撒	-2056
ak	-2057
ab	-2058
▁潘	-2059
ard	-2060
▁仪	-2061
▁彭	-2062
▁夺	-2063
▁q	-2064
▁錢	-2065
▁sh	-2066
▁37	-2067
ov	-2068
▁渐	-2069
▁袭	-2070
▁径	-2071
▁瓜	-2072
▁吃	-2073
▁岡	-2074
▁th	-2075
▁腳	-2076
▁買	-2077
▁勤	-2078
▁un	-2079
▁°	-2080
▁谋	-2081
▁适	-2082
▁涯	-2083
▁迅	-2084
▁郑	-2085
▁础	-2086
11	-2087
▁乱	-2088
▁琳	-2089
▁輔	-2090
▁靖	-2091
ct	-2092
▁頒	-2093
▁汇	-2094
▁損	-2095
▁粒	-2096
▁恆	-2097
▁賞	-2098
▁1950	-2099
▁损	-2100
▁旺	-2101
▁1949	-2102
▁累	-2103
▁1970	-2104
▁齒	-2105
ud	-2106
▁趣	-2107
▁鹿	-2108
▁34	-2109
▁186	-2110
▁夢	-2111
▁緣	-2112
▁番	-2113
▁毁	-2114
▁熊	-2115
▁罕	-2116
▁鬼	-2117
80	-2118
▁羊	-2119
▁宪	-2120
▁劍	-2121
▁帮	-2122
▁貢	-2123
▁脂	-2124
▁針	-2125
▁隶	-2126
▁莊	-2127
▁泊	-2128
▁sp	-2129
▁脫	-2130
▁棄	-2131
▁晨	-2132
▁縮	-2133
▁贡	-2134
▁梯	-2135
▁1988	-2136
▁芳	-2137
▁赞	-2138
▁繪	-2139
▁绕	-2140
21	-2141
▁to	-2142
▁tr	-2143
▁仲	-2144
▁掉	-2145
▁趙	-2146
▁屯	-2147
ist	-2148
▁擎	-2149
▁hk	-2150
▁蛇	-2151
▁賴	-2152
▁詹	-2153
▁毀	-2154
▁緯	-2155
▁秒	-2156
est	-2157
▁藉	-2158
▁锡	-2159
▁le	-2160
ik	-2161
▁屏	-2162
▁壞	-2163
▁陰	-2164
▁1945	-2165
▁39	-2166
▁弘	-2167
25	-2168
▁怪	-2169
ang	-2170
▁废	-2171
▁sa	-2172
ine	-2173
▁緊	-2174
▁腹	-2175
▁on	-2176
▁臘	-2177
▁mar	-2178
▁300	-2179
▁1960	-2180
▁爲	-2181
▁駛	-2182
▁幹	-2183
▁搜	-2184
▁te	-2185
▁隧	-2186
▁拓	-2187
▁绍	-2188
▁痛	-2189
▁怀	-2190
▁觉	-2191
▁块	-2192
▁緒	-2193
▁杉	-2194
▁麼	-2195
▁乳	-2196
▁炎	-2197
▁俊	-2198
▁hans	-2199
▁牠	-2200
▁卓	-2201
▁浮	-2202
▁锦	-2203
▁饰	-2204
▁col	-2205
▁竞	-2206
▁讨	-2207
▁鼠	-2208
ill	-2209
▁崎	-2210
▁1989	-2211
▁圳	-2212
▁芝	-2213
▁坎	-2214
▁凌	-2215
▁择	-2216
▁壽	-2217
▁泥	-2218
▁陕	-2219
▁曆	-2220
▁筆	-2221
▁贏	-2222
▁矿	-2223
▁玄	-2224
▁塑	-2225
▁插	-2226
▁杭	-2227
▁紹	-2228
▁is	-2229
▁袁	-2230
▁厄	-2231
▁腊	-2232
▁pro	-2233
▁揚	-2234
▁慧	-2235
▁戒	-2236
▁隻	-2237
▁骑	-2238
▁55	-2239
▁甸	-2240
70	-2241
▁謀	-2242
▁畔	-2243
12	-2244
▁卿	-2245
▁玻	-2246
▁宏	-2247
▁蟲	-2248
▁1985	-2249
▁宙	-2250
▁暫	-2251
▁喀	-2252
▁豆	-2253
▁灭	-2254
▁盘	-2255
▁～	-2256
▁乏	-2257
ess	-2258
▁滨	-2259
▁缩	-2260
▁旦	-2261
▁錯	-2262
▁貿	-2263
if	-2264
▁笑	-2265
ba	-2266
▁娛	-2267
▁坚	-2268
▁墙	-2269
▁戀	-2270
▁咸	-2271
▁崔	-2272
▁鳳	-2273
▁撰	-2274
▁藩	-2275
▁绿	-2276
▁苗	-2277
bo	-2278
▁顆	-2279
▁犹	-2280
▁欢	-2281
ra	-2282
▁谈	-2283
▁ne	-2284
▁疗	-2285
▁洗	-2286
▁1986	-2287
▁脱	-2288
▁斑	-2289
▁盡	-2290
▁听	-2291
▁祝	-2292
▁寄	-2293
▁é	-2294
▁觸	-2295
▁檔	-2296
▁泳	-2297
▁袖	-2298
▁循	-2299
15	-2300
▁塊	-2301
▁诉	-2302
▁坊	-2303
▁1987	-2304
▁仿	-2305
▁蓝	-2306
▁阮	-2307
▁1984	-2308
▁茂	-2309
▁叔	-2310
▁扬	-2311
▁紧	-2312
ob	-2313
▁偉	-2314
▁疏	-2315
▁溶	-2316
▁亭	-2317
▁愿	-2318
ows	-2319
▁鋼	-2320
▁刚	-2321
▁霸	-2322
▁48	-2323
▁轴	-2324
▁42	-2325
▁箱	-2326
▁巧	-2327
▁逢	-2328
▁穩	-2329
up	-2330
▁妃	-2331
▁尉	-2332
▁扮	-2333
▁岳	-2334
▁耀	-2335
▁舒	-2336
▁剂	-2337
▁勃	-2338
▁閣	-2339
▁既	-2340
▁焦	-2341
▁邻	-2342
ok	-2343
▁串	-2344
▁顾	-2345
▁僧	-2346
▁坏	-2347
▁砲	-2348
▁郊	-2349
▁契	-2350
▁捐	-2351
▁盐	-2352
▁綜	-2353
▁185	-2354
▁衰	-2355
▁1983	-2356
▁靜	-2357
▁75	-2358
na	-2359
▁46	-2360
▁买	-2361
▁券	-2362
▁1982	-2363
▁蔣	-2364
▁驅	-2365
und	-2366
▁閉	-2367
▁辭	-2368
▁荒	-2369
▁43	-2370
▁礎	-2371
ell	-2372
▁碳	-2373
▁彰	-2374
▁迴	-2375
▁针	-2376
▁搬	-2377
▁潛	-2378
▁ap	-2379
▁吕	-2380
ice	-2381
▁横	-2382
▁誉	-2383
▁铜	-2384
16	-2385
▁遜	-2386
ian	-2387
▁盾	-2388
▁譽	-2389
▁賢	-2390
▁措	-2391
▁歧	-2392
▁am	-2393
▁wind	-2394
▁床	-2395
▁贸	-2396
▁as	-2397
▁輝	-2398
▁夷	-2399
▁婦	-2400
▁订	-2401
all	-2402
▁脑	-2403
▁44	-2404
▁枝	-2405
17	-2406
▁翁	-2407
▁钢	-2408
▁丝	-2409
▁47	-2410
▁絡	-2411
▁顏	-2412
▁or	-2413
▁剩	-2414
▁浩	-2415
▁填	-2416
▁裕	-2417
▁蓮	-2418
▁湯	-2419
▁銅	-2420
▁齡	-2421
▁紙	-2422
18	-2423
35	-2424
90	-2425
▁匯	-2426
▁65	-2427
▁拳	-2428
▁课	-2429
▁64	-2430
▁驱	-2431
▁hd	-2432
▁%	-2433
▁擬	-2434
▁镜	-2435
▁壇	-2436
▁純	-2437
te	-2438
▁冊	-2439
▁赖	-2440
▁岭	-2441
▁傅	-2442
▁综	-2443
▁燈	-2444
ver	-2445
▁卜	-2446
io	-2447
▁衍	-2448
▁吾	-2449
▁1979	-2450
▁邨	-2451
▁恶	-2452
37	-2453
▁旨	-2454
▁窗	-2455
▁寨	-2456
ack	-2457
▁災	-2458
▁肥	-2459
▁欲	-2460
▁凤	-2461
▁割	-2462
▁廈	-2463
ive	-2464
▁yo	-2465
▁400	-2466
▁污	-2467
ue	-2468
▁抽	-2469
▁丈	-2470
22	-2471
▁淮	-2472
▁怒	-2473
▁邮	-2474
▁错	-2475
▁windows	-2476
▁獸	-2477
▁膜	-2478
▁con	-2479
▁迈	-2480
▁误	-2481
▁阴	-2482
▁1978	-2483
▁150	-2484
▁be	-2485
▁欣	-2486
14	-2487
▁49	-2488
▁握	-2489
▁儘	-2490
▁180	-2491
13	-2492
▁錫	-2493
▁粹	-2494
▁狂	-2495
▁燒	-2496
▁胎	-2497
▁垂	-2498
▁at	-2499
▁儒	-2500
▁聘	-2501
▁妇	-2502
▁灌	-2503
▁覽	-2504
▁虫	-2505
▁隱	-2506
▁鸟	-2507
▁册	-2508
▁獄	-2509
▁疫	-2510
▁蝶	-2511
▁冒	-2512
▁揭	-2513
▁鋒	-2514
▁逊	-2515
▁狄	-2516
▁稿	-2517
▁殘	-2518
▁闭	-2519
igh	-2520
▁颱	-2521
▁珊	-2522
ert	-2523
▁娘	-2524
▁静	-2525
▁弃	-2526
▁呂	-2527
▁迹	-2528
▁寿	-2529
24	-2530
▁悉	-2531
▁廊	-2532
▁1981	-2533
▁駕	-2534
art	-2535
▁en	-2536
▁虛	-2537
▁se	-2538
▁耗	-2539
▁税	-2540
28	-2541
▁斜	-2542
▁陀	-2543
ph	-2544
▁孤	-2545
▁嶼	-2546
▁鯉	-2547
▁纸	-2548
▁jo	-2549
▁嶺	-2550
▁堪	-2551
▁缘	-2552
▁赢	-2553
23	-2554
▁剑	-2555
▁go	-2556
ib	-2557
▁栽	-2558
▁獵	-2559
▁稳	-2560
▁鹽	-2561
▁違	-2562
▁1946	-2563
▁沟	-2564
▁潜	-2565
▁煤	-2566
▁貌	-2567
▁憶	-2568
▁猶	-2569
▁俘	-2570
ity	-2571
▁濱	-2572
▁肃	-2573
▁粗	-2574
75	-2575
▁壤	-2576
▁fr	-2577
▁婆	-2578
▁湘	-2579
▁pr	-2580
▁&	-2581
26	-2582
▁翌	-2583
▁柔	-2584
▁贊	-2585
ge	-2586
ant	-2587
▁翠	-2588
▁拟	-2589
▁辞	-2590
sp	-2591
▁逆	-2592
▁倉	-2593
▁賀	-2594
▁灾	-2595
▁坪	-2596
▁脉	-2597
27	-2598
▁ii	-2599
▁58	-2600
▁辰	-2601
▁扶	-2602
ich	-2603
▁籃	-2604
▁绩	-2605
▁挪	-2606
▁忍	-2607
▁丙	-2608
▁璃	-2609
▁56	-2610
▁寻	-2611
▁1958	-2612
▁堆	-2613
▁阪	-2614
bs	-2615
▁潭	-2616
▁1920	-2617
▁厘	-2618
▁恰	-2619
45	-2620
▁辅	-2621
▁琉	-2622
▁籌	-2623
▁薄	-2624
▁狗	-2625
▁笔	-2626
▁ex	-2627
▁阁	-2628
▁貫	-2629
▁魂	-2630
▁慮	-2631
▁档	-2632
▁遵	-2633
▁稍	-2634
▁键	-2635
47	-2636
▁ma	-2637
▁1930	-2638
▁刷	-2639
▁叙	-2640
▁苑	-2641
38	-2642
▁储	-2643
▁吐	-2644
▁bo	-2645
▁礦	-2646
▁繞	-2647
▁癌	-2648
▁淘	-2649
▁胸	-2650
▁残	-2651
▁1940	-2652
▁陨	-2653
▁矩	-2654
▁寒	-2655
36	-2656
▁览	-2657
▁sc	-2658
▁譜	-2659
▁1937	-2660
▁憑	-2661
▁碎	-2662
▁鼻	-2663
▁兆	-2664
▁軸	-2665
▁蕭	-2666
▁歇	-2667
29	-2668
▁怖	-2669
▁ad	-2670
ong	-2671
▁押	-2672
▁pla	-2673
▁泡	-2674
▁添	-2675
▁1975	-2676
▁紋	-2677
▁註	-2678
▁鄧	-2679
▁冯	-2680
▁姬	-2681
▁惟	-2682
▁卒	-2683
▁蛛	-2684
▁鍵	-2685
▁飲	-2686
▁姚	-2687
▁涵	-2688
▁逮	-2689
▁稅	-2690
▁脊	-2691
▁屠	-2692
▁郵	-2693
▁吏	-2694
▁祀	-2695
▁芒	-2696
▁邓	-2697
▁牆	-2698
▁奎	-2699
ug	-2700
▁猪	-2701
▁1948	-2702
▁隋	-2703
▁酶	-2704
▁绘	-2705
▁狼	-2706
▁1976	-2707
▁驚	-2708
▁1956	-2709
▁醒	-2710
▁詳	-2711
▁76	-2712
uc	-2713
▁硫	-2714
▁謂	-2715
▁寸	-2716
▁偷	-2717
▁狱	-2718
ate	-2719
▁汪	-2720
▁cn	-2721
▁嫌	-2722
▁嗣	-2723
▁貓	-2724
▁跡	-2725
▁ph	-2726
▁奔	-2727
▁贈	-2728
▁獅	-2729
▁磨	-2730
▁贾	-2731
▁姻	-2732
▁纵	-2733
▁1973	-2734
▁1941	-2735
▁逼	-2736
ry	-2737
▁54	-2738
▁120	-2739
▁叉	-2740
▁犬	-2741
▁卑	-2742
▁夕	-2743
ey	-2744
▁誠	-2745
▁縱	-2746
▁绪	-2747
▁腐	-2748
▁1947	-2749
ix	-2750
▁仇	-2751
ord	-2752
bc	-2753
▁57	-2754
▁1000	-2755
▁弦	-2756
▁梦	-2757
▁猛	-2758
34	-2759
▁屈	-2760
▁劑	-2761
▁68	-2762
▁殼	-2763
▁纯	-2764
ect	-2765
95	-2766
▁誕	-2767
▁1965	-2768
▁so	-2769
▁轟	-2770
▁峡	-2771
▁烟	-2772
▁讯	-2773
▁勋	-2774
▁1972	-2775
▁颜	-2776
▁鎖	-2777
▁劫	-2778
▁勳	-2779
▁棘	-2780
▁─	-2781
▁伟	-2782
▁触	-2783
▁1955	-2784
▁1974	-2785
▁菊	-2786
▁隐	-2787
▁1966	-2788
▁雀	-2789
ort	-2790
96	-2791
▁暂	-2792
▁矛	-2793
▁粵	-2794
▁蒸	-2795
▁1952	-2796
▁祿	-2797
▁笼	-2798
▁娃	-2799
▁66	-2800
▁篮	-2801
▁薛	-2802
▁颁	-2803
▁傾	-2804
33	-2805
▁忙	-2806
▁嫁	-2807
▁凝	-2808
98	-2809
ft	-2810
▁邁	-2811
▁醇	-2812
▁敘	-2813
▁緩	-2814
▁卵	-2815
▁掘	-2816
▁奶	-2817
▁缓	-2818
▁肖	-2819
ens	-2820
▁斤	-2821
▁紛	-2822
▁峽	-2823
▁伽	-2824
▁衔	-2825
▁偵	-2826
▁碟	-2827
▁95	-2828
32	-2829
▁灯	-2830
▁鼎	-2831
ly	-2832
ain	-2833
76	-2834
▁悲	-2835
▁600	-2836
▁裏	-2837
▁銜	-2838
46	-2839
▁牵	-2840
▁85	-2841
▁1968	-2842
▁姊	-2843
▁抑	-2844
▁壘	-2845
▁賈	-2846
▁雍	-2847
▁虚	-2848
▁1964	-2849
▁厦	-2850
▁1944	-2851
▁株	-2852
▁煙	-2853
▁1938	-2854
▁嘴	-2855
▁筹	-2856
▁卖	-2857
▁1971	-2858
▁迦	-2859
▁飓	-2860
▁ac	-2861
▁1977	-2862
▁萧	-2863
▁nba	-2864
▁拼	-2865
▁氯	-2866
▁礁	-2867
▁頁	-2868
▁1959	-2869
▁肌	-2870
78	-2871
▁旬	-2872
▁曰	-2873
▁1954	-2874
39	-2875
▁祠	-2876
▁cd	-2877
▁砂	-2878
▁妙	-2879
▁汰	-2880
▁岗	-2881
▁吹	-2882
▁88	-2883
▁媽	-2884
▁敢	-2885
▁800	-2886
▁怕	-2887
▁mo	-2888
▁1969	-2889
▁稻	-2890
▁me	-2891
▁擾	-2892
▁麟	-2893
31	-2894
man	-2895
▁蒋	-2896
▁汤	-2897
▁抱	-2898
▁烧	-2899
▁1942	-2900
▁1953	-2901
44	-2902
▁儲	-2903
▁1957	-2904
▁忽	-2905
▁gr	-2906
▁jr	-2907
▁1967	-2908
▁1939	-2909
▁碧	-2910
ign	-2911
▁沖	-2912
▁袋	-2913
▁髮	-2914
▁・	-2915
▁拖	-2916
▁馮	-2917
▁’	-2918
99	-2919
▁斐	-2920
ah	-2921
▁蹈	-2922
▁1961	-2923
▁讷	-2924
▁宰	-2925
▁虑	-2926
▁鯰	-2927
▁邪	-2928
▁盜	-2929
ace	-2930
▁巫	-2931
▁硕	-2932
▁锋	-2933
▁龄	-2934
▁朴	-2935
42	-2936
▁幽	-2937
▁扁	-2938
▁詢	-2939
▁剪	-2940
▁晓	-2941
▁孕	-2942
▁尹	-2943
▁盆	-2944
▁cent	-2945
▁谱	-2946
end	-2947
▁汀	-2948
▁竟	-2949
▁翔	-2950
▁1962	-2951
▁姜	-2952
one	-2953
▁op	-2954
yst	-2955
▁丸	-2956
▁抚	-2957
▁it	-2958
▁勵	-2959
▁脚	-2960
▁甫	-2961
▁1943	-2962
▁雌	-2963
▁丞	-2964
ff	-2965
▁罰	-2966
▁貞	-2967
▁溝	-2968
▁78	-2969
92	-2970
▁抓	-2971
▁崩	-2972
▁冈	-2973
▁撫	-2974
▁辨	-2975
▁挂	-2976
▁膠	-2977
▁躍	-2978
▁he	-2979
▁緬	-2980
▁→	-2981
▁~	-2982
▁圭	-2983
65	-2984
▁1963	-2985
▁掛	-2986
▁sm	-2987
▁160	-2988
▁倡	-2989
▁讚	-2990
▁氢	-2991
▁1935	-2992
▁龜	-2993
▁吨	-2994
▁1936	-2995
▁虹	-2996
▁毅	-2997
▁魁	-2998
▁41	-2999
▁寓	-3000
▁tv	-3001
68	-3002
▁披	-3003
▁鄂	-3004
▁鍾	-3005
ies	-3006
▁滾	-3007
▁98	-3008
ore	-3009
ps	-3010
▁扣	-3011
▁胶	-3012
▁豫	-3013
▁we	-3014
ss	-3015
▁蓬	-3016
▁恭	-3017
▁汝	-3018
▁腺	-3019
▁喪	-3020
▁52	-3021
▁ng	-3022
▁51	-3023
▁ed	-3024
▁丑	-3025
▁漁	-3026
▁吧	-3027
▁邑	-3028
▁廖	-3029
▁濃	-3030
▁催	-3031
▁珀	-3032
▁飯	-3033
▁耕	-3034
▁伙	-3035
▁坛	-3036
▁蟹	-3037
41	-3038
ith	-3039
▁削	-3040
▁搖	-3041
▁吻	-3042
▁咖	-3043
▁谓	-3044
▁链	-3045
▁id	-3046
▁ro	-3047
ux	-3048
▁碩	-3049
▁陪	-3050
int	-3051
▁埋	-3052
97	-3053
▁酷	-3054
▁违	-3055
▁茅	-3056
ast	-3057
▁氨	-3058
▁寮	-3059
▁溯	-3060
▁託	-3061
▁囊	-3062
▁×	-3063
▁俠	-3064
▁脅	-3065
▁襄	-3066
ight	-3067
▁彌	-3068
▁wh	-3069
▁暖	-3070
▁蕨	-3071
▁募	-3072
▁棉	-3073
▁閱	-3074
▁巷	-3075
▁缅	-3076
▁蜂	-3077
▁姑	-3078
▁鴻	-3079
▁茵	-3080
pe	-3081
▁1951	-3082
▁暨	-3083
▁薇	-3084
▁滕	-3085
▁潔	-3086
▁淺	-3087
▁苯	-3088
▁栖	-3089
43	-3090
93	-3091
qu	-3092
▁2020	-3093
▁徹	-3094
▁漠	-3095
iz	-3096
▁噴	-3097
▁坂	-3098
▁car	-3099
ma	-3100
▁崖	-3101
▁吞	-3102
ock	-3103
▁賜	-3104
ne	-3105
▁挖	-3106
▁瓶	-3107
▁擅	-3108
▁舌	-3109
▁舟	-3110
ust	-3111
▁湿	-3112
▁1932	-3113
▁178	-3114
▁鱸	-3115
▁礙	-3116
▁邵	-3117
▁壮	-3118
▁涌	-3119
▁渠	-3120
▁bl	-3121
▁1927	-3122
▁帽	-3123
▁屍	-3124
▁忘	-3125
▁札	-3126
▁拘	-3127
▁详	-3128
▁邱	-3129
▁斥	-3130
▁驶	-3131
▁1933	-3132
▁1928	-3133
62	-3134
▁亥	-3135
▁仓	-3136
▁鲍	-3137
sh	-3138
▁蕾	-3139
▁貼	-3140
▁愈	-3141
▁耐	-3142
49	-3143
▁仕	-3144
▁卸	-3145
▁曉	-3146
▁蜜	-3147
▁喇	-3148
ond	-3149
▁页	-3150
▁67	-3151
▁驾	-3152
▁sch	-3153
▁丛	-3154
▁坝	-3155
▁雞	-3156
ire	-3157
▁椎	-3158
▁莲	-3159
▁hant	-3160
▁滩	-3161
▁琪	-3162
▁贤	-3163
▁110	-3164
▁巢	-3165
▁cl	-3166
▁毗	-3167
▁纷	-3168
▁噶	-3169
▁蒲	-3170
▁龐	-3171
▁蜀	-3172
▁彻	-3173
▁嘗	-3174
▁掠	-3175
▁矮	-3176
▁腔	-3177
▁薪	-3178
▁77	-3179
▁dv	-3180
▁1934	-3181
▁‘	-3182
▁贯	-3183
▁鸡	-3184
▁纹	-3185
▁睡	-3186
▁踏	-3187
▁磷	-3188
ick	-3189
unt	-3190
▁肺	-3191
▁齿	-3192
▁1931	-3193
▁昇	-3194
▁啡	-3195
▁淑	-3196
▁桓	-3197
▁慣	-3198
▁53	-3199
▁蹤	-3200
94	-3201
▁栗	-3202
hn	-3203
▁烯	-3204
▁筒	-3205
ii	-3206
▁稀	-3207
▁販	-3208
▁粮	-3209
▁庶	-3210
▁懸	-3211
▁cod	-3212
▁逸	-3213
▁1929	-3214
▁cr	-3215
▁帆	-3216
▁mac	-3217
▁gam	-3218
▁沪	-3219
▁摧	-3220
ial	-3221
▁铺	-3222
▁鷹	-3223
▁励	-3224
▁拱	-3225
▁冕	-3226
▁宛	-3227
▁禄	-3228
▁胺	-3229
67	-3230
▁葵	-3231
▁梵	-3232
▁藻	-3233
▁ge	-3234
▁枢	-3235
▁赠	-3236
▁惜	-3237
▁菩	-3238
▁鉴	-3239
▁遲	-3240
▁哪	-3241
▁腾	-3242
▁閩	-3243
▁inter	-3244
56	-3245
▁玲	-3246
▁鑑	-3247
▁贺	-3248
▁钦	-3249
▁悬	-3250
▁梨	-3251
▁甜	-3252
91	-3253
▁倾	-3254
▁弓	-3255
▁遞	-3256
▁1912	-3257
▁堤	-3258
son	-3259
▁恋	-3260
▁par	-3261
ber	-3262
▁碰	-3263
▁漏	-3264
▁麵	-3265
▁翅	-3266
▁銘	-3267
▁lin	-3268
▁怡	-3269
▁誓	-3270
▁铸	-3271
▁ー	-3272
▁掩	-3273
▁桐	-3274
se	-3275
▁帅	-3276
▁hr	-3277
▁700	-3278
ern	-3279
▁慎	-3280
▁穴	-3281
▁澄	-3282
▁雇	-3283
▁宴	-3284
▁冀	-3285
ment	-3286
▁润	-3287
▁瓷	-3288
ai	-3289
▁禦	-3290
▁豬	-3291
▁趕	-3292
▁诚	-3293
ure	-3294
▁赐	-3295
▁el	-3296
▁丧	-3297
▁棕	-3298
▁man	-3299
▁臂	-3300
▁ht	-3301
▁尿	-3302
▁ak	-3303
ier	-3304
▁阅	-3305
▁框	-3306
▁唇	-3307
▁赏	-3308
▁腿	-3309
az	-3310
ath	-3311
▁姿	-3312
ung	-3313
▁弄	-3314
▁杆	-3315
▁递	-3316
▁帥	-3317
71	-3318
▁ho	-3319
64	-3320
ina	-3321
▁dvd	-3322
▁us	-3323
▁桌	-3324
▁140	-3325
▁罚	-3326
▁蹟	-3327
58	-3328
▁忆	-3329
▁豹	-3330
▁wor	-3331
co	-3332
▁瘤	-3333
▁柬	-3334
▁磯	-3335
▁搶	-3336
▁疊	-3337
▁悠	-3338
▁欽	-3339
▁柄	-3340
▁禾	-3341
73	-3342
▁72	-3343
▁淨	-3344
▁鳴	-3345
66	-3346
▁褐	-3347
▁惊	-3348
▁ip	-3349
▁mv	-3350
▁new	-3351
yle	-3352
xt	-3353
▁爪	-3354
▁锁	-3355
▁1924	-3356
▁庇	-3357
▁樞	-3358
▁饮	-3359
▁dr	-3360
▁1922	-3361
▁繩	-3362
▁肢	-3363
cl	-3364
▁彥	-3365
▁慰	-3366
▁牲	-3367
▁抄	-3368
▁奠	-3369
▁1919	-3370
▁逾	-3371
72	-3372
▁my	-3373
▁av	-3374
▁霞	-3375
iss	-3376
▁mus	-3377
▁盈	-3378
▁辉	-3379
▁250	-3380
▁蝠	-3381
▁跃	-3382
▁閃	-3383
▁1925	-3384
▁130	-3385
▁猎	-3386
▁胁	-3387
86	-3388
▁娶	-3389
▁1918	-3390
▁厝	-3391
▁逻	-3392
ont	-3393
ory	-3394
▁囚	-3395
▁劣	-3396
▁center	-3397
79	-3398
▁鈴	-3399
▁1926	-3400
55	-3401
▁呎	-3402
▁沼	-3403
▁辯	-3404
▁吊	-3405
▁哀	-3406
61	-3407
▁а	-3408
▁恨	-3409
▁肝	-3410
▁診	-3411
▁殷	-3412
▁遼	-3413
▁170	-3414
▁繫	-3415
▁罷	-3416
▁潤	-3417
▁祈	-3418
▁窄	-3419
▁纲	-3420
▁1913	-3421
▁頗	-3422
53	-3423
▁‧	-3424
▁о	-3425
▁庚	-3426
▁肩	-3427
ide	-3428
▁烷	-3429
1900	-3430
so	-3431
▁john	-3432
▁妖	-3433
▁腰	-3434
▁扭	-3435
▁搞	-3436
▁凭	-3437
▁扰	-3438
▁禪	-3439
▁彦	-3440
▁遮	-3441
▁sao	-3442
▁厥	-3443
▁goog	-3444
▁ag	-3445
74	-3446
▁浸	-3447
▁诞	-3448
▁贞	-3449
▁臟	-3450
▁辟	-3451
▁google	-3452
ala	-3453
▁忌	-3454
▁汶	-3455
▁诏	-3456
▁貧	-3457
▁薦	-3458
▁腓	-3459
▁1914	-3460
85	-3461
ld	-3462
▁嵌	-3463
▁59	-3464
▁62	-3465
▁氟	-3466
▁猜	-3467
▁瑜	-3468
▁喷	-3469
▁の	-3470
▁贫	-3471
aw	-3472
69	-3473
▁霧	-3474
▁99	-3475
▁滋	-3476
▁ser	-3477
▁壯	-3478
▁po	-3479
▁秩	-3480
▁辩	-3481
▁朵	-3482
▁跌	-3483
ube	-3484
▁灘	-3485
▁砖	-3486
▁no	-3487
▁勸	-3488
51	-3489
▁攜	-3490
▁凰	-3491
▁韻	-3492
▁趨	-3493
▁61	-3494
▁qu	-3495
age	-3496
▁掃	-3497
▁1923	-3498
▁em	-3499
▁怎	-3500
▁祐	-3501
▁賦	-3502
▁兽	-3503
▁埠	-3504
▁摇	-3505
▁盗	-3506
▁lov	-3507
▁询	-3508
63	-3509
▁兔	-3510
▁comp	-3511
▁扇	-3512
▁亩	-3513
▁炭	-3514
▁昔	-3515
▁1921	-3516
▁*	-3517
▁娱	-3518
▁鐸	-3519
▁3000	-3520
▁芭	-3521
▁1917	-3522
▁棟	-3523
▁1911	-3524
▁鯨	-3525
▁嫩	-3526
▁阔	-3527
▁償	-3528
▁ist	-3529
▁$	-3530
▁糧	-3531
▁肇	-3532
▁63	-3533
▁back	-3534
77	-3535
ish	-3536
59	-3537
▁挺	-3538
▁轰	-3539
▁椅	-3540
88	-3541
▁style	-3542
▁捉	-3543
ary	-3544
ite	-3545
▁夥	-3546
▁庸	-3547
▁69	-3548
▁擺	-3549
▁鞋	-3550
▁ン	-3551
▁猫	-3552
ep	-3553
▁α	-3554
▁庞	-3555
▁槽	-3556
▁禧	-3557
52	-3558
▁壳	-3559
▁酮	-3560
▁眉	-3561
▁趁	-3562
▁伪	-3563
▁蓄	-3564
▁裸	-3565
▁戌	-3566
▁鮑	-3567
▁駁	-3568
▁眠	-3569
▁桿	-3570
au	-3571
▁赶	-3572
▁擦	-3573
▁荃	-3574
ational	-3575
▁歉	-3576
ton	-3577
▁稣	-3578
round	-3579
▁欄	-3580
▁爬	-3581
57	-3582
▁債	-3583
▁蜥	-3584
▁彎	-3585
▁焚	-3586
▁芙	-3587
lar	-3588
▁臀	-3589
ass	-3590
▁瑚	-3591
▁fo	-3592
▁寇	-3593
▁踪	-3594
ans	-3595
▁茄	-3596
ach	-3597
anc	-3598
▁蕃	-3599
ile	-3600
▁跋	-3601
▁佑	-3602
▁猴	-3603
▁郁	-3604
▁鸿	-3605
▁橡	-3606
▁codice	-3607
54	-3608
▁噸	-3609
▁弥	-3610
span	-3611
▁琼	-3612
▁colspan	-3613
ank	-3614
▁氫	-3615
▁sk	-3616
▁ab	-3617
mm	-3618
▁sup	-3619
▁app	-3620
▁net	-3621
▁攀	-3622
▁勁	-3623
▁坤	-3624
▁晴	-3625
▁浓	-3626
▁闊	-3627
▁74	-3628
▁喻	-3629
▁崙	-3630
▁er	-3631
▁赋	-3632
▁贴	-3633
ann	-3634
▁塌	-3635
▁met	-3636
▁夸	-3637
▁dna	-3638
▁臉	-3639
▁per	-3640
▁醉	-3641
▁滚	-3642
▁肅	-3643
▁勘	-3644
▁欠	-3645
▁鹰	-3646
▁istat	-3647
▁履	-3648
▁怨	-3649
▁爺	-3650
▁km	-3651
▁迟	-3652
▁all	-3653
▁旱	-3654
ime	-3655
▁椒	-3656
▁昏	-3657
▁璋	-3658
▁斬	-3659
▁涂	-3660
▁厢	-3661
▁廂	-3662
▁戊	-3663
▁荐	-3664
▁鶴	-3665
▁闽	-3666
yn	-3667
▁橄	-3668
▁bar	-3669
▁尝	-3670
▁悟	-3671
▁濕	-3672
▁浅	-3673
▁喝	-3674
▁譚	-3675
▁do	-3676
▁惯	-3677
▁碍	-3678
ium	-3679
83	-3680
▁偽	-3681
▁罢	-3682
▁渔	-3683
▁73	-3684
ta	-3685
▁sil	-3686
87	-3687
▁尸	-3688
▁氮	-3689
▁踢	-3690
old	-3691
▁mic	-3692
▁侨	-3693
▁牽	-3694
▁и	-3695
▁鱗	-3696
▁1910	-3697
▁yout	-3698
▁one	-3699
▁漂	-3700
▁鞍	-3701
uk	-3702
land	-3703
▁1909	-3704
▁1900	-3705
▁仑	-3706
▁帖	-3707
▁爸	-3708
▁鱷	-3709
▁101	-3710
▁躲	-3711
▁饭	-3712
▁狹	-3713
▁矢	-3714
▁帳	-3715
▁净	-3716
▁旭	-3717
▁睛	-3718
▁斌	-3719
▁栏	-3720
▁櫻	-3721
▁鬆	-3722
▁lo	-3723
▁謙	-3724
▁禅	-3725
▁抢	-3726
pr	-3727
▁淳	-3728
iel	-3729
▁#	-3730
▁匠	-3731
▁澎	-3732
are	-3733
ica	-3734
▁im	-3735
▁艙	-3736
▁96	-3737
▁pc	-3738
▁痕	-3739
amp	-3740
▁now	-3741
▁蘋	-3742
ts	-3743
▁諮	-3744
▁詔	-3745
▁罩	-3746
▁狐	-3747
▁瓊	-3748
▁1905	-3749
82	-3750
▁缸	-3751
▁86	-3752
▁71	-3753
▁凸	-3754
me	-3755
ction	-3756
▁摔	-3757
▁軒	-3758
▁裴	-3759
▁fre	-3760
▁屿	-3761
▁竣	-3762
▁鑽	-3763
▁bd	-3764
ground	-3765
▁align	-3766
▁哺	-3767
▁辱	-3768
▁撥	-3769
▁爐	-3770
▁82	-3771
▁阜	-3772
▁es	-3773
▁匣	-3774
▁咒	-3775
▁榴	-3776
▁炳	-3777
▁鏈	-3778
▁匪	-3779
▁81	-3780
89	-3781
▁碱	-3782
▁狮	-3783
▁糕	-3784
▁齋	-3785
▁ngc	-3786
▁聰	-3787
▁ste	-3788
▁绥	-3789
▁霖	-3790
▁頸	-3791
▁盒	-3792
▁慘	-3793
▁畜	-3794
▁邏	-3795
▁cor	-3796
▁漆	-3797
▁妥	-3798
ae	-3799
per	-3800
▁pl	-3801
ical	-3802
81	-3803
▁勾	-3804
▁閘	-3805
84	-3806
▁煌	-3807
▁1901	-3808
▁凉	-3809
▁87	-3810
ck	-3811
▁os	-3812
▁喉	-3813
tv	-3814
▁pe	-3815
ys	-3816
▁腸	-3817
▁酯	-3818
▁84	-3819
▁戚	-3820
▁糊	-3821
▁ps	-3822
▁塗	-3823
▁穗	-3824
▁background	-3825
▁僚	-3826
▁熔	-3827
▁扫	-3828
▁夾	-3829
▁900	-3830
▁劝	-3831
▁徙	-3832
▁嘛	-3833
▁酋	-3834
▁鴨	-3835
ence	-3836
▁趋	-3837
▁83	-3838
▁騰	-3839
▁憂	-3840
▁棚	-3841
▁辣	-3842
▁遙	-3843
▁携	-3844
▁淵	-3845
▁虐	-3846
ivers	-3847
▁嬰	-3848
▁拯	-3849
ash	-3850
▁菱	-3851
▁颇	-3852
▁廿	-3853
ance	-3854
▁欺	-3855
▁陝	-3856
▁漳	-3857
▁虞	-3858
▁nh	-3859
▁盲	-3860
ase	-3861
▁賭	-3862
▁麓	-3863
▁sn	-3864
▁捲	-3865
▁color	-3866
▁賊	-3867
▁1916	-3868
ram	-3869
▁cp	-3870
▁1915	-3871
▁笛	-3872
▁奸	-3873
▁洁	-3874
▁浴	-3875
▁秉	-3876
for	-3877
▁黛	-3878
▁涼	-3879
▁gre	-3880
ley	-3881
▁寵	-3882
▁梭	-3883
▁瞄	-3884
▁侶	-3885
▁胆	-3886
▁will	-3887
cc	-3888
iki	-3889
▁05	-3890
▁窮	-3891
▁欖	-3892
▁畏	-3893
▁鹤	-3894
▁庵	-3895
▁鋪	-3896
ere	-3897
▁崗	-3898
▁love	-3899
▁棠	-3900
▁穌	-3901
▁堵	-3902
▁linux	-3903
▁粤	-3904
▁侦	-3905
▁朔	-3906
▁矶	-3907
▁纤	-3908
ool	-3909
▁79	-3910
▁97	-3911
▁mod	-3912
▁垣	-3913
we	-3914
iam	-3915
▁1903	-3916
▁彗	-3917
▁蛙	-3918
▁1500	-3919
▁荆	-3920
▁fl	-3921
▁1906	-3922
▁н	-3923
▁誘	-3924
▁92	-3925
▁pa	-3926
▁悼	-3927
▁youtube	-3928
▁い	-3929
▁ep	-3930
▁侠	-3931
▁哭	-3932
▁蛤	-3933
▁瑙	-3934
net	-3935
▁蝙	-3936
own	-3937
5%	-3938
▁翡	-3939
book	-3940
▁僑	-3941
▁mat	-3942
▁駿	-3943
use	-3944
ri	-3945
▁凹	-3946
▁幢	-3947
▁瑰	-3948
▁螢	-3949
▁gro	-3950
▁int	-3951
▁棍	-3952
▁铭	-3953
▁寅	-3954
▁cla	-3955
▁擋	-3956
▁弧	-3957
▁text	-3958
▁憤	-3959
act	-3960
▁偿	-3961
▁脏	-3962
▁岐	-3963
▁gen	-3964
ho	-3965
▁牟	-3966
▁live	-3967
▁氛	-3968
▁á	-3969
ome	-3970
▁91	-3971
▁橙	-3972
▁playst	-3973
▁鸣	-3974
arl	-3975
▁閒	-3976
eng	-3977
▁des	-3978
▁playstation	-3979
▁舱	-3980
▁rob	-3981
▁窟	-3982
▁黏	-3983
▁е	-3984
▁墳	-3985
▁1908	-3986
▁噪	-3987
▁鯛	-3988
▁105	-3989
▁ind	-3990
▁06	-3991
▁89	-3992
▁膨	-3993
▁ty	-3994
▁micro	-3995
▁楠	-3996
▁1904	-3997
▁乞	-3998
▁叠	-3999
▁暢	-4000
▁ic	-4001
▁you	-4002
▁迄	-4003
▁min	-4004
▁奮	-4005
▁穷	-4006
▁蝦	-4007
▁彬	-4008
▁玫	-4009
▁貪	-4010
▁咀	-4011
▁med	-4012
▁湛	-4013
▁狭	-4014
▁gu	-4015
▁孜	-4016
▁粘	-4017
▁dav	-4018
▁冥	-4019
▁塵	-4020
▁诊	-4021
lat	-4022
▁5000	-4023
ga	-4024
ve	-4025
▁焰	-4026
▁债	-4027
▁潰	-4028
▁燥	-4029
▁冶	-4030
tp	-4031
▁戎	-4032
▁纬	-4033
ara	-4034
ild	-4035
▁silver	-4036
▁牢	-4037
▁瓣	-4038
▁膚	-4039
▁壬	-4040
▁禹	-4041
▁撲	-4042
▁夹	-4043
▁銳	-4044
va	-4045
▁肆	-4046
▁univers	-4047
▁惑	-4048
▁mag	-4049
▁mon	-4050
▁杏	-4051
▁荊	-4052
▁汕	-4053
▁簧	-4054
ict	-4055
▁滴	-4056
▁劾	-4057
▁繳	-4058
▁膽	-4059
▁橘	-4060
▁ut	-4061
▁喊	-4062
ult	-4063
▁res	-4064
▁卧	-4065
▁樑	-4066
▁360	-4067
▁硝	-4068
▁誰	-4069
▁09	-4070
▁隙	-4071
▁籲	-4072
▁谭	-4073
▁韶	-4074
▁94	-4075
▁with	-4076
pl	-4077
▁垃	-4078
▁摆	-4079
▁誼	-4080
▁剿	-4081
▁惨	-4082
▁涛	-4083
▁頃	-4084
▁匿	-4085
▁娅	-4086
ise	-4087
▁禎	-4088
▁邸	-4089
▁綁	-4090
hel	-4091
▁瀑	-4092
▁芽	-4093
▁蘿	-4094
▁by	-4095
▁music	-4096
▁汁	-4097
▁碘	-4098
▁塚	-4099
▁韵	-4100
▁赦	-4101
▁餅	-4102
ale	-4103
▁bro	-4104
▁β	-4105
▁懿	-4106
▁淹	-4107
▁輩	-4108
▁磅	-4109
▁辐	-4110
▁颶	-4111
▁1907	-4112
ms	-4113
▁圾	-4114
▁rec	-4115
▁chr	-4116
▁93	-4117
▁傘	-4118
▁蔽	-4119
▁р	-4120
▁胃	-4121
▁摘	-4122
▁懂	-4123
▁纂	-4124
▁鎊	-4125
▁su	-4126
ower	-4127
▁world	-4128
▁酬	-4129
▁iii	-4130
mb	-4131
▁懼	-4132
▁fe	-4133
▁super	-4134
ml	-4135
▁頌	-4136
▁can	-4137
▁泄	-4138
▁face	-4139
▁air	-4140
km	-4141
▁拋	-4142
▁籤	-4143
▁炉	-4144
▁1902	-4145
▁с	-4146
▁荡	-4147
urn	-4148
af	-4149
▁酵	-4150
ose	-4151
▁寂	-4152
▁寡	-4153
▁彙	-4154
▁筋	-4155
▁稽	-4156
▁梓	-4157
▁纖	-4158
ade	-4159
▁泌	-4160
▁詠	-4161
▁har	-4162
▁倪	-4163
▁酰	-4164
▁顷	-4165
▁騙	-4166
▁ent	-4167
▁奕	-4168
▁癸	-4169
▁count	-4170
▁伺	-4171
▁櫃	-4172
▁ん	-4173
▁墩	-4174
▁01	-4175
▁凶	-4176
▁穎	-4177
▁mm	-4178
▁渊	-4179
ony	-4180
▁ü	-4181
▁桶	-4182
▁炼	-4183
▁gl	-4184
▁侄	-4185
ins	-4186
▁狩	-4187
▁鵝	-4188
itt	-4189
▁ir	-4190
▁沛	-4191
lex	-4192
rom	-4193
ee	-4194
▁曝	-4195
▁呢	-4196
▁諡	-4197
ata	-4198
▁ms	-4199
▁350	-4200
▁宦	-4201
▁頜	-4202
ana	-4203
ork	-4204
▁07	-4205
▁煮	-4206
▁stud	-4207
▁窑	-4208
▁芯	-4209
▁訟	-4210
▁墜	-4211
▁峻	-4212
▁斋	-4213
▁滇	-4214
gb	-4215
ha	-4216
▁】	-4217
▁孚	-4218
olog	-4219
▁剌	-4220
▁闪	-4221
▁践	-4222
ame	-4223
▁akb	-4224
▁叢	-4225
▁绵	-4226
▁1895	-4227
▁school	-4228
ca	-4229
▁【	-4230
▁08	-4231
▁淚	-4232
▁謠	-4233
▁鞭	-4234
▁栋	-4235
▁貸	-4236
▁闸	-4237
ink	-4238
▁嫡	-4239
▁萌	-4240
▁傲	-4241
▁啤	-4242
▁煉	-4243
▁禍	-4244
der	-4245
▁her	-4246
▁奋	-4247
▁殉	-4248
▁瀨	-4249
▁鑼	-4250
▁仗	-4251
▁荔	-4252
▁pet	-4253
▁畿	-4254
▁俞	-4255
▁萍	-4256
▁拾	-4257
▁т	-4258
▁彝	-4259
oth	-4260
▁ib	-4261
▁榆	-4262
▁bla	-4263
box	-4264
▁墅	-4265
▁屢	-4266
▁悅	-4267
▁竭	-4268
▁饶	-4269
▁勉	-4270
▁う	-4271
▁ua	-4272
▁淫	-4273
▁啦	-4274
▁赣	-4275
▁雁	-4276
▁敖	-4277
▁綿	-4278
▁蓉	-4279
▁妓	-4280
▁嵩	-4281
▁茹	-4282
enn	-4283
▁廚	-4284
▁彪	-4285
▁烤	-4286
▁锐	-4287
du	-4288
▁暑	-4289
▁mc	-4290
tr	-4291
▁罐	-4292
▁裹	-4293
▁104	-4294
▁兇	-4295
▁肪	-4296
▁1898	-4297
▁喚	-4298
▁淋	-4299
▁af	-4300
soft	-4301
▁蹄	-4302
▁岑	-4303
▁蝕	-4304
ke	-4305
▁star	-4306
ax	-4307
▁樟	-4308
▁谊	-4309
▁豚	-4310
▁谥	-4311
▁砍	-4312
▁耿	-4313
roid	-4314
▁稚	-4315
▁肠	-4316
▁衷	-4317
▁僱	-4318
▁悔	-4319
▁粟	-4320
▁纺	-4321
▁web	-4322
▁乒	-4323
▁糾	-4324
1%	-4325
▁仆	-4326
▁sw	-4327
▁sur	-4328
▁ver	-4329
ystem	-4330
▁渦	-4331
▁je	-4332
lo	-4333
▁钻	-4334
▁鵬	-4335
▁挽	-4336
▁蘆	-4337
▁趾	-4338
3%	-4339
6%	-4340
mer	-4341
4%	-4342
▁婉	-4343
▁舜	-4344
▁di	-4345
▁墟	-4346
▁骸	-4347
▁鳞	-4348
▁鸦	-4349
▁刪	-4350
▁晰	-4351
▁舅	-4352
▁闲	-4353
▁鹏	-4354
oci	-4355
▁dc	-4356
▁facebook	-4357
de	-4358
▁敷	-4359
▁締	-4360
▁108	-4361
▁苹	-4362
▁蔚	-4363
▁up	-4364
▁nor	-4365
▁part	-4366
▁羌	-4367
▁肿	-4368
▁骚	-4369
ude	-4370
br	-4371
▁琦	-4372
▁ass	-4373
▁狸	-4374
▁砌	-4375
uth	-4376
2%	-4377
▁衙	-4378
▁bbc	-4379
▁※	-4380
▁咨	-4381
▁弼	-4382
▁匡	-4383
▁騷	-4384
▁祇	-4385
▁哇	-4386
▁聊	-4387
▁し	-4388
▁拨	-4389
▁ref	-4390
▁弊	-4391
▁魅	-4392
ual	-4393
7%	-4394
irl	-4395
ler	-4396
▁04	-4397
▁凍	-4398
▁牡	-4399
▁瘋	-4400
orn	-4401
▁mark	-4402
▁愚	-4403
ics	-4404
▁淀	-4405
▁臭	-4406
▁ra	-4407
ius	-4408
▁4000	-4409
▁磚	-4410
▁舖	-4411
▁扑	-4412
ode	-4413
▁剖	-4414
▁禽	-4415
▁颠	-4416
cr	-4417
▁吁	-4418
▁ev	-4419
▁sd	-4420
▁碗	-4421
▁芦	-4422
yl	-4423
▁厭	-4424
▁1890	-4425
ane	-4426
▁jav	-4427
▁в	-4428
▁ö	-4429
▁籠	-4430
▁諧	-4431
be	-4432
▁钠	-4433
▁android	-4434
▁擠	-4435
▁硅	-4436
▁哩	-4437
▁删	-4438
▁垒	-4439
▁罹	-4440
▁茎	-4441
icon	-4442
ille	-4443
▁220	-4444
hz	-4445
▁125	-4446
▁pol	-4447
▁窩	-4448
▁蜘	-4449
▁烹	-4450
▁诱	-4451
▁賠	-4452
ood	-4453
ward	-4454
▁str	-4455
▁system	-4456
▁愉	-4457
▁苔	-4458
▁jam	-4459
▁炒	-4460
▁106	-4461
▁僕	-4462
▁吋	-4463
▁爛	-4464
▁茜	-4465
▁red	-4466
da	-4467
▁樊	-4468
▁莞	-4469
▁102	-4470
▁擒	-4471
▁紳	-4472
▁迭	-4473
9%	-4474
▁ス	-4475
▁哨	-4476
▁擲	-4477
▁胤	-4478
▁顛	-4479
▁103	-4480
▁濫	-4481
▁02	-4482
▁li	-4483
8%	-4484
▁厲	-4485
▁扳	-4486
▁爽	-4487
▁腎	-4488
sa	-4489
▁蔓	-4490
▁闖	-4491
▁薯	-4492
▁郝	-4493
▁鮋	-4494
▁咬	-4495
▁渭	-4496
▁inst	-4497
▁墾	-4498
▁膀	-4499
▁谦	-4500
▁檀	-4501
▁蔬	-4502
dp	-4503
▁microsoft	-4504
▁娥	-4505
▁溃	-4506
▁饼	-4507
▁et	-4508
▁倭	-4509
▁猿	-4510
▁懲	-4511
▁纠	-4512
▁绑	-4513
▁dis	-4514
▁岱	-4515
▁諷	-4516
pt	-4517
▁滤	-4518
▁gn	-4519
▁蚀	-4520
▁ele	-4521
▁′	-4522
▁イ	-4523
▁鹅	-4524
▁敲	-4525
illa	-4526
▁high	-4527
▁穀	-4528
att	-4529
▁nhk	-4530
▁1200	-4531
▁壩	-4532
▁1896	-4533
ald	-4534
▁皖	-4535
▁莖	-4536
asa	-4537
▁not	-4538
▁•	-4539
▁剥	-4540
▁濾	-4541
ited	-4542
▁斩	-4543
▁渤	-4544
▁謹	-4545
▁鱂	-4546
uch	-4547
ject	-4548
▁沁	-4549
▁浏	-4550
▁犁	-4551
▁狙	-4552
▁ss	-4553
▁ā	-4554
▁廓	-4555
▁梧	-4556
▁猩	-4557
▁淆	-4558
▁鹃	-4559
▁嘎	-4560
▁擢	-4561
▁汐	-4562
▁贷	-4563
▁1897	-4564
▁俯	-4565
▁蕉	-4566
▁庐	-4567
▁檐	-4568
▁畅	-4569
▁del	-4570
▁胚	-4571
▁輿	-4572
ement	-4573
▁intern	-4574
ien	-4575
gr	-4576
▁team	-4577
▁壹	-4578
ugh	-4579
▁che	-4580
▁か	-4581
▁孢	-4582
▁崛	-4583
▁毓	-4584
▁鴉	-4585
▁臥	-4586
▁瞬	-4587
ike	-4588
▁宵	-4589
▁tvb	-4590
▁play	-4591
▁暹	-4592
▁hy	-4593
▁丟	-4594
▁喙	-4595
▁缝	-4596
▁祁	-4597
▁虏	-4598
▁鰻	-4599
▁驳	-4600
▁off	-4601
▁挫	-4602
▁犀	-4603
ave	-4604
▁妈	-4605
▁歼	-4606
▁甄	-4607
▁褒	-4608
▁乓	-4609
▁蔭	-4610
▁í	-4611
▁堯	-4612
▁谐	-4613
▁抬	-4614
▁盔	-4615
▁saint	-4616
▁棱	-4617
▁釜	-4618
▁陇	-4619
▁ter	-4620
▁war	-4621
▁榕	-4622
▁div	-4623
▁霜	-4624
01	-4625
▁縫	-4626
▁sec	-4627
▁弯	-4628
▁杖	-4629
▁鬚	-4630
▁坞	-4631
ream	-4632
▁107	-4633
▁腫	-4634
▁谁	-4635
▁mr	-4636
▁girl	-4637
▁nowiki	-4638
▁к	-4639
▁舶	-4640
▁william	-4641
▁塢	-4642
▁婴	-4643
▁膛	-4644
▁貶	-4645
▁pre	-4646
▁1899	-4647
▁group	-4648
▁眷	-4649
▁邢	-4650
▁鑄	-4651
ition	-4652
▁遥	-4653
aster	-4654
▁cont	-4655
pm	-4656
▁邯	-4657
oph	-4658
▁115	-4659
▁媛	-4660
▁脆	-4661
▁锅	-4662
cm	-4663
▁疼	-4664
▁鸭	-4665
▁iv	-4666
▁卯	-4667
▁渝	-4668
▁湧	-4669
▁醛	-4670
▁忧	-4671
▁苷	-4672
▁鍋	-4673
▁ke	-4674
▁婷	-4675
▁沫	-4676
▁colle	-4677
▁ó	-4678
▁л	-4679
▁ル	-4680
▁漿	-4681
urg	-4682
▁128	-4683
ds	-4684
▁愤	-4685
▁梗	-4686
▁睿	-4687
▁university	-4688
▁溥	-4689
able	-4690
▁david	-4691
sk	-4692
▁楷	-4693
▁樸	-4694
▁た	-4695
▁潟	-4696
▁醬	-4697
oss	-4698
▁val	-4699
▁雯	-4700
▁da	-4701
▁iso	-4702
▁尧	-4703
▁沂	-4704
▁肤	-4705
▁沧	-4706
▁琅	-4707
▁颈	-4708
ake	-4709
▁抹	-4710
▁踐	-4711
▁篤	-4712
ino	-4713
▁肚	-4714
▁莽	-4715
▁1889	-4716
▁聪	-4717
▁虜	-4718
▁袍	-4719
▁贬	-4720
▁鬱	-4721
eth	-4722
▁妾	-4723
▁峙	-4724
▁鑲	-4725
▁1860	-4726
▁棺	-4727
iro	-4728
to	-4729
▁脸	-4730
▁鯊	-4731
▁are	-4732
▁罵	-4733
ene	-4734
▁蒼	-4735
ero	-4736
▁撐	-4737
▁蕊	-4738
▁匾	-4739
▁裙	-4740
▁髓	-4741
ner	-4742
▁450	-4743
▁50%	-4744
▁傍	-4745
fl	-4746
▁xbox	-4747
▁international	-4748
▁嚇	-4749
▁颖	-4750
▁christ	-4751
▁惹	-4752
▁疲	-4753
▁comm	-4754
dr	-4755
▁宠	-4756
ear	-4757
▁泗	-4758
▁磡	-4759
▁虔	-4760
▁蝴	-4761
▁颂	-4762
▁飼	-4763
ham	-4764
▁111	-4765
▁抛	-4766
▁瑶	-4767
▁ig	-4768
▁cap	-4769
▁巾	-4770
▁晤	-4771
▁瞭	-4772
uro	-4773
ings	-4774
▁婿	-4775
▁舆	-4776
▁账	-4777
▁錐	-4778
▁脹	-4779
▁釣	-4780
▁隕	-4781
ico	-4782
rit	-4783
05	-4784
▁贪	-4785
▁ca	-4786
pa	-4787
▁祺	-4788
▁show	-4789
▁讼	-4790
▁è	-4791
▁109	-4792
▁act	-4793
▁bas	-4794
▁1894	-4795
▁勿	-4796
▁槟	-4797
▁説	-4798
▁art	-4799
lay	-4800
▁涡	-4801
▁tech	-4802
▁攔	-4803
▁缴	-4804
▁饒	-4805
▁龟	-4806
▁啊	-4807
▁胀	-4808
▁倖	-4809
▁您	-4810
▁闢	-4811
▁黔	-4812
▁game	-4813
▁笠	-4814
▁赔	-4815
▁顱	-4816
▁嗎	-4817
▁渣	-4818
▁1800	-4819
▁璧	-4820
▁鬧	-4821
▁112	-4822
vel	-4823
▁簿	-4824
▁绳	-4825
oo	-4826
▁膝	-4827
▁阎	-4828
▁robert	-4829
▁ラ	-4830
▁03	-4831
▁ta	-4832
▁240	-4833
▁蚌	-4834
▁铃	-4835
ek	-4836
▁侏	-4837
▁紮	-4838
▁酉	-4839
way	-4840
▁county	-4841
▁卦	-4842
▁濁	-4843
▁矣	-4844
▁阀	-4845
▁na	-4846
▁1880	-4847
▁疇	-4848
▁铅	-4849
▁bu	-4850
port	-4851
▁10%	-4852
▁mich	-4853
▁that	-4854
▁咪	-4855
▁118	-4856
▁敕	-4857
▁辜	-4858
▁ang	-4859
▁冤	-4860
▁犧	-4861
ari	-4862
▁kn	-4863
▁剝	-4864
▁帐	-4865
▁枯	-4866
iver	-4867
▁蒿	-4868
▁詮	-4869
▁幌	-4870
ons	-4871
▁bm	-4872
▁vi	-4873
▁mer	-4874
▁惧	-4875
▁肋	-4876
▁was	-4877
▁type	-4878
▁浑	-4879
▁煩	-4880
▁芜	-4881
▁醜	-4882
▁ol	-4883
▁cro	-4884
▁聂	-4885
ubl	-4886
▁cy	-4887
▁ec	-4888
▁厉	-4889
▁堀	-4890
▁贿	-4891
▁铝	-4892
▁open	-4893
▁渴	-4894
▁睦	-4895
▁詐	-4896
ute	-4897
▁晃	-4898
ael	-4899
oll	-4900
▁210	-4901
▁贼	-4902
▁reg	-4903
▁geor	-4904
▁paul	-4905
▁time	-4906
▁ä	-4907
▁伞	-4908
▁汾	-4909
▁飽	-4910
sc	-4911
▁と	-4912
▁wal	-4913
▁1600	-4914
▁屡	-4915
▁膏	-4916
ese	-4917
▁cm	-4918
▁fa	-4919
▁浆	-4920
▁濤	-4921
▁糟	-4922
by	-4923
▁讽	-4924
work	-4925
▁eng	-4926
▁lim	-4927
▁mor	-4928
▁岬	-4929
▁掀	-4930
▁溢	-4931
▁漲	-4932
▁慌	-4933
let	-4934
▁day	-4935
▁纏	-4936
▁苻	-4937
▁骗	-4938
▁鱈	-4939
ott	-4940
▁park	-4941
▁悦	-4942
▁釀	-4943
ark	-4944
▁挝	-4945
▁墮	-4946
▁1885	-4947
▁rich	-4948
▁塾	-4949
▁钩	-4950
▁155	-4951
po	-4952
▁113	-4953
▁135	-4954
▁big	-4955
▁羚	-4956
▁巩	-4957
▁苍	-4958
▁6000	-4959
▁ト	-4960
▁枫	-4961
era	-4962
▁sam	-4963
▁sol	-4964
▁謎	-4965
▁闆	-4966
▁ios	-4967
▁兜	-4968
▁撑	-4969
▁菁	-4970
▁fin	-4971
▁games	-4972
▁produ	-4973
▁衫	-4974
▁闵	-4975
▁ha	-4976
▁http	-4977
▁吟	-4978
▁峨	-4979
▁涨	-4980
▁肾	-4981
▁amer	-4982
sm	-4983
▁瘦	-4984
▁蠻	-4985
▁谣	-4986
enc	-4987
▁rad	-4988
▁祯	-4989
uck	-4990
▁ce	-4991
▁power	-4992
▁洽	-4993
▁绒	-4994
▁耆	-4995
▁蟻	-4996
▁max	-4997
▁1870	-4998
fo	-4999
▁晏	-5000
▁橢	-5001
▁溉	-5002
▁city	-5003
▁μ	-5004
▁嘲	-5005
▁瀏	-5006
▁竺	-5007
▁譴	-5008
ena	-5009
03	-5010
▁坠	-5011
▁泵	-5012
ett	-5013
▁pat	-5014
▁top	-5015
▁牺	-5016
▁驟	-5017
▁cc	-5018
▁幟	-5019
▁挡	-5020
▁鉛	-5021
any	-5022
▁fir	-5023
▁tom	-5024
▁from	-5025
▁堰	-5026
▁惩	-5027
▁窝	-5028
▁羞	-5029
▁鋸	-5030
▁114	-5031
▁black	-5032
▁岔	-5033
▁pop	-5034
▁ア	-5035
▁戟	-5036
▁ur	-5037
ution	-5038
▁僵	-5039
▁諭	-5040
▁馳	-5041
▁il	-5042
▁mp	-5043
▁org	-5044
▁奢	-5045
▁淞	-5046
▁鋁	-5047
▁rp	-5048
▁磺	-5049
▁菇	-5050
▁雾	-5051
▁馨	-5052
▁麒	-5053
osh	-5054
▁fc	-5055
ull	-5056
▁national	-5057
za	-5058
▁榄	-5059
▁竊	-5060
▁菸	-5061
▁鹼	-5062
ife	-5063
ism	-5064
▁230	-5065
▁utc	-5066
▁緻	-5067
▁117	-5068
▁sim	-5069
▁紡	-5070
▁丢	-5071
▁姦	-5072
▁禱	-5073
▁charl	-5074
▁匙	-5075
▁緝	-5076
▁纜	-5077
ior	-5078
▁sl	-5079
▁sar	-5080
▁梳	-5081
▁瑛	-5082
▁皓	-5083
▁ber	-5084
go	-5085
▁丕	-5086
▁摸	-5087
▁inc	-5088
▁刃	-5089
▁妝	-5090
▁mk	-5091
▁懋	-5092
▁谴	-5093
▁20%	-5094
▁260	-5095
iy	-5096
▁侣	-5097
▁焊	-5098
▁祸	-5099
▁駒	-5100
que	-5101
▁280	-5102
▁1871	-5103
▁rock	-5104
▁楓	-5105
▁賺	-5106
▁record	-5107
▁廁	-5108
▁瀛	-5109
▁憾	-5110
▁淪	-5111
▁襪	-5112
▁鰓	-5113
ven	-5114
▁out	-5115
▁り	-5116
▁艮	-5117
ital	-5118
▁fla	-5119
▁抒	-5120
▁氰	-5121
▁鈞	-5122
▁sing	-5123
▁oricon	-5124
▁な	-5125
▁瀕	-5126
▁鸚	-5127
▁du	-5128
▁alex	-5129
▁james	-5130
▁鞏	-5131
▁vo	-5132
▁122	-5133
▁jap	-5134
ied	-5135
mun	-5136
bl	-5137
▁堊	-5138
▁捧	-5139
▁舷	-5140
▁霹	-5141
▁alb	-5142
▁佣	-5143
▁兀	-5144
▁慾	-5145
▁棵	-5146
▁胖	-5147
▁芹	-5148
▁trans	-5149
▁磐	-5150
▁紗	-5151
▁芮	-5152
▁1886	-5153
▁に	-5154
▁噬	-5155
phone	-5156
▁誦	-5157
▁vis	-5158
▁win	-5159
▁瑾	-5160
ron	-5161
▁cal	-5162
▁忒	-5163
▁class	-5164
▁暱	-5165
▁綽	-5166
▁镶	-5167
aph	-5168
▁ts	-5169
▁don	-5170
fa	-5171
▁リ	-5172
▁倚	-5173
▁琛	-5174
▁辈	-5175
▁搏	-5176
▁116	-5177
04	-5178
▁爷	-5179
▁瞻	-5180
▁kh	-5181
▁java	-5182
▁斧	-5183
▁曜	-5184
▁缀	-5185
▁羟	-5186
▁ga	-5187
▁霄	-5188
▁ko	-5189
▁vol	-5190
▁1892	-5191
▁諜	-5192
▁轩	-5193
▁酿	-5194
▁釐	-5195
osa	-5196
▁michael	-5197
▁戍	-5198
▁棣	-5199
▁骼	-5200
▁cpu	-5201
▁劲	-5202
▁埼	-5203
▁滯	-5204
rol	-5205
▁dj	-5206
▁sal	-5207
itter	-5208
▁ク	-5209
▁浚	-5210
▁鰕	-5211
▁cat	-5212
▁傭	-5213
▁sub	-5214
ex	-5215
▁腕	-5216
▁jun	-5217
ology	-5218
▁嗜	-5219
▁祂	-5220
▁聶	-5221
▁90%	-5222
▁萼	-5223
▁san	-5224
▁м	-5225
▁techn	-5226
▁煽	-5227
▁錶	-5228
▁阐	-5229
▁ww	-5230
▁129	-5231
▁king	-5232
▁thom	-5233
▁帜	-5234
▁攤	-5235
▁贩	-5236
▁cre	-5237
▁only	-5238
▁厌	-5239
▁lib	-5240
▁2500	-5241
02	-5242
▁汞	-5243
▁煥	-5244
▁盪	-5245
▁121	-5246
▁睹	-5247
▁钥	-5248
▁饥	-5249
▁ben	-5250
06	-5251
▁钧	-5252
inc	-5253
▁ا	-5254
▁衞	-5255
▁fil	-5256
▁1893	-5257
▁д	-5258
▁恪	-5259
▁芸	-5260
▁钓	-5261
app	-5262
ield	-5263
▁1888	-5264
▁挤	-5265
▁矽	-5266
▁123	-5267
ertain	-5268
08	-5269
▁〕	-5270
▁spec	-5271
mp	-5272
▁〔	-5273
▁蛮	-5274
ric	-5275
▁1887	-5276
▁茱	-5277
▁1884	-5278
▁篡	-5279
▁荀	-5280
▁賄	-5281
▁鄒	-5282
▁鑫	-5283
les	-5284
dy	-5285
▁抨	-5286
▁锥	-5287
▁閥	-5288
▁ba	-5289
▁127	-5290
▁ibm	-5291
▁敞	-5292
▁绣	-5293
form	-5294
ations	-5295
ka	-5296
▁稜	-5297
▁nt	-5298
▁750	-5299
▁唤	-5300
▁祷	-5301
▁谨	-5302
▁lt	-5303
▁177	-5304
▁arm	-5305
▁she	-5306
07	-5307
▁曙	-5308
▁枕	-5309
▁蛾	-5310
▁龚	-5311
▁mi	-5312
▁320	-5313
++	-5314
▁冻	-5315
▁谍	-5316
iff	-5317
las	-5318
▁bus	-5319
▁wat	-5320
▁1862	-5321
▁apple	-5322
▁japan	-5323
▁−	-5324
▁郸	-5325
100	-5326
▁rna	-5327
▁慨	-5328
▁溜	-5329
▁灶	-5330
▁穹	-5331
▁褲	-5332
lin	-5333
▁145	-5334
▁俸	-5335
▁栓	-5336
▁gt	-5337
▁bel	-5338
▁哉	-5339
▁蔗	-5340
ano	-5341
ump	-5342
▁tre	-5343
clude	-5344
▁1861	-5345
▁烂	-5346
▁鲸	-5347
▁mg	-5348
▁1865	-5349
▁蟾	-5350
▁饱	-5351
▁ul	-5352
▁rom	-5353
▁bill	-5354
▁逗	-5355
▁550	-5356
▁bet	-5357
▁nat	-5358
▁1850	-5359
▁胰	-5360
▁陡	-5361
▁80%	-5362
▁dan	-5363
▁gdp	-5364
▁妨	-5365
▁捍	-5366
▁澀	-5367
▁熹	-5368
press	-5369
▁捨	-5370
▁渥	-5371
▁祕	-5372
▁芥	-5373
▁cs	-5374
▁119	-5375
▁sun	-5376
▁埤	-5377
▁巳	-5378
▁靶	-5379
▁126	-5380
fc	-5381
▁у	-5382
▁帛	-5383
▁撕	-5384
▁泾	-5385
▁霆	-5386
ada	-5387
▁ef	-5388
berg	-5389
▁坟	-5390
▁650	-5391
▁ast	-5392
▁る	-5393
▁屑	-5394
▁崑	-5395
▁煞	-5396
▁窦	-5397
▁270	-5398
▁iphone	-5399
▁き	-5400
▁ま	-5401
▁洩	-5402
▁滲	-5403
▁瑤	-5404
▁蕩	-5405
▁糙	-5406
▁ds	-5407
▁oh	-5408
xy	-5409
▁魨	-5410
▁boy	-5411
▁1882	-5412
▁club	-5413
▁serv	-5414
▁unix	-5415
▁綏	-5416
ange	-5417
▁1891	-5418
▁intel	-5419
▁さ	-5420
▁黜	-5421
ral	-5422
▁124	-5423
▁133	-5424
ij	-5425
▁澜	-5426
▁昊	-5427
▁荫	-5428
▁蚤	-5429
▁鍊	-5430
urs	-5431
▁rev	-5432
▁entertain	-5433
▁溴	-5434
▁溺	-5435
▁祚	-5436
▁虧	-5437
▁蜒	-5438
▁hen	-5439
▁rem	-5440
▁1868	-5441
▁偕	-5442
▁臧	-5443
▁誅	-5444
▁靴	-5445
▁144	-5446
▁bre	-5447
▁艰	-5448
▁镑	-5449
▁霉	-5450
▁fm	-5451
▁work	-5452
▁艷	-5453
▁ve	-5454
▁entertainment	-5455
▁滥	-5456
▁缪	-5457
▁蜿	-5458
▁驰	-5459
▁hot	-5460
▁mil	-5461
▁1867	-5462
▁癒	-5463
▁kr	-5464
▁der	-5465
▁1876	-5466
▁mont	-5467
▁湊	-5468
▁莓	-5469
ors	-5470
▁炬	-5471
▁萃	-5472
▁隍	-5473
▁end	-5474
▁vir	-5475
▁house	-5476
ini	-5477
▁152	-5478
▁砸	-5479
▁苞	-5480
▁赌	-5481
▁闹	-5482
▁鲤	-5483
ated	-5484
line	-5485
▁this	-5486
▁妄	-5487
▁1875	-5488
▁first	-5489
▁楞	-5490
▁殲	-5491
▁酚	-5492
▁铎	-5493
▁137	-5494
▁fam	-5495
▁盎	-5496
ipt	-5497
urt	-5498
▁sy	-5499
▁dream	-5500
▁孵	-5501
▁豎	-5502
▁闡	-5503
ily	-5504
istr	-5505
▁330	-5506
▁van	-5507
▁best	-5508
▁project	-5509
▁彤	-5510
▁焉	-5511
▁雛	-5512
itch	-5513
▁1877	-5514
▁く	-5515
▁椭	-5516
▁箕	-5517
▁隅	-5518
▁乍	-5519
▁sr	-5520
▁175	-5521
▁曦	-5522
▁舵	-5523
▁靼	-5524
▁166	-5525
▁fire	-5526
▁free	-5527
▁堇	-5528
▁畴	-5529
▁瘟	-5530
▁if	-5531
▁30%	-5532
▁est	-5533
oro	-5534
▁154	-5535
▁line	-5536
▁垦	-5537
▁妍	-5538
▁燦	-5539
▁钾	-5540
ora	-5541
▁165	-5542
▁jack	-5543
▁stre	-5544
▁tour	-5545
▁拦	-5546
▁皋	-5547
▁麾	-5548
▁1864	-5549
bi	-5550
▁竖	-5551
▁钙	-5552
200	-5553
▁樱	-5554
▁疯	-5555
ula	-5556
uss	-5557
▁bi	-5558
▁40%	-5559
▁may	-5560
▁sky	-5561
▁1883	-5562
▁mart	-5563
▁鶯	-5564
▁1848	-5565
▁1873	-5566
▁8000	-5567
▁associ	-5568
▁俾	-5569
▁沸	-5570
▁綴	-5571
▁膳	-5572
▁薰	-5573
▁media	-5574
▁壟	-5575
▁枣	-5576
iew	-5577
▁ant	-5578
▁1881	-5579
▁埗	-5580
▁峭	-5581
▁摺	-5582
▁敛	-5583
▁皂	-5584
▁翟	-5585
▁鈕	-5586
ery	-5587
bn	-5588
▁吵	-5589
▁斡	-5590
▁晖	-5591
▁沽	-5592
▁瑩	-5593
ety	-5594
▁132	-5595
▁ann	-5596
▁mem	-5597
▁侮	-5598
led	-5599
▁潼	-5600
▁dd	-5601
09	-5602
▁〜	-5603
▁嬪	-5604
▁疹	-5605
▁硼	-5606
▁篷	-5607
▁譬	-5608
▁arch	-5609
ection	-5610
▁twitter	-5611
▁酪	-5612
▁dec	-5613
undam	-5614
▁richard	-5615
▁扔	-5616
▁諒	-5617
▁euro	-5618
▁over	-5619
▁ok	-5620
▁sg	-5621
ates	-5622
ster	-5623
▁dire	-5624
▁淇	-5625
▁烃	-5626
▁稠	-5627
ita	-5628
uis	-5629
▁les	-5630
▁gener	-5631
▁濒	-5632
▁烦	-5633
▁贖	-5634
▁閻	-5635
its	-5636
▁ram	-5637
▁1878	-5638
▁gold	-5639
▁road	-5640
wn	-5641
▁缮	-5642
▁莆	-5643
▁鑰	-5644
▁70%	-5645
▁737	-5646
▁π	-5647
▁蔷	-5648
▁陞	-5649
include	-5650
cd	-5651
▁椰	-5652
▁滬	-5653
▁艱	-5654
▁轎	-5655
ci	-5656
▁匀	-5657
▁阱	-5658
▁abc	-5659
▁娟	-5660
▁py	-5661
▁george	-5662
▁刹	-5663
▁顎	-5664
▁鵡	-5665
▁cam	-5666
▁ger	-5667
▁west	-5668
▁壺	-5669
▁笃	-5670
▁肽	-5671
▁蠟	-5672
com	-5673
▁5%	-5674
▁mel	-5675
▁ray	-5676
▁厨	-5677
▁芋	-5678
▁苣	-5679
▁蟬	-5680
▁ka	-5681
▁sir	-5682
▁刮	-5683
▁蚊	-5684
▁鈣	-5685
▁rh	-5686
▁aut	-5687
ander	-5688
▁1863	-5689
▁life	-5690
▁柑	-5691
▁洼	-5692
▁炯	-5693
▁煎	-5694
▁誇	-5695
▁gar	-5696
▁僉	-5697
▁渗	-5698
▁恕	-5699
che	-5700
ator	-5701
▁138	-5702
▁tim	-5703
▁峪	-5704
▁氦	-5705
▁滞	-5706
▁笨	-5707
▁羲	-5708
▁cv	-5709
ular	-5710
▁metac	-5711
▁鈔	-5712
ista	-5713
▁σ	-5714
▁お	-5715
▁ッ	-5716
▁吗	-5717
▁琵	-5718
▁諫	-5719
▁鎌	-5720
gin	-5721
ura	-5722
▁は	-5723
▁沐	-5724
▁镍	-5725
▁gp	-5726
▁phil	-5727
▁studio	-5728
▁records	-5729
ella	-5730
▁dem	-5731
▁ら	-5732
▁崁	-5733
▁汴	-5734
▁缔	-5735
▁苟	-5736
▁诛	-5737
▁飄	-5738
▁hol	-5739
▁娄	-5740
▁裘	-5741
▁si	-5742
▁grand	-5743
▁sport	-5744
▁п	-5745
▁シ	-5746
▁佬	-5747
▁禺	-5748
▁繹	-5749
▁萱	-5750
ani	-5751
▁136	-5752
erson	-5753
▁1874	-5754
▁1879	-5755
▁7000	-5756
▁publ	-5757
fs	-5758
▁蘊	-5759
ific	-5760
▁sum	-5761
▁good	-5762
▁hall	-5763
▁傀	-5764
▁樺	-5765
▁泣	-5766
▁炫	-5767
▁釘	-5768
▁鑒	-5769
min	-5770
▁bs	-5771
▁pd	-5772
▁wr	-5773
▁led	-5774
▁â	-5775
▁卤	-5776
▁尘	-5777
▁琶	-5778
▁绰	-5779
▁蕴	-5780
▁鹹	-5781
▁tc	-5782
ensis	-5783
ya	-5784
▁γ	-5785
▁暮	-5786
▁谕	-5787
▁adv	-5788
▁mid	-5789
▁儡	-5790
▁冉	-5791
▁悖	-5792
▁邹	-5793
ican	-5794
ision	-5795
▁1840	-5796
ky	-5797
▁陛	-5798
▁kg	-5799
▁139	-5800
▁north	-5801
▁gundam	-5802
▁こ	-5803
▁み	-5804
▁atp	-5805
▁咎	-5806
▁桅	-5807
▁淄	-5808
▁腥	-5809
▁諱	-5810
▁pi	-5811
cess	-5812
▁158	-5813
▁mtv	-5814
▁wii	-5815
ritic	-5816
▁metacritic	-5817
▁柜	-5818
▁啸	-5819
▁廬	-5820
▁擱	-5821
▁毯	-5822
▁萎	-5823
▁pal	-5824
▁port	-5825
uz	-5826
▁墊	-5827
▁檬	-5828
▁渾	-5829
▁磊	-5830
▁窃	-5831
▁骤	-5832
▁146	-5833
▁hel	-5834
▁ever	-5835
▁吡	-5836
▁鲨	-5837
▁134	-5838
▁沮	-5839
▁az	-5840
cript	-5841
▁1700	-5842
▁戮	-5843
▁醋	-5844
▁china	-5845
▁direct	-5846
▁college	-5847
▁巖	-5848
▁拷	-5849
▁衢	-5850
▁謬	-5851
▁env	-5852
▁1400	-5853
▁miss	-5854
▁垫	-5855
▁嶽	-5856
▁悄	-5857
▁绸	-5858
▁隘	-5859
▁mir	-5860
▁槐	-5861
ris	-5862
▁sony	-5863
▁franc	-5864
▁妆	-5865
▁斃	-5866
▁萝	-5867
unes	-5868
▁street	-5869
▁竇	-5870
▁鈾	-5871
ste	-5872
▁850	-5873
▁毘	-5874
▁謊	-5875
▁谏	-5876
▁鈉	-5877
gory	-5878
▁壢	-5879
▁庾	-5880
▁焕	-5881
▁蘚	-5882
▁陌	-5883
▁泼	-5884
▁虾	-5885
▁訥	-5886
por	-5887
▁毙	-5888
▁鞘	-5889
▁bab	-5890
▁inf	-5891
▁ret	-5892
▁thomas	-5893
▁δ	-5894
▁咏	-5895
▁嘻	-5896
▁垄	-5897
▁滙	-5898
▁豁	-5899
▁ah	-5900
ford	-5901
▁咽	-5902
▁掣	-5903
▁沦	-5904
▁隼	-5905
▁ju	-5906
▁153	-5907
▁sbs	-5908
▁jose	-5909
▁long	-5910
▁award	-5911
▁charles	-5912
▁侃	-5913
▁幡	-5914
▁湄	-5915
▁耦	-5916
▁餓	-5917
▁unic	-5918
▁夭	-5919
▁泪	-5920
▁淤	-5921
▁缆	-5922
▁胥	-5923
▁鉤	-5924
▁鮭	-5925
▁lee	-5926
ester	-5927
▁real	-5928
▁伶	-5929
▁倆	-5930
▁稷	-5931
▁鼬	-5932
rop	-5933
ents	-5934
ther	-5935
▁156	-5936
▁fer	-5937
ih	-5938
▁拐	-5939
▁艳	-5940
ope	-5941
▁1830	-5942
▁gala	-5943
▁て	-5944
▁濠	-5945
▁葫	-5946
▁256	-5947
▁1858	-5948
▁company	-5949
▁奚	-5950
▁驿	-5951
▁100%	-5952
▁嘆	-5953
▁繆	-5954
▁ob	-5955
▁205	-5956
▁mad	-5957
▁1872	-5958
▁啓	-5959
▁闯	-5960
ren	-5961
lation	-5962
▁girls	-5963
▁limited	-5964
ql	-5965
▁侗	-5966
▁卉	-5967
▁覓	-5968
▁駝	-5969
itz	-5970
▁168	-5971
▁nav	-5972
mo	-5973
▁あ	-5974
▁釉	-5975
▁aa	-5976
▁141	-5977
▁380	-5978
▁dom	-5979
▁1300	-5980
▁恤	-5981
▁烘	-5982
▁www	-5983
▁ジ	-5984
▁侖	-5985
▁汙	-5986
▁琰	-5987
▁畝	-5988
ker	-5989
ule	-5990
▁kbs	-5991
▁law	-5992
▁ltd	-5993
▁□	-5994
▁嘯	-5995
▁壶	-5996
▁憩	-5997
▁竿	-5998
▁纱	-5999
▁靡	-6000
▁mb	-6001
▁1869	-6002
▁office	-6003
fe	-6004
▁扯	-6005
▁瑋	-6006
▁醚	-6007
▁锌	-6008
ama	-6009
ason	-6010
▁chin	-6011
▁just	-6012
▁凿	-6013
▁叹	-6014
▁揆	-6015
▁燮	-6016
▁驼	-6017
ger	-6018
vin	-6019
▁60%	-6020
▁λ	-6021
▁叱	-6022
▁汲	-6023
▁繡	-6024
▁驕	-6025
▁jul	-6026
▁form	-6027
▁lang	-6028
▁カ	-6029
▁マ	-6030
▁倩	-6031
▁蒜	-6032
▁飘	-6033
asc	-6034
mus	-6035
▁luc	-6036
▁mbc	-6037
▁mob	-6038
▁@	-6039
▁剃	-6040
▁甬	-6041
▁瞿	-6042
▁篆	-6043
▁陋	-6044
▁饲	-6045
ila	-6046
▁131	-6047
▁151	-6048
▁235	-6049
▁747	-6050
▁姨	-6051
▁蒐	-6052
▁証	-6053
▁轿	-6054
ware	-6055
▁鄞	-6056
sch	-6057
agon	-6058
idge	-6059
▁148	-6060
▁167	-6061
▁hal	-6062
▁html	-6063
▁ロ	-6064
▁晟	-6065
▁pp	-6066
ally	-6067
▁呆	-6068
▁埕	-6069
▁寰	-6070
wan	-6071
▁垮	-6072
▁窯	-6073
▁苛	-6074
ocal	-6075
▁163	-6076
▁25%	-6077
▁420	-6078
▁log	-6079
▁pan	-6080
▁1100	-6081
▁1866	-6082
ko	-6083
▁沾	-6084
▁珪	-6085
▁龔	-6086
ble	-6087
▁215	-6088
▁wil	-6089
▁1859	-6090
ki	-6091
▁壕	-6092
▁恥	-6093
▁捆	-6094
▁臻	-6095
▁跪	-6096
▁鳩	-6097
▁157	-6098
▁tal	-6099
▁が	-6100
▁滄	-6101
▁潑	-6102
▁濮	-6103
▁翊	-6104
▁肛	-6105
▁芷	-6106
▁143	-6107
▁211	-6108
▁nov	-6109
▁squ	-6110
▁wid	-6111
▁andre	-6112
▁instit	-6113
▁佚	-6114
▁嬌	-6115
101	-6116
▁jon	-6117
▁unicode	-6118
▁漕	-6119
▁绎	-6120
▁诵	-6121
▁dig	-6122
▁land	-6123
hc	-6124
ua	-6125
▁ε	-6126
▁峇	-6127
▁惱	-6128
▁203	-6129
▁214	-6130
▁225	-6131
▁amd	-6132
▁ham	-6133
▁mov	-6134
▁roy	-6135
▁news	-6136
▁タ	-6137
▁渲	-6138
▁畸	-6139
▁踩	-6140
▁1855	-6141
▁american	-6142
ui	-6143
▁傻	-6144
▁暉	-6145
▁fun	-6146
▁mot	-6147
▁sig	-6148
▁1856	-6149
▁peter	-6150
▁south	-6151
wa	-6152
▁坍	-6153
▁杞	-6154
▁槳	-6155
▁藓	-6156
▁饿	-6157
ball	-6158
▁340	-6159
▁1854	-6160
▁white	-6161
▁←	-6162
▁衆	-6163
ush	-6164
▁api	-6165
▁but	-6166
▁key	-6167
ty	-6168
▁鉅	-6169
▁301	-6170
▁1853	-6171
▁char	-6172
▁soci	-6173
▁朽	-6174
ja	-6175
ny	-6176
▁檳	-6177
▁蕙	-6178
ache	-6179
ague	-6180
▁nasa	-6181
▁綾	-6182
▁蜡	-6183
▁骆	-6184
ival	-6185
▁tar	-6186
▁who	-6187
▁blue	-6188
▁cate	-6189
ze	-6190
▁ち	-6191
▁傣	-6192
▁悍	-6193
▁诈	-6194
▁跤	-6195
▁駱	-6196
▁mal	-6197
▁que	-6198
▁batt	-6199
▁river	-6200
▁ω	-6201
▁悚	-6202
▁簇	-6203
001	-6204
▁hum	-6205
▁ign	-6206
▁kar	-6207
▁lar	-6208
▁tor	-6209
▁vict	-6210
▁毆	-6211
▁酱	-6212
▁149	-6213
▁rap	-6214
▁tem	-6215
▁usb	-6216
▁俭	-6217
▁甥	-6218
▁cct	-6219
▁tai	-6220
▁camp	-6221
▁pres	-6222
pc	-6223
▁弈	-6224
▁攬	-6225
▁絨	-6226
ello	-6227
gram	-6228
mann	-6229
▁208	-6230
▁bal	-6231
▁post	-6232
▁itunes	-6233
uv	-6234
▁\	-6235
▁ل	-6236
▁産	-6237
▁羧	-6238
▁遏	-6239
▁齣	-6240
▁202	-6241
▁gnu	-6242
▁兑	-6243
▁妒	-6244
▁孺	-6245
▁糯	-6246
▁苓	-6247
▁閔	-6248
▁cho	-6249
▁ext	-6250
▁song	-6251
▁champ	-6252
▁green	-6253
▁ç	-6254
▁dl	-6255
▁rub	-6256
▁г	-6257
▁愁	-6258
▁筠	-6259
▁铀	-6260
▁锤	-6261
▁陂	-6262
▁霰	-6263
▁1%	-6264
▁nv	-6265
▁162	-6266
▁von	-6267
▁ə	-6268
▁攸	-6269
▁褶	-6270
▁钞	-6271
▁骂	-6272
ury	-6273
▁rt	-6274
▁142	-6275
▁221	-6276
▁昱	-6277
▁瀚	-6278
▁珂	-6279
▁皈	-6280
▁盼	-6281
▁聆	-6282
▁葱	-6283
▁204	-6284
▁218	-6285
ville	-6286
▁frank	-6287
my	-6288
▁啶	-6289
▁跆	-6290
erg	-6291
str	-6292
▁kong	-6293
▁soft	-6294
▁elect	-6295
▁master	-6296
▁ú	-6297
▁吓	-6298
▁栅	-6299
▁lis	-6300
mi	-6301
▁灼	-6302
ody	-6303
urus	-6304
▁band	-6305
▁home	-6306
ws	-6307
▁媚	-6308
▁濂	-6309
▁soc	-6310
ative	-6311
▁name	-6312
▁great	-6313
▁笙	-6314
▁茉	-6315
▁鑿	-6316
▁钮	-6317
▁bb	-6318
▁15%	-6319
▁172	-6320
▁syn	-6321
▁var	-6322
▁model	-6323
▁onlyinclude	-6324
▁葆	-6325
▁蛺	-6326
▁骏	-6327
▁state	-6328
▁撼	-6329
▁靂	-6330
burg	-6331
▁ova	-6332
▁hong	-6333
▁stand	-6334
▁internet	-6335
▁production	-6336
▁莒	-6337
▁趟	-6338
▁1851	-6339
▁association	-6340
zo	-6341
▁±	-6342
▁歪	-6343
▁谟	-6344
▁ai	-6345
▁ot	-6346
▁370	-6347
▁僖	-6348
▁嫔	-6349
▁栈	-6350
▁濬	-6351
▁頑	-6352
▁fi	-6353
▁ny	-6354
▁173	-6355
▁dos	-6356
▁how	-6357
▁pag	-6358
▁jean	-6359
▁mill	-6360
▁category	-6361
▁ο	-6362
▁じ	-6363
ets	-6364
unc	-6365
▁mt	-6366
▁171	-6367
▁isbn	-6368
▁毋	-6369
▁蜴	-6370
▁躁	-6371
▁锂	-6372
▁馈	-6373
▁ll	-6374
urch	-6375
▁147	-6376
▁159	-6377
▁hist	-6378
▁亏	-6379
▁冢	-6380
▁弩	-6381
▁臼	-6382
▁誣	-6383
ship	-6384
▁176	-6385
▁183	-6386
▁sci	-6387
▁young	-6388
▁〇	-6389
▁勐	-6390
▁嵐	-6391
▁蔑	-6392
▁薹	-6393
▁ear	-6394
▁vii	-6395
▁1846	-6396
▁撃	-6397
▁殆	-6398
▁灑	-6399
▁蜗	-6400
▁贛	-6401
▁遴	-6402
0%	-6403
cs	-6404
▁ド	-6405
▁兌	-6406
▁柵	-6407
▁襟	-6408
ota	-6409
▁216	-6410
▁litt	-6411
▁year	-6412
eration	-6413
ns	-6414
▁绅	-6415
▁躺	-6416
ney	-6417
ous	-6418
▁480	-6419
▁doc	-6420
▁far	-6421
▁○	-6422
▁206	-6423
▁def	-6424
▁ros	-6425
▁tbs	-6426
▁勛	-6427
▁寝	-6428
▁楔	-6429
▁砷	-6430
▁飢	-6431
▁鴿	-6432
erv	-6433
gbt	-6434
ree	-6435
▁gb	-6436
▁410	-6437
▁tro	-6438
▁婭	-6439
▁昧	-6440
▁泸	-6441
▁褚	-6442
▁鈍	-6443
▁雉	-6444
ios	-6445
▁pt	-6446
▁223	-6447
▁婢	-6448
▁290	-6449
▁cur	-6450
▁1841	-6451
▁server	-6452
▁レ	-6453
▁勻	-6454
▁莘	-6455
ideo	-6456
▁die	-6457
▁1847	-6458
▁cast	-6459
li	-6460
▁倦	-6461
▁椿	-6462
▁瀾	-6463
▁謨	-6464
▁cg	-6465
▁om	-6466
▁缠	-6467
▁ly	-6468
▁md	-6469
▁xp	-6470
ions	-6471
wood	-6472
▁179	-6473
▁207	-6474
▁213	-6475
▁inv	-6476
▁distr	-6477
▁night	-6478
▁à	-6479
▁ν	-6480
▁侬	-6481
▁唸	-6482
▁瞳	-6483
▁膺	-6484
idae	-6485
star	-6486
▁two	-6487
▁й	-6488
▁儉	-6489
▁沅	-6490
▁閏	-6491
▁commun	-6492
▁哆	-6493
▁澈	-6494
▁韌	-6495
our	-6496
▁mak	-6497
▁men	-6498
▁姪	-6499
▁hor	-6500
▁tur	-6501
▁alph	-6502
▁bank	-6503
▁chem	-6504
▁樵	-6505
▁钉	-6506
isc	-6507
▁228	-6508
▁bay	-6509
▁sat	-6510
▁sant	-6511
no	-6512
▁峯	-6513
▁杠	-6514
▁谅	-6515
▁谜	-6516
▁mu	-6517
▁henry	-6518
fr	-6519
▁拌	-6520
▁蚕	-6521
▁1820	-6522
▁1842	-6523
▁pier	-6524
▁joseph	-6525
▁兖	-6526
▁叡	-6527
▁檻	-6528
▁鳍	-6529
ely	-6530
obe	-6531
▁au	-6532
▁sv	-6533
▁td	-6534
▁xx	-6535
▁164	-6536
▁has	-6537
▁1852	-6538
▁island	-6539
pp	-6540
▁ρ	-6541
▁粥	-6542
▁驛	-6543
500	-6544
fer	-6545
▁ken	-6546
▁leg	-6547
▁network	-6548
▁喃	-6549
▁217	-6550
▁222	-6551
▁τ	-6552
▁靳	-6553
▁魄	-6554
hell	-6555
▁238	-6556
▁430	-6557
▁1857	-6558
▁で	-6559
▁殴	-6560
▁縛	-6561
ats	-6562
ira	-6563
▁174	-6564
▁bob	-6565
▁1849	-6566
▁heart	-6567
▁殭	-6568
▁蠕	-6569
ison	-6570
▁mit	-6571
▁anim	-6572
▁town	-6573
▁width	-6574
▁洙	-6575
▁狠	-6576
▁硒	-6577
▁菅	-6578
rich	-6579
▁den	-6580
▁nbc	-6581
▁enviro	-6582
▁圻	-6583
▁捞	-6584
▁綺	-6585
▁裳	-6586
▁169	-6587
▁184	-6588
▁league	-6589
▁united	-6590
▁吠	-6591
▁嫻	-6592
▁潞	-6593
▁燭	-6594
▁璽	-6595
▁甦	-6596
▁秃	-6597
▁綸	-6598
▁豔	-6599
red	-6600
▁209	-6601
▁cbs	-6602
▁jac	-6603
▁express	-6604
▁錘	-6605
▁鰈	-6606
ift	-6607
edia	-6608
▁255	-6609
▁cas	-6610
▁pass	-6611
▁矚	-6612
▁缉	-6613
▁藔	-6614
▁蚁	-6615
ling	-6616
▁も	-6617
▁丫	-6618
▁奘	-6619
▁撈	-6620
▁脾	-6621
▁醣	-6622
ato	-6623
gen	-6624
ters	-6625
▁440	-6626
▁bad	-6627
▁rpg	-6628
▁1843	-6629
▁under	-6630
xx	-6631
▁圃	-6632
▁宸	-6633
▁恺	-6634
▁擄	-6635
ape	-6636
▁219	-6637
▁dev	-6638
▁1844	-6639
▁cons	-6640
▁light	-6641
▁section	-6642
si	-6643
▁だ	-6644
▁蝸	-6645
▁db	-6646
ette	-6647
raft	-6648
▁1845	-6649
▁east	-6650
▁fran	-6651
▁mount	-6652
▁public	-6653
▁侈	-6654
▁吼	-6655
▁忻	-6656
▁愧	-6657
▁扈	-6658
▁桨	-6659
▁碉	-6660
▁蚜	-6661
▁闰	-6662
lad	-6663
▁bur	-6664
▁little	-6665
▁鐮	-6666
esh	-6667
ids	-6668
▁212	-6669
zy	-6670
▁儂	-6671
▁剎	-6672
▁嫉	-6673
▁昨	-6674
▁桔	-6675
▁槃	-6676
▁瀧	-6677
▁耍	-6678
▁荧	-6679
▁襯	-6680
▁鏢	-6681
▁鬍	-6682
▁ze	-6683
▁161	-6684
▁181	-6685
▁310	-6686
▁cha	-6687
▁ice	-6688
▁let	-6689
▁1815	-6690
▁cctv	-6691
▁smith	-6692
▁service	-6693
▁つ	-6694
▁婁	-6695
▁瑕	-6696
han	-6697
▁lu	-6698
ning	-6699
▁spr	-6700
▁comic	-6701
▁store	-6702
▁battle	-6703
▁ô	-6704
▁ι	-6705
▁圩	-6706
▁迺	-6707
▁逍	-6708
▁bh	-6709
▁401	-6710
▁bir	-6711
▁jim	-6712
zilla	-6713
▁jump	-6714
▁tele	-6715
▁party	-6716
ou	-6717
▁卅	-6718
▁撾	-6719
▁羈	-6720
▁衬	-6721
▁軀	-6722
▁锯	-6723
▁bit	-6724
▁god	-6725
▁ins	-6726
▁1832	-6727
▁hill	-6728
▁オ	-6729
▁夔	-6730
▁晦	-6731
▁枋	-6732
▁洮	-6733
▁琮	-6734
▁蟒	-6735
▁郢	-6736
▁鉀	-6737
bit	-6738
tps	-6739
ucn	-6740
▁tu	-6741
▁crh	-6742
annel	-6743
▁я	-6744
▁掖	-6745
▁浜	-6746
▁逵	-6747
ima	-6748
cher	-6749
▁mas	-6750
▁expl	-6751
▁iucn	-6752
▁control	-6753
▁б	-6754
▁ミ	-6755
▁妳	-6756
▁溧	-6757
▁薑	-6758
▁蠅	-6759
▁pala	-6760
▁victor	-6761
▁砾	-6762
den	-6763
▁arr	-6764
▁dep	-6765
▁run	-6766
▁way	-6767
ocket	-6768
▁10000	-6769
▁https	-6770
▁匆	-6771
▁涿	-6772
▁瀋	-6773
▁貂	-6774
▁鳚	-6775
ipp	-6776
▁001	-6777
▁嘱	-6778
▁糞	-6779
▁赎	-6780
▁輾	-6781
▁ml	-6782
inal	-6783
▁182	-6784
▁box	-6785
▁lab	-6786
▁book	-6787
▁radio	-6788
▁program	-6789
▁氹	-6790
▁餉	-6791
▁265	-6792
▁dar	-6793
▁sem	-6794
▁core	-6795
▁space	-6796
▁搁	-6797
▁曳	-6798
▁檎	-6799
▁潢	-6800
▁癮	-6801
▁賃	-6802
▁钊	-6803
▁75%	-6804
▁911	-6805
ather	-6806
▁fest	-6807
▁angel	-6808
▁resear	-6809
▁ς	-6810
▁僻	-6811
▁帧	-6812
▁澱	-6813
▁诬	-6814
▁邕	-6815
▁隴	-6816
▁鮨	-6817
ional	-6818
▁carl	-6819
▁lgbt	-6820
▁word	-6821
▁manag	-6822
▁喘	-6823
▁囑	-6824
▁捏	-6825
▁柿	-6826
▁翎	-6827
▁莪	-6828
▁鷺	-6829
▁460	-6830
▁3500	-6831
▁フ	-6832
▁佃	-6833
▁岷	-6834
▁朕	-6835
▁渚	-6836
▁耻	-6837
▁虢	-6838
▁諺	-6839
▁遁	-6840
ars	-6841
olf	-6842
▁1812	-6843
▁next	-6844
▁plus	-6845
▁engine	-6846
▁mobile	-6847
▁society	-6848
▁を	-6849
▁冗	-6850
▁猷	-6851
elf	-6852
och	-6853
une	-6854
ures	-6855
▁att	-6856
▁1795	-6857
▁aust	-6858
ox	-6859
yp	-6860
▁篩	-6861
▁蠢	-6862
▁讳	-6863
▁賤	-6864
▁pv	-6865
▁978	-6866
▁gal	-6867
▁cross	-6868
▁point	-6869
▁galaxy	-6870
▁媳	-6871
▁禿	-6872
▁訶	-6873
▁铵	-6874
▁fu	-6875
▁hs	-6876
atic	-6877
▁ceo	-6878
▁sin	-6879
▁wwe	-6880
▁1793	-6881
▁glob	-6882
▁your	-6883
▁channel	-6884
▁樁	-6885
▁螂	-6886
▁阙	-6887
eee	-6888
ida	-6889
igo	-6890
ops	-6891
▁dm	-6892
bert	-6893
▁cry	-6894
▁lam	-6895
▁disc	-6896
▁ieee	-6897
▁child	-6898
▁journ	-6899
▁station	-6900
▁research	-6901
▁皱	-6902
▁绛	-6903
▁蔥	-6904
▁阡	-6905
▁code	-6906
▁mult	-6907
▁video	-6908
▁design	-6909
▁online	-6910
ks	-6911
▁コ	-6912
▁伎	-6913
▁炀	-6914
▁璇	-6915
▁詛	-6916
▁韬	-6917
▁颍	-6918
▁黴	-6919
uct	-6920
▁kw	-6921
▁233	-6922
▁501	-6923
▁bon	-6924
▁cle	-6925
▁dor	-6926
▁1824	-6927
▁after	-6928
▁church	-6929
▁幂	-6930
▁暇	-6931
▁檸	-6932
▁580	-6933
▁610	-6934
▁rep	-6935
▁1821	-6936
▁1837	-6937
▁data	-6938
ington	-6939
olution	-6940
▁general	-6941
oy	-6942
▁堕	-6943
▁琥	-6944
▁皿	-6945
▁茛	-6946
▁鎧	-6947
▁鷲	-6948
ple	-6949
ense	-6950
ider	-6951
▁す	-6952
▁エ	-6953
▁刁	-6954
▁茫	-6955
▁迥	-6956
idia	-6957
▁aug	-6958
▁hom	-6959
▁hard	-6960
▁institute	-6961
▁惕	-6962
▁瀉	-6963
▁羰	-6964
▁鋰	-6965
▁hu	-6966
▁305	-6967
▁num	-6968
field	-6969
▁1839	-6970
▁martin	-6971
▁mozilla	-6972
oh	-6973
▁慷	-6974
▁戛	-6975
▁拙	-6976
rpm	-6977
wor	-6978
▁fn	-6979
▁224	-6980
▁cir	-6981
▁prof	-6982
▁francis	-6983
▁弋	-6984
▁gi	-6985
iana	-6986
▁bea	-6987
▁cin	-6988
▁low	-6989
▁1801	-6990
▁foot	-6991
▁sand	-6992
▁vista	-6993
cy	-6994
▁や	-6995
▁唑	-6996
▁暈	-6997
▁絮	-6998
▁胱	-6999
peg	-7000
eter	-7001
ural	-7002
board	-7003
▁1789	-7004
▁1831	-7005
▁1835	-7006
▁蓟	-7007
▁酗	-7008
▁饋	-7009
701	-7010
oid	-7011
▁601	-7012
▁‰	-7013
▁桩	-7014
▁璐	-7015
▁瞞	-7016
▁龕	-7017
301	-7018
acy	-7019
uld	-7020
▁ki	-7021
▁520	-7022
▁nam	-7023
▁1806	-7024
▁1814	-7025
▁asia	-7026
▁louis	-7027
▁嶋	-7028
▁拂	-7029
▁攏	-7030
▁斂	-7031
▁裤	-7032
▁vs	-7033
▁bor	-7034
▁son	-7035
▁1644	-7036
▁1792	-7037
▁happ	-7038
▁憐	-7039
▁昼	-7040
▁馴	-7041
▁駭	-7042
▁226	-7043
▁262	-7044
▁cnn	-7045
▁hon	-7046
▁mary	-7047
▁poly	-7048
▁place	-7049
▁れ	-7050
▁佟	-7051
▁籽	-7052
▁螯	-7053
▁鉉	-7054
▁黯	-7055
ret	-7056
▁ey	-7057
▁rd	-7058
▁777	-7059
▁jan	-7060
▁plan	-7061
▁ī	-7062
▁吒	-7063
▁妊	-7064
▁榔	-7065
▁痴	-7066
pan	-7067
▁ti	-7068
▁325	-7069
▁365	-7070
▁marc	-7071
▁畑	-7072
▁莹	-7073
▁鳄	-7074
▁229	-7075
▁fed	-7076
▁htc	-7077
▁mur	-7078
▁set	-7079
azine	-7080
ister	-7081
▁found	-7082
▁junior	-7083
ji	-7084
▁っ	-7085
▁ナ	-7086
▁俩	-7087
▁浊	-7088
▁瓯	-7089
asy	-7090
▁aw	-7091
▁cf	-7092
▁eg	-7093
▁ry	-7094
▁aud	-7095
▁fox	-7096
▁rog	-7097
▁☆	-7098
▁キ	-7099
▁凑	-7100
▁掷	-7101
▁礫	-7102
▁筛	-7103
▁蛟	-7104
▁蝇	-7105
▁韃	-7106
▁鷗	-7107
aya	-7108
ogr	-7109
tor	-7110
▁wo	-7111
▁311	-7112
▁630	-7113
▁conc	-7114
▁steph	-7115
▁剔	-7116
▁巽	-7117
▁昶	-7118
▁槓	-7119
▁櫚	-7120
▁艋	-7121
▁鍛	-7122
▁ae	-7123
well	-7124
▁jer	-7125
▁map	-7126
▁pac	-7127
▁xml	-7128
▁orig	-7129
▁scott	-7130
▁small	-7131
▁special	-7132
▁サ	-7133
▁曇	-7134
▁楨	-7135
▁玟	-7136
▁舺	-7137
▁2%	-7138
▁275	-7139
other	-7140
▁1776	-7141
▁royal	-7142
▁sports	-7143
▁乂	-7144
▁偃	-7145
▁孀	-7146
▁挾	-7147
▁熄	-7148
▁邺	-7149
▁rs	-7150
adem	-7151
▁asc	-7152
▁1816	-7153
▁1828	-7154
▁1838	-7155
▁moon	-7156
tl	-7157
▁グ	-7158
▁奄	-7159
▁尬	-7160
▁袜	-7161
bus	-7162
out	-7163
▁ni	-7164
▁pg	-7165
▁ub	-7166
▁308	-7167
▁snh	-7168
▁1650	-7169
▁mini	-7170
▁corpor	-7171
▁champion	-7172
▁ê	-7173
▁岚	-7174
▁酥	-7175
▁鞠	-7176
▁顽	-7177
ces	-7178
elle	-7179
▁232	-7180
▁237	-7181
▁307	-7182
▁390	-7183
▁kir	-7184
▁bern	-7185
▁more	-7186
ization	-7187
ao	-7188
hd	-7189
pn	-7190
▁沌	-7191
▁潍	-7192
▁綢	-7193
▁鈺	-7194
▁锈	-7195
▁骷	-7196
off	-7197
▁lg	-7198
▁540	-7199
velop	-7200
▁1790	-7201
▁prot	-7202
▁sound	-7203
▁仄	-7204
▁尻	-7205
▁扼	-7206
▁曬	-7207
▁煜	-7208
▁熵	-7209
▁訝	-7210
201	-7211
vent	-7212
▁245	-7213
▁gov	-7214
▁spe	-7215
▁1836	-7216
▁brit	-7217
▁muse	-7218
▁咳	-7219
▁憎	-7220
▁斛	-7221
▁璜	-7222
▁碁	-7223
▁薨	-7224
▁蝉	-7225
▁诰	-7226
▁950	-7227
▁mos	-7228
▁tel	-7229
▁1833	-7230
▁build	-7231
▁global	-7232
hr	-7233
▁š	-7234
▁κ	-7235
▁叭	-7236
▁榨	-7237
▁樽	-7238
▁牒	-7239
▁眶	-7240
▁鎳	-7241
▁馥	-7242
400	-7243
aga	-7244
▁252	-7245
▁640	-7246
▁maj	-7247
▁9000	-7248
▁film	-7249
▁掙	-7250
▁昵	-7251
▁璟	-7252
▁锻	-7253
▁鞑	-7254
▁鳅	-7255
gan	-7256
▁nd	-7257
thon	-7258
▁239	-7259
▁251	-7260
▁560	-7261
▁720	-7262
▁fal	-7263
▁visual	-7264
▁chinese	-7265
▁magazine	-7266
▁凋	-7267
▁嫂	-7268
▁寢	-7269
▁晝	-7270
▁瀝	-7271
ips	-7272
▁236	-7273
▁249	-7274
▁sql	-7275
▁1826	-7276
▁have	-7277
▁steam	-7278
▁europe	-7279
▁summer	-7280
▁christian	-7281
▁叮	-7282
▁帘	-7283
▁肘	-7284
▁谎	-7285
▁鄙	-7286
▁骄	-7287
▁鸞	-7288
cast	-7289
▁243	-7290
▁ven	-7291
▁card	-7292
▁touch	-7293
▁nvidia	-7294
ni	-7295
▁チ	-7296
▁デ	-7297
▁咐	-7298
▁妲	-7299
▁懈	-7300
▁抖	-7301
▁鍍	-7302
▁鸠	-7303
iko	-7304
ious	-7305
▁231	-7306
▁303	-7307
▁512	-7308
▁960	-7309
▁sen	-7310
▁peop	-7311
pi	-7312
▁巍	-7313
▁拇	-7314
▁湳	-7315
▁雳	-7316
▁ct	-7317
▁vr	-7318
▁wa	-7319
ency	-7320
▁618	-7321
▁bug	-7322
▁hbo	-7323
▁his	-7324
▁mach	-7325
▁pent	-7326
▁adobe	-7327
oe	-7328
▁兗	-7329
▁劈	-7330
▁坳	-7331
▁宕	-7332
▁歳	-7333
▁殯	-7334
▁炔	-7335
▁璞	-7336
▁眺	-7337
▁綬	-7338
▁莺	-7339
▁颅	-7340
▁鰨	-7341
401	-7342
els	-7343
ili	-7344
▁bt	-7345
▁ku	-7346
▁246	-7347
▁318	-7348
▁95%	-7349
▁som	-7350
▁left	-7351
▁develop	-7352
▁劭	-7353
▁屎	-7354
▁烽	-7355
▁矯	-7356
▁粲	-7357
▁鄺	-7358
▁餵	-7359
gar	-7360
▁dh	-7361
▁2021	-7362
▁tvbs	-7363
▁press	-7364
▁second	-7365
▁嗅	-7366
▁怠	-7367
▁沱	-7368
▁炙	-7369
▁緋	-7370
▁鸽	-7371
300	-7372
501	-7373
▁nm	-7374
▁wi	-7375
▁tak	-7376
force	-7377
▁york	-7378
▁brown	-7379
▁level	-7380
▁explor	-7381
▁alexander	-7382
ei	-7383
▁匝	-7384
▁巔	-7385
▁篠	-7386
▁鄱	-7387
oto	-7388
▁cu	-7389
▁nc	-7390
▁234	-7391
▁244	-7392
▁530	-7393
▁deb	-7394
ility	-7395
▁rain	-7396
kg	-7397
▁θ	-7398
▁ь	-7399
▁怜	-7400
▁惰	-7401
▁饑	-7402
▁ns	-7403
▁302	-7404
▁660	-7405
▁680	-7406
▁cup	-7407
agram	-7408
ental	-7409
▁1802	-7410
▁every	-7411
▁孛	-7412
▁挠	-7413
▁昕	-7414
▁磋	-7415
▁绞	-7416
▁酌	-7417
▁闕	-7418
eck	-7419
ika	-7420
face	-7421
▁248	-7422
▁253	-7423
▁266	-7424
▁apg	-7425
▁gra	-7426
ender	-7427
▁1813	-7428
▁clar	-7429
▁gard	-7430
▁market	-7431
▁呀	-7432
▁嬉	-7433
▁嬴	-7434
▁麴	-7435
col	-7436
ona	-7437
ote	-7438
▁od	-7439
▁470	-7440
iness	-7441
▁1834	-7442
▁down	-7443
▁final	-7444
▁flash	-7445
▁edward	-7446
▁摊	-7447
▁桦	-7448
▁檗	-7449
▁笋	-7450
▁驸	-7451
▁gh	-7452
▁qq	-7453
▁264	-7454
▁570	-7455
▁bat	-7456
▁mvp	-7457
▁pap	-7458
▁1825	-7459
▁2022	-7460
▁fant	-7461
▁taiwan	-7462
▁ن	-7463
▁懶	-7464
▁撿	-7465
▁聾	-7466
▁诃	-7467
▁赚	-7468
▁鎂	-7469
▁pm	-7470
▁285	-7471
▁323	-7472
▁802	-7473
▁fif	-7474
▁gps	-7475
▁viv	-7476
▁1810	-7477
▁call	-7478
▁science	-7479
yr	-7480
▁ر	-7481
▁テ	-7482
▁檯	-7483
▁滦	-7484
▁蝨	-7485
▁鋅	-7486
▁頤	-7487
▁麝	-7488
down	-7489
▁bbs	-7490
▁ren	-7491
ities	-7492
▁like	-7493
▁right	-7494
▁digital	-7495
▁festival	-7496
jo	-7497
▁ы	-7498
▁わ	-7499
▁瑄	-7500
▁迂	-7501
601	-7502
mat	-7503
zer	-7504
▁nad	-7505
▁lady	-7506
▁last	-7507
▁vocal	-7508
▁square	-7509
▁叻	-7510
▁唔	-7511
▁挨	-7512
▁氓	-7513
▁艏	-7514
▁蔔	-7515
▁蝗	-7516
▁鱇	-7517
▁0%	-7518
▁ax	-7519
2000	-7520
aker	-7521
▁247	-7522
▁exp	-7523
▁mom	-7524
▁yah	-7525
▁1799	-7526
▁hold	-7527
▁astro	-7528
▁enter	-7529
▁which	-7530
▁series	-7531
▁咲	-7532
▁揽	-7533
▁滔	-7534
▁赂	-7535
▁醮	-7536
rie	-7537
▁306	-7538
▁510	-7539
▁701	-7540
▁old	-7541
▁sav	-7542
▁stor	-7543
ascript	-7544
ev	-7545
gs	-7546
▁å	-7547
▁ウ	-7548
▁佥	-7549
▁婺	-7550
▁沥	-7551
▁涪	-7552
▁玺	-7553
▁銓	-7554
awa	-7555
ize	-7556
▁242	-7557
▁liv	-7558
▁uss	-7559
sport	-7560
stein	-7561
▁1645	-7562
▁hand	-7563
▁kiss	-7564
▁lord	-7565
▁ブ	-7566
▁灿	-7567
▁癱	-7568
▁簾	-7569
▁钛	-7570
▁雏	-7571
▁295	-7572
▁mol	-7573
▁eric	-7574
▁union	-7575
▁daniel	-7576
▁バ	-7577
▁佘	-7578
▁旻	-7579
▁豈	-7580
▁赁	-7581
▁鮟	-7582
ost	-7583
win	-7584
ader	-7585
▁276	-7586
▁ipad	-7587
▁wood	-7588
▁咤	-7589
▁睾	-7590
▁秤	-7591
▁稟	-7592
▁膩	-7593
▁蓼	-7594
▁鬣	-7595
mar	-7596
▁fx	-7597
▁nu	-7598
▁227	-7599
▁ace	-7600
▁cra	-7601
▁psy	-7602
▁1818	-7603
▁perf	-7604
▁force	-7605
▁technology	-7606
▁け	-7607
▁嗓	-7608
▁歙	-7609
▁絞	-7610
▁脖	-7611
▁颐	-7612
omb	-7613
▁sf	-7614
ices	-7615
▁258	-7616
▁268	-7617
▁312	-7618
▁cop	-7619
▁1822	-7620
▁what	-7621
▁パ	-7622
▁丐	-7623
▁亳	-7624
▁唆	-7625
▁涧	-7626
▁穫	-7627
▁詭	-7628
▁骁	-7629
▁241	-7630
▁620	-7631
▁730	-7632
▁fly	-7633
▁ult	-7634
▁φ	-7635
▁ч	-7636
▁プ	-7637
▁檜	-7638
▁珲	-7639
▁癖	-7640
▁睞	-7641
▁缚	-7642
▁钝	-7643
ado	-7644
uel	-7645
▁254	-7646
▁269	-7647
▁cult	-7648
▁lond	-7649
▁people	-7650
▁槿	-7651
▁稼	-7652
▁葦	-7653
▁薔	-7654
lab	-7655
▁ea	-7656
▁ja	-7657
anna	-7658
▁hit	-7659
▁joe	-7660
▁1804	-7661
▁matt	-7662
▁inform	-7663
▁pagasa	-7664
▁乖	-7665
▁弛	-7666
▁橇	-7667
▁祜	-7668
▁蕈	-7669
▁鏽	-7670
▁鵑	-7671
cho	-7672
▁bf	-7673
flix	-7674
▁274	-7675
▁bey	-7676
▁eff	-7677
▁pos	-7678
▁1829	-7679
▁4500	-7680
ograph	-7681
▁hello	-7682
▁explorer	-7683
▁ø	-7684
▁堺	-7685
▁桢	-7686
▁櫛	-7687
▁瘾	-7688
▁荼	-7689
▁覃	-7690
ago	-7691
max	-7692
▁gd	-7693
▁vl	-7694
▁yg	-7695
over	-7696
▁blu	-7697
▁tam	-7698
▁1791	-7699
▁1794	-7700
▁1803	-7701
▁link	-7702
▁main	-7703
▁stad	-7704
▁maria	-7705
▁netflix	-7706
▁ひ	-7707
▁よ	-7708
▁亢	-7709
▁汛	-7710
▁衮	-7711
▁謗	-7712
▁铬	-7713
▁魮	-7714
fox	-7715
▁dt	-7716
▁ru	-7717
▁710	-7718
▁dam	-7719
▁mnet	-7720
▁pack	-7721
▁ي	-7722
▁旷	-7723
▁晒	-7724
▁泓	-7725
▁浣	-7726
▁聿	-7727
▁螈	-7728
▁蠶	-7729
▁躬	-7730
▁轍	-7731
320	-7732
380	-7733
▁hp	-7734
▁tg	-7735
rome	-7736
▁304	-7737
▁348	-7738
▁arts	-7739
▁倘	-7740
▁嶄	-7741
▁柚	-7742
▁焘	-7743
▁熾	-7744
▁窪	-7745
▁诠	-7746
▁韧	-7747
umb	-7748
▁ld	-7749
▁pk	-7750
▁sb	-7751
▁288	-7752
▁chi	-7753
▁fri	-7754
▁gun	-7755
▁imp	-7756
▁pay	-7757
▁1580	-7758
▁1787	-7759
▁adam	-7760
▁fact	-7761
▁ipod	-7762
▁rail	-7763
▁albert	-7764
▁厕	-7765
▁崧	-7766
res	-7767
▁kl	-7768
▁pu	-7769
▁261	-7770
▁880	-7771
▁nca	-7772
▁tan	-7773
▁1550	-7774
▁1809	-7775
▁stat	-7776
▁secret	-7777
▁switch	-7778
▁firefox	-7779
▁娠	-7780
▁婕	-7781
▁恬	-7782
▁掏	-7783
▁摯	-7784
▁擂	-7785
▁旌	-7786
▁竄	-7787
▁踝	-7788
▁铲	-7789
▁镀	-7790
lor	-7791
ume	-7792
▁rb	-7793
arch	-7794
▁384	-7795
▁780	-7796
▁emu	-7797
▁ide	-7798
▁und	-7799
▁2100	-7800
▁prop	-7801
▁tran	-7802
▁earth	-7803
▁fried	-7804
▁princ	-7805
▁london	-7806
▁卞	-7807
▁寥	-7808
▁洒	-7809
▁瘫	-7810
▁睽	-7811
▁瞰	-7812
▁祉	-7813
▁簷	-7814
▁苳	-7815
▁蝽	-7816
▁cb	-7817
▁tl	-7818
▁um	-7819
onom	-7820
▁298	-7821
▁338	-7822
▁375	-7823
▁psp	-7824
▁counc	-7825
▁journal	-7826
▁district	-7827
▁football	-7828
▁instagram	-7829
▁corporation	-7830
▁ャ	-7831
▁哮	-7832
▁捻	-7833
▁瓮	-7834
▁甩	-7835
▁铉	-7836
▁馏	-7837
ible	-7838
▁271	-7839
▁arc	-7840
▁equ	-7841
▁sab	-7842
▁sor	-7843
inger	-7844
▁1805	-7845
▁1807	-7846
▁water	-7847
▁啄	-7848
▁崴	-7849
▁彷	-7850
▁惇	-7851
▁榈	-7852
▁貯	-7853
▁辗	-7854
▁飆	-7855
▁髻	-7856
key	-7857
lic	-7858
▁ff	-7859
▁jt	-7860
ines	-7861
▁345	-7862
▁385	-7863
▁mah	-7864
▁1592	-7865
▁beat	-7866
▁prem	-7867
▁human	-7868
▁academ	-7869
▁edition	-7870
▁javascript	-7871
▁ょ	-7872
▁ィ	-7873
▁脩	-7874
▁葺	-7875
▁鵰	-7876
▁eb	-7877
ness	-7878
▁315	-7879
▁670	-7880
▁tcp	-7881
▁circ	-7882
▁kill	-7883
▁well	-7884
▁zero	-7885
pg	-7886
▁ム	-7887
▁屁	-7888
▁愷	-7889
▁湍	-7890
▁睢	-7891
▁翹	-7892
▁贻	-7893
▁飪	-7894
day	-7895
osp	-7896
row	-7897
▁og	-7898
rick	-7899
▁257	-7900
▁278	-7901
▁hiv	-7902
▁hop	-7903
▁rod	-7904
▁swe	-7905
▁1796	-7906
▁unit	-7907
▁council	-7908
ng	-7909
▁ハ	-7910
▁墘	-7911
▁惶	-7912
▁撇	-7913
▁撓	-7914
▁誥	-7915
▁鲷	-7916
ros	-7917
▁gm	-7918
▁asp	-7919
▁mix	-7920
▁ncaa	-7921
▁were	-7922
▁again	-7923
▁social	-7924
▁software	-7925
hs	-7926
je	-7927
ti	-7928
▁з	-7929
▁泻	-7930
▁滁	-7931
▁窒	-7932
▁羁	-7933
▁耽	-7934
▁蕪	-7935
▁賂	-7936
▁鎬	-7937
▁髒	-7938
▁鳌	-7939
con	-7940
ges	-7941
ova	-7942
▁3%	-7943
▁cw	-7944
▁uk	-7945
▁va	-7946
▁rat	-7947
▁1823	-7948
▁baby	-7949
▁educ	-7950
▁russ	-7951
▁front	-7952
▁story	-7953
▁窺	-7954
▁蝎	-7955
▁訣	-7956
▁誡	-7957
▁鄴	-7958
▁镁	-7959
▁鼩	-7960
nes	-7961
aven	-7962
▁589	-7963
▁801	-7964
▁921	-7965
▁ash	-7966
▁bud	-7967
▁jyp	-7968
▁1817	-7969
▁2400	-7970
▁dark	-7971
▁sign	-7972
▁album	-7973
▁theat	-7974
▁comput	-7975
▁friend	-7976
zi	-7977
▁悶	-7978
▁淖	-7979
▁鰍	-7980
▁yu	-7981
ania	-7982
mond	-7983
▁313	-7984
▁901	-7985
▁fut	-7986
▁ker	-7987
▁non	-7988
▁pen	-7989
▁1775	-7990
▁cell	-7991
▁fair	-7992
▁meth	-7993
▁sche	-7994
▁trip	-7995
▁happy	-7996
▁round	-7997
▁ʁ	-7998
▁η	-7999
▁灝	-8000
▁瓚	-8001
▁畠	-8002
▁碌	-8003
▁繕	-8004
▁荻	-8005
▁郴	-8006
men	-8007
oud	-8008
▁uc	-8009
ique	-8010
▁319	-8011
▁767	-8012
▁alt	-8013
▁arg	-8014
▁gab	-8015
▁mig	-8016
▁vel	-8017
▁1780	-8018
▁sund	-8019
▁洱	-8020
▁淦	-8021
▁羨	-8022
▁羹	-8023
▁诅	-8024
▁鑾	-8025
▁龛	-8026
901	-8027
lam	-8028
mhz	-8029
▁bc	-8030
▁hi	-8031
▁277	-8032
▁357	-8033
▁phone	-8034
▁dragon	-8035
▁museum	-8036
▁central	-8037
▁č	-8038
▁ダ	-8039
▁煒	-8040
▁碇	-8041
▁轅	-8042
▁钴	-8043
▁頰	-8044
▁4%	-8045
play	-8046
tern	-8047
▁273	-8048
▁386	-8049
▁acc	-8050
▁pdf	-8051
▁1583	-8052
▁2200	-8053
▁bell	-8054
▁chris	-8055
▁other	-8056
▁america	-8057
▁management	-8058
nd	-8059
▁徘	-8060
▁攪	-8061
▁玖	-8062
▁疵	-8063
▁蘑	-8064
▁贮	-8065
▁钵	-8066
▁鱨	-8067
▁279	-8068
▁287	-8069
▁820	-8070
▁dol	-8071
▁had	-8072
▁rac	-8073
▁1777	-8074
▁2300	-8075
▁beta	-8076
▁basic	-8077
▁block	-8078
▁ë	-8079
▁傢	-8080
▁兮	-8081
▁凳	-8082
▁妤	-8083
▁徊	-8084
▁梢	-8085
▁槭	-8086
▁熏	-8087
▁瘓	-8088
als	-8089
esc	-8090
rey	-8091
iger	-8092
▁263	-8093
▁286	-8094
▁329	-8095
▁407	-8096
▁425	-8097
▁abo	-8098
▁sho	-8099
▁ten	-8100
▁head	-8101
▁list	-8102
▁soul	-8103
▁vers	-8104
▁alpha	-8105
▁dance	-8106
▁langu	-8107
▁centre	-8108
▁family	-8109
▁笈	-8110
▁羯	-8111
▁腋	-8112
▁賑	-8113
▁驴	-8114
ria	-8115
cept	-8116
▁293	-8117
▁328	-8118
▁333	-8119
▁335	-8120
▁get	-8121
▁say	-8122
▁amaz	-8123
▁fort	-8124
▁sour	-8125
▁stan	-8126
▁ß	-8127
▁م	-8128
▁佗	-8129
▁叩	-8130
▁撮	-8131
▁熬	-8132
▁碾	-8133
▁绶	-8134
▁翘	-8135
▁藜	-8136
▁蠍	-8137
▁鈦	-8138
▁锚	-8139
▁bg	-8140
esis	-8141
ient	-8142
▁282	-8143
▁590	-8144
▁cit	-8145
▁lat	-8146
▁mun	-8147
▁marie	-8148
▁shell	-8149
▁works	-8150
▁govern	-8151
▁python	-8152
▁喆	-8153
▁珉	-8154
▁瑣	-8155
▁窘	-8156
▁蜱	-8157
▁韜	-8158
don	-8159
mon	-8160
isch	-8161
▁272	-8162
▁331	-8163
▁415	-8164
▁760	-8165
▁bmw	-8166
▁kon	-8167
▁wom	-8168
▁1080	-8169
▁1750	-8170
▁1788	-8171
▁1811	-8172
▁mess	-8173
▁rows	-8174
▁wild	-8175
▁andrew	-8176
▁pierre	-8177
▁children	-8178
__	-8179
▁ō	-8180
▁ろ	-8181
▁恼	-8182
▁愍	-8183
▁澡	-8184
▁珮	-8185
▁闾	-8186
▁驹	-8187
▁鹊	-8188
itte	-8189
▁412	-8190
▁621	-8191
▁830	-8192
▁hay	-8193
▁saf	-8194
▁note	-8195
▁begin	-8196
▁business	-8197
▁ビ	-8198
▁呤	-8199
▁宥	-8200
▁澧	-8201
▁燊	-8202
▁璉	-8203
▁箔	-8204
▁躯	-8205
▁釧	-8206
get	-8207
iga	-8208
kin	-8209
▁mx	-8210
▁281	-8211
▁322	-8212
▁404	-8213
▁757	-8214
▁dal	-8215
▁din	-8216
▁ipv	-8217
ident	-8218
▁1783	-8219
▁冼	-8220
▁栩	-8221
▁纶	-8222
▁荚	-8223
▁餡	-8224
▁饪	-8225
eta	-8226
ias	-8227
▁259	-8228
▁314	-8229
▁490	-8230
▁mcc	-8231
▁our	-8232
▁php	-8233
ember	-8234
▁1568	-8235
▁1648	-8236
▁four	-8237
▁俑	-8238
▁盂	-8239
▁筍	-8240
▁蓓	-8241
▁謁	-8242
▁诫	-8243
▁鎚	-8244
ran	-8245
sen	-8246
icle	-8247
▁296	-8248
▁324	-8249
▁344	-8250
▁359	-8251
▁eth	-8252
▁fel	-8253
▁jos	-8254
▁meg	-8255
▁1760	-8256
▁2030	-8257
▁dest	-8258
▁fifa	-8259
▁const	-8260
▁court	-8261
▁ュ	-8262
▁怯	-8263
▁栎	-8264
▁狡	-8265
▁穢	-8266
▁筱	-8267
▁筲	-8268
▁踞	-8269
▁锰	-8270
▁ft	-8271
▁316	-8272
▁740	-8273
▁860	-8274
▁gpl	-8275
▁kat	-8276
▁kit	-8277
▁lum	-8278
house	-8279
▁cher	-8280
▁leon	-8281
▁lind	-8282
▁rowspan	-8283
db	-8284
▁ガ	-8285
▁嚼	-8286
▁娑	-8287
▁娩	-8288
▁懇	-8289
▁歹	-8290
▁泮	-8291
▁猝	-8292
▁甯	-8293
▁粪	-8294
▁紓	-8295
▁賬	-8296
▁镰	-8297
▁霑	-8298
▁鹭	-8299
ird	-8300
▁ia	-8301
heim	-8302
▁emi	-8303
▁kam	-8304
▁1798	-8305
▁1808	-8306
▁ruby	-8307
▁spir	-8308
▁anton	-8309
▁organ	-8310
▁ニ	-8311
▁儼	-8312
▁咕	-8313
▁恃	-8314
▁枉	-8315
▁査	-8316
▁疟	-8317
▁鹵	-8318
rad	-8319
una	-8320
▁284	-8321
▁334	-8322
▁355	-8323
▁548	-8324
▁ath	-8325
▁cad	-8326
▁dur	-8327
▁its	-8328
▁pin	-8329
▁por	-8330
▁pot	-8331
▁sha	-8332
▁1827	-8333
▁ball	-8334
▁edge	-8335
▁merc	-8336
▁qual	-8337
▁awards	-8338
▁stephen	-8339
▁唾	-8340
▁摹	-8341
▁桁	-8342
▁槌	-8343
▁檄	-8344
▁洵	-8345
▁浇	-8346
▁烛	-8347
▁筏	-8348
▁胄	-8349
▁鈎	-8350
▁饷	-8351
▁ye	-8352
▁321	-8353
▁354	-8354
▁448	-8355
▁581	-8356
▁cab	-8357
▁fan	-8358
▁1521	-8359
▁1570	-8360
▁base	-8361
▁know	-8362
▁queen	-8363
▁start	-8364
▁there	-8365
▁beyond	-8366
do	-8367
sl	-8368
▁啞	-8369
▁晕	-8370
▁痪	-8371
▁窖	-8372
▁轭	-8373
▁驃	-8374
bsd	-8375
utc	-8376
▁kk	-8377
anda	-8378
▁417	-8379
▁421	-8380
▁dim	-8381
▁ing	-8382
▁pas	-8383
▁ske	-8384
▁1553	-8385
▁2600	-8386
▁jeff	-8387
▁prov	-8388
▁true	-8389
▁blood	-8390
▁brand	-8391
▁refer	-8392
▁villa	-8393
▁august	-8394
▁object	-8395
▁process	-8396
▁揉	-8397
▁杵	-8398
▁柠	-8399
▁筵	-8400
▁脷	-8401
▁逕	-8402
▁釗	-8403
uke	-8404
▁ky	-8405
▁ls	-8406
alth	-8407
▁289	-8408
▁299	-8409
▁810	-8410
▁ban	-8411
▁hip	-8412
▁nex	-8413
▁ton	-8414
▁tra	-8415
ering	-8416
▁aven	-8417
▁conn	-8418
▁karl	-8419
▁shar	-8420
▁bridge	-8421
▁socket	-8422
▁operation	-8423
▁development	-8424
kb	-8425
▁ñ	-8426
▁ɛ	-8427
▁え	-8428
▁せ	-8429
▁氾	-8430
▁涩	-8431
▁瘡	-8432
▁錨	-8433
▁骰	-8434
aka	-8435
▁lv	-8436
vers	-8437
▁367	-8438
▁402	-8439
▁411	-8440
▁758	-8441
▁bul	-8442
▁opt	-8443
▁tit	-8444
▁fall	-8445
▁lake	-8446
▁prim	-8447
▁solo	-8448
▁they	-8449
▁yahoo	-8450
osaurus	-8451
▁education	-8452
ef	-8453
▁婪	-8454
▁楹	-8455
▁漩	-8456
▁灸	-8457
▁煦	-8458
▁脇	-8459
▁腱	-8460
▁遐	-8461
▁髏	-8462
▁鹘	-8463
▁鹛	-8464
▁鹦	-8465
801	-8466
anga	-8467
▁346	-8468
▁707	-8469
▁atl	-8470
▁dyn	-8471
▁inn	-8472
▁rue	-8473
▁sel	-8474
▁sus	-8475
▁mike	-8476
▁zone	-8477
▁order	-8478
of	-8479
▁喂	-8480
▁夯	-8481
▁岂	-8482
▁歆	-8483
▁琐	-8484
▁璘	-8485
▁缕	-8486
▁肄	-8487
▁鸾	-8488
ema	-8489
ole	-8490
▁tn	-8491
ever	-8492
▁770	-8493
▁dat	-8494
▁sea	-8495
▁tay	-8496
▁feat	-8497
▁jess	-8498
▁carol	-8499
▁opera	-8500
▁speed	-8501
wd	-8502
▁噁	-8503
▁娼	-8504
▁攘	-8505
▁榛	-8506
▁籬	-8507
▁驯	-8508
cha	-8509
isa	-8510
▁np	-8511
ains	-8512
lect	-8513
▁309	-8514
▁85%	-8515
▁irt	-8516
▁kde	-8517
▁1582	-8518
▁1646	-8519
▁1819	-8520
▁gall	-8521
▁ب	-8522
▁佼	-8523
▁叟	-8524
▁漱	-8525
▁犍	-8526
▁瞎	-8527
▁粽	-8528
▁绢	-8529
▁諦	-8530
▁谬	-8531
▁邂	-8532
oli	-8533
▁tt	-8534
itor	-8535
lass	-8536
ston	-8537
▁583	-8538
▁ghz	-8539
▁sac	-8540
▁tex	-8541
▁1643	-8542
▁toky	-8543
▁steve	-8544
▁information	-8545
gl	-8546
▁و	-8547
▁メ	-8548
▁孽	-8549
▁寞	-8550
▁焙	-8551
▁畲	-8552
▁砚	-8553
▁腻	-8554
▁逅	-8555
oma	-8556
ski	-8557
▁ay	-8558
▁ri	-8559
ince	-8560
uber	-8561
▁999	-8562
▁aaa	-8563
▁mam	-8564
▁1661	-8565
▁1784	-8566
▁stage	-8567
▁billboard	-8568
▁ł	-8569
▁俏	-8570
▁俚	-8571
▁嘌	-8572
▁姥	-8573
▁柩	-8574
▁疣	-8575
▁矗	-8576
▁絃	-8577
▁輟	-8578
▁驍	-8579
iii	-8580
▁7%	-8581
▁ox	-8582
erty	-8583
▁317	-8584
▁416	-8585
▁502	-8586
▁535	-8587
▁607	-8588
▁hkt	-8589
▁joh	-8590
▁lor	-8591
▁cook	-8592
▁seed	-8593
▁trav	-8594
▁function	-8595
hi	-8596
uf	-8597
▁め	-8598
▁拢	-8599
▁搗	-8600
▁曠	-8601
▁煬	-8602
▁粱	-8603
▁蒴	-8604
▁薊	-8605
▁谔	-8606
▁闇	-8607
▁顫	-8608
▁gy	-8609
▁326	-8610
▁caf	-8611
▁mes	-8612
▁nmb	-8613
▁rot	-8614
▁see	-8615
▁1577	-8616
▁1730	-8617
▁diff	-8618
▁rose	-8619
▁test	-8620
▁beaut	-8621
▁drive	-8622
▁smart	-8623
▁eleven	-8624
uy	-8625
vi	-8626
▁^	-8627
▁ū	-8628
▁●	-8629
▁沔	-8630
▁烙	-8631
▁珞	-8632
▁秧	-8633
▁鼐	-8634
olk	-8635
uri	-8636
iano	-8637
lish	-8638
mail	-8639
thur	-8640
uble	-8641
untu	-8642
▁267	-8643
▁bec	-8644
▁kan	-8645
▁pow	-8646
▁rfc	-8647
▁ron	-8648
▁tas	-8649
onder	-8650
▁1785	-8651
▁chap	-8652
▁shad	-8653
▁virt	-8654
▁chang	-8655
▁巅	-8656
▁苇	-8657
▁菀	-8658
▁蔻	-8659
▁蛭	-8660
ito	-8661
unk	-8662
utv	-8663
val	-8664
▁io	-8665
▁lr	-8666
less	-8667
rent	-8668
▁343	-8669
▁505	-8670
▁555	-8671
▁bag	-8672
▁gil	-8673
▁hat	-8674
▁nar	-8675
▁ple	-8676
▁yam	-8677
▁1368	-8678
▁1559	-8679
▁1571	-8680
▁alan	-8681
▁chan	-8682
▁gang	-8683
▁samu	-8684
▁frame	-8685
▁their	-8686
▁three	-8687
▁ŋ	-8688
▁侷	-8689
▁氙	-8690
▁痊	-8691
▁祗	-8692
▁艉	-8693
▁蚂	-8694
▁蝰	-8695
▁諏	-8696
car	-8697
ror	-8698
ergy	-8699
▁283	-8700
▁292	-8701
▁398	-8702
▁639	-8703
▁bac	-8704
▁los	-8705
▁jones	-8706
▁tokyo	-8707
▁golden	-8708
▁噩	-8709
▁奬	-8710
▁娇	-8711
▁棗	-8712
▁肱	-8713
▁醯	-8714
▁鞅	-8715
ban	-8716
iter	-8717
▁366	-8718
▁405	-8719
▁465	-8720
▁525	-8721
▁625	-8722
▁705	-8723
▁alf	-8724
▁got	-8725
▁jay	-8726
▁1660	-8727
▁1786	-8728
▁math	-8729
▁plat	-8730
▁prom	-8731
▁never	-8732
▁track	-8733
▁history	-8734
▁collection	-8735
hp	-8736
▁î	-8737
▁嘔	-8738
▁忱	-8739
▁棧	-8740
▁浒	-8741
▁瀆	-8742
▁絹	-8743
▁邳	-8744
▁镐	-8745
▁頡	-8746
▁鰂	-8747
ati	-8748
mad	-8749
sky	-8750
amin	-8751
inae	-8752
▁427	-8753
▁787	-8754
▁dia	-8755
▁ern	-8756
▁fab	-8757
▁kim	-8758
▁pur	-8759
ector	-8760
▁conf	-8761
▁mytv	-8762
▁phot	-8763
▁when	-8764
▁apache	-8765
▁source	-8766
▁british	-8767
▁johnson	-8768
▁嚮	-8769
▁扒	-8770
▁掸	-8771
▁晷	-8772
▁琨	-8773
▁疤	-8774
▁皎	-8775
▁皺	-8776
▁谒	-8777
▁銃	-8778
bar	-8779
hed	-8780
med	-8781
▁8%	-8782
▁rc	-8783
▁327	-8784
▁485	-8785
▁511	-8786
▁528	-8787
▁bin	-8788
▁mhz	-8789
▁sla	-8790
▁sug	-8791
▁1590	-8792
▁cand	-8793
▁field	-8794
▁viutv	-8795
kt	-8796
▁ェ	-8797
▁俳	-8798
▁峒	-8799
▁悌	-8800
▁榻	-8801
▁絆	-8802
▁蟠	-8803
▁鮠	-8804
din	-8805
pot	-8806
▁353	-8807
▁476	-8808
▁727	-8809
▁742	-8810
▁930	-8811
▁bah	-8812
▁bsd	-8813
▁exc	-8814
▁fle	-8815
▁lot	-8816
▁row	-8817
▁scr	-8818
▁wta	-8819
athan	-8820
▁1517	-8821
▁1636	-8822
▁1640	-8823
▁file	-8824
▁broad	-8825
▁common	-8826
▁european	-8827
yd	-8828
yt	-8829
▁僭	-8830
▁榭	-8831
▁珈	-8832
▁甾	-8833
▁罔	-8834
▁肴	-8835
▁腈	-8836
▁蚓	-8837
▁蜆	-8838
▁螳	-8839
▁鏞	-8840
▁麽	-8841
330	-8842
aki	-8843
eri	-8844
▁tf	-8845
▁ud	-8846
ants	-8847
▁297	-8848
▁419	-8849
▁690	-8850
▁eva	-8851
▁1556	-8852
▁1565	-8853
▁1622	-8854
▁1628	-8855
▁1770	-8856
▁made	-8857
▁mass	-8858
▁wiki	-8859
▁freed	-8860
vo	-8861
▁亘	-8862
▁彧	-8863
▁氐	-8864
▁涇	-8865
▁纥	-8866
▁荠	-8867
war	-8868
anth	-8869
ench	-8870
▁12%	-8871
▁414	-8872
▁hun	-8873
▁raw	-8874
▁1625	-8875
▁1797	-8876
▁anth	-8877
▁boss	-8878
▁boys	-8879
▁hero	-8880
▁lamb	-8881
▁hotel	-8882
▁sunday	-8883
▁virgin	-8884
▁produce	-8885
kh	-8886
▁ゅ	-8887
▁呕	-8888
▁嘧	-8889
▁媲	-8890
▁挣	-8891
▁楣	-8892
▁渎	-8893
▁薈	-8894
▁袞	-8895
▁馀	-8896
ful	-8897
ves	-8898
▁ie	-8899
▁rf	-8900
ming	-8901
ques	-8902
▁403	-8903
▁ale	-8904
▁eos	-8905
▁oct	-8906
▁sta	-8907
ellow	-8908
▁1610	-8909
▁about	-8910
▁ascii	-8911
▁states	-8912
▁studios	-8913
▁foundation	-8914
wh	-8915
▁х	-8916
▁佤	-8917
▁塹	-8918
▁慄	-8919
▁瑠	-8920
▁瘧	-8921
▁箏	-8922
▁箴	-8923
▁铂	-8924
▁驤	-8925
800	-8926
chan	-8927
sson	-8928
▁007	-8929
▁347	-8930
▁351	-8931
▁617	-8932
▁870	-8933
▁920	-8934
▁abs	-8935
▁ped	-8936
▁six	-8937
▁wel	-8938
▁1680	-8939
▁wall	-8940
vision	-8941
▁train	-8942
▁person	-8943
▁standard	-8944
gi	-8945
▁モ	-8946
▁岌	-8947
▁浔	-8948
▁涟	-8949
▁糠	-8950
▁聳	-8951
▁誹	-8952
▁蹲	-8953
erm	-8954
▁qs	-8955
eral	-8956
▁291	-8957
▁339	-8958
▁428	-8959
▁479	-8960
▁627	-8961
▁628	-8962
▁840	-8963
▁903	-8964
▁add	-8965
▁ess	-8966
▁iec	-8967
▁tod	-8968
works	-8969
worth	-8970
▁dead	-8971
▁rand	-8972
▁rest	-8973
change	-8974
▁voice	-8975
▁indust	-8976
▁number	-8977
▁堃	-8978
▁懺	-8979
▁澍	-8980
▁濑	-8981
▁炱	-8982
▁炽	-8983
▁燧	-8984
▁瞒	-8985
▁覲	-8986
▁辍	-8987
▁锺	-8988
▁鳃	-8989
aro	-8990
hen	-8991
ots	-8992
yth	-8993
▁358	-8994
▁537	-8995
▁615	-8996
▁abd	-8997
▁css	-8998
▁1630	-8999
▁1723	-9000
▁chen	-9001
▁ross	-9002
▁graph	-9003
▁championship	-9004
cf	-9005
▁徳	-9006
▁戡	-9007
▁歎	-9008
▁湟	-9009
▁獾	-9010
▁邈	-9011
▁醃	-9012
▁齦	-9013
600	-9014
ady	-9015
▁nr	-9016
▁342	-9017
▁369	-9018
▁515	-9019
▁985	-9020
▁bes	-9021
▁esc	-9022
▁kal	-9023
▁mik	-9024
ittee	-9025
▁1778	-9026
▁1779	-9027
▁lost	-9028
▁view	-9029
iction	-9030
▁break	-9031
▁death	-9032
▁single	-9033
▁»	-9034
▁俐	-9035
▁弒	-9036
▁懦	-9037
▁戦	-9038
▁搅	-9039
▁栾	-9040
▁茸	-9041
bra	-9042
▁js	-9043
▁kv	-9044
▁395	-9045
▁432	-9046
▁aff	-9047
▁aim	-9048
▁gog	-9049
anced	-9050
light	-9051
▁oper	-9052
▁talk	-9053
▁systems	-9054
▁language	-9055
▁⋯	-9056
▁垢	-9057
▁澗	-9058
▁痘	-9059
▁蠡	-9060
▁谿	-9061
▁赈	-9062
▁醍	-9063
▁釁	-9064
par	-9065
▁lp	-9066
▁294	-9067
▁337	-9068
▁341	-9069
▁980	-9070
▁cba	-9071
▁gor	-9072
▁gpu	-9073
▁jud	-9074
▁las	-9075
▁mmc	-9076
▁1598	-9077
▁1620	-9078
▁deep	-9079
▁dist	-9080
▁nick	-9081
▁pont	-9082
▁memor	-9083
▁access	-9084
▁action	-9085
▁arthur	-9086
▁寛	-9087
▁恳	-9088
▁琢	-9089
▁疚	-9090
▁疽	-9091
▁眩	-9092
▁紊	-9093
▁虱	-9094
▁辕	-9095
▁锑	-9096
▁鲈	-9097
▁鴞	-9098
reg	-9099
ved	-9100
▁pb	-9101
▁tm	-9102
head	-9103
▁336	-9104
▁352	-9105
▁brt	-9106
▁kle	-9107
▁lew	-9108
▁via	-9109
▁1511	-9110
▁1619	-9111
▁1642	-9112
▁1647	-9113
▁anal	-9114
▁magn	-9115
ission	-9116
▁table	-9117
ulation	-9118
▁econom	-9119
▁儸	-9120
▁勖	-9121
▁喧	-9122
▁抉	-9123
▁柘	-9124
▁荥	-9125
▁蜓	-9126
▁謚	-9127
▁谤	-9128
▁鄢	-9129
▁钼	-9130
▁閑	-9131
▁霓	-9132
▁颌	-9133
mph	-9134
ola	-9135
rix	-9136
▁6%	-9137
▁df	-9138
▁rx	-9139
▁361	-9140
▁388	-9141
▁389	-9142
▁pad	-9143
▁pix	-9144
abeth	-9145
▁1627	-9146
▁1781	-9147
▁bang	-9148
▁imax	-9149
▁mpeg	-9150
▁rade	-9151
▁side	-9152
▁avenue	-9153
▁academy	-9154
▁austral	-9155
▁surface	-9156
▁्	-9157
▁吩	-9158
▁壠	-9159
▁戳	-9160
▁栢	-9161
▁梟	-9162
▁爹	-9163
▁蜈	-9164
▁讶	-9165
▁貽	-9166
▁鮃	-9167
▁鮡	-9168
elly	-9169
▁445	-9170
▁645	-9171
▁bmt	-9172
ified	-9173
▁1586	-9174
▁1621	-9175
▁1634	-9176
▁1772	-9177
▁most	-9178
▁pers	-9179
▁pink	-9180
▁take	-9181
▁wave	-9182
▁metal	-9183
▁stadium	-9184
▁committee	-9185
▁ē	-9186
▁昴	-9187
▁珥	-9188
▁罂	-9189
▁蚣	-9190
▁遶	-9191
▁醐	-9192
▁雒	-9193
▁鯽	-9194
apt	-9195
bon	-9196
▁ck	-9197
enny	-9198
▁377	-9199
▁486	-9200
▁529	-9201
▁552	-9202
▁940	-9203
▁970	-9204
▁fac	-9205
▁kin	-9206
▁ted	-9207
▁1529	-9208
▁1541	-9209
▁cham	-9210
▁parad	-9211
▁method	-9212
▁geforce	-9213
▁profess	-9214
▁virtual	-9215
▁communic	-9216
▁christoph	-9217
kw	-9218
▁ɔ	-9219
▁咯	-9220
▁嵊	-9221
▁巒	-9222
▁彿	-9223
▁恂	-9224
▁掾	-9225
▁栱	-9226
▁滘	-9227
▁琬	-9228
▁菏	-9229
▁貳	-9230
▁镖	-9231
iti	-9232
lis	-9233
zen	-9234
elli	-9235
▁442	-9236
▁dog	-9237
▁lte	-9238
▁tab	-9239
▁tri	-9240
▁2800	-9241
▁into	-9242
▁laur	-9243
▁seven	-9244
▁radeon	-9245
▁interact	-9246
▁williams	-9247
▁ц	-9248
▁拮	-9249
▁痺	-9250
▁罄	-9251
▁羔	-9252
▁褫	-9253
▁躋	-9254
▁鉻	-9255
▁钰	-9256
▁颤	-9257
▁驊	-9258
▁鲱	-9259
iva	-9260
▁gc	-9261
▁oc	-9262
▁tb	-9263
ogue	-9264
▁349	-9265
▁35%	-9266
▁378	-9267
▁418	-9268
▁526	-9269
▁536	-9270
▁619	-9271
▁fbi	-9272
▁gem	-9273
▁haw	-9274
▁nfl	-9275
▁nin	-9276
▁std	-9277
▁sts	-9278
▁flor	-9279
▁libr	-9280
▁pict	-9281
▁major	-9282
▁santa	-9283
▁philip	-9284
▁english	-9285
▁ゃ	-9286
▁糜	-9287
▁菠	-9288
▁醴	-9289
▁隗	-9290
dom	-9291
▁rn	-9292
▁uh	-9293
kins	-9294
▁413	-9295
▁451	-9296
▁508	-9297
▁531	-9298
prise	-9299
▁1683	-9300
▁cost	-9301
▁stra	-9302
▁tony	-9303
▁prince	-9304
▁ubuntu	-9305
issement	-9306
▁transport	-9307
▁ノ	-9308
▁佰	-9309
▁匕	-9310
▁啼	-9311
▁尷	-9312
▁岖	-9313
▁憬	-9314
▁挚	-9315
▁捣	-9316
▁烴	-9317
▁繭	-9318
▁萩	-9319
atus	-9320
bour	-9321
iant	-9322
ides	-9323
pson	-9324
▁396	-9325
▁406	-9326
▁523	-9327
▁715	-9328
▁hey	-9329
▁reb	-9330
▁1573	-9331
▁1763	-9332
▁1773	-9333
▁1774	-9334
▁mars	-9335
▁sars	-9336
▁some	-9337
▁future	-9338
▁report	-9339
▁theory	-9340
mg	-9341
▁囂	-9342
▁岙	-9343
▁沭	-9344
▁衅	-9345
▁褻	-9346
▁鏗	-9347
▁鹉	-9348
chi	-9349
leg	-9350
olo	-9351
▁426	-9352
▁453	-9353
▁ala	-9354
▁dns	-9355
▁rel	-9356
▁sap	-9357
▁1544	-9358
▁2700	-9359
▁andr	-9360
▁very	-9361
▁contin	-9362
▁effect	-9363
rt	-9364
▁ズ	-9365
▁佯	-9366
▁勺	-9367
▁栃	-9368
▁淅	-9369
▁湮	-9370
▁溼	-9371
▁矫	-9372
▁膦	-9373
▁茴	-9374
▁蜍	-9375
▁鉑	-9376
▁钨	-9377
▁颓	-9378
▁骠	-9379
ami	-9380
▁dy	-9381
ater	-9382
▁622	-9383
▁ill	-9384
▁iss	-9385
▁tot	-9386
iance	-9387
iller	-9388
▁1538	-9389
▁1547	-9390
▁1560	-9391
▁1765	-9392
▁mind	-9393
▁sega	-9394
▁20000	-9395
▁infin	-9396
▁kevin	-9397
▁march	-9398
▁arrond	-9399
▁ョ	-9400
▁匮	-9401
▁幔	-9402
▁杓	-9403
▁滌	-9404
▁緞	-9405
▁譙	-9406
▁鑣	-9407
▁鳶	-9408
acs	-9409
dle	-9410
fri	-9411
icus	-9412
▁379	-9413
▁518	-9414
▁612	-9415
▁721	-9416
▁890	-9417
▁925	-9418
▁kur	-9419
ating	-9420
bourg	-9421
▁1574	-9422
▁1618	-9423
▁1736	-9424
▁3200	-9425
▁turn	-9426
▁15000	-9427
▁magic	-9428
▁arrondissement	-9429
dm	-9430
nm	-9431
▁د	-9432
▁斟	-9433
▁晞	-9434
▁桧	-9435
▁涤	-9436
▁癲	-9437
▁羣	-9438
▁耸	-9439
▁蝮	-9440
▁豌	-9441
▁辻	-9442
▁鏟	-9443
▁韭	-9444
▁餚	-9445
▁魷	-9446
bor	-9447
ues	-9448
utt	-9449
▁aj	-9450
▁332	-9451
▁356	-9452
▁364	-9453
▁524	-9454
▁605	-9455
▁611	-9456
▁lan	-9457
▁nas	-9458
▁deut	-9459
▁mala	-9460
▁mand	-9461
▁pasc	-9462
▁week	-9463
▁brian	-9464
▁times	-9465
▁player	-9466
▁spring	-9467
▁jackson	-9468
ht	-9469
▁«	-9470
▁★	-9471
▁嘩	-9472
▁嵯	-9473
▁弔	-9474
▁洄	-9475
▁盏	-9476
▁臚	-9477
▁觐	-9478
▁讞	-9479
▁軛	-9480
▁遽	-9481
▁铯	-9482
har	-9483
ify	-9484
uce	-9485
uit	-9486
▁394	-9487
▁606	-9488
▁626	-9489
▁bil	-9490
▁gas	-9491
▁gon	-9492
▁him	-9493
▁mis	-9494
▁yes	-9495
▁1150	-9496
▁2025	-9497
▁also	-9498
▁comb	-9499
▁cour	-9500
▁wolf	-9501
▁secur	-9502
▁stone	-9503
▁where	-9504
▁depart	-9505
▁health	-9506
▁review	-9507
▁samuel	-9508
ological	-9509
▁concert	-9510
▁theatre	-9511
ea	-9512
▁υ	-9513
▁囉	-9514
▁嬤	-9515
▁弁	-9516
▁潇	-9517
▁甕	-9518
▁贱	-9519
▁赓	-9520
▁鄚	-9521
▁钳	-9522
700	-9523
mas	-9524
▁kd	-9525
▁kt	-9526
host	-9527
▁371	-9528
▁381	-9529
▁392	-9530
▁466	-9531
▁717	-9532
▁ati	-9533
▁pse	-9534
▁wik	-9535
▁1637	-9536
▁taip	-9537
▁contr	-9538
▁energy	-9539
▁capital	-9540
▁species	-9541
▁挟	-9542
▁猖	-9543
▁蛹	-9544
▁蜻	-9545
▁謫	-9546
▁闷	-9547
▁驢	-9548
ece	-9549
het	-9550
iya	-9551
oke	-9552
oon	-9553
ril	-9554
tex	-9555
▁ya	-9556
esco	-9557
▁376	-9558
▁436	-9559
▁447	-9560
▁475	-9561
▁553	-9562
▁fda	-9563
▁1612	-9564
▁blog	-9565
▁eliz	-9566
▁ring	-9567
▁roll	-9568
▁sher	-9569
▁walk	-9570
▁chart	-9571
▁jacob	-9572
▁offic	-9573
py	-9574
▁ш	-9575
▁庠	-9576
▁揣	-9577
▁敍	-9578
▁昀	-9579
▁杲	-9580
▁澹	-9581
▁県	-9582
▁芎	-9583
▁酐	-9584
▁靚	-9585
▁鸢	-9586
ete	-9587
wer	-9588
▁cj	-9589
acle	-9590
back	-9591
▁397	-9592
▁399	-9593
▁458	-9594
▁549	-9595
▁624	-9596
▁907	-9597
▁aur	-9598
▁dun	-9599
▁sas	-9600
ences	-9601
gress	-9602
▁1450	-9603
▁1616	-9604
▁1689	-9605
▁1759	-9606
▁doug	-9607
▁five	-9608
▁imag	-9609
▁make	-9610
▁phys	-9611
ension	-9612
▁shine	-9613
▁active	-9614
▁friedrich	-9615
▁呵	-9616
▁袒	-9617
▁镕	-9618
▁鸥	-9619
240	-9620
rot	-9621
▁516	-9622
▁556	-9623
▁98%	-9624
▁abb	-9625
▁dip	-9626
▁fat	-9627
▁tun	-9628
ments	-9629
▁1631	-9630
▁1727	-9631
▁been	-9632
▁cant	-9633
▁fami	-9634
▁kids	-9635
▁perl	-9636
▁12000	-9637
▁robin	-9638
▁invest	-9639
▁johann	-9640
▁俟	-9641
▁幺	-9642
▁戸	-9643
▁瞩	-9644
▁诽	-9645
▁邠	-9646
▁驥	-9647
▁鰲	-9648
▁黍	-9649
109	-9650
rum	-9651
igan	-9652
inus	-9653
ough	-9654
▁363	-9655
▁51%	-9656
▁519	-9657
▁545	-9658
▁637	-9659
▁civ	-9660
▁dir	-9661
▁mba	-9662
▁nec	-9663
▁1487	-9664
▁1490	-9665
▁1623	-9666
▁1649	-9667
▁1724	-9668
▁1755	-9669
▁1762	-9670
▁1782	-9671
▁6500	-9672
▁days	-9673
▁priv	-9674
▁than	-9675
▁wash	-9676
▁simon	-9677
▁wonder	-9678
▁electron	-9679
▁ã	-9680
▁嬅	-9681
▁懒	-9682
▁漪	-9683
▁漾	-9684
▁矾	-9685
▁羡	-9686
▁螞	-9687
▁邛	-9688
▁銮	-9689
ali	-9690
eld	-9691
enz	-9692
her	-9693
lah	-9694
vis	-9695
unch	-9696
view	-9697
▁368	-9698
▁374	-9699
▁383	-9700
▁433	-9701
▁444	-9702
▁455	-9703
▁616	-9704
▁718	-9705
▁973	-9706
▁aqu	-9707
▁ara	-9708
▁ddr	-9709
▁kid	-9710
▁zip	-9711
▁1562	-9712
▁1725	-9713
▁1735	-9714
▁case	-9715
▁rele	-9716
▁stop	-9717
▁vita	-9718
uction	-9719
▁match	-9720
▁michel	-9721
▁pentium	-9722
ification	-9723
▁division	-9724
▁æ	-9725
▁ć	-9726
▁ご	-9727
▁掺	-9728
▁瑭	-9729
▁瑯	-9730
▁璿	-9731
▁盞	-9732
▁睐	-9733
▁睫	-9734
▁繇	-9735
▁邃	-9736
▁鬃	-9737
▁鰺	-9738
▁鹫	-9739
bro	-9740
isk	-9741
omo	-9742
uki	-9743
uma	-9744
▁fs	-9745
▁pf	-9746
iron	-9747
ogen	-9748
reme	-9749
ucle	-9750
ways	-9751
▁18%	-9752
▁422	-9753
▁424	-9754
▁517	-9755
▁534	-9756
▁790	-9757
▁815	-9758
▁835	-9759
▁99%	-9760
▁aer	-9761
▁pak	-9762
▁roc	-9763
ollow	-9764
▁1567	-9765
▁1722	-9766
▁1748	-9767
▁anne	-9768
▁anti	-9769
▁gear	-9770
▁here	-9771
▁nico	-9772
▁jason	-9773
▁sweet	-9774
▁tower	-9775
▁garden	-9776
▁walter	-9777
ez	-9778
gy	-9779
▁­	-9780
▁嗽	-9781
▁囤	-9782
▁嫦	-9783
▁忏	-9784
▁憧	-9785
▁漓	-9786
▁焯	-9787
▁瓏	-9788
▁裨	-9789
▁鉗	-9790
▁이	-9791
alk	-9792
lan	-9793
ten	-9794
▁gs	-9795
▁ik	-9796
▁xm	-9797
atan	-9798
chen	-9799
etty	-9800
▁408	-9801
▁429	-9802
▁613	-9803
▁635	-9804
▁755	-9805
▁821	-9806
▁ali	-9807
▁bot	-9808
▁cel	-9809
▁hyd	-9810
▁joy	-9811
▁1466	-9812
▁1624	-9813
▁1721	-9814
▁1768	-9815
▁5500	-9816
▁area	-9817
▁gamer	-9818
▁nicon	-9819
▁taipei	-9820
mc	-9821
▁嫖	-9822
▁漬	-9823
▁珅	-9824
▁砦	-9825
▁缽	-9826
▁舫	-9827
▁茗	-9828
▁譏	-9829
▁跻	-9830
aco	-9831
fly	-9832
iny	-9833
oni	-9834
ove	-9835
▁dk	-9836
bach	-9837
▁362	-9838
▁423	-9839
▁522	-9840
▁55%	-9841
▁990	-9842
▁dra	-9843
▁lie	-9844
▁usa	-9845
ennis	-9846
▁1651	-9847
▁1659	-9848
▁1713	-9849
▁1717	-9850
▁1720	-9851
▁1729	-9852
▁carr	-9853
▁corn	-9854
▁cube	-9855
▁full	-9856
▁inte	-9857
▁step	-9858
▁stars	-9859
▁double	-9860
▁niconico	-9861
▁་	-9862
▁ば	-9863
▁奭	-9864
▁崭	-9865
▁拚	-9866
▁棻	-9867
▁潁	-9868
▁琊	-9869
▁瓢	-9870
▁砥	-9871
▁筝	-9872
▁脛	-9873
▁觅	-9874
▁赉	-9875
▁铨	-9876
▁頷	-9877
▁颚	-9878
▁9%	-9879
asia	-9880
bang	-9881
iner	-9882
▁372	-9883
▁409	-9884
▁487	-9885
▁488	-9886
▁762	-9887
▁796	-9888
▁ach	-9889
▁age	-9890
▁bow	-9891
▁lud	-9892
▁pci	-9893
▁pic	-9894
▁thr	-9895
▁1250	-9896
▁1502	-9897
▁1540	-9898
▁1578	-9899
▁1629	-9900
▁1652	-9901
▁1701	-9902
▁1707	-9903
▁acid	-9904
▁adhd	-9905
▁cole	-9906
▁lisa	-9907
▁hyper	-9908
▁pascal	-9909
▁fantasy	-9910
▁≤	-9911
▁ゆ	-9912
▁ツ	-9913
▁ㄧ	-9914
▁偈	-9915
▁儁	-9916
▁剋	-9917
▁晁	-9918
▁炜	-9919
▁瑗	-9920
▁羥	-9921
▁胭	-9922
▁詣	-9923
▁賁	-9924
▁釷	-9925
▁闫	-9926
▁顗	-9927
▁鮫	-9928
▁鳕	-9929
350	-9930
azz	-9931
mes	-9932
met	-9933
▁ci	-9934
▁cz	-9935
▁dp	-9936
▁jp	-9937
▁′′	-9938
illy	-9939
▁477	-9940
▁496	-9941
▁499	-9942
▁546	-9943
▁765	-9944
▁847	-9945
▁cia	-9946
▁gsm	-9947
▁jet	-9948
▁rib	-9949
▁sed	-9950
▁1496	-9951
▁1535	-9952
▁juan	-9953
▁thro	-9954
▁board	-9955
▁archit	-9956
▁perfect	-9957
▁original	-9958
▁ร	-9959
▁ど	-9960
▁乩	-9961
▁哑	-9962
▁桀	-9963
▁様	-9964
▁浬	-9965
▁滸	-9966
▁燁	-9967
▁笹	-9968
▁绮	-9969
▁軾	-9970
▁鐳	-9971
▁钒	-9972
▁闍	-9973
gam	-9974
inn	-9975
ken	-9976
ori	-9977
uan	-9978
▁mw	-9979
▁ow	-9980
▁vv	-9981
▁443	-9982
▁557	-9983
▁561	-9984
▁675	-9985
▁735	-9986
▁759	-9987
▁910	-9988
▁929	-9989
▁rab	-9990
▁1609	-9991
▁1615	-9992
▁1633	-9993
▁1740	-9994
▁1757	-9995
▁1771	-9996
▁fast	-9997
▁path	-9998
▁shop	-9999
▁directx	-10000
▁vocaloid	-10001
▁ふ	-10002
▁凜	-10003
▁咄	-10004
▁廍	-10005
▁榷	-10006
▁涸	-10007
▁瀘	-10008
▁犛	-10009
▁瓘	-10010
▁稔	-10011
▁簪	-10012
▁綦	-10013
▁蕲	-10014
▁蝓	-10015
▁贲	-10016
▁逞	-10017
▁錳	-10018
▁hm	-10019
▁ix	-10020
ando	-10021
ardo	-10022
ites	-10023
ives	-10024
▁439	-10025
▁514	-10026
▁547	-10027
▁575	-10028
▁585	-10029
▁648	-10030
▁atr	-10031
▁cer	-10032
▁kab	-10033
▁loc	-10034
atory	-10035
inder	-10036
▁1654	-10037
▁1662	-10038
▁1745	-10039
▁1752	-10040
▁2023	-10041
▁cart	-10042
▁coll	-10043
▁fred	-10044
▁hell	-10045
▁alice	-10046
▁index	-10047
▁movie	-10048
▁roger	-10049
▁taylor	-10050
▁library	-10051
▁mission	-10052
▁building	-10053
▁services	-10054
▁government	-10055
bu	-10056
dc	-10057
▁ś	-10058
▁墉	-10059
▁帚	-10060
▁撻	-10061
▁涓	-10062
▁瑁	-10063
▁糸	-10064
▁蛞	-10065
▁螃	-10066
▁褪	-10067
▁诡	-10068
▁郤	-10069
▁鳖	-10070
bre	-10071
hol	-10072
yan	-10073
▁gw	-10074
▁lc	-10075
▁mh	-10076
▁zo	-10077
▁506	-10078
▁551	-10079
▁587	-10080
▁668	-10081
▁676	-10082
▁996	-10083
▁das	-10084
▁dre	-10085
▁enc	-10086
▁lcd	-10087
▁lem	-10088
enger	-10089
thers	-10090
▁1522	-10091
▁1585	-10092
▁1589	-10093
▁1593	-10094
▁1684	-10095
▁body	-10096
▁gord	-10097
▁mode	-10098
▁smap	-10099
▁tell	-10100
▁based	-10101
▁lewis	-10102
▁money	-10103
▁france	-10104
▁complex	-10105
▁gamespot	-10106
sd	-10107
▁ˈ	-10108
▁ж	-10109
▁む	-10110
▁匱	-10111
▁垛	-10112
▁垩	-10113
▁嵇	-10114
▁帷	-10115
▁摒	-10116
▁楯	-10117
▁濡	-10118
▁絳	-10119
▁阗	-10120
▁鵜	-10121
cle	-10122
ief	-10123
nam	-10124
ols	-10125
pur	-10126
ray	-10127
umi	-10128
iday	-10129
▁438	-10130
▁45%	-10131
▁538	-10132
▁596	-10133
▁cos	-10134
▁daw	-10135
▁kel	-10136
▁pia	-10137
▁pra	-10138
▁1505	-10139
▁1584	-10140
▁1670	-10141
▁3166	-10142
▁anna	-10143
▁cash	-10144
▁espn	-10145
▁hosp	-10146
▁lock	-10147
▁sail	-10148
▁sens	-10149
▁viii	-10150
▁wing	-10151
▁lucas	-10152
▁paris	-10153
▁freder	-10154
▁wester	-10155
▁advance	-10156
▁francisco	-10157
▁christopher	-10158
▁嗚	-10159
▁嚨	-10160
▁峴	-10161
▁涝	-10162
▁綵	-10163
▁縻	-10164
▁荨	-10165
▁餌	-10166
▁駙	-10167
oda	-10168
ulu	-10169
▁sq	-10170
▁xe	-10171
odes	-10172
▁373	-10173
▁452	-10174
▁712	-10175
▁kay	-10176
▁kom	-10177
▁npc	-10178
▁pit	-10179
▁vit	-10180
▁1457	-10181
▁auth	-10182
▁diam	-10183
▁font	-10184
▁vent	-10185
▁gnome	-10186
▁macos	-10187
▁ville	-10188
▁harris	-10189
▁modern	-10190
▁republ	-10191
▁termin	-10192
▁enterprise	-10193
zz	-10194
▁呋	-10195
▁咱	-10196
▁哄	-10197
▁娣	-10198
▁扛	-10199
▁楫	-10200
▁歿	-10201
▁疱	-10202
▁蹦	-10203
▁邾	-10204
▁靛	-10205
arm	-10206
▁ee	-10207
▁387	-10208
▁483	-10209
▁489	-10210
▁494	-10211
▁521	-10212
▁533	-10213
▁603	-10214
▁604	-10215
▁614	-10216
▁656	-10217
▁798	-10218
▁825	-10219
▁ful	-10220
▁mut	-10221
usion	-10222
▁1688	-10223
▁1751	-10224
▁cosp	-10225
▁mort	-10226
▁rank	-10227
▁snow	-10228
▁trib	-10229
▁georg	-10230
▁valley	-10231
▁alexand	-10232
▁product	-10233
▁computer	-10234
▁architect	-10235
▁countdown	-10236
bb	-10237
▁ı	-10238
▁́	-10239
▁ζ	-10240
▁س	-10241
▁囱	-10242
▁毎	-10243
▁疮	-10244
▁癇	-10245
▁癡	-10246
▁盯	-10247
▁碓	-10248
▁耘	-10249
▁聋	-10250
▁蠔	-10251
▁頹	-10252
esa	-10253
idi	-10254
omy	-10255
vet	-10256
zzo	-10257
▁kc	-10258
ists	-10259
▁454	-10260
▁513	-10261
▁598	-10262
▁623	-10263
▁cut	-10264
▁det	-10265
▁exe	-10266
▁fro	-10267
▁hub	-10268
▁kol	-10269
▁rca	-10270
▁tap	-10271
▁won	-10272
▁zen	-10273
music	-10274
otion	-10275
ument	-10276
▁1561	-10277
▁1658	-10278
▁1756	-10279
▁nord	-10280
▁resp	-10281
▁spect	-10282
▁amazon	-10283
▁castle	-10284
▁histor	-10285
▁memory	-10286
▁freedom	-10287
▁holdings	-10288
▁victoria	-10289
gn	-10290
rd	-10291
▁炊	-10292
▁痰	-10293
▁綻	-10294
▁菈	-10295
▁豺	-10296
▁隈	-10297
▁颉	-10298
vey	-10299
yer	-10300
▁dx	-10301
▁vt	-10302
▁xf	-10303
alia	-10304
onic	-10305
time	-10306
▁437	-10307
▁457	-10308
▁464	-10309
▁558	-10310
▁638	-10311
▁706	-10312
▁725	-10313
▁775	-10314
▁876	-10315
▁ans	-10316
▁bak	-10317
▁fem	-10318
▁lyn	-10319
▁ost	-10320
▁pga	-10321
▁sdk	-10322
ether	-10323
▁1280	-10324
▁1655	-10325
▁1664	-10326
▁come	-10327
▁gate	-10328
▁need	-10329
▁mathe	-10330
▁watch	-10331
▁applic	-10332
▁chrome	-10333
▁differ	-10334
▁return	-10335
di	-10336
gu	-10337
▁ت	-10338
▁ぶ	-10339
▁勅	-10340
▁匐	-10341
▁専	-10342
▁屹	-10343
▁珙	-10344
▁璨	-10345
▁藕	-10346
▁郯	-10347
▁锷	-10348
▁驷	-10349
air	-10350
amo	-10351
elo	-10352
nie	-10353
agar	-10354
case	-10355
wart	-10356
▁498	-10357
▁532	-10358
▁567	-10359
▁568	-10360
▁643	-10361
▁748	-10362
▁756	-10363
▁938	-10364
▁edu	-10365
▁nig	-10366
▁rol	-10367
▁sex	-10368
▁sie	-10369
▁ufo	-10370
ading	-10371
▁1626	-10372
▁1665	-10373
▁1667	-10374
▁cass	-10375
▁dohc	-10376
▁gaon	-10377
▁lisp	-10378
▁quad	-10379
▁autom	-10380
▁metro	-10381
▁turbo	-10382
▁cosplay	-10383
▁pacific	-10384
▁patrick	-10385
▁universal	-10386
▁interactive	-10387
yo	-10388
▁―	-10389
▁ほ	-10390
▁吶	-10391
▁嫣	-10392
▁柝	-10393
▁涕	-10394
▁燬	-10395
▁稗	-10396
▁筷	-10397
▁苋	-10398
▁蟎	-10399
▁贓	-10400
▁馅	-10401
▁鱧	-10402
▁鱲	-10403
▁鳗	-10404
arc	-10405
gas	-10406
ocr	-10407
▁rr	-10408
agen	-10409
eman	-10410
ipal	-10411
▁478	-10412
▁527	-10413
▁634	-10414
▁731	-10415
▁896	-10416
▁937	-10417
▁945	-10418
▁arn	-10419
▁chu	-10420
▁esp	-10421
▁mys	-10422
▁pep	-10423
▁ral	-10424
▁1475	-10425
▁1545	-10426
▁1604	-10427
▁1613	-10428
▁1754	-10429
▁gran	-10430
ential	-10431
▁davis	-10432
▁そ	-10433
▁亟	-10434
▁冪	-10435
▁剷	-10436
▁嚐	-10437
▁岫	-10438
▁珏	-10439
▁珩	-10440
▁瘠	-10441
▁绯	-10442
▁缙	-10443
▁胪	-10444
▁腭	-10445
▁覬	-10446
▁谚	-10447
▁趴	-10448
▁釵	-10449
▁鸫	-10450
ige	-10451
ils	-10452
lon	-10453
▁bj	-10454
▁ek	-10455
▁hg	-10456
▁pw	-10457
bers	-10458
more	-10459
▁050	-10460
▁467	-10461
▁484	-10462
▁571	-10463
▁577	-10464
▁713	-10465
▁928	-10466
▁935	-10467
▁968	-10468
▁dlc	-10469
▁gib	-10470
▁itv	-10471
▁jag	-10472
▁nac	-10473
▁oly	-10474
▁tvn	-10475
berry	-10476
eland	-10477
▁1569	-10478
▁1572	-10479
▁1575	-10480
▁1601	-10481
▁1614	-10482
▁1635	-10483
▁epic	-10484
▁fern	-10485
▁mail	-10486
▁mrna	-10487
▁nich	-10488
▁page	-10489
▁poem	-10490
▁yosh	-10491
▁ghost	-10492
▁airport	-10493
▁department	-10494
cp	-10495
▁ی	-10496
▁哗	-10497
▁囪	-10498
▁帑	-10499
▁恿	-10500
▁揀	-10501
▁槛	-10502
▁煲	-10503
▁玠	-10504
▁琇	-10505
▁秽	-10506
▁翩	-10507
▁萸	-10508
▁訛	-10509
▁醌	-10510
▁鈸	-10511
▁陟	-10512
▁靺	-10513
▁鱔	-10514
fan	-10515
pro	-10516
aver	-10517
oper	-10518
ross	-10519
ules	-10520
▁431	-10521
▁507	-10522
▁586	-10523
▁595	-10524
▁632	-10525
▁633	-10526
▁657	-10527
▁678	-10528
▁806	-10529
▁965	-10530
▁bol	-10531
▁exo	-10532
▁jar	-10533
▁kad	-10534
▁neo	-10535
▁sak	-10536
▁1370	-10537
▁1493	-10538
▁1520	-10539
▁1530	-10540
▁1657	-10541
▁1699	-10542
▁1726	-10543
▁1732	-10544
▁1747	-10545
▁bert	-10546
▁buff	-10547
▁kind	-10548
▁mega	-10549
▁myst	-10550
▁root	-10551
▁tang	-10552
▁vinc	-10553
▁audio	-10554
▁exper	-10555
▁attack	-10556
▁planet	-10557
▁elizabeth	-10558
▁揪	-10559
▁摻	-10560
▁獺	-10561
▁痢	-10562
▁硤	-10563
▁缨	-10564
▁芩	-10565
▁鎢	-10566
▁钡	-10567
▁霾	-10568
106	-10569
iri	-10570
lac	-10571
mal	-10572
iers	-10573
ifer	-10574
itar	-10575
▁13%	-10576
▁463	-10577
▁495	-10578
▁503	-10579
▁599	-10580
▁629	-10581
▁658	-10582
▁738	-10583
▁811	-10584
▁isa	-10585
▁tea	-10586
antic	-10587
▁1050	-10588
▁1350	-10589
▁1526	-10590
▁1605	-10591
▁1733	-10592
▁andy	-10593
▁burn	-10594
▁lear	-10595
▁ryan	-10596
▁being	-10597
▁naver	-10598
▁openg	-10599
▁integr	-10600
▁noinclude	-10601
bf	-10602
kn	-10603
vc	-10604
▁ず	-10605
▁恽	-10606
▁渺	-10607
▁濛	-10608
▁璠	-10609
▁砵	-10610
▁銨	-10611
iae	-10612
imo	-10613
ois	-10614
▁kb	-10615
▁mn	-10616
etta	-10617
hedr	-10618
helm	-10619
okia	-10620
ries	-10621
▁14%	-10622
▁456	-10623
▁684	-10624
▁714	-10625
▁716	-10626
▁719	-10627
▁768	-10628
▁838	-10629
▁845	-10630
▁905	-10631
▁bom	-10632
▁lil	-10633
▁nan	-10634
▁nel	-10635
▁smk	-10636
▁1260	-10637
▁earl	-10638
▁fish	-10639
▁gene	-10640
▁grav	-10641
▁hart	-10642
▁null	-10643
▁polit	-10644
▁short	-10645
▁debian	-10646
▁wilson	-10647
▁classic	-10648
▁friends	-10649
▁hospital	-10650
▁portable	-10651
▁ş	-10652
▁喵	-10653
▁恙	-10654
▁殡	-10655
▁玳	-10656
▁莢	-10657
▁诲	-10658
▁轼	-10659
▁锟	-10660
▁陲	-10661
▁鞨	-10662
▁餾	-10663
▁鯡	-10664
▁鹳	-10665
ads	-10666
iac	-10667
rin	-10668
▁bp	-10669
▁xi	-10670
bell	-10671
endo	-10672
ersh	-10673
ilog	-10674
sche	-10675
▁461	-10676
▁472	-10677
▁539	-10678
▁541	-10679
▁562	-10680
▁565	-10681
▁597	-10682
▁685	-10683
▁687	-10684
▁698	-10685
▁708	-10686
▁761	-10687
▁998	-10688
▁any	-10689
▁ark	-10690
▁ras	-10691
▁vhs	-10692
imate	-10693
peria	-10694
scape	-10695
▁1524	-10696
▁1581	-10697
▁1679	-10698
▁bass	-10699
▁food	-10700
▁shin	-10701
▁then	-10702
enberg	-10703
▁scope	-10704
▁these	-10705
▁women	-10706
▁commer	-10707
▁miller	-10708
▁singap	-10709
▁showcase	-10710
▁evolution	-10711
eg	-10712
oi	-10713
▁đ	-10714
▁ा	-10715
▁セ	-10716
▁嚕	-10717
▁忿	-10718
▁汜	-10719
▁爍	-10720
▁犢	-10721
▁珣	-10722
▁窥	-10723
▁緹	-10724
▁菟	-10725
▁錮	-10726
▁鯔	-10727
▁鵙	-10728
103	-10729
ido	-10730
▁hx	-10731
▁tp	-10732
haus	-10733
itan	-10734
osph	-10735
wick	-10736
▁468	-10737
▁492	-10738
▁582	-10739
▁636	-10740
▁666	-10741
▁681	-10742
▁728	-10743
▁732	-10744
▁741	-10745
▁751	-10746
▁895	-10747
▁975	-10748
▁ccd	-10749
▁nap	-10750
▁ncc	-10751
ament	-10752
▁1460	-10753
▁1481	-10754
▁1555	-10755
▁1607	-10756
▁1666	-10757
▁1690	-10758
▁1697	-10759
▁1728	-10760
▁1739	-10761
▁1766	-10762
▁1769	-10763
▁7500	-10764
▁cond	-10765
▁feel	-10766
▁hein	-10767
▁lanc	-10768
▁cinem	-10769
▁dynam	-10770
▁local	-10771
▁marsh	-10772
▁prime	-10773
▁pseud	-10774
▁ultra	-10775
▁freebsd	-10776
▁machine	-10777
▁russell	-10778
▁advanced	-10779
▁ね	-10780
▁噹	-10781
▁峠	-10782
▁擘	-10783
▁歴	-10784
▁滂	-10785
▁澆	-10786
▁爨	-10787
▁痒	-10788
▁痹	-10789
▁瘀	-10790
▁癢	-10791
▁瞪	-10792
▁蜚	-10793
▁锣	-10794
▁镛	-10795
cat	-10796
edy	-10797
gie	-10798
uda	-10799
uen	-10800
usa	-10801
▁1⁄	-10802
anch	-10803
odon	-10804
olis	-10805
▁11%	-10806
▁33%	-10807
▁576	-10808
▁689	-10809
▁704	-10810
▁829	-10811
▁855	-10812
▁bos	-10813
▁ipa	-10814
▁tag	-10815
▁vor	-10816
▁whe	-10817
ature	-10818
epend	-10819
▁1130	-10820
▁1602	-10821
▁1603	-10822
▁1639	-10823
▁1737	-10824
▁bart	-10825
▁hack	-10826
▁jord	-10827
▁ling	-10828
▁past	-10829
▁tree	-10830
▁cover	-10831
▁honey	-10832
▁songs	-10833
lection	-10834
▁alfred	-10835
▁oliver	-10836
▁xperia	-10837
▁western	-10838
▁mountain	-10839
▁revolution	-10840
ye	-10841
▁э	-10842
▁吝	-10843
▁幀	-10844
▁掳	-10845
▁梆	-10846
▁櫟	-10847
▁燎	-10848
▁禀	-10849
▁笏	-10850
▁腮	-10851
▁萘	-10852
▁蒯	-10853
▁蛻	-10854
▁骡	-10855
▁鶲	-10856
105	-10857
aza	-10858
hew	-10859
iph	-10860
ogo	-10861
uff	-10862
ente	-10863
inte	-10864
stal	-10865
▁434	-10866
▁446	-10867
▁574	-10868
▁593	-10869
▁65%	-10870
▁699	-10871
▁812	-10872
▁846	-10873
▁908	-10874
▁933	-10875
▁936	-10876
▁969	-10877
▁hyp	-10878
▁nik	-10879
▁obs	-10880
▁rud	-10881
▁sid	-10882
▁vip	-10883
eless	-10884
ilton	-10885
▁1525	-10886
▁1718	-10887
▁auto	-10888
▁dash	-10889
▁dave	-10890
▁want	-10891
action	-10892
▁gamec	-10893
▁imper	-10894
▁jimmy	-10895
▁olymp	-10896
▁quick	-10897
▁twins	-10898
chester	-10899
ference	-10900
ography	-10901
▁opengl	-10902
▁triple	-10903
▁forever	-10904
▁studies	-10905
▁brothers	-10906
▁啮	-10907
▁歩	-10908
▁獗	-10909
▁睇	-10910
▁碣	-10911
▁碲	-10912
▁肼	-10913
▁诣	-10914
▁鋤	-10915
▁鱺	-10916
adi	-10917
oul	-10918
rod	-10919
▁dn	-10920
▁hl	-10921
▁ks	-10922
▁px	-10923
bury	-10924
mark	-10925
rian	-10926
ysis	-10927
▁393	-10928
▁493	-10929
▁544	-10930
▁569	-10931
▁651	-10932
▁659	-10933
▁683	-10934
▁696	-10935
▁744	-10936
▁912	-10937
▁915	-10938
▁926	-10939
▁962	-10940
▁hav	-10941
▁msn	-10942
▁1276	-10943
▁1478	-10944
▁1513	-10945
▁1587	-10946
▁1591	-10947
▁1611	-10948
▁1632	-10949
▁1653	-10950
▁1714	-10951
▁3600	-10952
▁carp	-10953
▁dual	-10954
▁ferr	-10955
▁gary	-10956
▁iron	-10957
▁jane	-10958
▁khan	-10959
▁kick	-10960
▁look	-10961
▁used	-10962
▁wong	-10963
▁solar	-10964
▁framework	-10965
▁singapore	-10966
hl	-10967
▁俨	-10968
▁徭	-10969
▁慑	-10970
▁梶	-10971
▁櫸	-10972
▁氪	-10973
▁瀬	-10974
▁焜	-10975
▁猥	-10976
▁獠	-10977
▁縉	-10978
▁蒨	-10979
▁訖	-10980
▁辙	-10981
▁郗	-10982
▁錒	-10983
▁钏	-10984
▁閹	-10985
▁阈	-10986
▁霏	-10987
▁鯖	-10988
▁龢	-10989
aru	-10990
hal	-10991
▁bn	-10992
aten	-10993
onda	-10994
▁435	-10995
▁441	-10996
▁474	-10997
▁563	-10998
▁647	-10999
▁652	-11000
▁722	-11001
▁813	-11002
▁fis	-11003
▁lac	-11004
▁nem	-11005
▁oce	-11006
▁ois	-11007
▁sud	-11008
▁tog	-11009
▁1024	-11010
▁1127	-11011
▁1220	-11012
▁1588	-11013
▁1641	-11014
▁1681	-11015
▁1682	-11016
▁cath	-11017
▁cdma	-11018
▁spot	-11019
intosh	-11020
▁exile	-11021
▁roman	-11022
▁struct	-11023
▁premium	-11024
zh	-11025
▁俶	-11026
▁儷	-11027
▁喱	-11028
▁壑	-11029
▁妞	-11030
▁孰	-11031
▁憫	-11032
▁拗	-11033
▁晔	-11034
▁暐	-11035
▁漯	-11036
▁煇	-11037
▁玮	-11038
▁萤	-11039
▁藨	-11040
▁蜷	-11041
▁谯	-11042
▁蹇	-11043
▁輒	-11044
▁鄯	-11045
▁雋	-11046
▁骧	-11047
25%	-11048
emi	-11049
mur	-11050
ype	-11051
▁eu	-11052
▁xc	-11053
ancy	-11054
atch	-11055
ized	-11056
ones	-11057
tran	-11058
▁509	-11059
▁566	-11060
▁602	-11061
▁642	-11062
▁655	-11063
▁805	-11064
▁863	-11065
▁cav	-11066
▁emp	-11067
▁eug	-11068
▁fur	-11069
▁jas	-11070
▁kap	-11071
▁nak	-11072
▁nob	-11073
▁nom	-11074
▁oem	-11075
▁ric	-11076
▁tet	-11077
enter	-11078
istic	-11079
▁1564	-11080
▁1638	-11081
▁1668	-11082
▁1676	-11083
▁1753	-11084
▁bord	-11085
▁gent	-11086
▁lion	-11087
▁mond	-11088
▁wang	-11089
▁azure	-11090
▁canon	-11091
▁lumia	-11092
▁plaza	-11093
▁think	-11094
▁johnny	-11095
▁knight	-11096
▁margar	-11097
▁spirit	-11098
▁winter	-11099
▁charlie	-11100
▁natural	-11101
▁village	-11102
▁exchange	-11103
▁independ	-11104
▁า	-11105
▁ワ	-11106
▁俺	-11107
▁匍	-11108
▁揖	-11109
▁昉	-11110
▁湃	-11111
▁滎	-11112
▁瑀	-11113
▁臍	-11114
▁蚪	-11115
▁蝌	-11116
▁钯	-11117
▁铋	-11118
▁铠	-11119
▁阆	-11120
▁鯤	-11121
310	-11122
alo	-11123
▁rg	-11124
▁za	-11125
ashi	-11126
ecam	-11127
ians	-11128
izon	-11129
▁391	-11130
▁702	-11131
▁711	-11132
▁723	-11133
▁763	-11134
▁809	-11135
▁819	-11136
▁867	-11137
▁beh	-11138
▁cem	-11139
▁sle	-11140
itive	-11141
▁1270	-11142
▁1508	-11143
▁1519	-11144
▁1617	-11145
▁1672	-11146
▁1685	-11147
▁1702	-11148
▁easy	-11149
▁mate	-11150
▁room	-11151
▁ther	-11152
▁25000	-11153
▁harry	-11154
▁mater	-11155
▁piece	-11156
▁youth	-11157
▁blackp	-11158
▁carlos	-11159
▁gordon	-11160
▁lamigo	-11161
▁another	-11162
▁antonio	-11163
▁alliance	-11164
▁memorial	-11165
▁washington	-11166
wc	-11167
▁ː	-11168
▁ネ	-11169
▁僮	-11170
▁刈	-11171
▁宓	-11172
▁弑	-11173
▁晗	-11174
▁櫥	-11175
▁熒	-11176
▁盱	-11177
▁禛	-11178
▁菓	-11179
▁谘	-11180
▁郃	-11181
▁铮	-11182
▁閨	-11183
een	-11184
emy	-11185
lav	-11186
lie	-11187
oca	-11188
uto	-11189
▁wm	-11190
aria	-11191
base	-11192
ween	-11193
▁497	-11194
▁504	-11195
▁682	-11196
▁726	-11197
▁729	-11198
▁734	-11199
▁948	-11200
▁971	-11201
▁ble	-11202
▁ian	-11203
▁ner	-11204
▁pul	-11205
▁sis	-11206
craft	-11207
iment	-11208
stone	-11209
▁1001	-11210
▁1010	-11211
▁1180	-11212
▁1532	-11213
▁1542	-11214
▁1597	-11215
▁1687	-11216
▁1738	-11217
▁1761	-11218
▁1764	-11219
▁atom	-11220
▁avex	-11221
▁barb	-11222
▁giov	-11223
▁gram	-11224
▁gray	-11225
▁30000	-11226
▁cloud	-11227
▁medic	-11228
▁storm	-11229
ination	-11230
ologies	-11231
▁agency	-11232
▁living	-11233
▁through	-11234
▁wilhelm	-11235
▁security	-11236
▁engineering	-11237
df	-11238
▁坯	-11239
▁姍	-11240
▁拭	-11241
▁枷	-11242
▁榘	-11243
▁橐	-11244
▁殃	-11245
▁燙	-11246
▁猕	-11247
▁猗	-11248
▁瘍	-11249
▁碚	-11250
▁粿	-11251
▁脐	-11252
▁苴	-11253
▁醞	-11254
▁錡	-11255
▁閭	-11256
▁骥	-11257
▁髦	-11258
▁魴	-11259
▁麋	-11260
ards	-11261
ione	-11262
▁17%	-11263
▁559	-11264
▁573	-11265
▁609	-11266
▁644	-11267
▁754	-11268
▁778	-11269
▁816	-11270
▁823	-11271
▁918	-11272
▁923	-11273
▁976	-11274
▁amx	-11275
▁nit	-11276
▁pav	-11277
▁pil	-11278
▁tgv	-11279
▁typ	-11280
ienne	-11281
ische	-11282
under	-11283
▁1430	-11284
▁1454	-11285
▁1566	-11286
▁1656	-11287
▁1675	-11288
▁1703	-11289
▁1719	-11290
▁1734	-11291
▁1742	-11292
▁3300	-11293
▁army	-11294
▁coco	-11295
▁demo	-11296
▁gust	-11297
▁mall	-11298
▁nova	-11299
▁prod	-11300
▁self	-11301
▁allen	-11302
▁asian	-11303
▁creek	-11304
▁texas	-11305
▁canada	-11306
▁legend	-11307
▁origin	-11308
▁sailor	-11309
▁anthony	-11310
▁archive	-11311
▁bigbang	-11312
▁environ	-11313
▁christmas	-11314
▁president	-11315
▁亵	-11316
▁孖	-11317
▁攒	-11318
▁槻	-11319
▁澂	-11320
▁烨	-11321
▁絢	-11322
▁翱	-11323
▁莿	-11324
▁藐	-11325
▁诀	-11326
▁蹶	-11327
▁軫	-11328
▁轧	-11329
▁钗	-11330
▁颊	-11331
▁飙	-11332
▁馭	-11333
▁鸮	-11334
▁齧	-11335
116	-11336
aku	-11337
mum	-11338
ono	-11339
orf	-11340
rov	-11341
uka	-11342
▁lf	-11343
▁sz	-11344
ande	-11345
fore	-11346
vard	-11347
▁49%	-11348
▁554	-11349
▁641	-11350
▁688	-11351
▁691	-11352
▁733	-11353
▁826	-11354
▁888	-11355
▁934	-11356
▁bed	-11357
▁gig	-11358
▁lux	-11359
▁obe	-11360
▁vcd	-11361
▁1140	-11362
▁1330	-11363
▁1440	-11364
▁1492	-11365
▁1543	-11366
▁1715	-11367
▁eyes	-11368
▁oliv	-11369
▁pain	-11370
▁scar	-11371
▁vice	-11372
▁xiii	-11373
friend	-11374
▁admin	-11375
▁brook	-11376
▁clark	-11377
▁ident	-11378
▁sigma	-11379
▁study	-11380
▁value	-11381
▁intell	-11382
▁vision	-11383
▁youtuber	-11384
▁blackpink	-11385
▁ع	-11386
▁ァ	-11387
▁卍	-11388
▁哌	-11389
▁唁	-11390
▁圜	-11391
▁尕	-11392
▁忤	-11393
▁恣	-11394
▁旼	-11395
▁殤	-11396
▁潦	-11397
▁豊	-11398
▁赃	-11399
▁跖	-11400
▁轶	-11401
▁郧	-11402
▁鯙	-11403
▁鸳	-11404
264	-11405
hem	-11406
pal	-11407
rac	-11408
▁fd	-11409
band	-11410
brid	-11411
iful	-11412
lace	-11413
onia	-11414
tech	-11415
town	-11416
▁382	-11417
▁473	-11418
▁481	-11419
▁543	-11420
▁578	-11421
▁594	-11422
▁654	-11423
▁686	-11424
▁739	-11425
▁776	-11426
▁818	-11427
▁865	-11428
▁881	-11429
▁883	-11430
▁hud	-11431
▁wir	-11432
count	-11433
▁1376	-11434
▁1469	-11435
▁1510	-11436
▁1514	-11437
▁1533	-11438
▁1595	-11439
▁1710	-11440
▁1731	-11441
▁1744	-11442
▁2024	-11443
▁ange	-11444
▁cycl	-11445
▁dota	-11446
▁fund	-11447
▁sang	-11448
▁stay	-11449
bridge	-11450
▁opens	-11451
▁score	-11452
▁treat	-11453
▁wanna	-11454
▁years	-11455
▁french	-11456
▁german	-11457
▁howard	-11458
▁medium	-11459
▁nature	-11460
▁support	-11461
ku	-11462
▁ケ	-11463
▁僳	-11464
▁厩	-11465
▁哔	-11466
▁尴	-11467
▁峦	-11468
▁崽	-11469
▁嶷	-11470
▁庑	-11471
▁敎	-11472
▁欒	-11473
▁漣	-11474
▁燾	-11475
▁縊	-11476
▁缢	-11477
▁脯	-11478
▁腌	-11479
▁薙	-11480
▁讹	-11481
▁軼	-11482
▁銹	-11483
▁鎗	-11484
▁雹	-11485
▁馱	-11486
▁鲀	-11487
▁黒	-11488
cht	-11489
pie	-11490
▁lm	-11491
▁nf	-11492
▁nn	-11493
▁ou	-11494
▁xl	-11495
____	-11496
hard	-11497
iler	-11498
oshi	-11499
riel	-11500
stra	-11501
ucky	-11502
▁469	-11503
▁471	-11504
▁491	-11505
▁542	-11506
▁564	-11507
▁572	-11508
▁588	-11509
▁771	-11510
▁875	-11511
▁897	-11512
▁904	-11513
▁967	-11514
▁995	-11515
▁bun	-11516
▁gaz	-11517
▁nic	-11518
▁pod	-11519
▁pon	-11520
itude	-11521
space	-11522
world	-11523
▁1371	-11524
▁1606	-11525
▁1746	-11526
▁cccc	-11527
▁coff	-11528
▁greg	-11529
▁kitt	-11530
office	-11531
▁bruce	-11532
▁nokia	-11533
▁remix	-11534
ibution	-11535
▁change	-11536
▁nelson	-11537
▁wright	-11538
▁yellow	-11539
▁culture	-11540
▁powerpc	-11541
▁present	-11542
▁commission	-11543
▁generation	-11544
▁र	-11545
▁勗	-11546
▁呐	-11547
▁坨	-11548
▁椴	-11549
▁璀	-11550
▁褂	-11551
▁辮	-11552
▁邇	-11553
▁铊	-11554
▁镧	-11555
▁驒	-11556
▁鴦	-11557
58%	-11558
bol	-11559
dit	-11560
eda	-11561
ifi	-11562
put	-11563
▁ug	-11564
▁vc	-11565
ners	-11566
▁692	-11567
▁791	-11568
▁927	-11569
▁957	-11570
▁cec	-11571
▁cis	-11572
▁hab	-11573
▁ibn	-11574
▁lev	-11575
▁rim	-11576
▁vic	-11577
▁wan	-11578
inton	-11579
▁1453	-11580
▁1506	-11581
▁1596	-11582
▁1673	-11583
▁1758	-11584
▁bond	-11585
▁horn	-11586
▁keep	-11587
▁mong	-11588
▁ster	-11589
▁ward	-11590
▁beach	-11591
▁kecam	-11592
▁kelly	-11593
▁sarah	-11594
▁worms	-11595
▁author	-11596
▁middle	-11597
▁mother	-11598
▁perfor	-11599
▁temple	-11600
▁command	-11601
▁matthew	-11602
▁medical	-11603
▁version	-11604
▁gamecube	-11605
▁community	-11606
▁macintosh	-11607
oa	-11608
▁ð	-11609
▁∈	-11610
▁傈	-11611
▁勣	-11612
▁塭	-11613
▁惋	-11614
▁搔	-11615
▁昙	-11616
▁曷	-11617
▁瀰	-11618
▁猾	-11619
▁玘	-11620
▁玷	-11621
▁甌	-11622
▁疃	-11623
▁癬	-11624
▁睪	-11625
▁窜	-11626
▁紂	-11627
▁絶	-11628
▁脲	-11629
▁膾	-11630
▁膿	-11631
▁菝	-11632
▁誨	-11633
▁赭	-11634
▁辫	-11635
▁郜	-11636
▁鄔	-11637
▁鈹	-11638
▁銖	-11639
▁鎔	-11640
▁镌	-11641
▁閎	-11642
01%	-11643
14%	-11644
aps	-11645
ava	-11646
gro	-11647
oco	-11648
▁__	-11649
▁cx	-11650
ales	-11651
anta	-11652
greg	-11653
olar	-11654
▁592	-11655
▁709	-11656
▁769	-11657
▁785	-11658
▁885	-11659
▁916	-11660
▁947	-11661
▁955	-11662
▁acp	-11663
▁gui	-11664
▁haz	-11665
▁hur	-11666
▁ris	-11667
▁sit	-11668
▁toy	-11669
iforn	-11670
▁1240	-11671
▁1435	-11672
▁1464	-11673
▁1557	-11674
▁1558	-11675
▁1767	-11676
▁3800	-11677
▁brad	-11678
▁brun	-11679
▁dear	-11680
▁rick	-11681
▁teau	-11682
▁tong	-11683
▁whit	-11684
▁franz	-11685
▁relat	-11686
▁skype	-11687
▁smile	-11688
▁tourn	-11689
▁ccccff	-11690
▁follow	-11691
▁window	-11692
▁between	-11693
▁palazzo	-11694
▁perfume	-11695
▁without	-11696
▁californ	-11697
▁mathemat	-11698
▁kecamatan	-11699
▁environment	-11700
px	-11701
▁ά	-11702
▁ポ	-11703
▁嘟	-11704
▁嚣	-11705
▁坵	-11706
▁憨	-11707
▁戾	-11708
▁揄	-11709
▁瀟	-11710
▁癫	-11711
▁蛄	-11712
▁蜑	-11713
▁詰	-11714
▁钚	-11715
▁锭	-11716
▁魟	-11717
rid	-11718
uts	-11719
wig	-11720
▁bw	-11721
▁nk	-11722
▁tk	-11723
▁tz	-11724
▁wc	-11725
▁ws	-11726
ages	-11727
bank	-11728
eyer	-11729
▁584	-11730
▁697	-11731
▁753	-11732
▁774	-11733
▁807	-11734
▁919	-11735
▁924	-11736
▁981	-11737
▁986	-11738
▁alg	-11739
▁dei	-11740
▁did	-11741
▁jal	-11742
▁kun	-11743
▁len	-11744
▁pip	-11745
▁tax	-11746
▁wow	-11747
▁1060	-11748
▁1563	-11749
▁1711	-11750
▁bios	-11751
▁capt	-11752
▁cert	-11753
▁gaga	-11754
▁idol	-11755
▁pure	-11756
▁shir	-11757
▁snap	-11758
▁symb	-11759
▁arena	-11760
▁catal	-11761
▁image	-11762
▁sevent	-11763
▁country	-11764
▁netscape	-11765
▁administr	-11766
eb	-11767
lu	-11768
▁ψ	-11769
▁≥	-11770
▁ぐ	-11771
▁岘	-11772
▁曄	-11773
▁氈	-11774
▁箍	-11775
▁苄	-11776
▁菖	-11777
▁蔵	-11778
▁蟆	-11779
▁踵	-11780
▁蹂	-11781
▁込	-11782
▁鈷	-11783
▁鍬	-11784
▁閤	-11785
▁鲫	-11786
▁鴕	-11787
▁鵲	-11788
104	-11789
asi	-11790
lim	-11791
▁uf	-11792
iser	-11793
▁16%	-11794
▁664	-11795
▁673	-11796
▁784	-11797
▁836	-11798
▁862	-11799
▁868	-11800
▁882	-11801
▁902	-11802
▁914	-11803
▁amp	-11804
▁gay	-11805
▁guy	-11806
▁ich	-11807
▁jes	-11808
▁kor	-11809
▁maz	-11810
▁rgb	-11811
▁seg	-11812
▁tma	-11813
rence	-11814
▁1579	-11815
▁1671	-11816
▁1704	-11817
▁boot	-11818
▁cafe	-11819
▁dick	-11820
▁host	-11821
▁hugh	-11822
▁iata	-11823
▁josh	-11824
▁mile	-11825
▁morn	-11826
orough	-11827
▁nucle	-11828
▁pixel	-11829
▁donald	-11830
▁norman	-11831
▁jacques	-11832
▁formation	-11833
wo	-11834
▁ˊ	-11835
▁χ	-11836
▁咆	-11837
▁埴	-11838
▁寔	-11839
▁憚	-11840
▁曖	-11841
▁氡	-11842
▁簋	-11843
▁贅	-11844
▁錠	-11845
▁骅	-11846
▁骇	-11847
▁鱉	-11848
04%	-11849
27%	-11850
cus	-11851
die	-11852
lag	-11853
oft	-11854
▁dw	-11855
▁hc	-11856
▁iu	-11857
▁iz	-11858
ador	-11859
anni	-11860
anny	-11861
arts	-11862
lete	-11863
othy	-11864
roll	-11865
side	-11866
▁608	-11867
▁649	-11868
▁669	-11869
▁766	-11870
▁817	-11871
▁834	-11872
▁889	-11873
▁898	-11874
▁946	-11875
▁983	-11876
▁atm	-11877
▁hms	-11878
▁pom	-11879
▁put	-11880
▁1040	-11881
▁1278	-11882
▁1537	-11883
▁1599	-11884
▁1678	-11885
▁1693	-11886
▁gill	-11887
▁hope	-11888
▁nine	-11889
▁quar	-11890
▁sent	-11891
▁sequ	-11892
▁spin	-11893
iation	-11894
▁labor	-11895
▁lovel	-11896
▁ocean	-11897
▁peace	-11898
▁tiger	-11899
▁hunter	-11900
▁orange	-11901
▁against	-11902
▁douglas	-11903
▁pictures	-11904
▁references	-11905
▁technologies	-11906
▁ò	-11907
▁ă	-11908
▁墻	-11909
▁崂	-11910
▁愕	-11911
▁挛	-11912
▁朦	-11913
▁樋	-11914
▁溅	-11915
▁紜	-11916
▁菰	-11917
▁蛸	-11918
▁軋	-11919
▁顒	-11920
▁髅	-11921
▁鯧	-11922
03%	-11923
05%	-11924
110	-11925
340	-11926
95%	-11927
bow	-11928
▁pn	-11929
▁qf	-11930
▁wu	-11931
▁xy	-11932
ante	-11933
ieve	-11934
reis	-11935
uary	-11936
▁020	-11937
▁462	-11938
▁672	-11939
▁786	-11940
▁795	-11941
▁828	-11942
▁887	-11943
▁982	-11944
▁bib	-11945
▁blo	-11946
▁ges	-11947
▁lun	-11948
▁mck	-11949
▁pir	-11950
▁plc	-11951
▁rex	-11952
▁rig	-11953
▁tat	-11954
▁tow	-11955
acter	-11956
estra	-11957
▁1135	-11958
▁1515	-11959
▁1546	-11960
▁1576	-11961
▁1669	-11962
▁born	-11963
▁cosm	-11964
▁jpeg	-11965
▁nint	-11966
▁otto	-11967
▁ship	-11968
ishing	-11969
▁reich	-11970
▁scien	-11971
▁total	-11972
▁flight	-11973
▁forest	-11974
▁sainte	-11975
▁search	-11976
▁season	-11977
▁intellig	-11978
▁beautiful	-11979
▁transform	-11980
▁へ	-11981
▁埭	-11982
▁怛	-11983
▁橈	-11984
▁痞	-11985
▁睜	-11986
▁稹	-11987
▁蜕	-11988
▁覦	-11989
▁逛	-11990
▁鄜	-11991
▁鉞	-11992
▁銫	-11993
▁鶘	-11994
▁鹬	-11995
15%	-11996
16%	-11997
▁eh	-11998
▁ji	-11999
▁qt	-12000
▁wn	-12001
▁zn	-12002
1000	-12003
anne	-12004
anus	-12005
last	-12006
otte	-12007
▁24%	-12008
▁449	-12009
▁459	-12010
▁482	-12011
▁679	-12012
▁781	-12013
▁792	-12014
▁851	-12015
▁864	-12016
▁894	-12017
▁961	-12018
▁997	-12019
▁dll	-12020
▁dod	-12021
▁lap	-12022
▁tib	-12023
▁utf	-12024
istry	-12025
▁1170	-12026
▁1340	-12027
▁1369	-12028
▁1380	-12029
▁1404	-12030
▁1528	-12031
▁1696	-12032
▁berg	-12033
▁cann	-12034
▁crit	-12035
▁incl	-12036
▁jenn	-12037
▁must	-12038
▁palm	-12039
▁shah	-12040
▁shot	-12041
▁appro	-12042
▁bobby	-12043
▁fight	-12044
▁grace	-12045
▁grant	-12046
▁moham	-12047
▁psych	-12048
▁urban	-12049
▁hybrid	-12050
▁jordan	-12051
▁justin	-12052
▁select	-12053
▁walker	-12054
▁ф	-12055
▁∞	-12056
▁ボ	-12057
▁侑	-12058
▁嵋	-12059
▁惺	-12060
▁拴	-12061
▁暄	-12062
▁殮	-12063
▁洺	-12064
▁淼	-12065
▁炅	-12066
▁琏	-12067
▁眙	-12068
▁秣	-12069
▁穰	-12070
▁紇	-12071
▁詬	-12072
▁蹴	-12073
▁郓	-12074
▁鍺	-12075
▁驪	-12076
123	-12077
305	-12078
emb	-12079
eto	-12080
ovi	-12081
ylv	-12082
lard	-12083
phal	-12084
▁1⁄2	-12085
▁667	-12086
▁677	-12087
▁724	-12088
▁814	-12089
▁917	-12090
▁979	-12091
▁988	-12092
▁aba	-12093
▁apm	-12094
▁dsp	-12095
▁dup	-12096
▁lou	-12097
▁ria	-12098
▁tin	-12099
▁tnt	-12100
▁xen	-12101
ample	-12102
anger	-12103
antis	-12104
ening	-12105
▁1011	-12106
▁1138	-12107
▁1385	-12108
▁1390	-12109
▁1536	-12110
▁1708	-12111
▁1749	-12112
▁8500	-12113
▁barr	-12114
▁hunt	-12115
▁soph	-12116
▁anime	-12117
▁billy	-12118
▁candy	-12119
▁while	-12120
▁yours	-12121
▁financ	-12122
▁shadow	-12123
▁herbert	-12124
▁premier	-12125
▁princess	-12126
▁dreamcast	-12127
▁frederick	-12128
zj	-12129
▁®	-12130
▁ザ	-12131
▁剽	-12132
▁嘶	-12133
▁嘿	-12134
▁姫	-12135
▁徠	-12136
▁扉	-12137
▁朐	-12138
▁椽	-12139
▁槲	-12140
▁毡	-12141
▁氘	-12142
▁淝	-12143
▁滷	-12144
▁硯	-12145
▁箬	-12146
▁綝	-12147
▁縷	-12148
▁翦	-12149
▁蔺	-12150
▁藁	-12151
▁蠣	-12152
▁谌	-12153
07%	-12154
120	-12155
21%	-12156
360	-12157
aha	-12158
kan	-12159
uer	-12160
▁nl	-12161
▁oz	-12162
agne	-12163
asha	-12164
ouse	-12165
ulat	-12166
▁794	-12167
▁822	-12168
▁824	-12169
▁866	-12170
▁922	-12171
▁956	-12172
▁959	-12173
▁aps	-12174
▁bis	-12175
▁fig	-12176
▁hid	-12177
▁iup	-12178
▁occ	-12179
▁sad	-12180
▁vin	-12181
▁why	-12182
color	-12183
ittor	-12184
▁1125	-12185
▁1230	-12186
▁1523	-12187
▁1608	-12188
▁1705	-12189
▁1709	-12190
▁1712	-12191
▁benj	-12192
▁bomb	-12193
▁coup	-12194
▁emba	-12195
▁hend	-12196
▁kara	-12197
▁leop	-12198
▁node	-12199
▁salv	-12200
▁teen	-12201
▁multi	-12202
▁prote	-12203
▁suite	-12204
▁would	-12205
▁democr	-12206
▁flower	-12207
▁scheme	-12208
▁margaret	-12209
▁together	-12210
▁australia	-12211
rs	-12212
▁ˋ	-12213
▁啜	-12214
▁嗝	-12215
▁嚎	-12216
▁娴	-12217
▁獐	-12218
▁鄲	-12219
▁鼱	-12220
02%	-12221
115	-12222
51%	-12223
86%	-12224
ced	-12225
edd	-12226
oko	-12227
▁ez	-12228
▁jd	-12229
▁ov	-12230
eder	-12231
neth	-12232
oker	-12233
orum	-12234
ulus	-12235
▁579	-12236
▁665	-12237
▁695	-12238
▁736	-12239
▁839	-12240
▁958	-12241
▁aks	-12242
▁cum	-12243
▁nts	-12244
▁use	-12245
aceae	-12246
ibili	-12247
ivity	-12248
mance	-12249
overy	-12250
point	-12251
▁1420	-12252
▁1472	-12253
▁1498	-12254
▁1512	-12255
▁4200	-12256
▁cool	-12257
▁grad	-12258
▁holy	-12259
▁jazz	-12260
▁ping	-12261
▁sams	-12262
▁them	-12263
▁tolk	-12264
▁baron	-12265
▁civil	-12266
▁advent	-12267
▁graham	-12268
▁heaven	-12269
▁factory	-12270
▁morning	-12271
▁tolkien	-12272
▁anderson	-12273
▁giovanni	-12274
▁virginia	-12275
hu	-12276
wi	-12277
▁û	-12278
▁ž	-12279
▁ぎ	-12280
▁ヤ	-12281
▁僞	-12282
▁惣	-12283
▁揶	-12284
▁柃	-12285
▁楸	-12286
▁焗	-12287
▁燉	-12288
▁笞	-12289
▁篙	-12290
▁纓	-12291
▁耙	-12292
▁臆	-12293
▁荖	-12294
▁莅	-12295
▁蚺	-12296
▁訇	-12297
▁郅	-12298
▁鉢	-12299
▁铰	-12300
▁镠	-12301
▁闐	-12302
▁阇	-12303
▁隽	-12304
▁鱘	-12305
108	-12306
11%	-12307
42%	-12308
75%	-12309
79%	-12310
icy	-12311
imi	-12312
▁jb	-12313
▁rl	-12314
▁vf	-12315
▁wp	-12316
▁xt	-12317
1911	-12318
gate	-12319
mund	-12320
osis	-12321
▁693	-12322
▁854	-12323
▁939	-12324
▁aes	-12325
▁cot	-12326
▁dub	-12327
▁eag	-12328
▁ein	-12329
▁imm	-12330
▁leo	-12331
▁lic	-12332
▁saw	-12333
▁seb	-12334
▁spy	-12335
angel	-12336
▁1214	-12337
▁1277	-12338
▁1320	-12339
▁1403	-12340
▁1428	-12341
▁1433	-12342
▁1451	-12343
▁1476	-12344
▁1480	-12345
▁1706	-12346
▁1741	-12347
▁4800	-12348
▁beau	-12349
▁bull	-12350
▁dram	-12351
▁nike	-12352
▁prix	-12353
▁terr	-12354
▁wish	-12355
▁crown	-12356
▁henri	-12357
▁melon	-12358
▁paper	-12359
▁quest	-12360
▁grande	-12361
▁marine	-12362
▁oxford	-12363
▁diamond	-12364
▁gabriel	-12365
▁private	-12366
▁lovelive	-12367
▁nintendo	-12368
▁republic	-12369
aj	-12370
▁倻	-12371
▁孃	-12372
▁彊	-12373
▁挹	-12374
▁捩	-12375
▁爰	-12376
▁玥	-12377
▁珑	-12378
▁痉	-12379
▁祟	-12380
▁耒	-12381
▁荪	-12382
▁蒾	-12383
▁藿	-12384
▁蛊	-12385
▁蹼	-12386
▁铢	-12387
▁阉	-12388
▁骊	-12389
▁리	-12390
107	-12391
13%	-12392
22%	-12393
62%	-12394
oen	-12395
owa	-12396
▁fw	-12397
▁kj	-12398
idea	-12399
ilia	-12400
sten	-12401
utch	-12402
▁002	-12403
▁591	-12404
▁663	-12405
▁703	-12406
▁782	-12407
▁886	-12408
▁942	-12409
▁963	-12410
▁964	-12411
▁977	-12412
▁ads	-12413
▁emb	-12414
▁ips	-12415
▁jew	-12416
▁lad	-12417
▁ntt	-12418
▁rio	-12419
▁vas	-12420
▁1275	-12421
▁1527	-12422
▁1674	-12423
▁2900	-12424
▁bish	-12425
▁bour	-12426
▁cris	-12427
▁danc	-12428
▁grow	-12429
▁half	-12430
▁kore	-12431
▁mack	-12432
▁phen	-12433
▁sept	-12434
▁such	-12435
▁50000	-12436
▁books	-12437
▁still	-12438
▁twice	-12439
▁morris	-12440
▁kenneth	-12441
▁stewart	-12442
▁bilibili	-12443
▁campbell	-12444
▁california	-12445
▁conference	-12446
bw	-12447
dn	-12448
▁ń	-12449
▁啉	-12450
▁喹	-12451
▁囓	-12452
▁垠	-12453
▁奐	-12454
▁孪	-12455
▁岀	-12456
▁弭	-12457
▁愫	-12458
▁拽	-12459
▁泷	-12460
▁溟	-12461
▁灏	-12462
▁燼	-12463
▁瓒	-12464
▁疡	-12465
▁矜	-12466
▁簫	-12467
▁缎	-12468
▁葜	-12469
▁蚵	-12470
▁蟑	-12471
▁訢	-12472
▁蹊	-12473
▁龈	-12474
00%	-12475
386	-12476
49%	-12477
72%	-12478
99%	-12479
abi	-12480
mbh	-12481
omi	-12482
▁kp	-12483
▁mf	-12484
ades	-12485
ares	-12486
feld	-12487
▁051	-12488
▁662	-12489
▁783	-12490
▁808	-12491
▁843	-12492
▁913	-12493
▁97%	-12494
▁992	-12495
▁amb	-12496
▁amu	-12497
▁ets	-12498
▁fit	-12499
▁lip	-12500
▁pub	-12501
▁sul	-12502
▁url	-12503
uster	-12504
▁1295	-12505
▁1337	-12506
▁1360	-12507
▁1413	-12508
▁1497	-12509
▁1499	-12510
▁1594	-12511
▁boom	-12512
▁raid	-12513
hedral	-12514
ipedia	-12515
▁canad	-12516
▁craig	-12517
▁delta	-12518
▁jerry	-12519
▁keith	-12520
▁manga	-12521
▁solid	-12522
▁around	-12523
▁beauty	-12524
▁before	-12525
▁moment	-12526
▁nation	-12527
▁steven	-12528
▁concept	-12529
▁england	-12530
▁railway	-12531
▁analysis	-12532
▁hamilton	-12533
▁movement	-12534
▁sciences	-12535
▁thompson	-12536
▁ý	-12537
▁び	-12538
▁ピ	-12539
▁勲	-12540
▁搓	-12541
▁擷	-12542
▁昺	-12543
▁濺	-12544
▁烁	-12545
▁犰	-12546
▁眞	-12547
▁禰	-12548
▁膊	-12549
▁萜	-12550
▁袱	-12551
▁裟	-12552
▁邰	-12553
▁钺	-12554
▁鹟	-12555
36%	-12556
52%	-12557
59%	-12558
67%	-12559
log	-12560
▁aq	-12561
card	-12562
elia	-12563
fort	-12564
news	-12565
ocus	-12566
reen	-12567
stad	-12568
▁019	-12569
▁23%	-12570
▁743	-12571
▁797	-12572
▁827	-12573
▁837	-12574
▁841	-12575
▁899	-12576
▁bra	-12577
▁ell	-12578
▁isp	-12579
▁kai	-12580
▁kas	-12581
▁vie	-12582
▁xxx	-12583
▁1067	-12584
▁1070	-12585
▁1120	-12586
▁1121	-12587
▁1225	-12588
▁1394	-12589
▁1409	-12590
▁1415	-12591
▁1549	-12592
▁1692	-12593
▁midi	-12594
▁ming	-12595
▁ober	-12596
▁orch	-12597
▁wars	-12598
▁16000	-12599
▁laura	-12600
▁dennis	-12601
▁easter	-12602
▁lambda	-12603
▁rogers	-12604
▁element	-12605
▁kingdom	-12606
▁primary	-12607
▁thunder	-12608
▁benjamin	-12609
▁creative	-12610
aa	-12611
mw	-12612
▁น	-12613
▁伉	-12614
▁儋	-12615
▁凄	-12616
▁旃	-12617
▁朮	-12618
▁沆	-12619
▁沓	-12620
▁煊	-12621
▁筊	-12622
▁繃	-12623
▁纘	-12624
▁绊	-12625
▁舂	-12626
▁苾	-12627
▁葶	-12628
▁蝟	-12629
▁遹	-12630
▁镉	-12631
▁髯	-12632
▁鮪	-12633
113	-12634
19%	-12635
231	-12636
47%	-12637
78%	-12638
97%	-12639
edo	-12640
jan	-12641
kar	-12642
uru	-12643
uve	-12644
▁ei	-12645
▁fg	-12646
▁rk	-12647
▁vm	-12648
ario	-12649
ches	-12650
eler	-12651
▁010	-12652
▁799	-12653
▁803	-12654
▁92%	-12655
▁clo	-12656
▁giv	-12657
▁hir	-12658
▁ktv	-12659
▁lav	-12660
▁lon	-12661
▁pau	-12662
▁rif	-12663
▁tru	-12664
▁1234	-12665
▁1398	-12666
▁1448	-12667
▁1470	-12668
▁1488	-12669
▁1691	-12670
▁1743	-12671
▁bing	-12672
▁brig	-12673
▁canc	-12674
▁dean	-12675
▁fate	-12676
▁give	-12677
▁gmbh	-12678
▁june	-12679
▁maur	-12680
▁pick	-12681
▁schm	-12682
▁sncf	-12683
ething	-12684
▁chrom	-12685
▁colon	-12686
▁munic	-12687
▁quant	-12688
▁sever	-12689
▁stock	-12690
▁sugar	-12691
▁valve	-12692
▁mechan	-12693
▁rights	-12694
▁alphago	-12695
▁bernard	-12696
▁crystal	-12697
▁display	-12698
▁vincent	-12699
▁jonathan	-12700
▁television	-12701
dh	-12702
iq	-12703
tz	-12704
wr	-12705
▁◎	-12706
▁ソ	-12707
▁ベ	-12708
▁僊	-12709
▁嗆	-12710
▁徕	-12711
▁恍	-12712
▁悯	-12713
▁敝	-12714
▁淩	-12715
▁竑	-12716
▁舔	-12717
▁芾	-12718
▁蚩	-12719
▁谛	-12720
▁贰	-12721
▁躄	-12722
▁邬	-12723
▁闓	-12724
▁闺	-12725
▁駢	-12726
118	-12727
249	-12728
38%	-12729
87%	-12730
bal	-12731
etz	-12732
rah	-12733
roy	-12734
tes	-12735
▁nb	-12736
▁sj	-12737
▁yf	-12738
alle	-12739
bird	-12740
edes	-12741
orph	-12742
ting	-12743
wich	-12744
▁030	-12745
▁646	-12746
▁661	-12747
▁745	-12748
▁749	-12749
▁789	-12750
▁874	-12751
▁943	-12752
▁952	-12753
▁acg	-12754
▁aeg	-12755
▁dag	-12756
▁fav	-12757
▁gap	-12758
▁gly	-12759
▁hug	-12760
▁kot	-12761
▁lag	-12762
▁pel	-12763
▁psr	-12764
▁sib	-12765
▁tig	-12766
▁ust	-12767
▁vpn	-12768
▁wol	-12769
cloud	-12770
eller	-12771
odore	-12772
shire	-12773
▁1066	-12774
▁1129	-12775
▁1516	-12776
▁1551	-12777
▁1663	-12778
▁bahn	-12779
▁duke	-12780
▁flow	-12781
▁heav	-12782
▁ifpi	-12783
▁kent	-12784
▁luis	-12785
▁many	-12786
▁writ	-12787
▁coast	-12788
▁early	-12789
▁emule	-12790
▁faith	-12791
▁iupac	-12792
▁moore	-12793
▁motor	-12794
▁nexus	-12795
▁cherry	-12796
▁motion	-12797
▁velvet	-12798
▁bgcolor	-12799
▁million	-12800
▁monster	-12801
▁samsung	-12802
▁electric	-12803
▁financial	-12804
▁communications	-12805
eh	-12806
▁†	-12807
▁ホ	-12808
▁嗪	-12809
▁坷	-12810
▁増	-12811
▁嵙	-12812
▁廨	-12813
▁慤	-12814
▁桉	-12815
▁灞	-12816
▁砀	-12817
▁砧	-12818
▁罌	-12819
▁羿	-12820
▁蒞	-12821
▁藹	-12822
▁跗	-12823
▁酆	-12824
▁餃	-12825
▁騫	-12826
▁鮈	-12827
▁鮎	-12828
▁鱒	-12829
▁麂	-12830
09%	-12831
17%	-12832
37%	-12833
53%	-12834
84%	-12835
93%	-12836
eco	-12837
jet	-12838
phy	-12839
rus	-12840
umo	-12841
▁hz	-12842
▁rm	-12843
▁vp	-12844
ined	-12845
oche	-12846
oria	-12847
▁015	-12848
▁052	-12849
▁891	-12850
▁987	-12851
▁993	-12852
▁bam	-12853
▁cub	-12854
▁eco	-12855
▁rah	-12856
▁raj	-12857
▁suv	-12858
▁tes	-12859
▁vvv	-12860
illon	-12861
lines	-12862
orton	-12863
osaur	-12864
▁1210	-12865
▁1227	-12866
▁1279	-12867
▁1445	-12868
▁chun	-12869
▁each	-12870
▁epis	-12871
▁kath	-12872
▁logo	-12873
▁peak	-12874
▁trax	-12875
▁trna	-12876
▁wasp	-12877
ighter	-12878
▁40000	-12879
▁crist	-12880
▁della	-12881
▁domin	-12882
▁guide	-12883
▁kitty	-12884
▁serge	-12885
▁shoot	-12886
▁trust	-12887
▁compet	-12888
▁magnet	-12889
▁matrix	-12890
▁retrie	-12891
▁senior	-12892
▁warren	-12893
▁islands	-12894
▁raymond	-12895
▁material	-12896
▁platform	-12897
▁cathedral	-12898
▁application	-12899
▁professional	-12900
gh	-12901
hy	-12902
tc	-12903
▁ï	-12904
▁อ	-12905
▁ḥ	-12906
▁倬	-12907
▁冑	-12908
▁巯	-12909
▁楂	-12910
▁沢	-12911
▁礽	-12912
▁竅	-12913
▁袈	-12914
▁讥	-12915
▁诩	-12916
▁辄	-12917
▁迤	-12918
▁関	-12919
▁骞	-12920
▁鳉	-12921
117	-12922
217	-12923
28%	-12924
41%	-12925
46%	-12926
70%	-12927
aca	-12928
eno	-12929
etf	-12930
kir	-12931
mod	-12932
tha	-12933
uli	-12934
zza	-12935
▁fp	-12936
▁hb	-12937
▁qr	-12938
▁tj	-12939
alis	-12940
iles	-12941
ping	-12942
ress	-12943
rial	-12944
tery	-12945
▁004	-12946
▁21%	-12947
▁746	-12948
▁752	-12949
▁849	-12950
▁852	-12951
▁872	-12952
▁873	-12953
▁909	-12954
▁932	-12955
▁abl	-12956
▁amy	-12957
▁csm	-12958
▁hus	-12959
▁llo	-12960
▁ngo	-12961
▁oil	-12962
▁pbs	-12963
▁sip	-12964
▁tol	-12965
▁too	-12966
▁veh	-12967
▁vod	-12968
▁1016	-12969
▁1110	-12970
▁1224	-12971
▁1290	-12972
▁1314	-12973
▁1392	-12974
▁1548	-12975
▁1677	-12976
▁both	-12977
▁fine	-12978
▁flag	-12979
▁glad	-12980
▁lane	-12981
▁ment	-12982
▁nerv	-12983
▁penn	-12984
▁shel	-12985
▁barry	-12986
▁chain	-12987
▁event	-12988
▁staff	-12989
▁suica	-12990
▁symph	-12991
ability	-12992
▁doctor	-12993
▁gogoro	-12994
▁oracle	-12995
▁simple	-12996
▁stream	-12997
▁continu	-12998
▁lawrence	-12999
▁southern	-13000
▁performance	-13001
lr	-13002
▁ό	-13003
▁ゲ	-13004
▁䲗	-13005
▁兢	-13006
▁媾	-13007
▁杷	-13008
▁氖	-13009
▁氚	-13010
▁溱	-13011
▁潯	-13012
▁澶	-13013
▁狳	-13014
▁玑	-13015
▁璩	-13016
▁畈	-13017
▁筐	-13018
▁粑	-13019
▁繙	-13020
▁绫	-13021
▁蚯	-13022
▁辊	-13023
▁邝	-13024
▁鏘	-13025
▁铍	-13026
▁锶	-13027
▁靓	-13028
▁馗	-13029
▁鬬	-13030
126	-13031
34%	-13032
92%	-13033
bes	-13034
bis	-13035
cia	-13036
gel	-13037
ieu	-13038
khz	-13039
orm	-13040
orp	-13041
▁ej	-13042
▁ue	-13043
▁ui	-13044
▁uv	-13045
etic	-13046
iple	-13047
omet	-13048
▁040	-13049
▁080	-13050
▁22%	-13051
▁26%	-13052
▁36%	-13053
▁653	-13054
▁694	-13055
▁831	-13056
▁842	-13057
▁844	-13058
▁944	-13059
▁flo	-13060
▁fra	-13061
▁gla	-13062
▁hem	-13063
▁jak	-13064
▁own	-13065
▁suc	-13066
▁tsh	-13067
▁yak	-13068
eline	-13069
lands	-13070
ledge	-13071
▁1030	-13072
▁1218	-13073
▁exec	-13074
▁flat	-13075
▁icao	-13076
▁insp	-13077
▁jung	-13078
▁shaw	-13079
▁vall	-13080
▁abdul	-13081
▁april	-13082
▁chand	-13083
▁check	-13084
▁cheng	-13085
▁drama	-13086
▁ernst	-13087
▁hills	-13088
▁perry	-13089
▁vogue	-13090
vention	-13091
▁circle	-13092
▁century	-13093
▁macbook	-13094
▁economic	-13095
▁heinrich	-13096
▁northern	-13097
▁federation	-13098
TM	-13099
kv	-13100
rh	-13101
▁ح	-13102
▁ق	-13103
▁丶	-13104
▁凪	-13105
▁囿	-13106
▁夙	-13107
▁姒	-13108
▁汹	-13109
▁涎	-13110
▁涞	-13111
▁発	-13112
▁箇	-13113
▁蚶	-13114
▁蜢	-13115
▁讒	-13116
▁豉	-13117
▁赟	-13118
▁锄	-13119
▁锗	-13120
▁隰	-13121
▁鶇	-13122
119	-13123
230	-13124
56%	-13125
66%	-13126
71%	-13127
96%	-13128
cer	-13129
ela	-13130
iah	-13131
imp	-13132
rat	-13133
tek	-13134
▁TM	-13135
▁hh	-13136
html	-13137
illo	-13138
issa	-13139
otic	-13140
wdie	-13141
▁32%	-13142
▁788	-13143
▁848	-13144
▁857	-13145
▁877	-13146
▁966	-13147
▁984	-13148
▁991	-13149
▁994	-13150
▁afl	-13151
▁dot	-13152
▁dsm	-13153
▁etc	-13154
▁gcc	-13155
▁jen	-13156
▁nhl	-13157
▁ole	-13158
▁psv	-13159
▁rid	-13160
▁sbl	-13161
▁sco	-13162
▁sod	-13163
▁ssh	-13164
▁tsa	-13165
▁vac	-13166
▁vik	-13167
▁woo	-13168
shine	-13169
▁1020	-13170
▁1190	-13171
▁1219	-13172
▁1375	-13173
▁1389	-13174
▁1402	-13175
▁1421	-13176
▁1442	-13177
▁1495	-13178
▁1507	-13179
▁1554	-13180
▁bent	-13181
▁chal	-13182
▁drop	-13183
▁emil	-13184
▁sata	-13185
▁site	-13186
▁stem	-13187
▁wifi	-13188
▁wise	-13189
▁beats	-13190
▁joint	-13191
▁spark	-13192
▁woman	-13193
wdiepie	-13194
▁berlin	-13195
▁ground	-13196
▁metrop	-13197
▁pocket	-13198
▁spacex	-13199
▁connect	-13200
▁congress	-13201
▁pewdiepie	-13202
▁wikipedia	-13203
▁ʃ	-13204
▁เ	-13205
▁傉	-13206
▁哼	-13207
▁嘅	-13208
▁嵬	-13209
▁攣	-13210
▁楝	-13211
▁汨	-13212
▁淌	-13213
▁祎	-13214
▁篱	-13215
▁荟	-13216
▁荳	-13217
▁虬	-13218
▁蹠	-13219
▁躉	-13220
▁鳐	-13221
▁鸯	-13222
▁鼴	-13223
002	-13224
12%	-13225
124	-13226
18%	-13227
24%	-13228
32%	-13229
57%	-13230
69%	-13231
98%	-13232
ahl	-13233
iod	-13234
iza	-13235
mit	-13236
opa	-13237
rik	-13238
ser	-13239
upp	-13240
▁dg	-13241
▁ih	-13242
▁lz	-13243
▁wy	-13244
iste	-13245
rain	-13246
ruct	-13247
ythm	-13248
▁871	-13249
▁892	-13250
▁951	-13251
▁cbc	-13252
▁fia	-13253
▁fib	-13254
▁hag	-13255
▁itu	-13256
▁mul	-13257
▁ran	-13258
▁spl	-13259
▁sse	-13260
▁wwf	-13261
andal	-13262
asure	-13263
enson	-13264
osoph	-13265
uring	-13266
▁1328	-13267
▁1358	-13268
▁1382	-13269
▁1686	-13270
▁1716	-13271
▁burg	-13272
▁chic	-13273
▁echo	-13274
▁gren	-13275
▁ietf	-13276
▁mick	-13277
▁repr	-13278
▁synd	-13279
▁trin	-13280
▁cemet	-13281
▁crazy	-13282
▁prize	-13283
▁ralph	-13284
▁dreams	-13285
▁safari	-13286
▁deutsch	-13287
▁example	-13288
▁federal	-13289
▁rainbow	-13290
▁annivers	-13291
▁animation	-13292
▁promotion	-13293
▁electronic	-13294
▁̃	-13295
▁ί	-13296
▁ξ	-13297
▁ヒ	-13298
▁囍	-13299
▁媧	-13300
▁砜	-13301
▁笺	-13302
▁菴	-13303
▁蓀	-13304
▁謇	-13305
▁鈿	-13306
▁銥	-13307
▁銬	-13308
▁録	-13309
▁鏖	-13310
▁阯	-13311
▁鴛	-13312
06%	-13313
150	-13314
151	-13315
65%	-13316
ako	-13317
arn	-13318
fun	-13319
gio	-13320
roc	-13321
▁fb	-13322
abad	-13323
aman	-13324
eron	-13325
vert	-13326
▁006	-13327
▁764	-13328
▁86%	-13329
▁878	-13330
▁ask	-13331
▁ats	-13332
▁aub	-13333
▁bod	-13334
▁bog	-13335
▁ced	-13336
▁cow	-13337
▁dry	-13338
▁ecl	-13339
▁eye	-13340
▁hob	-13341
▁hxd	-13342
▁pie	-13343
▁rey	-13344
▁sos	-13345
▁suz	-13346
▁tir	-13347
▁vil	-13348
owski	-13349
▁1076	-13350
▁1147	-13351
▁1160	-13352
▁1211	-13353
▁1424	-13354
▁1531	-13355
▁1534	-13356
▁apec	-13357
▁appe	-13358
▁bird	-13359
▁chat	-13360
▁corp	-13361
▁lite	-13362
▁sohc	-13363
▁thor	-13364
▁clear	-13365
▁excel	-13366
▁genie	-13367
▁maker	-13368
▁tommy	-13369
▁constr	-13370
▁filter	-13371
▁flying	-13372
▁nathan	-13373
▁proble	-13374
▁rapper	-13375
▁region	-13376
▁shinee	-13377
▁vector	-13378
▁gregory	-13379
▁justice	-13380
▁release	-13381
▁running	-13382
▁cemetery	-13383
▁robinson	-13384
▁ultimate	-13385
▁broadcast	-13386
gp	-13387
ju	-13388
ru	-13389
▁ì	-13390
▁佞	-13391
▁厮	-13392
▁吲	-13393
▁哚	-13394
▁坌	-13395
▁嵴	-13396
▁廝	-13397
▁廸	-13398
▁慫	-13399
▁泠	-13400
▁洶	-13401
▁洸	-13402
▁炖	-13403
▁猬	-13404
▁獼	-13405
▁篝	-13406
▁蘸	-13407
▁酝	-13408
▁阑	-13409
▁骈	-13410
▁다	-13411
122	-13412
35%	-13413
50%	-13414
54%	-13415
63%	-13416
77%	-13417
aba	-13418
bat	-13419
ben	-13420
esp	-13421
idt	-13422
kes	-13423
mah	-13424
pos	-13425
▁zu	-13426
amoo	-13427
ango	-13428
arin	-13429
elin	-13430
igen	-13431
imax	-13432
ipse	-13433
mont	-13434
nett	-13435
onne	-13436
▁003	-13437
▁28%	-13438
▁43%	-13439
▁858	-13440
▁893	-13441
▁amc	-13442
▁atv	-13443
▁ctv	-13444
▁cvt	-13445
▁jin	-13446
▁kaz	-13447
▁oak	-13448
▁ori	-13449
▁ppm	-13450
▁1099	-13451
▁1115	-13452
▁1241	-13453
▁1274	-13454
▁1372	-13455
▁1449	-13456
▁1552	-13457
▁2050	-13458
▁3700	-13459
▁buck	-13460
▁cern	-13461
▁dipl	-13462
▁fash	-13463
▁find	-13464
▁hung	-13465
▁jtbc	-13466
▁kala	-13467
▁toul	-13468
▁visa	-13469
enburg	-13470
▁later	-13471
▁thumb	-13472
▁bishop	-13473
▁ernest	-13474
▁lovely	-13475
▁strong	-13476
▁destiny	-13477
▁transit	-13478
▁yoshiki	-13479
▁allmusic	-13480
▁sunshine	-13481
▁retrieved	-13482
▁anniversary	-13483
nh	-13484
▁ة	-13485
▁ه	-13486
▁げ	-13487
▁喔	-13488
▁嗶	-13489
▁慚	-13490
▁晩	-13491
▁枇	-13492
▁栉	-13493
▁樫	-13494
▁殓	-13495
▁洹	-13496
▁燻	-13497
▁牯	-13498
▁瓌	-13499
▁瞧	-13500
▁磘	-13501
▁磾	-13502
▁綑	-13503
▁葭	-13504
▁蓑	-13505
▁蛎	-13506
▁蜃	-13507
▁蠹	-13508
▁詆	-13509
▁譁	-13510
▁赡	-13511
▁鈽	-13512
▁錚	-13513
▁鎘	-13514
▁钍	-13515
▁铼	-13516
▁霁	-13517
005	-13518
08%	-13519
112	-13520
30%	-13521
307	-13522
48%	-13523
900	-13524
ail	-13525
aly	-13526
aux	-13527
bur	-13528
hib	-13529
isi	-13530
lec	-13531
osc	-13532
ras	-13533
ska	-13534
uil	-13535
▁gf	-13536
▁gg	-13537
▁iq	-13538
▁xd	-13539
fire	-13540
igne	-13541
imir	-13542
olic	-13543
shop	-13544
▁054	-13545
▁779	-13546
▁884	-13547
▁954	-13548
▁974	-13549
▁bmg	-13550
▁drm	-13551
▁jst	-13552
▁lif	-13553
▁nes	-13554
▁pun	-13555
▁raf	-13556
▁stu	-13557
▁udp	-13558
▁ufc	-13559
▁wer	-13560
ality	-13561
ended	-13562
opsis	-13563
▁1086	-13564
▁1112	-13565
▁1137	-13566
▁1199	-13567
▁1308	-13568
▁1355	-13569
▁1468	-13570
▁4400	-13571
▁barc	-13572
▁bund	-13573
▁care	-13574
▁cord	-13575
▁draw	-13576
▁gian	-13577
▁grey	-13578
▁init	-13579
▁lead	-13580
▁race	-13581
▁requ	-13582
▁rome	-13583
▁same	-13584
▁user	-13585
▁birth	-13586
▁daily	-13587
▁datab	-13588
▁milit	-13589
▁prest	-13590
▁titan	-13591
▁today	-13592
▁xhtml	-13593
▁austin	-13594
▁better	-13595
▁claude	-13596
▁disney	-13597
▁height	-13598
▁legacy	-13599
▁postgr	-13600
▁resour	-13601
▁journey	-13602
▁leonard	-13603
▁aircraft	-13604
▁official	-13605
▁partners	-13606
▁character	-13607
▁something	-13608
dl	-13609
▁ư	-13610
▁ǎ	-13611
▁त	-13612
▁ก	-13613
▁ㄚ	-13614
▁伕	-13615
▁傚	-13616
▁儕	-13617
▁円	-13618
▁凈	-13619
▁呦	-13620
▁哦	-13621
▁垓	-13622
▁墀	-13623
▁巻	-13624
▁憊	-13625
▁杼	-13626
▁烬	-13627
▁犒	-13628
▁祛	-13629
▁舯	-13630
▁蓁	-13631
▁藪	-13632
▁袂	-13633
▁輋	-13634
▁邙	-13635
▁铣	-13636
▁铿	-13637
▁锢	-13638
▁閂	-13639
▁顼	-13640
10%	-13641
111	-13642
125	-13643
33%	-13644
43%	-13645
74%	-13646
isy	-13647
▁ln	-13648
▁sx	-13649
0000	-13650
ased	-13651
dale	-13652
enet	-13653
itas	-13654
link	-13655
look	-13656
room	-13657
ucci	-13658
▁017	-13659
▁060	-13660
▁44%	-13661
▁674	-13662
▁856	-13663
▁869	-13664
▁906	-13665
▁931	-13666
▁buk	-13667
▁dab	-13668
▁dro	-13669
▁gym	-13670
▁hex	-13671
▁laz	-13672
▁nod	-13673
▁nur	-13674
▁sns	-13675
▁tok	-13676
▁umb	-13677
▁unc	-13678
chell	-13679
ience	-13680
unter	-13681
▁1018	-13682
▁1126	-13683
▁1151	-13684
▁1175	-13685
▁1265	-13686
▁1356	-13687
▁1439	-13688
▁1504	-13689
▁agre	-13690
▁cele	-13691
▁cnbc	-13692
▁mend	-13693
▁ntfs	-13694
▁rate	-13695
▁samp	-13696
▁scot	-13697
▁soho	-13698
▁sult	-13699
▁thre	-13700
▁vern	-13701
▁wool	-13702
▁yang	-13703
ration	-13704
utions	-13705
▁cohen	-13706
▁devil	-13707
▁focus	-13708
▁hydro	-13709
▁pedro	-13710
▁plant	-13711
▁shock	-13712
ibility	-13713
▁altern	-13714
▁butter	-13715
▁carter	-13716
▁cinema	-13717
▁gangan	-13718
▁ludwig	-13719
▁police	-13720
▁protoc	-13721
▁conserv	-13722
▁include	-13723
▁stanley	-13724
▁vehicle	-13725
▁complete	-13726
▁learning	-13727
▁paradise	-13728
▁different	-13729
▁municipal	-13730
▁technical	-13731
iu	-13732
su	-13733
▁¬	-13734
▁ю	-13735
▁⇔	-13736
▁ペ	-13737
▁刎	-13738
▁嘢	-13739
▁崮	-13740
▁嶇	-13741
▁嶠	-13742
▁慟	-13743
▁攫	-13744
▁暠	-13745
▁枭	-13746
▁椁	-13747
▁滏	-13748
▁爻	-13749
▁狒	-13750
▁窿	-13751
▁箐	-13752
▁簕	-13753
▁簸	-13754
▁紺	-13755
▁肮	-13756
▁腑	-13757
▁苜	-13758
▁茁	-13759
▁萁	-13760
▁蟀	-13761
▁謔	-13762
▁蹬	-13763
▁酣	-13764
▁銣	-13765
▁钇	-13766
▁锆	-13767
▁鞮	-13768
▁飭	-13769
▁馒	-13770
▁鳟	-13771
▁鷸	-13772
133	-13773
175	-13774
195	-13775
31%	-13776
55%	-13777
64%	-13778
73%	-13779
88%	-13780
999	-13781
agn	-13782
ede	-13783
gon	-13784
ket	-13785
kit	-13786
lus	-13787
oka	-13788
pat	-13789
set	-13790
wal	-13791
▁kf	-13792
▁xv	-13793
ilis	-13794
irus	-13795
ring	-13796
tion	-13797
uten	-13798
▁29%	-13799
▁42%	-13800
▁879	-13801
▁agm	-13802
▁ana	-13803
▁aux	-13804
▁bai	-13805
▁eif	-13806
▁fuj	-13807
▁hap	-13808
▁kaw	-13809
▁kub	-13810
▁lex	-13811
▁lod	-13812
▁nds	-13813
▁ssd	-13814
▁tls	-13815
▁upd	-13816
ensen	-13817
▁1025	-13818
▁1095	-13819
▁1123	-13820
▁1187	-13821
▁1322	-13822
▁1351	-13823
▁1406	-13824
▁1410	-13825
▁1694	-13826
▁1695	-13827
▁3100	-13828
▁ella	-13829
▁hass	-13830
▁help	-13831
▁hide	-13832
▁ivan	-13833
▁joey	-13834
▁much	-13835
▁risc	-13836
▁tank	-13837
▁task	-13838
▁wake	-13839
othing	-13840
script	-13841
▁evans	-13842
▁guard	-13843
▁intro	-13844
▁logic	-13845
▁minor	-13846
▁mysql	-13847
▁rapid	-13848
▁sense	-13849
▁terry	-13850
▁canton	-13851
▁choice	-13852
▁domain	-13853
▁malays	-13854
▁palace	-13855
▁produc	-13856
▁shield	-13857
atherine	-13858
▁fashion	-13859
▁quarter	-13860
▁cultural	-13861
▁graphics	-13862
▁messenger	-13863
▁architecture	-13864
▁organization	-13865
zt	-13866
▁न	-13867
▁ि	-13868
▁ย	-13869
▁倣	-13870
▁剁	-13871
▁咫	-13872
▁喋	-13873
▁噻	-13874
▁屌	-13875
▁徇	-13876
▁捶	-13877
▁晾	-13878
▁汎	-13879
▁渙	-13880
▁琺	-13881
▁祏	-13882
▁窈	-13883
▁萇	-13884
▁蔴	-13885
▁褓	-13886
▁謐	-13887
▁鈈	-13888
▁雎	-13889
▁驭	-13890
▁鯪	-13891
121	-13892
20%	-13893
203	-13894
26%	-13895
81%	-13896
82%	-13897
85%	-13898
boy	-13899
eca	-13900
oku	-13901
phi	-13902
ppm	-13903
tic	-13904
urd	-13905
▁bk	-13906
▁jh	-13907
▁qe	-13908
▁vb	-13909
aron	-13910
eric	-13911
ibut	-13912
imes	-13913
izer	-13914
mers	-13915
olla	-13916
vest	-13917
▁016	-13918
▁090	-13919
▁671	-13920
▁773	-13921
▁941	-13922
▁ces	-13923
▁kil	-13924
▁kra	-13925
▁lia	-13926
▁mrs	-13927
▁ngt	-13928
▁nim	-13929
▁rer	-13930
▁rin	-13931
▁rip	-13932
▁yan	-13933
▁1155	-13934
▁1156	-13935
▁1183	-13936
▁1198	-13937
▁1213	-13938
▁1235	-13939
▁1253	-13940
▁1268	-13941
▁1283	-13942
▁1285	-13943
▁1286	-13944
▁1365	-13945
▁1381	-13946
▁1465	-13947
▁1467	-13948
▁1518	-13949
▁1698	-13950
▁arab	-13951
▁dock	-13952
▁imdb	-13953
▁mint	-13954
▁mist	-13955
▁read	-13956
▁saab	-13957
▁vill	-13958
▁bloom	-13959
▁boule	-13960
▁ching	-13961
▁cyber	-13962
▁extra	-13963
▁gmail	-13964
▁larry	-13965
▁lloyd	-13966
▁pract	-13967
▁third	-13968
▁trade	-13969
▁words	-13970
ankings	-13971
formula	-13972
▁coffee	-13973
▁friday	-13974
▁hudson	-13975
▁letter	-13976
▁rhythm	-13977
▁constit	-13978
▁eastern	-13979
▁genesis	-13980
▁yourself	-13981
▁gamerankings	-13982
▁¥	-13983
▁ˇ	-13984
▁ش	-13985
▁ゴ	-13986
▁佢	-13987
▁倔	-13988
▁劵	-13989
▁噓	-13990
▁噗	-13991
▁坻	-13992
▁姗	-13993
▁孿	-13994
▁搪	-13995
▁暘	-13996
▁汊	-13997
▁烫	-13998
▁璣	-13999
▁疍	-14000
▁瘴	-14001
▁糰	-14002
▁罟	-14003
▁脓	-14004
▁膑	-14005
▁荞	-14006
▁蓿	-14007
▁蠱	-14008
▁袤	-14009
▁詡	-14010
▁諳	-14011
▁谪	-14012
▁貘	-14013
▁踊	-14014
▁邽	-14015
▁鍰	-14016
▁顔	-14017
▁鯓	-14018
129	-14019
202	-14020
23%	-14021
76%	-14022
80%	-14023
agh	-14024
hai	-14025
hop	-14026
oki	-14027
opp	-14028
ulf	-14029
yon	-14030
▁jc	-14031
apur	-14032
aser	-14033
aton	-14034
bras	-14035
chin	-14036
iden	-14037
type	-14038
wald	-14039
▁19%	-14040
▁631	-14041
▁772	-14042
▁793	-14043
▁861	-14044
▁953	-14045
▁972	-14046
▁alc	-14047
▁ari	-14048
▁duc	-14049
▁jpg	-14050
▁kre	-14051
▁mta	-14052
▁nab	-14053
▁pvc	-14054
▁rhe	-14055
▁rus	-14056
▁ssl	-14057
▁vog	-14058
▁wes	-14059
▁wit	-14060
▁wiz	-14061
encer	-14062
ithub	-14063
umont	-14064
▁1044	-14065
▁1107	-14066
▁1217	-14067
▁1258	-14068
▁1282	-14069
▁1294	-14070
▁1374	-14071
▁1388	-14072
▁1399	-14073
▁1414	-14074
▁2026	-14075
▁3400	-14076
▁bala	-14077
▁bapt	-14078
▁btob	-14079
▁bure	-14080
▁carn	-14081
▁cort	-14082
▁crow	-14083
▁curt	-14084
▁kenn	-14085
▁kirk	-14086
▁mono	-14087
▁rice	-14088
▁roth	-14089
▁rout	-14090
▁sung	-14091
▁tard	-14092
▁vert	-14093
▁vlad	-14094
ternal	-14095
▁basil	-14096
▁blues	-14097
▁chall	-14098
▁giant	-14099
▁innov	-14100
▁prada	-14101
▁price	-14102
▁sleep	-14103
▁affair	-14104
▁anders	-14105
▁assemb	-14106
▁doremi	-14107
▁empire	-14108
▁github	-14109
▁indian	-14110
▁marcus	-14111
▁amazing	-14112
▁believe	-14113
▁content	-14114
▁episode	-14115
▁manager	-14116
▁philipp	-14117
▁solaris	-14118
▁lucasarts	-14119
▁philosoph	-14120
▁administration	-14121
▁ù	-14122
▁म	-14123
▁ั	-14124
▁↔	-14125
▁ヴ	-14126
▁㹴	-14127
▁佇	-14128
▁俣	-14129
▁刨	-14130
▁呸	-14131
▁愔	-14132
▁槎	-14133
▁涣	-14134
▁疸	-14135
▁磕	-14136
▁箋	-14137
▁缬	-14138
▁芍	-14139
▁蚋	-14140
▁蛀	-14141
▁讫	-14142
▁诟	-14143
▁跛	-14144
▁郦	-14145
▁錕	-14146
▁颢	-14147
▁驮	-14148
233	-14149
61%	-14150
icz	-14151
irs	-14152
sta	-14153
uin	-14154
▁fk	-14155
▁jf	-14156
▁jg	-14157
▁pz	-14158
▁vh	-14159
▁zf	-14160
core	-14161
emon	-14162
enti	-14163
ichi	-14164
ired	-14165
isen	-14166
lich	-14167
odor	-14168
vais	-14169
▁070	-14170
▁27%	-14171
▁804	-14172
▁859	-14173
▁949	-14174
▁96%	-14175
▁afi	-14176
▁ata	-14177
▁cfm	-14178
▁deg	-14179
▁ens	-14180
▁gir	-14181
▁jis	-14182
▁khz	-14183
▁lut	-14184
▁mud	-14185
▁neg	-14186
▁pdp	-14187
▁pri	-14188
▁tau	-14189
▁try	-14190
anche	-14191
inter	-14192
▁1065	-14193
▁1111	-14194
▁1128	-14195
▁1152	-14196
▁1195	-14197
▁1208	-14198
▁1212	-14199
▁1221	-14200
▁1266	-14201
▁1363	-14202
▁1364	-14203
▁1367	-14204
▁1387	-14205
▁1425	-14206
▁1441	-14207
▁1461	-14208
▁1471	-14209
▁1503	-14210
▁arms	-14211
▁calc	-14212
▁cust	-14213
▁flex	-14214
▁less	-14215
▁mang	-14216
▁maxi	-14217
▁meet	-14218
▁niko	-14219
▁sean	-14220
▁sold	-14221
▁tact	-14222
ecraft	-14223
elling	-14224
▁brain	-14225
▁chung	-14226
▁helen	-14227
▁india	-14228
▁oscar	-14229
▁teach	-14230
▁cortex	-14231
▁includ	-14232
▁manuel	-14233
▁morgan	-14234
▁observ	-14235
▁partic	-14236
▁gallery	-14237
▁airlines	-14238
▁caroline	-14239
▁infinite	-14240
▁regional	-14241
▁commander	-14242
uh	-14243
▁`	-14244
▁ʔ	-14245
▁ม	-14246
▁僥	-14247
▁冏	-14248
▁嗇	-14249
▁嬸	-14250
▁廩	-14251
▁椋	-14252
▁橱	-14253
▁殇	-14254
▁泯	-14255
▁濯	-14256
▁焓	-14257
▁牍	-14258
▁痫	-14259
▁紘	-14260
▁繽	-14261
▁耜	-14262
▁脣	-14263
▁茧	-14264
▁蒽	-14265
▁蟄	-14266
▁觴	-14267
▁谗	-14268
▁鋯	-14269
▁鏐	-14270
▁鮄	-14271
▁黻	-14272
102	-14273
161	-14274
321	-14275
91%	-14276
akh	-14277
avo	-14278
nik	-14279
ogn	-14280
▁xo	-14281
erse	-14282
wiki	-14283
▁025	-14284
▁053	-14285
▁88%	-14286
▁ard	-14287
▁cbe	-14288
▁gdi	-14289
▁hed	-14290
▁jor	-14291
▁lay	-14292
▁llc	-14293
▁rav	-14294
▁ups	-14295
graph	-14296
▁1013	-14297
▁1063	-14298
▁1185	-14299
▁1486	-14300
▁1501	-14301
▁4300	-14302
▁aero	-14303
▁away	-14304
▁bear	-14305
▁dawn	-14306
▁dise	-14307
▁elli	-14308
▁pcie	-14309
▁rush	-14310
▁ruth	-14311
▁troy	-14312
▁vari	-14313
▁vvvf	-14314
ective	-14315
▁18000	-14316
▁agent	-14317
▁alone	-14318
▁belle	-14319
▁films	-14320
▁forum	-14321
▁glass	-14322
▁honor	-14323
▁karen	-14324
▁macro	-14325
▁phoen	-14326
▁range	-14327
▁shang	-14328
▁sorry	-14329
▁squad	-14330
▁truth	-14331
▁always	-14332
▁import	-14333
▁kirara	-14334
▁marion	-14335
▁panzer	-14336
▁collect	-14337
▁forward	-14338
▁mamamoo	-14339
ittorrent	-14340
▁canadian	-14341
▁director	-14342
▁frontier	-14343
▁greatest	-14344
▁mitchell	-14345
▁rockstar	-14346
▁discovery	-14347
▁seventeen	-14348
▁independent	-14349
▁productions	-14350
▁distribution	-14351
▁communication	-14352
▁ɑ	-14353
▁י	-14354
▁ك	-14355
▁ง	-14356
▁ぼ	-14357
▁佶	-14358
▁侂	-14359
▁冇	-14360
▁嚙	-14361
▁塩	-14362
▁妫	-14363
▁孳	-14364
▁懾	-14365
▁捡	-14366
▁撣	-14367
▁枱	-14368
▁柞	-14369
▁棂	-14370
▁毬	-14371
▁泚	-14372
▁涮	-14373
▁淬	-14374
▁獴	-14375
▁疝	-14376
▁眈	-14377
▁禕	-14378
▁穂	-14379
▁蔘	-14380
▁蟋	-14381
▁豨	-14382
▁賡	-14383
▁輓	-14384
▁鉍	-14385
▁饅	-14386
▁騏	-14387
▁骯	-14388
▁髹	-14389
▁사	-14390
204	-14391
29%	-14392
60%	-14393
68%	-14394
aby	-14395
ams	-14396
bas	-14397
dia	-14398
ims	-14399
ipe	-14400
low	-14401
mel	-14402
mir	-14403
rel	-14404
▁mj	-14405
▁tx	-14406
burn	-14407
esta	-14408
flow	-14409
ging	-14410
iola	-14411
ipop	-14412
okie	-14413
▁008	-14414
▁012	-14415
▁068	-14416
▁31%	-14417
▁34%	-14418
▁62%	-14419
▁833	-14420
▁aac	-14421
▁atc	-14422
▁bmp	-14423
▁cox	-14424
▁ddg	-14425
▁hak	-14426
▁nag	-14427
▁nir	-14428
▁phd	-14429
▁pid	-14430
▁shu	-14431
▁spa	-14432
▁sph	-14433
ances	-14434
ovich	-14435
ually	-14436
umbia	-14437
▁1048	-14438
▁1075	-14439
▁1096	-14440
▁1142	-14441
▁1143	-14442
▁1189	-14443
▁1204	-14444
▁1206	-14445
▁1226	-14446
▁1229	-14447
▁1251	-14448
▁1262	-14449
▁1271	-14450
▁1352	-14451
▁1373	-14452
▁1395	-14453
▁1397	-14454
▁1494	-14455
▁4600	-14456
▁ansi	-14457
▁caen	-14458
▁cold	-14459
▁fore	-14460
▁guid	-14461
▁isab	-14462
▁nano	-14463
▁neil	-14464
▁pant	-14465
▁parl	-14466
▁piet	-14467
▁poss	-14468
▁rang	-14469
▁reed	-14470
▁rule	-14471
▁wait	-14472
▁13000	-14473
▁baker	-14474
▁beast	-14475
▁frequ	-14476
▁lower	-14477
▁phill	-14478
▁shift	-14479
▁sonic	-14480
▁susan	-14481
▁synth	-14482
▁upper	-14483
▁animax	-14484
▁melody	-14485
▁please	-14486
▁strate	-14487
▁travel	-14488
▁account	-14489
▁defense	-14490
▁eclipse	-14491
▁electro	-14492
▁gfriend	-14493
▁liberty	-14494
▁cinemasc	-14495
▁agreement	-14496
▁boulevard	-14497
▁interface	-14498
▁secretary	-14499
▁universit	-14500
▁openoffice	-14501
dd	-14502
vd	-14503
▁ج	-14504
▁स	-14505
▁刍	-14506
▁嗟	-14507
▁圪	-14508
▁塱	-14509
▁姉	-14510
▁寐	-14511
▁幗	-14512
▁撬	-14513
▁泫	-14514
▁糅	-14515
▁罡	-14516
▁胧	-14517
▁芪	-14518
▁螫	-14519
▁轆	-14520
▁郷	-14521
▁銑	-14522
▁銼	-14523
▁鍔	-14524
▁鎰	-14525
▁閡	-14526
▁鲑	-14527
▁鸕	-14528
▁鹈	-14529
149	-14530
207	-14531
226	-14532
39%	-14533
eme	-14534
eti	-14535
gun	-14536
iev	-14537
izz	-14538
enge	-14539
enia	-14540
ivan	-14541
olia	-14542
rame	-14543
ught	-14544
▁56%	-14545
▁87%	-14546
▁amo	-14547
▁cbd	-14548
▁dbc	-14549
▁ela	-14550
▁eso	-14551
▁flu	-14552
▁irc	-14553
▁kem	-14554
▁lig	-14555
▁nct	-14556
▁nos	-14557
▁pda	-14558
▁pok	-14559
▁tee	-14560
▁uci	-14561
court	-14562
where	-14563
▁1054	-14564
▁1085	-14565
▁1116	-14566
▁1158	-14567
▁1178	-14568
▁1197	-14569
▁1207	-14570
▁1297	-14571
▁1405	-14572
▁1407	-14573
▁1408	-14574
▁1412	-14575
▁1429	-14576
▁1436	-14577
▁1456	-14578
▁1509	-14579
▁bott	-14580
▁clos	-14581
▁dial	-14582
▁extr	-14583
▁hdmi	-14584
▁lung	-14585
▁omni	-14586
▁pled	-14587
▁punk	-14588
▁spac	-14589
bourne	-14590
istics	-14591
▁chick	-14592
▁eagle	-14593
▁griff	-14594
▁heavy	-14595
▁infor	-14596
▁krist	-14597
▁posix	-14598
▁sales	-14599
starter	-14600
▁adrian	-14601
▁aggreg	-14602
▁argent	-14603
▁estate	-14604
▁julian	-14605
▁parker	-14606
▁piazza	-14607
▁rachel	-14608
▁rubber	-14609
▁sultan	-14610
▁techno	-14611
▁things	-14612
▁watson	-14613
▁collins	-14614
▁current	-14615
▁diction	-14616
▁database	-14617
▁imperial	-14618
▁medicine	-14619
▁register	-14620
fm	-14621
vr	-14622
▁佺	-14623
▁凛	-14624
▁啾	-14625
▁嗡	-14626
▁垭	-14627
▁壅	-14628
▁嶂	-14629
▁嶙	-14630
▁枸	-14631
▁柒	-14632
▁濘	-14633
▁燿	-14634
▁牦	-14635
▁痙	-14636
▁痲	-14637
▁皰	-14638
▁縝	-14639
▁胛	-14640
▁芊	-14641
▁苫	-14642
▁褥	-14643
▁詒	-14644
▁詼	-14645
▁諶	-14646
▁贍	-14647
▁郫	-14648
▁鍇	-14649
▁钜	-14650
▁頊	-14651
▁饺	-14652
▁鶻	-14653
004	-14654
185	-14655
255	-14656
44%	-14657
abe	-14658
bye	-14659
cas	-14660
cos	-14661
jon	-14662
pin	-14663
▁fh	-14664
▁lb	-14665
▁vk	-14666
away	-14667
duct	-14668
ieux	-14669
ilus	-14670
izen	-14671
lock	-14672
ober	-14673
omys	-14674
rica	-14675
road	-14676
▁005	-14677
▁018	-14678
▁53%	-14679
▁abu	-14680
▁aco	-14681
▁baz	-14682
▁bgm	-14683
▁bub	-14684
▁dhc	-14685
▁dix	-14686
▁ftp	-14687
▁haj	-14688
▁hog	-14689
▁laf	-14690
▁naz	-14691
▁oxy	-14692
▁ptt	-14693
▁rpm	-14694
▁sag	-14695
▁snk	-14696
▁sut	-14697
▁tah	-14698
▁tum	-14699
▁uri	-14700
▁wto	-14701
▁xii	-14702
andro	-14703
ished	-14704
kreis	-14705
▁1004	-14706
▁1119	-14707
▁1153	-14708
▁1161	-14709
▁1181	-14710
▁1186	-14711
▁1196	-14712
▁1335	-14713
▁1377	-14714
▁1482	-14715
▁1484	-14716
▁1539	-14717
▁4700	-14718
▁beth	-14719
▁bone	-14720
▁bugs	-14721
▁dome	-14722
▁ford	-14723
▁lect	-14724
▁lons	-14725
▁prec	-14726
▁said	-14727
▁twin	-14728
stream	-14729
▁alexa	-14730
▁behav	-14731
▁capit	-14732
▁carlo	-14733
▁colin	-14734
▁corre	-14735
▁fleet	-14736
▁johan	-14737
▁kings	-14738
▁kkbox	-14739
▁korea	-14740
▁liter	-14741
▁robot	-14742
▁sandy	-14743
▁swift	-14744
▁bureau	-14745
▁cooper	-14746
▁course	-14747
▁encore	-14748
▁factor	-14749
▁gaming	-14750
▁orient	-14751
▁safety	-14752
▁sebast	-14753
▁allstar	-14754
▁georges	-14755
▁myspace	-14756
▁photosh	-14757
▁spencer	-14758
▁theater	-14759
▁japanese	-14760
▁professor	-14761
▁reference	-14762
▁secondary	-14763
▁structure	-14764
▁associates	-14765
▁bittorrent	-14766
fb	-14767
tb	-14768
vm	-14769
▁ɪ	-14770
▁і	-14771
▁亶	-14772
▁峄	-14773
▁柊	-14774
▁樾	-14775
▁櫓	-14776
▁毌	-14777
▁沣	-14778
▁淒	-14779
▁湜	-14780
▁磬	-14781
▁窰	-14782
▁胳	-14783
▁脍	-14784
▁諤	-14785
▁讖	-14786
▁诋	-14787
▁谙	-14788
▁轸	-14789
▁辇	-14790
▁辎	-14791
▁镂	-14792
▁饗	-14793
▁鶚	-14794
▁鹞	-14795
▁鼯	-14796
130	-14797
135	-14798
177	-14799
40%	-14800
94%	-14801
igi	-14802
lyn	-14803
oga	-14804
rag	-14805
rig	-14806
▁lh	-14807
aldo	-14808
char	-14809
ecom	-14810
inet	-14811
ktop	-14812
late	-14813
onna	-14814
uche	-14815
zone	-14816
▁46%	-14817
▁47%	-14818
▁57%	-14819
▁67%	-14820
▁853	-14821
▁bau	-14822
▁bio	-14823
▁bye	-14824
▁dft	-14825
▁dud	-14826
▁dum	-14827
▁faa	-14828
▁gan	-14829
▁gav	-14830
▁jax	-14831
▁kum	-14832
▁ome	-14833
▁sic	-14834
▁tub	-14835
▁wrc	-14836
ected	-14837
icket	-14838
ingen	-14839
onica	-14840
▁1008	-14841
▁1037	-14842
▁1046	-14843
▁1068	-14844
▁1078	-14845
▁1134	-14846
▁1157	-14847
▁1192	-14848
▁1202	-14849
▁1228	-14850
▁1257	-14851
▁1298	-14852
▁1346	-14853
▁1418	-14854
▁1427	-14855
▁5200	-14856
▁alto	-14857
▁benz	-14858
▁elle	-14859
▁goes	-14860
▁kang	-14861
▁kink	-14862
▁nato	-14863
▁near	-14864
▁pear	-14865
▁rise	-14866
▁shan	-14867
▁todd	-14868
▁webs	-14869
▁wins	-14870
enness	-14871
olitan	-14872
▁afric	-14873
▁alive	-14874
▁claud	-14875
▁close	-14876
▁crypt	-14877
▁elite	-14878
▁label	-14879
▁sdram	-14880
▁since	-14881
▁swing	-14882
▁virus	-14883
ricular	-14884
▁branch	-14885
▁fusion	-14886
▁guitar	-14887
▁jeremy	-14888
▁paypal	-14889
▁signal	-14890
▁warner	-14891
▁article	-14892
▁chicago	-14893
▁highway	-14894
▁phoenix	-14895
▁roberts	-14896
▁scandal	-14897
▁supreme	-14898
▁tonight	-14899
▁columbia	-14900
▁constant	-14901
▁ericsson	-14902
▁postgres	-14903
▁relation	-14904
▁knowledge	-14905
▁minecraft	-14906
▁photoshop	-14907
▁kickstarter	-14908
▁ě	-14909
▁伝	-14910
▁傕	-14911
▁咁	-14912
▁咭	-14913
▁哏	-14914
▁啃	-14915
▁喫	-14916
▁嚟	-14917
▁堑	-14918
▁墬	-14919
▁姝	-14920
▁婧	-14921
▁実	-14922
▁峋	-14923
▁愨	-14924
▁捅	-14925
▁搐	-14926
▁棨	-14927
▁熠	-14928
▁瘁	-14929
▁眨	-14930
▁睺	-14931
▁緘	-14932
▁翳	-14933
▁菘	-14934
▁蒔	-14935
▁藺	-14936
▁蜊	-14937
▁衹	-14938
▁迩	-14939
▁酢	-14940
▁鉬	-14941
▁鎏	-14942
131	-14943
168	-14944
250	-14945
370	-14946
83%	-14947
apa	-14948
bot	-14949
cep	-14950
ele	-14951
elt	-14952
eni	-14953
enu	-14954
esi	-14955
ikh	-14956
nic	-14957
orh	-14958
rys	-14959
uar	-14960
▁hf	-14961
▁jn	-14962
▁lj	-14963
akes	-14964
alie	-14965
gers	-14966
ises	-14967
isse	-14968
orus	-14969
user	-14970
▁64%	-14971
▁83%	-14972
▁alp	-14973
▁emd	-14974
▁frs	-14975
▁mlb	-14976
▁mpa	-14977
▁mtu	-14978
▁nde	-14979
▁nsa	-14980
▁riv	-14981
▁rou	-14982
▁syd	-14983
ength	-14984
okawa	-14985
thing	-14986
ustic	-14987
▁1017	-14988
▁1055	-14989
▁1072	-14990
▁1073	-14991
▁1103	-14992
▁1106	-14993
▁1146	-14994
▁1215	-14995
▁1233	-14996
▁1264	-14997
▁1273	-14998
▁1288	-14999
▁1419	-15000
▁1444	-15001
▁6400	-15002
▁6600	-15003
▁avbw	-15004
▁clay	-15005
▁disk	-15006
▁drag	-15007
▁duck	-15008
▁expo	-15009
▁feed	-15010
▁gain	-15011
▁kamp	-15012
▁kate	-15013
▁kris	-15014
▁kurt	-15015
▁leed	-15016
▁mama	-15017
▁size	-15018
▁temu	-15019
uation	-15020
▁corps	-15021
▁geoff	-15022
▁gross	-15023
▁kabup	-15024
▁large	-15025
▁lotus	-15026
▁muham	-15027
▁phase	-15028
▁share	-15029
▁singh	-15030
▁smack	-15031
▁thank	-15032
▁thing	-15033
▁chiang	-15034
▁higher	-15035
▁lantis	-15036
▁linear	-15037
▁pledis	-15038
▁powers	-15039
▁temper	-15040
▁winner	-15041
▁barbara	-15042
▁captain	-15043
▁chamber	-15044
▁fortran	-15045
▁document	-15046
▁kadokawa	-15047
▁marshall	-15048
▁military	-15049
▁minister	-15050
▁protocol	-15051
▁objective	-15052
▁selection	-15053
▁operations	-15054
cn	-15055
oz	-15056
▁̇	-15057
▁ท	-15058
▁‖	-15059
▁亙	-15060
▁俁	-15061
▁倜	-15062
▁勰	-15063
▁啥	-15064
▁噱	-15065
▁悸	-15066
▁惫	-15067
▁扦	-15068
▁榖	-15069
▁瀅	-15070
▁瑱	-15071
▁瑷	-15072
▁璁	-15073
▁畹	-15074
▁睑	-15075
▁秭	-15076
▁稙	-15077
▁苎	-15078
▁葳	-15079
▁薏	-15080
▁贽	-15081
▁蹺	-15082
▁逖	-15083
▁鉸	-15084
▁鍀	-15085
▁铈	-15086
▁镭	-15087
▁阚	-15088
▁隷	-15089
▁顥	-15090
▁饵	-15091
▁鲹	-15092
▁黝	-15093
▁가	-15094
006	-15095
160	-15096
265	-15097
308	-15098
cal	-15099
ibe	-15100
ilt	-15101
ivo	-15102
kat	-15103
kel	-15104
leh	-15105
lia	-15106
nel	-15107
ogy	-15108
sea	-15109
sha	-15110
van	-15111
zan	-15112
▁gk	-15113
▁nx	-15114
▁xb	-15115
anti	-15116
ault	-15117
fish	-15118
ived	-15119
omon	-15120
▁021	-15121
▁38%	-15122
▁82%	-15123
▁832	-15124
▁ars	-15125
▁bou	-15126
▁cac	-15127
▁cfa	-15128
▁cie	-15129
▁csi	-15130
▁eid	-15131
▁gba	-15132
▁lit	-15133
▁nog	-15134
▁pps	-15135
▁rum	-15136
▁tec	-15137
▁wei	-15138
iable	-15139
illes	-15140
inary	-15141
track	-15142
▁1002	-15143
▁1045	-15144
▁1113	-15145
▁1122	-15146
▁1154	-15147
▁1256	-15148
▁1281	-15149
▁1333	-15150
▁1384	-15151
▁1416	-15152
▁1434	-15153
▁1452	-15154
▁1485	-15155
▁5400	-15156
▁bush	-15157
▁cala	-15158
▁cmos	-15159
▁dian	-15160
▁harm	-15161
▁late	-15162
▁lich	-15163
▁loll	-15164
▁mund	-15165
▁nest	-15166
▁pand	-15167
▁ratp	-15168
▁rein	-15169
▁sala	-15170
▁save	-15171
▁ucla	-15172
▁verd	-15173
▁adult	-15174
▁amiga	-15175
▁atlas	-15176
▁julia	-15177
▁laugh	-15178
▁lucky	-15179
▁manif	-15180
▁mason	-15181
▁plate	-15182
▁pride	-15183
▁print	-15184
▁theor	-15185
▁trail	-15186
▁celebr	-15187
▁corner	-15188
▁during	-15189
▁format	-15190
▁monkey	-15191
▁period	-15192
▁phenom	-15193
▁tardis	-15194
▁fighter	-15195
▁however	-15196
▁jessica	-15197
▁message	-15198
▁outlook	-15199
▁success	-15200
▁assembly	-15201
▁infinity	-15202
▁students	-15203
▁training	-15204
▁kabupaten	-15205
▁investment	-15206
▁cinemascore	-15207
gg	-15208
ls	-15209
mf	-15210
vs	-15211
▁ز	-15212
▁ى	-15213
▁ิ	-15214
▁仡	-15215
▁冴	-15216
▁咩	-15217
▁噝	-15218
▁圮	-15219
▁塬	-15220
▁嬗	-15221
▁嬛	-15222
▁栒	-15223
▁槙	-15224
▁毽	-15225
▁煨	-15226
▁狛	-15227
▁玆	-15228
▁玹	-15229
▁琚	-15230
▁疙	-15231
▁碛	-15232
▁缇	-15233
▁舛	-15234
▁薌	-15235
▁蛆	-15236
▁訌	-15237
▁軔	-15238
▁郾	-15239
▁鋦	-15240
▁钤	-15241
▁锴	-15242
▁陉	-15243
▁雩	-15244
▁魣	-15245
▁鳢	-15246
140	-15247
319	-15248
737	-15249
asp	-15250
can	-15251
dal	-15252
ilo	-15253
iot	-15254
oly	-15255
raf	-15256
xin	-15257
▁jy	-15258
▁nj	-15259
▁qb	-15260
▁rw	-15261
ames	-15262
aris	-15263
coln	-15264
ffer	-15265
ires	-15266
ised	-15267
ivid	-15268
king	-15269
mill	-15270
mura	-15271
wave	-15272
▁042	-15273
▁096	-15274
▁37%	-15275
▁54%	-15276
▁58%	-15277
▁72%	-15278
▁cim	-15279
▁dad	-15280
▁elf	-15281
▁gad	-15282
▁git	-15283
▁gob	-15284
▁gtk	-15285
▁itf	-15286
▁jab	-15287
▁kep	-15288
▁kla	-15289
▁nah	-15290
▁oss	-15291
▁ott	-15292
▁pch	-15293
▁wav	-15294
▁zim	-15295
anner	-15296
annon	-15297
istan	-15298
▁1094	-15299
▁1131	-15300
▁1141	-15301
▁1168	-15302
▁1173	-15303
▁1184	-15304
▁1236	-15305
▁1242	-15306
▁1291	-15307
▁1309	-15308
▁1324	-15309
▁1327	-15310
▁1347	-15311
▁1357	-15312
▁1366	-15313
▁1396	-15314
▁1443	-15315
▁1474	-15316
▁aids	-15317
▁aiko	-15318
▁anat	-15319
▁bald	-15320
▁beam	-15321
▁disp	-15322
▁gaud	-15323
▁gonz	-15324
▁hash	-15325
▁heat	-15326
▁hoch	-15327
▁ital	-15328
▁loop	-15329
▁mann	-15330
▁move	-15331
▁once	-15332
▁pump	-15333
▁raja	-15334
▁stev	-15335
▁ahmad	-15336
▁initi	-15337
▁klein	-15338
▁nancy	-15339
▁quint	-15340
▁shish	-15341
▁stein	-15342
▁stern	-15343
▁title	-15344
▁tyler	-15345
▁wells	-15346
▁wrest	-15347
▁animal	-15348
▁cookie	-15349
▁ferdin	-15350
▁inside	-15351
▁murray	-15352
▁policy	-15353
▁spider	-15354
▁survey	-15355
▁though	-15356
▁borland	-15357
▁evangel	-15358
▁hermann	-15359
▁kennedy	-15360
▁lincoln	-15361
▁nuclear	-15362
▁olympic	-15363
▁schools	-15364
▁working	-15365
▁informer	-15366
▁lollipop	-15367
▁mercedes	-15368
▁toulouse	-15369
▁aggregate	-15370
▁orchestra	-15371
▁political	-15372
▁dictionary	-15373
▁industrial	-15374
▁interchange	-15375
▁͡	-15376
▁べ	-15377
▁ㄨ	-15378
▁佾	-15379
▁俎	-15380
▁嗨	-15381
▁廪	-15382
▁弢	-15383
▁挞	-15384
▁揹	-15385
▁榎	-15386
▁淸	-15387
▁獭	-15388
▁瓠	-15389
▁瓩	-15390
▁瘩	-15391
▁砺	-15392
▁祆	-15393
▁箫	-15394
▁缵	-15395
▁苕	-15396
▁觊	-15397
▁觎	-15398
▁诒	-15399
▁诘	-15400
▁輜	-15401
▁鈮	-15402
▁鍶	-15403
▁闔	-15404
▁阖	-15405
▁霈	-15406
▁霽	-15407
▁髑	-15408
003	-15409
136	-15410
165	-15411
224	-15412
45%	-15413
api	-15414
del	-15415
iet	-15416
lee	-15417
lem	-15418
ogl	-15419
rem	-15420
upt	-15421
▁hn	-15422
▁jk	-15423
blue	-15424
born	-15425
boys	-15426
cent	-15427
come	-15428
quin	-15429
rell	-15430
ylus	-15431
▁065	-15432
▁989	-15433
▁epr	-15434
▁era	-15435
▁geo	-15436
▁gtp	-15437
▁icc	-15438
▁ipo	-15439
▁job	-15440
▁lga	-15441
▁liz	-15442
▁mcg	-15443
▁miz	-15444
▁muk	-15445
▁pfa	-15446
▁phi	-15447
▁sne	-15448
▁sri	-15449
▁unt	-15450
▁vul	-15451
▁yun	-15452
erner	-15453
forge	-15454
ields	-15455
istol	-15456
mania	-15457
otype	-15458
ucker	-15459
utive	-15460
▁0001	-15461
▁1005	-15462
▁1027	-15463
▁1032	-15464
▁1101	-15465
▁1108	-15466
▁1109	-15467
▁1114	-15468
▁1167	-15469
▁1171	-15470
▁1205	-15471
▁1237	-15472
▁1245	-15473
▁1269	-15474
▁1312	-15475
▁1353	-15476
▁1391	-15477
▁1393	-15478
▁1447	-15479
▁1477	-15480
▁cogn	-15481
▁emma	-15482
▁folk	-15483
▁fung	-15484
▁isis	-15485
▁mant	-15486
▁mari	-15487
▁mean	-15488
▁mine	-15489
▁peng	-15490
▁rend	-15491
▁rosa	-15492
▁sram	-15493
▁stro	-15494
▁trig	-15495
▁ultr	-15496
▁vick	-15497
▁viet	-15498
apping	-15499
dragon	-15500
ermont	-15501
ifying	-15502
master	-15503
urance	-15504
willer	-15505
▁ahmed	-15506
▁brave	-15507
▁conso	-15508
▁danny	-15509
▁jalan	-15510
▁jesse	-15511
▁marco	-15512
▁navig	-15513
▁ninja	-15514
▁petit	-15515
▁scale	-15516
▁wagon	-15517
duction	-15518
▁arcade	-15519
▁cornel	-15520
▁depend	-15521
▁father	-15522
▁member	-15523
▁normal	-15524
▁rocket	-15525
▁stefan	-15526
▁within	-15527
▁gilbert	-15528
▁paralle	-15529
▁persona	-15530
▁quality	-15531
▁atlantic	-15532
▁clermont	-15533
▁deutsche	-15534
▁identity	-15535
▁progress	-15536
▁reaction	-15537
▁starship	-15538
▁universe	-15539
▁authority	-15540
▁charlotte	-15541
▁mountains	-15542
▁smackdown	-15543
▁tournament	-15544
▁constitution	-15545
tt	-15546
152	-15547
156	-15548
164	-15549
205	-15550
286	-15551
89%	-15552
aci	-15553
aye	-15554
mut	-15555
▁oo	-15556
▁rv	-15557
acon	-15558
bard	-15559
erie	-15560
gang	-15561
gest	-15562
ibus	-15563
opus	-15564
ured	-15565
▁011	-15566
▁024	-15567
▁039	-15568
▁075	-15569
▁093	-15570
▁ada	-15571
▁aus	-15572
▁dsi	-15573
▁etf	-15574
▁ffe	-15575
▁fsa	-15576
▁gau	-15577
▁gec	-15578
▁gol	-15579
▁hil	-15580
▁hod	-15581
▁jur	-15582
▁lub	-15583
▁pab	-15584
▁ppp	-15585
▁raz	-15586
▁sto	-15587
▁sys	-15588
uchus	-15589
water	-15590
▁1003	-15591
▁1026	-15592
▁1056	-15593
▁1058	-15594
▁1117	-15595
▁1165	-15596
▁1176	-15597
▁1182	-15598
▁1194	-15599
▁1246	-15600
▁1272	-15601
▁1336	-15602
▁1362	-15603
▁1378	-15604
▁1386	-15605
▁1463	-15606
▁1479	-15607
▁2150	-15608
▁5800	-15609
▁9600	-15610
▁barn	-15611
▁bath	-15612
▁brid	-15613
▁diva	-15614
▁foss	-15615
▁hiro	-15616
▁hood	-15617
▁momo	-15618
▁nadp	-15619
▁nice	-15620
▁orth	-15621
▁sull	-15622
▁sylv	-15623
▁teng	-15624
▁trim	-15625
iament	-15626
itions	-15627
▁canal	-15628
▁cctld	-15629
▁chuck	-15630
▁colum	-15631
▁emacs	-15632
▁falls	-15633
▁going	-15634
▁holly	-15635
▁horse	-15636
▁innoc	-15637
▁known	-15638
▁layer	-15639
▁libre	-15640
▁maxim	-15641
▁medal	-15642
▁noise	-15643
▁steel	-15644
▁unity	-15645
▁artist	-15646
▁athlon	-15647
▁basket	-15648
▁border	-15649
▁bright	-15650
▁chapel	-15651
▁combat	-15652
▁comics	-15653
▁fellow	-15654
▁gibson	-15655
▁harold	-15656
▁harper	-15657
▁linked	-15658
▁making	-15659
▁olivia	-15660
▁repres	-15661
▁strike	-15662
▁sydney	-15663
▁target	-15664
▁volume	-15665
▁counter	-15666
▁dancing	-15667
▁protein	-15668
▁reality	-15669
▁spotify	-15670
▁symbian	-15671
▁remember	-15672
▁showtime	-15673
▁wordpress	-15674
▁artsvision	-15675
▁postscript	-15676
▁snapdragon	-15677
▁alternative	-15678
hg	-15679
yc	-15680
190	-15681
215	-15682
365	-15683
90%	-15684
edi	-15685
enh	-15686
fet	-15687
hip	-15688
jun	-15689
pad	-15690
thy	-15691
zel	-15692
▁ao	-15693
▁zk	-15694
acht	-15695
aign	-15696
cycl	-15697
enth	-15698
etti	-15699
iley	-15700
isan	-15701
ithe	-15702
latz	-15703
onex	-15704
onse	-15705
othe	-15706
rise	-15707
ving	-15708
▁009	-15709
▁037	-15710
▁48%	-15711
▁dio	-15712
▁due	-15713
▁enh	-15714
▁eps	-15715
▁eun	-15716
▁fen	-15717
▁fps	-15718
▁gom	-15719
▁hib	-15720
▁htm	-15721
▁ion	-15722
▁jub	-15723
▁koi	-15724
▁lai	-15725
▁lcc	-15726
▁mei	-15727
▁mim	-15728
▁ntv	-15729
▁pcm	-15730
▁rug	-15731
▁rut	-15732
▁tcl	-15733
▁uni	-15734
▁urs	-15735
▁vre	-15736
arium	-15737
ernet	-15738
etype	-15739
gamer	-15740
inois	-15741
oides	-15742
orrow	-15743
▁1088	-15744
▁1223	-15745
▁1311	-15746
▁1329	-15747
▁1348	-15748
▁1483	-15749
▁5700	-15750
▁6800	-15751
▁bash	-15752
▁cock	-15753
▁cruz	-15754
▁guer	-15755
▁pour	-15756
▁push	-15757
▁seas	-15758
▁wald	-15759
▁wend	-15760
▁wine	-15761
▁wnba	-15762
idence	-15763
▁cache	-15764
▁could	-15765
▁hanna	-15766
▁julie	-15767
▁monte	-15768
▁quart	-15769
▁route	-15770
▁sharp	-15771
▁stack	-15772
▁subst	-15773
▁sword	-15774
▁bandar	-15775
▁compos	-15776
▁custom	-15777
▁editor	-15778
▁racing	-15779
▁reader	-15780
▁render	-15781
▁busters	-15782
▁holiday	-15783
▁horizon	-15784
▁laurent	-15785
▁leopold	-15786
▁nothing	-15787
▁carolina	-15788
▁franklin	-15789
▁extension	-15790
▁francesco	-15791
▁landkreis	-15792
▁september	-15793
▁historical	-15794
▁parliament	-15795
▁publishing	-15796
▁intelligence	-15797
pf	-15798
114	-15799
166	-15800
206	-15801
257	-15802
262	-15803
bee	-15804
emo	-15805
fin	-15806
ici	-15807
rim	-15808
var	-15809
yll	-15810
zig	-15811
▁eq	-15812
▁gj	-15813
▁wb	-15814
▁wz	-15815
1917	-15816
asis	-15817
asty	-15818
cell	-15819
chus	-15820
enda	-15821
erve	-15822
ilar	-15823
olin	-15824
pass	-15825
plus	-15826
rael	-15827
text	-15828
wind	-15829
▁78%	-15830
▁acm	-15831
▁alo	-15832
▁cgi	-15833
▁cid	-15834
▁dvb	-15835
▁egg	-15836
▁eur	-15837
▁eve	-15838
▁gif	-15839
▁hdr	-15840
▁hes	-15841
▁ict	-15842
▁ils	-15843
▁kak	-15844
▁kod	-15845
▁mbe	-15846
▁pcr	-15847
▁smg	-15848
▁sof	-15849
▁tic	-15850
▁tus	-15851
▁wis	-15852
▁yuk	-15853
emann	-15854
frame	-15855
stadt	-15856
▁1009	-15857
▁1028	-15858
▁1090	-15859
▁1118	-15860
▁1191	-15861
▁1193	-15862
▁1216	-15863
▁1222	-15864
▁1267	-15865
▁1310	-15866
▁1321	-15867
▁1359	-15868
▁1379	-15869
▁1431	-15870
▁1432	-15871
▁6100	-15872
▁6200	-15873
▁bdsm	-15874
▁beck	-15875
▁cape	-15876
▁dang	-15877
▁dart	-15878
▁dies	-15879
▁fitz	-15880
▁fuck	-15881
▁hook	-15882
▁hous	-15883
▁igbt	-15884
▁iris	-15885
▁jtwc	-15886
▁mans	-15887
▁safe	-15888
▁sett	-15889
▁temp	-15890
▁trad	-15891
▁tung	-15892
anning	-15893
ession	-15894
opedia	-15895
▁11000	-15896
▁adams	-15897
▁chron	-15898
▁disco	-15899
▁elena	-15900
▁jesus	-15901
▁macau	-15902
▁meyer	-15903
▁pearl	-15904
▁ridge	-15905
▁therm	-15906
isation	-15907
▁angela	-15908
▁arnold	-15909
▁bullet	-15910
▁circus	-15911
▁delphi	-15912
▁eugene	-15913
▁falcon	-15914
▁gerald	-15915
▁matter	-15916
▁mirror	-15917
▁realme	-15918
▁reason	-15919
▁scient	-15920
▁simula	-15921
▁update	-15922
________	-15923
▁brother	-15924
▁coaster	-15925
▁disease	-15926
▁goodbye	-15927
▁individ	-15928
▁maurice	-15929
▁players	-15930
▁schmidt	-15931
▁spirits	-15932
▁student	-15933
▁approach	-15934
▁chemical	-15935
▁muhammad	-15936
▁november	-15937
▁parallel	-15938
▁products	-15939
▁transfer	-15940
▁vladimir	-15941
▁wireless	-15942
▁cambridge	-15943
▁computing	-15944
▁following	-15945
▁australian	-15946
▁postgresql	-15947
128	-15948
134	-15949
143	-15950
145	-15951
197	-15952
208	-15953
228	-15954
chu	-15955
epp	-15956
kov	-15957
nar	-15958
neo	-15959
ply	-15960
sey	-15961
tax	-15962
uca	-15963
web	-15964
zon	-15965
▁iw	-15966
▁jj	-15967
3000	-15968
aldi	-15969
arat	-15970
ardi	-15971
asse	-15972
cock	-15973
gins	-15974
idas	-15975
iesa	-15976
iyak	-15977
lang	-15978
mart	-15979
ours	-15980
talk	-15981
uate	-15982
wall	-15983
▁013	-15984
▁066	-15985
▁092	-15986
▁095	-15987
▁93%	-15988
▁aid	-15989
▁ain	-15990
▁boc	-15991
▁cio	-15992
▁cun	-15993
▁dop	-15994
▁dut	-15995
▁ech	-15996
▁esa	-15997
▁fcc	-15998
▁ghq	-15999
▁lau	-16000
▁mev	-16001
▁ned	-16002
▁orb	-16003
▁pam	-16004
▁pig	-16005
▁pyr	-16006
▁rai	-16007
▁rak	-16008
▁scp	-16009
▁sep	-16010
▁sti	-16011
▁thy	-16012
▁yet	-16013
aland	-16014
andra	-16015
angle	-16016
arian	-16017
astic	-16018
break	-16019
ellar	-16020
essel	-16021
iling	-16022
itage	-16023
▁0000	-16024
▁1031	-16025
▁1038	-16026
▁1049	-16027
▁1071	-16028
▁1133	-16029
▁1179	-16030
▁1209	-16031
▁1243	-16032
▁1259	-16033
▁1284	-16034
▁1299	-16035
▁1318	-16036
▁1383	-16037
▁1411	-16038
▁1417	-16039
▁1438	-16040
▁1459	-16041
▁1462	-16042
▁5600	-16043
▁appl	-16044
▁bene	-16045
▁bint	-16046
▁drug	-16047
▁elis	-16048
▁fans	-16049
▁farm	-16050
▁fell	-16051
▁hang	-16052
▁hern	-16053
▁infl	-16054
▁kung	-16055
▁liqu	-16056
▁lpga	-16057
▁maya	-16058
▁mips	-16059
▁niss	-16060
▁ntsc	-16061
▁riaa	-16062
▁sier	-16063
▁tiff	-16064
▁umts	-16065
ometer	-16066
▁array	-16067
▁chase	-16068
▁craft	-16069
▁felix	-16070
▁honda	-16071
▁latin	-16072
▁mario	-16073
▁rules	-16074
▁teams	-16075
imental	-16076
itional	-16077
▁boston	-16078
▁camera	-16079
▁carbon	-16080
▁chiesa	-16081
▁contem	-16082
▁driver	-16083
▁fedora	-16084
▁hammer	-16085
▁julius	-16086
▁maggie	-16087
▁models	-16088
▁norton	-16089
▁reform	-16090
▁resist	-16091
▁sexual	-16092
▁toyota	-16093
▁turner	-16094
▁valent	-16095
▁georgia	-16096
▁ireland	-16097
▁jeffrey	-16098
▁russian	-16099
▁shirley	-16100
▁singles	-16101
▁sunrise	-16102
▁victory	-16103
ricularia	-16104
▁campaign	-16105
▁industry	-16106
▁personal	-16107
▁represent	-16108
▁industries	-16109
▁protection	-16110
▁programming	-16111
▁utricularia	-16112
lb	-16113
158	-16114
159	-16115
176	-16116
198	-16117
218	-16118
227	-16119
259	-16120
261	-16121
304	-16122
bla	-16123
hof	-16124
lax	-16125
map	-16126
uga	-16127
uls	-16128
uso	-16129
weg	-16130
▁bz	-16131
▁oy	-16132
achi	-16133
atar	-16134
body	-16135
city	-16136
enne	-16137
enty	-16138
eton	-16139
ffic	-16140
horn	-16141
iber	-16142
ishi	-16143
jang	-16144
olas	-16145
quer	-16146
ulin	-16147
wire	-16148
word	-16149
▁014	-16150
▁071	-16151
▁083	-16152
▁41%	-16153
▁66%	-16154
▁bae	-16155
▁bee	-16156
▁cyn	-16157
▁dee	-16158
▁diy	-16159
▁dvi	-16160
▁edm	-16161
▁gue	-16162
▁icd	-16163
▁ler	-16164
▁liu	-16165
▁mec	-16166
▁ore	-16167
▁psi	-16168
▁sov	-16169
▁tac	-16170
▁tha	-16171
▁tip	-16172
▁ves	-16173
▁vim	-16174
▁voy	-16175
▁wah	-16176
▁wen	-16177
ansas	-16178
opter	-16179
stand	-16180
uncan	-16181
unier	-16182
▁1006	-16183
▁1007	-16184
▁1124	-16185
▁1139	-16186
▁1145	-16187
▁1162	-16188
▁1163	-16189
▁1231	-16190
▁1244	-16191
▁1248	-16192
▁1263	-16193
▁1341	-16194
▁1344	-16195
▁1473	-16196
▁audi	-16197
▁aver	-16198
▁crew	-16199
▁drum	-16200
▁goth	-16201
▁hind	-16202
▁hour	-16203
▁jojo	-16204
▁lept	-16205
▁ligo	-16206
▁luke	-16207
▁male	-16208
▁nash	-16209
▁para	-16210
▁rena	-16211
▁schw	-16212
▁skin	-16213
▁term	-16214
▁thir	-16215
▁trap	-16216
▁ying	-16217
▁35000	-16218
▁berry	-16219
▁blast	-16220
▁catch	-16221
▁chief	-16222
▁denis	-16223
▁emily	-16224
▁error	-16225
▁fresh	-16226
▁jewel	-16227
▁liner	-16228
▁lover	-16229
▁melan	-16230
▁nitro	-16231
▁shall	-16232
▁wings	-16233
▁campus	-16234
▁finder	-16235
▁foster	-16236
▁impact	-16237
▁newton	-16238
▁palmer	-16239
▁queens	-16240
▁ronald	-16241
▁schwar	-16242
▁trance	-16243
▁andreas	-16244
▁dynamic	-16245
▁fiction	-16246
▁finance	-16247
▁musical	-16248
▁trinity	-16249
▁nicholas	-16250
▁philippe	-16251
▁property	-16252
▁terminal	-16253
▁challenge	-16254
▁basketball	-16255
▁convention	-16256
▁everything	-16257
▁laboratory	-16258
▁championships	-16259
qi	-16260
▁⁄	-16261
186	-16262
229	-16263
404	-16264
488	-16265
afe	-16266
atz	-16267
lib	-16268
mor	-16269
oor	-16270
ugg	-16271
▁++	-16272
▁ew	-16273
▁gx	-16274
▁hj	-16275
▁hv	-16276
▁vy	-16277
▁yi	-16278
achy	-16279
anor	-16280
arum	-16281
avia	-16282
ayan	-16283
cial	-16284
comm	-16285
ctic	-16286
etto	-16287
hold	-16288
ifor	-16289
ingo	-16290
iper	-16291
isto	-16292
orpg	-16293
orre	-16294
ulla	-16295
uste	-16296
wide	-16297
▁034	-16298
▁058	-16299
▁078	-16300
▁81%	-16301
▁84%	-16302
▁94%	-16303
▁arp	-16304
▁bts	-16305
▁bwv	-16306
▁cul	-16307
▁dac	-16308
▁dak	-16309
▁hla	-16310
▁hul	-16311
▁igg	-16312
▁kav	-16313
▁leh	-16314
▁mia	-16315
▁moa	-16316
▁pax	-16317
▁rsa	-16318
▁sah	-16319
▁suk	-16320
▁tia	-16321
▁uhf	-16322
▁vid	-16323
ators	-16324
burgh	-16325
ieder	-16326
ijing	-16327
illem	-16328
illus	-16329
radio	-16330
video	-16331
▁1015	-16332
▁1089	-16333
▁1098	-16334
▁1132	-16335
▁1144	-16336
▁1148	-16337
▁1177	-16338
▁1261	-16339
▁1326	-16340
▁1345	-16341
▁2028	-16342
▁aacs	-16343
▁anci	-16344
▁bard	-16345
▁chel	-16346
▁chip	-16347
▁dong	-16348
▁flav	-16349
▁hipp	-16350
▁jing	-16351
▁khal	-16352
▁kwok	-16353
▁lily	-16354
▁nana	-16355
▁oppo	-16356
▁pern	-16357
▁sara	-16358
▁sind	-16359
▁sons	-16360
▁till	-16361
▁ting	-16362
▁trop	-16363
▁uber	-16364
▁weap	-16365
▁wide	-16366
ership	-16367
▁14000	-16368
▁among	-16369
▁atenu	-16370
▁bened	-16371
▁betty	-16372
▁bound	-16373
▁cells	-16374
▁chaos	-16375
▁click	-16376
▁demon	-16377
▁favor	-16378
▁flick	-16379
▁glise	-16380
▁huang	-16381
▁irish	-16382
▁janet	-16383
▁jules	-16384
▁piano	-16385
▁scala	-16386
▁stray	-16387
▁trent	-16388
▁warri	-16389
▁whole	-16390
embourg	-16391
issance	-16392
▁100000	-16393
▁duncan	-16394
▁forces	-16395
▁gustav	-16396
▁miguel	-16397
▁pepper	-16398
▁points	-16399
▁should	-16400
▁waters	-16401
ographic	-16402
▁convers	-16403
▁extreme	-16404
▁feature	-16405
▁foreign	-16406
▁harbour	-16407
▁holland	-16408
▁indiana	-16409
▁mercury	-16410
▁profile	-16411
▁telecom	-16412
▁acoustic	-16413
▁beauvais	-16414
▁extended	-16415
▁harrison	-16416
▁jennifer	-16417
▁malaysia	-16418
▁sequence	-16419
▁shanghai	-16420
▁syndrome	-16421
▁terminus	-16422
▁tomorrow	-16423
▁workshop	-16424
▁butterfly	-16425
▁chemistry	-16426
▁blackberry	-16427
▁experience	-16428
▁environmental	-16429
kk	-16430
nt	-16431
sr	-16432
sw	-16433
sy	-16434
192	-16435
199	-16436
238	-16437
270	-16438
280	-16439
403	-16440
503	-16441
arp	-16442
bin	-16443
ecd	-16444
lai	-16445
lea	-16446
lev	-16447
mos	-16448
prs	-16449
▁dz	-16450
▁vx	-16451
ager	-16452
ahan	-16453
aine	-16454
elyn	-16455
eria	-16456
etch	-16457
hail	-16458
igny	-16459
life	-16460
ovan	-16461
rypt	-16462
step	-16463
thor	-16464
uman	-16465
urst	-16466
xton	-16467
▁048	-16468
▁061	-16469
▁39%	-16470
▁68%	-16471
▁89%	-16472
▁ado	-16473
▁afp	-16474
▁amr	-16475
▁apt	-16476
▁apu	-16477
▁auf	-16478
▁cdc	-16479
▁chs	-16480
▁gut	-16481
▁iau	-16482
▁kok	-16483
▁kos	-16484
▁ley	-16485
▁lob	-16486
▁lol	-16487
▁nbl	-16488
▁och	-16489
▁ong	-16490
▁psa	-16491
▁rez	-16492
▁sai	-16493
▁sax	-16494
▁voc	-16495
dress	-16496
drive	-16497
etime	-16498
onkey	-16499
rique	-16500
▁1059	-16501
▁1097	-16502
▁1105	-16503
▁1174	-16504
▁1238	-16505
▁1306	-16506
▁1313	-16507
▁1349	-16508
▁1426	-16509
▁1455	-16510
▁1489	-16511
▁aaaa	-16512
▁alco	-16513
▁beca	-16514
▁buzz	-16515
▁enix	-16516
▁evan	-16517
▁even	-16518
▁exit	-16519
▁fold	-16520
▁fork	-16521
▁funk	-16522
▁gius	-16523
▁grid	-16524
▁json	-16525
▁leaf	-16526
▁ller	-16527
▁rare	-16528
▁rrna	-16529
▁sans	-16530
▁surv	-16531
▁swan	-16532
▁tool	-16533
berger	-16534
manuel	-16535
▁aaron	-16536
▁aless	-16537
▁blake	-16538
▁bourg	-16539
▁chess	-16540
▁costa	-16541
▁false	-16542
▁gamep	-16543
▁isaac	-16544
▁kanon	-16545
▁kinki	-16546
▁laser	-16547
▁pharm	-16548
▁ready	-16549
▁stard	-16550
▁tools	-16551
▁types	-16552
▁yonex	-16553
▁called	-16554
▁edmund	-16555
▁illust	-16556
▁louise	-16557
▁porter	-16558
▁remote	-16559
▁saturn	-16560
▁stuart	-16561
▁twitch	-16562
▁african	-16563
▁cookies	-16564
▁fischer	-16565
▁problem	-16566
▁stories	-16567
▁subject	-16568
▁verilog	-16569
▁baseball	-16570
▁behavior	-16571
▁shishamo	-16572
▁straight	-16573
▁sullivan	-16574
▁catherine	-16575
▁commodore	-16576
▁ferdinand	-16577
▁commercial	-16578
▁individual	-16579
▁powerpoint	-16580
▁broadcasting	-16581
pd	-16582
141	-16583
167	-16584
223	-16585
232	-16586
258	-16587
263	-16588
407	-16589
906	-16590
bad	-16591
bel	-16592
hab	-16593
jar	-16594
mul	-16595
omm	-16596
rab	-16597
rap	-16598
raw	-16599
rio	-16600
uta	-16601
xxx	-16602
ypt	-16603
▁ij	-16604
▁oe	-16605
▁qi	-16606
▁uu	-16607
▁yc	-16608
asta	-16609
atum	-16610
elot	-16611
eppe	-16612
hill	-16613
iffe	-16614
itis	-16615
kell	-16616
load	-16617
mbps	-16618
olph	-16619
opro	-16620
ores	-16621
ouri	-16622
quar	-16623
▁056	-16624
▁073	-16625
▁73%	-16626
▁aek	-16627
▁ais	-16628
▁ald	-16629
▁amg	-16630
▁aol	-16631
▁ate	-16632
▁atx	-16633
▁cay	-16634
▁cet	-16635
▁cms	-16636
▁crc	-16637
▁dao	-16638
▁fai	-16639
▁fnc	-16640
▁foo	-16641
▁gto	-16642
▁gtx	-16643
▁gur	-16644
▁hmv	-16645
▁mao	-16646
▁nut	-16647
▁ont	-16648
▁ord	-16649
▁psl	-16650
▁rss	-16651
▁sae	-16652
▁sdn	-16653
▁sek	-16654
▁sme	-16655
▁snp	-16656
▁tao	-16657
▁tav	-16658
▁tid	-16659
▁tyr	-16660
▁ucs	-16661
▁vos	-16662
block	-16663
ennes	-16664
night	-16665
osaic	-16666
shock	-16667
sonne	-16668
▁1035	-16669
▁1041	-16670
▁1091	-16671
▁1254	-16672
▁1296	-16673
▁1302	-16674
▁1331	-16675
▁2029	-16676
▁2040	-16677
▁3900	-16678
▁clin	-16679
▁doom	-16680
▁exid	-16681
▁febr	-16682
▁ikon	-16683
▁isle	-16684
▁lass	-16685
▁owen	-16686
▁pang	-16687
▁reve	-16688
▁sets	-16689
▁uefa	-16690
▁witt	-16691
erties	-16692
▁activ	-16693
▁blade	-16694
▁blink	-16695
▁bruno	-16696
▁diego	-16697
▁draft	-16698
▁eddie	-16699
▁emerg	-16700
▁inner	-16701
▁jamie	-16702
▁joker	-16703
▁liver	-16704
▁namco	-16705
▁opent	-16706
▁param	-16707
▁photo	-16708
▁polar	-16709
▁relig	-16710
▁rifle	-16711
▁sanct	-16712
▁snake	-16713
▁swiss	-16714
▁venus	-16715
itation	-16716
ruction	-16717
station	-16718
▁accord	-16719
▁andrea	-16720
▁astron	-16721
▁barbus	-16722
▁clarke	-16723
▁groups	-16724
▁harvey	-16725
▁killer	-16726
▁matlab	-16727
▁mmorpg	-16728
▁nforce	-16729
▁novell	-16730
▁played	-16731
▁rabbit	-16732
▁rising	-16733
▁screen	-16734
▁werner	-16735
▁affairs	-16736
▁airways	-16737
▁because	-16738
▁cluster	-16739
▁console	-16740
▁desktop	-16741
▁pierrot	-16742
▁popular	-16743
▁provinc	-16744
▁shadows	-16745
▁thomson	-16746
▁welcome	-16747
▁certific	-16748
▁johannes	-16749
▁executive	-16750
▁frequency	-16751
▁principal	-16752
▁controller	-16753
▁population	-16754
▁metropolitan	-16755
bh	-16756
gf	-16757
xa	-16758
009	-16759
139	-16760
157	-16761
178	-16762
179	-16763
180	-16764
188	-16765
209	-16766
211	-16767
254	-16768
256	-16769
ahn	-16770
alt	-16771
dan	-16772
gus	-16773
hou	-16774
ieg	-16775
ija	-16776
uba	-16777
udo	-16778
uni	-16779
▁mz	-16780
anto	-16781
athy	-16782
enzo	-16783
fect	-16784
girl	-16785
ollo	-16786
sted	-16787
umer	-16788
▁022	-16789
▁035	-16790
▁047	-16791
▁63%	-16792
▁cru	-16793
▁cyt	-16794
▁dob	-16795
▁erp	-16796
▁gel	-16797
▁gim	-16798
▁hst	-16799
▁ida	-16800
▁kes	-16801
▁lok	-16802
▁lsd	-16803
▁mee	-16804
▁nay	-16805
▁neu	-16806
▁nev	-16807
▁osi	-16808
▁rie	-16809
▁sia	-16810
▁vio	-16811
▁wai	-16812
▁wet	-16813
amine	-16814
annad	-16815
erous	-16816
ising	-16817
oware	-16818
▁1033	-16819
▁1034	-16820
▁1057	-16821
▁1069	-16822
▁1164	-16823
▁1166	-16824
▁1203	-16825
▁1232	-16826
▁1287	-16827
▁1303	-16828
▁1323	-16829
▁1361	-16830
▁1422	-16831
▁7200	-16832
▁bean	-16833
▁bian	-16834
▁bron	-16835
▁buch	-16836
▁caus	-16837
▁coal	-16838
▁craw	-16839
▁dere	-16840
▁door	-16841
▁ebay	-16842
▁gond	-16843
▁gott	-16844
▁gprs	-16845
▁hann	-16846
▁jake	-16847
▁kern	-16848
▁lamp	-16849
▁lucy	-16850
▁norm	-16851
▁ogle	-16852
▁pete	-16853
▁pool	-16854
▁pred	-16855
▁pula	-16856
▁salt	-16857
▁swim	-16858
▁tall	-16859
▁viva	-16860
▁wick	-16861
▁wiss	-16862
▁zico	-16863
▁zoom	-16864
ending	-16865
ention	-16866
porary	-16867
ulture	-16868
▁alleg	-16869
▁aster	-16870
▁blanc	-16871
▁bonus	-16872
▁brass	-16873
▁britt	-16874
▁cause	-16875
▁chair	-16876
▁crime	-16877
▁deter	-16878
▁glory	-16879
▁grass	-16880
▁gucci	-16881
▁heter	-16882
▁lemon	-16883
▁phant	-16884
▁react	-16885
▁sparc	-16886
▁trick	-16887
▁write	-16888
▁coming	-16889
▁encycl	-16890
▁heroes	-16891
▁keroro	-16892
▁kindle	-16893
▁nissan	-16894
▁pretty	-16895
▁result	-16896
▁roland	-16897
▁vmware	-16898
▁bioware	-16899
▁capitol	-16900
▁haskell	-16901
▁lisieux	-16902
▁mystery	-16903
▁nations	-16904
▁october	-16905
▁package	-16906
▁saunier	-16907
▁aviation	-16908
▁fernando	-16909
▁missouri	-16910
▁physical	-16911
▁released	-16912
▁specific	-16913
▁cherbourg	-16914
▁elementary	-16915
▁processing	-16916
▁properties	-16917
▁winchester	-16918
fi	-16919
rp	-16920
147	-16921
174	-16922
213	-16923
216	-16924
220	-16925
222	-16926
287	-16927
323	-16928
366	-16929
375	-16930
450	-16931
509	-16932
603	-16933
abo	-16934
agu	-16935
fla	-16936
gis	-16937
ijn	-16938
ocy	-16939
roe	-16940
udi	-16941
uzz	-16942
▁fy	-16943
▁qw	-16944
▁zr	-16945
2500	-16946
ding	-16947
dorf	-16948
ecca	-16949
essa	-16950
inos	-16951
ipro	-16952
nine	-16953
ococ	-16954
oint	-16955
phus	-16956
pool	-16957
uced	-16958
ults	-16959
utes	-16960
uver	-16961
wski	-16962
▁029	-16963
▁044	-16964
▁046	-16965
▁055	-16966
▁097	-16967
▁76%	-16968
▁apr	-16969
▁cip	-16970
▁dax	-16971
▁dmm	-16972
▁dow	-16973
▁ecm	-16974
▁fol	-16975
▁gis	-16976
▁gmp	-16977
▁hbl	-16978
▁hof	-16979
▁imf	-16980
▁jvc	-16981
▁kev	-16982
▁kob	-16983
▁lal	-16984
▁myc	-16985
▁png	-16986
▁rup	-16987
▁sbd	-16988
▁sli	-16989
▁tul	-16990
▁xiv	-16991
▁zan	-16992
▁zet	-16993
▁zoo	-16994
brain	-16995
brand	-16996
eness	-16997
ipper	-16998
layer	-16999
mouth	-17000
ogram	-17001
order	-17002
raham	-17003
uston	-17004
▁1014	-17005
▁1029	-17006
▁1052	-17007
▁1079	-17008
▁1082	-17009
▁1092	-17010
▁1102	-17011
▁1159	-17012
▁1201	-17013
▁1252	-17014
▁1339	-17015
▁1437	-17016
▁1446	-17017
▁8859	-17018
▁attr	-17019
▁bind	-17020
▁copy	-17021
▁dice	-17022
▁does	-17023
▁evil	-17024
▁fear	-17025
▁fiba	-17026
▁golf	-17027
▁grac	-17028
▁hugo	-17029
▁icon	-17030
▁idea	-17031
▁info	-17032
▁iptv	-17033
▁july	-17034
▁jumo	-17035
▁larg	-17036
▁mash	-17037
▁mers	-17038
▁nand	-17039
▁opus	-17040
▁perp	-17041
▁prob	-17042
▁saga	-17043
▁sham	-17044
▁sinc	-17045
▁styl	-17046
ically	-17047
ischen	-17048
lement	-17049
ousand	-17050
schule	-17051
▁17000	-17052
▁80000	-17053
▁atari	-17054
▁besan	-17055
▁cable	-17056
▁compi	-17057
▁dirty	-17058
▁elvis	-17059
▁hands	-17060
▁indic	-17061
▁knock	-17062
▁lance	-17063
▁merry	-17064
▁miles	-17065
▁notes	-17066
▁plane	-17067
▁recep	-17068
▁revol	-17069
▁romeo	-17070
▁scene	-17071
▁schne	-17072
▁tales	-17073
▁those	-17074
▁tibet	-17075
▁brooks	-17076
▁cancer	-17077
▁capcom	-17078
▁carcas	-17079
▁compar	-17080
▁compon	-17081
▁create	-17082
▁decade	-17083
▁dollar	-17084
▁marian	-17085
▁scream	-17086
▁sophie	-17087
▁status	-17088
▁talent	-17089
▁territ	-17090
▁alberto	-17091
▁allison	-17092
▁angeles	-17093
▁compact	-17094
▁effects	-17095
▁gateway	-17096
▁license	-17097
▁lovelyz	-17098
▁maxwell	-17099
▁meeting	-17100
▁radical	-17101
▁timothy	-17102
▁verizon	-17103
▁whitney	-17104
▁academic	-17105
▁basilica	-17106
▁consider	-17107
▁equation	-17108
▁giuseppe	-17109
▁michelle	-17110
▁michigan	-17111
▁oriental	-17112
▁thousand	-17113
▁carpenter	-17114
▁dualshock	-17115
▁worldwide	-17116
▁integrated	-17117
▁resolution	-17118
▁carcassonne	-17119
pb	-17120
rb	-17121
tn	-17122
169	-17123
214	-17124
338	-17125
368	-17126
686	-17127
bet	-17128
erc	-17129
ghz	-17130
hev	-17131
iop	-17132
loo	-17133
lov	-17134
onn	-17135
opt	-17136
raz	-17137
tar	-17138
ucl	-17139
uku	-17140
▁gz	-17141
▁nz	-17142
▁qc	-17143
▁vd	-17144
▁xa	-17145
acki	-17146
alli	-17147
amax	-17148
aran	-17149
chat	-17150
ched	-17151
ener	-17152
file	-17153
idan	-17154
ilon	-17155
imal	-17156
iman	-17157
ithm	-17158
lett	-17159
mani	-17160
ogon	-17161
pers	-17162
plic	-17163
ungs	-17164
▁062	-17165
▁074	-17166
▁099	-17167
▁52%	-17168
▁apa	-17169
▁blg	-17170
▁bpm	-17171
▁chn	-17172
▁csl	-17173
▁dcc	-17174
▁eck	-17175
▁fet	-17176
▁fog	-17177
▁hoc	-17178
▁iis	-17179
▁ioc	-17180
▁jsp	-17181
▁ltp	-17182
▁mai	-17183
▁mvc	-17184
▁nfc	-17185
▁nih	-17186
▁orn	-17187
▁peg	-17188
▁svg	-17189
▁tep	-17190
▁tpp	-17191
▁tud	-17192
▁una	-17193
▁vot	-17194
▁waf	-17195
acula	-17196
aling	-17197
annes	-17198
arius	-17199
arman	-17200
arten	-17201
asser	-17202
fried	-17203
ianus	-17204
ignan	-17205
lette	-17206
radar	-17207
uther	-17208
vince	-17209
▁1019	-17210
▁1053	-17211
▁1061	-17212
▁1077	-17213
▁1136	-17214
▁1169	-17215
▁1255	-17216
▁1293	-17217
▁1304	-17218
▁1307	-17219
▁1354	-17220
▁bast	-17221
▁berk	-17222
▁boyz	-17223
▁bung	-17224
▁chol	-17225
▁conv	-17226
▁eden	-17227
▁erik	-17228
▁garo	-17229
▁hawk	-17230
▁homo	-17231
▁joan	-17232
▁lens	-17233
▁luna	-17234
▁mare	-17235
▁mast	-17236
▁ndez	-17237
▁ohio	-17238
▁phoe	-17239
▁semi	-17240
▁sexy	-17241
▁sist	-17242
▁spex	-17243
▁stag	-17244
▁tube	-17245
▁upon	-17246
▁vend	-17247
ampton	-17248
ements	-17249
player	-17250
▁atlus	-17251
▁bella	-17252
▁bible	-17253
▁bryan	-17254
▁buddh	-17255
▁clean	-17256
▁cliff	-17257
▁cours	-17258
▁curve	-17259
▁defin	-17260
▁expos	-17261
▁fritz	-17262
▁gamma	-17263
▁gates	-17264
▁hutch	-17265
▁incre	-17266
▁jorge	-17267
▁lives	-17268
▁might	-17269
▁naval	-17270
▁neuro	-17271
▁noble	-17272
▁often	-17273
▁prism	-17274
▁randy	-17275
▁reach	-17276
▁rosen	-17277
▁split	-17278
▁tears	-17279
▁wowow	-17280
plement	-17281
ranches	-17282
▁angels	-17283
▁assist	-17284
▁butler	-17285
▁cedric	-17286
▁device	-17287
▁docomo	-17288
▁growth	-17289
▁israel	-17290
▁italia	-17291
▁joshua	-17292
▁kaiser	-17293
▁mosaic	-17294
▁prison	-17295
▁psycho	-17296
▁reddit	-17297
▁reserv	-17298
▁tennis	-17299
▁treaty	-17300
▁verycd	-17301
▁yamaha	-17302
▁address	-17303
▁ancient	-17304
▁atlanta	-17305
▁beijing	-17306
▁borough	-17307
▁buffalo	-17308
▁carroll	-17309
▁clannad	-17310
▁formosa	-17311
▁frances	-17312
▁gaudens	-17313
▁lieuten	-17314
▁quantum	-17315
▁related	-17316
▁similar	-17317
▁towards	-17318
▁vietnam	-17319
▁catholic	-17320
▁critical	-17321
▁illinois	-17322
▁junction	-17323
▁magnetic	-17324
▁manifest	-17325
▁networks	-17326
▁province	-17327
▁marketing	-17328
▁principle	-17329
▁qualifying	-17330
▁regulation	-17331
▁competition	-17332
▁sourceforge	-17333
▁construction	-17334
hk	-17335
nc	-17336
nx	-17337
wb	-17338
007	-17339
137	-17340
170	-17341
194	-17342
234	-17343
303	-17344
416	-17345
486	-17346
605	-17347
806	-17348
908	-17349
aea	-17350
aft	-17351
aks	-17352
aze	-17353
fab	-17354
fit	-17355
iat	-17356
inx	-17357
oir	-17358
opy	-17359
pen	-17360
run	-17361
say	-17362
via	-17363
▁lx	-17364
▁rz	-17365
▁yy	-17366
▁zz	-17367
aeus	-17368
aint	-17369
aper	-17370
atha	-17371
cott	-17372
ects	-17373
icia	-17374
ilio	-17375
inga	-17376
iona	-17377
kbps	-17378
onte	-17379
oron	-17380
quis	-17381
rics	-17382
show	-17383
▁031	-17384
▁036	-17385
▁064	-17386
▁067	-17387
▁069	-17388
▁ack	-17389
▁bmi	-17390
▁dex	-17391
▁duo	-17392
▁ecc	-17393
▁fes	-17394
▁gat	-17395
▁het	-17396
▁img	-17397
▁kau	-17398
▁kop	-17399
▁kul	-17400
▁kwk	-17401
▁lak	-17402
▁lep	-17403
▁lug	-17404
▁mcl	-17405
▁mri	-17406
▁nez	-17407
▁nix	-17408
▁noc	-17409
▁nsc	-17410
▁nxt	-17411
▁pha	-17412
▁rov	-17413
▁ski	-17414
▁smo	-17415
▁svd	-17416
▁tie	-17417
▁tlc	-17418
▁tna	-17419
▁xyz	-17420
▁zam	-17421
▁zap	-17422
▁zar	-17423
child	-17424
crete	-17425
estic	-17426
ethyl	-17427
itsch	-17428
leton	-17429
ports	-17430
rahim	-17431
tranz	-17432
▁1012	-17433
▁1021	-17434
▁1087	-17435
▁1149	-17436
▁1342	-17437
▁4900	-17438
▁5300	-17439
▁6300	-17440
▁6700	-17441
▁8700	-17442
▁amar	-17443
▁amph	-17444
▁anto	-17445
▁auch	-17446
▁bagn	-17447
▁bong	-17448
▁chia	-17449
▁chir	-17450
▁ciel	-17451
▁crim	-17452
▁dale	-17453
▁date	-17454
▁dell	-17455
▁dens	-17456
▁fang	-17457
▁frag	-17458
▁gale	-17459
▁gast	-17460
▁haus	-17461
▁imac	-17462
▁iowa	-17463
▁laws	-17464
▁limo	-17465
▁luck	-17466
▁lump	-17467
▁mord	-17468
▁navy	-17469
▁nina	-17470
▁pico	-17471
▁pony	-17472
▁quot	-17473
▁ride	-17474
▁scsi	-17475
▁seng	-17476
▁shap	-17477
▁smrt	-17478
▁ssri	-17479
▁sten	-17480
▁tune	-17481
▁xeon	-17482
▁yuen	-17483
▁zeit	-17484
▁zepp	-17485
donald	-17486
ensive	-17487
▁acfun	-17488
▁algor	-17489
▁amber	-17490
▁avbwu	-17491
▁comet	-17492
▁loire	-17493
▁navar	-17494
▁ordin	-17495
▁pasha	-17496
▁quinn	-17497
▁redmi	-17498
▁roche	-17499
▁seoul	-17500
▁shake	-17501
▁terra	-17502
▁tribe	-17503
▁trill	-17504
▁units	-17505
▁wheel	-17506
▁bailey	-17507
▁cheung	-17508
▁expans	-17509
▁fisher	-17510
▁flickr	-17511
▁franco	-17512
▁genius	-17513
▁magnum	-17514
▁magnus	-17515
▁marsan	-17516
▁monica	-17517
▁rivers	-17518
▁sister	-17519
▁troyes	-17520
▁unesco	-17521
▁vernon	-17522
▁activex	-17523
▁adtranz	-17524
▁cartoon	-17525
▁charter	-17526
▁conduct	-17527
▁fortune	-17528
▁gardens	-17529
▁instrum	-17530
▁macross	-17531
▁newtype	-17532
▁nicolas	-17533
▁perform	-17534
▁picture	-17535
▁reserve	-17536
▁scholar	-17537
▁birthday	-17538
▁chandler	-17539
▁december	-17540
▁elements	-17541
▁fantasia	-17542
▁investig	-17543
▁presents	-17544
▁railroad	-17545
▁variable	-17546
▁alexandra	-17547
▁classical	-17548
▁essential	-17549
▁sebastian	-17550
▁solutions	-17551
▁encyclopedia	-17552
mk	-17553
ym	-17554
138	-17555
212	-17556
239	-17557
242	-17558
284	-17559
357	-17560
358	-17561
456	-17562
705	-17563
759	-17564
768	-17565
alm	-17566
avi	-17567
bec	-17568
efi	-17569
eli	-17570
fen	-17571
hon	-17572
hyd	-17573
itr	-17574
nas	-17575
ovo	-17576
sma	-17577
teo	-17578
uns	-17579
urb	-17580
▁bv	-17581
▁vj	-17582
▁zd	-17583
▁zg	-17584
2001	-17585
atro	-17586
eces	-17587
enez	-17588
este	-17589
fall	-17590
iami	-17591
imon	-17592
inda	-17593
inum	-17594
mour	-17595
obar	-17596
oble	-17597
odus	-17598
oire	-17599
stic	-17600
tale	-17601
▁027	-17602
▁033	-17603
▁088	-17604
▁59%	-17605
▁91%	-17606
▁aec	-17607
▁afc	-17608
▁cli	-17609
▁cvs	-17610
▁ego	-17611
▁els	-17612
▁fad	-17613
▁ged	-17614
▁gmt	-17615
▁ibf	-17616
▁ipc	-17617
▁jup	-17618
▁lhc	-17619
▁lyc	-17620
▁mhc	-17621
▁mie	-17622
▁mph	-17623
▁nil	-17624
▁rag	-17625
▁rps	-17626
▁sdf	-17627
▁siv	-17628
▁sob	-17629
▁srb	-17630
▁ttc	-17631
▁ucc	-17632
▁xav	-17633
▁yar	-17634
▁yui	-17635
▁zig	-17636
▁zis	-17637
acker	-17638
aries	-17639
front	-17640
group	-17641
idium	-17642
ifier	-17643
iving	-17644
lable	-17645
metal	-17646
recht	-17647
▁1051	-17648
▁1093	-17649
▁1247	-17650
▁1325	-17651
▁1332	-17652
▁1458	-17653
▁2035	-17654
▁5100	-17655
▁7800	-17656
▁aeon	-17657
▁argo	-17658
▁asic	-17659
▁badm	-17660
▁choc	-17661
▁cout	-17662
▁cray	-17663
▁cyan	-17664
▁dame	-17665
▁diet	-17666
▁dior	-17667
▁finn	-17668
▁forg	-17669
▁gare	-17670
▁goto	-17671
▁hear	-17672
▁hier	-17673
▁hulu	-17674
▁jade	-17675
▁joel	-17676
▁kota	-17677
▁mald	-17678
▁maus	-17679
▁meta	-17680
▁mits	-17681
▁mosc	-17682
▁musa	-17683
▁pard	-17684
▁reyn	-17685
▁rust	-17686
▁spre	-17687
▁uefi	-17688
▁wond	-17689
aining	-17690
schaft	-17691
▁45000	-17692
▁aacsb	-17693
▁carry	-17694
▁casey	-17695
▁chlor	-17696
▁chong	-17697
▁coach	-17698
▁cream	-17699
▁daisy	-17700
▁descr	-17701
▁files	-17702
▁jenny	-17703
▁molec	-17704
▁natur	-17705
▁orbit	-17706
▁paulo	-17707
▁prisc	-17708
▁punch	-17709
▁quake	-17710
▁sunny	-17711
▁volks	-17712
borough	-17713
ilities	-17714
mission	-17715
▁africa	-17716
▁chanel	-17717
▁claire	-17718
▁compan	-17719
▁credit	-17720
▁demand	-17721
▁excell	-17722
▁female	-17723
▁freddy	-17724
▁jaguar	-17725
▁jessie	-17726
▁lancer	-17727
▁langon	-17728
▁length	-17729
▁lonely	-17730
▁murder	-17731
▁myself	-17732
▁phosph	-17733
▁pietro	-17734
▁string	-17735
▁viktor	-17736
▁vorbis	-17737
▁weekly	-17738
▁wizard	-17739
▁brandon	-17740
▁falling	-17741
▁grammar	-17742
▁illustr	-17743
▁maximum	-17744
▁officer	-17745
▁openbsd	-17746
▁paradox	-17747
▁playing	-17748
▁shannon	-17749
▁spexial	-17750
▁wallace	-17751
▁february	-17752
▁institut	-17753
▁nacional	-17754
▁symphony	-17755
▁automatic	-17756
▁avranches	-17757
▁elisabeth	-17758
▁eurogamer	-17759
▁expansion	-17760
▁lightning	-17761
▁programme	-17762
▁superstar	-17763
▁associated	-17764
▁connection	-17765
▁lieutenant	-17766
▁soundtrack	-17767
▁applications	-17768
▁introduction	-17769
fx	-17770
mt	-17771
oj	-17772
yu	-17773
127	-17774
144	-17775
154	-17776
155	-17777
172	-17778
182	-17779
196	-17780
▁	-17781
,	-17782
的	-17783
。	-17784
1	-17785
0	-17786
年	-17787
2	-17788
、	-17789
一	-17790
在	-17791
9	-17792
中	-17793
是	-17794
人	-17795
a	-17796
e	-17797
大	-17798
有	-17799
3	-17800
和	-17801
5	-17802
為	-17803
i	-17804
8	-17805
o	-17806
以	-17807
r	-17808
4	-17809
月	-17810
n	-17811
日	-17812
6	-17813
7	-17814
了	-17815
t	-17816
国	-17817
s	-17818
为	-17819
地	-17820
國	-17821
於	-17822
成	-17823
上	-17824
公	-17825
不	-17826
l	-17827
出	-17828
行	-17829
他	-17830
部	-17831
斯	-17832
之	-17833
c	-17834
名	-17835
其	-17836
主	-17837
作	-17838
生	-17839
分	-17840
方	-17841
m	-17842
于	-17843
到	-17844
下	-17845
用	-17846
西	-17847
:	-17848
第	-17849
》	-17850
《	-17851
而	-17852
家	-17853
位	-17854
由	-17855
及	-17856
d	-17857
h	-17858
後	-17859
時	-17860
民	-17861
被	-17862
本	-17863
法	-17864
学	-17865
南	-17866
市	-17867
·	-17868
會	-17869
u	-17870
同	-17871
多	-17872
可	-17873
里	-17874
政	-17875
个	-17876
子	-17877
自	-17878
任	-17879
特	-17880
文	-17881
高	-17882
北	-17883
」	-17884
「	-17885
加	-17886
德	-17887
新	-17888
最	-17889
海	-17890
與	-17891
克	-17892
前	-17893
代	-17894
也	-17895
平	-17896
利	-17897
后	-17898
等	-17899
所	-17900
p	-17901
學	-17902
三	-17903
度	-17904
個	-17905
因	-17906
面	-17907
建	-17908
得	-17909
此	-17910
美	-17911
道	-17912
“	-17913
物	-17914
要	-17915
b	-17916
事	-17917
教	-17918
至	-17919
g	-17920
时	-17921
立	-17922
路	-17923
山	-17924
会	-17925
拉	-17926
入	-17927
小	-17928
口	-17929
能	-17930
世	-17931
尔	-17932
二	-17933
發	-17934
理	-17935
合	-17936
州	-17937
工	-17938
表	-17939
外	-17940
定	-17941
区	-17942
區	-17943
天	-17944
期	-17945
但	-17946
科	-17947
化	-17948
球	-17949
台	-17950
次	-17951
十	-17952
使	-17953
全	-17954
;	-17955
通	-17956
性	-17957
者	-17958
f	-17959
共	-17960
式	-17961
重	-17962
並	-17963
都	-17964
安	-17965
发	-17966
布	-17967
來	-17968
力	-17969
士	-17970
站	-17971
"	-17972
军	-17973
軍	-17974
院	-17975
比	-17976
基	-17977
原	-17978
城	-17979
相	-17980
王	-17981
爾	-17982
米	-17983
省	-17984
明	-17985
動	-17986
目	-17987
長	-17988
司	-17989
正	-17990
这	-17991
英	-17992
對	-17993
治	-17994
水	-17995
系	-17996
開	-17997
尼	-17998
格	-17999
金	-18000
k	-18001
制	-18002
府	-18003
与	-18004
這	-18005
长	-18006
列	-18007
如	-18008
四	-18009
或	-18010
元	-18011
起	-18012
影	-18013
員	-18014
電	-18015
港	-18016
巴	-18017
y	-18018
亞	-18019
对	-18020
首	-18021
現	-18022
提	-18023
女	-18024
星	-18025
常	-18026
當	-18027
阿	-18028
東	-18029
經	-18030
改	-18031
演	-18032
来	-18033
并	-18034
v	-18035
間	-18036
進	-18037
林	-18038
量	-18039
過	-18040
心	-18041
开	-18042
东	-18043
向	-18044
然	-18045
就	-18046
接	-18047
始	-18048
賽	-18049
戰	-18050
动	-18051
界	-18052
體	-18053
w	-18054
员	-18055
將	-18056
意	-18057
曾	-18058
管	-18059
手	-18060
委	-18061
內	-18062
車	-18063
機	-18064
受	-18065
卡	-18066
交	-18067
程	-18068
指	-18069
河	-18070
場	-18071
包	-18072
保	-18073
形	-18074
色	-18075
机	-18076
亚	-18077
已	-18078
音	-18079
流	-18080
型	-18081
镇	-18082
内	-18083
香	-18084
直	-18085
些	-18086
該	-18087
馬	-18088
集	-18089
总	-18090
经	-18091
过	-18092
进	-18093
太	-18094
史	-18095
線	-18096
稱	-18097
夫	-18098
隊	-18099
校	-18100
车	-18101
五	-18102
身	-18103
空	-18104
字	-18105
品	-18106
更	-18107
现	-18108
社	-18109
示	-18110
朝	-18111
展	-18112
業	-18113
电	-18114
该	-18115
间	-18116
江	-18117
县	-18118
种	-18119
種	-18120
兩	-18121
古	-18122
設	-18123
业	-18124
持	-18125
數	-18126
灣	-18127
马	-18128
各	-18129
官	-18130
選	-18131
将	-18132
反	-18133
洲	-18134
回	-18135
战	-18136
著	-18137
命	-18138
体	-18139
京	-18140
取	-18141
羅	-18142
活	-18143
造	-18144
達	-18145
普	-18146
信	-18147
局	-18148
光	-18149
少	-18150
设	-18151
支	-18152
族	-18153
称	-18154
当	-18155
石	-18156
曲	-18157
神	-18158
解	-18159
近	-18160
数	-18161
非	-18162
清	-18163
情	-18164
聯	-18165
只	-18166
罗	-18167
队	-18168
研	-18169
約	-18170
每	-18171
它	-18172
又	-18173
件	-18174
縣	-18175
蘭	-18176
联	-18177
村	-18178
運	-18179
波	-18180
即	-18181
属	-18182
片	-18183
放	-18184
號	-18185
角	-18186
關	-18187
她	-18188
伊	-18189
華	-18190
總	-18191
/	-18192
則	-18193
商	-18194
版	-18195
統	-18196
武	-18197
运	-18198
密	-18199
知	-18200
收	-18201
樂	-18202
括	-18203
計	-18204
两	-18205
先	-18206
未	-18207
們	-18208
座	-18209
李	-18210
屬	-18211
场	-18212
往	-18213
去	-18214
無	-18215
根	-18216
器	-18217
白	-18218
线	-18219
組	-18220
产	-18221
福	-18222
再	-18223
議	-18224
初	-18225
组	-18226
歌	-18227
果	-18228
华	-18229
赛	-18230
究	-18231
視	-18232
统	-18233
且	-18234
六	-18235
达	-18236
派	-18237
从	-18238
語	-18239
引	-18240
打	-18241
從	-18242
兵	-18243
足	-18244
号	-18245
级	-18246
亦	-18247
今	-18248
域	-18249
居	-18250
语	-18251
完	-18252
关	-18253
z	-18254
们	-18255
帝	-18256
季	-18257
播	-18258
威	-18259
除	-18260
塔	-18261
宗	-18262
书	-18263
计	-18264
令	-18265
務	-18266
段	-18267
服	-18268
育	-18269
參	-18270
實	-18271
產	-18272
團	-18273
說	-18274
結	-18275
x	-18276
花	-18277
很	-18278
兰	-18279
查	-18280
言	-18281
義	-18282
广	-18283
門	-18284
八	-18285
速	-18286
土	-18287
修	-18288
置	-18289
島	-18290
功	-18291
宣	-18292
希	-18293
存	-18294
推	-18295
另	-18296
约	-18297
死	-18298
客	-18299
周	-18300
投	-18301
[...]
