<pad>	0
<unk>	0
[CLS]	0
[SEP]	0
[MASK]	0
(	0
)	0
”	0
-	0
.	0
–	0
£	0
€	0
▁,	-0
▁的	-1
▁。	-2
▁年	-3
▁1	-4
▁、	-5
▁一	-6
▁在	-7
▁是	-8
▁中	-9
▁人	-10
▁2	-11
▁有	-12
▁大	-13
▁和	-14
▁為	-15
▁以	-16
▁月	-17
▁日	-18
▁了	-19
▁国	-20
▁20	-21
▁为	-22
▁19	-23
▁地	-24
▁成	-25
▁國	-26
▁不	-27
▁於	-28
▁上	-29
▁公	-30
▁行	-31
▁出	-32
▁他	-33
▁之	-34
▁部	-35
▁斯	-36
▁其	-37
▁名	-38
▁主	-39
▁生	-40
▁分	-41
▁作	-42
▁下	-43
▁:	-44
▁于	-45
▁用	-46
▁方	-47
▁到	-48
▁而	-49
▁及	-50
▁第	-51
▁西	-52
▁》	-53
▁《	-54
▁家	-55
▁時	-56
▁後	-57
▁法	-58
▁由	-59
▁位	-60
▁被	-61
▁市	-62
▁民	-63
▁本	-64
▁学	-65
▁个	-66
▁同	-67
▁會	-68
▁多	-69
▁可	-70
▁南	-71
▁政	-72
▁子	-73
▁3	-74
▁·	-75
▁自	-76
▁里	-77
▁」	-78
▁「	-79
▁文	-80
▁任	-81
▁特	-82
▁最	-83
▁等	-84
▁與	-85
▁新	-86
▁德	-87
▁北	-88
▁代	-89
▁也	-90
▁加	-91
▁高	-92
▁200	-93
▁所	-94
▁前	-95
▁海	-96
▁學	-97
▁后	-98
▁因	-99
▁利	-100
▁個	-101
▁此	-102
▁三	-103
▁“	-104
▁要	-105
▁物	-106
▁得	-107
▁平	-108
▁道	-109
▁克	-110
▁201	-111
▁建	-112
▁面	-113
▁美	-114
▁教	-115
▁小	-116
▁度	-117
▁山	-118
▁时	-119
▁立	-120
▁至	-121
▁能	-122
▁事	-123
▁入	-124
▁尔	-125
▁路	-126
▁理	-127
▁世	-128
▁發	-129
▁区	-130
▁拉	-131
▁会	-132
▁二	-133
▁外	-134
▁天	-135
▁但	-136
▁合	-137
▁定	-138
▁4	-139
▁化	-140
▁工	-141
▁口	-142
▁表	-143
▁期	-144
▁使	-145
▁球	-146
▁全	-147
▁台	-148
▁性	-149
▁次	-150
▁十	-151
▁5	-152
▁科	-153
▁;	-154
▁通	-155
▁州	-156
▁者	-157
▁式	-158
▁都	-159
▁重	-160
▁共	-161
▁力	-162
▁"	-163
▁來	-164
▁軍	-165
▁區	-166
▁並	-167
▁发	-168
▁安	-169
▁士	-170
▁原	-171
▁6	-172
▁布	-173
▁相	-174
▁王	-175
▁比	-176
▁城	-177
▁院	-178
▁省	-179
▁長	-180
▁军	-181
▁站	-182
▁對	-183
▁这	-184
▁s	-185
▁明	-186
▁動	-187
▁目	-188
▁水	-189
▁基	-190
▁這	-191
▁系	-192
▁金	-193
▁司	-194
▁正	-195
▁英	-196
▁星	-197
▁開	-198
▁如	-199
▁长	-200
▁府	-201
▁c	-202
▁或	-203
▁7	-204
▁与	-205
▁治	-206
▁制	-207
▁格	-208
▁元	-209
▁港	-210
00	-211
▁a	-212
▁現	-213
▁四	-214
▁起	-215
▁爾	-216
▁電	-217
▁常	-218
▁8	-219
▁巴	-220
▁对	-221
▁經	-222
▁尼	-223
▁米	-224
▁量	-225
▁列	-226
▁提	-227
▁員	-228
▁影	-229
▁當	-230
▁首	-231
▁改	-232
▁女	-233
▁来	-234
▁阿	-235
▁然	-236
▁間	-237
▁镇	-238
▁就	-239
▁戰	-240
▁過	-241
▁9	-242
▁進	-243
▁并	-244
▁亞	-245
▁心	-246
▁接	-247
▁東	-248
▁林	-249
▁體	-250
▁东	-251
er	-252
▁向	-253
▁演	-254
▁开	-255
▁意	-256
▁界	-257
▁機	-258
▁m	-259
▁t	-260
▁將	-261
▁始	-262
▁賽	-263
▁10	-264
▁內	-265
▁車	-266
▁河	-267
▁动	-268
▁程	-269
▁受	-270
▁色	-271
▁場	-272
▁型	-273
▁包	-274
▁总	-275
▁指	-276
▁曾	-277
▁形	-278
▁交	-279
▁保	-280
▁手	-281
▁香	-282
▁已	-283
▁些	-284
▁委	-285
▁机	-286
▁流	-287
▁亚	-288
▁18	-289
▁b	-290
in	-291
▁12	-292
▁内	-293
▁直	-294
▁音	-295
▁员	-296
or	-297
▁稱	-298
▁管	-299
▁太	-300
▁经	-301
an	-302
▁隊	-303
▁种	-304
▁集	-305
▁史	-306
▁f	-307
▁过	-308
▁199	-309
▁馬	-310
▁空	-311
▁卡	-312
▁業	-313
▁身	-314
▁校	-315
▁进	-316
▁種	-317
▁现	-318
▁更	-319
▁县	-320
▁五	-321
▁字	-322
▁品	-323
▁線	-324
▁江	-325
▁车	-326
on	-327
▁兩	-328
▁古	-329
▁朝	-330
▁电	-331
▁展	-332
▁示	-333
▁設	-334
▁灣	-335
▁社	-336
▁各	-337
▁洲	-338
▁间	-339
▁數	-340
▁著	-341
▁反	-342
▁持	-343
▁马	-344
▁业	-345
▁该	-346
▁11	-347
▁命	-348
▁体	-349
▁p	-350
▁回	-351
▁h	-352
▁官	-353
▁京	-354
▁光	-355
▁属	-356
▁将	-357
▁活	-358
▁取	-359
▁造	-360
▁战	-361
▁達	-362
▁少	-363
▁d	-364
▁只	-365
▁族	-366
▁清	-367
▁又	-368
▁信	-369
▁約	-370
▁神	-371
▁選	-372
▁石	-373
▁数	-374
▁夫	-375
▁支	-376
▁当	-377
▁称	-378
▁解	-379
▁非	-380
▁近	-381
▁聯	-382
▁情	-383
▁它	-384
▁设	-385
▁局	-386
▁普	-387
la	-388
▁號	-389
▁罗	-390
▁則	-391
▁總	-392
▁件	-393
▁運	-394
▁曲	-395
▁/	-396
▁放	-397
▁統	-398
▁研	-399
▁即	-400
▁關	-401
▁角	-402
▁該	-403
▁羅	-404
▁華	-405
▁商	-406
▁波	-407
▁武	-408
▁無	-409
▁版	-410
▁們	-411
▁队	-412
▁先	-413
en	-414
▁片	-415
▁計	-416
▁联	-417
▁括	-418
▁收	-419
▁村	-420
▁两	-421
▁器	-422
▁白	-423
▁去	-424
▁樂	-425
▁李	-426
▁果	-427
▁未	-428
▁她	-429
▁语	-430
▁伊	-431
▁組	-432
▁198	-433
▁产	-434
▁再	-435
▁根	-436
▁每	-437
▁屬	-438
▁场	-439
▁知	-440
▁运	-441
▁往	-442
▁初	-443
▁蘭	-444
▁亦	-445
▁密	-446
▁线	-447
▁座	-448
▁視	-449
▁引	-450
▁且	-451
▁語	-452
▁达	-453
▁华	-454
▁今	-455
ar	-456
▁派	-457
▁兵	-458
▁足	-459
▁统	-460
▁福	-461
▁從	-462
▁级	-463
▁議	-464
▁完	-465
▁縣	-466
▁究	-467
▁n	-468
▁从	-469
▁r	-470
▁g	-471
▁帝	-472
▁六	-473
▁歌	-474
▁域	-475
▁花	-476
▁组	-477
▁们	-478
▁除	-479
▁務	-480
▁打	-481
▁很	-482
▁宗	-483
▁赛	-484
▁15	-485
▁實	-486
▁島	-487
▁居	-488
▁关	-489
▁產	-490
▁言	-491
▁說	-492
▁令	-493
▁義	-494
▁广	-495
▁服	-496
▁門	-497
▁團	-498
▁結	-499
▁段	-500
▁号	-501
▁威	-502
▁兰	-503
▁類	-504
▁育	-505
▁季	-506
▁功	-507
▁塔	-508
▁另	-509
▁播	-510
▁八	-511
▁客	-512
▁书	-513
▁土	-514
▁存	-515
▁速	-516
▁參	-517
▁死	-518
▁傳	-519
▁置	-520
▁修	-521
▁计	-522
▁率	-523
▁l	-524
▁推	-525
▁好	-526
▁超	-527
▁约	-528
▁16	-529
▁認	-530
▁周	-531
▁单	-532
▁希	-533
▁宣	-534
▁实	-535
▁處	-536
▁源	-537
▁具	-538
▁我	-539
▁17	-540
▁九	-541
▁投	-542
▁供	-543
▁書	-544
▁班	-545
▁i	-546
▁雷	-547
▁例	-548
▁街	-549
▁求	-550
▁变	-551
▁攻	-552
▁皇	-553
▁龍	-554
▁湖	-555
▁维	-556
▁獲	-557
▁單	-558
▁吉	-559
▁查	-560
▁航	-561
▁印	-562
▁积	-563
▁火	-564
▁故	-565
▁乡	-566
▁田	-567
▁己	-568
▁案	-569
▁沙	-570
▁青	-571
▁廣	-572
▁哈	-573
▁那	-574
▁务	-575
▁勒	-576
▁图	-577
▁伯	-578
es	-579
▁應	-580
▁助	-581
▁男	-582
▁早	-583
▁增	-584
▁博	-585
▁还	-586
▁張	-587
▁洛	-588
▁別	-589
▁資	-590
▁份	-591
▁舉	-592
▁整	-593
▁母	-594
▁194	-595
▁辖	-596
▁瓦	-597
▁义	-598
▁半	-599
▁擊	-600
▁百	-601
at	-602
▁0	-603
▁模	-604
▁容	-605
▁党	-606
▁群	-607
▁臺	-608
▁技	-609
▁铁	-610
▁说	-611
▁維	-612
▁197	-613
▁帶	-614
▁万	-615
▁越	-616
▁w	-617
▁變	-618
▁父	-619
▁致	-620
▁议	-621
▁均	-622
▁失	-623
▁萬	-624
▁點	-625
▁導	-626
▁師	-627
▁易	-628
▁参	-629
al	-630
▁專	-631
▁黨	-632
▁副	-633
▁川	-634
▁食	-635
▁領	-636
▁七	-637
▁境	-638
▁黑	-639
▁门	-640
▁堂	-641
▁紀	-642
▁需	-643
ic	-644
▁处	-645
▁传	-646
▁结	-647
▁級	-648
▁射	-649
▁选	-650
▁195	-651
▁告	-652
▁登	-653
▁14	-654
▁連	-655
▁深	-656
▁沒	-657
▁类	-658
▁劇	-659
▁塞	-660
▁应	-661
▁限	-662
▁才	-663
▁领	-664
▁頭	-665
▁權	-666
▁仍	-667
▁木	-668
▁游	-669
▁升	-670
▁13	-671
▁e	-672
▁條	-673
▁无	-674
▁苏	-675
▁室	-676
▁何	-677
▁便	-678
▁節	-679
▁排	-680
▁步	-681
▁老	-682
▁牙	-683
▁导	-684
▁風	-685
▁奥	-686
▁象	-687
▁团	-688
▁魚	-689
▁央	-690
▁点	-691
▁真	-692
▁落	-693
▁製	-694
▁氏	-695
▁196	-696
▁施	-697
▁盟	-698
▁像	-699
▁考	-700
▁際	-701
▁乐	-702
▁想	-703
▁論	-704
▁報	-705
▁鐵	-706
▁甲	-707
▁決	-708
▁轉	-709
▁畫	-710
▁氣	-711
▁o	-712
▁席	-713
▁for	-714
▁感	-715
▁配	-716
▁把	-717
▁据	-718
▁防	-719
▁標	-720
▁k	-721
▁低	-722
▁病	-723
▁纳	-724
▁哥	-725
▁洋	-726
▁還	-727
▁—	-728
▁托	-729
▁底	-730
▁阳	-731
▁律	-732
▁留	-733
▁森	-734
▁效	-735
▁住	-736
▁认	-737
▁離	-738
▁蒙	-739
▁素	-740
▁历	-741
▁料	-742
▁佛	-743
▁师	-744
▁获	-745
▁術	-746
▁埃	-747
▁止	-748
mu	-749
▁_	-750
▁冠	-751
▁千	-752
▁泰	-753
▁志	-754
▁视	-755
is	-756
▁记	-757
▁奇	-758
▁息	-759
▁據	-760
▁奧	-761
▁术	-762
▁較	-763
▁強	-764
▁z	-765
▁景	-766
▁康	-767
▁纪	-768
▁看	-769
▁降	-770
▁姆	-771
▁曼	-772
▁革	-773
▁193	-774
▁j	-775
▁恩	-776
▁算	-777
▁圖	-778
▁典	-779
▁迪	-780
▁觀	-781
▁报	-782
▁承	-783
▁移	-784
▁藏	-785
▁職	-786
▁愛	-787
▁創	-788
▁消	-789
▁批	-790
▁警	-791
▁唱	-792
▁續	-793
▁思	-794
▁控	-795
▁张	-796
▁着	-797
▁念	-798
▁察	-799
▁見	-800
▁则	-801
le	-802
▁親	-803
▁許	-804
▁汉	-805
▁做	-806
▁30	-807
▁带	-808
▁遊	-809
▁記	-810
▁精	-811
▁質	-812
▁2009	-813
▁授	-814
▁草	-815
mula	-816
▁索	-817
▁守	-818
▁友	-819
▁21	-820
▁专	-821
▁納	-822
▁陸	-823
▁formula	-824
▁獎	-825
▁论	-826
▁票	-827
▁俄	-828
it	-829
▁裝	-830
▁标	-831
000	-832
▁岛	-833
▁極	-834
▁題	-835
▁瑞	-836
▁风	-837
▁督	-838
▁般	-839
▁依	-840
▁别	-841
▁述	-842
▁没	-843
▁望	-844
▁照	-845
▁转	-846
▁附	-847
▁际	-848
▁圣	-849
▁权	-850
▁祖	-851
▁歷	-852
▁毛	-853
▁調	-854
▁抗	-855
▁植	-856
▁退	-857
▁v	-858
he	-859
▁值	-860
▁爭	-861
▁澳	-862
▁章	-863
▁陆	-864
▁条	-865
▁夏	-866
▁錄	-867
▁富	-868
▁封	-869
▁候	-870
▁2011	-871
▁歐	-872
▁职	-873
▁園	-874
▁唐	-875
▁房	-876
▁辦	-877
▁編	-878
▁永	-879
▁終	-880
▁办	-881
▁复	-882
▁網	-883
▁停	-884
▁25	-885
▁丹	-886
▁决	-887
▁资	-888
▁牌	-889
▁營	-890
▁丁	-891
▁构	-892
▁隨	-893
▁給	-894
▁左	-895
▁蘇	-896
▁破	-897
▁节	-898
▁含	-899
▁積	-900
▁2010	-901
▁快	-902
▁拿	-903
▁戲	-904
▁陳	-905
▁莱	-906
▁气	-907
el	-908
▁聖	-909
▁問	-910
un	-911
▁寺	-912
▁似	-913
▁必	-914
▁萨	-915
▁黃	-916
▁突	-917
▁隆	-918
▁邦	-919
▁坦	-920
▁堡	-921
▁協	-922
▁飛	-923
ro	-924
▁旅	-925
▁192	-926
▁船	-927
▁击	-928
am	-929
▁樣	-930
▁尚	-931
▁头	-932
▁核	-933
▁岸	-934
▁离	-935
▁龙	-936
▁调	-937
▁興	-938
▁争	-939
▁眾	-940
▁皮	-941
▁擔	-942
▁項	-943
▁梅	-944
▁漢	-945
▁济	-946
▁久	-947
▁架	-948
▁店	-949
▁划	-950
▁注	-951
▁准	-952
st	-953
▁蒂	-954
▁co	-955
▁2012	-956
▁朗	-957
▁莫	-958
▁强	-959
▁2008	-960
▁延	-961
▁zh	-962
▁举	-963
▁油	-964
▁兒	-965
▁備	-966
▁创	-967
▁占	-968
▁右	-969
▁規	-970
▁野	-971
▁质	-972
▁郡	-973
▁藝	-974
▁剧	-975
▁環	-976
▁層	-977
▁连	-978
▁走	-979
▁黄	-980
il	-981
▁规	-982
▁亡	-983
▁衛	-984
▁弟	-985
▁構	-986
▁给	-987
▁春	-988
▁售	-989
▁编	-990
▁股	-991
▁随	-992
▁护	-993
▁网	-994
▁短	-995
▁繼	-996
▁負	-997
▁}	-998
▁熱	-999
▁{	-1000
▁雄	-1001
▁鲁	-1002
▁讓	-1003
▁嘉	-1004
▁切	-1005
▁判	-1006
▁館	-1007
▁佳	-1008
▁2013	-1009
▁倫	-1010
▁試	-1011
▁装	-1012
▁22	-1013
▁策	-1014
▁协	-1015
▁筑	-1016
et	-1017
▁役	-1018
▁遭	-1019
ion	-1020
ac	-1021
▁许	-1022
▁艾	-1023
▁邊	-1024
▁圍	-1025
▁问	-1026
▁逐	-1027
▁样	-1028
▁乘	-1029
▁题	-1030
ur	-1031
▁端	-1032
▁宁	-1033
▁劃	-1034
▁旗	-1035
▁序	-1036
▁松	-1037
▁費	-1038
▁獨	-1039
▁寫	-1040
▁距	-1041
▁弗	-1042
▁護	-1043
▁聲	-1044
▁24	-1045
▁責	-1046
▁拔	-1047
▁雙	-1048
▁陽	-1049
▁鎮	-1050
▁摩	-1051
▁欧	-1052
▁紅	-1053
▁宋	-1054
▁若	-1055
▁酒	-1056
▁23	-1057
▁191	-1058
▁敗	-1059
▁亲	-1060
▁殺	-1061
▁響	-1062
▁送	-1063
▁园	-1064
▁伦	-1065
▁菲	-1066
▁2007	-1067
▁輯	-1068
▁观	-1069
us	-1070
▁束	-1071
▁诺	-1072
▁担	-1073
▁銀	-1074
▁末	-1075
▁卫	-1076
▁證	-1077
▁2006	-1078
▁甚	-1079
▁評	-1080
▁雅	-1081
▁干	-1082
▁赫	-1083
▁红	-1084
▁营	-1085
▁尾	-1086
▁微	-1087
▁2014	-1088
▁晚	-1089
▁署	-1090
▁终	-1091
▁耶	-1092
▁勝	-1093
▁良	-1094
▁馆	-1095
▁!	-1096
▁略	-1097
▁準	-1098
▁兴	-1099
▁樓	-1100
▁胡	-1101
▁秀	-1102
▁项	-1103
▁津	-1104
▁醫	-1105
▁差	-1106
▁彈	-1107
▁戏	-1108
▁范	-1109
▁边	-1110
▁裡	-1111
▁頓	-1112
▁薩	-1113
▁兼	-1114
▁狀	-1115
▁免	-1116
▁见	-1117
▁婚	-1118
▁帕	-1119
▁血	-1120
▁庭	-1121
▁善	-1122
▁濟	-1123
▁籍	-1124
▁较	-1125
▁雖	-1126
▁假	-1127
▁卻	-1128
▁臣	-1129
as	-1130
▁散	-1131
▁款	-1132
▁采	-1133
▁桥	-1134
▁the	-1135
▁復	-1136
▁峰	-1137
▁备	-1138
▁续	-1139
▁库	-1140
▁話	-1141
▁顯	-1142
▁暴	-1143
▁歲	-1144
▁28	-1145
▁什	-1146
▁予	-1147
▁諾	-1148
▁測	-1149
▁贝	-1150
▁艦	-1151
▁织	-1152
▁奖	-1153
▁詞	-1154
▁拍	-1155
▁写	-1156
▁围	-1157
▁2005	-1158
▁喜	-1159
▁征	-1160
▁儿	-1161
▁26	-1162
▁杜	-1163
▁农	-1164
▁朱	-1165
▁环	-1166
re	-1167
▁背	-1168
▁仁	-1169
▁31	-1170
▁盛	-1171
▁追	-1172
▁热	-1173
▁酸	-1174
▁云	-1175
▁載	-1176
ing	-1177
▁採	-1178
▁证	-1179
▁st	-1180
▁害	-1181
▁双	-1182
▁廷	-1183
▁烈	-1184
▁企	-1185
▁爆	-1186
▁玉	-1187
▁互	-1188
▁織	-1189
▁沿	-1190
▁板	-1191
▁劉	-1192
▁2001	-1193
▁習	-1194
▁魯	-1195
▁幾	-1196
▁牛	-1197
▁27	-1198
▁几	-1199
▁独	-1200
▁谷	-1201
▁援	-1202
▁继	-1203
▁层	-1204
▁鄉	-1205
▁屆	-1206
▁態	-1207
▁遠	-1208
▁介	-1209
ol	-1210
▁爱	-1211
▁医	-1212
▁罪	-1213
▁黎	-1214
▁君	-1215
▁僅	-1216
▁媒	-1217
▁昌	-1218
▁救	-1219
▁舞	-1220
▁众	-1221
▁屋	-1222
▁勢	-1223
▁請	-1224
▁余	-1225
ch	-1226
▁试	-1227
▁價	-1228
▁預	-1229
▁2000	-1230
▁滿	-1231
▁x	-1232
▁執	-1233
▁陈	-1234
▁荷	-1235
▁画	-1236
▁溫	-1237
▁韓	-1238
▁评	-1239
▁透	-1240
▁材	-1241
▁沃	-1242
▁艺	-1243
▁槍	-1244
▁录	-1245
▁宮	-1246
▁响	-1247
▁確	-1248
ed	-1249
▁刘	-1250
▁係	-1251
▁坡	-1252
▁巨	-1253
▁秘	-1254
▁智	-1255
▁楼	-1256
▁簡	-1257
▁飞	-1258
▁>	-1259
▁届	-1260
▁叶	-1261
ent	-1262
▁2015	-1263
▁按	-1264
▁溪	-1265
▁址	-1266
▁益	-1267
▁徒	-1268
▁仅	-1269
▁声	-1270
▁某	-1271
▁途	-1272
▁冰	-1273
▁佈	-1274
▁敦	-1275
▁29	-1276
▁费	-1277
▁培	-1278
▁戶	-1279
▁梁	-1280
▁映	-1281
▁极	-1282
▁撤	-1283
▁in	-1284
▁禁	-1285
▁<	-1286
▁拜	-1287
▁替	-1288
▁貝	-1289
ow	-1290
▁禮	-1291
▁轄	-1292
▁童	-1293
▁殿	-1294
▁混	-1295
▁尺	-1296
▁探	-1297
▁2004	-1298
▁翰	-1299
▁温	-1300
▁萊	-1301
▁夜	-1302
▁聞	-1303
▁郎	-1304
▁50	-1305
▁描	-1306
▁難	-1307
▁讀	-1308
▁築	-1309
▁壓	-1310
ig	-1311
▁骨	-1312
id	-1313
▁an	-1314
▁吸	-1315
▁刻	-1316
▁跟	-1317
▁岁	-1318
▁眼	-1319
▁符	-1320
▁赤	-1321
▁话	-1322
▁杀	-1323
▁u	-1324
▁刺	-1325
▁刊	-1326
▁顿	-1327
▁擁	-1328
▁寶	-1329
▁玩	-1330
▁固	-1331
▁毒	-1332
▁爵	-1333
▁皆	-1334
▁乌	-1335
▁私	-1336
▁000	-1337
ad	-1338
▁耳	-1339
▁斷	-1340
▁遇	-1341
▁橋	-1342
▁否	-1343
▁唯	-1344
▁确	-1345
▁葉	-1346
▁岩	-1347
▁雲	-1348
▁逃	-1349
▁ch	-1350
▁訊	-1351
▁農	-1352
▁找	-1353
▁麗	-1354
▁充	-1355
▁休	-1356
▁穆	-1357
▁奉	-1358
▁返	-1359
▁宇	-1360
▁傷	-1361
▁100	-1362
▁幕	-1363
▁細	-1364
▁洪	-1365
▁雪	-1366
▁'	-1367
▁激	-1368
▁佔	-1369
▁異	-1370
▁状	-1371
▁缺	-1372
▁你	-1373
▁監	-1374
▁霍	-1375
▁乎	-1376
▁巡	-1377
▁操	-1378
▁況	-1379
▁旋	-1380
▁190	-1381
os	-1382
▁40	-1383
▁犯	-1384
▁庆	-1385
▁词	-1386
▁庄	-1387
▁远	-1388
▁br	-1389
▁召	-1390
▁验	-1391
▁範	-1392
▁聚	-1393
▁of	-1394
▁刑	-1395
▁練	-1396
▁優	-1397
▁户	-1398
▁满	-1399
▁午	-1400
▁識	-1401
▁須	-1402
▁穿	-1403
▁魔	-1404
▁迫	-1405
▁漫	-1406
▁鰭	-1407
▁廠	-1408
▁輕	-1409
▁雨	-1410
▁斗	-1411
▁姓	-1412
▁露	-1413
▁坐	-1414
▁靈	-1415
▁絕	-1416
▁陵	-1417
▁翻	-1418
▁輪	-1419
▁佩	-1420
▁餘	-1421
▁麥	-1422
▁捕	-1423
▁2016	-1424
▁测	-1425
▁尤	-1426
▁显	-1427
▁羽	-1428
▁让	-1429
▁舊	-1430
▁忠	-1431
▁換	-1432
▁驗	-1433
▁兄	-1434
▁2003	-1435
▁=	-1436
▁y	-1437
▁嚴	-1438
▁责	-1439
▁鬥	-1440
▁待	-1441
▁陣	-1442
▁态	-1443
▁载	-1444
▁潮	-1445
▁抵	-1446
▁妻	-1447
▁侵	-1448
▁申	-1449
▁呼	-1450
▁靠	-1451
▁柏	-1452
▁秋	-1453
▁胞	-1454
▁湾	-1455
▁银	-1456
▁徐	-1457
▁庫	-1458
▁竹	-1459
▁价	-1460
▁遗	-1461
▁炸	-1462
▁攝	-1463
▁肯	-1464
▁汽	-1465
▁压	-1466
▁宫	-1467
▁负	-1468
▁篇	-1469
▁惠	-1470
ir	-1471
▁卷	-1472
iv	-1473
ut	-1474
▁側	-1475
▁茨	-1476
▁码	-1477
om	-1478
▁泉	-1479
▁娜	-1480
▁泛	-1481
▁临	-1482
▁甘	-1483
▁颗	-1484
▁绝	-1485
▁飾	-1486
50	-1487
▁浙	-1488
▁|	-1489
▁孔	-1490
▁翼	-1491
▁避	-1492
ot	-1493
▁细	-1494
▁戈	-1495
▁2002	-1496
▁炮	-1497
▁识	-1498
▁融	-1499
▁简	-1500
▁泽	-1501
▁习	-1502
▁董	-1503
▁歸	-1504
ia	-1505
▁韩	-1506
▁危	-1507
▁肉	-1508
▁桑	-1509
▁烏	-1510
▁吳	-1511
▁宝	-1512
▁胜	-1513
▁購	-1514
▁殖	-1515
▁败	-1516
▁芬	-1517
▁戴	-1518
▁急	-1519
▁辛	-1520
▁億	-1521
▁概	-1522
▁呈	-1523
▁疑	-1524
▁厂	-1525
▁默	-1526
▁畢	-1527
▁順	-1528
▁健	-1529
▁努	-1530
▁况	-1531
▁孫	-1532
im	-1533
▁丽	-1534
▁奪	-1535
▁套	-1536
▁孩	-1537
▁榮	-1538
▁慶	-1539
▁奏	-1540
▁秦	-1541
▁断	-1542
▁譯	-1543
▁叫	-1544
▁氧	-1545
▁啟	-1546
▁碼	-1547
▁階	-1548
▁週	-1549
▁乾	-1550
▁杨	-1551
▁卢	-1552
▁減	-1553
▁染	-1554
▁臨	-1555
▁雜	-1556
▁阻	-1557
▁虎	-1558
▁渡	-1559
▁佐	-1560
▁毕	-1561
▁漸	-1562
▁魏	-1563
▁2017	-1564
▁墨	-1565
▁归	-1566
▁珠	-1567
▁隔	-1568
▁衣	-1569
▁銷	-1570
▁井	-1571
▁难	-1572
▁葡	-1573
▁裁	-1574
▁樹	-1575
▁函	-1576
▁贵	-1577
▁宜	-1578
▁孙	-1579
▁輸	-1580
▁驻	-1581
▁杰	-1582
▁请	-1583
▁迎	-1584
▁冷	-1585
▁仙	-1586
▁析	-1587
▁震	-1588
▁味	-1589
▁换	-1590
▁棲	-1591
▁迷	-1592
▁圈	-1593
▁付	-1594
▁al	-1595
▁墓	-1596
▁弹	-1597
▁涉	-1598
▁御	-1599
▁]	-1600
▁亮	-1601
ag	-1602
▁哲	-1603
▁楊	-1604
▁严	-1605
▁傑	-1606
▁綱	-1607
▁舍	-1608
▁池	-1609
▁2018	-1610
▁廉	-1611
▁[	-1612
▁执	-1613
20	-1614
ec	-1615
▁詩	-1616
▁麻	-1617
▁俗	-1618
▁侧	-1619
▁han	-1620
▁險	-1621
▁徵	-1622
▁偏	-1623
▁暗	-1624
▁町	-1625
▁豐	-1626
▁洞	-1627
▁监	-1628
▁恐	-1629
▁招	-1630
▁訓	-1631
▁189	-1632
▁拥	-1633
▁势	-1634
▁榜	-1635
▁侯	-1636
▁厅	-1637
▁60	-1638
▁尊	-1639
▁瑪	-1640
um	-1641
▁硬	-1642
▁享	-1643
▁賓	-1644
▁闻	-1645
▁俱	-1646
ation	-1647
▁液	-1648
▁症	-1649
▁租	-1650
▁繁	-1651
▁辑	-1652
▁彩	-1653
▁毫	-1654
▁树	-1655
▁廳	-1656
▁圓	-1657
▁莉	-1658
▁轮	-1659
▁倒	-1660
em	-1661
▁豪	-1662
▁釋	-1663
▁楚	-1664
▁寧	-1665
▁藍	-1666
▁琴	-1667
▁藥	-1668
▁预	-1669
▁妹	-1670
▁掌	-1671
▁盃	-1672
▁麦	-1673
▁昂	-1674
▁鐘	-1675
▁財	-1676
▁夠	-1677
▁逝	-1678
▁扎	-1679
od	-1680
▁借	-1681
▁礼	-1682
▁齐	-1683
▁崇	-1684
▁销	-1685
▁鲜	-1686
▁紐	-1687
▁曹	-1688
▁捷	-1689
▁吴	-1690
▁舰	-1691
▁補	-1692
▁徽	-1693
▁遷	-1694
▁冬	-1695
▁浦	-1696
▁诗	-1697
▁药	-1698
▁1999	-1699
▁昭	-1700
▁養	-1701
▁腦	-1702
▁淡	-1703
▁截	-1704
▁柱	-1705
▁瑟	-1706
▁萄	-1707
▁旧	-1708
▁伍	-1709
▁匹	-1710
▁裂	-1711
▁適	-1712
▁1990	-1713
▁軟	-1714
▁鱼	-1715
▁幼	-1716
▁頂	-1717
▁输	-1718
▁读	-1719
▁奈	-1720
▁儀	-1721
▁乃	-1722
▁盖	-1723
▁伐	-1724
▁乙	-1725
▁蓋	-1726
▁勞	-1727
▁迁	-1728
▁鼓	-1729
▁蛋	-1730
▁杂	-1731
▁频	-1732
▁估	-1733
▁零	-1734
▁簽	-1735
▁玛	-1736
▁1998	-1737
▁遺	-1738
▁优	-1739
▁振	-1740
▁顺	-1741
▁討	-1742
▁拒	-1743
▁輛	-1744
and	-1745
▁劳	-1746
▁患	-1747
▁晋	-1748
▁頻	-1749
▁併	-1750
▁鮮	-1751
▁弱	-1752
▁35	-1753
▁顶	-1754
▁菜	-1755
▁恢	-1756
▁邀	-1757
▁陶	-1758
▁藤	-1759
▁陷	-1760
▁晉	-1761
▁敵	-1762
▁郭	-1763
▁韦	-1764
ra	-1765
▁鄭	-1766
▁?	-1767
▁虽	-1768
▁灵	-1769
▁异	-1770
▁粉	-1771
▁轨	-1772
▁兹	-1773
▁困	-1774
▁却	-1775
▁亿	-1776
▁译	-1777
60	-1778
▁凱	-1779
▁货	-1780
▁貨	-1781
▁句	-1782
▁菌	-1783
▁貴	-1784
▁跨	-1785
▁80	-1786
▁覺	-1787
▁1997	-1788
▁浪	-1789
▁丰	-1790
▁檢	-1791
▁尽	-1792
▁牧	-1793
ter	-1794
▁輻	-1795
▁歡	-1796
▁滑	-1797
▁審	-1798
▁la	-1799
▁莎	-1800
▁偶	-1801
▁宿	-1802
▁旁	-1803
▁32	-1804
▁誌	-1805
▁冲	-1806
▁de	-1807
▁熙	-1808
▁障	-1809
▁汗	-1810
▁駐	-1811
▁糖	-1812
▁訪	-1813
op	-1814
ay	-1815
oc	-1816
▁競	-1817
▁錦	-1818
▁徑	-1819
▁塘	-1820
▁殊	-1821
▁蔡	-1822
▁衡	-1823
10	-1824
19	-1825
▁遍	-1826
▁188	-1827
▁紫	-1828
▁擴	-1829
▁阶	-1830
▁茶	-1831
ul	-1832
▁柯	-1833
▁1980	-1834
▁伤	-1835
▁衝	-1836
▁勇	-1837
▁亨	-1838
og	-1839
▁軌	-1840
▁鳥	-1841
▁扩	-1842
▁燃	-1843
▁丘	-1844
▁宅	-1845
▁磁	-1846
▁幫	-1847
▁祭	-1848
▁财	-1849
▁答	-1850
▁签	-1851
▁纽	-1852
▁課	-1853
▁亂	-1854
▁澤	-1855
▁奴	-1856
▁昆	-1857
▁諸	-1858
▁挥	-1859
▁赵	-1860
▁疆	-1861
▁70	-1862
▁灰	-1863
▁币	-1864
▁庙	-1865
▁滅	-1866
▁沈	-1867
▁搭	-1868
▁脈	-1869
▁盤	-1870
▁彼	-1871
▁络	-1872
▁33	-1873
▁+	-1874
▁講	-1875
▁棒	-1876
ce	-1877
▁揮	-1878
▁敏	-1879
▁絲	-1880
▁促	-1881
▁养	-1882
▁幅	-1883
▁允	-1884
▁鏡	-1885
▁覆	-1886
▁杯	-1887
▁綠	-1888
▁鄰	-1889
▁額	-1890
▁珍	-1891
▁凯	-1892
▁幸	-1893
ap	-1894
▁伴	-1895
▁訴	-1896
▁and	-1897
▁2019	-1898
▁谢	-1899
▁赴	-1900
▁訂	-1901
▁械	-1902
▁綫	-1903
▁療	-1904
▁拆	-1905
▁荣	-1906
▁讲	-1907
▁恒	-1908
▁检	-1909
▁跑	-1910
▁审	-1911
▁仔	-1912
▁葬	-1913
▁茲	-1914
▁幻	-1915
▁績	-1916
▁90	-1917
▁晶	-1918
▁慈	-1919
▁祥	-1920
▁顧	-1921
ers	-1922
▁厚	-1923
▁练	-1924
▁1996	-1925
40	-1926
▁擇	-1927
▁诸	-1928
▁软	-1929
▁餐	-1930
▁500	-1931
▁re	-1932
▁45	-1933
▁獻	-1934
▁倍	-1935
▁sa	-1936
▁裔	-1937
▁葛	-1938
▁187	-1939
▁幣	-1940
▁堅	-1941
▁遂	-1942
▁敬	-1943
▁减	-1944
▁廟	-1945
▁齊	-1946
▁剛	-1947
▁聽	-1948
▁複	-1949
▁宽	-1950
▁孟	-1951
▁轻	-1952
▁匈	-1953
▁孝	-1954
▁折	-1955
▁箭	-1956
▁熟	-1957
▁碑	-1958
▁释	-1959
▁惡	-1960
▁寬	-1961
▁苦	-1962
▁『	-1963
▁賣	-1964
▁柴	-1965
▁遣	-1966
▁沉	-1967
▁钟	-1968
▁』	-1969
▁燕	-1970
48	-1971
▁謝	-1972
▁埔	-1973
▁襲	-1974
▁桃	-1975
▁叛	-1976
▁緯	-1977
▁姐	-1978
▁乔	-1979
ie	-1980
▁°	-1981
▁慢	-1982
▁尖	-1983
▁願	-1984
▁騎	-1985
▁齒	-1986
▁桂	-1987
30	-1988
▁绕	-1989
▁疾	-1990
▁阵	-1991
▁1995	-1992
▁憲	-1993
▁1994	-1994
▁粒	-1995
▁盧	-1996
▁脂	-1997
▁侍	-1998
▁橫	-1999
▁柳	-2000
▁牠	-2001
▁00	-2002
▁献	-2003
▁懷	-2004
▁ar	-2005
▁誤	-2006
▁启	-2007
▁廢	-2008
▁喬	-2009
▁辽	-2010
▁迅	-2011
▁够	-2012
▁螺	-2013
▁挑	-2014
▁么	-2015
▁渐	-2016
80	-2017
th	-2018
▁蛇	-2019
▁凡	-2020
ip	-2021
▁枚	-2022
▁棋	-2023
▁1993	-2024
▁伏	-2025
▁摄	-2026
▁仰	-2027
▁買	-2028
▁刀	-2029
▁36	-2030
▁须	-2031
▁恆	-2032
▁com	-2033
▁敌	-2034
▁談	-2035
▁访	-2036
▁伸	-2037
▁圆	-2038
▁朋	-2039
▁瓜	-2040
▁1992	-2041
▁吃	-2042
▁补	-2043
▁险	-2044
av	-2045
▁撒	-2046
▁额	-2047
ard	-2048
▁tw	-2049
▁尋	-2050
▁〉	-2051
▁〈	-2052
▁枪	-2053
▁彭	-2054
▁跳	-2055
▁慕	-2056
▁貢	-2057
▁腳	-2058
ind	-2059
▁雕	-2060
▁壁	-2061
▁艘	-2062
▁賞	-2063
▁1991	-2064
▁錢	-2065
▁損	-2066
▁妮	-2067
▁涅	-2068
▁hans	-2069
▁宪	-2070
▁37	-2071
▁适	-2072
▁擎	-2073
▁緣	-2074
▁汇	-2075
▁劍	-2076
▁q	-2077
▁186	-2078
▁仪	-2079
▁宾	-2080
▁緒	-2081
▁钱	-2082
▁训	-2083
▁臘	-2084
▁旺	-2085
▁縮	-2086
▁頒	-2087
▁础	-2088
ub	-2089
▁hk	-2090
▁掉	-2091
ov	-2092
12	-2093
▁鬼	-2094
▁潘	-2095
▁谋	-2096
▁th	-2097
▁棄	-2098
▁辆	-2099
▁贡	-2100
▁夺	-2101
▁购	-2102
▁帮	-2103
▁1949	-2104
▁乱	-2105
▁un	-2106
▁芳	-2107
▁韋	-2108
▁羊	-2109
▁艇	-2110
▁罕	-2111
▁郑	-2112
▁駛	-2113
▁番	-2114
▁38	-2115
▁撞	-2116
▁勤	-2117
▁1970	-2118
▁岡	-2119
▁趣	-2120
▁毀	-2121
▁芝	-2122
▁輔	-2123
▁鼠	-2124
▁1950	-2125
▁涯	-2126
▁藉	-2127
▁隶	-2128
▁脫	-2129
▁乳	-2130
▁梯	-2131
▁泊	-2132
▁34	-2133
▁累	-2134
▁拓	-2135
▁夢	-2136
▁繪	-2137
▁莊	-2138
▁幹	-2139
▁琳	-2140
▁赞	-2141
▁熊	-2142
▁col	-2143
▁趙	-2144
▁泥	-2145
est	-2146
▁藩	-2147
ab	-2148
ct	-2149
▁痛	-2150
11	-2151
▁毁	-2152
▁炎	-2153
▁腹	-2154
▁屯	-2155
▁浮	-2156
▁咸	-2157
▁锡	-2158
▁300	-2159
▁1989	-2160
▁針	-2161
▁鹿	-2162
▁废	-2163
▁豆	-2164
▁斑	-2165
▁隧	-2166
▁le	-2167
▁te	-2168
ak	-2169
▁玄	-2170
▁sh	-2171
▁绍	-2172
▁麼	-2173
▁杉	-2174
ine	-2175
▁陰	-2176
▁壞	-2177
▁賴	-2178
▁怀	-2179
▁詹	-2180
▁隸	-2181
▁怪	-2182
▁hd	-2183
▁緊	-2184
▁块	-2185
▁腊	-2186
ud	-2187
▁～	-2188
ill	-2189
▁1960	-2190
25	-2191
▁袁	-2192
▁喀	-2193
▁觉	-2194
▁爲	-2195
ist	-2196
▁1988	-2197
▁1945	-2198
▁仲	-2199
▁秒	-2200
▁灭	-2201
▁卓	-2202
▁陕	-2203
▁径	-2204
▁sp	-2205
▁隻	-2206
▁袭	-2207
▁屏	-2208
▁39	-2209
▁杭	-2210
▁to	-2211
ik	-2212
▁顆	-2213
▁坑	-2214
▁择	-2215
▁mar	-2216
▁慧	-2217
▁玻	-2218
▁謀	-2219
▁滨	-2220
ang	-2221
▁錯	-2222
▁乏	-2223
▁筆	-2224
▁贏	-2225
▁溶	-2226
▁蟲	-2227
▁厄	-2228
▁旦	-2229
▁插	-2230
▁晨	-2231
▁塑	-2232
▁畔	-2233
▁缩	-2234
▁盡	-2235
▁墙	-2236
▁矿	-2237
▁靖	-2238
▁宙	-2239
▁崎	-2240
▁暫	-2241
▁轴	-2242
▁绿	-2243
▁衰	-2244
70	-2245
▁寄	-2246
▁戒	-2247
▁蔣	-2248
▁损	-2249
▁妃	-2250
▁坚	-2251
ba	-2252
21	-2253
▁紹	-2254
▁剂	-2255
▁搜	-2256
▁洗	-2257
▁é	-2258
▁笑	-2259
▁坎	-2260
▁貿	-2261
if	-2262
▁饰	-2263
▁圳	-2264
ess	-2265
▁鳳	-2266
▁巧	-2267
▁戀	-2268
▁檔	-2269
▁讨	-2270
▁盘	-2271
▁55	-2272
▁ne	-2273
▁祝	-2274
▁穩	-2275
▁凌	-2276
▁壽	-2277
▁岳	-2278
▁on	-2279
▁俊	-2280
▁脱	-2281
▁碳	-2282
▁甸	-2283
15	-2284
▁is	-2285
▁亭	-2286
▁礎	-2287
▁箱	-2288
▁循	-2289
▁坊	-2290
▁揚	-2291
▁1986	-2292
▁1985	-2293
ob	-2294
▁宏	-2295
▁觸	-2296
▁骑	-2297
▁疏	-2298
▁1984	-2299
▁袖	-2300
▁鯉	-2301
▁盾	-2302
▁栽	-2303
▁辭	-2304
und	-2305
▁閣	-2306
▁塊	-2307
▁僧	-2308
▁顾	-2309
na	-2310
▁撰	-2311
▁pro	-2312
▁枝	-2313
▁185	-2314
▁郊	-2315
▁焦	-2316
▁1987	-2317
▁偉	-2318
▁既	-2319
▁扮	-2320
▁叔	-2321
▁刚	-2322
▁邨	-2323
ell	-2324
▁欢	-2325
▁tr	-2326
ph	-2327
▁愿	-2328
▁鋼	-2329
16	-2330
▁弘	-2331
▁仿	-2332
▁卿	-2333
▁灌	-2334
▁锦	-2335
▁紙	-2336
▁蓝	-2337
▁谈	-2338
▁扬	-2339
▁輝	-2340
▁邻	-2341
▁岭	-2342
▁竞	-2343
▁48	-2344
▁虫	-2345
▁脑	-2346
▁吕	-2347
▁听	-2348
▁买	-2349
▁茂	-2350
▁驅	-2351
▁譽	-2352
▁诉	-2353
▁契	-2354
▁曆	-2355
▁贸	-2356
▁针	-2357
▁絡	-2358
ows	-2359
▁凤	-2360
▁疗	-2361
▁am	-2362
18	-2363
▁42	-2364
▁舒	-2365
ice	-2366
▁盐	-2367
▁镜	-2368
▁廈	-2369
▁欲	-2370
▁匯	-2371
▁翁	-2372
▁拳	-2373
▁荒	-2374
▁1982	-2375
▁夷	-2376
▁砲	-2377
▁措	-2378
▁霸	-2379
▁純	-2380
▁娛	-2381
▁裕	-2382
▁靜	-2383
▁潛	-2384
▁勃	-2385
▁75	-2386
▁券	-2387
▁43	-2388
▁耀	-2389
ok	-2390
▁浩	-2391
13	-2392
▁遜	-2393
▁65	-2394
▁迴	-2395
▁床	-2396
▁尉	-2397
▁串	-2398
▁填	-2399
▁割	-2400
▁wind	-2401
▁閉	-2402
▁钢	-2403
▁横	-2404
▁1983	-2405
▁淮	-2406
▁赖	-2407
▁擬	-2408
▁剩	-2409
▁顏	-2410
▁46	-2411
up	-2412
▁紧	-2413
▁綜	-2414
90	-2415
▁订	-2416
▁捐	-2417
47	-2418
ack	-2419
▁婦	-2420
▁丝	-2421
▁沟	-2422
▁覽	-2423
▁嶼	-2424
ver	-2425
ian	-2426
▁at	-2427
▁嶺	-2428
▁阴	-2429
▁坏	-2430
▁燒	-2431
▁鸟	-2432
▁誉	-2433
▁苗	-2434
45	-2435
▁丈	-2436
▁崔	-2437
▁衍	-2438
bo	-2439
▁犹	-2440
▁隱	-2441
▁泳	-2442
▁獸	-2443
▁銅	-2444
▁怒	-2445
17	-2446
▁冊	-2447
▁壇	-2448
▁歧	-2449
▁肥	-2450
23	-2451
▁厘	-2452
▁错	-2453
▁琉	-2454
▁垂	-2455
ou	-2456
▁污	-2457
▁湘	-2458
▁as	-2459
▁47	-2460
▁傅	-2461
▁1979	-2462
▁湯	-2463
▁蓮	-2464
▁邮	-2465
▁燈	-2466
all	-2467
▁搬	-2468
▁铜	-2469
▁or	-2470
▁400	-2471
▁賢	-2472
42	-2473
▁脉	-2474
▁窗	-2475
▁廊	-2476
▁windows	-2477
▁卜	-2478
▁齡	-2479
▁珊	-2480
▁斜	-2481
▁災	-2482
▁迈	-2483
▁膜	-2484
▁儒	-2485
▁獵	-2486
▁综	-2487
▁儘	-2488
▁恶	-2489
▁肃	-2490
▁耗	-2491
▁en	-2492
▁寿	-2493
▁1978	-2494
▁錫	-2495
▁駕	-2496
te	-2497
▁握	-2498
▁寒	-2499
▁薄	-2500
▁逆	-2501
▁狄	-2502
▁ap	-2503
▁欣	-2504
io	-2505
▁课	-2506
▁ii	-2507
▁悉	-2508
ue	-2509
▁妇	-2510
▁呂	-2511
▁孤	-2512
▁煤	-2513
▁旨	-2514
▁con	-2515
14	-2516
▁猪	-2517
▁册	-2518
▁ma	-2519
▁胎	-2520
▁獄	-2521
▁稳	-2522
▁殘	-2523
▁虛	-2524
▁逊	-2525
ive	-2526
▁鋒	-2527
▁抽	-2528
37	-2529
22	-2530
▁逢	-2531
▁壤	-2532
▁阁	-2533
35	-2534
▁误	-2535
▁粗	-2536
▁49	-2537
▁%	-2538
▁180	-2539
▁寨	-2540
▁150	-2541
▁蛛	-2542
ge	-2543
▁貌	-2544
▁聘	-2545
▁1981	-2546
▁迹	-2547
▁弃	-2548
▁粹	-2549
▁鼻	-2550
ity	-2551
▁陀	-2552
▁濱	-2553
oh	-2554
sp	-2555
▁冒	-2556
▁笼	-2557
▁吐	-2558
igh	-2559
▁静	-2560
▁be	-2561
▁剑	-2562
▁吾	-2563
▁憶	-2564
▁猶	-2565
▁缘	-2566
▁坪	-2567
▁倉	-2568
▁笔	-2569
▁狂	-2570
▁稿	-2571
▁狗	-2572
▁柔	-2573
▁翠	-2574
▁俘	-2575
▁go	-2576
▁税	-2577
26	-2578
▁辞	-2579
▁键	-2580
▁纸	-2581
▁婆	-2582
▁蝶	-2583
ert	-2584
▁叙	-2585
▁闭	-2586
▁58	-2587
art	-2588
▁譜	-2589
▁1958	-2590
46	-2591
75	-2592
▁se	-2593
▁挪	-2594
▁忍	-2595
▁揭	-2596
▁賀	-2597
▁違	-2598
▁潜	-2599
▁貫	-2600
36	-2601
▁謂	-2602
▁阮	-2603
▁璃	-2604
▁紋	-2605
28	-2606
▁矩	-2607
▁1946	-2608
▁疫	-2609
▁稍	-2610
▁驱	-2611
▁扶	-2612
▁籌	-2613
▁翌	-2614
▁娘	-2615
▁辅	-2616
▁胸	-2617
▁拟	-2618
▁邓	-2619
▁56	-2620
▁鹽	-2621
▁─	-2622
▁酶	-2623
▁&	-2624
27	-2625
ant	-2626
▁菊	-2627
▁稅	-2628
▁姬	-2629
ich	-2630
▁憑	-2631
▁贊	-2632
▁硫	-2633
▁魂	-2634
▁汪	-2635
▁64	-2636
▁慮	-2637
▁潭	-2638
▁狼	-2639
▁苑	-2640
bs	-2641
▁礦	-2642
▁彰	-2643
▁赢	-2644
38	-2645
▁泡	-2646
▁遵	-2647
▁殼	-2648
▁fr	-2649
▁雀	-2650
▁卵	-2651
▁刷	-2652
▁鍵	-2653
▁丙	-2654
▁惟	-2655
▁绩	-2656
▁棘	-2657
▁储	-2658
▁颱	-2659
▁ph	-2660
▁堆	-2661
▁弦	-2662
▁峡	-2663
24	-2664
▁歇	-2665
▁軸	-2666
▁驚	-2667
▁兆	-2668
▁碎	-2669
▁pr	-2670
29	-2671
▁寻	-2672
▁郵	-2673
▁44	-2674
▁奔	-2675
▁牵	-2676
ong	-2677
▁绪	-2678
▁添	-2679
▁鄧	-2680
ib	-2681
▁淘	-2682
▁吏	-2683
▁1930	-2684
▁恰	-2685
▁ex	-2686
▁1940	-2687
▁腐	-2688
▁狱	-2689
▁曰	-2690
▁纵	-2691
▁1948	-2692
▁癌	-2693
▁跡	-2694
▁阪	-2695
33	-2696
▁脊	-2697
▁註	-2698
▁姻	-2699
▁粵	-2700
▁押	-2701
▁sc	-2702
▁猛	-2703
▁1000	-2704
▁档	-2705
▁屈	-2706
▁ad	-2707
▁偷	-2708
▁姚	-2709
▁詳	-2710
▁120	-2711
▁cn	-2712
▁览	-2713
▁碟	-2714
▁1937	-2715
▁嘴	-2716
▁鯰	-2717
▁1956	-2718
▁劑	-2719
▁傾	-2720
▁繞	-2721
▁堪	-2722
▁1975	-2723
▁纯	-2724
▁蕨	-2725
▁紛	-2726
▁岗	-2727
▁1947	-2728
▁仇	-2729
▁飲	-2730
▁貓	-2731
95	-2732
▁夕	-2733
▁誕	-2734
▁誠	-2735
▁叉	-2736
▁勳	-2737
▁轟	-2738
▁醇	-2739
▁蒸	-2740
uc	-2741
▁芒	-2742
▁蕭	-2743
▁獅	-2744
98	-2745
▁籃	-2746
▁裏	-2747
▁涵	-2748
▁逼	-2749
▁牆	-2750
▁縱	-2751
▁残	-2752
▁拼	-2753
▁奶	-2754
▁76	-2755
▁矛	-2756
▁辰	-2757
▁灾	-2758
▁贾	-2759
ate	-2760
▁烟	-2761
▁儲	-2762
ort	-2763
78	-2764
▁扁	-2765
▁绘	-2766
▁隋	-2767
▁冯	-2768
▁卒	-2769
▁鎖	-2770
▁68	-2771
▁寸	-2772
76	-2773
▁頁	-2774
▁屠	-2775
▁1941	-2776
▁jr	-2777
▁bo	-2778
▁1973	-2779
▁祀	-2780
▁逮	-2781
39	-2782
▁劫	-2783
ry	-2784
▁1952	-2785
▁嫁	-2786
▁→	-2787
▁敢	-2788
▁1920	-2789
lay	-2790
ey	-2791
▁触	-2792
▁600	-2793
▁66	-2794
▁卑	-2795
▁掘	-2796
▁煙	-2797
ord	-2798
▁1955	-2799
▁肌	-2800
▁奎	-2801
▁ac	-2802
▁讷	-2803
▁隐	-2804
▁醒	-2805
▁1972	-2806
▁峽	-2807
▁斤	-2808
▁800	-2809
▁1966	-2810
▁娃	-2811
▁礁	-2812
▁緩	-2813
▁伽	-2814
▁氯	-2815
▁嫌	-2816
▁薛	-2817
▁忙	-2818
▁怖	-2819
34	-2820
▁凝	-2821
▁迦	-2822
▁磨	-2823
▁汤	-2824
▁蒋	-2825
▁1976	-2826
▁卖	-2827
▁雍	-2828
▁85	-2829
▁1968	-2830
▁嗣	-2831
ign	-2832
▁偵	-2833
32	-2834
▁虚	-2835
▁犬	-2836
▁梦	-2837
▁颜	-2838
▁袋	-2839
▁悲	-2840
96	-2841
bc	-2842
▁烧	-2843
▁伟	-2844
▁so	-2845
▁1977	-2846
▁髮	-2847
▁肖	-2848
▁1974	-2849
▁抑	-2850
▁1954	-2851
▁妙	-2852
▁鼎	-2853
▁株	-2854
▁篮	-2855
▁虑	-2856
▁1969	-2857
▁忽	-2858
▁沖	-2859
▁nba	-2860
▁栖	-2861
ens	-2862
44	-2863
▁95	-2864
▁勋	-2865
▁掛	-2866
▁厦	-2867
▁膠	-2868
▁cd	-2869
▁1965	-2870
▁1959	-2871
▁銜	-2872
▁颁	-2873
▁盆	-2874
▁88	-2875
▁汰	-2876
▁盜	-2877
▁稻	-2878
▁罰	-2879
▁蟹	-2880
▁1938	-2881
▁竟	-2882
▁躍	-2883
ft	-2884
▁吨	-2885
▁雌	-2886
▁抱	-2887
▁cent	-2888
▁暂	-2889
▁1939	-2890
▁脚	-2891
▁吹	-2892
▁1944	-2893
▁灯	-2894
▁毅	-2895
99	-2896
▁丸	-2897
▁祿	-2898
▁襄	-2899
▁擾	-2900
▁怕	-2901
▁1971	-2902
▁’	-2903
▁龜	-2904
▁讯	-2905
▁1942	-2906
ast	-2907
▁氢	-2908
▁衔	-2909
▁幽	-2910
▁me	-2911
▁麟	-2912
▁1964	-2913
▁湿	-2914
▁缓	-2915
▁砂	-2916
▁拖	-2917
▁鄂	-2918
▁1967	-2919
▁豫	-2920
▁翔	-2921
31	-2922
▁1957	-2923
▁57	-2924
▁斐	-2925
ff	-2926
▁贈	-2927
▁勵	-2928
▁巢	-2929
▁宰	-2930
▁涌	-2931
▁id	-2932
▁圭	-2933
▁茵	-2934
▁~	-2935
▁姊	-2936
▁崩	-2937
ain	-2938
▁41	-2939
▁丛	-2940
▁貞	-2941
▁萧	-2942
▁賈	-2943
▁碧	-2944
▁op	-2945
▁詢	-2946
▁敘	-2947
end	-2948
▁茅	-2949
▁辨	-2950
▁噶	-2951
▁旬	-2952
▁蜂	-2953
86	-2954
▁抚	-2955
▁54	-2956
▁倡	-2957
▁馮	-2958
▁剪	-2959
▁媽	-2960
▁甫	-2961
▁腔	-2962
▁鴻	-2963
man	-2964
one	-2965
▁腺	-2966
▁囊	-2967
▁谱	-2968
▁筹	-2969
▁淺	-2970
▁邪	-2971
▁・	-2972
▁恭	-2973
▁邑	-2974
▁1936	-2975
▁祠	-2976
▁ng	-2977
ect	-2978
▁濃	-2979
▁漠	-2980
▁漁	-2981
▁託	-2982
▁鱸	-2983
▁1961	-2984
▁硕	-2985
▁龄	-2986
▁滾	-2987
▁ed	-2988
▁姜	-2989
▁锋	-2990
ly	-2991
▁1963	-2992
85	-2993
▁埋	-2994
▁吞	-2995
97	-2996
▁暖	-2997
▁壘	-2998
▁晓	-2999
▁喇	-3000
▁孕	-3001
▁we	-3002
ix	-3003
▁谓	-3004
▁hr	-3005
▁虹	-3006
▁雞	-3007
▁尹	-3008
▁氨	-3009
▁1953	-3010
▁胶	-3011
▁魁	-3012
▁彌	-3013
▁冈	-3014
▁莲	-3015
▁溝	-3016
▁朴	-3017
▁1935	-3018
▁1943	-3019
▁160	-3020
▁邁	-3021
▁寓	-3022
▁珀	-3023
▁喪	-3024
▁挂	-3025
▁滕	-3026
92	-3027
▁×	-3028
▁蹈	-3029
▁51	-3030
▁舟	-3031
ace	-3032
▁蓬	-3033
qu	-3034
▁咖	-3035
▁坛	-3036
▁俠	-3037
ps	-3038
▁扣	-3039
▁吻	-3040
▁1962	-3041
▁坝	-3042
▁脅	-3043
▁苯	-3044
▁愈	-3045
65	-3046
▁伙	-3047
▁噴	-3048
▁hant	-3049
▁抓	-3050
▁汀	-3051
▁耐	-3052
▁挖	-3053
▁胺	-3054
▁椎	-3055
▁飯	-3056
▁52	-3057
▁礙	-3058
ah	-3059
▁he	-3060
▁搖	-3061
int	-3062
▁巫	-3063
41	-3064
▁陪	-3065
▁壮	-3066
▁贯	-3067
▁it	-3068
▁仓	-3069
ss	-3070
▁披	-3071
▁耕	-3072
▁催	-3073
▁碩	-3074
▁mo	-3075
▁稀	-3076
▁薇	-3077
▁舌	-3078
▁斥	-3079
▁矮	-3080
▁1951	-3081
ug	-3082
▁慣	-3083
▁撫	-3084
▁瓶	-3085
▁齿	-3086
▁削	-3087
ore	-3088
▁掠	-3089
▁廖	-3090
unt	-3091
ust	-3092
ux	-3093
▁讚	-3094
43	-3095
49	-3096
▁卸	-3097
▁龐	-3098
▁桓	-3099
▁藻	-3100
ight	-3101
▁滩	-3102
▁违	-3103
▁吧	-3104
▁烯	-3105
▁详	-3106
▁鍾	-3107
▁渠	-3108
▁蒲	-3109
▁鸡	-3110
▁78	-3111
ire	-3112
▁铺	-3113
▁邱	-3114
▁纹	-3115
▁1927	-3116
▁閱	-3117
▁蜀	-3118
▁崖	-3119
▁唇	-3120
▁姑	-3121
▁屍	-3122
▁棉	-3123
1900	-3124
▁葵	-3125
▁擅	-3126
iz	-3127
▁庶	-3128
▁募	-3129
▁徹	-3130
▁粮	-3131
▁賜	-3132
▁链	-3133
▁dv	-3134
ond	-3135
▁sao	-3136
pe	-3137
▁帽	-3138
▁sch	-3139
ock	-3140
▁cod	-3141
▁汝	-3142
▁gr	-3143
▁禾	-3144
93	-3145
▁‘	-3146
▁薪	-3147
▁褐	-3148
ith	-3149
▁溯	-3150
▁潔	-3151
▁1928	-3152
▁筒	-3153
▁inter	-3154
▁贤	-3155
▁豹	-3156
ma	-3157
▁1933	-3158
▁昇	-3159
▁暨	-3160
▁曉	-3161
▁wh	-3162
▁蜜	-3163
▁鷹	-3164
▁啡	-3165
ne	-3166
▁札	-3167
68	-3168
▁亥	-3169
▁弓	-3170
▁尿	-3171
▁閩	-3172
▁700	-3173
▁忘	-3174
▁car	-3175
▁sm	-3176
▁梨	-3177
▁磷	-3178
▁77	-3179
▁貼	-3180
▁1931	-3181
62	-3182
▁懸	-3183
▁酷	-3184
▁摧	-3185
▁67	-3186
▁ge	-3187
▁鲍	-3188
ick	-3189
▁1932	-3190
▁mac	-3191
▁梵	-3192
▁帥	-3193
67	-3194
ern	-3195
▁缅	-3196
▁鑑	-3197
▁穴	-3198
▁丞	-3199
▁麵	-3200
▁惜	-3201
▁踏	-3202
▁肺	-3203
▁坂	-3204
▁邵	-3205
▁1934	-3206
▁拘	-3207
▁纷	-3208
▁cl	-3209
94	-3210
▁sy	-3211
▁悬	-3212
▁琪	-3213
▁ist	-3214
▁彻	-3215
▁杆	-3216
▁漏	-3217
▁甜	-3218
▁巷	-3219
▁趕	-3220
▁lin	-3221
▁tv	-3222
▁蕾	-3223
▁宴	-3224
▁拱	-3225
▁翅	-3226
sh	-3227
▁怡	-3228
▁润	-3229
▁53	-3230
ii	-3231
▁掩	-3232
▁ro	-3233
▁沪	-3234
▁緬	-3235
▁页	-3236
▁腾	-3237
▁110	-3238
▁蹤	-3239
ber	-3240
▁冕	-3241
▁淑	-3242
▁睡	-3243
▁bl	-3244
▁奠	-3245
▁肢	-3246
▁碰	-3247
xt	-3248
▁嘗	-3249
▁禦	-3250
91	-3251
▁宛	-3252
▁仕	-3253
66	-3254
▁棕	-3255
▁鉴	-3256
▁el	-3257
▁98	-3258
▁joh	-3259
▁販	-3260
▁堤	-3261
ies	-3262
▁枢	-3263
▁澄	-3264
yle	-3265
▁柄	-3266
▁爪	-3267
▁par	-3268
▁ak	-3269
▁誓	-3270
▁倾	-3271
▁励	-3272
▁哪	-3273
▁菩	-3274
▁逸	-3275
▁钦	-3276
▁诚	-3277
son	-3278
▁istat	-3279
▁框	-3280
▁赏	-3281
▁慎	-3282
▁玲	-3283
▁毗	-3284
▁丑	-3285
▁1929	-3286
▁遞	-3287
▁ht	-3288
▁dvd	-3289
▁疊	-3290
▁鳴	-3291
▁臂	-3292
▁遲	-3293
▁呎	-3294
▁178	-3295
▁桌	-3296
▁驾	-3297
▁蹟	-3298
ial	-3299
▁gam	-3300
▁帅	-3301
▁赐	-3302
▁驶	-3303
ont	-3304
▁霞	-3305
▁腿	-3306
ath	-3307
se	-3308
▁遼	-3309
▁饮	-3310
▁銘	-3311
▁姿	-3312
▁猎	-3313
▁140	-3314
▁1912	-3315
▁豬	-3316
▁丧	-3317
▁递	-3318
64	-3319
▁逻	-3320
▁贺	-3321
▁禄	-3322
▁禪	-3323
▁窄	-3324
▁腓	-3325
▁頗	-3326
▁冀	-3327
▁恋	-3328
ogle	-3329
ina	-3330
▁淨	-3331
▁弄	-3332
▁cr	-3333
▁雇	-3334
▁潤	-3335
▁烷	-3336
ier	-3337
▁帆	-3338
▁寮	-3339
▁google	-3340
▁娶	-3341
▁辉	-3342
▁鐸	-3343
▁兔	-3344
▁腰	-3345
▁韻	-3346
▁恨	-3347
▁桐	-3348
56	-3349
▁阔	-3350
72	-3351
▁栗	-3352
▁72	-3353
ment	-3354
▁肩	-3355
▁us	-3356
▁搶	-3357
▁yo	-3358
▁new	-3359
▁悠	-3360
▁ー	-3361
▁1925	-3362
▁play	-3363
ory	-3364
▁center	-3365
▁man	-3366
ai	-3367
▁辯	-3368
▁猜	-3369
▁瘤	-3370
▁蝠	-3371
73	-3372
▁扭	-3373
▁忆	-3374
74	-3375
▁抄	-3376
▁my	-3377
▁欽	-3378
▁wor	-3379
▁跃	-3380
▁‧	-3381
79	-3382
55	-3383
▁貧	-3384
ure	-3385
▁辟	-3386
▁罚	-3387
▁250	-3388
▁朵	-3389
▁赠	-3390
▁130	-3391
iss	-3392
▁趨	-3393
▁壳	-3394
▁嫩	-3395
▁爬	-3396
▁繩	-3397
71	-3398
▁裸	-3399
▁惊	-3400
▁殷	-3401
▁沼	-3402
▁盈	-3403
▁胁	-3404
▁1918	-3405
▁臟	-3406
▁170	-3407
▁back	-3408
ld	-3409
▁滋	-3410
▁dr	-3411
▁style	-3412
▁壯	-3413
▁庇	-3414
▁忌	-3415
▁逾	-3416
▁牲	-3417
▁99	-3418
▁飓	-3419
▁肝	-3420
▁禧	-3421
▁囚	-3422
▁蜥	-3423
▁糧	-3424
▁吊	-3425
61	-3426
▁纲	-3427
▁妖	-3428
▁炭	-3429
▁浸	-3430
▁α	-3431
▁繫	-3432
▁庸	-3433
▁罷	-3434
▁磯	-3435
▁荃	-3436
▁贞	-3437
69	-3438
▁厥	-3439
▁1913	-3440
ung	-3441
58	-3442
▁63	-3443
▁1919	-3444
▁av	-3445
▁锁	-3446
▁鯨	-3447
▁劣	-3448
▁勸	-3449
▁掃	-3450
ide	-3451
az	-3452
▁慰	-3453
▁閃	-3454
▁62	-3455
▁*	-3456
▁1924	-3457
▁1926	-3458
▁鈴	-3459
▁诞	-3460
▁贫	-3461
53	-3462
▁兽	-3463
▁铸	-3464
▁john	-3465
▁comp	-3466
▁阅	-3467
co	-3468
▁弥	-3469
▁旱	-3470
▁а	-3471
▁勁	-3472
round	-3473
▁哀	-3474
▁埠	-3475
▁ip	-3476
▁瑚	-3477
▁鱗	-3478
▁bd	-3479
▁彥	-3480
ational	-3481
▁扇	-3482
▁59	-3483
▁闊	-3484
▁1922	-3485
▁蓄	-3486
▁駁	-3487
▁亩	-3488
mm	-3489
▁搞	-3490
▁浓	-3491
▁盗	-3492
63	-3493
▁sil	-3494
▁怎	-3495
▁趁	-3496
au	-3497
▁の	-3498
▁喷	-3499
age	-3500
▁codice	-3501
▁秩	-3502
▁診	-3503
▁賦	-3504
▁氟	-3505
▁橡	-3506
▁辩	-3507
▁砖	-3508
▁跋	-3509
▁凰	-3510
▁qu	-3511
▁樞	-3512
cl	-3513
▁ン	-3514
▁濕	-3515
▁霧	-3516
▁扰	-3517
▁61	-3518
▁祈	-3519
▁焚	-3520
▁ho	-3521
▁臀	-3522
so	-3523
▁柬	-3524
▁椅	-3525
▁槽	-3526
▁氫	-3527
▁灘	-3528
▁庞	-3529
▁債	-3530
▁償	-3531
▁瓷	-3532
77	-3533
lar	-3534
▁庚	-3535
▁昔	-3536
ans	-3537
52	-3538
▁1914	-3539
▁噸	-3540
▁跌	-3541
51	-3542
▁薦	-3543
ish	-3544
▁鱷	-3545
▁肅	-3546
▁赶	-3547
ke	-3548
ton	-3549
▁诏	-3550
▁擦	-3551
▁轰	-3552
span	-3553
▁牽	-3554
▁嵌	-3555
▁遮	-3556
▁蕃	-3557
▁colspan	-3558
▁赋	-3559
▁闽	-3560
▁3000	-3561
▁瑜	-3562
▁1911	-3563
▁欠	-3564
▁芙	-3565
▁ngc	-3566
59	-3567
▁dna	-3568
▁鮑	-3569
▁1917	-3570
▁猫	-3571
57	-3572
▁$	-3573
▁攜	-3574
▁ser	-3575
▁夸	-3576
▁酮	-3577
▁屿	-3578
▁仑	-3579
▁po	-3580
▁km	-3581
▁挺	-3582
▁猴	-3583
▁肇	-3584
▁ag	-3585
▁寇	-3586
ary	-3587
▁艙	-3588
▁о	-3589
▁1923	-3590
88	-3591
▁偽	-3592
▁凭	-3593
▁缸	-3594
▁彦	-3595
▁晴	-3596
▁em	-3597
ground	-3598
▁涂	-3599
▁禅	-3600
▁74	-3601
▁祐	-3602
▁align	-3603
▁怨	-3604
▁哺	-3605
▁汶	-3606
▁氮	-3607
▁er	-3608
▁擺	-3609
54	-3610
▁狹	-3611
▁娱	-3612
▁頸	-3613
▁履	-3614
▁慘	-3615
▁净	-3616
▁眠	-3617
▁mus	-3618
▁芭	-3619
▁询	-3620
▁鸿	-3621
▁鞋	-3622
▁ste	-3623
▁棟	-3624
▁漂	-3625
▁鶴	-3626
▁碱	-3627
▁mv	-3628
▁贴	-3629
ile	-3630
▁1921	-3631
▁郁	-3632
▁fo	-3633
▁伪	-3634
▁鑽	-3635
▁欄	-3636
aw	-3637
▁喻	-3638
▁悟	-3639
▁69	-3640
▁踢	-3641
▁捉	-3642
▁狐	-3643
▁眉	-3644
▁斬	-3645
▁嘛	-3646
▁background	-3647
▁攀	-3648
pl	-3649
▁lov	-3650
▁桿	-3651
▁no	-3652
▁昏	-3653
▁琼	-3654
▁栏	-3655
ach	-3656
▁徙	-3657
ass	-3658
▁璋	-3659
▁喝	-3660
ium	-3661
▁尸	-3662
▁夥	-3663
▁狮	-3664
▁軒	-3665
▁颇	-3666
▁炳	-3667
▁net	-3668
▁color	-3669
▁浅	-3670
▁pa	-3671
land	-3672
83	-3673
▁摇	-3674
▁麓	-3675
▁彎	-3676
lat	-3677
▁穗	-3678
anc	-3679
▁sup	-3680
▁pc	-3681
▁妥	-3682
▁譚	-3683
▁ab	-3684
▁渔	-3685
▁粤	-3686
▁bar	-3687
▁佑	-3688
▁睛	-3689
▁賊	-3690
▁踪	-3691
▁73	-3692
▁厢	-3693
ann	-3694
▁蘋	-3695
iel	-3696
▁廂	-3697
▁撥	-3698
▁鹰	-3699
▁坤	-3700
▁pe	-3701
▁喉	-3702
▁僚	-3703
▁抢	-3704
▁窮	-3705
▁1900	-3706
▁彗	-3707
▁ps	-3708
▁爸	-3709
▁醉	-3710
82	-3711
▁匣	-3712
▁text	-3713
▁侨	-3714
▁糕	-3715
▁齋	-3716
▁淳	-3717
▁帖	-3718
▁鞍	-3719
▁绥	-3720
▁饭	-3721
▁寵	-3722
▁歉	-3723
▁迟	-3724
ite	-3725
▁惯	-3726
▁棚	-3727
87	-3728
▁mic	-3729
▁櫻	-3730
▁菱	-3731
ank	-3732
▁崗	-3733
▁躲	-3734
▁邏	-3735
amp	-3736
▁1910	-3737
▁胆	-3738
▁戊	-3739
▁匪	-3740
▁荐	-3741
▁酯	-3742
▁87	-3743
▁尝	-3744
▁諮	-3745
▁mc	-3746
▁per	-3747
▁臉	-3748
▁pl	-3749
▁漆	-3750
▁и	-3751
▁梭	-3752
89	-3753
▁畜	-3754
are	-3755
ae	-3756
me	-3757
▁旭	-3758
▁淵	-3759
▁涼	-3760
▁穌	-3761
▁勘	-3762
▁矢	-3763
▁86	-3764
▁辱	-3765
84	-3766
▁椒	-3767
▁盒	-3768
▁2020	-3769
▁戚	-3770
▁茄	-3771
▁洁	-3772
▁熔	-3773
▁鴨	-3774
ivers	-3775
▁岐	-3776
▁900	-3777
▁劝	-3778
▁71	-3779
▁帳	-3780
▁鬆	-3781
81	-3782
▁#	-3783
▁詔	-3784
▁榴	-3785
▁騰	-3786
▁凉	-3787
▁聰	-3788
▁咒	-3789
▁勾	-3790
ica	-3791
▁82	-3792
▁os	-3793
▁摔	-3794
▁咀	-3795
▁秉	-3796
ence	-3797
▁碍	-3798
▁戌	-3799
▁賭	-3800
ical	-3801
▁盲	-3802
▁96	-3803
▁罩	-3804
▁cp	-3805
▁silver	-3806
▁霖	-3807
▁81	-3808
▁罢	-3809
▁鹤	-3810
old	-3811
▁im	-3812
▁蛙	-3813
ts	-3814
▁糊	-3815
▁煌	-3816
▁謙	-3817
▁now	-3818
▁101	-3819
▁瓊	-3820
▁鏈	-3821
▁閘	-3822
▁爐	-3823
▁鯛	-3824
ley	-3825
▁all	-3826
▁牟	-3827
▁纤	-3828
▁庵	-3829
▁欺	-3830
▁will	-3831
▁滚	-3832
▁韶	-3833
de	-3834
per	-3835
▁met	-3836
▁痕	-3837
▁mod	-3838
▁夾	-3839
▁陝	-3840
ime	-3841
ky	-3842
▁燥	-3843
▁竣	-3844
▁虞	-3845
ction	-3846
▁笛	-3847
▁79	-3848
▁漳	-3849
▁瞄	-3850
▁虐	-3851
▁棠	-3852
▁澎	-3853
▁奮	-3854
▁幢	-3855
for	-3856
▁浴	-3857
▁趋	-3858
ta	-3859
▁廿	-3860
▁intern	-3861
▁拯	-3862
▁腸	-3863
▁塌	-3864
▁荆	-3865
▁83	-3866
▁斌	-3867
▁携	-3868
▁爺	-3869
5%	-3870
▁蛤	-3871
▁遙	-3872
▁奸	-3873
▁匠	-3874
▁阜	-3875
▁84	-3876
▁侶	-3877
▁es	-3878
▁垣	-3879
▁瑙	-3880
▁貪	-3881
▁哭	-3882
▁塗	-3883
▁憤	-3884
▁cor	-3885
iam	-3886
▁胃	-3887
▁á	-3888
ool	-3889
▁蝦	-3890
▁瓣	-3891
iki	-3892
▁穷	-3893
▁linux	-3894
▁嬰	-3895
▁1915	-3896
▁畏	-3897
▁92	-3898
own	-3899
▁1905	-3900
▁1916	-3901
tv	-3902
▁僑	-3903
pr	-3904
▁gen	-3905
▁gre	-3906
▁潰	-3907
▁侠	-3908
act	-3909
ube	-3910
▁捲	-3911
▁纖	-3912
use	-3913
ve	-3914
▁矶	-3915
▁扫	-3916
▁擋	-3917
▁膚	-3918
▁誘	-3919
▁鎊	-3920
▁い	-3921
▁膨	-3922
ere	-3923
▁憂	-3924
ml	-3925
ance	-3926
▁黛	-3927
▁fl	-3928
▁螢	-3929
▁崙	-3930
▁焰	-3931
▁稣	-3932
▁朔	-3933
▁駿	-3934
▁剿	-3935
▁汁	-3936
▁jo	-3937
▁酋	-3938
ys	-3939
▁you	-3940
▁噪	-3941
▁fre	-3942
▁凸	-3943
▁弧	-3944
▁鋪	-3945
▁摘	-3946
▁悼	-3947
▁誰	-3948
▁辣	-3949
▁ic	-3950
▁rob	-3951
▁ua	-3952
▁铭	-3953
km	-3954
va	-3955
▁杏	-3956
▁1500	-3957
▁窟	-3958
▁翡	-3959
les	-3960
▁5000	-3961
▁凹	-3962
▁狭	-3963
▁黏	-3964
▁夹	-3965
▁偿	-3966
tp	-3967
▁gu	-3968
mb	-3969
▁楠	-3970
▁粘	-3971
▁97	-3972
▁mag	-3973
▁禹	-3974
▁辐	-3975
▁韵	-3976
▁love	-3977
▁鸣	-3978
▁乞	-3979
▁债	-3980
▁閒	-3981
▁min	-3982
▁暢	-3983
▁硝	-3984
▁輩	-3985
▁芽	-3986
▁count	-3987
▁赦	-3988
▁銳	-3989
▁е	-3990
▁荊	-3991
▁1906	-3992
▁頜	-3993
▁1909	-3994
▁橙	-3995
▁univers	-3996
▁冥	-3997
▁塵	-3998
ale	-3999
ome	-4000
▁牢	-4001
▁med	-4002
▁滇	-4003
▁06	-4004
ash	-4005
▁one	-4006
▁拋	-4007
▁樑	-4008
gr	-4009
▁卧	-4010
▁戎	-4011
▁dav	-4012
ise	-4013
▁湛	-4014
ase	-4015
▁1907	-4016
▁宦	-4017
▁炼	-4018
▁闸	-4019
▁ep	-4020
▁彬	-4021
▁橘	-4022
▁air	-4023
ga	-4024
▁叠	-4025
we	-4026
▁瑰	-4027
▁诊	-4028
station	-4029
▁惑	-4030
▁纂	-4031
▁肆	-4032
att	-4033
▁膽	-4034
▁懼	-4035
▁酬	-4036
▁傘	-4037
▁餅	-4038
▁gro	-4039
▁勉	-4040
▁int	-4041
▁mon	-4042
▁寂	-4043
▁玫	-4044
▁world	-4045
▁do	-4046
▁畿	-4047
▁脏	-4048
▁89	-4049
▁懂	-4050
▁酰	-4051
▁93	-4052
▁棍	-4053
▁迄	-4054
▁har	-4055
▁н	-4056
▁涛	-4057
▁寅	-4058
▁狸	-4059
▁瀑	-4060
▁纬	-4061
▁05	-4062
▁孜	-4063
▁蹄	-4064
▁char	-4065
ild	-4066
▁micro	-4067
▁煮	-4068
▁09	-4069
hel	-4070
▁冶	-4071
▁蔽	-4072
▁諡	-4073
▁91	-4074
▁磅	-4075
▁橄	-4076
▁繳	-4077
▁360	-4078
▁β	-4079
▁渊	-4080
▁酵	-4081
uth	-4082
▁寡	-4083
▁′	-4084
▁堵	-4085
▁摆	-4086
▁赣	-4087
▁gl	-4088
▁汕	-4089
▁泌	-4090
book	-4091
▁1908	-4092
▁惨	-4093
▁裴	-4094
▁cla	-4095
▁叢	-4096
▁nh	-4097
▁鵝	-4098
▁su	-4099
▁playstation	-4100
▁邸	-4101
▁鱂	-4102
ict	-4103
▁с	-4104
▁喊	-4105
▁懿	-4106
▁侦	-4107
▁榆	-4108
▁bro	-4109
▁氛	-4110
▁匿	-4111
▁奋	-4112
▁1904	-4113
▁簧	-4114
▁隙	-4115
▁ms	-4116
▁res	-4117
▁伺	-4118
▁頃	-4119
▁鳞	-4120
▁櫃	-4121
▁ut	-4122
▁iii	-4123
▁des	-4124
ower	-4125
▁】	-4126
▁茎	-4127
▁誼	-4128
▁105	-4129
▁孚	-4130
▁峻	-4131
▁鞭	-4132
ee	-4133
▁【	-4134
▁沛	-4135
enn	-4136
▁滴	-4137
▁稽	-4138
ck	-4139
▁顷	-4140
ri	-4141
▁350	-4142
▁侄	-4143
▁俞	-4144
lex	-4145
▁詠	-4146
▁鹃	-4147
▁肪	-4148
▁94	-4149
eng	-4150
▁臭	-4151
ose	-4152
▁app	-4153
▁奕	-4154
urn	-4155
▁荔	-4156
▁騙	-4157
▁her	-4158
▁欖	-4159
ala	-4160
▁仗	-4161
▁垃	-4162
▁斋	-4163
▁sn	-4164
▁荡	-4165
ame	-4166
▁扑	-4167
▁彙	-4168
▁can	-4169
▁倪	-4170
▁07	-4171
▁live	-4172
▁筋	-4173
▁akb	-4174
▁劾	-4175
ins	-4176
ork	-4177
▁彪	-4178
▁蝕	-4179
rom	-4180
▁р	-4181
▁撲	-4182
▁訟	-4183
ara	-4184
cc	-4185
▁碘	-4186
▁禽	-4187
ony	-4188
▁粟	-4189
▁裹	-4190
▁school	-4191
▁圾	-4192
▁雁	-4193
▁妓	-4194
▁芦	-4195
ms	-4196
▁舱	-4197
▁衙	-4198
itt	-4199
▁1895	-4200
▁ent	-4201
ade	-4202
▁1898	-4203
▁屢	-4204
▁綁	-4205
▁芯	-4206
▁鮋	-4207
▁chr	-4208
▁泄	-4209
stem	-4210
▁婉	-4211
▁傲	-4212
▁牡	-4213
▁苹	-4214
▁ん	-4215
▁娅	-4216
▁肠	-4217
▁鑼	-4218
▁闪	-4219
▁烤	-4220
▁1903	-4221
▁殉	-4222
▁墜	-4223
▁墟	-4224
▁墩	-4225
ics	-4226
▁mm	-4227
▁pet	-4228
▁岑	-4229
ult	-4230
6%	-4231
▁蓉	-4232
▁謠	-4233
▁壬	-4234
▁暑	-4235
▁皖	-4236
2%	-4237
▁僱	-4238
af	-4239
▁凶	-4240
▁with	-4241
▁趾	-4242
▁苔	-4243
▁煉	-4244
▁谭	-4245
▁web	-4246
▁彝	-4247
▁绵	-4248
der	-4249
▁1902	-4250
▁super	-4251
▁颠	-4252
▁豚	-4253
▁钻	-4254
▁塚	-4255
▁糾	-4256
3%	-4257
▁頌	-4258
▁悅	-4259
▁曝	-4260
ana	-4261
▁践	-4262
▁08	-4263
▁ü	-4264
▁拨	-4265
▁淹	-4266
▁硅	-4267
▁籤	-4268
▁諧	-4269
▁騷	-4270
ster	-4271
▁rec	-4272
▁嫡	-4273
▁鸦	-4274
▁呢	-4275
▁禍	-4276
▁賠	-4277
olog	-4278
uk	-4279
▁渦	-4280
▁狩	-4281
▁樟	-4282
▁蝙	-4283
▁lo	-4284
1%	-4285
▁垒	-4286
▁1901	-4287
▁萍	-4288
▁by	-4289
ward	-4290
4%	-4291
▁舜	-4292
be	-4293
▁弊	-4294
ho	-4295
▁ty	-4296
▁纺	-4297
ca	-4298
▁倭	-4299
▁啦	-4300
▁嘎	-4301
▁貸	-4302
▁竭	-4303
▁茹	-4304
▁栋	-4305
▁諷	-4306
▁檀	-4307
▁歼	-4308
▁炉	-4309
▁擠	-4310
▁鵬	-4311
▁拾	-4312
▁顛	-4313
▁che	-4314
▁桶	-4315
▁谊	-4316
▁谥	-4317
7%	-4318
▁et	-4319
▁剌	-4320
▁溃	-4321
▁狙	-4322
▁穎	-4323
▁懲	-4324
▁梓	-4325
orn	-4326
▁fe	-4327
ual	-4328
▁刪	-4329
▁吋	-4330
▁哇	-4331
▁爽	-4332
▁悔	-4333
ille	-4334
▁jav	-4335
8%	-4336
▁啤	-4337
▁鴉	-4338
▁li	-4339
▁system	-4340
▁star	-4341
▁墅	-4342
▁4000	-4343
hz	-4344
▁釣	-4345
oth	-4346
▁喚	-4347
▁闲	-4348
▁104	-4349
▁墾	-4350
▁羌	-4351
▁衷	-4352
▁nor	-4353
▁窑	-4354
▁谦	-4355
▁т	-4356
▁郝	-4357
▁鰻	-4358
▁je	-4359
▁咬	-4360
▁籠	-4361
▁膀	-4362
▁毓	-4363
▁稚	-4364
▁蔓	-4365
▁薯	-4366
▁饶	-4367
oci	-4368
yn	-4369
▁01	-4370
▁sur	-4371
▁魅	-4372
▁隕	-4373
pt	-4374
▁淚	-4375
asa	-4376
▁舖	-4377
▁蔭	-4378
▁bla	-4379
▁dis	-4380
▁砍	-4381
ata	-4382
dp	-4383
▁music	-4384
▁う	-4385
▁沫	-4386
▁淀	-4387
▁愚	-4388
▁锐	-4389
ron	-4390
▁乒	-4391
▁哩	-4392
▁磚	-4393
▁淋	-4394
▁樸	-4395
▁挽	-4396
▁檐	-4397
da	-4398
▁ass	-4399
▁face	-4400
▁鹏	-4401
▁í	-4402
▁ib	-4403
▁愉	-4404
▁舅	-4405
▁萌	-4406
▁犁	-4407
▁鸭	-4408
▁pol	-4409
ha	-4410
▁剖	-4411
▁締	-4412
▁耿	-4413
▁莖	-4414
▁渤	-4415
▁禎	-4416
▁蘿	-4417
▁af	-4418
▁茜	-4419
▁莞	-4420
▁凍	-4421
▁聊	-4422
▁腎	-4423
▁骸	-4424
▁ev	-4425
▁壹	-4426
▁str	-4427
▁咨	-4428
▁霜	-4429
lo	-4430
▁厭	-4431
▁嵩	-4432
▁ver	-4433
▁淫	-4434
▁鬚	-4435
▁犀	-4436
9%	-4437
▁渭	-4438
▁炒	-4439
▁肿	-4440
ds	-4441
▁癸	-4442
▁籲	-4443
▁濫	-4444
ien	-4445
▁淆	-4446
▁罐	-4447
▁仆	-4448
▁僕	-4449
▁ss	-4450
pm	-4451
soft	-4452
▁缝	-4453
▁谐	-4454
▁108	-4455
▁敷	-4456
▁苷	-4457
▁顱	-4458
▁mark	-4459
br	-4460
▁砌	-4461
▁蔚	-4462
▁釜	-4463
▁cont	-4464
▁颶	-4465
box	-4466
▁沁	-4467
▁william	-4468
ode	-4469
▁125	-4470
▁county	-4471
▁綿	-4472
▁div	-4473
▁jam	-4474
ls	-4475
▁し	-4476
▁iv	-4477
▁蘆	-4478
mer	-4479
▁梗	-4480
▁谁	-4481
▁俯	-4482
▁漿	-4483
▁胚	-4484
ius	-4485
▁扳	-4486
▁棱	-4487
▁high	-4488
▁stud	-4489
pa	-4490
▁mat	-4491
▁滤	-4492
▁脹	-4493
▁膏	-4494
ane	-4495
ler	-4496
▁103	-4497
▁喙	-4498
▁擒	-4499
▁迭	-4500
▁兇	-4501
▁婴	-4502
▁弯	-4503
▁弼	-4504
▁贷	-4505
▁sw	-4506
▁colle	-4507
▁愤	-4508
▁鹅	-4509
▁saint	-4510
ax	-4511
▁1200	-4512
▁ā	-4513
▁窩	-4514
▁诱	-4515
▁04	-4516
▁脆	-4517
▁醛	-4518
▁謹	-4519
▁闖	-4520
▁腫	-4521
▁卦	-4522
▁钠	-4523
▁矣	-4524
▁ra	-4525
▁102	-4526
▁off	-4527
▁val	-4528
▁猩	-4529
▁庐	-4530
▁廚	-4531
▁浏	-4532
▁琦	-4533
▁崛	-4534
cr	-4535
▁删	-4536
▁蕊	-4537
▁del	-4538
▁袍	-4539
ited	-4540
▁烹	-4541
▁瞬	-4542
▁縫	-4543
▁part	-4544
▁厲	-4545
▁輿	-4546
▁鑄	-4547
▁в	-4548
▁晰	-4549
▁臥	-4550
▁遥	-4551
▁堯	-4552
▁斩	-4553
▁貶	-4554
▁骚	-4555
▁di	-4556
▁yout	-4557
▁蔬	-4558
▁蜘	-4559
▁ö	-4560
▁抬	-4561
▁樊	-4562
▁碗	-4563
▁罹	-4564
ood	-4565
▁ele	-4566
oss	-4567
▁岱	-4568
▁溥	-4569
▁祇	-4570
illa	-4571
▁纠	-4572
▁220	-4573
▁榕	-4574
▁02	-4575
▁up	-4576
▁畅	-4577
vel	-4578
▁瘋	-4579
▁黔	-4580
▁war	-4581
▁ス	-4582
▁壩	-4583
▁疲	-4584
▁蝴	-4585
▁1890	-4586
▁gn	-4587
ement	-4588
▁tvb	-4589
▁international	-4590
▁挫	-4591
▁蒿	-4592
▁iso	-4593
▁university	-4594
▁伞	-4595
ald	-4596
▁к	-4597
▁坞	-4598
▁尧	-4599
ett	-4600
▁膝	-4601
ner	-4602
▁濾	-4603
▁蕉	-4604
▁ó	-4605
uch	-4606
▁颈	-4607
▁杖	-4608
▁篤	-4609
▁dc	-4610
▁廓	-4611
▁钩	-4612
▁mr	-4613
▁115	-4614
▁匡	-4615
▁塢	-4616
▁甄	-4617
urg	-4618
▁106	-4619
▁tra	-4620
▁妾	-4621
icon	-4622
▁nowiki	-4623
▁泗	-4624
▁猿	-4625
ott	-4626
▁1896	-4627
▁1899	-4628
▁祁	-4629
▁哨	-4630
ink	-4631
▁胤	-4632
▁game	-4633
▁剥	-4634
▁瀨	-4635
▁撐	-4636
▁敖	-4637
▁馳	-4638
▁è	-4639
▁ec	-4640
▁youtube	-4641
▁睿	-4642
▁錐	-4643
iro	-4644
▁敲	-4645
▁107	-4646
▁1897	-4647
▁厝	-4648
▁穀	-4649
▁facebook	-4650
▁虜	-4651
▁髓	-4652
▁擲	-4653
▁肋	-4654
▁ind	-4655
▁鹼	-4656
▁ir	-4657
▁饼	-4658
▁嚇	-4659
▁鑲	-4660
▁鬱	-4661
▁111	-4662
▁10%	-4663
▁娥	-4664
ject	-4665
▁microsoft	-4666
yl	-4667
▁傍	-4668
▁莽	-4669
ike	-4670
ition	-4671
ene	-4672
▁gir	-4673
▁説	-4674
▁ds	-4675
▁峙	-4676
▁裙	-4677
▁擢	-4678
▁橢	-4679
▁疇	-4680
▁踐	-4681
▁鸚	-4682
able	-4683
▁50%	-4684
▁cap	-4685
▁吁	-4686
▁飼	-4687
▁sd	-4688
▁240	-4689
▁肤	-4690
▁ca	-4691
▁art	-4692
▁※	-4693
▁眷	-4694
▁紳	-4695
▁阎	-4696
oph	-4697
▁ter	-4698
▁inst	-4699
▁david	-4700
▁hy	-4701
▁bbc	-4702
▁1860	-4703
▁匾	-4704
▁辜	-4705
▁か	-4706
▁溉	-4707
▁da	-4708
▁忧	-4709
▁贿	-4710
gb	-4711
▁ル	-4712
▁戟	-4713
▁ref	-4714
▁イ	-4715
▁du	-4716
▁堰	-4717
▁梧	-4718
▁1889	-4719
▁聂	-4720
ude	-4721
ream	-4722
▁geor	-4723
01	-4724
▁爛	-4725
▁敕	-4726
▁瀕	-4727
▁鬧	-4728
ake	-4729
▁褒	-4730
▁鯊	-4731
▁cy	-4732
▁mk	-4733
▁勿	-4734
▁宠	-4735
▁晤	-4736
▁楷	-4737
▁陇	-4738
▁龟	-4739
ings	-4740
▁丟	-4741
▁耆	-4742
▁潟	-4743
▁缴	-4744
▁铝	-4745
▁sec	-4746
▁た	-4747
▁磡	-4748
▁窝	-4749
▁邢	-4750
tr	-4751
▁宵	-4752
▁罵	-4753
▁萼	-4754
▁墳	-4755
▁羚	-4756
▁act	-4757
▁red	-4758
▁湧	-4759
▁鍋	-4760
▁巩	-4761
▁祺	-4762
uro	-4763
▁瘦	-4764
▁抛	-4765
ear	-4766
▁cm	-4767
▁mor	-4768
▁孢	-4769
▁450	-4770
work	-4771
▁绑	-4772
▁攔	-4773
▁舶	-4774
▁惹	-4775
▁浆	-4776
▁渣	-4777
▁琅	-4778
eth	-4779
▁109	-4780
▁沂	-4781
▁瑶	-4782
▁pre	-4783
▁盔	-4784
▁lim	-4785
▁倖	-4786
▁阀	-4787
▁雯	-4788
▁肚	-4789
▁铃	-4790
▁闢	-4791
▁妈	-4792
▁л	-4793
▁聪	-4794
▁驳	-4795
▁1800	-4796
▁抹	-4797
▁蒼	-4798
▁肾	-4799
▁are	-4800
▁漲	-4801
▁侏	-4802
▁贬	-4803
ute	-4804
port	-4805
▁ta	-4806
ino	-4807
▁cro	-4808
▁濁	-4809
▁煩	-4810
▁dd	-4811
▁巾	-4812
▁沧	-4813
▁eng	-4814
▁wal	-4815
▁robert	-4816
▁媛	-4817
▁峨	-4818
▁瞭	-4819
▁飽	-4820
let	-4821
▁comm	-4822
▁渝	-4823
▁μ	-4824
▁冤	-4825
▁mp	-4826
▁汐	-4827
▁瀏	-4828
▁1880	-4829
du	-4830
▁暹	-4831
▁苻	-4832
▁乓	-4833
▁岬	-4834
▁疼	-4835
▁膛	-4836
▁03	-4837
▁ke	-4838
▁sk	-4839
▁tech	-4840
▁溢	-4841
▁128	-4842
▁虏	-4843
ico	-4844
ons	-4845
▁1894	-4846
▁open	-4847
▁舆	-4848
▁鋁	-4849
ero	-4850
▁刃	-4851
▁蚀	-4852
▁邯	-4853
era	-4854
▁渴	-4855
▁颂	-4856
▁芹	-4857
▁菇	-4858
▁•	-4859
▁脸	-4860
▁bu	-4861
▁ce	-4862
▁team	-4863
▁挝	-4864
▁赔	-4865
any	-4866
▁嗎	-4867
▁涡	-4868
▁睦	-4869
▁屡	-4870
▁驟	-4871
sa	-4872
▁苍	-4873
▁麒	-4874
▁bas	-4875
▁奢	-4876
▁汾	-4877
▁諜	-4878
▁焊	-4879
▁fa	-4880
▁sim	-4881
▁http	-4882
▁绒	-4883
▁醬	-4884
▁1871	-4885
▁paul	-4886
▁虔	-4887
▁鞏	-4888
roid	-4889
▁not	-4890
▁christ	-4891
▁堀	-4892
▁婷	-4893
▁枯	-4894
▁錶	-4895
▁nhk	-4896
▁傭	-4897
ark	-4898
las	-4899
▁贼	-4900
▁颖	-4901
▁ang	-4902
▁闆	-4903
▁噬	-4904
cm	-4905
▁芜	-4906
▁锥	-4907
▁vis	-4908
ave	-4909
▁don	-4910
▁醜	-4911
▁掀	-4912
▁枫	-4913
▁280	-4914
▁蠻	-4915
▁酿	-4916
▁group	-4917
▁贪	-4918
▁锅	-4919
▁閥	-4920
▁city	-4921
▁淞	-4922
▁詮	-4923
po	-4924
▁ア	-4925
▁118	-4926
ek	-4927
▁腕	-4928
▁cc	-4929
▁230	-4930
▁power	-4931
▁national	-4932
sc	-4933
▁ラ	-4934
que	-4935
▁婿	-4936
▁賄	-4937
▁鰓	-4938
▁112	-4939
▁棣	-4940
▁蚌	-4941
ena	-4942
▁堊	-4943
▁讽	-4944
▁钓	-4945
▁113	-4946
▁卯	-4947
▁泵	-4948
▁犧	-4949
▁胖	-4950
▁倚	-4951
▁岔	-4952
▁丕	-4953
▁啊	-4954
▁max	-4955
▁淪	-4956
▁210	-4957
▁僵	-4958
▁厉	-4959
▁吟	-4960
▁您	-4961
▁苞	-4962
▁辈	-4963
▁1885	-4964
▁1600	-4965
▁幌	-4966
▁忒	-4967
▁笠	-4968
▁賺	-4969
▁ef	-4970
▁kh	-4971
▁棺	-4972
▁纏	-4973
▁匙	-4974
▁羞	-4975
▁ts	-4976
▁java	-4977
▁摸	-4978
ael	-4979
▁mich	-4980
▁剝	-4981
▁槟	-4982
▁紮	-4983
▁ig	-4984
▁rich	-4985
▁鰕	-4986
▁骼	-4987
▁gra	-4988
oo	-4989
▁reg	-4990
▁釀	-4991
▁饱	-4992
▁amer	-4993
mp	-4994
▁pat	-4995
▁1870	-4996
▁馨	-4997
oll	-4998
▁day	-4999
▁6000	-5000
ife	-5001
ism	-5002
▁win	-5003
▁糟	-5004
ese	-5005
way	-5006
▁洽	-5007
▁sl	-5008
▁鈞	-5009
▁鉛	-5010
▁駒	-5011
▁tom	-5012
▁棵	-5013
▁璧	-5014
▁trans	-5015
▁紡	-5016
▁慌	-5017
osh	-5018
▁xbox	-5019
▁磺	-5020
▁饒	-5021
▁rad	-5022
by	-5023
ox	-5024
▁20%	-5025
▁と	-5026
▁稜	-5027
▁胀	-5028
▁na	-5029
▁mer	-5030
▁pop	-5031
▁兀	-5032
▁挡	-5033
▁濤	-5034
▁cal	-5035
▁梳	-5036
▁緻	-5037
▁塾	-5038
▁詐	-5039
osa	-5040
▁枕	-5041
▁135	-5042
▁155	-5043
ram	-5044
▁alex	-5045
▁糙	-5046
▁虧	-5047
▁骗	-5048
▁瑾	-5049
▁綽	-5050
▁榄	-5051
▁萃	-5052
▁out	-5053
▁top	-5054
▁褲	-5055
ior	-5056
▁ber	-5057
▁斧	-5058
▁禱	-5059
▁諭	-5060
▁釐	-5061
▁霆	-5062
▁fc	-5063
05	-5064
ital	-5065
▁android	-5066
▁祯	-5067
▁簿	-5068
▁嘲	-5069
▁捨	-5070
▁氰	-5071
▁紗	-5072
▁菁	-5073
▁謎	-5074
▁账	-5075
▁雾	-5076
ari	-5077
▁艮	-5078
▁铅	-5079
enc	-5080
▁霉	-5081
▁ا	-5082
▁牺	-5083
▁盪	-5084
▁cs	-5085
ham	-5086
▁ba	-5087
▁竺	-5088
▁緝	-5089
▁陡	-5090
▁魨	-5091
▁纜	-5092
▁ww	-5093
▁慾	-5094
▁撑	-5095
▁焉	-5096
▁蚤	-5097
ka	-5098
ya	-5099
▁捧	-5100
▁rna	-5101
▁1886	-5102
▁墮	-5103
▁恪	-5104
▁蟾	-5105
▁鋸	-5106
▁隍	-5107
▁30%	-5108
▁晃	-5109
▁溜	-5110
▁瞻	-5111
▁fin	-5112
▁lib	-5113
▁孵	-5114
▁幟	-5115
▁抒	-5116
ied	-5117
za	-5118
▁饥	-5119
iver	-5120
▁116	-5121
▁ク	-5122
▁浑	-5123
▁蔗	-5124
▁衫	-5125
▁钾	-5126
▁讼	-5127
▁114	-5128
▁park	-5129
▁涨	-5130
▁竊	-5131
▁闵	-5132
▁ur	-5133
go	-5134
ric	-5135
▁117	-5136
▁james	-5137
▁rock	-5138
++	-5139
▁惩	-5140
▁攤	-5141
▁祸	-5142
▁鵡	-5143
▁廁	-5144
▁90%	-5145
▁fla	-5146
pg	-5147
▁帐	-5148
▁il	-5149
▁苣	-5150
▁襪	-5151
▁1884	-5152
▁リ	-5153
▁搏	-5154
ull	-5155
▁ト	-5156
▁钧	-5157
▁kn	-5158
▁sar	-5159
▁sol	-5160
▁悦	-5161
▁芥	-5162
▁荀	-5163
▁谣	-5164
▁哉	-5165
▁坠	-5166
ield	-5167
▁750	-5168
▁〔	-5169
▁〕	-5170
▁埼	-5171
▁沽	-5172
▁蛮	-5173
▁阐	-5174
▁260	-5175
▁sam	-5176
▁な	-5177
▁磐	-5178
▁绳	-5179
▁1861	-5180
▁д	-5181
▁嗜	-5182
▁芸	-5183
oug	-5184
▁cpu	-5185
▁thom	-5186
▁谨	-5187
▁琛	-5188
▁藓	-5189
▁抨	-5190
▁ha	-5191
▁big	-5192
▁姦	-5193
▁ol	-5194
ki	-5195
▁滯	-5196
ven	-5197
▁蛾	-5198
ral	-5199
phone	-5200
▁誅	-5201
▁烃	-5202
▁熹	-5203
▁sal	-5204
▁帛	-5205
▁惧	-5206
to	-5207
▁兜	-5208
▁sun	-5209
ology	-5210
▁that	-5211
▁睹	-5212
▁1887	-5213
▁侣	-5214
▁撕	-5215
▁123	-5216
▁from	-5217
▁沸	-5218
▁滲	-5219
▁80%	-5220
▁2500	-5221
▁king	-5222
▁vir	-5223
▁time	-5224
▁1850	-5225
fl	-5226
▁ä	-5227
▁浚	-5228
▁茱	-5229
▁镶	-5230
▁org	-5231
▁pla	-5232
▁mont	-5233
▁丢	-5234
▁佣	-5235
▁暱	-5236
▁vi	-5237
▁show	-5238
▁滙	-5239
▁ibm	-5240
▁1892	-5241
▁sing	-5242
bl	-5243
▁に	-5244
▁憾	-5245
line	-5246
▁gdp	-5247
▁320	-5248
▁俾	-5249
▁晏	-5250
▁菸	-5251
ution	-5252
▁楓	-5253
▁靶	-5254
▁utc	-5255
▁尘	-5256
▁摺	-5257
▁煽	-5258
▁vol	-5259
▁bill	-5260
▁劲	-5261
▁戍	-5262
▁綏	-5263
berg	-5264
▁1893	-5265
▁techn	-5266
▁帜	-5267
▁san	-5268
fa	-5269
▁alb	-5270
▁祂	-5271
▁蔷	-5272
▁譴	-5273
▁bre	-5274
▁1862	-5275
▁1888	-5276
▁壟	-5277
▁溴	-5278
▁瀛	-5279
▁厌	-5280
▁皓	-5281
▁綴	-5282
03	-5283
▁り	-5284
▁偕	-5285
▁挤	-5286
▁穹	-5287
▁艰	-5288
▁class	-5289
▁炬	-5290
▁鲸	-5291
▁she	-5292
04	-5293
mun	-5294
dy	-5295
▁咪	-5296
▁妝	-5297
▁矽	-5298
▁禺	-5299
▁窦	-5300
ubl	-5301
▁vo	-5302
▁懋	-5303
▁鲤	-5304
▁dj	-5305
▁cat	-5306
▁michael	-5307
▁る	-5308
▁煞	-5309
▁蟬	-5310
▁fir	-5311
▁jap	-5312
▁艱	-5313
rol	-5314
▁arm	-5315
▁谴	-5316
▁龚	-5317
200	-5318
▁湊	-5319
iff	-5320
▁澀	-5321
▁畴	-5322
▁酉	-5323
▁oh	-5324
▁games	-5325
▁蕩	-5326
▁kar	-5327
undam	-5328
▁癒	-5329
▁霹	-5330
ini	-5331
▁栓	-5332
▁缪	-5333
▁mg	-5334
▁唤	-5335
▁篡	-5336
▁绣	-5337
uck	-5338
▁煥	-5339
▁隅	-5340
▁mi	-5341
▁雛	-5342
▁121	-5343
▁1868	-5344
▁酚	-5345
▁釘	-5346
▁鍊	-5347
▁sg	-5348
▁ben	-5349
▁箕	-5350
▁衞	-5351
▁122	-5352
▁mart	-5353
▁intel	-5354
▁缀	-5355
▁129	-5356
▁bet	-5357
▁tre	-5358
▁γ	-5359
▁瑤	-5360
▁1848	-5361
▁π	-5362
▁蚊	-5363
▁1876	-5364
ertain	-5365
▁洩	-5366
▁jun	-5367
▁−	-5368
▁泾	-5369
inc	-5370
▁lt	-5371
▁550	-5372
▁谍	-5373
02	-5374
▁娄	-5375
▁蘚	-5376
rit	-5377
▁hen	-5378
06	-5379
▁爷	-5380
▁翟	-5381
▁boy	-5382
▁堇	-5383
▁誦	-5384
▁record	-5385
100	-5386
▁650	-5387
▁type	-5388
▁oricon	-5389
▁妄	-5390
▁1883	-5391
▁皂	-5392
▁祕	-5393
▁铎	-5394
form	-5395
ication	-5396
▁妨	-5397
▁祚	-5398
▁邹	-5399
▁镑	-5400
▁殲	-5401
▁贖	-5402
▁gener	-5403
▁iphone	-5404
▁м	-5405
▁ま	-5406
▁豎	-5407
▁逗	-5408
▁鄒	-5409
▁钙	-5410
▁ve	-5411
▁ios	-5412
▁black	-5413
ange	-5414
▁敞	-5415
▁曙	-5416
▁贩	-5417
▁闹	-5418
▁1864	-5419
▁jack	-5420
▁缮	-5421
▁黜	-5422
▁college	-5423
▁椭	-5424
▁艷	-5425
▁荫	-5426
▁譬	-5427
▁轩	-5428
▁127	-5429
▁der	-5430
▁inc	-5431
▁蘊	-5432
▁鑒	-5433
▁薰	-5434
▁乍	-5435
ator	-5436
▁270	-5437
▁70%	-5438
▁曜	-5439
▁閻	-5440
▁ok	-5441
▁峭	-5442
▁dan	-5443
▁mil	-5444
▁竖	-5445
▁119	-5446
▁media	-5447
▁冻	-5448
▁bel	-5449
▁wii	-5450
▁arch	-5451
▁serv	-5452
ep	-5453
▁滥	-5454
our	-5455
▁atp	-5456
▁屑	-5457
▁硼	-5458
▁鈔	-5459
▁bi	-5460
▁bm	-5461
▁hot	-5462
▁les	-5463
08	-5464
▁澜	-5465
▁瘟	-5466
▁sky	-5467
▁unix	-5468
▁傀	-5469
▁俸	-5470
▁慨	-5471
▁瑛	-5472
▁sub	-5473
▁楞	-5474
▁nat	-5475
▁euro	-5476
▁羟	-5477
▁舷	-5478
▁蕴	-5479
▁fm	-5480
▁126	-5481
▁坟	-5482
▁暮	-5483
▁濠	-5484
▁臧	-5485
▁鈾	-5486
▁gundam	-5487
bi	-5488
fs	-5489
▁崑	-5490
▁氦	-5491
▁ul	-5492
▁133	-5493
▁award	-5494
▁烂	-5495
▁鑫	-5496
▁麾	-5497
▁1877	-5498
▁port	-5499
▁aut	-5500
▁rom	-5501
▁entertain	-5502
fc	-5503
▁骤	-5504
▁fire	-5505
▁く	-5506
▁靴	-5507
ety	-5508
▁177	-5509
▁fil	-5510
uss	-5511
▁est	-5512
▁tour	-5513
▁祷	-5514
ano	-5515
por	-5516
▁145	-5517
▁ga	-5518
▁1879	-5519
▁entertainment	-5520
▁彤	-5521
▁稠	-5522
▁羲	-5523
ita	-5524
▁ju	-5525
▁produ	-5526
▁巳	-5527
▁灶	-5528
▁繹	-5529
ipt	-5530
net	-5531
ris	-5532
▁dem	-5533
▁儡	-5534
▁赌	-5535
▁ant	-5536
▁best	-5537
▁捍	-5538
▁lang	-5539
cd	-5540
▁き	-5541
▁刹	-5542
▁峪	-5543
▁萝	-5544
min	-5545
▁1874	-5546
▁club	-5547
▁鈕	-5548
▁1840	-5549
▁charles	-5550
▁靡	-5551
▁鹹	-5552
▁1865	-5553
▁japan	-5554
▁芋	-5555
▁dire	-5556
▁wat	-5557
ada	-5558
▁nt	-5559
▁env	-5560
itter	-5561
▁嬪	-5562
▁燦	-5563
▁肽	-5564
▁虾	-5565
▁144	-5566
▁associ	-5567
▁george	-5568
▁吡	-5569
▁驰	-5570
▁1872	-5571
▁1891	-5572
▁7000	-5573
▁richard	-5574
▁吵	-5575
▁夭	-5576
▁渾	-5577
▁煎	-5578
che	-5579
▁cre	-5580
07	-5581
wn	-5582
▁疯	-5583
▁house	-5584
▁〜	-5585
▁淇	-5586
▁葫	-5587
▁蟻	-5588
▁諫	-5589
urt	-5590
▁1863	-5591
▁land	-5592
▁樱	-5593
▁笃	-5594
▁謬	-5595
▁闡	-5596
▁λ	-5597
▁缔	-5598
▁40%	-5599
▁mid	-5600
▁娟	-5601
▁拦	-5602
▁莓	-5603
▁谕	-5604
yth	-5605
▁175	-5606
▁鲨	-5607
▁1875	-5608
▁σ	-5609
▁さ	-5610
▁胥	-5611
▁轎	-5612
▁rh	-5613
ican	-5614
▁may	-5615
▁gt	-5616
▁1867	-5617
▁spec	-5618
▁壺	-5619
▁昊	-5620
▁汞	-5621
▁霄	-5622
▁165	-5623
▁ast	-5624
▁dist	-5625
▁埗	-5626
lin	-5627
▁lu	-5628
ensis	-5629
▁dream	-5630
▁у	-5631
▁渥	-5632
ump	-5633
▁斡	-5634
▁pal	-5635
▁1882	-5636
its	-5637
▁end	-5638
▁wil	-5639
▁miss	-5640
▁枣	-5641
▁笨	-5642
▁www	-5643
▁work	-5644
▁盎	-5645
▁124	-5646
▁phil	-5647
▁west	-5648
▁垦	-5649
ista	-5650
▁737	-5651
▁\	-5652
▁ッ	-5653
▁伶	-5654
▁恕	-5655
▁卤	-5656
▁沐	-5657
▁砸	-5658
▁簇	-5659
ily	-5660
▁5%	-5661
▁van	-5662
▁life	-5663
▁は	-5664
erson	-5665
▁apple	-5666
▁芮	-5667
▁amd	-5668
▁樺	-5669
▁皋	-5670
▁钥	-5671
▁隘	-5672
▁rev	-5673
▁sir	-5674
press	-5675
▁1869	-5676
▁δ	-5677
▁柜	-5678
▁篷	-5679
▁酪	-5680
▁胰	-5681
▁佬	-5682
▁1866	-5683
▁掣	-5684
▁郸	-5685
▁si	-5686
▁bus	-5687
▁匀	-5688
▁苟	-5689
ora	-5690
ors	-5691
▁stre	-5692
▁kg	-5693
▁1881	-5694
▁侮	-5695
▁潼	-5696
▁聶	-5697
▁豁	-5698
▁cv	-5699
sd	-5700
▁が	-5701
▁淄	-5702
▁ko	-5703
ella	-5704
▁1873	-5705
▁刮	-5706
▁溺	-5707
ford	-5708
▁137	-5709
▁嘯	-5710
▁垄	-5711
▁烦	-5712
▁鉤	-5713
▁咽	-5714
▁瑩	-5715
▁誇	-5716
▁鶯	-5717
▁rem	-5718
ville	-5719
▁濒	-5720
ions	-5721
▁鈉	-5722
▁60%	-5723
▁luc	-5724
▁醚	-5725
ery	-5726
ugh	-5727
▁156	-5728
▁747	-5729
▁靼	-5730
▁138	-5731
▁led	-5732
▁ram	-5733
▁tim	-5734
ula	-5735
▁first	-5736
▁陋	-5737
▁was	-5738
▁gold	-5739
▁sport	-5740
ij	-5741
▁椰	-5742
▁腥	-5743
▁滬	-5744
▁莆	-5745
ateg	-5746
▁叱	-5747
▁奚	-5748
▁泣	-5749
▁諒	-5750
▁蒜	-5751
▁1878	-5752
▁1400	-5753
▁こ	-5754
wan	-5755
▁adv	-5756
▁mel	-5757
ze	-5758
▁沦	-5759
▁炯	-5760
▁竇	-5761
▁繡	-5762
▁grand	-5763
▁direct	-5764
▁炫	-5765
▁証	-5766
▁諱	-5767
▁餓	-5768
ren	-5769
▁office	-5770
▁扔	-5771
▁project	-5772
▁ω	-5773
▁ら	-5774
▁hel	-5775
▁free	-5776
▁嶽	-5777
▁鈣	-5778
ware	-5779
▁fam	-5780
▁ger	-5781
▁冉	-5782
▁沮	-5783
▁only	-5784
▁薹	-5785
▁hol	-5786
▁8000	-5787
ws	-5788
▁壕	-5789
▁憩	-5790
▁顎	-5791
app	-5792
▁滞	-5793
▁绸	-5794
▁鎌	-5795
▁ka	-5796
▁kr	-5797
▁132	-5798
▁泪	-5799
▁膳	-5800
▁萎	-5801
▁蠟	-5802
101	-5803
ated	-5804
▁ε	-5805
▁叹	-5806
▁衢	-5807
▁鞘	-5808
▁abc	-5809
▁100%	-5810
▁1300	-5811
▁吗	-5812
▁窃	-5813
▁limited	-5814
ql	-5815
▁謊	-5816
▁if	-5817
▁html	-5818
▁thomas	-5819
▁醋	-5820
▁鉅	-5821
▁頑	-5822
▁驿	-5823
▁inf	-5824
▁log	-5825
▁妍	-5826
▁拷	-5827
▁槐	-5828
▁sr	-5829
▁cam	-5830
▁gar	-5831
ision	-5832
▁road	-5833
▁厨	-5834
▁蜡	-5835
cess	-5836
▁205	-5837
ci	-5838
▁艳	-5839
▁ann	-5840
▁幡	-5841
▁覓	-5842
▁â	-5843
▁peter	-5844
▁嘆	-5845
▁巖	-5846
▁萱	-5847
▁ob	-5848
▁kbs	-5849
▁jose	-5850
▁敛	-5851
▁隼	-5852
▁飄	-5853
▁dec	-5854
▁mad	-5855
▁鼬	-5856
▁mem	-5857
▁form	-5858
▁sony	-5859
ander	-5860
▁166	-5861
▁company	-5862
▁曦	-5863
▁this	-5864
▁ç	-5865
▁み	-5866
▁漕	-5867
▁肛	-5868
▁south	-5869
▁寝	-5870
▁晟	-5871
▁舵	-5872
▁ear	-5873
▁line	-5874
▁north	-5875
▁哆	-5876
▁垫	-5877
▁驼	-5878
bn	-5879
▁兌	-5880
▁擱	-5881
▁晖	-5882
▁pan	-5883
▁china	-5884
▁咎	-5885
▁昧	-5886
▁毯	-5887
▁阱	-5888
▁陛	-5889
▁dom	-5890
▁甬	-5891
ste	-5892
▁wid	-5893
▁hall	-5894
▁twitter	-5895
▁剃	-5896
▁莒	-5897
▁鑰	-5898
▁unic	-5899
▁悖	-5900
▁臼	-5901
▁诛	-5902
▁pi	-5903
ular	-5904
▁sum	-5905
▁侖	-5906
▁柑	-5907
▁毘	-5908
▁洼	-5909
com	-5910
▁wr	-5911
ates	-5912
cript	-5913
▁庾	-5914
▁疹	-5915
▁繆	-5916
ous	-5917
vin	-5918
▁シ	-5919
▁american	-5920
▁悄	-5921
▁惱	-5922
▁渗	-5923
▁pd	-5924
09	-5925
▁斃	-5926
▁淤	-5927
▁渲	-5928
▁绰	-5929
ester	-5930
▁ever	-5931
▁扯	-5932
▁鄞	-5933
▁鰈	-5934
vid	-5935
▁tc	-5936
▁long	-5937
▁僖	-5938
▁檬	-5939
▁纱	-5940
▁п	-5941
▁タ	-5942
▁恤	-5943
itch	-5944
▁146	-5945
▁380	-5946
▁mob	-5947
▁mtv	-5948
▁て	-5949
▁垮	-5950
▁fer	-5951
▁←	-5952
▁呆	-5953
▁墊	-5954
▁篆	-5955
ets	-5956
ura	-5957
▁aa	-5958
▁1830	-5959
▁侗	-5960
▁倩	-5961
▁廬	-5962
▁戮	-5963
001	-5964
▁franc	-5965
▁湄	-5966
▁琶	-5967
▁136	-5968
▁330	-5969
dr	-5970
▁佚	-5971
▁卉	-5972
▁苛	-5973
▁1853	-5974
▁1859	-5975
▁chem	-5976
▁over	-5977
▁お	-5978
▁姨	-5979
▁瞿	-5980
▁駝	-5981
▁roy	-5982
▁camp	-5983
▁chin	-5984
▁沾	-5985
▁衆	-5986
urus	-5987
▁134	-5988
▁ジ	-5989
▁汲	-5990
▁琵	-5991
▁笙	-5992
▁裘	-5993
▁fi	-5994
clude	-5995
▁汴	-5996
▁聆	-5997
ger	-5998
▁1857	-5999
▁records	-6000
▁愁	-6001
▁214	-6002
▁bab	-6003
▁ray	-6004
▁sci	-6005
▁sig	-6006
▁弈	-6007
▁楔	-6008
▁絨	-6009
▁131	-6010
▁mov	-6011
▁悍	-6012
▁拐	-6013
▁朽	-6014
▁槳	-6015
▁齣	-6016
▁ltd	-6017
▁nov	-6018
▁殆	-6019
▁畝	-6020
sm	-6021
ker	-6022
mus	-6023
▁139	-6024
▁mbc	-6025
ama	-6026
idge	-6027
▁dig	-6028
▁葱	-6029
▁駱	-6030
▁鳍	-6031
sch	-6032
▁寰	-6033
▁汙	-6034
eration	-6035
▁潑	-6036
▁臻	-6037
ble	-6038
iew	-6039
▁154	-6040
▁lou	-6041
▁andre	-6042
▁instit	-6043
▁ل	-6044
▁嫔	-6045
▁毙	-6046
▁綾	-6047
▁跪	-6048
▁mb	-6049
▁1841	-6050
▁good	-6051
wa	-6052
▁倆	-6053
▁磊	-6054
▁xp	-6055
▁420	-6056
▁dos	-6057
▁gnu	-6058
▁batt	-6059
▁傻	-6060
▁燮	-6061
▁稷	-6062
▁1858	-6063
▁nasa	-6064
▁association	-6065
ko	-6066
▁揆	-6067
▁灼	-6068
▁盼	-6069
▁蒐	-6070
▁蜴	-6071
unes	-6072
0%	-6073
no	-6074
▁勻	-6075
▁焕	-6076
▁绅	-6077
▁飘	-6078
▁骆	-6079
▁15%	-6080
▁168	-6081
▁沅	-6082
▁蕙	-6083
▁陂	-6084
bor	-6085
▁law	-6086
▁tro	-6087
▁152	-6088
▁ext	-6089
▁镍	-6090
▁internet	-6091
▁啸	-6092
▁诵	-6093
▁锌	-6094
▁lis	-6095
pp	-6096
▁兑	-6097
▁恥	-6098
▁驕	-6099
▁埕	-6100
▁珂	-6101
▁翊	-6102
▁饲	-6103
ani	-6104
▁td	-6105
▁jon	-6106
▁1700	-6107
▁嬌	-6108
▁滄	-6109
▁ο	-6110
▁绎	-6111
els	-6112
▁kong	-6113
▁great	-6114
▁unicode	-6115
ex	-6116
▁啶	-6117
▁媚	-6118
▁竿	-6119
▁褚	-6120
▁雉	-6121
ents	-6122
▁street	-6123
▁ロ	-6124
▁撼	-6125
ball	-6126
▁256	-6127
▁圩	-6128
▁蚜	-6129
▁霰	-6130
▁骏	-6131
ush	-6132
▁pp	-6133
▁850	-6134
▁mir	-6135
▁1854	-6136
▁壶	-6137
▁羧	-6138
▁陌	-6139
▁soci	-6140
▁蜗	-6141
▁鈍	-6142
▁vict	-6143
▁凿	-6144
▁攬	-6145
▁苓	-6146
▁遏	-6147
▁桔	-6148
urs	-6149
▁bb	-6150
mann	-6151
▁mot	-6152
▁tar	-6153
▁tem	-6154
▁1100	-6155
▁1851	-6156
▁ν	-6157
▁産	-6158
▁飢	-6159
▁sbs	-6160
▁糯	-6161
▁酱	-6162
gin	-6163
▁tai	-6164
▁ち	-6165
▁杞	-6166
erv	-6167
ason	-6168
▁340	-6169
▁def	-6170
▁doc	-6171
▁ham	-6172
▁tor	-6173
▁categ	-6174
▁studio	-6175
▁攸	-6176
▁閔	-6177
▁ova	-6178
▁202	-6179
▁あ	-6180
▁侬	-6181
▁235	-6182
▁301	-6183
▁enviro	-6184
▁±	-6185
▁ú	-6186
▁潞	-6187
▁甥	-6188
▁褶	-6189
led	-6190
▁濮	-6191
▁茛	-6192
▁訥	-6193
▁贛	-6194
▁211	-6195
ja	-6196
ny	-6197
▁25%	-6198
▁370	-6199
▁von	-6200
▁1856	-6201
▁town	-6202
▁マ	-6203
▁鳩	-6204
ague	-6205
▁jul	-6206
▁hong	-6207
▁丫	-6208
▁栅	-6209
itz	-6210
▁1%	-6211
▁gp	-6212
▁cct	-6213
▁樵	-6214
▁胱	-6215
▁魄	-6216
▁dl	-6217
▁ly	-6218
▁147	-6219
▁203	-6220
▁mal	-6221
zz	-6222
▁侃	-6223
▁谏	-6224
olf	-6225
▁153	-6226
▁hell	-6227
▁news	-6228
▁soft	-6229
▁坍	-6230
▁脾	-6231
ough	-6232
▁148	-6233
▁カ	-6234
▁澱	-6235
▁閏	-6236
▁ah	-6237
▁au	-6238
▁ll	-6239
▁151	-6240
▁island	-6241
idae	-6242
▁bal	-6243
▁squ	-6244
▁1847	-6245
▁卅	-6246
▁畸	-6247
▁fun	-6248
▁pag	-6249
▁elect	-6250
▁category	-6251
▁捆	-6252
▁泼	-6253
▁hum	-6254
▁1852	-6255
▁喃	-6256
▁檳	-6257
▁跆	-6258
▁key	-6259
ative	-6260
▁post	-6261
▁秃	-6262
fer	-6263
ila	-6264
ling	-6265
▁just	-6266
▁publ	-6267
▁г	-6268
▁嵐	-6269
▁暉	-6270
▁浜	-6271
▁缆	-6272
▁hs	-6273
▁480	-6274
▁home	-6275
▁圃	-6276
▁烘	-6277
▁珪	-6278
▁network	-6279
my	-6280
▁杠	-6281
▁躁	-6282
▁bay	-6283
▁hal	-6284
▁ret	-6285
ua	-6286
▁gb	-6287
▁lee	-6288
▁east	-6289
▁妆	-6290
▁皈	-6291
▁葆	-6292
▁鑿	-6293
▁401	-6294
▁river	-6295
ucn	-6296
burg	-6297
▁far	-6298
▁椿	-6299
▁耦	-6300
▁饿	-6301
▁158	-6302
▁1844	-6303
▁mill	-6304
ui	-6305
▁吓	-6306
▁擄	-6307
▁锯	-6308
ody	-6309
▁lar	-6310
▁弋	-6311
▁洮	-6312
▁琰	-6313
▁缠	-6314
▁ry	-6315
▁218	-6316
▁iucn	-6317
▁侈	-6318
▁甦	-6319
▁1855	-6320
▁blue	-6321
▁girls	-6322
▁餉	-6323
ney	-6324
▁sv	-6325
ally	-6326
▁but	-6327
▁song	-6328
▁ρ	-6329
▁○	-6330
▁弩	-6331
▁柵	-6332
▁鉀	-6333
▁鐮	-6334
▁gi	-6335
ache	-6336
▁妒	-6337
▁锤	-6338
▁鬍	-6339
ury	-6340
▁й	-6341
▁孺	-6342
▁踩	-6343
▁龔	-6344
▁om	-6345
▁green	-6346
▁叡	-6347
▁嫻	-6348
▁蔑	-6349
▁141	-6350
▁虢	-6351
▁誣	-6352
▁锂	-6353
▁鰨	-6354
▁鳚	-6355
▁henry	-6356
▁亏	-6357
▁窯	-6358
▁趟	-6359
▁215	-6360
▁1815	-6361
include	-6362
mo	-6363
▁嘻	-6364
▁拌	-6365
▁浊	-6366
▁143	-6367
▁167	-6368
▁how	-6369
▁champ	-6370
▁峯	-6371
ips	-6372
▁430	-6373
▁1812	-6374
▁vide	-6375
▁桅	-6376
▁砷	-6377
▁蟒	-6378
red	-6379
ific	-6380
▁206	-6381
▁221	-6382
▁rpg	-6383
wood	-6384
▁176	-6385
▁毋	-6386
▁濂	-6387
als	-6388
▁ny	-6389
▁142	-6390
▁bor	-6391
▁1846	-6392
▁pres	-6393
pc	-6394
▁@	-6395
▁谟	-6396
▁db	-6397
▁who	-6398
ru	-6399
▁唸	-6400
▁蚁	-6401
▁鷲	-6402
ther	-6403
▁1849	-6404
▁僉	-6405
▁啓	-6406
▁遁	-6407
▁173	-6408
▁tal	-6409
▁hist	-6410
▁sant	-6411
▁媳	-6412
▁撃	-6413
▁籽	-6414
▁謨	-6415
▁mt	-6416
▁208	-6417
▁225	-6418
▁cle	-6419
▁soc	-6420
▁progr	-6421
▁ə	-6422
▁壢	-6423
▁芷	-6424
▁ai	-6425
▁204	-6426
▁frank	-6427
ns	-6428
▁τ	-6429
▁莘	-6430
▁闯	-6431
ats	-6432
▁az	-6433
▁159	-6434
▁mak	-6435
▁var	-6436
▁ι	-6437
▁瑋	-6438
asc	-6439
▁410	-6440
▁cra	-6441
▁inv	-6442
▁leg	-6443
▁white	-6444
▁儉	-6445
▁163	-6446
▁jean	-6447
▁stand	-6448
ih	-6449
▁瀾	-6450
▁蠕	-6451
▁靂	-6452
ipp	-6453
ira	-6454
▁api	-6455
▁die	-6456
▁ros	-6457
▁band	-6458
▁online	-6459
xy	-6460
▁〇	-6461
▁喘	-6462
▁鏢	-6463
rop	-6464
▁md	-6465
▁tur	-6466
▁server	-6467
▁殭	-6468
▁缉	-6469
res	-6470
ison	-6471
▁310	-6472
▁bob	-6473
▁ign	-6474
▁sat	-6475
▁cast	-6476
▁刁	-6477
▁匆	-6478
▁咏	-6479
▁袜	-6480
ota	-6481
rich	-6482
▁que	-6483
ather	-6484
▁bank	-6485
▁width	-6486
▁蔥	-6487
▁铀	-6488
▁陨	-6489
201	-6490
ops	-6491
▁core	-6492
▁joseph	-6493
li	-6494
▁ς	-6495
▁轿	-6496
▁162	-6497
▁tbs	-6498
▁xml	-6499
▁じ	-6500
▁澈	-6501
▁燭	-6502
▁cf	-6503
▁dar	-6504
▁nbc	-6505
▁girl	-6506
▁real	-6507
▁濬	-6508
rpm	-6509
▁238	-6510
▁usb	-6511
▁hill	-6512
▁general	-6513
▁б	-6514
▁冢	-6515
▁闰	-6516
ift	-6517
obe	-6518
▁state	-6519
▁鮨	-6520
urch	-6521
▁290	-6522
field	-6523
▁expl	-6524
▁fran	-6525
gy	-6526
▁俭	-6527
▁泸	-6528
▁畑	-6529
▁縛	-6530
▁襟	-6531
unc	-6532
▁engine	-6533
▁itunes	-6534
▁毆	-6535
▁茉	-6536
▁裳	-6537
▁mu	-6538
▁syn	-6539
▁1820	-6540
si	-6541
▁勐	-6542
▁筠	-6543
▁钞	-6544
▁ot	-6545
▁spr	-6546
▁栈	-6547
▁槃	-6548
▁舺	-6549
▁艋	-6550
▁薑	-6551
well	-6552
▁吼	-6553
▁赎	-6554
501	-6555
▁207	-6556
▁cross	-6557
xx	-6558
▁倦	-6559
▁圻	-6560
▁蓼	-6561
▁ice	-6562
▁ド	-6563
▁拂	-6564
▁粥	-6565
▁邕	-6566
▁陞	-6567
▁馈	-6568
ocal	-6569
▁灑	-6570
▁狠	-6571
▁瞳	-6572
▁001	-6573
▁num	-6574
▁1843	-6575
▁year	-6576
▁も	-6577
▁傣	-6578
▁樁	-6579
▁痴	-6580
▁韌	-6581
▁骂	-6582
500	-6583
ima	-6584
▁1789	-6585
ope	-6586
▁tu	-6587
ning	-6588
▁157	-6589
▁209	-6590
▁carl	-6591
▁prof	-6592
▁light	-6593
▁à	-6594
▁瀋	-6595
▁蠅	-6596
▁鋰	-6597
▁149	-6598
▁164	-6599
▁フ	-6600
▁瑕	-6601
▁遴	-6602
▁1842	-6603
▁litt	-6604
▁distr	-6605
▁battle	-6606
▁commun	-6607
▁崁	-6608
▁檻	-6609
▁氹	-6610
▁迥	-6611
ars	-6612
atic	-6613
▁bon	-6614
▁vii	-6615
ional	-6616
▁晦	-6617
▁襯	-6618
▁驛	-6619
ios	-6620
▁182	-6621
▁nav	-6622
▁two	-6623
▁1814	-6624
▁掖	-6625
▁琥	-6626
▁212	-6627
▁cons	-6628
▁united	-6629
▁ô	-6630
▁仄	-6631
▁岷	-6632
▁碉	-6633
▁鱈	-6634
301	-6635
▁216	-6636
▁僻	-6637
▁挾	-6638
▁dm	-6639
ival	-6640
▁name	-6641
▁league	-6642
oy	-6643
▁瀚	-6644
▁bur	-6645
azine	-6646
▁オ	-6647
▁姪	-6648
▁耻	-6649
▁蚕	-6650
den	-6651
▁1795	-6652
▁峇	-6653
▁斛	-6654
▁ct	-6655
▁冗	-6656
▁埤	-6657
▁愧	-6658
▁暈	-6659
▁柿	-6660
▁瀧	-6661
▁軀	-6662
▁钉	-6663
▁饋	-6664
▁1845	-6665
ington	-6666
▁mount	-6667
▁video	-6668
▁visual	-6669
▁society	-6670
ty	-6671
▁‰	-6672
▁を	-6673
▁昼	-6674
▁檗	-6675
ids	-6676
▁911	-6677
▁god	-6678
▁jac	-6679
▁isbn	-6680
▁レ	-6681
▁朕	-6682
▁琮	-6683
▁躺	-6684
ette	-6685
▁rep	-6686
▁anim	-6687
▁book	-6688
▁撈	-6689
▁潢	-6690
▁瀉	-6691
▁蝇	-6692
▁蠢	-6693
▁谜	-6694
▁鎧	-6695
ule	-6696
▁cur	-6697
earch	-6698
▁れ	-6699
▁勛	-6700
▁吠	-6701
▁硒	-6702
▁豔	-6703
pha	-6704
▁10000	-6705
▁child	-6706
▁鳅	-6707
▁men	-6708
▁way	-6709
▁vista	-6710
▁martin	-6711
▁production	-6712
▁阙	-6713
▁鷺	-6714
gen	-6715
▁dh	-6716
edia	-6717
▁222	-6718
▁dep	-6719
▁young	-6720
▁research	-6721
▁溧	-6722
▁饑	-6723
iana	-6724
▁601	-6725
▁ceo	-6726
▁has	-6727
▁poly	-6728
cy	-6729
tl	-6730
▁鷗	-6731
ird	-6732
▁xx	-6733
▁crh	-6734
▁dev	-6735
▁mobile	-6736
▁恺	-6737
▁檎	-6738
▁錘	-6739
▁171	-6740
▁cas	-6741
▁gal	-6742
▁1792	-6743
▁night	-6744
▁magazine	-6745
▁妊	-6746
▁瞞	-6747
▁輾	-6748
▁cg	-6749
raph	-6750
▁hor	-6751
▁aust	-6752
lation	-6753
▁つ	-6754
▁洙	-6755
▁鱇	-6756
une	-6757
▁172	-6758
▁sel	-6759
▁heart	-6760
iy	-6761
▁璽	-6762
▁耍	-6763
▁fu	-6764
▁169	-6765
▁181	-6766
▁184	-6767
▁223	-6768
▁disc	-6769
▁や	-6770
▁剔	-6771
▁唑	-6772
▁寢	-6773
▁悚	-6774
▁迂	-6775
isc	-6776
▁small	-6777
▁攏	-6778
▁绛	-6779
▁逵	-6780
▁酥	-6781
▁昱	-6782
▁糞	-6783
▁翎	-6784
▁螯	-6785
▁顽	-6786
ape	-6787
▁pv	-6788
▁640	-6789
▁bit	-6790
▁pass	-6791
▁radio	-6792
ni	-6793
▁キ	-6794
▁礫	-6795
▁蓟	-6796
601	-6797
▁217	-6798
▁440	-6799
▁720	-6800
▁熵	-6801
▁訶	-6802
▁钊	-6803
▁锈	-6804
▁hu	-6805
▁610	-6806
▁cho	-6807
▁pac	-6808
▁sin	-6809
▁1776	-6810
▁mult	-6811
▁暇	-6812
▁猷	-6813
▁矚	-6814
▁诬	-6815
▁box	-6816
▁cbs	-6817
▁your	-6818
▁婢	-6819
▁鮟	-6820
amm	-6821
▁cry	-6822
▁model	-6823
▁咳	-6824
▁扈	-6825
▁櫛	-6826
▁荧	-6827
peg	-6828
▁pm	-6829
▁179	-6830
▁75%	-6831
▁777	-6832
▁cha	-6833
▁institute	-6834
▁κ	-6835
▁す	-6836
▁憐	-6837
▁枋	-6838
▁賤	-6839
▁鰍	-6840
bit	-6841
▁foot	-6842
▁mary	-6843
▁louis	-6844
▁manag	-6845
▁little	-6846
▁φ	-6847
▁掷	-6848
▁矯	-6849
▁釉	-6850
701	-6851
801	-6852
▁228	-6853
▁rub	-6854
▁run	-6855
▁綺	-6856
▁緋	-6857
▁薨	-6858
▁詛	-6859
▁钝	-6860
och	-6861
▁rd	-6862
▁ub	-6863
▁183	-6864
▁jump	-6865
▁だ	-6866
▁螂	-6867
▁ti	-6868
▁mit	-6869
▁son	-6870
vidia	-6871
▁cctv	-6872
▁smith	-6873
▁nvidia	-6874
fe	-6875
▁俩	-6876
▁槭	-6877
▁衬	-6878
oid	-6879
▁255	-6880
▁3500	-6881
▁tele	-6882
▁я	-6883
▁忻	-6884
▁皿	-6885
▁禿	-6886
▁醣	-6887
force	-6888
ks	-6889
▁囑	-6890
▁帘	-6891
▁幂	-6892
▁訝	-6893
▁賃	-6894
ree	-6895
▁under	-6896
▁エ	-6897
off	-6898
agon	-6899
▁460	-6900
▁mur	-6901
▁metac	-6902
▁victor	-6903
▁拙	-6904
▁璜	-6905
▁讳	-6906
▁诈	-6907
▁跤	-6908
ola	-6909
▁365	-6910
▁htc	-6911
▁let	-6912
▁flash	-6913
▁ن	-6914
▁婁	-6915
▁逍	-6916
▁kw	-6917
▁cir	-6918
▁jan	-6919
▁service	-6920
▁咤	-6921
▁昨	-6922
▁癮	-6923
ister	-6924
▁code	-6925
▁store	-6926
▁嫉	-6927
▁孀	-6928
▁樽	-6929
▁靳	-6930
▁駭	-6931
▁219	-6932
ection	-6933
▁junior	-6934
▁佟	-6935
▁奘	-6936
▁桩	-6937
▁殯	-6938
▁膺	-6939
▁鎂	-6940
▁韬	-6941
▁颐	-6942
▁ae	-6943
▁325	-6944
▁wwe	-6945
▁eric	-6946
ization	-6947
▁曬	-6948
▁沱	-6949
▁275	-6950
▁560	-6951
▁bea	-6952
▁nad	-6953
▁sql	-6954
velop	-6955
▁匝	-6956
▁捏	-6957
▁潍	-6958
▁蝽	-6959
▁non	-6960
▁scott	-6961
zy	-6962
▁で	-6963
▁兖	-6964
▁婭	-6965
▁嶄	-6966
▁砾	-6967
board	-6968
▁1838	-6969
▁ミ	-6970
▁榨	-6971
▁渚	-6972
▁眺	-6973
▁裤	-6974
901	-6975
▁fn	-6976
ient	-6977
annel	-6978
▁1821	-6979
▁1832	-6980
▁肘	-6981
ures	-6982
▁dor	-6983
pi	-6984
▁宸	-6985
▁楨	-6986
▁璇	-6987
▁羰	-6988
▁轅	-6989
aga	-6990
ida	-6991
▁mas	-6992
▁rap	-6993
▁sem	-6994
▁1793	-6995
▁point	-6996
▁碁	-6997
▁頤	-6998
▁鴿	-6999
▁鸽	-7000
ato	-7001
eter	-7002
▁moz	-7003
▁corpor	-7004
▁bh	-7005
▁rs	-7006
▁low	-7007
▁1801	-7008
▁1836	-7009
▁グ	-7010
▁擂	-7011
▁沌	-7012
▁茫	-7013
▁麝	-7014
gbt	-7015
adem	-7016
▁jim	-7017
▁sound	-7018
▁explor	-7019
▁master	-7020
fr	-7021
▁妳	-7022
▁曳	-7023
▁諺	-7024
▁鮭	-7025
401	-7026
gar	-7027
ost	-7028
▁gm	-7029
▁ki	-7030
▁1839	-7031
▁貂	-7032
▁ml	-7033
▁161	-7034
▁apg	-7035
▁aug	-7036
▁word	-7037
▁堕	-7038
▁钮	-7039
acy	-7040
▁265	-7041
ender	-7042
▁1810	-7043
▁bern	-7044
▁剎	-7045
▁惰	-7046
▁扼	-7047
▁蜱	-7048
▁ns	-7049
▁sand	-7050
▁榔	-7051
▁歪	-7052
▁綢	-7053
▁雏	-7054
▁黯	-7055
lad	-7056
▁cu	-7057
▁gh	-7058
cast	-7059
cher	-7060
▁233	-7061
▁den	-7062
▁nam	-7063
▁mach	-7064
▁edward	-7065
mi	-7066
▁倘	-7067
▁岚	-7068
▁眶	-7069
win	-7070
ense	-7071
ural	-7072
▁213	-7073
▁540	-7074
ritic	-7075
▁1837	-7076
▁plus	-7077
▁chinese	-7078
▁metacritic	-7079
gs	-7080
▁奄	-7081
▁晝	-7082
▁煜	-7083
▁篩	-7084
▁餵	-7085
ely	-7086
▁308	-7087
▁att	-7088
▁mos	-7089
ocket	-7090
▁^	-7091
▁悶	-7092
▁斂	-7093
▁馏	-7094
out	-7095
▁psp	-7096
▁tak	-7097
▁1806	-7098
▁plan	-7099
▁brown	-7100
▁royal	-7101
▁church	-7102
▁station	-7103
▁馴	-7104
▁鼩	-7105
asy	-7106
eck	-7107
▁sen	-7108
▁control	-7109
▁express	-7110
▁special	-7111
▁巍	-7112
▁炙	-7113
▁瑄	-7114
▁莺	-7115
▁詭	-7116
▁鍛	-7117
hell	-7118
▁501	-7119
▁95%	-7120
▁arr	-7121
▁ins	-7122
▁pent	-7123
▁union	-7124
▁筛	-7125
▁蛟	-7126
▁诃	-7127
▁赚	-7128
▁鄙	-7129
▁530	-7130
▁set	-7131
▁develop	-7132
▁コ	-7133
▁偃	-7134
▁嘱	-7135
▁懶	-7136
▁熄	-7137
▁頰	-7138
▁aw	-7139
▁bc	-7140
▁hom	-7141
▁iee	-7142
ility	-7143
▁const	-7144
▁兗	-7145
▁惕	-7146
▁昵	-7147
▁炔	-7148
▁隴	-7149
▁鸠	-7150
col	-7151
▁2%	-7152
▁229	-7153
▁618	-7154
ji	-7155
▁巽	-7156
▁帧	-7157
▁鄱	-7158
▁fed	-7159
▁1790	-7160
▁ieee	-7161
▁technology	-7162
▁チ	-7163
▁迺	-7164
▁234	-7165
▁hon	-7166
▁kir	-7167
▁lam	-7168
▁brit	-7169
▁party	-7170
▁taiwan	-7171
▁坳	-7172
▁嫂	-7173
▁磋	-7174
▁鬣	-7175
▁nm	-7176
bert	-7177
▁239	-7178
▁950	-7179
▁bad	-7180
▁asia	-7181
▁glob	-7182
olution	-7183
▁sports	-7184
▁θ	-7185
▁叻	-7186
▁摊	-7187
▁牒	-7188
▁绞	-7189
▁鞑	-7190
▁黴	-7191
300	-7192
ces	-7193
cus	-7194
tps	-7195
▁802	-7196
▁氙	-7197
▁翹	-7198
▁魮	-7199
380	-7200
ohc	-7201
ret	-7202
▁lg	-7203
▁311	-7204
▁1825	-7205
▁next	-7206
ations	-7207
▁comic	-7208
▁叮	-7209
▁怜	-7210
▁桦	-7211
▁氓	-7212
▁涧	-7213
▁絮	-7214
▁綸	-7215
▁蒴	-7216
▁谅	-7217
▁鈺	-7218
▁铉	-7219
▁鵰	-7220
orm	-7221
▁liv	-7222
▁1824	-7223
▁steph	-7224
▁夔	-7225
▁嬴	-7226
▁怠	-7227
▁戛	-7228
▁菅	-7229
ona	-7230
▁dt	-7231
▁moon	-7232
▁捞	-7233
▁秤	-7234
▁arc	-7235
▁1835	-7236
▁9000	-7237
▁clar	-7238
▁mess	-7239
▁pier	-7240
▁journ	-7241
▁卞	-7242
▁殴	-7243
▁angel	-7244
▁science	-7245
▁昶	-7246
▁沥	-7247
▁fal	-7248
▁ven	-7249
▁conc	-7250
▁っ	-7251
▁劈	-7252
▁叭	-7253
▁蝉	-7254
▁麴	-7255
▁vl	-7256
▁512	-7257
▁his	-7258
▁maj	-7259
▁data	-7260
▁hard	-7261
▁mini	-7262
▁嗅	-7263
▁宕	-7264
▁尻	-7265
▁撇	-7266
▁脖	-7267
▁蛺	-7268
lam	-7269
oto	-7270
▁ax	-7271
▁174	-7272
▁224	-7273
▁305	-7274
▁bbs	-7275
▁spe	-7276
▁1644	-7277
▁https	-7278
▁嶋	-7279
▁诠	-7280
hed	-7281
ious	-7282
▁ara	-7283
▁fest	-7284
▁prot	-7285
▁ʁ	-7286
▁ハ	-7287
▁旷	-7288
▁璐	-7289
▁秧	-7290
▁笋	-7291
▁腋	-7292
▁蝸	-7293
▁鎳	-7294
▁鞠	-7295
▁3%	-7296
▁470	-7297
▁ر	-7298
▁デ	-7299
▁筲	-7300
▁锻	-7301
fox	-7302
ote	-7303
▁rt	-7304
ices	-7305
star	-7306
▁245	-7307
▁249	-7308
▁580	-7309
▁1796	-7310
▁1822	-7311
▁1831	-7312
▁channel	-7313
▁ы	-7314
▁佃	-7315
▁鹛	-7316
hem	-7317
▁pt	-7318
▁ze	-7319
▁620	-7320
▁like	-7321
▁build	-7322
▁槓	-7323
▁瀝	-7324
▁蘑	-7325
▁酌	-7326
▁ri	-7327
2000	-7328
over	-7329
▁gab	-7330
▁jer	-7331
▁peop	-7332
▁space	-7333
uz	-7334
ym	-7335
▁乂	-7336
▁亢	-7337
▁孛	-7338
▁搁	-7339
▁昕	-7340
▁烽	-7341
▁羹	-7342
ize	-7343
mhz	-7344
ple	-7345
▁232	-7346
▁gov	-7347
▁pap	-7348
▁vers	-7349
▁pagasa	-7350
▁璞	-7351
▁藜	-7352
▁鍍	-7353
lor	-7354
▁nd	-7355
raft	-7356
▁390	-7357
▁uss	-7358
▁1813	-7359
▁have	-7360
▁after	-7361
▁maria	-7362
▁onlyinclude	-7363
▁ê	-7364
▁憎	-7365
▁汛	-7366
▁炀	-7367
▁笈	-7368
esh	-7369
max	-7370
wor	-7371
elle	-7372
ston	-7373
▁262	-7374
▁701	-7375
▁ker	-7376
▁down	-7377
▁ipod	-7378
▁lord	-7379
▁comput	-7380
▁伎	-7381
▁凑	-7382
▁哮	-7383
▁唔	-7384
▁颍	-7385
▁龛	-7386
ater	-7387
ider	-7388
▁dark	-7389
▁langu	-7390
jo	-7391
▁ي	-7392
▁拇	-7393
▁掙	-7394
▁撓	-7395
▁檸	-7396
▁涿	-7397
▁羯	-7398
▁谎	-7399
▁铬	-7400
stein	-7401
▁inde	-7402
▁lady	-7403
▁europe	-7404
▁second	-7405
▁丐	-7406
▁吒	-7407
▁晒	-7408
▁洒	-7409
▁賂	-7410
▁wa	-7411
▁cup	-7412
▁card	-7413
fo	-7414
▁パ	-7415
▁劭	-7416
▁啄	-7417
▁癱	-7418
aya	-7419
▁520	-7420
▁dam	-7421
▁georg	-7422
▁ч	-7423
▁サ	-7424
▁懈	-7425
▁絞	-7426
▁颅	-7427
▁226	-7428
▁deb	-7429
▁2100	-7430
▁mozilla	-7431
▁christian	-7432
▁corporation	-7433
▁歙	-7434
▁蝎	-7435
▁骄	-7436
ran	-7437
rick	-7438
▁had	-7439
iness	-7440
▁1791	-7441
▁1807	-7442
▁cell	-7443
▁lamb	-7444
▁design	-7445
pn	-7446
▁ë	-7447
▁佗	-7448
▁蠍	-7449
▁诰	-7450
▁邺	-7451
▁雳	-7452
▁od	-7453
vent	-7454
▁254	-7455
▁level	-7456
▁explorer	-7457
▁焘	-7458
▁篠	-7459
▁簾	-7460
▁鳄	-7461
gan	-7462
▁ni	-7463
▁py	-7464
arch	-7465
inal	-7466
▁323	-7467
▁1775	-7468
▁η	-7469
▁け	-7470
▁穫	-7471
▁豈	-7472
▁鄴	-7473
▁wi	-7474
▁wo	-7475
ship	-7476
▁237	-7477
▁251	-7478
▁510	-7479
▁dol	-7480
▁fox	-7481
▁ing	-7482
▁som	-7483
▁1816	-7484
▁right	-7485
▁綬	-7486
▁荼	-7487
▁蠶	-7488
▁醯	-7489
▁鲷	-7490
▁eb	-7491
▁246	-7492
sport	-7493
▁1794	-7494
▁1834	-7495
▁muse	-7496
▁found	-7497
▁francis	-7498
▁咐	-7499
▁晷	-7500
▁淦	-7501
▁1828	-7502
▁firefox	-7503
▁揽	-7504
▁浣	-7505
ito	-7506
pro	-7507
ume	-7508
▁252	-7509
other	-7510
▁1788	-7511
▁adam	-7512
▁last	-7513
▁more	-7514
▁york	-7515
▁enter	-7516
▁phone	-7517
▁inform	-7518
▁ī	-7519
▁郢	-7520
▁鳌	-7521
ray	-7522
ible	-7523
▁alf	-7524
▁bey	-7525
▁rog	-7526
▁what	-7527
▁digital	-7528
vi	-7529
▁わ	-7530
▁揉	-7531
▁曇	-7532
▁瞰	-7533
▁郴	-7534
▁镁	-7535
▁ey	-7536
▁va	-7537
▁yu	-7538
▁227	-7539
▁303	-7540
▁alt	-7541
▁equ	-7542
▁mol	-7543
aster	-7544
▁1833	-7545
ograph	-7546
▁again	-7547
▁☆	-7548
▁彷	-7549
▁滔	-7550
▁璟	-7551
▁莹	-7552
▁赂	-7553
▁鈎	-7554
▁馥	-7555
cle	-7556
kin	-7557
▁qq	-7558
▁map	-7559
▁ult	-7560
▁software	-7561
▁慷	-7562
ness	-7563
▁621	-7564
▁680	-7565
▁978	-7566
▁ash	-7567
▁aud	-7568
▁arts	-7569
▁matt	-7570
▁adobe	-7571
▁touch	-7572
▁旌	-7573
▁熏	-7574
▁瓮	-7575
▁荚	-7576
▁蝗	-7577
▁蝨	-7578
▁pk	-7579
▁268	-7580
▁pin	-7581
cs	-7582
▁з	-7583
▁乖	-7584
▁儂	-7585
▁挨	-7586
▁熬	-7587
▁稼	-7588
▁缚	-7589
▁銓	-7590
▁驴	-7591
▁鮃	-7592
▁鹦	-7593
▁bf	-7594
aker	-7595
▁266	-7596
▁307	-7597
▁cit	-7598
▁1780	-7599
▁1829	-7600
▁prem	-7601
▁rail	-7602
▁champion	-7603
nt	-7604
▁ウ	-7605
▁巔	-7606
▁徘	-7607
▁桨	-7608
▁榈	-7609
▁漱	-7610
▁瓯	-7611
▁闕	-7612
ique	-7613
▁ace	-7614
▁cnn	-7615
▁2300	-7616
▁force	-7617
▁聿	-7618
▁誡	-7619
▁辗	-7620
iga	-7621
▁cb	-7622
▁304	-7623
▁gala	-7624
▁rain	-7625
▁operation	-7626
▁ь	-7627
▁尬	-7628
▁睞	-7629
▁羈	-7630
▁鋅	-7631
▁鑾	-7632
bus	-7633
ader	-7634
down	-7635
▁277	-7636
▁425	-7637
▁630	-7638
▁960	-7639
▁asc	-7640
▁tan	-7641
▁1823	-7642
▁hello	-7643
▁square	-7644
je	-7645
▁š	-7646
▁テ	-7647
▁プ	-7648
▁淖	-7649
▁祉	-7650
▁荠	-7651
▁躬	-7652
▁鸞	-7653
cel	-7654
get	-7655
▁vs	-7656
esis	-7657
▁241	-7658
▁767	-7659
▁call	-7660
▁counc	-7661
▁佘	-7662
▁呤	-7663
▁檜	-7664
▁滁	-7665
▁玺	-7666
▁踝	-7667
▁pu	-7668
ency	-7669
onom	-7670
▁ren	-7671
▁1799	-7672
▁pala	-7673
▁football	-7674
▁ニ	-7675
▁ャ	-7676
▁屎	-7677
▁徊	-7678
▁櫚	-7679
▁酗	-7680
▁镰	-7681
▁1826	-7682
▁hold	-7683
▁寥	-7684
▁挠	-7685
▁窺	-7686
▁衮	-7687
▁韃	-7688
ipe	-7689
▁ru	-7690
▁tg	-7691
▁285	-7692
▁asp	-7693
▁council	-7694
▁僭	-7695
▁槌	-7696
▁熾	-7697
400	-7698
▁295	-7699
▁kde	-7700
▁1809	-7701
▁beat	-7702
▁princ	-7703
▁alexander	-7704
▁査	-7705
▁睾	-7706
▁醮	-7707
▁288	-7708
▁338	-7709
▁780	-7710
▁901	-7711
▁chi	-7712
▁cook	-7713
▁prim	-7714
▁global	-7715
ao	-7716
▁覃	-7717
▁躯	-7718
▁遐	-7719
▁餡	-7720
car	-7721
rey	-7722
row	-7723
▁242	-7724
▁318	-7725
▁cin	-7726
▁emu	-7727
▁lum	-7728
▁old	-7729
▁1804	-7730
▁happ	-7731
▁lond	-7732
▁呀	-7733
▁娠	-7734
▁梢	-7735
▁澧	-7736
▁耽	-7737
key	-7738
▁ft	-7739
▁jt	-7740
▁um	-7741
▁312	-7742
▁315	-7743
▁fri	-7744
▁rod	-7745
▁yah	-7746
▁plat	-7747
▁sign	-7748
▁academ	-7749
▁謗	-7750
▁轍	-7751
▁钵	-7752
rad	-7753
uel	-7754
zer	-7755
▁660	-7756
▁php	-7757
▁tam	-7758
▁1798	-7759
▁fant	-7760
▁frame	-7761
▁fried	-7762
oe	-7763
▁姥	-7764
▁柩	-7765
▁烛	-7766
▁甯	-7767
▁皱	-7768
▁窪	-7769
▁贻	-7770
▁邳	-7771
▁钛	-7772
▁	-7773
,	-7774
的	-7775
。	-7776
1	-7777
0	-7778
年	-7779
2	-7780
、	-7781
一	-7782
在	-7783
是	-7784
中	-7785
9	-7786
人	-7787
a	-7788
有	-7789
大	-7790
e	-7791
3	-7792
和	-7793
5	-7794
為	-7795
以	-7796
i	-7797
8	-7798
o	-7799
r	-7800
4	-7801
n	-7802
月	-7803
日	-7804
6	-7805
了	-7806
国	-7807
7	-7808
s	-7809
t	-7810
为	-7811
地	-7812
成	-7813
國	-7814
不	-7815
於	-7816
上	-7817
l	-7818
公	-7819
行	-7820
出	-7821
他	-7822
之	-7823
部	-7824
斯	-7825
其	-7826
c	-7827
名	-7828
主	-7829
生	-7830
分	-7831
作	-7832
下	-7833
:	-7834
m	-7835
于	-7836
用	-7837
方	-7838
到	-7839
而	-7840
及	-7841
第	-7842
西	-7843
》	-7844
《	-7845
家	-7846
時	-7847
後	-7848
d	-7849
h	-7850
法	-7851
由	-7852
位	-7853
被	-7854
市	-7855
民	-7856
本	-7857
学	-7858
个	-7859
同	-7860
會	-7861
多	-7862
可	-7863
南	-7864
u	-7865
政	-7866
子	-7867
·	-7868
自	-7869
里	-7870
」	-7871
「	-7872
文	-7873
任	-7874
特	-7875
最	-7876
等	-7877
與	-7878
新	-7879
德	-7880
北	-7881
代	-7882
也	-7883
加	-7884
高	-7885
所	-7886
前	-7887
海	-7888
學	-7889
后	-7890
因	-7891
利	-7892
個	-7893
此	-7894
三	-7895
p	-7896
“	-7897
要	-7898
物	-7899
得	-7900
平	-7901
道	-7902
克	-7903
建	-7904
面	-7905
美	-7906
教	-7907
小	-7908
度	-7909
山	-7910
时	-7911
立	-7912
b	-7913
至	-7914
g	-7915
能	-7916
事	-7917
入	-7918
尔	-7919
路	-7920
理	-7921
世	-7922
發	-7923
区	-7924
拉	-7925
会	-7926
二	-7927
外	-7928
天	-7929
但	-7930
合	-7931
定	-7932
化	-7933
工	-7934
口	-7935
表	-7936
期	-7937
使	-7938
球	-7939
全	-7940
台	-7941
性	-7942
次	-7943
十	-7944
科	-7945
;	-7946
通	-7947
州	-7948
f	-7949
者	-7950
式	-7951
都	-7952
重	-7953
共	-7954
力	-7955
"	-7956
來	-7957
軍	-7958
區	-7959
並	-7960
发	-7961
安	-7962
士	-7963
原	-7964
布	-7965
相	-7966
王	-7967
比	-7968
城	-7969
院	-7970
省	-7971
長	-7972
军	-7973
站	-7974
對	-7975
这	-7976
明	-7977
動	-7978
目	-7979
水	-7980
基	-7981
這	-7982
系	-7983
金	-7984
司	-7985
正	-7986
英	-7987
星	-7988
開	-7989
如	-7990
长	-7991
府	-7992
或	-7993
与	-7994
治	-7995
k	-7996
制	-7997
格	-7998
元	-7999
港	-8000
現	-8001
四	-8002
起	-8003
爾	-8004
電	-8005
常	-8006
巴	-8007
对	-8008
經	-8009
尼	-8010
米	-8011
y	-8012
量	-8013
列	-8014
提	-8015
員	-8016
影	-8017
當	-8018
首	-8019
改	-8020
女	-8021
来	-8022
阿	-8023
然	-8024
間	-8025
镇	-8026
就	-8027
戰	-8028
過	-8029
進	-8030
并	-8031
亞	-8032
v	-8033
心	-8034
接	-8035
東	-8036
林	-8037
體	-8038
东	-8039
向	-8040
演	-8041
开	-8042
意	-8043
界	-8044
機	-8045
將	-8046
始	-8047
賽	-8048
w	-8049
內	-8050
車	-8051
河	-8052
动	-8053
程	-8054
受	-8055
色	-8056
場	-8057
型	-8058
包	-8059
总	-8060
指	-8061
曾	-8062
形	-8063
交	-8064
保	-8065
手	-8066
香	-8067
已	-8068
些	-8069
委	-8070
机	-8071
流	-8072
亚	-8073
内	-8074
直	-8075
音	-8076
员	-8077
稱	-8078
管	-8079
太	-8080
经	-8081
隊	-8082
种	-8083
集	-8084
史	-8085
过	-8086
馬	-8087
空	-8088
卡	-8089
業	-8090
身	-8091
校	-8092
进	-8093
種	-8094
现	-8095
更	-8096
县	-8097
五	-8098
字	-8099
品	-8100
線	-8101
江	-8102
车	-8103
兩	-8104
古	-8105
朝	-8106
电	-8107
展	-8108
示	-8109
設	-8110
灣	-8111
社	-8112
各	-8113
洲	-8114
间	-8115
數	-8116
著	-8117
反	-8118
持	-8119
马	-8120
业	-8121
该	-8122
命	-8123
体	-8124
回	-8125
官	-8126
京	-8127
光	-8128
属	-8129
将	-8130
活	-8131
取	-8132
造	-8133
战	-8134
達	-8135
少	-8136
只	-8137
族	-8138
清	-8139
又	-8140
信	-8141
約	-8142
神	-8143
選	-8144
石	-8145
数	-8146
夫	-8147
支	-8148
当	-8149
称	-8150
解	-8151
非	-8152
近	-8153
聯	-8154
情	-8155
它	-8156
设	-8157
局	-8158
普	-8159
號	-8160
罗	-8161
則	-8162
總	-8163
件	-8164
運	-8165
曲	-8166
/	-8167
放	-8168
統	-8169
研	-8170
即	-8171
關	-8172
角	-8173
該	-8174
羅	-8175
華	-8176
商	-8177
波	-8178
武	-8179
無	-8180
版	-8181
們	-8182
队	-8183
先	-8184
片	-8185
計	-8186
联	-8187
括	-8188
收	-8189
村	-8190
两	-8191
器	-8192
白	-8193
去	-8194
樂	-8195
李	-8196
果	-8197
未	-8198
她	-8199
语	-8200
伊	-8201
組	-8202
产	-8203
再	-8204
根	-8205
每	-8206
屬	-8207
场	-8208
知	-8209
运	-8210
往	-8211
初	-8212
蘭	-8213
亦	-8214
密	-8215
线	-8216
座	-8217
視	-8218
引	-8219
且	-8220
語	-8221
达	-8222
华	-8223
今	-8224
派	-8225
兵	-8226
足	-8227
统	-8228
福	-8229
從	-8230
级	-8231
議	-8232
完	-8233
縣	-8234
究	-8235
从	-8236
z	-8237
六	-8238
帝	-8239
歌	-8240
域	-8241
花	-8242
组	-8243
们	-8244
除	-8245
務	-8246
打	-8247
很	-8248
宗	-8249
赛	-8250
實	-8251
島	-8252
居	-8253
关	-8254
產	-8255
言	-8256
說	-8257
令	-8258
義	-8259
广	-8260
服	-8261
門	-8262
團	-8263
結	-8264
段	-8265
号	-8266
威	-8267
兰	-8268
類	-8269
育	-8270
季	-8271
功	-8272
x	-8273
塔	-8274
另	-8275
播	-8276
八	-8277
客	-8278
书	-8279
土	-8280
存	-8281
速	-8282
參	-8283
死	-8284
傳	-8285
置	-8286
修	-8287
计	-8288
%	-8289
率	-8290
推	-8291
好	-8292
超	-8293
约	-8294
認	-8295
周	-8296
单	-8297
希	-8298
宣	-8299
实	-8300
處	-8301
源	-8302
具	-8303
我	-8304
九	-8305
投	-8306
供	-8307
書	-8308
班	-8309
雷	-8310
例	-8311
街	-8312
求	-8313
变	-8314
攻	-8315
皇	-8316
龍	-8317
湖	-8318
维	-8319
獲	-8320
單	-8321
吉	-8322
查	-8323
航	-8324
印	-8325
积	-8326
火	-8327
故	-8328
乡	-8329
田	-8330
己	-8331
案	-8332
沙	-8333
青	-8334
廣	-8335
哈	-8336
那	-8337
务	-8338
勒	-8339
图	-8340
伯	-8341
應	-8342
助	-8343
男	-8344
早	-8345
增	-8346
博	-8347
还	-8348
張	-8349
j	-8350
洛	-8351
別	-8352
資	-8353
份	-8354
舉	-8355
整	-8356
母	-8357
辖	-8358
瓦	-8359
义	-8360
半	-8361
擊	-8362
百	-8363
模	-8364
容	-8365
党	-8366
群	-8367
臺	-8368
技	-8369
铁	-8370
说	-8371
維	-8372
帶	-8373
万	-8374
越	-8375
變	-8376
父	-8377
致	-8378
议	-8379
均	-8380
失	-8381
萬	-8382
點	-8383
導	-8384
師	-8385
易	-8386
参	-8387
專	-8388
黨	-8389
副	-8390
川	-8391
食	-8392
領	-8393
七	-8394
境	-8395
黑	-8396
门	-8397
堂	-8398
紀	-8399
需	-8400
处	-8401
传	-8402
结	-8403
級	-8404
射	-8405
选	-8406
告	-8407
登	-8408
連	-8409
深	-8410
沒	-8411
类	-8412
劇	-8413
塞	-8414
应	-8415
限	-8416
才	-8417
领	-8418
頭	-8419
權	-8420
仍	-8421
木	-8422
游	-8423
升	-8424
條	-8425
无	-8426
苏	-8427
室	-8428
何	-8429
便	-8430
節	-8431
排	-8432
步	-8433
老	-8434
牙	-8435
导	-8436
風	-8437
奥	-8438
象	-8439
团	-8440
魚	-8441
央	-8442
点	-8443
真	-8444
落	-8445
製	-8446
氏	-8447
施	-8448
盟	-8449
像	-8450
考	-8451
際	-8452
乐	-8453
想	-8454
論	-8455
報	-8456
鐵	-8457
甲	-8458
決	-8459
轉	-8460
畫	-8461
氣	-8462
席	-8463
感	-8464
配	-8465
把	-8466
据	-8467
防	-8468
標	-8469
低	-8470
病	-8471
纳	-8472
哥	-8473
洋	-8474
還	-8475
—	-8476
托	-8477
底	-8478
阳	-8479
律	-8480
留	-8481
森	-8482
效	-8483
住	-8484
认	-8485
離	-8486
蒙	-8487
素	-8488
历	-8489
料	-8490
佛	-8491
_	-8492
师	-8493
获	-8494
術	-8495
埃	-8496
止	-8497
冠	-8498
千	-8499
泰	-8500
志	-8501
视	-8502
记	-8503
奇	-8504
息	-8505
據	-8506
奧	-8507
术	-8508
較	-8509
強	-8510
景	-8511
康	-8512
纪	-8513
看	-8514
降	-8515
姆	-8516
曼	-8517
革	-8518
恩	-8519
算	-8520
圖	-8521
典	-8522
迪	-8523
觀	-8524
报	-8525
承	-8526
移	-8527
藏	-8528
職	-8529
愛	-8530
創	-8531
消	-8532
批	-8533
警	-8534
唱	-8535
續	-8536
思	-8537
控	-8538
张	-8539
着	-8540
念	-8541
察	-8542
見	-8543
则	-8544
親	-8545
許	-8546
汉	-8547
做	-8548
带	-8549
遊	-8550
記	-8551
精	-8552
質	-8553
授	-8554
草	-8555
索	-8556
守	-8557
友	-8558
专	-8559
納	-8560
陸	-8561
獎	-8562
论	-8563
票	-8564
俄	-8565
裝	-8566
标	-8567
岛	-8568
極	-8569
題	-8570
瑞	-8571
风	-8572
督	-8573
般	-8574
依	-8575
别	-8576
述	-8577
没	-8578
望	-8579
照	-8580
转	-8581
附	-8582
际	-8583
圣	-8584
权	-8585
祖	-8586
歷	-8587
毛	-8588
調	-8589
抗	-8590
植	-8591
退	-8592
值	-8593
爭	-8594
澳	-8595
章	-8596
陆	-8597
条	-8598
夏	-8599
錄	-8600
富	-8601
封	-8602
候	-8603
歐	-8604
职	-8605
園	-8606
唐	-8607
房	-8608
辦	-8609
編	-8610
永	-8611
終	-8612
办	-8613
复	-8614
網	-8615
停	-8616
丹	-8617
决	-8618
资	-8619
牌	-8620
營	-8621
丁	-8622
构	-8623
隨	-8624
給	-8625
左	-8626
蘇	-8627
破	-8628
节	-8629
含	-8630
積	-8631
快	-8632
拿	-8633
戲	-8634
陳	-8635
莱	-8636
气	-8637
聖	-8638
問	-8639
寺	-8640
似	-8641
必	-8642
萨	-8643
黃	-8644
突	-8645
隆	-8646
邦	-8647
坦	-8648
堡	-8649
協	-8650
飛	-8651
旅	-8652
船	-8653
击	-8654
樣	-8655
尚	-8656
头	-8657
核	-8658
岸	-8659
离	-8660
龙	-8661
调	-8662
興	-8663
争	-8664
眾	-8665
皮	-8666
擔	-8667
項	-8668
梅	-8669
漢	-8670
济	-8671
久	-8672
架	-8673
店	-8674
划	-8675
注	-8676
准	-8677
蒂	-8678
朗	-8679
莫	-8680
强	-8681
延	-8682
举	-8683
油	-8684
兒	-8685
備	-8686
创	-8687
占	-8688
右	-8689
規	-8690
野	-8691
质	-8692
郡	-8693
藝	-8694
剧	-8695
環	-8696
層	-8697
连	-8698
走	-8699
黄	-8700
规	-8701
亡	-8702
衛	-8703
弟	-8704
構	-8705
给	-8706
春	-8707
售	-8708
编	-8709
股	-8710
随	-8711
护	-8712
网	-8713
短	-8714
繼	-8715
負	-8716
}	-8717
熱	-8718
{	-8719
雄	-8720
鲁	-8721
讓	-8722
嘉	-8723
切	-8724
判	-8725
館	-8726
佳	-8727
倫	-8728
試	-8729
装	-8730
策	-8731
协	-8732
筑	-8733
役	-8734
遭	-8735
许	-8736
艾	-8737
邊	-8738
圍	-8739
问	-8740
逐	-8741
样	-8742
乘	-8743
题	-8744
端	-8745
宁	-8746
劃	-8747
旗	-8748
序	-8749
松	-8750
費	-8751
獨	-8752
寫	-8753
距	-8754
弗	-8755
護	-8756
聲	-8757
責	-8758
拔	-8759
雙	-8760
陽	-8761
鎮	-8762
摩	-8763
欧	-8764
紅	-8765
宋	-8766
若	-8767
酒	-8768
敗	-8769
亲	-8770
殺	-8771
響	-8772
送	-8773
园	-8774
伦	-8775
菲	-8776
輯	-8777
观	-8778
束	-8779
诺	-8780
担	-8781
銀	-8782
末	-8783
卫	-8784
證	-8785
甚	-8786
評	-8787
雅	-8788
干	-8789
赫	-8790
红	-8791
营	-8792
尾	-8793
微	-8794
晚	-8795
署	-8796
终	-8797
耶	-8798
勝	-8799
良	-8800
馆	-8801
!	-8802
略	-8803
準	-8804
兴	-8805
樓	-8806
胡	-8807
秀	-8808
项	-8809
津	-8810
醫	-8811
差	-8812
彈	-8813
戏	-8814
范	-8815
边	-8816
裡	-8817
頓	-8818
薩	-8819
兼	-8820
狀	-8821
免	-8822
见	-8823
婚	-8824
帕	-8825
血	-8826
庭	-8827
善	-8828
濟	-8829
籍	-8830
较	-8831
雖	-8832
假	-8833
卻	-8834
臣	-8835
散	-8836
款	-8837
采	-8838
桥	-8839
復	-8840
峰	-8841
备	-8842
续	-8843
库	-8844
話	-8845
顯	-8846
暴	-8847
歲	-8848
什	-8849
予	-8850
諾	-8851
測	-8852
贝	-8853
艦	-8854
织	-8855
奖	-8856
詞	-8857
拍	-8858
写	-8859
围	-8860
喜	-8861
征	-8862
儿	-8863
杜	-8864
农	-8865
朱	-8866
环	-8867
背	-8868
仁	-8869
盛	-8870
追	-8871
热	-8872
酸	-8873
云	-8874
載	-8875
採	-8876
证	-8877
害	-8878
双	-8879
廷	-8880
烈	-8881
企	-8882
爆	-8883
玉	-8884
互	-8885
織	-8886
沿	-8887
板	-8888
劉	-8889
習	-8890
魯	-8891
幾	-8892
牛	-8893
几	-8894
独	-8895
谷	-8896
援	-8897
继	-8898
层	-8899
鄉	-8900
屆	-8901
態	-8902
遠	-8903
介	-8904
爱	-8905
医	-8906
罪	-8907
黎	-8908
君	-8909
僅	-8910
媒	-8911
昌	-8912
救	-8913
舞	-8914
众	-8915
屋	-8916
勢	-8917
請	-8918
余	-8919
试	-8920
價	-8921
預	-8922
滿	-8923
執	-8924
陈	-8925
荷	-8926
画	-8927
溫	-8928
韓	-8929
评	-8930
透	-8931
材	-8932
沃	-8933
艺	-8934
槍	-8935
录	-8936
宮	-8937
响	-8938
確	-8939
刘	-8940
係	-8941
坡	-8942
巨	-8943
秘	-8944
智	-8945
楼	-8946
簡	-8947
飞	-8948
>	-8949
届	-8950
叶	-8951
按	-8952
溪	-8953
址	-8954
益	-8955
徒	-8956
仅	-8957
声	-8958
某	-8959
途	-8960
冰	-8961
佈	-8962
敦	-8963
费	-8964
培	-8965
戶	-8966
梁	-8967
映	-8968
极	-8969
撤	-8970
禁	-8971
<	-8972
拜	-8973
替	-8974
貝	-8975
禮	-8976
轄	-8977
童	-8978
殿	-8979
混	-8980
尺	-8981
探	-8982
翰	-8983
温	-8984
萊	-8985
夜	-8986
聞	-8987
郎	-8988
描	-8989
難	-8990
讀	-8991
築	-8992
壓	-8993
骨	-8994
吸	-8995
刻	-8996
跟	-8997
岁	-8998
眼	-8999
符	-9000
赤	-9001
话	-9002
杀	-9003
刺	-9004
刊	-9005
顿	-9006
擁	-9007
寶	-9008
玩	-9009
固	-9010
毒	-9011
爵	-9012
皆	-9013
乌	-9014
私	-9015
耳	-9016
斷	-9017
遇	-9018
橋	-9019
否	-9020
唯	-9021
确	-9022
q	-9023
葉	-9024
岩	-9025
雲	-9026
逃	-9027
訊	-9028
農	-9029
找	-9030
麗	-9031
充	-9032
休	-9033
穆	-9034
奉	-9035
返	-9036
宇	-9037
傷	-9038
幕	-9039
細	-9040
洪	-9041
雪	-9042
'	-9043
激	-9044
佔	-9045
異	-9046
状	-9047
缺	-9048
你	-9049
監	-9050
霍	-9051
乎	-9052
巡	-9053
操	-9054
況	-9055
旋	-9056
犯	-9057
庆	-9058
词	-9059
庄	-9060
远	-9061
召	-9062
验	-9063
範	-9064
聚	-9065
刑	-9066
練	-9067
優	-9068
户	-9069
满	-9070
午	-9071
識	-9072
須	-9073
穿	-9074
魔	-9075
迫	-9076
漫	-9077
鰭	-9078
廠	-9079
輕	-9080
雨	-9081
斗	-9082
姓	-9083
露	-9084
坐	-9085
靈	-9086
絕	-9087
陵	-9088
翻	-9089
輪	-9090
佩	-9091
餘	-9092
麥	-9093
捕	-9094
测	-9095
尤	-9096
显	-9097
羽	-9098
让	-9099
舊	-9100
忠	-9101
換	-9102
驗	-9103
兄	-9104
=	-9105
嚴	-9106
责	-9107
鬥	-9108
待	-9109
陣	-9110
态	-9111
载	-9112
潮	-9113
抵	-9114
妻	-9115
侵	-9116
申	-9117
呼	-9118
靠	-9119
柏	-9120
秋	-9121
胞	-9122
湾	-9123
银	-9124
徐	-9125
庫	-9126
竹	-9127
价	-9128
遗	-9129
炸	-9130
攝	-9131
肯	-9132
汽	-9133
压	-9134
宫	-9135
负	-9136
篇	-9137
惠	-9138
卷	-9139
側	-9140
茨	-9141
码	-9142
泉	-9143
娜	-9144
泛	-9145
临	-9146
甘	-9147
颗	-9148
绝	-9149
飾	-9150
浙	-9151
|	-9152
孔	-9153
翼	-9154
避	-9155
细	-9156
戈	-9157
炮	-9158
识	-9159
融	-9160
简	-9161
泽	-9162
习	-9163
董	-9164
歸	-9165
韩	-9166
危	-9167
肉	-9168
桑	-9169
烏	-9170
吳	-9171
宝	-9172
胜	-9173
購	-9174
殖	-9175
败	-9176
芬	-9177
戴	-9178
急	-9179
辛	-9180
億	-9181
概	-9182
呈	-9183
疑	-9184
厂	-9185
默	-9186
畢	-9187
順	-9188
健	-9189
努	-9190
况	-9191
孫	-9192
丽	-9193
奪	-9194
套	-9195
孩	-9196
榮	-9197
慶	-9198
奏	-9199
秦	-9200
断	-9201
譯	-9202
叫	-9203
氧	-9204
啟	-9205
碼	-9206
階	-9207
週	-9208
乾	-9209
杨	-9210
卢	-9211
減	-9212
染	-9213
臨	-9214
雜	-9215
阻	-9216
虎	-9217
渡	-9218
佐	-9219
毕	-9220
漸	-9221
魏	-9222
墨	-9223
归	-9224
珠	-9225
隔	-9226
衣	-9227
銷	-9228
井	-9229
难	-9230
葡	-9231
裁	-9232
樹	-9233
函	-9234
贵	-9235
宜	-9236
孙	-9237
輸	-9238
驻	-9239
杰	-9240
请	-9241
迎	-9242
冷	-9243
仙	-9244
析	-9245
震	-9246
味	-9247
换	-9248
棲	-9249
迷	-9250
圈	-9251
付	-9252
墓	-9253
弹	-9254
涉	-9255
御	-9256
]	-9257
亮	-9258
哲	-9259
楊	-9260
严	-9261
傑	-9262
綱	-9263
舍	-9264
池	-9265
廉	-9266
[	-9267
执	-9268
詩	-9269
麻	-9270
俗	-9271
侧	-9272
險	-9273
徵	-9274
偏	-9275
暗	-9276
町	-9277
豐	-9278
洞	-9279
监	-9280
恐	-9281
招	-9282
訓	-9283
拥	-9284
势	-9285
榜	-9286
侯	-9287
厅	-9288
尊	-9289
瑪	-9290
硬	-9291
享	-9292
賓	-9293
闻	-9294
俱	-9295
液	-9296
症	-9297
租	-9298
繁	-9299
辑	-9300
彩	-9301
毫	-9302
树	-9303
廳	-9304
圓	-9305
莉	-9306
轮	-9307
倒	-9308
豪	-9309
釋	-9310
楚	-9311
寧	-9312
藍	-9313
琴	-9314
藥	-9315
预	-9316
妹	-9317
掌	-9318
盃	-9319
麦	-9320
昂	-9321
鐘	-9322
財	-9323
夠	-9324
逝	-9325
扎	-9326
借	-9327
礼	-9328
齐	-9329
崇	-9330
销	-9331
鲜	-9332
紐	-9333
曹	-9334
捷	-9335
吴	-9336
舰	-9337
補	-9338
+	-9339
徽	-9340
遷	-9341
冬	-9342
浦	-9343
诗	-9344
药	-9345
昭	-9346
養	-9347
腦	-9348
淡	-9349
截	-9350
柱	-9351
瑟	-9352
萄	-9353
旧	-9354
伍	-9355
匹	-9356
裂	-9357
適	-9358
軟	-9359
鱼	-9360
幼	-9361
頂	-9362
输	-9363
读	-9364
奈	-9365
儀	-9366
乃	-9367
盖	-9368
伐	-9369
乙	-9370
蓋	-9371
勞	-9372
迁	-9373
鼓	-9374
蛋	-9375
杂	-9376
频	-9377
估	-9378
零	-9379
簽	-9380
玛	-9381
遺	-9382
优	-9383
振	-9384
顺	-9385
討	-9386
拒	-9387
輛	-9388
劳	-9389
患	-9390
晋	-9391
頻	-9392
併	-9393
鮮	-9394
弱	-9395
顶	-9396
菜	-9397
恢	-9398
邀	-9399
陶	-9400
藤	-9401
陷	-9402
晉	-9403
敵	-9404
郭	-9405
韦	-9406
鄭	-9407
?	-9408
虽	-9409
灵	-9410
异	-9411
粉	-9412
轨	-9413
兹	-9414
困	-9415
却	-9416
亿	-9417
译	-9418
凱	-9419
货	-9420
貨	-9421
句	-9422
菌	-9423
貴	-9424
跨	-9425
覺	-9426
浪	-9427
丰	-9428
檢	-9429
尽	-9430
牧	-9431
輻	-9432
歡	-9433
滑	-9434
審	-9435
莎	-9436
偶	-9437
宿	-9438
旁	-9439
誌	-9440
冲	-9441
熙	-9442
障	-9443
汗	-9444
駐	-9445
糖	-9446
訪	-9447
競	-9448
錦	-9449
徑	-9450
塘	-9451
殊	-9452
蔡	-9453
衡	-9454
遍	-9455
紫	-9456
擴	-9457
阶	-9458
茶	-9459
柯	-9460
伤	-9461
衝	-9462
勇	-9463
亨	-9464
軌	-9465
鳥	-9466
扩	-9467
燃	-9468
丘	-9469
宅	-9470
磁	-9471
幫	-9472
祭	-9473
财	-9474
答	-9475
签	-9476
纽	-9477
課	-9478
亂	-9479
澤	-9480
奴	-9481
昆	-9482
諸	-9483
挥	-9484
赵	-9485
疆	-9486
灰	-9487
币	-9488
庙	-9489
滅	-9490
沈	-9491
搭	-9492
脈	-9493
盤	-9494
彼	-9495
络	-9496
講	-9497
棒	-9498
揮	-9499
敏	-9500
絲	-9501
促	-9502
养	-9503
幅	-9504
允	-9505
鏡	-9506
覆	-9507
杯	-9508
綠	-9509
鄰	-9510
額	-9511
珍	-9512
凯	-9513
幸	-9514
伴	-9515
訴	-9516
谢	-9517
赴	-9518
訂	-9519
械	-9520
綫	-9521
療	-9522
拆	-9523
荣	-9524
讲	-9525
恒	-9526
检	-9527
跑	-9528
审	-9529
仔	-9530
葬	-9531
茲	-9532
幻	-9533
績	-9534
晶	-9535
慈	-9536
祥	-9537
顧	-9538
厚	-9539
练	-9540
擇	-9541
诸	-9542
软	-9543
餐	-9544
獻	-9545
倍	-9546
裔	-9547
葛	-9548
幣	-9549
堅	-9550
遂	-9551
敬	-9552
减	-9553
廟	-9554
齊	-9555
剛	-9556
聽	-9557
複	-9558
宽	-9559
孟	-9560
轻	-9561
匈	-9562
孝	-9563
折	-9564
箭	-9565
熟	-9566
碑	-9567
释	-9568
惡	-9569
寬	-9570
苦	-9571
『	-9572
賣	-9573
柴	-9574
遣	-9575
沉	-9576
钟	-9577
』	-9578
燕	-9579
謝	-9580
埔	-9581
襲	-9582
桃	-9583
叛	-9584
緯	-9585
姐	-9586
乔	-9587
°	-9588
慢	-9589
尖	-9590
願	-9591
騎	-9592
齒	-9593
桂	-9594
绕	-9595
疾	-9596
阵	-9597
憲	-9598
粒	-9599
盧	-9600
脂	-9601
侍	-9602
橫	-9603
柳	-9604
牠	-9605
献	-9606
懷	-9607
誤	-9608
启	-9609
廢	-9610
喬	-9611
辽	-9612
迅	-9613
够	-9614
螺	-9615
挑	-9616
么	-9617
渐	-9618
蛇	-9619
凡	-9620
枚	-9621
棋	-9622
伏	-9623
摄	-9624
仰	-9625
買	-9626
刀	-9627
须	-9628
恆	-9629
敌	-9630
談	-9631
访	-9632
伸	-9633
圆	-9634
朋	-9635
瓜	-9636
吃	-9637
补	-9638
险	-9639
撒	-9640
额	-9641
尋	-9642
〉	-9643
〈	-9644
枪	-9645
彭	-9646
跳	-9647
慕	-9648
貢	-9649
腳	-9650
雕	-9651
壁	-9652
艘	-9653
賞	-9654
錢	-9655
損	-9656
妮	-9657
涅	-9658
宪	-9659
适	-9660
擎	-9661
緣	-9662
汇	-9663
劍	-9664
仪	-9665
宾	-9666
緒	-9667
钱	-9668
训	-9669
臘	-9670
旺	-9671
縮	-9672
頒	-9673
础	-9674
掉	-9675
鬼	-9676
潘	-9677
谋	-9678
棄	-9679
辆	-9680
贡	-9681
夺	-9682
购	-9683
帮	-9684
乱	-9685
芳	-9686
韋	-9687
羊	-9688
艇	-9689
罕	-9690
郑	-9691
駛	-9692
番	-9693
撞	-9694
勤	-9695
岡	-9696
趣	-9697
毀	-9698
芝	-9699
輔	-9700
鼠	-9701
涯	-9702
藉	-9703
隶	-9704
脫	-9705
乳	-9706
梯	-9707
泊	-9708
累	-9709
拓	-9710
夢	-9711
繪	-9712
莊	-9713
幹	-9714
琳	-9715
赞	-9716
熊	-9717
趙	-9718
泥	-9719
藩	-9720
痛	-9721
毁	-9722
炎	-9723
腹	-9724
屯	-9725
浮	-9726
咸	-9727
锡	-9728
針	-9729
鹿	-9730
废	-9731
豆	-9732
斑	-9733
隧	-9734
玄	-9735
绍	-9736
麼	-9737
杉	-9738
陰	-9739
壞	-9740
賴	-9741
怀	-9742
詹	-9743
隸	-9744
怪	-9745
緊	-9746
块	-9747
腊	-9748
～	-9749
袁	-9750
喀	-9751
觉	-9752
爲	-9753
仲	-9754
秒	-9755
灭	-9756
卓	-9757
陕	-9758
径	-9759
隻	-9760
袭	-9761
屏	-9762
杭	-9763
顆	-9764
坑	-9765
择	-9766
慧	-9767
玻	-9768
謀	-9769
滨	-9770
錯	-9771
乏	-9772
筆	-9773
贏	-9774
溶	-9775
蟲	-9776
厄	-9777
旦	-9778
插	-9779
晨	-9780
塑	-9781
畔	-9782
缩	-9783
盡	-9784
墙	-9785
矿	-9786
靖	-9787
宙	-9788
崎	-9789
暫	-9790
轴	-9791
绿	-9792
衰	-9793
寄	-9794
戒	-9795
蔣	-9796
损	-9797
妃	-9798
坚	-9799
紹	-9800
剂	-9801
搜	-9802
洗	-9803
é	-9804
笑	-9805
坎	-9806
貿	-9807
饰	-9808
圳	-9809
鳳	-9810
巧	-9811
戀	-9812
檔	-9813
讨	-9814
盘	-9815
祝	-9816
穩	-9817
凌	-9818
壽	-9819
岳	-9820
俊	-9821
脱	-9822
碳	-9823
甸	-9824
亭	-9825
礎	-9826
箱	-9827
循	-9828
坊	-9829
揚	-9830
宏	-9831
觸	-9832
骑	-9833
疏	-9834
袖	-9835
鯉	-9836
盾	-9837
栽	-9838
辭	-9839
閣	-9840
塊	-9841
僧	-9842
顾	-9843
撰	-9844
枝	-9845
郊	-9846
焦	-9847
偉	-9848
既	-9849
扮	-9850
叔	-9851
刚	-9852
邨	-9853
欢	-9854
愿	-9855
鋼	-9856
弘	-9857
仿	-9858
卿	-9859
灌	-9860
锦	-9861
紙	-9862
蓝	-9863
谈	-9864
扬	-9865
輝	-9866
邻	-9867
岭	-9868
竞	-9869
虫	-9870
脑	-9871
吕	-9872
听	-9873
买	-9874
茂	-9875
驅	-9876
譽	-9877
诉	-9878
契	-9879
曆	-9880
贸	-9881
针	-9882
絡	-9883
凤	-9884
疗	-9885
舒	-9886
盐	-9887
镜	-9888
廈	-9889
欲	-9890
匯	-9891
翁	-9892
拳	-9893
荒	-9894
夷	-9895
砲	-9896
措	-9897
霸	-9898
純	-9899
娛	-9900
裕	-9901
靜	-9902
潛	-9903
勃	-9904
券	-9905
耀	-9906
浩	-9907
遜	-9908
迴	-9909
床	-9910
尉	-9911
串	-9912
填	-9913
割	-9914
閉	-9915
钢	-9916
横	-9917
淮	-9918
赖	-9919
擬	-9920
剩	-9921
顏	-9922
紧	-9923
綜	-9924
订	-9925
捐	-9926
婦	-9927
丝	-9928
沟	-9929
覽	-9930
嶼	-9931
嶺	-9932
阴	-9933
坏	-9934
燒	-9935
鸟	-9936
誉	-9937
苗	-9938
丈	-9939
崔	-9940
衍	-9941
犹	-9942
隱	-9943
泳	-9944
獸	-9945
銅	-9946
怒	-9947
冊	-9948
壇	-9949
歧	-9950
肥	-9951
厘	-9952
错	-9953
琉	-9954
垂	-9955
污	-9956
湘	-9957
傅	-9958
湯	-9959
蓮	-9960
邮	-9961
燈	-9962
搬	-9963
铜	-9964
賢	-9965
脉	-9966
窗	-9967
廊	-9968
卜	-9969
齡	-9970
珊	-9971
斜	-9972
災	-9973
迈	-9974
膜	-9975
儒	-9976
獵	-9977
综	-9978
儘	-9979
恶	-9980
肃	-9981
耗	-9982
寿	-9983
錫	-9984
駕	-9985
握	-9986
寒	-9987
薄	-9988
逆	-9989
狄	-9990
欣	-9991
课	-9992
悉	-9993
妇	-9994
呂	-9995
孤	-9996
煤	-9997
旨	-9998
猪	-9999
册	-10000
胎	-10001
獄	-10002
稳	-10003
殘	-10004
虛	-10005
逊	-10006
鋒	-10007
抽	-10008
逢	-10009
壤	-10010
阁	-10011
误	-10012
粗	-10013
寨	-10014
蛛	-10015
貌	-10016
聘	-10017
迹	-10018
弃	-10019
粹	-10020
鼻	-10021
陀	-10022
濱	-10023
冒	-10024
笼	-10025
吐	-10026
静	-10027
剑	-10028
吾	-10029
憶	-10030
猶	-10031
缘	-10032
坪	-10033
倉	-10034
笔	-10035
狂	-10036
稿	-10037
狗	-10038
柔	-10039
翠	-10040
俘	-10041
税	-10042
辞	-10043
键	-10044
纸	-10045
婆	-10046
蝶	-10047
叙	-10048
闭	-10049
譜	-10050
挪	-10051
忍	-10052
揭	-10053
賀	-10054
違	-10055
潜	-10056
貫	-10057
謂	-10058
阮	-10059
璃	-10060
紋	-10061
矩	-10062
疫	-10063
稍	-10064
驱	-10065
扶	-10066
籌	-10067
翌	-10068
娘	-10069
辅	-10070
胸	-10071
拟	-10072
邓	-10073
&	-10074
鹽	-10075
─	-10076
酶	-10077
菊	-10078
稅	-10079
姬	-10080
憑	-10081
贊	-10082
硫	-10083
魂	-10084
汪	-10085
慮	-10086
潭	-10087
狼	-10088
苑	-10089
礦	-10090
彰	-10091
赢	-10092
泡	-10093
遵	-10094
殼	-10095
雀	-10096
卵	-10097
刷	-10098
鍵	-10099
丙	-10100
惟	-10101
绩	-10102
棘	-10103
储	-10104
颱	-10105
堆	-10106
弦	-10107
峡	-10108
歇	-10109
軸	-10110
驚	-10111
兆	-10112
碎	-10113
寻	-10114
郵	-10115
奔	-10116
牵	-10117
绪	-10118
添	-10119
鄧	-10120
淘	-10121
吏	-10122
恰	-10123
腐	-10124
狱	-10125
曰	-10126
纵	-10127
癌	-10128
跡	-10129
阪	-10130
脊	-10131
註	-10132
姻	-10133
粵	-10134
押	-10135
猛	-10136
档	-10137
屈	-10138
偷	-10139
姚	-10140
詳	-10141
览	-10142
碟	-10143
嘴	-10144
鯰	-10145
劑	-10146
傾	-10147
繞	-10148
堪	-10149
纯	-10150
蕨	-10151
紛	-10152
岗	-10153
仇	-10154
飲	-10155
貓	-10156
夕	-10157
誕	-10158
誠	-10159
叉	-10160
勳	-10161
轟	-10162
醇	-10163
蒸	-10164
芒	-10165
蕭	-10166
獅	-10167
籃	-10168
裏	-10169
涵	-10170
逼	-10171
牆	-10172
縱	-10173
残	-10174
拼	-10175
奶	-10176
矛	-10177
辰	-10178
灾	-10179
贾	-10180
烟	-10181
儲	-10182
扁	-10183
绘	-10184
隋	-10185
冯	-10186
卒	-10187
鎖	-10188
寸	-10189
頁	-10190
屠	-10191
祀	-10192
逮	-10193
劫	-10194
嫁	-10195
→	-10196
敢	-10197
触	-10198
卑	-10199
掘	-10200
煙	-10201
肌	-10202
奎	-10203
讷	-10204
隐	-10205
醒	-10206
峽	-10207
斤	-10208
娃	-10209
礁	-10210
緩	-10211
伽	-10212
氯	-10213
嫌	-10214
薛	-10215
忙	-10216
怖	-10217
凝	-10218
迦	-10219
磨	-10220
汤	-10221
蒋	-10222
卖	-10223
雍	-10224
嗣	-10225
偵	-10226
虚	-10227
犬	-10228
梦	-10229
颜	-10230
袋	-10231
悲	-10232
烧	-10233
伟	-10234
髮	-10235
肖	-10236
抑	-10237
妙	-10238
鼎	-10239
株	-10240
篮	-10241
虑	-10242
忽	-10243
沖	-10244
栖	-10245
勋	-10246
掛	-10247
厦	-10248
膠	-10249
銜	-10250
颁	-10251
盆	-10252
汰	-10253
盜	-10254
稻	-10255
罰	-10256
蟹	-10257
竟	-10258
躍	-10259
吨	-10260
雌	-10261
抱	-10262
暂	-10263
脚	-10264
吹	-10265
灯	-10266
毅	-10267
丸	-10268
祿	-10269
襄	-10270
擾	-10271
怕	-10272
’	-10273
龜	-10274
讯	-10275
氢	-10276
衔	-10277
幽	-10278
麟	-10279
湿	-10280
缓	-10281
砂	-10282
拖	-10283
鄂	-10284
豫	-10285
翔	-10286
斐	-10287
贈	-10288
勵	-10289
巢	-10290
宰	-10291
涌	-10292
圭	-10293
茵	-10294
~	-10295
姊	-10296
崩	-10297
丛	-10298
貞	-10299
萧	-10300
賈	-10301
碧	-10302
詢	-10303
敘	-10304
茅	-10305
辨	-10306
噶	-10307
旬	-10308
蜂	-10309
抚	-10310
倡	-10311
馮	-10312
剪	-10313
媽	-10314
甫	-10315
腔	-10316
鴻	-10317
腺	-10318
囊	-10319
谱	-10320
筹	-10321
淺	-10322
邪	-10323
・	-10324
恭	-10325
邑	-10326
祠	-10327
濃	-10328
漠	-10329
漁	-10330
託	-10331
鱸	-10332
硕	-10333
龄	-10334
滾	-10335
姜	-10336
锋	-10337
埋	-10338
吞	-10339
暖	-10340
壘	-10341
晓	-10342
喇	-10343
孕	-10344
谓	-10345
虹	-10346
雞	-10347
尹	-10348
氨	-10349
胶	-10350
魁	-10351
彌	-10352
冈	-10353
莲	-10354
溝	-10355
朴	-10356
邁	-10357
寓	-10358
珀	-10359
喪	-10360
挂	-10361
滕	-10362
×	-10363
蹈	-10364
舟	-10365
蓬	-10366
咖	-10367
坛	-10368
俠	-10369
扣	-10370
吻	-10371
坝	-10372
脅	-10373
苯	-10374
愈	-10375
伙	-10376
噴	-10377
抓	-10378
汀	-10379
耐	-10380
挖	-10381
胺	-10382
椎	-10383
飯	-10384
礙	-10385
搖	-10386
巫	-10387
陪	-10388
壮	-10389
贯	-10390
仓	-10391
披	-10392
耕	-10393
催	-10394
碩	-10395
稀	-10396
薇	-10397
舌	-10398
斥	-10399
矮	-10400
慣	-10401
撫	-10402
瓶	-10403
齿	-10404
削	-10405
掠	-10406
廖	-10407
讚	-10408
卸	-10409
龐	-10410
桓	-10411
藻	-10412
滩	-10413
违	-10414
吧	-10415
烯	-10416
详	-10417
鍾	-10418
渠	-10419
蒲	-10420
鸡	-10421
铺	-10422
邱	-10423
纹	-10424
閱	-10425
蜀	-10426
崖	-10427
唇	-10428
姑	-10429
屍	-10430
棉	-10431
葵	-10432
擅	-10433
庶	-10434
募	-10435
徹	-10436
粮	-10437
賜	-10438
链	-10439
帽	-10440
汝	-10441
禾	-10442
‘	-10443
薪	-10444
褐	-10445
溯	-10446
潔	-10447
筒	-10448
贤	-10449
豹	-10450
昇	-10451
暨	-10452
曉	-10453
蜜	-10454
鷹	-10455
啡	-10456
札	-10457
亥	-10458
弓	-10459
尿	-10460
閩	-10461
忘	-10462
梨	-10463
磷	-10464
貼	-10465
懸	-10466
酷	-10467
摧	-10468
鲍	-10469
梵	-10470
帥	-10471
缅	-10472
鑑	-10473
穴	-10474
丞	-10475
麵	-10476
惜	-10477
踏	-10478
肺	-10479
坂	-10480
邵	-10481
拘	-10482
纷	-10483
悬	-10484
琪	-10485
彻	-10486
杆	-10487
漏	-10488
甜	-10489
巷	-10490
趕	-10491
蕾	-10492
宴	-10493
拱	-10494
翅	-10495
怡	-10496
润	-10497
掩	-10498
沪	-10499
緬	-10500
页	-10501
腾	-10502
蹤	-10503
冕	-10504
淑	-10505
睡	-10506
奠	-10507
肢	-10508
碰	-10509
嘗	-10510
禦	-10511
宛	-10512
仕	-10513
棕	-10514
鉴	-10515
販	-10516
堤	-10517
枢	-10518
澄	-10519
柄	-10520
爪	-10521
誓	-10522
倾	-10523
励	-10524
哪	-10525
菩	-10526
逸	-10527
钦	-10528
诚	-10529
框	-10530
赏	-10531
慎	-10532
玲	-10533
毗	-10534
丑	-10535
遞	-10536
疊	-10537
鳴	-10538
臂	-10539
遲	-10540
呎	-10541
桌	-10542
驾	-10543
蹟	-10544
帅	-10545
赐	-10546
驶	-10547
霞	-10548
腿	-10549
遼	-10550
饮	-10551
銘	-10552
姿	-10553
猎	-10554
豬	-10555
丧	-10556
递	-10557
逻	-10558
贺	-10559
禄	-10560
禪	-10561
窄	-10562
腓	-10563
頗	-10564
冀	-10565
恋	-10566
淨	-10567
弄	-10568
雇	-10569
潤	-10570
烷	-10571
帆	-10572
寮	-10573
娶	-10574
辉	-10575
鐸	-10576
兔	-10577
腰	-10578
韻	-10579
恨	-10580
桐	-10581
阔	-10582
栗	-10583
肩	-10584
搶	-10585
悠	-10586
ー	-10587
辯	-10588
C	-10589
猜	-10590
瘤	-10591
蝠	-10592
扭	-10593
忆	-10594
抄	-10595
欽	-10596
跃	-10597
‧	-10598
貧	-10599
辟	-10600
罚	-10601
朵	-10602
赠	-10603
趨	-10604
壳	-10605
嫩	-10606
爬	-10607
繩	-10608
裸	-10609
惊	-10610
殷	-10611
沼	-10612
盈	-10613
胁	-10614
臟	-10615
滋	-10616
壯	-10617
庇	-10618
忌	-10619
逾	-10620
牲	-10621
飓	-10622
肝	-10623
禧	-10624
囚	-10625
蜥	-10626
糧	-10627
吊	-10628
纲	-10629
妖	-10630
炭	-10631
浸	-10632
α	-10633
繫	-10634
庸	-10635
罷	-10636
磯	-10637
荃	-10638
贞	-10639
厥	-10640
锁	-10641
鯨	-10642
劣	-10643
勸	-10644
掃	-10645
慰	-10646
閃	-10647
*	-10648
鈴	-10649
诞	-10650
贫	-10651
兽	-10652
铸	-10653
阅	-10654
弥	-10655
旱	-10656
а	-10657
勁	-10658
哀	-10659
埠	-10660
瑚	-10661
鱗	-10662
彥	-10663
扇	-10664
闊	-10665
蓄	-10666
駁	-10667
亩	-10668
搞	-10669
浓	-10670
盗	-10671
怎	-10672
趁	-10673
の	-10674
喷	-10675
秩	-10676
診	-10677
賦	-10678
氟	-10679
橡	-10680
辩	-10681
砖	-10682
跋	-10683
凰	-10684
樞	-10685
ン	-10686
濕	-10687
霧	-10688
扰	-10689
祈	-10690
焚	-10691
臀	-10692
柬	-10693
椅	-10694
槽	-10695
氫	-10696
灘	-10697
庞	-10698
債	-10699
償	-10700
瓷	-10701
庚	-10702
昔	-10703
噸	-10704
跌	-10705
薦	-10706
鱷	-10707
肅	-10708
赶	-10709
诏	-10710
擦	-10711
轰	-10712
牽	-10713
嵌	-10714
遮	-10715
蕃	-10716
赋	-10717
闽	-10718
瑜	-10719
欠	-10720
芙	-10721
鮑	-10722
猫	-10723
$	-10724
攜	-10725
夸	-10726
酮	-10727
屿	-10728
仑	-10729
挺	-10730
猴	-10731
肇	-10732
寇	-10733
艙	-10734
о	-10735
偽	-10736
凭	-10737
缸	-10738
彦	-10739
晴	-10740
涂	-10741
禅	-10742
祐	-10743
怨	-10744
哺	-10745
汶	-10746
氮	-10747
擺	-10748
狹	-10749
娱	-10750
頸	-10751
履	-10752
慘	-10753
净	-10754
眠	-10755
芭	-10756
询	-10757
鸿	-10758
鞋	-10759
棟	-10760
漂	-10761
鶴	-10762
碱	-10763
贴	-10764
郁	-10765
伪	-10766
鑽	-10767
欄	-10768
喻	-10769
悟	-10770
踢	-10771
捉	-10772
狐	-10773
眉	-10774
斬	-10775
嘛	-10776
攀	-10777
#	-10778
桿	-10779
昏	-10780
琼	-10781
栏	-10782
徙	-10783
璋	-10784
喝	-10785
尸	-10786
夥	-10787
狮	-10788
軒	-10789
颇	-10790
炳	-10791
浅	-10792
摇	-10793
麓	-10794
彎	-10795
穗	-10796
妥	-10797
譚	-10798
渔	-10799
粤	-10800
佑	-10801
睛	-10802
賊	-10803
踪	-10804
厢	-10805
蘋	-10806
廂	-10807
撥	-10808
鹰	-10809
坤	-10810
喉	-10811
僚	-10812
抢	-10813
窮	-10814
彗	-10815
爸	-10816
醉	-10817
匣	-10818
侨	-10819
糕	-10820
齋	-10821
淳	-10822
帖	-10823
鞍	-10824
绥	-10825
饭	-10826
寵	-10827
歉	-10828
迟	-10829
惯	-10830
棚	-10831
櫻	-10832
菱	-10833
崗	-10834
躲	-10835
邏	-10836
胆	-10837
戊	-10838
匪	-10839
荐	-10840
酯	-10841
尝	-10842
諮	-10843
臉	-10844
漆	-10845
и	-10846
梭	-10847
畜	-10848
旭	-10849
淵	-10850
涼	-10851
穌	-10852
勘	-10853
矢	-10854
辱	-10855
椒	-10856
盒	-10857
戚	-10858
茄	-10859
洁	-10860
熔	-10861
鴨	-10862
岐	-10863
劝	-10864
帳	-10865
鬆	-10866
詔	-10867
榴	-10868
騰	-10869
凉	-10870
聰	-10871
咒	-10872
勾	-10873
摔	-10874
咀	-10875
秉	-10876
碍	-10877
戌	-10878
賭	-10879
盲	-10880
罩	-10881
霖	-10882
罢	-10883
鹤	-10884
蛙	-10885
糊	-10886
煌	-10887
謙	-10888
瓊	-10889
鏈	-10890
閘	-10891
爐	-10892
鯛	-10893
牟	-10894
纤	-10895
庵	-10896
欺	-10897
滚	-10898
韶	-10899
痕	-10900
夾	-10901
陝	-10902
燥	-10903
竣	-10904
虞	-10905
笛	-10906
漳	-10907
瞄	-10908
虐	-10909
棠	-10910
′	-10911
澎	-10912
奮	-10913
幢	-10914
浴	-10915
趋	-10916
廿	-10917
拯	-10918
腸	-10919
塌	-10920
荆	-10921
斌	-10922
携	-10923
爺	-10924
蛤	-10925
遙	-10926
奸	-10927
匠	-10928
阜	-10929
侶	-10930
垣	-10931
瑙	-10932
貪	-10933
哭	-10934
塗	-10935
憤	-10936
胃	-10937
á	-10938
蝦	-10939
瓣	-10940
穷	-10941
嬰	-10942
畏	-10943
僑	-10944
潰	-10945
侠	-10946
捲	-10947
纖	-10948
矶	-10949
扫	-10950
擋	-10951
膚	-10952
誘	-10953
鎊	-10954
い	-10955
膨	-10956
憂	-10957
黛	-10958
螢	-10959
崙	-10960
焰	-10961
稣	-10962
朔	-10963
駿	-10964
剿	-10965
汁	-10966
酋	-10967
噪	-10968
凸	-10969
弧	-10970
鋪	-10971
摘	-10972
悼	-10973
誰	-10974
辣	-10975
铭	-10976
杏	-10977
窟	-10978
翡	-10979
凹	-10980
狭	-10981
黏	-10982
夹	-10983
偿	-10984
楠	-10985
粘	-10986
禹	-10987
辐	-10988
韵	-10989
鸣	-10990
乞	-10991
债	-10992
閒	-10993
暢	-10994
硝	-10995
輩	-10996
芽	-10997
赦	-10998
銳	-10999
е	-11000
荊	-11001
頜	-11002
橙	-11003
冥	-11004
塵	-11005
牢	-11006
滇	-11007
拋	-11008
樑	-11009
卧	-11010
戎	-11011
湛	-11012
宦	-11013
炼	-11014
闸	-11015
彬	-11016
橘	-11017
叠	-11018
瑰	-11019
诊	-11020
惑	-11021
纂	-11022
肆	-11023
膽	-11024
懼	-11025
酬	-11026
傘	-11027
餅	-11028
勉	-11029
寂	-11030
玫	-11031
畿	-11032
脏	-11033
懂	-11034
酰	-11035
棍	-11036
迄	-11037
н	-11038
涛	-11039
寅	-11040
狸	-11041
瀑	-11042
纬	-11043
孜	-11044
蹄	-11045
煮	-11046
冶	-11047
蔽	-11048
諡	-11049
磅	-11050
橄	-11051
繳	-11052
β	-11053
渊	-11054
酵	-11055
寡	-11056
堵	-11057
摆	-11058
赣	-11059
汕	-11060
泌	-11061
惨	-11062
裴	-11063
叢	-11064
鵝	-11065
邸	-11066
鱂	-11067
с	-11068
喊	-11069
懿	-11070
侦	-11071
榆	-11072
氛	-11073
匿	-11074
奋	-11075
簧	-11076
隙	-11077
伺	-11078
頃	-11079
鳞	-11080
櫃	-11081
】	-11082
茎	-11083
誼	-11084
孚	-11085
峻	-11086
鞭	-11087
【	-11088
沛	-11089
滴	-11090
稽	-11091
顷	-11092
侄	-11093
俞	-11094
詠	-11095
鹃	-11096
肪	-11097
臭	-11098
奕	-11099
荔	-11100
騙	-11101
欖	-11102
仗	-11103
垃	-11104
斋	-11105
荡	-11106
扑	-11107
彙	-11108
倪	-11109
筋	-11110
劾	-11111
彪	-11112
蝕	-11113
р	-11114
撲	-11115
訟	-11116
碘	-11117
禽	-11118
粟	-11119
裹	-11120
圾	-11121
雁	-11122
妓	-11123
芦	-11124
舱	-11125
衙	-11126
屢	-11127
綁	-11128
芯	-11129
鮋	-11130
泄	-11131
婉	-11132
傲	-11133
牡	-11134
苹	-11135
ん	-11136
娅	-11137
肠	-11138
鑼	-11139
闪	-11140
烤	-11141
殉	-11142
墜	-11143
墟	-11144
墩	-11145
岑	-11146
蓉	-11147
謠	-11148
壬	-11149
暑	-11150
皖	-11151
僱	-11152
凶	-11153
趾	-11154
苔	-11155
煉	-11156
谭	-11157
彝	-11158
绵	-11159
颠	-11160
豚	-11161
钻	-11162
塚	-11163
糾	-11164
頌	-11165
悅	-11166
曝	-11167
践	-11168
ü	-11169
拨	-11170
淹	-11171
硅	-11172
籤	-11173
諧	-11174
騷	-11175
嫡	-11176
鸦	-11177
呢	-11178
禍	-11179
賠	-11180
渦	-11181
狩	-11182
樟	-11183
蝙	-11184
垒	-11185
萍	-11186
舜	-11187
弊	-11188
纺	-11189
倭	-11190
啦	-11191
嘎	-11192
貸	-11193
竭	-11194
茹	-11195
栋	-11196
諷	-11197
檀	-11198
歼	-11199
炉	-11200
擠	-11201
鵬	-11202
拾	-11203
顛	-11204
桶	-11205
谊	-11206
谥	-11207
剌	-11208
溃	-11209
狙	-11210
穎	-11211
懲	-11212
梓	-11213
刪	-11214
吋	-11215
哇	-11216
爽	-11217
悔	-11218
啤	-11219
鴉	-11220
墅	-11221
釣	-11222
喚	-11223
闲	-11224
墾	-11225
羌	-11226
衷	-11227
窑	-11228
谦	-11229
т	-11230
郝	-11231
鰻	-11232
咬	-11233
籠	-11234
膀	-11235
毓	-11236
稚	-11237
蔓	-11238
薯	-11239
饶	-11240
魅	-11241
隕	-11242
淚	-11243
舖	-11244
蔭	-11245
砍	-11246
う	-11247
沫	-11248
淀	-11249
愚	-11250
锐	-11251
乒	-11252
哩	-11253
磚	-11254
淋	-11255
樸	-11256
挽	-11257
檐	-11258
鹏	-11259
í	-11260
愉	-11261
舅	-11262
萌	-11263
犁	-11264
鸭	-11265
剖	-11266
締	-11267
耿	-11268
莖	-11269
渤	-11270
禎	-11271
蘿	-11272
茜	-11273
莞	-11274
凍	-11275
聊	-11276
腎	-11277
骸	-11278
壹	-11279
咨	-11280
霜	-11281
厭	-11282
嵩	-11283
淫	-11284
鬚	-11285
犀	-11286
渭	-11287
炒	-11288
肿	-11289
癸	-11290
籲	-11291
濫	-11292
淆	-11293
罐	-11294
仆	-11295
僕	-11296
缝	-11297
谐	-11298
敷	-11299
苷	-11300
顱	-11301
砌	-11302
蔚	-11303
釜	-11304
颶	-11305
沁	-11306
綿	-11307
し	-11308
蘆	-11309
梗	-11310
谁	-11311
俯	-11312
漿	-11313
胚	-11314
扳	-11315
棱	-11316
滤	-11317
脹	-11318
膏	-11319
喙	-11320
擒	-11321
迭	-11322
兇	-11323
婴	-11324
弯	-11325
弼	-11326
贷	-11327
愤	-11328
鹅	-11329
ā	-11330
窩	-11331
诱	-11332
脆	-11333
醛	-11334
謹	-11335
闖	-11336
腫	-11337
卦	-11338
钠	-11339
矣	-11340
猩	-11341
庐	-11342
廚	-11343
浏	-11344
琦	-11345
崛	-11346
删	-11347
蕊	-11348
袍	-11349
烹	-11350
瞬	-11351
縫	-11352
厲	-11353
輿	-11354
鑄	-11355
в	-11356
晰	-11357
臥	-11358
遥	-11359
堯	-11360
斩	-11361
貶	-11362
骚	-11363
蔬	-11364
蜘	-11365
ö	-11366
抬	-11367
樊	-11368
碗	-11369
罹	-11370
岱	-11371
溥	-11372
祇	-11373
纠	-11374
榕	-11375
畅	-11376
瘋	-11377
黔	-11378
ス	-11379
壩	-11380
疲	-11381
蝴	-11382
挫	-11383
蒿	-11384
伞	-11385
к	-11386
坞	-11387
尧	-11388
膝	-11389
濾	-11390
蕉	-11391
ó	-11392
颈	-11393
杖	-11394
篤	-11395
廓	-11396
钩	-11397
匡	-11398
塢	-11399
甄	-11400
妾	-11401
泗	-11402
猿	-11403
祁	-11404
哨	-11405
胤	-11406
剥	-11407
瀨	-11408
撐	-11409
敖	-11410
馳	-11411
è	-11412
睿	-11413
錐	-11414
敲	-11415
厝	-11416
穀	-11417
虜	-11418
髓	-11419
擲	-11420
肋	-11421
鹼	-11422
饼	-11423
嚇	-11424
鑲	-11425
鬱	-11426
娥	-11427
傍	-11428
莽	-11429
説	-11430
峙	-11431
裙	-11432
擢	-11433
橢	-11434
疇	-11435
踐	-11436
鸚	-11437
吁	-11438
飼	-11439
肤	-11440
※	-11441
眷	-11442
紳	-11443
阎	-11444
匾	-11445
辜	-11446
か	-11447
溉	-11448
忧	-11449
贿	-11450
ル	-11451
戟	-11452
イ	-11453
堰	-11454
梧	-11455
聂	-11456
爛	-11457
敕	-11458
瀕	-11459
鬧	-11460
褒	-11461
鯊	-11462
勿	-11463
宠	-11464
晤	-11465
楷	-11466
陇	-11467
龟	-11468
丟	-11469
耆	-11470
潟	-11471
缴	-11472
铝	-11473
た	-11474
磡	-11475
窝	-11476
邢	-11477
宵	-11478
罵	-11479
萼	-11480
墳	-11481
羚	-11482
湧	-11483
鍋	-11484
巩	-11485
祺	-11486
瘦	-11487
抛	-11488
孢	-11489
绑	-11490
攔	-11491
舶	-11492
惹	-11493
浆	-11494
渣	-11495
琅	-11496
沂	-11497
瑶	-11498
盔	-11499
倖	-11500
阀	-11501
雯	-11502
肚	-11503
铃	-11504
闢	-11505
妈	-11506
л	-11507
聪	-11508
驳	-11509
抹	-11510
蒼	-11511
肾	-11512
漲	-11513
侏	-11514
贬	-11515
濁	-11516
煩	-11517
巾	-11518
沧	-11519
媛	-11520
峨	-11521
瞭	-11522
飽	-11523
渝	-11524
μ	-11525
冤	-11526
汐	-11527
瀏	-11528
暹	-11529
苻	-11530
乓	-11531
岬	-11532
疼	-11533
膛	-11534
溢	-11535
虏	-11536
舆	-11537
鋁	-11538
刃	-11539
蚀	-11540
邯	-11541
渴	-11542
颂	-11543
芹	-11544
菇	-11545
•	-11546
脸	-11547
挝	-11548
赔	-11549
嗎	-11550
涡	-11551
睦	-11552
屡	-11553
驟	-11554
苍	-11555
麒	-11556
奢	-11557
汾	-11558
諜	-11559
焊	-11560
绒	-11561
醬	-11562
虔	-11563
鞏	-11564
堀	-11565
婷	-11566
枯	-11567
錶	-11568
傭	-11569
贼	-11570
颖	-11571
闆	-11572
噬	-11573
芜	-11574
锥	-11575
醜	-11576
掀	-11577
枫	-11578
蠻	-11579
酿	-11580
贪	-11581
锅	-11582
閥	-11583
淞	-11584
詮	-11585
ア	-11586
腕	-11587
ラ	-11588
婿	-11589
賄	-11590
鰓	-11591
棣	-11592
蚌	-11593
堊	-11594
讽	-11595
钓	-11596
卯	-11597
泵	-11598
犧	-11599
胖	-11600
倚	-11601
岔	-11602
丕	-11603
啊	-11604
淪	-11605
僵	-11606
厉	-11607
吟	-11608
您	-11609
苞	-11610
辈	-11611
幌	-11612
忒	-11613
笠	-11614
賺	-11615
棺	-11616
纏	-11617
匙	-11618
羞	-11619
摸	-11620
剝	-11621
槟	-11622
紮	-11623
鰕	-11624
骼	-11625
釀	-11626
饱	-11627
馨	-11628
糟	-11629
洽	-11630
鈞	-11631
鉛	-11632
駒	-11633
棵	-11634
璧	-11635
紡	-11636
慌	-11637
磺	-11638
饒	-11639
と	-11640
稜	-11641
胀	-11642
兀	-11643
挡	-11644
濤	-11645
梳	-11646
緻	-11647
塾	-11648
詐	-11649
枕	-11650
糙	-11651
虧	-11652
骗	-11653
瑾	-11654
綽	-11655
榄	-11656
萃	-11657
褲	-11658
斧	-11659
禱	-11660
諭	-11661
釐	-11662
霆	-11663
祯	-11664
簿	-11665
嘲	-11666
捨	-11667
氰	-11668
紗	-11669
菁	-11670
謎	-11671
账	-11672
雾	-11673
艮	-11674
铅	-11675
霉	-11676
ا	-11677
牺	-11678
盪	-11679
竺	-11680
緝	-11681
陡	-11682
魨	-11683
纜	-11684
慾	-11685
撑	-11686
焉	-11687
蚤	-11688
捧	-11689
墮	-11690
恪	-11691
蟾	-11692
鋸	-11693
隍	-11694
晃	-11695
溜	-11696
瞻	-11697
孵	-11698
幟	-11699
抒	-11700
饥	-11701
ク	-11702
浑	-11703
蔗	-11704
衫	-11705
钾	-11706
讼	-11707
涨	-11708
竊	-11709
闵	-11710
惩	-11711
攤	-11712
祸	-11713
鵡	-11714
廁	-11715
帐	-11716
苣	-11717
襪	-11718
リ	-11719
搏	-11720
ト	-11721
钧	-11722
悦	-11723
芥	-11724
荀	-11725
谣	-11726
哉	-11727
坠	-11728
〔	-11729
〕	-11730
埼	-11731
沽	-11732
蛮	-11733
阐	-11734
な	-11735
磐	-11736
绳	-11737
д	-11738
嗜	-11739
芸	-11740
谨	-11741
琛	-11742
藓	-11743
抨	-11744
姦	-11745
滯	-11746
蛾	-11747
誅	-11748
烃	-11749
熹	-11750
帛	-11751
惧	-11752
兜	-11753
睹	-11754
侣	-11755
撕	-11756
沸	-11757
滲	-11758
ä	-11759
浚	-11760
茱	-11761
镶	-11762
丢	-11763
佣	-11764
暱	-11765
滙	-11766
に	-11767
憾	-11768
俾	-11769
晏	-11770
菸	-11771
楓	-11772
靶	-11773
尘	-11774
摺	-11775
煽	-11776
劲	-11777
戍	-11778
綏	-11779
帜	-11780
祂	-11781
蔷	-11782
譴	-11783
壟	-11784
溴	-11785
瀛	-11786
厌	-11787
皓	-11788
綴	-11789
り	-11790
偕	-11791
挤	-11792
穹	-11793
艰	-11794
炬	-11795
鲸	-11796
咪	-11797
妝	-11798
矽	-11799
禺	-11800
窦	-11801
懋	-11802
鲤	-11803
る	-11804
煞	-11805
蟬	-11806
艱	-11807
谴	-11808
龚	-11809
湊	-11810
澀	-11811
畴	-11812
酉	-11813
蕩	-11814
癒	-11815
霹	-11816
栓	-11817
缪	-11818
唤	-11819
篡	-11820
绣	-11821
煥	-11822
隅	-11823
雛	-11824
酚	-11825
釘	-11826
鍊	-11827
箕	-11828
衞	-11829
缀	-11830
γ	-11831
瑤	-11832
π	-11833
蚊	-11834
洩	-11835
−	-11836
泾	-11837
谍	-11838
娄	-11839
蘚	-11840
爷	-11841
翟	-11842
堇	-11843
誦	-11844
妄	-11845
皂	-11846
祕	-11847
铎	-11848
妨	-11849
祚	-11850
邹	-11851
镑	-11852
殲	-11853
贖	-11854
м	-11855
ま	-11856
豎	-11857
逗	-11858
鄒	-11859
钙	-11860
敞	-11861
曙	-11862
贩	-11863
闹	-11864
缮	-11865
黜	-11866
椭	-11867
艷	-11868
荫	-11869
譬	-11870
轩	-11871
蘊	-11872
鑒	-11873
薰	-11874
乍	-11875
曜	-11876
閻	-11877
峭	-11878
竖	-11879
冻	-11880
滥	-11881
屑	-11882
硼	-11883
鈔	-11884
澜	-11885
瘟	-11886
傀	-11887
俸	-11888
慨	-11889
瑛	-11890
楞	-11891
羟	-11892
舷	-11893
蕴	-11894
坟	-11895
暮	-11896
濠	-11897
臧	-11898
鈾	-11899
崑	-11900
氦	-11901
烂	-11902
鑫	-11903
麾	-11904
骤	-11905
く	-11906
靴	-11907
祷	-11908
彤	-11909
稠	-11910
羲	-11911
巳	-11912
灶	-11913
繹	-11914
儡	-11915
赌	-11916
捍	-11917
き	-11918
刹	-11919
峪	-11920
萝	-11921
鈕	-11922
靡	-11923
鹹	-11924
芋	-11925
嬪	-11926
燦	-11927
肽	-11928
虾	-11929
吡	-11930
驰	-11931
吵	-11932
夭	-11933
渾	-11934
煎	-11935
疯	-11936
〜	-11937
淇	-11938
葫	-11939
蟻	-11940
諫	-11941
樱	-11942
笃	-11943
謬	-11944
闡	-11945
λ	-11946
缔	-11947
娟	-11948
拦	-11949
莓	-11950
谕	-11951
鲨	-11952
σ	-11953
さ	-11954
胥	-11955
轎	-11956
壺	-11957
昊	-11958
汞	-11959
霄	-11960
埗	-11961
у	-11962
渥	-11963
斡	-11964
枣	-11965
笨	-11966
盎	-11967
垦	-11968
\	-11969
ッ	-11970
伶	-11971
恕	-11972
卤	-11973
沐	-11974
砸	-11975
簇	-11976
は	-11977
芮	-11978
樺	-11979
皋	-11980
钥	-11981
隘	-11982
δ	-11983
柜	-11984
篷	-11985
酪	-11986
胰	-11987
佬	-11988
掣	-11989
郸	-11990
匀	-11991
苟	-11992
侮	-11993
潼	-11994
聶	-11995
豁	-11996
が	-11997
淄	-11998
刮	-11999
溺	-12000
嘯	-12001
垄	-12002
烦	-12003
鉤	-12004
咽	-12005
瑩	-12006
誇	-12007
鶯	-12008
濒	-12009
鈉	-12010
醚	-12011
靼	-12012
陋	-12013
椰	-12014
腥	-12015
滬	-12016
莆	-12017
叱	-12018
奚	-12019
泣	-12020
諒	-12021
蒜	-12022
こ	-12023
沦	-12024
炯	-12025
竇	-12026
繡	-12027
炫	-12028
証	-12029
諱	-12030
餓	-12031
扔	-12032
ω	-12033
ら	-12034
嶽	-12035
鈣	-12036
冉	-12037
沮	-12038
薹	-12039
壕	-12040
憩	-12041
顎	-12042
滞	-12043
绸	-12044
鎌	-12045
泪	-12046
膳	-12047
萎	-12048
蠟	-12049
ε	-12050
叹	-12051
衢	-12052
鞘	-12053
吗	-12054
窃	-12055
謊	-12056
醋	-12057
鉅	-12058
頑	-12059
驿	-12060
妍	-12061
拷	-12062
槐	-12063
厨	-12064
蜡	-12065
艳	-12066
幡	-12067
覓	-12068
â	-12069
嘆	-12070
巖	-12071
萱	-12072
敛	-12073
隼	-12074
飄	-12075
鼬	-12076
曦	-12077
ç	-12078
み	-12079
漕	-12080
肛	-12081
寝	-12082
晟	-12083
舵	-12084
哆	-12085
垫	-12086
驼	-12087
兌	-12088
擱	-12089
晖	-12090
咎	-12091
昧	-12092
毯	-12093
阱	-12094
陛	-12095
甬	-12096
剃	-12097
莒	-12098
鑰	-12099
悖	-12100
臼	-12101
诛	-12102
侖	-12103
柑	-12104
毘	-12105
洼	-12106
庾	-12107
疹	-12108
繆	-12109
シ	-12110
悄	-12111
惱	-12112
渗	-12113
斃	-12114
淤	-12115
渲	-12116
绰	-12117
扯	-12118
鄞	-12119
鰈	-12120
僖	-12121
檬	-12122
纱	-12123
п	-12124
タ	-12125
恤	-12126
て	-12127
垮	-12128
←	-12129
呆	-12130
墊	-12131
篆	-12132
侗	-12133
倩	-12134
廬	-12135
戮	-12136
湄	-12137
琶	-12138
佚	-12139
卉	-12140
苛	-12141
お	-12142
姨	-12143
瞿	-12144
駝	-12145
沾	-12146
衆	-12147
ジ	-12148
汲	-12149
琵	-12150
笙	-12151
裘	-12152
汴	-12153
聆	-12154
愁	-12155
弈	-12156
楔	-12157
絨	-12158
悍	-12159
拐	-12160
朽	-12161
槳	-12162
齣	-12163
殆	-12164
畝	-12165
葱	-12166
駱	-12167
鳍	-12168
寰	-12169
汙	-12170
潑	-12171
臻	-12172
ل	-12173
嫔	-12174
毙	-12175
綾	-12176
跪	-12177
倆	-12178
磊	-12179
傻	-12180
燮	-12181
稷	-12182
揆	-12183
灼	-12184
盼	-12185
蒐	-12186
蜴	-12187
勻	-12188
焕	-12189
绅	-12190
飘	-12191
骆	-12192
沅	-12193
蕙	-12194
陂	-12195
镍	-12196
啸	-12197
诵	-12198
锌	-12199
兑	-12200
恥	-12201
驕	-12202
埕	-12203
珂	-12204
翊	-12205
饲	-12206
嬌	-12207
滄	-12208
ο	-12209
绎	-12210
啶	-12211
媚	-12212
竿	-12213
褚	-12214
雉	-12215
ロ	-12216
撼	-12217
圩	-12218
蚜	-12219
霰	-12220
骏	-12221
壶	-12222
羧	-12223
陌	-12224
蜗	-12225
鈍	-12226
凿	-12227
攬	-12228
苓	-12229
遏	-12230
桔	-12231
ν	-12232
産	-12233
飢	-12234
糯	-12235
酱	-12236
ち	-12237
杞	-12238
攸	-12239
閔	-12240
あ	-12241
侬	-12242
±	-12243
ú	-12244
潞	-12245
甥	-12246
褶	-12247
濮	-12248
茛	-12249
訥	-12250
贛	-12251
マ	-12252
鳩	-12253
丫	-12254
栅	-12255
樵	-12256
胱	-12257
魄	-12258
侃	-12259
谏	-12260
坍	-12261
脾	-12262
カ	-12263
澱	-12264
閏	-12265
卅	-12266
畸	-12267
捆	-12268
泼	-12269
喃	-12270
檳	-12271
跆	-12272
秃	-12273
г	-12274
嵐	-12275
暉	-12276
浜	-12277
缆	-12278
圃	-12279
烘	-12280
珪	-12281
杠	-12282
躁	-12283
妆	-12284
皈	-12285
葆	-12286
鑿	-12287
椿	-12288
耦	-12289
饿	-12290
吓	-12291
擄	-12292
锯	-12293
弋	-12294
洮	-12295
琰	-12296
缠	-12297
侈	-12298
甦	-12299
餉	-12300
ρ	-12301
○	-12302
弩	-12303
柵	-12304
鉀	-12305
鐮	-12306
妒	-12307
锤	-12308
鬍	-12309
й	-12310
孺	-12311
踩	-12312
龔	-12313
叡	-12314
嫻	-12315
蔑	-12316
虢	-12317
誣	-12318
锂	-12319
鰨	-12320
鳚	-12321
亏	-12322
窯	-12323
趟	-12324
嘻	-12325
拌	-12326
浊	-12327
峯	-12328
桅	-12329
砷	-12330
蟒	-12331
毋	-12332
濂	-12333
@	-12334
谟	-12335
唸	-12336
蚁	-12337
鷲	-12338
僉	-12339
啓	-12340
遁	-12341
媳	-12342
撃	-12343
籽	-12344
謨	-12345
ə	-12346
壢	-12347
芷	-12348
τ	-12349
莘	-12350
闯	-12351
ι	-12352
瑋	-12353
儉	-12354
瀾	-12355
蠕	-12356
靂	-12357
〇	-12358
喘	-12359
鏢	-12360
殭	-12361
缉	-12362
刁	-12363
匆	-12364
咏	-12365
袜	-12366
蔥	-12367
铀	-12368
陨	-12369
ς	-12370
轿	-12371
じ	-12372
澈	-12373
燭	-12374
濬	-12375
б	-12376
冢	-12377
闰	-12378
鮨	-12379
俭	-12380
泸	-12381
畑	-12382
縛	-12383
襟	-12384
毆	-12385
茉	-12386
裳	-12387
勐	-12388
筠	-12389
钞	-12390
栈	-12391
槃	-12392
舺	-12393
艋	-12394
薑	-12395
吼	-12396
赎	-12397
倦	-12398
圻	-12399
蓼	-12400
ド	-12401
拂	-12402
粥	-12403
邕	-12404
陞	-12405
馈	-12406
灑	-12407
狠	-12408
瞳	-12409
も	-12410
傣	-12411
樁	-12412
痴	-12413
韌	-12414
骂	-12415
à	-12416
瀋	-12417
蠅	-12418
鋰	-12419
フ	-12420
瑕	-12421
遴	-12422
崁	-12423
檻	-12424
氹	-12425
迥	-12426
晦	-12427
襯	-12428
驛	-12429
掖	-12430
琥	-12431
ô	-12432
仄	-12433
岷	-12434
碉	-12435
鱈	-12436
僻	-12437
挾	-12438
瀚	-12439
オ	-12440
姪	-12441
耻	-12442
蚕	-12443
峇	-12444
斛	-12445
冗	-12446
埤	-12447
愧	-12448
暈	-12449
柿	-12450
瀧	-12451
軀	-12452
钉	-12453
饋	-12454
‰	-12455
を	-12456
昼	-12457
檗	-12458
レ	-12459
朕	-12460
琮	-12461
躺	-12462
撈	-12463
潢	-12464
瀉	-12465
蝇	-12466
蠢	-12467
谜	-12468
鎧	-12469
れ	-12470
勛	-12471
吠	-12472
硒	-12473
豔	-12474
鳅	-12475
阙	-12476
鷺	-12477
溧	-12478
饑	-12479
鷗	-12480
恺	-12481
檎	-12482
錘	-12483
妊	-12484
瞞	-12485
輾	-12486
つ	-12487
洙	-12488
鱇	-12489
璽	-12490
耍	-12491
や	-12492
剔	-12493
唑	-12494
寢	-12495
悚	-12496
迂	-12497
攏	-12498
绛	-12499
逵	-12500
酥	-12501
昱	-12502
糞	-12503
翎	-12504
螯	-12505
顽	-12506
キ	-12507
礫	-12508
蓟	-12509
熵	-12510
訶	-12511
钊	-12512
锈	-12513
暇	-12514
猷	-12515
矚	-12516
诬	-12517
婢	-12518
鮟	-12519
咳	-12520
扈	-12521
櫛	-12522
荧	-12523
κ	-12524
す	-12525
憐	-12526
枋	-12527
賤	-12528
鰍	-12529
φ	-12530
掷	-12531
矯	-12532
釉	-12533
綺	-12534
緋	-12535
薨	-12536
詛	-12537
钝	-12538
だ	-12539
螂	-12540
俩	-12541
槭	-12542
衬	-12543
я	-12544
忻	-12545
皿	-12546
禿	-12547
醣	-12548
囑	-12549
帘	-12550
幂	-12551
訝	-12552
賃	-12553
エ	-12554
拙	-12555
璜	-12556
讳	-12557
诈	-12558
跤	-12559
ن	-12560
婁	-12561
逍	-12562
咤	-12563
昨	-12564
癮	-12565
嫉	-12566
孀	-12567
樽	-12568
靳	-12569
駭	-12570
佟	-12571
奘	-12572
桩	-12573
殯	-12574
膺	-12575
鎂	-12576
韬	-12577
颐	-12578
曬	-12579
沱	-12580
匝	-12581
捏	-12582
潍	-12583
蝽	-12584
で	-12585
兖	-12586
婭	-12587
嶄	-12588
砾	-12589
ミ	-12590
榨	-12591
渚	-12592
眺	-12593
裤	-12594
肘	-12595
宸	-12596
楨	-12597
璇	-12598
羰	-12599
轅	-12600
碁	-12601
頤	-12602
鴿	-12603
鸽	-12604
グ	-12605
擂	-12606
沌	-12607
茫	-12608
麝	-12609
妳	-12610
曳	-12611
諺	-12612
鮭	-12613
貂	-12614
堕	-12615
钮	-12616
剎	-12617
惰	-12618
扼	-12619
蜱	-12620
榔	-12621
歪	-12622
綢	-12623
雏	-12624
黯	-12625
倘	-12626
岚	-12627
眶	-12628
奄	-12629
晝	-12630
煜	-12631
篩	-12632
餵	-12633
^	-12634
悶	-12635
斂	-12636
馏	-12637
馴	-12638
鼩	-12639
巍	-12640
炙	-12641
瑄	-12642
莺	-12643
詭	-12644
鍛	-12645
筛	-12646
蛟	-12647
诃	-12648
赚	-12649
鄙	-12650
コ	-12651
偃	-12652
嘱	-12653
懶	-12654
熄	-12655
頰	-12656
兗	-12657
惕	-12658
昵	-12659
炔	-12660
隴	-12661
鸠	-12662
巽	-12663
帧	-12664
鄱	-12665
チ	-12666
迺	-12667
坳	-12668
嫂	-12669
磋	-12670
鬣	-12671
θ	-12672
叻	-12673
摊	-12674
牒	-12675
绞	-12676
鞑	-12677
黴	-12678
氙	-12679
翹	-12680
魮	-12681
叮	-12682
怜	-12683
桦	-12684
氓	-12685
涧	-12686
絮	-12687
綸	-12688
蒴	-12689
谅	-12690
鈺	-12691
铉	-12692
鵰	-12693
夔	-12694
嬴	-12695
怠	-12696
戛	-12697
菅	-12698
捞	-12699
秤	-12700
卞	-12701
殴	-12702
昶	-12703
沥	-12704
っ	-12705
劈	-12706
叭	-12707
蝉	-12708
麴	-12709
嗅	-12710
宕	-12711
尻	-12712
撇	-12713
脖	-12714
蛺	-12715
嶋	-12716
诠	-12717
ʁ	-12718
ハ	-12719
旷	-12720
璐	-12721
秧	-12722
笋	-12723
腋	-12724
蝸	-12725
鎳	-12726
鞠	-12727
ر	-12728
デ	-12729
筲	-12730
锻	-12731
ы	-12732
佃	-12733
鹛	-12734
槓	-12735
瀝	-12736
蘑	-12737
酌	-12738
乂	-12739
亢	-12740
孛	-12741
搁	-12742
昕	-12743
烽	-12744
羹	-12745
璞	-12746
藜	-12747
鍍	-12748
ê	-12749
憎	-12750
汛	-12751
炀	-12752
笈	-12753
伎	-12754
凑	-12755
哮	-12756
唔	-12757
颍	-12758
龛	-12759
ي	-12760
拇	-12761
掙	-12762
撓	-12763
檸	-12764
涿	-12765
羯	-12766
谎	-12767
铬	-12768
丐	-12769
吒	-12770
晒	-12771
洒	-12772
賂	-12773
パ	-12774
劭	-12775
啄	-12776
癱	-12777
ч	-12778
サ	-12779
懈	-12780
絞	-12781
颅	-12782
歙	-12783
蝎	-12784
骄	-12785
ë	-12786
佗	-12787
蠍	-12788
诰	-12789
邺	-12790
雳	-12791
焘	-12792
篠	-12793
簾	-12794
鳄	-12795
η	-12796
け	-12797
穫	-12798
豈	-12799
鄴	-12800
綬	-12801
荼	-12802
蠶	-12803
醯	-12804
鲷	-12805
咐	-12806
晷	-12807
淦	-12808
揽	-12809
浣	-12810
ī	-12811
郢	-12812
鳌	-12813
わ	-12814
揉	-12815
曇	-12816
瞰	-12817
郴	-12818
镁	-12819
☆	-12820
彷	-12821
滔	-12822
璟	-12823
莹	-12824
赂	-12825
鈎	-12826
馥	-12827
慷	-12828
旌	-12829
熏	-12830
瓮	-12831
荚	-12832
蝗	-12833
蝨	-12834
з	-12835
乖	-12836
儂	-12837
挨	-12838
熬	-12839
稼	-12840
缚	-12841
銓	-12842
驴	-12843
鮃	-12844
鹦	-12845
ウ	-12846
巔	-12847
徘	-12848
桨	-12849
榈	-12850
漱	-12851
瓯	-12852
闕	-12853
聿	-12854
誡	-12855
辗	-12856
ь	-12857
尬	-12858
睞	-12859
羈	-12860
鋅	-12861
鑾	-12862
š	-12863
テ	-12864
プ	-12865
淖	-12866
祉	-12867
荠	-12868
躬	-12869
鸞	-12870
佘	-12871
呤	-12872
檜	-12873
滁	-12874
玺	-12875
踝	-12876
ニ	-12877
ャ	-12878
屎	-12879
徊	-12880
櫚	-12881
酗	-12882
镰	-12883
寥	-12884
挠	-12885
窺	-12886
衮	-12887
韃	-12888
僭	-12889
槌	-12890
熾	-12891
査	-12892
睾	-12893
醮	-12894
覃	-12895
躯	-12896
遐	-12897
餡	-12898
呀	-12899
娠	-12900
梢	-12901
澧	-12902
耽	-12903
謗	-12904
轍	-12905
钵	-12906
姥	-12907
柩	-12908
烛	-12909
甯	-12910
皱	-12911
窪	-12912
贻	-12913
邳	-12914
钛	-12915
韧	-12916
驯	-12917
驹	-12918
و	-12919
バ	-12920
冼	-12921
凋	-12922
嚮	-12923
婺	-12924
滦	-12925
甩	-12926
瘓	-12927
踞	-12928
麽	-12929
凳	-12930
妲	-12931
澡	-12932
灸	-12933
羁	-12934
葺	-12935
蔔	-12936
鈦	-12937
鞅	-12938
鹘	-12939
م	-12940
喆	-12941
晕	-12942
歳	-12943
玟	-12944
蟠	-12945
鏽	-12946
鹊	-12947
□	-12948
錨	-12949
よ	-12950
兮	-12951
薈	-12952
镀	-12953
桢	-12954
洵	-12955
稟	-12956
鄺	-12957
鎚	-12958
髻	-12959
鱨	-12960
鵑	-12961
咕	-12962
惶	-12963
祜	-12964
锰	-12965
唾	-12966
捻	-12967
犍	-12968
罔	-12969
ガ	-12970
娇	-12971
癖	-12972
睢	-12973
苇	-12974
骷	-12975
ナ	-12976
唆	-12977
棧	-12978
泻	-12979
灿	-12980
瘫	-12981
涪	-12982
窒	-12983
蕪	-12984
ɛ	-12985
ひ	-12986
崧	-12987
愍	-12988
摹	-12989
碌	-12990
訣	-12991
铵	-12992
驸	-12993
鉉	-12994
飆	-12995
懇	-12996
柠	-12997
瘾	-12998
骰	-12999
翘	-13000
闾	-13001
佼	-13002
俏	-13003
絃	-13004
鳃	-13005
ß	-13006
ム	-13007
佥	-13008
嘌	-13009
恼	-13010
撾	-13011
歹	-13012
ñ	-13013
ィ	-13014
珉	-13015
疣	-13016
竄	-13017
釗	-13018
飪	-13019
ょ	-13020
嗓	-13021
嬉	-13022
栾	-13023
浒	-13024
筵	-13025
薊	-13026
喂	-13027
怯	-13028
攘	-13029
槿	-13030
瓚	-13031
粽	-13032
脷	-13033
蓓	-13034
愷	-13035
螈	-13036
饷	-13037
傢	-13038
叩	-13039
嘧	-13040
娩	-13041
孽	-13042
拢	-13043
旻	-13044
泓	-13045
煒	-13046
窘	-13047
粲	-13048
莪	-13049
蝰	-13050
铲	-13051
鹭	-13052
屁	-13053
惇	-13054
湍	-13055
羨	-13056
鼐	-13057
弛	-13058
疵	-13059
籬	-13060
咲	-13061
柚	-13062
栎	-13063
楹	-13064
滘	-13065
绶	-13066
蔻	-13067
攪	-13068
杵	-13069
浇	-13070
瑁	-13071
筱	-13072
婕	-13073
岂	-13074
炱	-13075
燊	-13076
痊	-13077
绢	-13078
镐	-13079
堃	-13080
忱	-13081
扒	-13082
缕	-13083
鹵	-13084
ろ	-13085
曠	-13086
滸	-13087
筏	-13088
紓	-13089
谒	-13090
ブ	-13091
儼	-13092
叟	-13093
寞	-13094
抖	-13095
琨	-13096
瘧	-13097
蕈	-13098
誥	-13099
贮	-13100
鮡	-13101
纶	-13102
膩	-13103
锚	-13104
鰂	-13105
え	-13106
皺	-13107
せ	-13108
珮	-13109
葦	-13110
諦	-13111
鴞	-13112
琢	-13113
č	-13114
枉	-13115
珲	-13116
罂	-13117
逕	-13118
酐	-13119
涩	-13120
溼	-13121
炽	-13122
琬	-13123
畲	-13124
诫	-13125
亳	-13126
撮	-13127
貯	-13128
⁄	-13129
岌	-13130
恬	-13131
榛	-13132
荨	-13133
虱	-13134
顫	-13135
撿	-13136
洱	-13137
獾	-13138
玖	-13139
鹉	-13140
渎	-13141
睽	-13142
糸	-13143
絹	-13144
谬	-13145
靚	-13146
厕	-13147
巅	-13148
璉	-13149
瞎	-13150
聾	-13151
肄	-13152
蚓	-13153
蛭	-13154
诅	-13155
髒	-13156
幺	-13157
碾	-13158
蜓	-13159
俑	-13160
俳	-13161
戳	-13162
狡	-13163
琐	-13164
箔	-13165
镖	-13166
鮠	-13167
ø	-13168
嬅	-13169
檯	-13170
珞	-13171
賑	-13172
泮	-13173
脩	-13174
赁	-13175
黍	-13176
ζ	-13177
堺	-13178
恃	-13179
抉	-13180
摯	-13181
楣	-13182
痪	-13183
茸	-13184
菠	-13185
螳	-13186
ب	-13187
涟	-13188
荻	-13189
釧	-13190
鸢	-13191
ē	-13192
噁	-13193
箏	-13194
ビ	-13195
梟	-13196
砚	-13197
筷	-13198
薔	-13199
韜	-13200
鱺	-13201
æ	-13202
ゅ	-13203
嘔	-13204
懦	-13205
猝	-13206
疽	-13207
筍	-13208
粱	-13209
鯙	-13210
ェ	-13211
ダ	-13212
メ	-13213
娼	-13214
澍	-13215
瑣	-13216
讞	-13217
輟	-13218
ō	-13219
俚	-13220
漩	-13221
燧	-13222
粪	-13223
ū	-13224
―	-13225
繕	-13226
謁	-13227
赈	-13228
轭	-13229
钴	-13230
ュ	-13231
妤	-13232
灝	-13233
煦	-13234
聳	-13235
谤	-13236
醴	-13237
鉑	-13238
å	-13239
婪	-13240
棗	-13241
貽	-13242
閑	-13243
淅	-13244
珅	-13245
穢	-13246
箴	-13247
肱	-13248
蜒	-13249
め	-13250
侷	-13251
崴	-13252
焙	-13253
羔	-13254
蚂	-13255
呵	-13256
桁	-13257
琊	-13258
畠	-13259
蜻	-13260
褫	-13261
邂	-13262
阡	-13263
霓	-13264
龕	-13265
啞	-13266
榭	-13267
胄	-13268
豌	-13269
鮫	-13270
啼	-13271
喧	-13272
弔	-13273
檄	-13274
疚	-13275
緞	-13276
肴	-13277
蛹	-13278
逅	-13279
拮	-13280
挣	-13281
瘡	-13282
釁	-13283
闷	-13284
靺	-13285
饪	-13286
≤	-13287
垢	-13288
癲	-13289
睐	-13290
窖	-13291
誹	-13292
鏟	-13293
戡	-13294
搅	-13295
氐	-13296
氾	-13297
洄	-13298
浔	-13299
烙	-13300
羥	-13301
荥	-13302
蜈	-13303
賬	-13304
鉻	-13305
鸥	-13306
鸾	-13307
モ	-13308
嚼	-13309
搗	-13310
碇	-13311
頡	-13312
餾	-13313
х	-13314
俐	-13315
嗽	-13316
糜	-13317
脇	-13318
膦	-13319
覲	-13320
谔	-13321
鹫	-13322
掏	-13323
栱	-13324
苋	-13325
謚	-13326
闇	-13327
颓	-13328
骁	-13329
î	-13330
涇	-13331
腱	-13332
蚣	-13333
贱	-13334
蹲	-13335
瞒	-13336
矗	-13337
紊	-13338
腻	-13339
鞨	-13340
勖	-13341
吩	-13342
嘩	-13343
媲	-13344
漾	-13345
鎬	-13346
锑	-13347
壠	-13348
奬	-13349
弁	-13350
杓	-13351
沭	-13352
瀆	-13353
祗	-13354
銃	-13355
吶	-13356
塹	-13357
夯	-13358
珈	-13359
軛	-13360
頷	-13361
驃	-13362
鬃	-13363
彧	-13364
彿	-13365
橇	-13366
纥	-13367
菀	-13368
韭	-13369
柝	-13370
湟	-13371
漓	-13372
腈	-13373
頹	-13374
魷	-13375
鳖	-13376
»	-13377
ã	-13378
垛	-13379
柘	-13380
湮	-13381
爹	-13382
疤	-13383
簷	-13384
袒	-13385
轼	-13386
镕	-13387
餚	-13388
鲱	-13389
烴	-13390
癫	-13391
矫	-13392
羣	-13393
茴	-13394
蠡	-13395
袞	-13396
鏞	-13397
铂	-13398
冪	-13399
挚	-13400
漪	-13401
痰	-13402
蝮	-13403
躋	-13404
ц	-13405
儸	-13406
峒	-13407
榻	-13408
脛	-13409
遽	-13410
靛	-13411
鸫	-13412
ㄧ	-13413
匕	-13414
巒	-13415
耸	-13416
萸	-13417
鄢	-13418
锺	-13419
鱲	-13420
鳗	-13421
鼴	-13422
د	-13423
帚	-13424
玳	-13425
珥	-13426
盂	-13427
舫	-13428
蜍	-13429
訛	-13430
雒	-13431
娑	-13432
捣	-13433
揣	-13434
沔	-13435
焯	-13436
邛	-13437
匐	-13438
掺	-13439
辻	-13440
闍	-13441
馀	-13442
庑	-13443
悌	-13444
慄	-13445
挟	-13446
斟	-13447
歆	-13448
歎	-13449
瓘	-13450
痢	-13451
詣	-13452
宥	-13453
菏	-13454
蜿	-13455
谿	-13456
υ	-13457
噩	-13458
拗	-13459
栢	-13460
譏	-13461
貳	-13462
赉	-13463
逞	-13464
餌	-13465
鯡	-13466
佯	-13467
勺	-13468
囪	-13469
殡	-13470
滌	-13471
澹	-13472
煬	-13473
疟	-13474
眩	-13475
ł	-13476
匮	-13477
瑯	-13478
癡	-13479
锣	-13480
鯽	-13481
鵲	-13482
涤	-13483
矾	-13484
絆	-13485
邾	-13486
郤	-13487
颌	-13488
髦	-13489
ズ	-13490
呕	-13491
帷	-13492
稔	-13493
螃	-13494
驢	-13495
ш	-13496
ツ	-13497
俟	-13498
痘	-13499
萤	-13500
觐	-13501
讶	-13502
軾	-13503
鏗	-13504
钯	-13505
驍	-13506
鲫	-13507
鸮	-13508
匍	-13509
咱	-13510
昙	-13511
繭	-13512
蠔	-13513
辍	-13514
齧	-13515
●	-13516
咯	-13517
戦	-13518
棻	-13519
痺	-13520
繇	-13521
蕲	-13522
辕	-13523
郗	-13524
鉗	-13525
鳶	-13526
嫦	-13527
缽	-13528
蚺	-13529
褻	-13530
醍	-13531
铨	-13532
驤	-13533
佰	-13534
嫖	-13535
岙	-13536
錳	-13537
鑣	-13538
髏	-13539
«	-13540
匱	-13541
掾	-13542
昴	-13543
潇	-13544
璘	-13545
阯	-13546
霑	-13547
鵙	-13548
ゆ	-13549
儁	-13550
拚	-13551
觅	-13552
鵜	-13553
垩	-13554
懒	-13555
栃	-13556
胭	-13557
蒯	-13558
諏	-13559
诽	-13560
恂	-13561
摒	-13562
瘠	-13563
睫	-13564
筝	-13565
糠	-13566
羡	-13567
裨	-13568
诡	-13569
醃	-13570
醐	-13571
阗	-13572
ŋ	-13573
甕	-13574
菟	-13575
賁	-13576
僞	-13577
嚨	-13578
绮	-13579
膾	-13580
蝌	-13581
込	-13582
齦	-13583
咄	-13584
橐	-13585
濑	-13586
煲	-13587
瑠	-13588
痹	-13589
稗	-13590
钗	-13591
铯	-13592
驊	-13593
ど	-13594
剋	-13595
剷	-13596
嗚	-13597
崭	-13598
弒	-13599
敍	-13600
杲	-13601
珙	-13602
瑗	-13603
缙	-13604
腭	-13605
贓	-13606
鰲	-13607
ć	-13608
娣	-13609
徳	-13610
湳	-13611
璀	-13612
絳	-13613
罄	-13614
蚪	-13615
ś	-13616
س	-13617
嚕	-13618
寛	-13619
忿	-13620
懺	-13621
涸	-13622
緹	-13623
銮	-13624
ा	-13625
恳	-13626
揀	-13627
盏	-13628
莢	-13629
釷	-13630
钨	-13631
钰	-13632
­	-13633
哑	-13634
啉	-13635
孰	-13636
帑	-13637
扛	-13638
澗	-13639
猖	-13640
鲀	-13641
嵋	-13642
簪	-13643
萩	-13644
鱔	-13645
ɔ	-13646
勅	-13647
尷	-13648
晁	-13649
暐	-13650
珩	-13651
癇	-13652
皎	-13653
盯	-13654
譙	-13655
赓	-13656
闫	-13657
馅	-13658
ノ	-13659
櫟	-13660
瑭	-13661
碲	-13662
谛	-13663
谯	-13664
蹇	-13665
邈	-13666
颉	-13667
鲈	-13668
ご	-13669
ぶ	-13670
幔	-13671
汜	-13672
涝	-13673
褪	-13674
霾	-13675
颊	-13676
龢	-13677
⋯	-13678
奭	-13679
擷	-13680
桧	-13681
榘	-13682
榷	-13683
珣	-13684
瓢	-13685
箍	-13686
翦	-13687
誨	-13688
诣	-13689
诲	-13690
魴	-13691
鯤	-13692
鱧	-13693
ば	-13694
囤	-13695
恿	-13696
渺	-13697
犛	-13698
艏	-13699
訖	-13700
谚	-13701
豺	-13702
鎗	-13703
ワ	-13704
漬	-13705
琇	-13706
痒	-13707
瞩	-13708
耘	-13709
芩	-13710
蹦	-13711
镉	-13712
闐	-13713
颚	-13714
鴕	-13715
爨	-13716
獺	-13717
笏	-13718
鈹	-13719
駙	-13720
ず	-13721
呋	-13722
尕	-13723
摻	-13724
晞	-13725
桀	-13726
箬	-13727
茗	-13728
藕	-13729
藨	-13730
衅	-13731
辮	-13732
邃	-13733
俺	-13734
儋	-13735
嵊	-13736
掸	-13737
栩	-13738
炜	-13739
硤	-13740
粿	-13741
蛻	-13742
蜆	-13743
螞	-13744
閭	-13745
そ	-13746
ョ	-13747
攣	-13748
珏	-13749
畈	-13750
痫	-13751
釵	-13752
鋤	-13753
锷	-13754
屹	-13755
嵇	-13756
憫	-13757
涕	-13758
熒	-13759
謫	-13760
趴	-13761
逛	-13762
閹	-13763
魟	-13764
嵯	-13765
様	-13766
煊	-13767
燾	-13768
盱	-13769
腌	-13770
鹳	-13771
ˋ	-13772
ά	-13773
э	-13774
亟	-13775
憬	-13776
挹	-13777
玮	-13778
贲	-13779
跻	-13780
轧	-13781
郃	-13782
郧	-13783
馱	-13784
哗	-13785
弑	-13786
欒	-13787
湃	-13788
禰	-13789
锟	-13790
隈	-13791
ı	-13792
ع	-13793
ゃ	-13794
唁	-13795
恽	-13796
撻	-13797
瀰	-13798
癢	-13799
秽	-13800
谘	-13801
姍	-13802
疮	-13803
缎	-13804
鄔	-13805
錮	-13806
钏	-13807
顗	-13808
髯	-13809
्	-13810
む	-13811
庠	-13812
濛	-13813
爍	-13814
獠	-13815
砥	-13816
砦	-13817
紜	-13818
苳	-13819
鸳	-13820
ж	-13821
喱	-13822
囉	-13823
癬	-13824
綵	-13825
驷	-13826
鯧	-13827
∈	-13828
哼	-13829
嫣	-13830
昀	-13831
桉	-13832
楝	-13833
槎	-13834
氈	-13835
涓	-13836
甌	-13837
讒	-13838
钡	-13839
偈	-13840
毎	-13841
盞	-13842
聋	-13843
胪	-13844
葶	-13845
藐	-13846
鎢	-13847
钼	-13848
鯖	-13849
鳕	-13850
勗	-13851
峠	-13852
氘	-13853
汨	-13854
燎	-13855
猕	-13856
璨	-13857
紇	-13858
脯	-13859
蹼	-13860
轶	-13861
镛	-13862
骡	-13863
骥	-13864
★	-13865
啮	-13866
彊	-13867
旃	-13868
澆	-13869
疃	-13870
瘍	-13871
縉	-13872
蜷	-13873
踵	-13874
銨	-13875
阆	-13876
驥	-13877
́	-13878
俨	-13879
峴	-13880
徭	-13881
忏	-13882
曖	-13883
歿	-13884
璿	-13885
瓏	-13886
萘	-13887
邇	-13888
鈷	-13889
이	-13890
ァ	-13891
佤	-13892
妞	-13893
憧	-13894
浬	-13895
燙	-13896
翩	-13897
菈	-13898
蜑	-13899
鄯	-13900
颤	-13901
ふ	-13902
凜	-13903
孖	-13904
潁	-13905
犢	-13906
眙	-13907
耒	-13908
蒨	-13909
蚩	-13910
詬	-13911
讹	-13912
躄	-13913
骠	-13914
χ	-13915
刈	-13916
嘶	-13917
戸	-13918
梶	-13919
漣	-13920
瀟	-13921
赟	-13922
輒	-13923
邬	-13924
钚	-13925
雹	-13926
骅	-13927
麋	-13928
ˈ	-13929
セ	-13930
揪	-13931
縊	-13932
縻	-13933
蒾	-13934
邠	-13935
郓	-13936
銖	-13937
钒	-13938
铠	-13939
陟	-13940
鯔	-13941
囂	-13942
専	-13943
愫	-13944
慑	-13945
殃	-13946
漯	-13947
烨	-13948
玠	-13949
臚	-13950
芪	-13951
辊	-13952
鉞	-13953
鶇	-13954
楸	-13955
燁	-13956
璠	-13957
腮	-13958
辙	-13959
郯	-13960
鄲	-13961
骊	-13962
ί	-13963
ت	-13964
∞	-13965
岘	-13966
岫	-13967
昉	-13968
脲	-13969
蜚	-13970
饵	-13971
鼱	-13972
≥	-13973
捩	-13974
滂	-13975
瑀	-13976
疱	-13977
窜	-13978
纓	-13979
脐	-13980
蚶	-13981
銹	-13982
鐳	-13983
鱉	-13984
鹬	-13985
þ	-13986
侑	-13987
儷	-13988
噹	-13989
滷	-13990
燬	-13991
獐	-13992
県	-13993
跖	-13994
醌	-13995
鰺	-13996
ه	-13997
嚐	-13998
坵	-13999
墉	-14000
惺	-14001
椽	-14002
氖	-14003
氡	-14004
濡	-14005
碓	-14006
竑	-14007
薙	-14008
蛞	-14009
遶	-14010
鳉	-14011
ほ	-14012
ケ	-14013
俶	-14014
咆	-14015
壑	-14016
弭	-14017
恙	-14018
暠	-14019
曷	-14020
猗	-14021
砵	-14022
绯	-14023
蝓	-14024
蠣	-14025
豊	-14026
赃	-14027
馭	-14028
鮈	-14029
鸯	-14030
倻	-14031
嘅	-14032
圜	-14033
搓	-14034
梆	-14035
禀	-14036
缨	-14037
鄚	-14038
陲	-14039
飙	-14040
鶘	-14041
ゲ	-14042
孪	-14043
灏	-14044
烁	-14045
瞪	-14046
碚	-14047
膿	-14048
臆	-14049
蛄	-14050
軼	-14051
錒	-14052
铊	-14053
鹟	-14054
ی	-14055
冑	-14056
凄	-14057
埭	-14058
曄	-14059
杼	-14060
枷	-14061
橈	-14062
殮	-14063
潯	-14064
焜	-14065
狒	-14066
疍	-14067
絶	-14068
綝	-14069
驪	-14070
乩	-14071
剽	-14072
喵	-14073
嗪	-14074
囓	-14075
栉	-14076
簋	-14077
醞	-14078
銫	-14079
鞮	-14080
ソ	-14081
哄	-14082
挛	-14083
椋	-14084
槲	-14085
猥	-14086
獗	-14087
祟	-14088
笹	-14089
缢	-14090
菝	-14091
赭	-14092
镌	-14093
骇	-14094
ネ	-14095
喹	-14096
墘	-14097
宓	-14098
恍	-14099
歴	-14100
煇	-14101
燉	-14102
碣	-14103
窥	-14104
箇	-14105
綻	-14106
蜢	-14107
褂	-14108
詰	-14109
諳	-14110
錡	-14111
鎔	-14112
鶲	-14113
đ	-14114
ф	-14115
傈	-14116
坨	-14117
嶠	-14118
幀	-14119
朐	-14120
潦	-14121
灞	-14122
炊	-14123
牯	-14124
猾	-14125
痞	-14126
羿	-14127
翱	-14128
蹂	-14129
鉬	-14130
雋	-14131
鴦	-14132
黒	-14133
า	-14134
་	-14135
ボ	-14136
塬	-14137
愔	-14138
柃	-14139
稹	-14140
蜃	-14141
诀	-14142
軫	-14143
钍	-14144
铮	-14145
阖	-14146
`	-14147
ò	-14148
ح	-14149
恣	-14150
涞	-14151
澂	-14152
荪	-14153
訢	-14154
鏘	-14155
鷸	-14156
僥	-14157
僳	-14158
垭	-14159
姫	-14160
憚	-14161
搔	-14162
敎	-14163
殇	-14164
毡	-14165
滎	-14166
燼	-14167
琚	-14168
謇	-14169
蹊	-14170
锄	-14171
阇	-14172
騫	-14173
骧	-14174
َ	-14175
厮	-14176
嗆	-14177
憨	-14178
揖	-14179
槻	-14180
淝	-14181
砀	-14182
禛	-14183
穰	-14184
芎	-14185
荞	-14186
讥	-14187
贅	-14188
鈈	-14189
錠	-14190
鍺	-14191
鱒	-14192
ό	-14193
尴	-14194
擘	-14195
朦	-14196
槛	-14197
沆	-14198
泠	-14199
涎	-14200
痙	-14201
睪	-14202
耙	-14203
苄	-14204
鎘	-14205
顒	-14206
鮄	-14207
®	-14208
ž	-14209
ˊ	-14210
ぎ	-14211
び	-14212
ザ	-14213
掳	-14214
楂	-14215
殤	-14216
甾	-14217
縷	-14218
藁	-14219
邽	-14220
亘	-14221
佞	-14222
坯	-14223
捡	-14224
瓒	-14225
砜	-14226
菖	-14227
葜	-14228
郜	-14229
钳	-14230
і	-14231
र	-14232
ね	-14233
呐	-14234
塭	-14235
娴	-14236
嶷	-14237
毬	-14238
琏	-14239
紂	-14240
荟	-14241
萜	-14242
藔	-14243
裟	-14244
訇	-14245
閤	-14246
亵	-14247
吝	-14248
垓	-14249
懾	-14250
攒	-14251
瀬	-14252
痉	-14253
睇	-14254
筐	-14255
荖	-14256
閨	-14257
ă	-14258
ヒ	-14259
伉	-14260
卍	-14261
峦	-14262
崮	-14263
嶇	-14264
忤	-14265
惋	-14266
揄	-14267
晗	-14268
玷	-14269
瘀	-14270
睜	-14271
秣	-14272
篝	-14273
銥	-14274
铢	-14275
鱘	-14276
鳐	-14277
ş	-14278
吲	-14279
啜	-14280
夙	-14281
杷	-14282
沢	-14283
濺	-14284
篙	-14285
篱	-14286
絢	-14287
罡	-14288
艉	-14289
虬	-14290
袈	-14291
鉚	-14292
铋	-14293
隗	-14294
鬬	-14295
ψ	-14296
ヤ	-14297
傉	-14298
傕	-14299
哌	-14300
坷	-14301
墀	-14302
悯	-14303
戾	-14304
氚	-14305
氪	-14306
綦	-14307
芍	-14308
覬	-14309
謔	-14310
遹	-14311
閎	-14312
隽	-14313
霏	-14314
鳢	-14315
ξ	-14316
冏	-14317
勣	-14318
嘟	-14319
枇	-14320
楫	-14321
獼	-14322
窿	-14323
繃	-14324
蟆	-14325
跗	-14326
迤	-14327
阈	-14328
鮪	-14329
ː	-14330
姒	-14331
愕	-14332
扉	-14333
芾	-14334
苴	-14335
蓑	-14336
蠹	-14337
袤	-14338
詼	-14339
軋	-14340
锭	-14341
髅	-14342
י	-14343
ポ	-14344
㹴	-14345
佶	-14346
哚	-14347
沓	-14348
簫	-14349
菓	-14350
蓀	-14351
蝟	-14352
蹠	-14353
銼	-14354
餃	-14355
ï	-14356
ð	-14357
ぐ	-14358
僮	-14359
厩	-14360
啃	-14361
崽	-14362
惣	-14363
敝	-14364
汎	-14365
烫	-14366
箐	-14367
缬	-14368
輋	-14369
顼	-14370
ホ	-14371
傚	-14372
増	-14373
怛	-14374
樋	-14375
淌	-14376
璩	-14377
礽	-14378
绊	-14379
舔	-14380
貘	-14381
贰	-14382
跛	-14383
邝	-14384
銣	-14385
闺	-14386
骈	-14387
嘿	-14388
樫	-14389
淩	-14390
溟	-14391
炅	-14392
祛	-14393
綑	-14394
罌	-14395
茧	-14396
蛸	-14397
蟑	-14398
诩	-14399
蹴	-14400
鉢	-14401
錕	-14402
鯓	-14403
↔	-14404
ゴ	-14405
墻	-14406
捶	-14407
櫥	-14408
焗	-14409
瘴	-14410
砧	-14411
硯	-14412
膑	-14413
菴	-14414
蔺	-14415
蟀	-14416
豉	-14417
関	-14418
隰	-14419
ʃ	-14420
囍	-14421
垠	-14422
壅	-14423
枱	-14424
獴	-14425
玑	-14426
瘩	-14427
眈	-14428
舂	-14429
覦	-14430
詡	-14431
鈮	-14432
鉍	-14433
铣	-14434
闓	-14435
馒	-14436
ق	-14437
刨	-14438
嬤	-14439
崂	-14440
揶	-14441
爻	-14442
笺	-14443
繙	-14444
臍	-14445
苎	-14446
苾	-14447
蠱	-14448
軻	-14449
ف	-14450
‖	-14451
嚣	-14452
囱	-14453
塱	-14454
枭	-14455
歩	-14456
疙	-14457
绫	-14458
袱	-14459
辄	-14460
辎	-14461
镧	-14462
霁	-14463
駄	-14464
麂	-14465
̇	-14466
ร	-14467
ざ	-14468
刎	-14469
喫	-14470
廝	-14471
拴	-14472
拽	-14473
撣	-14474
晾	-14475
椴	-14476
楯	-14477
榊	-14478
殓	-14479
毌	-14480
渍	-14481
溱	-14482
溲	-14483
矜	-14484
胛	-14485
蔘	-14486
蛎	-14487
蟋	-14488
褓	-14489
諤	-14490
锆	-14491
阑	-14492
顔	-14493
鱚	-14494
ю	-14495
げ	-14496
儕	-14497
冴	-14498
噻	-14499
嚎	-14500
孿	-14501
岀	-14502
巻	-14503
徠	-14504
発	-14505
皝	-14506
竅	-14507
繽	-14508
纘	-14509
舛	-14510
菰	-14511
蔵	-14512
蚯	-14513
蛀	-14514
邰	-14515
酝	-14516
锶	-14517
駢	-14518
仡	-14519
喔	-14520
堑	-14521
憊	-14522
晔	-14523
櫓	-14524
猬	-14525
珑	-14526
璣	-14527
疋	-14528
肼	-14529
芈	-14530
苜	-14531
荳	-14532
蚵	-14533
鲑	-14534
ý	-14535
佢	-14536
倬	-14537
慫	-14538
掐	-14539
汊	-14540
瀘	-14541
疝	-14542
蓣	-14543
蓿	-14544
轸	-14545
鄜	-14546
鈽	-14547
飭	-14548
驮	-14549
鰧	-14550
리	-14551
û	-14552
ギ	-14553
亶	-14554
哔	-14555
廩	-14556
旼	-14557
橱	-14558
濯	-14559
瓩	-14560
茁	-14561
葩	-14562
诟	-14563
蹶	-14564
铰	-14565
顥	-14566
鯪	-14567
鰾	-14568
龈	-14569
䲗	-14570
佺	-14571
咩	-14572
咫	-14573
奐	-14574
嬸	-14575
榎	-14576
榫	-14577
溅	-14578
爰	-14579
碶	-14580
磴	-14581
膊	-14582
萁	-14583
诋	-14584
赡	-14585
蹺	-14586
軔	-14587
銬	-14588
鋂	-14589
鎏	-14590
呱	-14591
哦	-14592
囿	-14593
媾	-14594
寔	-14595
徇	-14596
洹	-14597
湜	-14598
焓	-14599
笞	-14600
粑	-14601
脓	-14602
萇	-14603
藹	-14604
郅	-14605
鎵	-14606
鵟	-14607
ě	-14608
ו	-14609
寐	-14610
嵬	-14611
慤	-14612
炖	-14613
犒	-14614
禕	-14615
糅	-14616
绚	-14617
舘	-14618
谌	-14619
逋	-14620
郫	-14621
钜	-14622
阉	-14623
隷	-14624
鴛	-14625
†	-14626
劵	-14627
咁	-14628
嗇	-14629
嚙	-14630
廍	-14631
惘	-14632
愨	-14633
朮	-14634
洶	-14635
淒	-14636
狨	-14637
玘	-14638
琺	-14639
瞧	-14640
蒞	-14641
蒽	-14642
褥	-14643
詒	-14644
譁	-14645
轆	-14646
錚	-14647
น	-14648
噓	-14649
栒	-14650
渙	-14651
犰	-14652
狳	-14653
瓠	-14654
皙	-14655
磕	-14656
箫	-14657
苫	-14658
荽	-14659
谪	-14660
酆	-14661
陉	-14662
鮎	-14663
黟	-14664
ù	-14665
ń	-14666
◎	-14667
ピ	-14668
嵙	-14669
棨	-14670
泫	-14671
睁	-14672
苈	-14673
莅	-14674
藪	-14675
蠑	-14676
讧	-14677
輓	-14678
鉈	-14679
鍀	-14680
钺	-14681
闌	-14682
驭	-14683
鶻	-14684
ج	-14685
へ	-14686
ベ	-14687
嘢	-14688
媧	-14689
孳	-14690
弢	-14691
暄	-14692
洺	-14693
烬	-14694
簕	-14695
腑	-14696
蜕	-14697
謐	-14698
贍	-14699
辫	-14700
鋇	-14701
録	-14702
鍔	-14703
铿	-14704
饗	-14705
骞	-14706
鹑	-14707
唄	-14708
墬	-14709
拭	-14710
牘	-14711
紘	-14712
蜊	-14713
觴	-14714
辇	-14715
釔	-14716
馗	-14717
驒	-14718
न	-14719
囧	-14720
垅	-14721
嵴	-14722
幗	-14723
拣	-14724
晩	-14725
楽	-14726
榖	-14727
濘	-14728
牦	-14729
痲	-14730
穂	-14731
葭	-14732
蛊	-14733
赘	-14734
鉭	-14735
颢	-14736
鲢	-14737
黝	-14738
ì	-14739
έ	-14740
ъ	-14741
ة	-14742
ṣ	-14743
ペ	-14744
孃	-14745
屌	-14746
昺	-14747
暘	-14748
枸	-14749
涣	-14750
璁	-14751
稃	-14752
绀	-14753
脣	-14754
荸	-14755
袂	-14756
踊	-14757
躉	-14758
逖	-14759
镂	-14760
閡	-14761
闔	-14762
靓	-14763
饺	-14764
대	-14765
¥	-14766
ą	-14767
̃	-14768
ḥ	-14769
乜	-14770
凪	-14771
刍	-14772
圪	-14773
幪	-14774
懊	-14775
捺	-14776
榧	-14777
泷	-14778
溆	-14779
稈	-14780
纣	-14781
茯	-14782
藿	-14783
蟎	-14784
蠵	-14785
訕	-14786
郦	-14787
惫	-14788
慟	-14789
搐	-14790
淬	-14791
熠	-14792
牴	-14793
砻	-14794
簸	-14795
芻	-14796
蘸	-14797
蟄	-14798
诒	-14799
輜	-14800
鎰	-14801
鱀	-14802
麿	-14803
黼	-14804
ि	-14805
ṭ	-14806
ㄨ	-14807
倜	-14808
倣	-14809
凛	-14810
剁	-14811
嗝	-14812
孑	-14813
岖	-14814
徕	-14815
慚	-14816
拈	-14817
攫	-14818
淠	-14819
濉	-14820
瓌	-14821
睑	-14822
蓁	-14823
蛏	-14824
諍	-14825
谗	-14826
饅	-14827
M	-14828
ك	-14829
剡	-14830
嗟	-14831
尪	-14832
廨	-14833
惲	-14834
棂	-14835
樾	-14836
燻	-14837
牂	-14838
磬	-14839
苌	-14840
苕	-14841
讖	-14842
豨	-14843
踴	-14844
鏵	-14845
镭	-14846
黻	-14847
T	-14848
ɕ	-14849
ʔ	-14850
榉	-14851
澶	-14852
疡	-14853
眨	-14854
砭	-14855
磾	-14856
箋	-14857
绾	-14858
羸	-14859
菘	-14860
詆	-14861
贽	-14862
鋯	-14863
鏐	-14864
鑭	-14865
镠	-14866
阚	-14867
飚	-14868
饕	-14869
驩	-14870
ش	-14871
ก	-14872
伕	-14873
侂	-14874
呦	-14875
嚏	-14876
坻	-14877
嬛	-14878
瀅	-14879
芊	-14880
襖	-14881
觊	-14882
觎	-14883
郛	-14884
郷	-14885
酢	-14886
銦	-14887
钤	-14888
锢	-14889
闿	-14890
雎	-14891
靄	-14892
頫	-14893
鯷	-14894
¬	-14895
佾	-14896
嗲	-14897
垸	-14898
悸	-14899
惮	-14900
柞	-14901
沣	-14902
獭	-14903
甑	-14904
耜	-14905
膈	-14906
螭	-14907
鍬	-14908
铐	-14909
锴	-14910
霈	-14911
頊	-14912
鲇	-14913
ˇ	-14914
ר	-14915
म	-14916
冇	-14917
呜	-14918
搪	-14919
槙	-14920
炘	-14921
牍	-14922
狛	-14923
砹	-14924
笆	-14925
笪	-14926
紺	-14927
莨	-14928
蘅	-14929
讫	-14930
诙	-14931
輦	-14932
迩	-14933
釩	-14934
鏖	-14935
铍	-14936
髖	-14937
鶉	-14938
亙	-14939
仃	-14940
兢	-14941
凈	-14942
唧	-14943
喋	-14944
嗩	-14945
嗶	-14946
嘈	-14947
廪	-14948
怂	-14949
扦	-14950
昐	-14951
毽	-14952
汹	-14953
滏	-14954
濞	-14955
畹	-14956
眞	-14957
碛	-14958
祎	-14959
秆	-14960
稙	-14961
纫	-14962
胧	-14963
脍	-14964
舎	-14965
輅	-14966
邙	-14967
顳	-14968
鶚	-14969
ṇ	-14970
ヴ	-14971
ㄚ	-14972
倔	-14973
勰	-14974
呷	-14975
嘘	-14976
埴	-14977
嶂	-14978
枞	-14979
狽	-14980
糰	-14981
芗	-14982
蒺	-14983
蓖	-14984
諶	-14985
讣	-14986
