<pad>	0
<unk>	0
[CLS]	0
[SEP]	0
[MASK]	0
(	0
)	0
”	0
-	0
.	0
–	0
£	0
€	0
20	-0
19	-1
201	-2
200	-3
▁19	-4
的一	-5
10	-6
▁在	-7
人口	-8
an	-9
中国	-10
18	-11
er	-12
12	-13
▁201	-14
公里	-15
in	-16
00	-17
or	-18
on	-19
可以	-20
11	-21
公司	-22
日本	-23
是一	-24
政府	-25
平方	-26
第一	-27
使用	-28
香港	-29
ar	-30
15	-31
以及	-32
▁200	-33
其中	-34
en	-35
la	-36
平方公里	-37
包括	-38
世界	-39
主要	-40
人民	-41
16	-42
st	-43
的一个	-44
位於	-45
美國	-46
17	-47
部分	-48
研究	-49
▁他	-50
al	-51
199	-52
14	-53
30	-54
at	-55
第二	-56
其他	-57
▁c	-58
大学	-59
因此	-60
代表	-61
一个	-62
13	-63
一個	-64
中國	-65
▁t	-66
工作	-67
美国	-68
▁s	-69
ic	-70
地区	-71
政治	-72
le	-73
成為	-74
中心	-75
位于	-76
自己	-77
re	-78
之一	-79
中的	-80
開始	-81
▁m	-82
可能	-83
成立	-84
台灣	-85
不同	-86
25	-87
」,	-88
▁此	-89
he	-90
国家	-91
ro	-92
中央	-93
for	-94
▁《	-95
198	-96
大學	-97
行政	-98
it	-99
表示	-100
50	-101
他的	-102
mu	-103
▁该	-104
共和	-105
is	-106
地區	-107
文化	-108
▁p	-109
年的	-110
▁这	-111
21	-112
」。	-113
年代	-114
am	-115
▁b	-116
24	-117
國家	-118
开始	-119
▁由	-120
進行	-121
委员	-122
上的	-123
管理	-124
▁199	-125
沒有	-126
所有	-127
正式	-128
面积	-129
进行	-130
成为	-131
提供	-132
▁d	-133
因為	-134
23	-135
市镇	-136
城市	-137
北京	-138
作品	-139
》,	-140
也是	-141
電影	-142
大的	-143
面積	-144
一些	-145
28	-146
電視	-147
、《	-148
mula	-149
▁但	-150
ac	-151
▁而	-152
formula	-153
認為	-154
教育	-155
es	-156
el	-157
,200	-158
26	-159
人的	-160
目前	-161
當時	-162
27	-163
以下	-164
足球	-165
之後	-166
un	-167
▁這	-168
第三	-169
197	-170
上海	-171
他們	-172
下辖	-173
▁同	-174
as	-175
学院	-176
22	-177
工程	-178
40	-179
没有	-180
重要	-181
行星	-182
60	-183
國際	-184
ol	-185
生活	-186
獲得	-187
密度	-188
il	-189
海拔	-190
ch	-191
通过	-192
人物	-193
获得	-194
方面	-195
負責	-196
000	-197
支持	-198
29	-199
到了	-200
運動	-201
铁路	-202
ion	-203
▁198	-204
是在	-205
英國	-206
高度	-207
加入	-208
法国	-209
et	-210
時間	-211
▁h	-212
》、《	-213
事件	-214
zh	-215
系列	-216
大利	-217
需要	-218
印度	-219
發展	-220
地方	-221
认为	-222
系統	-223
▁其	-224
▁g	-225
建立	-226
一般	-227
人口密度	-228
的人	-229
单位	-230
擔任	-231
最高	-232
中華	-233
北部	-234
他们	-235
音樂	-236
100	-237
▁o	-238
臺灣	-239
▁大	-240
作为	-241
稱為	-242
南部	-243
分布	-244
中华	-245
例如	-246
194	-247
▁本	-248
完成	-249
成功	-250
us	-251
31	-252
有一	-253
全国	-254
共和国	-255
▁w	-256
斯特	-257
最後	-258
自由	-259
国际	-260
要求	-261
小行星	-262
主教	-263
方式	-264
委员会	-265
▁f	-266
設計	-267
發現	-268
受到	-269
om	-270
存在	-271
系统	-272
委員	-273
通常	-274
就是	-275
建筑	-276
作為	-277
之后	-278
所以	-279
的大	-280
运动	-281
▁a	-282
了一	-283
出版	-284
ur	-285
出現	-286
同時	-287
二十	-288
ing	-289
196	-290
ed	-291
and	-292
学名	-293
▁194	-294
另外	-295
id	-296
民主	-297
的是	-298
属于	-299
屬於	-300
然而	-301
提出	-302
》。	-303
車站	-304
前往	-305
总面积	-306
形成	-307
後來	-308
195	-309
组织	-310
遊戲	-311
是由	-312
主义	-313
1,	-314
民國	-315
35	-316
中共	-317
2010	-318
合作	-319
該國	-320
出生	-321
▁18	-322
社會	-323
航空	-324
世纪	-325
具有	-326
历史	-327
得到	-328
担任	-329
控制	-330
的一个市镇	-331
▁n	-332
ra	-333
植物	-334
参加	-335
期間	-336
地的	-337
70	-338
经济	-339
主席	-340
▁l	-341
社会	-342
造成	-343
除了	-344
女性	-345
游戏	-346
海拔高度	-347
只有	-348
節目	-349
德国	-350
影響	-351
許多	-352
80	-353
根據	-354
革命	-355
專輯	-356
电影	-357
2011	-358
发展	-359
名的	-360
ig	-361
取得	-362
交通	-363
有限	-364
学校	-365
ent	-366
设计	-367
西班	-368
:“	-369
接受	-370
西班牙	-371
因为	-372
成員	-373
年人口	-374
任何	-375
管轄	-376
一直	-377
英国	-378
活動	-379
的一個	-380
故事	-381
角色	-382
歌曲	-383
比賽	-384
首次	-385
ow	-386
發生	-387
自己的	-388
如果	-389
增加	-390
当时	-391
宣布	-392
服務	-393
位於該國	-394
▁它	-395
时间	-396
▁不	-397
发现	-398
但是	-399
行的	-400
附近	-401
人民共和国	-402
根据	-403
製作	-404
平均	-405
十二	-406
37	-407
2019	-408
▁"	-409
▁阿	-410
另一	-411
非常	-412
之間	-413
之前	-414
時期	-415
38	-416
36	-417
▁該	-418
ad	-419
▁195	-420
同时	-421
雖然	-422
ut	-423
也有	-424
都是	-425
尼亞	-426
參與	-427
os	-428
學校	-429
名為	-430
称为	-431
冠軍	-432
中华人民共和国	-433
公路	-434
已經	-435
版本	-436
居民	-437
為了	-438
im	-439
自治	-440
進入	-441
歷史	-442
90	-443
參加	-444
問題	-445
34	-446
由於	-447
重新	-448
▁有	-449
▁197	-450
iv	-451
世紀	-452
出的	-453
民族	-454
▁the	-455
街道	-456
組織	-457
技术	-458
年至	-459
已经	-460
保护	-461
關係	-462
不是	-463
直接	-464
甚至	-465
這個	-466
新的	-467
▁此外	-468
方法	-469
▁of	-470
負責管轄	-471
期间	-472
▁k	-473
大量	-474
39	-475
教授	-476
时期	-477
建築	-478
共有	-479
經濟	-480
完全	-481
影响	-482
最佳	-483
电视	-484
並且	-485
发生	-486
一起	-487
2012	-488
主任	-489
分別	-490
生物	-491
發行	-492
學生	-493
:「	-494
第四	-495
美元	-496
之间	-497
位置	-498
不能	-499
2,	-500
克斯	-501
战争	-502
这个	-503
決定	-504
br	-505
车站	-506
问题	-507
法院	-508
od	-509
最終	-510
45	-511
ot	-512
學院	-513
安全	-514
性的	-515
出现	-516
包含	-517
共同	-518
ia	-519
变化	-520
▁由於	-521
下的	-522
這些	-523
形式	-524
ir	-525
選舉	-526
两个	-527
直到	-528
利用	-529
▁然而	-530
委員會	-531
大陆	-532
主義	-533
han	-534
政治人物	-535
48	-536
▁196	-537
省的一个市镇	-538
中華民國	-539
的地	-540
太平	-541
总人口	-542
尼亚	-543
法國	-544
2009	-545
兩個	-546
自然	-547
三年	-548
有限公司	-549
后来	-550
书记	-551
联合	-552
基本	-553
西部	-554
2013	-555
解放	-556
进入	-557
2016	-558
意大利	-559
音乐	-560
▁」	-561
学家	-562
2014	-563
时的	-564
國民	-565
日在	-566
能力	-567
擁有	-568
罗斯	-569
活动	-570
女子	-571
他在	-572
33	-573
歐洲	-574
em	-575
再次	-576
——	-577
2015	-578
的情	-579
下辖的一个	-580
球隊	-581
通過	-582
功能	-583
很多	-584
利亚	-585
蒙古	-586
特別	-587
一次	-588
会议	-589
時代	-590
希望	-591
最终	-592
许多	-593
▁同年	-594
计划	-595
定的	-596
这些	-597
使得	-598
法律	-599
文物	-600
32	-601
作用	-602
,《	-603
▁v	-604
舉行	-605
▁其中	-606
ec	-607
拉斯	-608
十一	-609
推出	-610
聯合	-611
不同的	-612
羅斯	-613
進士	-614
德國	-615
共产	-616
主持	-617
戰爭	-618
ap	-619
成的	-620
巴士	-621
▁新	-622
um	-623
▁2013	-624
浙江	-625
2000	-626
政策	-627
op	-628
2008	-629
演出	-630
▁st	-631
官方	-632
聯賽	-633
而且	-634
▁in	-635
,“	-636
的名	-637
▁她	-638
英文	-639
對於	-640
的新	-641
ag	-642
方向	-643
▁2016	-644
▁李	-645
鐵路	-646
名为	-647
獨立	-648
來自	-649
,000	-650
唯一	-651
仍然	-652
斯坦	-653
的主	-654
▁曾	-655
领导	-656
是一个	-657
服务	-658
無法	-659
等地	-660
列车	-661
用于	-662
ation	-663
比赛	-664
基督	-665
加拿	-666
▁另外	-667
由于	-668
的特	-669
ip	-670
相同	-671
▁當	-672
全球	-673
模式	-674
博物	-675
▁2014	-676
早期	-677
年在	-678
级行政	-679
第一次	-680
宗教	-681
四川	-682
西北	-683
總統	-684
下辖以下	-685
2017	-686
或者	-687
利亞	-688
現在	-689
男性	-690
▁2015	-691
▁2012	-692
」、	-693
2001	-694
學家	-695
决定	-696
西南	-697
最大	-698
▁j	-699
大多	-700
人口为	-701
同年	-702
学生	-703
75	-704
道路	-705
这一	-706
聯盟	-707
計劃	-708
賽事	-709
青年	-710
產生	-711
是一個	-712
原因	-713
▁2010	-714
天主教	-715
部份	-716
2007	-717
乡镇	-718
最初	-719
議員	-720
歌手	-721
开发	-722
一種	-723
▁总面积	-724
毕业	-725
是下辖的一个	-726
关系	-727
等人	-728
演唱	-729
公共	-730
播出	-731
南京	-732
高速	-733
▁2017	-734
每平方公里	-735
190	-736
家庭	-737
博士	-738
指出	-739
是法国	-740
科学	-741
全部	-742
越南	-743
%,	-744
机车	-745
▁e	-746
人士	-747
天文	-748
2006	-749
去世	-750
欧洲	-751
艺术	-752
州市	-753
65	-754
清朝	-755
下辖以下地区	-756
▁自	-757
2018	-758
▁,	-759
集团	-760
明朝	-761
ul	-762
地球	-763
▁2018	-764
加拿大	-765
司令	-766
生产	-767
并且	-768
藝術	-769
結束	-770
独立	-771
物理	-772
成员	-773
結果	-774
死亡	-775
個人	-776
阿拉	-777
▁2008	-778
▁2011	-779
建设	-780
描述	-781
天津	-782
最后	-783
四年	-784
中国大陆	-785
男子	-786
相關	-787
分别	-788
集團	-789
▁一	-790
▁小行星	-791
畢業	-792
制度	-793
为了	-794
列表	-795
中文	-796
者的	-797
千米	-798
開發	-799
超過	-800
级行政单位	-801
▁王	-802
%。	-803
韓國	-804
乡镇级行政单位	-805
的主要	-806
傳統	-807
生產	-808
▁由于	-809
格蘭	-810
行動	-811
47	-812
采用	-813
th	-814
科技	-815
葡萄	-816
路線	-817
多的	-818
里斯	-819
结构	-820
美洲	-821
年度	-822
速度	-823
繼續	-824
是下辖的一个乡镇级行政单位	-825
克蘭	-826
外交	-827
亞洲	-828
父親	-829
公尺	-830
出身	-831
透過	-832
動畫	-833
演員	-834
2005	-835
▁3	-836
並在	-837
人口密度每平方公里	-838
最早	-839
46	-840
共产党	-841
海軍	-842
第五	-843
技術	-844
大陸	-845
改革	-846
土地	-847
年起	-848
机构	-849
台北	-850
河南	-851
單位	-852
有的	-853
下的一个	-854
採用	-855
55	-856
羅馬	-857
总统	-858
福建	-859
玩家	-860
作家	-861
▁是	-862
联赛	-863
立法	-864
▁根據	-865
ist	-866
工业	-867
導致	-868
▁西	-869
▁2	-870
來的	-871
子的	-872
av	-873
俄罗斯	-874
产生	-875
機場	-876
表演	-877
東京	-878
引起	-879
命名	-880
目的	-881
」、「	-882
新聞	-883
ce	-884
语言	-885
共和國	-886
熱帶	-887
大部分	-888
著名	-889
元年	-890
最大的	-891
每年	-892
▁该市镇	-893
列車	-894
te	-895
家族	-896
▁目前	-897
ay	-898
以上	-899
地下	-900
ie	-901
苏联	-902
西亚	-903
导致	-904
▁4	-905
图示	-906
的一部分	-907
ak	-908
年时的	-909
經過	-910
太平洋	-911
人口变化	-912
的小	-913
設有	-914
人口变化图示	-915
ter	-916
距離	-917
人員	-918
斯科	-919
教堂	-920
og	-921
動物	-922
單曲	-923
加上	-924
▁r	-925
500	-926
信息	-927
她的	-928
不少	-929
公園	-930
公開	-931
身份	-932
负责	-933
取代	-934
居住	-935
军事	-936
oc	-937
組成	-938
中部	-939
議會	-940
▁南	-941
▁因此	-942
多次	-943
对于	-944
第二次	-945
資料	-946
警察	-947
▁2009	-948
拥有	-949
3,	-950
月台	-951
建造	-952
95	-953
第十	-954
烏克蘭	-955
ab	-956
現時	-957
型的	-958
▁1	-959
64	-960
武器	-961
机场	-962
山东	-963
三十	-964
,19	-965
五年	-966
皇帝	-967
数据	-968
語言	-969
遭到	-970
內容	-971
相當	-972
回到	-973
罗马	-974
至今	-975
攻擊	-976
分析	-977
国民	-978
年时的人口为	-979
是中国	-980
左右	-981
一名	-982
之外	-983
▁formula	-984
来自	-985
舉辦	-986
建於	-987
是指	-988
加坡	-989
原本	-990
民国	-991
出任	-992
必須	-993
可以指	-994
在此	-995
團體	-996
有關	-997
参与	-998
▁8	-999
制作	-1000
重要的	-1001
當地	-1002
主角	-1003
ub	-1004
俄羅斯	-1005
西亞	-1006
出了	-1007
部长	-1008
ers	-1009
紀錄	-1010
唱片	-1011
發表	-1012
於是	-1013
组成	-1014
帝國	-1015
98	-1016
▁5	-1017
面的	-1018
兄弟	-1019
任命	-1020
反应	-1021
68	-1022
澳門	-1023
ov	-1024
sp	-1025
毫米	-1026
一年	-1027
十分	-1028
湖南	-1029
部队	-1030
的首	-1031
排名	-1032
the	-1033
的第一	-1034
普查	-1035
▁2007	-1036
项目	-1037
處理	-1038
广东	-1039
分子	-1040
星期	-1041
动物	-1042
关于	-1043
計畫	-1044
流域	-1045
顯示	-1046
戰鬥	-1047
人员	-1048
範圍	-1049
帝国	-1050
二年	-1051
2004	-1052
公分	-1053
棲息	-1054
学习	-1055
伊斯	-1056
▁卡	-1057
▁re	-1058
联邦	-1059
科的	-1060
▁高	-1061
概念	-1062
巴西	-1063
影片	-1064
bo	-1065
會議	-1066
保護	-1067
分為	-1068
标准	-1069
部隊	-1070
佛教	-1071
的前	-1072
調查	-1073
改為	-1074
发布	-1075
保持	-1076
中学	-1077
还有	-1078
海军	-1079
朝鲜	-1080
▁7	-1081
计算	-1082
虽然	-1083
▁6	-1084
过程	-1085
44	-1086
▁<	-1087
內的	-1088
99	-1089
所在	-1090
大会	-1091
斯基	-1092
球队	-1093
ind	-1094
創作	-1095
拍攝	-1096
▁2006	-1097
好的	-1098
小說	-1099
▁2019	-1100
冠军	-1101
和平	-1102
一步	-1103
曾經	-1104
人在	-1105
ard	-1106
军队	-1107
精神	-1108
经过	-1109
基地	-1110
市場	-1111
结束	-1112
可達	-1113
日至	-1114
力量	-1115
▁10	-1116
當中	-1117
為主	-1118
我们	-1119
78	-1120
董事	-1121
▁根据	-1122
属的	-1123
hk	-1124
巴黎	-1125
決賽	-1126
程序	-1127
標準	-1128
並於	-1129
普通	-1130
限制	-1131
、“	-1132
區域	-1133
东北	-1134
▁但是	-1135
ii	-1136
用的	-1137
元素	-1138
初期	-1139
交易	-1140
都有	-1141
新加坡	-1142
76	-1143
▁三	-1144
全國	-1145
继续	-1146
將軍	-1147
现代	-1148
及其	-1149
羽毛	-1150
媒體	-1151
这种	-1152
祖父	-1153
人類	-1154
思想	-1155
化的	-1156
专业	-1157
或是	-1158
只是	-1159
网络	-1160
一位	-1161
日起	-1162
▁以	-1163
▁中	-1164
现在	-1165
的高	-1166
威廉	-1167
紀念	-1168
南極	-1169
環境	-1170
現代	-1171
,「	-1172
基金	-1173
公元	-1174
发行	-1175
不久	-1176
區負責管轄	-1177
平台	-1178
反對	-1179
来的	-1180
49	-1181
ge	-1182
解放军	-1183
選擇	-1184
行為	-1185
58	-1186
漫畫	-1187
中国人民	-1188
我們	-1189
▁!	-1190
理论	-1191
非洲	-1192
不過	-1193
因而	-1194
父亲	-1195
节目	-1196
分布于	-1197
▁and	-1198
随后	-1199
用於	-1200
平方千米	-1201
流行	-1202
力的	-1203
tw	-1204
小時	-1205
超过	-1206
電子	-1207
部的	-1208
協會	-1209
▁9	-1210
▁北	-1211
▁当	-1212
臺北	-1213
all	-1214
年被	-1215
又名	-1216
300	-1217
▁雖然	-1218
号线	-1219
西省	-1220
則是	-1221
sa	-1222
企业	-1223
,2009	-1224
表現	-1225
不明	-1226
少年	-1227
举行	-1228
是否	-1229
反对	-1230
還有	-1231
up	-1232
程度	-1233
也被	-1234
ud	-1235
同意	-1236
它的	-1237
王朝	-1238
過程	-1239
,2001	-1240
世界大	-1241
▁“	-1242
接近	-1243
著名的	-1244
斯的	-1245
公布	-1246
如下	-1247
能夠	-1248
指挥	-1249
不可	-1250
拉克	-1251
但在	-1252
联盟	-1253
夏季	-1254
教區	-1255
六年	-1256
中學	-1257
方案	-1258
名稱	-1259
se	-1260
ik	-1261
科學	-1262
二世	-1263
区域	-1264
隨著	-1265
▁小	-1266
▁至	-1267
曾在	-1268
知道	-1269
2003	-1270
球員	-1271
ne	-1272
内的	-1273
並不	-1274
大型	-1275
art	-1276
製造	-1277
▁布	-1278
離開	-1279
方的	-1280
軍事	-1281
投入	-1282
後的	-1283
阿尔	-1284
殖民	-1285
▁「	-1286
韩国	-1287
太阳	-1288
群島	-1289
首都	-1290
ph	-1291
德里	-1292
传统	-1293
文件	-1294
▁马	-1295
擊敗	-1296
电子	-1297
56	-1298
是烏克蘭	-1299
▁。	-1300
建于	-1301
▁巴	-1302
第六	-1303
色的	-1304
▁金	-1305
研究所	-1306
執行	-1307
纪念	-1308
基础	-1309
▁安	-1310
达到	-1311
交流	-1312
集中	-1313
協助	-1314
特别	-1315
機構	-1316
qu	-1317
區的	-1318
公园	-1319
快速	-1320
返回	-1321
使用的	-1322
妻子	-1323
支援	-1324
尚未	-1325
="	-1326
工業	-1327
州的	-1328
ba	-1329
,199	-1330
有效	-1331
氧化	-1332
sh	-1333
海岸	-1334
并在	-1335
96	-1336
處於	-1337
ill	-1338
體育	-1339
改为	-1340
江苏	-1341
▁天	-1342
分布於	-1343
事務	-1344
是以	-1345
投票	-1346
播放	-1347
年以	-1348
时代	-1349
市的	-1350
樂團	-1351
年間	-1352
▁从	-1353
這種	-1354
批准	-1355
項目	-1356
澳大利	-1357
相关	-1358
類似	-1359
if	-1360
皇家	-1361
是烏克蘭的	-1362
85	-1363
正在	-1364
42	-1365
保留	-1366
ss	-1367
,	-1368
▁	-1369
的	-1370
。	-1371
1	-1372
0	-1373
年	-1374
2	-1375
、	-1376
在	-1377
一	-1378
9	-1379
中	-1380
是	-1381
人	-1382
a	-1383
e	-1384
大	-1385
有	-1386
3	-1387
和	-1388
5	-1389
為	-1390
i	-1391
8	-1392
o	-1393
以	-1394
r	-1395
4	-1396
月	-1397
n	-1398
日	-1399
6	-1400
7	-1401
了	-1402
t	-1403
国	-1404
s	-1405
为	-1406
地	-1407
國	-1408
於	-1409
成	-1410
上	-1411
公	-1412
不	-1413
l	-1414
出	-1415
行	-1416
他	-1417
部	-1418
斯	-1419
之	-1420
c	-1421
名	-1422
其	-1423
主	-1424
作	-1425
生	-1426
分	-1427
方	-1428
m	-1429
于	-1430
到	-1431
用	-1432
下	-1433
西	-1434
:	-1435
第	-1436
》	-1437
《	-1438
而	-1439
家	-1440
位	-1441
及	-1442
由	-1443
d	-1444
h	-1445
後	-1446
時	-1447
民	-1448
被	-1449
法	-1450
本	-1451
学	-1452
南	-1453
市	-1454
·	-1455
會	-1456
同	-1457
u	-1458
多	-1459
可	-1460
政	-1461
里	-1462
个	-1463
子	-1464
自	-1465
任	-1466
特	-1467
文	-1468
北	-1469
高	-1470
「	-1471
」	-1472
加	-1473
德	-1474
新	-1475
最	-1476
海	-1477
與	-1478
克	-1479
前	-1480
也	-1481
利	-1482
平	-1483
代	-1484
后	-1485
等	-1486
所	-1487
p	-1488
學	-1489
三	-1490
度	-1491
因	-1492
美	-1493
個	-1494
面	-1495
建	-1496
此	-1497
得	-1498
道	-1499
物	-1500
“	-1501
要	-1502
b	-1503
g	-1504
事	-1505
至	-1506
教	-1507
山	-1508
时	-1509
立	-1510
路	-1511
会	-1512
拉	-1513
小	-1514
入	-1515
口	-1516
能	-1517
世	-1518
尔	-1519
二	-1520
發	-1521
理	-1522
工	-1523
州	-1524
合	-1525
表	-1526
外	-1527
定	-1528
区	-1529
區	-1530
期	-1531
天	-1532
但	-1533
化	-1534
球	-1535
台	-1536
科	-1537
十	-1538
次	-1539
使	-1540
全	-1541
;	-1542
通	-1543
性	-1544
者	-1545
f	-1546
共	-1547
式	-1548
重	-1549
並	-1550
都	-1551
发	-1552
安	-1553
布	-1554
力	-1555
來	-1556
士	-1557
"	-1558
站	-1559
軍	-1560
军	-1561
院	-1562
比	-1563
基	-1564
原	-1565
相	-1566
王	-1567
城	-1568
爾	-1569
省	-1570
明	-1571
米	-1572
動	-1573
目	-1574
長	-1575
司	-1576
这	-1577
英	-1578
水	-1579
對	-1580
治	-1581
正	-1582
金	-1583
系	-1584
尼	-1585
格	-1586
開	-1587
与	-1588
k	-1589
府	-1590
制	-1591
這	-1592
长	-1593
四	-1594
或	-1595
列	-1596
如	-1597
電	-1598
元	-1599
港	-1600
員	-1601
起	-1602
y	-1603
巴	-1604
影	-1605
亞	-1606
对	-1607
首	-1608
現	-1609
女	-1610
提	-1611
常	-1612
星	-1613
阿	-1614
經	-1615
當	-1616
東	-1617
改	-1618
演	-1619
并	-1620
来	-1621
林	-1622
間	-1623
v	-1624
進	-1625
過	-1626
量	-1627
心	-1628
开	-1629
向	-1630
东	-1631
然	-1632
接	-1633
就	-1634
賽	-1635
始	-1636
戰	-1637
體	-1638
w	-1639
界	-1640
动	-1641
员	-1642
將	-1643
意	-1644
曾	-1645
委	-1646
管	-1647
手	-1648
內	-1649
受	-1650
車	-1651
機	-1652
指	-1653
程	-1654
卡	-1655
交	-1656
河	-1657
保	-1658
色	-1659
包	-1660
場	-1661
形	-1662
机	-1663
亚	-1664
型	-1665
音	-1666
已	-1667
镇	-1668
香	-1669
内	-1670
流	-1671
直	-1672
些	-1673
該	-1674
馬	-1675
集	-1676
总	-1677
经	-1678
史	-1679
进	-1680
太	-1681
过	-1682
隊	-1683
夫	-1684
稱	-1685
線	-1686
车	-1687
校	-1688
品	-1689
五	-1690
身	-1691
字	-1692
業	-1693
空	-1694
现	-1695
示	-1696
社	-1697
更	-1698
该	-1699
展	-1700
电	-1701
县	-1702
朝	-1703
间	-1704
江	-1705
種	-1706
种	-1707
古	-1708
兩	-1709
設	-1710
业	-1711
持	-1712
马	-1713
灣	-1714
各	-1715
數	-1716
将	-1717
官	-1718
反	-1719
回	-1720
選	-1721
洲	-1722
著	-1723
体	-1724
命	-1725
战	-1726
取	-1727
京	-1728
活	-1729
羅	-1730
造	-1731
達	-1732
普	-1733
光	-1734
信	-1735
支	-1736
局	-1737
设	-1738
少	-1739
曲	-1740
族	-1741
称	-1742
当	-1743
近	-1744
非	-1745
石	-1746
神	-1747
解	-1748
情	-1749
只	-1750
数	-1751
清	-1752
罗	-1753
聯	-1754
約	-1755
队	-1756
研	-1757
每	-1758
縣	-1759
它	-1760
又	-1761
蘭	-1762
联	-1763
件	-1764
波	-1765
属	-1766
運	-1767
即	-1768
村	-1769
放	-1770
片	-1771
角	-1772
號	-1773
關	-1774
她	-1775
伊	-1776
總	-1777
商	-1778
武	-1779
則	-1780
版	-1781
/	-1782
華	-1783
統	-1784
密	-1785
运	-1786
樂	-1787
两	-1788
們	-1789
計	-1790
括	-1791
未	-1792
知	-1793
座	-1794
收	-1795
先	-1796
场	-1797
李	-1798
往	-1799
無	-1800
屬	-1801
去	-1802
根	-1803
組	-1804
器	-1805
产	-1806
赛	-1807
白	-1808
歌	-1809
线	-1810
福	-1811
再	-1812
果	-1813
组	-1814
議	-1815
初	-1816
华	-1817
究	-1818
視	-1819
达	-1820
统	-1821
六	-1822
且	-1823
足	-1824
派	-1825
打	-1826
从	-1827
語	-1828
级	-1829
号	-1830
引	-1831
從	-1832
兵	-1833
完	-1834
今	-1835
语	-1836
亦	-1837
居	-1838
关	-1839
域	-1840
们	-1841
季	-1842
帝	-1843
播	-1844
威	-1845
塔	-1846
z	-1847
除	-1848
书	-1849
宗	-1850
计	-1851
參	-1852
段	-1853
務	-1854
服	-1855
令	-1856
團	-1857
育	-1858
實	-1859
兰	-1860
花	-1861
義	-1862
說	-1863
言	-1864
广	-1865
x	-1866
結	-1867
很	-1868
門	-1869
查	-1870
八	-1871
產	-1872
土	-1873
速	-1874
约	-1875
修	-1876
功	-1877
宣	-1878
置	-1879
島	-1880
另	-1881
希	-1882
死	-1883
推	-1884
客	-1885
存	-1886
周	-1887
傳	-1888
好	-1889
超	-1890
舉	-1891
率	-1892
%	-1893
類	-1894
投	-1895
雷	-1896
哈	-1897
認	-1898
我	-1899
洛	-1900
獲	-1901
供	-1902
處	-1903
实	-1904
党	-1905
吉	-1906
务	-1907
單	-1908
具	-1909
例	-1910
源	-1911
博	-1912
单	-1913
求	-1914
班	-1915
瓦	-1916
父	-1917
案	-1918
九	-1919
青	-1920
街	-1921
男	-1922
印	-1923
母	-1924
維	-1925
维	-1926
書	-1927
伯	-1928
田	-1929
议	-1930
己	-1931
勒	-1932
参	-1933
j	-1934
湖	-1935
故	-1936
义	-1937
張	-1938
助	-1939
均	-1940
火	-1941
廣	-1942
还	-1943
攻	-1944
那	-1945
臺	-1946
航	-1947
別	-1948
沙	-1949
落	-1950
百	-1951
應	-1952
導	-1953
份	-1954
帶	-1955
致	-1956
皇	-1957
副	-1958
技	-1959
整	-1960
图	-1961
增	-1962
早	-1963
點	-1964
資	-1965
铁	-1966
萬	-1967
專	-1968
容	-1969
模	-1970
劇	-1971
变	-1972
选	-1973
半	-1974
擊	-1975
群	-1976
龍	-1977
告	-1978
師	-1979
处	-1980
万	-1981
说	-1982
七	-1983
越	-1984
失	-1985
登	-1986
游	-1987
堂	-1988
級	-1989
门	-1990
黨	-1991
境	-1992
變	-1993
领	-1994
易	-1995
点	-1996
川	-1997
領	-1998
团	-1999
奥	-2000
结	-2001
室	-2002
积	-2003
深	-2004
積	-2005
应	-2006
导	-2007
紀	-2008
升	-2009
食	-2010
塞	-2011
排	-2012
需	-2013
風	-2014
黑	-2015
传	-2016
製	-2017
限	-2018
获	-2019
節	-2020
苏	-2021
央	-2022
氏	-2023
標	-2024
射	-2025
乐	-2026
席	-2027
連	-2028
无	-2029
畫	-2030
頭	-2031
像	-2032
轉	-2033
象	-2034
老	-2035
何	-2036
沒	-2037
类	-2038
千	-2039
据	-2040
辖	-2041
甲	-2042
真	-2043
乡	-2044
盟	-2045
才	-2046
托	-2047
報	-2048
仍	-2049
施	-2050
森	-2051
便	-2052
步	-2053
警	-2054
奇	-2055
木	-2056
際	-2057
權	-2058
考	-2059
鐵	-2060
防	-2061
條	-2062
感	-2063
想	-2064
配	-2065
據	-2066
牙	-2067
洋	-2068
決	-2069
氣	-2070
奧	-2071
认	-2072
哥	-2073
論	-2074
师	-2075
病	-2076
低	-2077
住	-2078
止	-2079
术	-2080
留	-2081
姆	-2082
视	-2083
效	-2084
记	-2085
纳	-2086
—	-2087
律	-2088
报	-2089
历	-2090
泰	-2091
術	-2092
魚	-2093
曼	-2094
還	-2095
佛	-2096
底	-2097
纪	-2098
恩	-2099
冠	-2100
離	-2101
把	-2102
埃	-2103
察	-2104
料	-2105
志	-2106
降	-2107
批	-2108
唱	-2109
蒙	-2110
迪	-2111
移	-2112
創	-2113
強	-2114
票	-2115
納	-2116
圖	-2117
俄	-2118
景	-2119
看	-2120
素	-2121
阳	-2122
息	-2123
康	-2124
着	-2125
风	-2126
職	-2127
革	-2128
愛	-2129
消	-2130
则	-2131
控	-2132
承	-2133
张	-2134
索	-2135
祖	-2136
遊	-2137
授	-2138
續	-2139
_	-2140
算	-2141
觀	-2142
专	-2143
念	-2144
獎	-2145
親	-2146
典	-2147
标	-2148
較	-2149
負	-2150
記	-2151
带	-2152
許	-2153
思	-2154
藏	-2155
友	-2156
论	-2157
际	-2158
做	-2159
守	-2160
汉	-2161
陸	-2162
拔	-2163
岛	-2164
瑞	-2165
别	-2166
没	-2167
責	-2168
見	-2169
精	-2170
办	-2171
房	-2172
題	-2173
裝	-2174
督	-2175
附	-2176
錄	-2177
依	-2178
资	-2179
望	-2180
照	-2181
述	-2182
夏	-2183
園	-2184
章	-2185
权	-2186
抗	-2187
转	-2188
决	-2189
节	-2190
質	-2191
調	-2192
条	-2193
停	-2194
毛	-2195
歷	-2196
編	-2197
击	-2198
职	-2199
退	-2200
牌	-2201
網	-2202
辦	-2203
圣	-2204
草	-2205
澳	-2206
复	-2207
构	-2208
丹	-2209
永	-2210
左	-2211
陳	-2212
富	-2213
封	-2214
蘇	-2215
丁	-2216
气	-2217
堡	-2218
隨	-2219
坦	-2220
爭	-2221
終	-2222
值	-2223
戲	-2224
快	-2225
候	-2226
船	-2227
給	-2228
拿	-2229
破	-2230
營	-2231
陆	-2232
般	-2233
聖	-2234
歐	-2235
擔	-2236
邦	-2237
極	-2238
调	-2239
唐	-2240
莫	-2241
梅	-2242
萨	-2243
協	-2244
隆	-2245
鎮	-2246
問	-2247
含	-2248
突	-2249
黃	-2250
举	-2251
创	-2252
郡	-2253
似	-2254
皮	-2255
准	-2256
莱	-2257
划	-2258
寺	-2259
眾	-2260
旅	-2261
植	-2262
必	-2263
蒂	-2264
項	-2265
强	-2266
試	-2267
興	-2268
济	-2269
注	-2270
剧	-2271
嘉	-2272
网	-2273
争	-2274
藝	-2275
尚	-2276
走	-2277
朗	-2278
离	-2279
延	-2280
规	-2281
随	-2282
兒	-2283
久	-2284
樣	-2285
店	-2286
切	-2287
岸	-2288
右	-2289
护	-2290
头	-2291
架	-2292
邊	-2293
协	-2294
连	-2295
漢	-2296
飛	-2297
售	-2298
编	-2299
館	-2300
倫	-2301
規	-2302
装	-2303
鄉	-2304
给	-2305
野	-2306
亡	-2307
春	-2308
核	-2309
弟	-2310
龙	-2311
判	-2312
熱	-2313
轄	-2314
衛	-2315
弗	-2316
讓	-2317
质	-2318
佳	-2319
備	-2320
艾	-2321
占	-2322
環	-2323
馆	-2324
油	-2325
雄	-2326
構	-2327
题	-2328
層	-2329
繼	-2330
鲁	-2331
问	-2332
輯	-2333
担	-2334
筑	-2335
卫	-2336
遭	-2337
圍	-2338
端	-2339
短	-2340
薩	-2341
黄	-2342
評	-2343
股	-2344
许	-2345
项	-2346
雙	-2347
護	-2348
策	-2349
耶	-2350
聲	-2351
戏	-2352
逐	-2353
宁	-2354
样	-2355
獨	-2356
营	-2357
赫	-2358
役	-2359
序	-2360
送	-2361
帕	-2362
諾	-2363
旗	-2364
晚	-2365
环	-2366
观	-2367
劃	-2368
菲	-2369
松	-2370
籍	-2371
摩	-2372
費	-2373
若	-2374
距	-2375
亲	-2376
暴	-2377
诺	-2378
乘	-2379
伦	-2380
酒	-2381
寫	-2382
}	-2383
束	-2384
殺	-2385
{	-2386
园	-2387
雅	-2388
欧	-2389
宋	-2390
什	-2391
终	-2392
微	-2393
末	-2394
边	-2395
響	-2396
陽	-2397
紅	-2398
干	-2399
秀	-2400
署	-2401
兼	-2402
敗	-2403
勝	-2404
红	-2405
农	-2406
范	-2407
準	-2408
织	-2409
款	-2410
證	-2411
!	-2412
良	-2413
备	-2414
醫	-2415
庭	-2416
歲	-2417
沃	-2418
頓	-2419
续	-2420
血	-2421
善	-2422
彈	-2423
胡	-2424
略	-2425
散	-2426
兴	-2427
津	-2428
峰	-2429
采	-2430
奖	-2431
免	-2432
尾	-2433
婚	-2434
庄	-2435
裡	-2436
甚	-2437
拍	-2438
桥	-2439
濟	-2440
烏	-2441
魯	-2442
见	-2443
予	-2444
銀	-2445
樓	-2446
差	-2447
较	-2448
儿	-2449
狀	-2450
喜	-2451
假	-2452
臣	-2453
復	-2454
尺	-2455
杜	-2456
追	-2457
卻	-2458
朱	-2459
库	-2460
征	-2461
雖	-2462
艦	-2463
医	-2464
围	-2465
写	-2466
害	-2467
話	-2468
屆	-2469
热	-2470
证	-2471
韓	-2472
顯	-2473
烈	-2474
贝	-2475
玉	-2476
背	-2477
仁	-2478
測	-2479
爆	-2480
板	-2481
黎	-2482
企	-2483
罪	-2484
媒	-2485
爱	-2486
舞	-2487
双	-2488
互	-2489
层	-2490
沿	-2491
盛	-2492
救	-2493
众	-2494
織	-2495
录	-2496
艺	-2497
詞	-2498
預	-2499
廷	-2500
评	-2501
独	-2502
習	-2503
採	-2504
劉	-2505
云	-2506
援	-2507
酸	-2508
載	-2509
继	-2510
透	-2511
几	-2512
舰	-2513
余	-2514
秘	-2515
請	-2516
谷	-2517
试	-2518
牛	-2519
執	-2520
画	-2521
映	-2522
屋	-2523
僅	-2524
萊	-2525
昌	-2526
址	-2527
介	-2528
荷	-2529
遠	-2530
宮	-2531
届	-2532
幾	-2533
响	-2534
溫	-2535
飞	-2536
君	-2537
態	-2538
陈	-2539
刘	-2540
溪	-2541
智	-2542
佈	-2543
坡	-2544
槍	-2545
勢	-2546
声	-2547
貝	-2548
梁	-2549
材	-2550
滿	-2551
楼	-2552
按	-2553
確	-2554
戶	-2555
费	-2556
價	-2557
徒	-2558
係	-2559
皆	-2560
敦	-2561
童	-2562
仅	-2563
>	-2564
杀	-2565
益	-2566
巡	-2567
拜	-2568
郎	-2569
混	-2570
玩	-2571
禁	-2572
巨	-2573
橋	-2574
翰	-2575
极	-2576
築	-2577
<	-2578
探	-2579
某	-2580
夜	-2581
途	-2582
簡	-2583
穆	-2584
霍	-2585
午	-2586
冰	-2587
壓	-2588
跟	-2589
讀	-2590
顿	-2591
岁	-2592
禮	-2593
描	-2594
羽	-2595
替	-2596
撤	-2597
雲	-2598
旋	-2599
刻	-2600
你	-2601
吸	-2602
遇	-2603
眼	-2604
刺	-2605
麗	-2606
培	-2607
乌	-2608
刊	-2609
确	-2610
聞	-2611
難	-2612
符	-2613
叶	-2614
温	-2615
找	-2616
佩	-2617
宇	-2618
寶	-2619
殿	-2620
聚	-2621
爵	-2622
私	-2623
毒	-2624
休	-2625
充	-2626
测	-2627
炮	-2628
话	-2629
逃	-2630
户	-2631
奉	-2632
返	-2633
漫	-2634
犯	-2635
葉	-2636
固	-2637
否	-2638
q	-2639
责	-2640
耳	-2641
幕	-2642
庫	-2643
雨	-2644
斗	-2645
監	-2646
唯	-2647
擁	-2648
斷	-2649
状	-2650
召	-2651
麥	-2652
捕	-2653
洪	-2654
戈	-2655
骨	-2656
激	-2657
農	-2658
側	-2659
岩	-2660
傷	-2661
細	-2662
訊	-2663
茨	-2664
魔	-2665
刑	-2666
佔	-2667
验	-2668
靠	-2669
远	-2670
練	-2671
操	-2672
缺	-2673
範	-2674
雪	-2675
银	-2676
穿	-2677
庆	-2678
震	-2679
優	-2680
满	-2681
飾	-2682
露	-2683
'	-2684
忠	-2685
況	-2686
竹	-2687
異	-2688
坐	-2689
廠	-2690
乎	-2691
識	-2692
显	-2693
娜	-2694
靈	-2695
词	-2696
舊	-2697
輕	-2698
|	-2699
让	-2700
胞	-2701
坑	-2702
翻	-2703
尤	-2704
申	-2705
輪	-2706
负	-2707
肯	-2708
赤	-2709
态	-2710
兄	-2711
抵	-2712
須	-2713
待	-2714
驗	-2715
载	-2716
妻	-2717
攝	-2718
迫	-2719
习	-2720
徐	-2721
浙	-2722
呼	-2723
姓	-2724
陣	-2725
換	-2726
廳	-2727
侵	-2728
絕	-2729
柏	-2730
侧	-2731
桑	-2732
餘	-2733
遗	-2734
陵	-2735
价	-2736
孩	-2737
惠	-2738
压	-2739
湾	-2740
=	-2741
鬥	-2742
炸	-2743
汽	-2744
秋	-2745
嚴	-2746
临	-2747
韩	-2748
篇	-2749
畢	-2750
辛	-2751
董	-2752
吳	-2753
毕	-2754
融	-2755
潮	-2756
戴	-2757
疑	-2758
宫	-2759
歸	-2760
傑	-2761
週	-2762
胜	-2763
努	-2764
芬	-2765
泉	-2766
孔	-2767
厂	-2768
急	-2769
健	-2770
泛	-2771
简	-2772
默	-2773
慶	-2774
识	-2775
順	-2776
甘	-2777
魏	-2778
避	-2779
细	-2780
卷	-2781
奏	-2782
监	-2783
丽	-2784
况	-2785
鰭	-2786
泽	-2787
偏	-2788
莉	-2789
榜	-2790
宝	-2791
绝	-2792
佐	-2793
杨	-2794
码	-2795
败	-2796
危	-2797
墓	-2798
榮	-2799
断	-2800
衣	-2801
杰	-2802
请	-2803
套	-2804
概	-2805
呈	-2806
翼	-2807
预	-2808
隔	-2809
执	-2810
啟	-2811
樹	-2812
裁	-2813
宜	-2814
毫	-2815
楊	-2816
染	-2817
階	-2818
驻	-2819
肉	-2820
舍	-2821
殖	-2822
購	-2823
卢	-2824
墨	-2825
难	-2826
涉	-2827
扎	-2828
归	-2829
厅	-2830
譯	-2831
弹	-2832
迎	-2833
孙	-2834
井	-2835
雜	-2836
臨	-2837
叫	-2838
阻	-2839
瑪	-2840
億	-2841
銷	-2842
減	-2843
渡	-2844
虎	-2845
冷	-2846
付	-2847
捷	-2848
迷	-2849
奪	-2850
秦	-2851
珠	-2852
御	-2853
哲	-2854
圈	-2855
孫	-2856
严	-2857
廉	-2858
辑	-2859
析	-2860
乾	-2861
换	-2862
輸	-2863
亮	-2864
闻	-2865
池	-2866
恐	-2867
招	-2868
豐	-2869
贵	-2870
險	-2871
氧	-2872
漸	-2873
彩	-2874
频	-2875
侯	-2876
伍	-2877
匹	-2878
症	-2879
拥	-2880
葡	-2881
賓	-2882
仙	-2883
訓	-2884
琴	-2885
享	-2886
函	-2887
碼	-2888
味	-2889
轮	-2890
]	-2891
洞	-2892
截	-2893
俱	-2894
寧	-2895
妹	-2896
釋	-2897
紐	-2898
徵	-2899
[	-2900
势	-2901
麻	-2902
尊	-2903
暗	-2904
齐	-2905
綱	-2906
瑟	-2907
俗	-2908
豪	-2909
硬	-2910
藥	-2911
詩	-2912
礼	-2913
旧	-2914
頂	-2915
養	-2916
麦	-2917
颗	-2918
倒	-2919
崇	-2920
棲	-2921
销	-2922
吴	-2923
遺	-2924
勞	-2925
町	-2926
鐘	-2927
借	-2928
盃	-2929
藍	-2930
诗	-2931
圓	-2932
租	-2933
徽	-2934
奈	-2935
蓋	-2936
鲜	-2937
读	-2938
冬	-2939
药	-2940
財	-2941
液	-2942
繁	-2943
昂	-2944
補	-2945
输	-2946
逝	-2947
估	-2948
优	-2949
楚	-2950
凱	-2951
晋	-2952
乙	-2953
儀	-2954
玛	-2955
盖	-2956
劳	-2957
頻	-2958
簽	-2959
曹	-2960
夠	-2961
討	-2962
邀	-2963
昭	-2964
齊	-2965
蛋	-2966
+	-2967
树	-2968
柱	-2969
迁	-2970
掌	-2971
併	-2972
浦	-2973
顺	-2974
遷	-2975
跨	-2976
杂	-2977
拒	-2978
錦	-2979
郭	-2980
伐	-2981
茲	-2982
振	-2983
幼	-2984
鄭	-2985
币	-2986
鼓	-2987
乃	-2988
鱼	-2989
裂	-2990
適	-2991
患	-2992
恢	-2993
裔	-2994
廟	-2995
蔡	-2996
零	-2997
莎	-2998
?	-2999
弱	-3000
腦	-3001
萄	-3002
滑	-3003
訪	-3004
隸	-3005
陶	-3006
粉	-3007
菌	-3008
亿	-3009
陷	-3010
絲	-3011
尽	-3012
兹	-3013
轨	-3014
浪	-3015
淡	-3016
軟	-3017
障	-3018
异	-3019
晉	-3020
困	-3021
覺	-3022
韦	-3023
檢	-3024
喬	-3025
虽	-3026
盧	-3027
灵	-3028
旁	-3029
偶	-3030
络	-3031
藤	-3032
審	-3033
顶	-3034
鮮	-3035
货	-3036
却	-3037
競	-3038
菜	-3039
歡	-3040
译	-3041
伤	-3042
彼	-3043
纽	-3044
輛	-3045
謝	-3046
貴	-3047
誌	-3048
冲	-3049
駐	-3050
阶	-3051
牧	-3052
签	-3053
敵	-3054
赵	-3055
宿	-3056
徑	-3057
埔	-3058
鄰	-3059
财	-3060
韋	-3061
丰	-3062
丘	-3063
澤	-3064
检	-3065
講	-3066
涅	-3067
挥	-3068
伴	-3069
柯	-3070
搭	-3071
祭	-3072
貨	-3073
促	-3074
扩	-3075
勇	-3076
衝	-3077
练	-3078
荣	-3079
疆	-3080
昆	-3081
允	-3082
壁	-3083
療	-3084
課	-3085
审	-3086
脈	-3087
敏	-3088
桃	-3089
亨	-3090
轻	-3091
幫	-3092
沈	-3093
軌	-3094
答	-3095
汗	-3096
熙	-3097
仔	-3098
遍	-3099
殊	-3100
衡	-3101
糖	-3102
拆	-3103
句	-3104
覆	-3105
谢	-3106
宅	-3107
珍	-3108
燃	-3109
訂	-3110
杯	-3111
茶	-3112
棒	-3113
擴	-3114
幅	-3115
凯	-3116
孟	-3117
讲	-3118
亂	-3119
葬	-3120
幸	-3121
訴	-3122
額	-3123
輻	-3124
侍	-3125
績	-3126
养	-3127
揮	-3128
沉	-3129
紫	-3130
赴	-3131
跑	-3132
灰	-3133
綠	-3134
械	-3135
幻	-3136
奴	-3137
塘	-3138
盤	-3139
孝	-3140
鏡	-3141
厚	-3142
餐	-3143
顧	-3144
艘	-3145
敬	-3146
启	-3147
擇	-3148
祥	-3149
挑	-3150
碑	-3151
諸	-3152
磁	-3153
减	-3154
钟	-3155
廢	-3156
獻	-3157
慈	-3158
鳥	-3159
寬	-3160
乔	-3161
遣	-3162
软	-3163
襲	-3164
宽	-3165
聽	-3166
晶	-3167
滅	-3168
阵	-3169
诸	-3170
幣	-3171
騎	-3172
姐	-3173
倍	-3174
访	-3175
疾	-3176
摄	-3177
释	-3178
惡	-3179
箭	-3180
叛	-3181
懷	-3182
棋	-3183
葛	-3184
願	-3185
堅	-3186
献	-3187
柴	-3188
撞	-3189
慢	-3190
剛	-3191
複	-3192
宾	-3193
熟	-3194
賣	-3195
折	-3196
綫	-3197
训	-3198
庙	-3199
妮	-3200
够	-3201
苦	-3202
尖	-3203
橫	-3204
枚	-3205
〉	-3206
补	-3207
柳	-3208
〈	-3209
凡	-3210
仰	-3211
艇	-3212
』	-3213
『	-3214
跳	-3215
么	-3216
辽	-3217
談	-3218
遂	-3219
额	-3220
螺	-3221
伸	-3222
伏	-3223
匈	-3224
朋	-3225
须	-3226
憲	-3227
购	-3228
燕	-3229
险	-3230
尋	-3231
刀	-3232
钱	-3233
撒	-3234
瓜	-3235
敌	-3236
恒	-3237
°	-3238
仪	-3239
彭	-3240
桂	-3241
誤	-3242
雕	-3243
潘	-3244
辆	-3245
枪	-3246
腳	-3247
圆	-3248
径	-3249
迅	-3250
渐	-3251
買	-3252
谋	-3253
錢	-3254
慕	-3255
勤	-3256
吃	-3257
郑	-3258
琳	-3259
夢	-3260
頒	-3261
袭	-3262
岡	-3263
輔	-3264
适	-3265
涯	-3266
靖	-3267
累	-3268
趣	-3269
賞	-3270
粒	-3271
夺	-3272
础	-3273
损	-3274
宪	-3275
乱	-3276
鬼	-3277
帮	-3278
罕	-3279
貢	-3280
毁	-3281
番	-3282
熊	-3283
齒	-3284
損	-3285
緣	-3286
鹿	-3287
恆	-3288
脂	-3289
泊	-3290
汇	-3291
莊	-3292
掉	-3293
旺	-3294
绕	-3295
贡	-3296
芳	-3297
赞	-3298
梯	-3299
屯	-3300
脫	-3301
繪	-3302
針	-3303
晨	-3304
棄	-3305
牠	-3306
隶	-3307
怀	-3308
詹	-3309
縮	-3310
劍	-3311
秒	-3312
怪	-3313
蛇	-3314
屏	-3315
锡	-3316
賴	-3317
芝	-3318
藉	-3319
緊	-3320
擎	-3321
趙	-3322
炎	-3323
壞	-3324
幹	-3325
毀	-3326
废	-3327
杉	-3328
绍	-3329
浮	-3330
拓	-3331
仲	-3332
羊	-3333
乳	-3334
块	-3335
觉	-3336
痛	-3337
饰	-3338
陰	-3339
緯	-3340
臘	-3341
俊	-3342
择	-3343
隧	-3344
玄	-3345
駛	-3346
爲	-3347
锦	-3348
卓	-3349
贏	-3350
插	-3351
坎	-3352
凌	-3353
鼠	-3354
弘	-3355
麼	-3356
慧	-3357
泥	-3358
腹	-3359
緒	-3360
紹	-3361
暫	-3362
竞	-3363
讨	-3364
杭	-3365
厄	-3366
蟲	-3367
謀	-3368
矿	-3369
～	-3370
圳	-3371
喀	-3372
陕	-3373
搜	-3374
崎	-3375
旦	-3376
塑	-3377
袁	-3378
豆	-3379
藩	-3380
腊	-3381
壽	-3382
揚	-3383
筆	-3384
隻	-3385
甸	-3386
卿	-3387
滨	-3388
曆	-3389
咸	-3390
乏	-3391
灭	-3392
戒	-3393
宏	-3394
畔	-3395
骑	-3396
撰	-3397
貿	-3398
疗	-3399
墙	-3400
笑	-3401
娛	-3402
绿	-3403
苗	-3404
欢	-3405
缩	-3406
玻	-3407
坚	-3408
鳳	-3409
戀	-3410
錯	-3411
诉	-3412
脱	-3413
洗	-3414
斑	-3415
谈	-3416
盘	-3417
祝	-3418
寄	-3419
亭	-3420
犹	-3421
溶	-3422
泳	-3423
觸	-3424
盡	-3425
檔	-3426
坊	-3427
蓝	-3428
崔	-3429
阮	-3430
听	-3431
袖	-3432
顆	-3433
宙	-3434
扬	-3435
刚	-3436
偉	-3437
é	-3438
邻	-3439
尉	-3440
循	-3441
愿	-3442
舒	-3443
顾	-3444
妃	-3445
焦	-3446
买	-3447
穩	-3448
巧	-3449
叔	-3450
扮	-3451
塊	-3452
礎	-3453
閣	-3454
郊	-3455
耀	-3456
茂	-3457
箱	-3458
坏	-3459
岳	-3460
僧	-3461
仿	-3462
既	-3463
轴	-3464
捐	-3465
迴	-3466
贸	-3467
紧	-3468
衰	-3469
疏	-3470
剂	-3471
霸	-3472
靜	-3473
綜	-3474
鋼	-3475
辭	-3476
针	-3477
串	-3478
镜	-3479
彰	-3480
婦	-3481
盾	-3482
逢	-3483
契	-3484
遜	-3485
措	-3486
碳	-3487
勃	-3488
盐	-3489
砲	-3490
钢	-3491
絡	-3492
齡	-3493
閉	-3494
铜	-3495
蔣	-3496
驅	-3497
剩	-3498
潛	-3499
床	-3500
浩	-3501
订	-3502
擬	-3503
輝	-3504
横	-3505
枝	-3506
誉	-3507
蓮	-3508
翁	-3509
歧	-3510
券	-3511
搬	-3512
吕	-3513
匯	-3514
拳	-3515
填	-3516
夷	-3517
荒	-3518
紙	-3519
脑	-3520
譽	-3521
裕	-3522
賢	-3523
丝	-3524
赖	-3525
顏	-3526
岭	-3527
湯	-3528
燈	-3529
凤	-3530
傅	-3531
疫	-3532
课	-3533
廈	-3534
純	-3535
欲	-3536
综	-3537
丈	-3538
壇	-3539
驱	-3540
邨	-3541
衍	-3542
淮	-3543
窗	-3544
割	-3545
怒	-3546
災	-3547
覽	-3548
错	-3549
旨	-3550
錫	-3551
蝶	-3552
寨	-3553
误	-3554
恶	-3555
銅	-3556
灌	-3557
肥	-3558
燒	-3559
抽	-3560
阴	-3561
污	-3562
冊	-3563
隱	-3564
虫	-3565
欣	-3566
册	-3567
妇	-3568
卜	-3569
珊	-3570
儘	-3571
冒	-3572
税	-3573
迈	-3574
邮	-3575
獄	-3576
寿	-3577
膜	-3578
鸟	-3579
逊	-3580
獸	-3581
狂	-3582
胎	-3583
鯉	-3584
斜	-3585
濱	-3586
迹	-3587
聘	-3588
闭	-3589
悉	-3590
垂	-3591
狄	-3592
稿	-3593
颱	-3594
沟	-3595
煤	-3596
静	-3597
虛	-3598
吾	-3599
儒	-3600
孤	-3601
陀	-3602
粹	-3603
弃	-3604
廊	-3605
壤	-3606
湘	-3607
憶	-3608
握	-3609
栽	-3610
駕	-3611
嶼	-3612
耗	-3613
鋒	-3614
赢	-3615
呂	-3616
柔	-3617
獵	-3618
坪	-3619
殘	-3620
缘	-3621
粗	-3622
稳	-3623
&	-3624
揭	-3625
潜	-3626
纸	-3627
肃	-3628
娘	-3629
嶺	-3630
逆	-3631
翠	-3632
猶	-3633
籃	-3634
賀	-3635
違	-3636
貌	-3637
阁	-3638
辞	-3639
剑	-3640
绩	-3641
倉	-3642
琉	-3643
俘	-3644
婆	-3645
脉	-3646
堪	-3647
狗	-3648
潭	-3649
恰	-3650
键	-3651
笔	-3652
寻	-3653
翌	-3654
寒	-3655
挪	-3656
贊	-3657
拟	-3658
灾	-3659
阪	-3660
魂	-3661
薄	-3662
璃	-3663
籌	-3664
辰	-3665
鹽	-3666
厘	-3667
忍	-3668
览	-3669
癌	-3670
叙	-3671
辅	-3672
扶	-3673
紋	-3674
吐	-3675
储	-3676
档	-3677
丙	-3678
稍	-3679
遵	-3680
堆	-3681
貫	-3682
慮	-3683
陨	-3684
刷	-3685
譜	-3686
残	-3687
矩	-3688
碎	-3689
淘	-3690
苑	-3691
邓	-3692
鼻	-3693
涵	-3694
蕭	-3695
冯	-3696
礦	-3697
繞	-3698
汪	-3699
怖	-3700
姚	-3701
鍵	-3702
添	-3703
偷	-3704
驚	-3705
押	-3706
胸	-3707
稅	-3708
飲	-3709
寸	-3710
惟	-3711
猪	-3712
逮	-3713
硫	-3714
弦	-3715
嫌	-3716
祀	-3717
郵	-3718
憑	-3719
绘	-3720
姬	-3721
歇	-3722
卒	-3723
兆	-3724
軸	-3725
鄧	-3726
屠	-3727
吏	-3728
姻	-3729
狱	-3730
狼	-3731
雀	-3732
奔	-3733
貓	-3734
蛛	-3735
誠	-3736
卑	-3737
夕	-3738
註	-3739
奎	-3740
酶	-3741
脊	-3742
绪	-3743
謂	-3744
芒	-3745
泡	-3746
仇	-3747
殼	-3748
牆	-3749
跡	-3750
贾	-3751
詳	-3752
醒	-3753
蒸	-3754
纵	-3755
嗣	-3756
叉	-3757
逼	-3758
縱	-3759
─	-3760
腐	-3761
獅	-3762
磨	-3763
峡	-3764
触	-3765
暂	-3766
卵	-3767
菊	-3768
贈	-3769
猛	-3770
劫	-3771
烟	-3772
誕	-3773
纯	-3774
隋	-3775
颜	-3776
勳	-3777
劑	-3778
勋	-3779
屈	-3780
拼	-3781
衔	-3782
娃	-3783
梦	-3784
轟	-3785
薛	-3786
鎖	-3787
隐	-3788
嫁	-3789
傾	-3790
斤	-3791
犬	-3792
凝	-3793
笼	-3794
讯	-3795
紛	-3796
颁	-3797
敘	-3798
峽	-3799
掘	-3800
肖	-3801
賈	-3802
敢	-3803
醇	-3804
粵	-3805
緩	-3806
伟	-3807
儲	-3808
嘴	-3809
悲	-3810
筹	-3811
牵	-3812
忙	-3813
氯	-3814
壘	-3815
矛	-3816
祿	-3817
伽	-3818
抑	-3819
奶	-3820
棘	-3821
卖	-3822
厦	-3823
媽	-3824
碟	-3825
頁	-3826
曰	-3827
邁	-3828
迦	-3829
虚	-3830
礁	-3831
姊	-3832
萧	-3833
銜	-3834
篮	-3835
飓	-3836
・	-3837
妙	-3838
岗	-3839
偵	-3840
肌	-3841
烧	-3842
灯	-3843
忽	-3844
汰	-3845
虑	-3846
祠	-3847
株	-3848
盜	-3849
煙	-3850
擾	-3851
缓	-3852
雍	-3853
旬	-3854
鼎	-3855
蒋	-3856
扁	-3857
裏	-3858
汤	-3859
碧	-3860
袋	-3861
翔	-3862
吹	-3863
怕	-3864
麟	-3865
抱	-3866
馮	-3867
讷	-3868
稻	-3869
甫	-3870
鯰	-3871
谱	-3872
拖	-3873
’	-3874
姜	-3875
巫	-3876
尹	-3877
髮	-3878
砂	-3879
詢	-3880
幽	-3881
躍	-3882
硕	-3883
宰	-3884
掛	-3885
胶	-3886
吨	-3887
斐	-3888
寓	-3889
蹈	-3890
朴	-3891
锋	-3892
勵	-3893
汀	-3894
孕	-3895
龄	-3896
抓	-3897
罰	-3898
剪	-3899
沖	-3900
恭	-3901
崩	-3902
圭	-3903
丸	-3904
緬	-3905
盆	-3906
脚	-3907
虹	-3908
竟	-3909
抚	-3910
毅	-3911
邪	-3912
鄂	-3913
讚	-3914
滾	-3915
貞	-3916
→	-3917
龜	-3918
邑	-3919
寮	-3920
膠	-3921
埋	-3922
溝	-3923
丑	-3924
丞	-3925
豫	-3926
晓	-3927
倡	-3928
託	-3929
挂	-3930
辨	-3931
氢	-3932
~	-3933
廖	-3934
碩	-3935
魁	-3936
搖	-3937
汝	-3938
蓬	-3939
蕨	-3940
冈	-3941
伙	-3942
珀	-3943
囊	-3944
俠	-3945
蜂	-3946
违	-3947
雌	-3948
脅	-3949
茅	-3950
滕	-3951
襄	-3952
濃	-3953
巢	-3954
扣	-3955
撫	-3956
漁	-3957
咖	-3958
募	-3959
飯	-3960
腺	-3961
催	-3962
喪	-3963
×	-3964
陪	-3965
吧	-3966
氨	-3967
腔	-3968
茵	-3969
披	-3970
吞	-3971
坛	-3972
鴻	-3973
蟹	-3974
挖	-3975
鍾	-3976
彌	-3977
淺	-3978
湿	-3979
礙	-3980
链	-3981
暖	-3982
賜	-3983
溯	-3984
坂	-3985
苯	-3986
耕	-3987
涌	-3988
栖	-3989
酷	-3990
潔	-3991
谓	-3992
纹	-3993
閱	-3994
擅	-3995
拘	-3996
壮	-3997
削	-3998
蜜	-3999
暨	-4000
棉	-4001
吻	-4002
鱸	-4003
噴	-4004
瓶	-4005
耐	-4006
雞	-4007
忘	-4008
崖	-4009
蕾	-4010
愈	-4011
肺	-4012
舟	-4013
舌	-4014
坝	-4015
仓	-4016
漠	-4017
仕	-4018
滩	-4019
贤	-4020
貼	-4021
详	-4022
莲	-4023
毗	-4024
噶	-4025
缅	-4026
卸	-4027
徹	-4028
邱	-4029
札	-4030
帽	-4031
驶	-4032
蒲	-4033
贯	-4034
斥	-4035
亥	-4036
喇	-4037
屍	-4038
枢	-4039
薇	-4040
驾	-4041
渠	-4042
拱	-4043
巷	-4044
丛	-4045
掠	-4046
摧	-4047
姑	-4048
薪	-4049
蜀	-4050
曉	-4051
昇	-4052
淑	-4053
矮	-4054
稀	-4055
彻	-4056
页	-4057
胺	-4058
铺	-4059
鸡	-4060
‘	-4061
啡	-4062
慣	-4063
禄	-4064
鲍	-4065
龐	-4066
邵	-4067
踏	-4068
筒	-4069
琪	-4070
腾	-4071
鷹	-4072
齿	-4073
嘗	-4074
悬	-4075
粮	-4076
纷	-4077
蹤	-4078
鑑	-4079
冕	-4080
烯	-4081
赠	-4082
穴	-4083
販	-4084
椎	-4085
栗	-4086
澄	-4087
葵	-4088
庶	-4089
菩	-4090
甜	-4091
倾	-4092
藻	-4093
哪	-4094
恋	-4095
梨	-4096
赐	-4097
懸	-4098
雇	-4099
桓	-4100
帆	-4101
励	-4102
漏	-4103
宛	-4104
睡	-4105
尿	-4106
磷	-4107
惜	-4108
掩	-4109
宴	-4110
诚	-4111
玲	-4112
遞	-4113
豹	-4114
麵	-4115
碰	-4116
趕	-4117
赏	-4118
沪	-4119
鉴	-4120
钦	-4121
堤	-4122
怡	-4123
閩	-4124
禦	-4125
润	-4126
弓	-4127
梵	-4128
ー	-4129
丧	-4130
瓷	-4131
贺	-4132
豬	-4133
誓	-4134
逸	-4135
慎	-4136
翅	-4137
遲	-4138
褐	-4139
杆	-4140
框	-4141
冀	-4142
腿	-4143
銘	-4144
瘤	-4145
棕	-4146
罚	-4147
阅	-4148
禾	-4149
桌	-4150
帥	-4151
樞	-4152
搶	-4153
奠	-4154
铸	-4155
蹟	-4156
唇	-4157
欽	-4158
帅	-4159
猎	-4160
悠	-4161
姿	-4162
忆	-4163
桐	-4164
診	-4165
弄	-4166
跃	-4167
鳴	-4168
锁	-4169
磯	-4170
爪	-4171
慰	-4172
辉	-4173
递	-4174
娶	-4175
臂	-4176
淨	-4177
疊	-4178
辯	-4179
柬	-4180
柄	-4181
霞	-4182
肢	-4183
饮	-4184
鈴	-4185
牲	-4186
胁	-4187
盈	-4188
抄	-4189
呎	-4190
а	-4191
蝠	-4192
恨	-4193
繫	-4194
‧	-4195
厝	-4196
肝	-4197
窄	-4198
腓	-4199
禪	-4200
诞	-4201
腰	-4202
烷	-4203
庚	-4204
彥	-4205
貧	-4206
逻	-4207
劣	-4208
扭	-4209
庇	-4210
肩	-4211
*	-4212
祈	-4213
哀	-4214
罷	-4215
惊	-4216
囚	-4217
潤	-4218
繩	-4219
壯	-4220
汶	-4221
臟	-4222
纲	-4223
殷	-4224
贞	-4225
沼	-4226
辟	-4227
逾	-4228
娱	-4229
凭	-4230
吊	-4231
朵	-4232
猜	-4233
閃	-4234
妖	-4235
滋	-4236
厥	-4237
秩	-4238
浸	-4239
炭	-4240
扰	-4241
遮	-4242
頗	-4243
の	-4244
贫	-4245
遼	-4246
掃	-4247
韻	-4248
忌	-4249
裸	-4250
辩	-4251
霧	-4252
槽	-4253
盗	-4254
诏	-4255
怎	-4256
搞	-4257
轰	-4258
瑜	-4259
鮑	-4260
阔	-4261
兔	-4262
壳	-4263
肇	-4264
喷	-4265
彦	-4266
跌	-4267
趨	-4268
薦	-4269
寇	-4270
砖	-4271
爬	-4272
α	-4273
ン	-4274
兽	-4275
勸	-4276
椅	-4277
荃	-4278
鐸	-4279
C	-4280
蓄	-4281
о	-4282
嫩	-4283
埠	-4284
扇	-4285
糧	-4286
夥	-4287
凰	-4288
祐	-4289
芙	-4290
芭	-4291
勁	-4292
赶	-4293
焚	-4294
询	-4295
償	-4296
橡	-4297
挺	-4298
氟	-4299
嵌	-4300
戌	-4301
灘	-4302
賦	-4303
趁	-4304
亩	-4305
庸	-4306
弥	-4307
眉	-4308
跋	-4309
崙	-4310
摇	-4311
擺	-4312
猴	-4313
攜	-4314
噸	-4315
禧	-4316
歉	-4317
猫	-4318
棟	-4319
瑚	-4320
駁	-4321
欄	-4322
昔	-4323
擦	-4324
鸿	-4325
踪	-4326
彎	-4327
債	-4328
欠	-4329
酮	-4330
贴	-4331
赋	-4332
$	-4333
迟	-4334
晴	-4335
臉	-4336
伪	-4337
庞	-4338
闊	-4339
郁	-4340
蕃	-4341
茄	-4342
佑	-4343
浓	-4344
濕	-4345
鞋	-4346
坤	-4347
眠	-4348
鯨	-4349
蜥	-4350
惯	-4351
喻	-4352
牽	-4353
琼	-4354
尸	-4355
氫	-4356
旱	-4357
捉	-4358
勘	-4359
鹰	-4360
昏	-4361
桿	-4362
涂	-4363
踢	-4364
仑	-4365
稣	-4366
#	-4367
攀	-4368
履	-4369
抢	-4370
肅	-4371
鱗	-4372
悟	-4373
栏	-4374
偽	-4375
罢	-4376
夸	-4377
帳	-4378
浅	-4379
漂	-4380
闽	-4381
戊	-4382
怨	-4383
爐	-4384
爺	-4385
譚	-4386
爸	-4387
橄	-4388
喝	-4389
炳	-4390
荐	-4391
尝	-4392
塌	-4393
狐	-4394
醉	-4395
屿	-4396
鶴	-4397
裴	-4398
罩	-4399
澎	-4400
竣	-4401
軒	-4402
躲	-4403
聰	-4404
厢	-4405
滚	-4406
侨	-4407
璋	-4408
帖	-4409
旭	-4410
斬	-4411
氮	-4412
臀	-4413
净	-4414
缸	-4415
櫻	-4416
詔	-4417
鑽	-4418
碍	-4419
頸	-4420
瓊	-4421
狹	-4422
禅	-4423
蘋	-4424
碱	-4425
淳	-4426
艙	-4427
и	-4428
睛	-4429
謙	-4430
諮	-4431
僚	-4432
鴨	-4433
渔	-4434
騰	-4435
妥	-4436
慘	-4437
饭	-4438
熔	-4439
哺	-4440
閘	-4441
辱	-4442
盲	-4443
盒	-4444
穗	-4445
廂	-4446
糕	-4447
匠	-4448
颇	-4449
椒	-4450
匪	-4451
棚	-4452
陝	-4453
窮	-4454
凉	-4455
凸	-4456
痕	-4457
畜	-4458
斌	-4459
狮	-4460
劝	-4461
榴	-4462
霖	-4463
携	-4464
勾	-4465
摔	-4466
匣	-4467
绥	-4468
侦	-4469
咒	-4470
徙	-4471
賊	-4472
鱷	-4473
欺	-4474
矢	-4475
邏	-4476
漆	-4477
鞍	-4478
秉	-4479
煌	-4480
洁	-4481
阜	-4482
齋	-4483
塗	-4484
酯	-4485
崗	-4486
戚	-4487
夾	-4488
岐	-4489
鬆	-4490
梭	-4491
麓	-4492
撥	-4493
黛	-4494
诊	-4495
喉	-4496
穌	-4497
腸	-4498
粤	-4499
扫	-4500
虞	-4501
糊	-4502
涼	-4503
虐	-4504
鏈	-4505
菱	-4506
蛙	-4507
い	-4508
嘛	-4509
奸	-4510
哭	-4511
畏	-4512
瞄	-4513
牟	-4514
漳	-4515
欖	-4516
寵	-4517
憂	-4518
趋	-4519
侠	-4520
鹤	-4521
胆	-4522
淵	-4523
賭	-4524
瑙	-4525
嬰	-4526
僑	-4527
浴	-4528
堵	-4529
擋	-4530
酋	-4531
拯	-4532
á	-4533
偿	-4534
辣	-4535
捲	-4536
纤	-4537
矶	-4538
铭	-4539
遙	-4540
侶	-4541
庵	-4542
憤	-4543
垣	-4544
奮	-4545
悼	-4546
朔	-4547
廿	-4548
鯛	-4549
誘	-4550
荆	-4551
笛	-4552
鋪	-4553
幢	-4554
叠	-4555
棠	-4556
彬	-4557
韶	-4558
凹	-4559
墳	-4560
橙	-4561
舱	-4562
鸣	-4563
蝙	-4564
貪	-4565
翡	-4566
噪	-4567
棍	-4568
债	-4569
駿	-4570
弧	-4571
彗	-4572
纖	-4573
辐	-4574
乞	-4575
誰	-4576
咀	-4577
穷	-4578
楠	-4579
氛	-4580
閒	-4581
潰	-4582
壬	-4583
瓣	-4584
脏	-4585
焰	-4586
赦	-4587
惑	-4588
夹	-4589
螢	-4590
胃	-4591
滴	-4592
е	-4593
暢	-4594
н	-4595
硝	-4596
磅	-4597
湛	-4598
蛤	-4599
韵	-4600
膨	-4601
寅	-4602
瑰	-4603
粘	-4604
垃	-4605
燥	-4606
牢	-4607
膽	-4608
冶	-4609
禎	-4610
黏	-4611
摘	-4612
蝦	-4613
膚	-4614
涛	-4615
樑	-4616
玫	-4617
銳	-4618
禹	-4619
纬	-4620
杏	-4621
餅	-4622
撲	-4623
汁	-4624
誼	-4625
剿	-4626
摆	-4627
狭	-4628
圾	-4629
肆	-4630
匿	-4631
輩	-4632
騙	-4633
傘	-4634
劾	-4635
窟	-4636
娅	-4637
颶	-4638
淹	-4639
孜	-4640
β	-4641
懼	-4642
邸	-4643
籲	-4644
卧	-4645
懂	-4646
鎊	-4647
纂	-4648
迄	-4649
荊	-4650
泌	-4651
塵	-4652
戎	-4653
鵝	-4654
畿	-4655
寡	-4656
с	-4657
汕	-4658
芽	-4659
喊	-4660
懿	-4661
′	-4662
梓	-4663
橘	-4664
穎	-4665
р	-4666
荡	-4667
冥	-4668
渊	-4669
炉	-4670
奕	-4671
酰	-4672
ん	-4673
酬	-4674
櫃	-4675
簧	-4676
沛	-4677
頃	-4678
侄	-4679
稽	-4680
孚	-4681
彙	-4682
煮	-4683
炼	-4684
綁	-4685
隙	-4686
蔽	-4687
惨	-4688
筋	-4689
斋	-4690
赣	-4691
詠	-4692
栋	-4693
滇	-4694
谭	-4695
雁	-4696
頌	-4697
勉	-4698
繳	-4699
塚	-4700
寂	-4701
宦	-4702
叢	-4703
凶	-4704
鞭	-4705
峻	-4706
奋	-4707
蘿	-4708
泄	-4709
瀑	-4710
酵	-4711
芯	-4712
拋	-4713
啤	-4714
諡	-4715
闸	-4716
倪	-4717
淚	-4718
剌	-4719
俞	-4720
萍	-4721
嫡	-4722
ü	-4723
仗	-4724
敖	-4725
訟	-4726
謠	-4727
【	-4728
曝	-4729
】	-4730
妓	-4731
墩	-4732
绵	-4733
籤	-4734
頜	-4735
狩	-4736
癸	-4737
殉	-4738
荔	-4739
顷	-4740
伺	-4741
萌	-4742
呢	-4743
乒	-4744
践	-4745
う	-4746
僱	-4747
岑	-4748
傲	-4749
墅	-4750
榆	-4751
拾	-4752
墜	-4753
谊	-4754
啦	-4755
墟	-4756
桶	-4757
拨	-4758
烤	-4759
闪	-4760
煉	-4761
禍	-4762
淋	-4763
碘	-4764
稚	-4765
茹	-4766
裹	-4767
臭	-4768
苹	-4769
貸	-4770
耿	-4771
彝	-4772
仆	-4773
吋	-4774
咨	-4775
刪	-4776
彪	-4777
蓉	-4778
屢	-4779
婉	-4780
暑	-4781
谥	-4782
窑	-4783
悅	-4784
哇	-4785
聊	-4786
喚	-4787
犁	-4788
悔	-4789
鵬	-4790
狸	-4791
鹏	-4792
騷	-4793
壩	-4794
衷	-4795
廚	-4796
扑	-4797
糾	-4798
竭	-4799
魅	-4800
舜	-4801
琦	-4802
鳞	-4803
钻	-4804
磚	-4805
肿	-4806
渦	-4807
肪	-4808
淀	-4809
蹄	-4810
т	-4811
愚	-4812
颠	-4813
樟	-4814
砍	-4815
纺	-4816
饶	-4817
骸	-4818
闲	-4819
粟	-4820
※	-4821
溃	-4822
肠	-4823
擠	-4824
蘆	-4825
牡	-4826
賠	-4827
爽	-4828
羌	-4829
淫	-4830
垒	-4831
敷	-4832
顛	-4833
嵩	-4834
瘋	-4835
鑼	-4836
瀨	-4837
趾	-4838
蔚	-4839
僕	-4840
籠	-4841
綿	-4842
钠	-4843
兇	-4844
舖	-4845
锐	-4846
咬	-4847
砌	-4848
芦	-4849
懲	-4850
鸦	-4851
豚	-4852
晰	-4853
皖	-4854
碗	-4855
弼	-4856
谐	-4857
蔓	-4858
罐	-4859
舅	-4860
鰻	-4861
弊	-4862
爛	-4863
硅	-4864
茎	-4865
茜	-4866
蝕	-4867
腎	-4868
ス	-4869
擒	-4870
諧	-4871
禽	-4872
鴉	-4873
匡	-4874
凍	-4875
莞	-4876
敲	-4877
愉	-4878
衙	-4879
薯	-4880
诱	-4881
し	-4882
廓	-4883
檀	-4884
•	-4885
ā	-4886
樊	-4887
諷	-4888
骚	-4889
挽	-4890
斩	-4891
イ	-4892
狙	-4893
í	-4894
剖	-4895
膀	-4896
娥	-4897
删	-4898
谦	-4899
罹	-4900
遥	-4901
倭	-4902
毓	-4903
歼	-4904
哩	-4905
厭	-4906
腫	-4907
擢	-4908
嘎	-4909
扳	-4910
濫	-4911
淆	-4912
鱂	-4913
苔	-4914
窩	-4915
炒	-4916
締	-4917
瞬	-4918
渤	-4919
墾	-4920
ö	-4921
浏	-4922
蜘	-4923
褒	-4924
釜	-4925
孢	-4926
闖	-4927
蔬	-4928
杖	-4929
濾	-4930
蔭	-4931
祇	-4932
臥	-4933
乓	-4934
輿	-4935
厲	-4936
郝	-4937
贷	-4938
в	-4939
吁	-4940
婴	-4941
鹃	-4942
穀	-4943
畅	-4944
壹	-4945
纠	-4946
樸	-4947
鹅	-4948
滤	-4949
蚀	-4950
堯	-4951
к	-4952
甄	-4953
莖	-4954
棱	-4955
胚	-4956
蕉	-4957
暹	-4958
渭	-4959
坞	-4960
绑	-4961
烹	-4962
俯	-4963
剥	-4964
迭	-4965
庐	-4966
睿	-4967
岱	-4968
邯	-4969
忧	-4970
弯	-4971
沁	-4972
祁	-4973
擲	-4974
缝	-4975
哨	-4976
崛	-4977
猩	-4978
鸭	-4979
霜	-4980
抬	-4981
鬚	-4982
檐	-4983
漿	-4984
紳	-4985
鮋	-4986
嚇	-4987
釣	-4988
縫	-4989
脆	-4990
猿	-4991
塢	-4992
梧	-4993
沫	-4994
ル	-4995
驳	-4996
貶	-4997
渝	-4998
盔	-4999
ó	-5000
胤	-5001
愤	-5002
陇	-5003
卦	-5004
虏	-5005
か	-5006
疲	-5007
榕	-5008
鑄	-5009
犀	-5010
撐	-5011
挫	-5012
谁	-5013
饼	-5014
謹	-5015
聪	-5016
丟	-5017
邢	-5018
脹	-5019
巾	-5020
沂	-5021
舶	-5022
蝴	-5023
裙	-5024
篤	-5025
膝	-5026
虜	-5027
宵	-5028
宠	-5029
楷	-5030
た	-5031
赔	-5032
眷	-5033
莽	-5034
铝	-5035
抹	-5036
龟	-5037
踐	-5038
晤	-5039
饒	-5040
矣	-5041
梗	-5042
妾	-5043
黔	-5044
惹	-5045
疼	-5046
鬱	-5047
袍	-5048
妈	-5049
汐	-5050
尧	-5051
鯊	-5052
醛	-5053
肤	-5054
顱	-5055
髓	-5056
苷	-5057
雯	-5058
抛	-5059
锅	-5060
隕	-5061
膛	-5062
鍋	-5063
婷	-5064
è	-5065
倖	-5066
舆	-5067
媛	-5068
蕊	-5069
匾	-5070
潟	-5071
傍	-5072
л	-5073
肚	-5074
泗	-5075
濁	-5076
账	-5077
錐	-5078
鑲	-5079
贬	-5080
溥	-5081
笠	-5082
簿	-5083
涡	-5084
伞	-5085
蒼	-5086
瑶	-5087
峙	-5088
鬧	-5089
嗎	-5090
喙	-5091
膏	-5092
钩	-5093
祺	-5094
脸	-5095
湧	-5096
蒿	-5097
琅	-5098
勿	-5099
棺	-5100
罵	-5101
卯	-5102
沧	-5103
飼	-5104
堀	-5105
渴	-5106
芜	-5107
绳	-5108
ラ	-5109
瞭	-5110
槟	-5111
汾	-5112
辜	-5113
阎	-5114
颈	-5115
飽	-5116
颖	-5117
缴	-5118
睦	-5119
磡	-5120
贿	-5121
巩	-5122
敕	-5123
窝	-5124
讼	-5125
攔	-5126
溉	-5127
聂	-5128
颂	-5129
疇	-5130
説	-5131
煩	-5132
醬	-5133
挝	-5134
溢	-5135
奢	-5136
渣	-5137
肋	-5138
と	-5139
冤	-5140
贪	-5141
婿	-5142
闢	-5143
您	-5144
耆	-5145
馳	-5146
漲	-5147
洽	-5148
羞	-5149
贼	-5150
阀	-5151
苍	-5152
璧	-5153
蟻	-5154
虔	-5155
骗	-5156
鹼	-5157
幌	-5158
堰	-5159
悦	-5160
峨	-5161
惧	-5162
晃	-5163
剝	-5164
菁	-5165
釀	-5166
铃	-5167
譴	-5168
鋁	-5169
賺	-5170
厉	-5171
犧	-5172
瘦	-5173
塾	-5174
μ	-5175
詐	-5176
蚌	-5177
橢	-5178
吟	-5179
ア	-5180
啊	-5181
紮	-5182
馨	-5183
帐	-5184
摸	-5185
ä	-5186
闆	-5187
枯	-5188
讽	-5189
慌	-5190
铅	-5191
牺	-5192
焊	-5193
諜	-5194
謎	-5195
浆	-5196
磺	-5197
晏	-5198
瀏	-5199
肾	-5200
雾	-5201
侏	-5202
羚	-5203
傭	-5204
纏	-5205
辈	-5206
浑	-5207
埼	-5208
蠻	-5209
胀	-5210
绒	-5211
屡	-5212
惩	-5213
嘲	-5214
坠	-5215
匙	-5216
詮	-5217
醜	-5218
禱	-5219
胖	-5220
戟	-5221
苻	-5222
酉	-5223
闵	-5224
糟	-5225
泵	-5226
刃	-5227
掀	-5228
襪	-5229
榄	-5230
ト	-5231
鰓	-5232
纜	-5233
挡	-5234
祯	-5235
枫	-5236
瀕	-5237
諭	-5238
濤	-5239
涨	-5240
驟	-5241
竊	-5242
骼	-5243
紡	-5244
釐	-5245
谣	-5246
墮	-5247
麒	-5248
鉛	-5249
鋸	-5250
酿	-5251
丕	-5252
駒	-5253
艮	-5254
リ	-5255
竺	-5256
岔	-5257
緝	-5258
芹	-5259
僵	-5260
妝	-5261
衫	-5262
丢	-5263
廁	-5264
慾	-5265
菸	-5266
氰	-5267
琛	-5268
綽	-5269
侣	-5270
岬	-5271
淪	-5272
兀	-5273
棵	-5274
钓	-5275
倚	-5276
噬	-5277
錶	-5278
撑	-5279
な	-5280
梳	-5281
帜	-5282
懋	-5283
锥	-5284
抒	-5285
楓	-5286
瑾	-5287
祸	-5288
閥	-5289
皓	-5290
萼	-5291
窦	-5292
斧	-5293
菇	-5294
磐	-5295
淞	-5296
芮	-5297
鞏	-5298
鈞	-5299
腕	-5300
鸚	-5301
枕	-5302
紗	-5303
褲	-5304
鱈	-5305
搏	-5306
佣	-5307
缀	-5308
劲	-5309
咪	-5310
捨	-5311
蛮	-5312
暱	-5313
忒	-5314
に	-5315
哉	-5316
镶	-5317
姦	-5318
谴	-5319
钥	-5320
钧	-5321
饥	-5322
憾	-5323
幟	-5324
霹	-5325
饱	-5326
穹	-5327
攤	-5328
瀛	-5329
阐	-5330
谨	-5331
撕	-5332
睹	-5333
聶	-5334
緻	-5335
ク	-5336
瞻	-5337
稜	-5338
賄	-5339
瑛	-5340
舷	-5341
〔	-5342
戍	-5343
浚	-5344
盪	-5345
溴	-5346
郸	-5347
〕	-5348
兜	-5349
厌	-5350
棣	-5351
祂	-5352
衞	-5353
靶	-5354
り	-5355
汞	-5356
溜	-5357
捧	-5358
茱	-5359
鰕	-5360
癒	-5361
洩	-5362
轩	-5363
芸	-5364
д	-5365
抨	-5366
焉	-5367
滯	-5368
荀	-5369
煽	-5370
祷	-5371
蔗	-5372
贩	-5373
ا	-5374
篡	-5375
苞	-5376
煥	-5377
鑫	-5378
胰	-5379
霆	-5380
嗜	-5381
蟾	-5382
滲	-5383
祕	-5384
炬	-5385
蛾	-5386
捍	-5387
堊	-5388
蜒	-5389
绣	-5390
鲸	-5391
冻	-5392
曜	-5393
霉	-5394
挤	-5395
萃	-5396
陡	-5397
恪	-5398
唤	-5399
帛	-5400
逗	-5401
滥	-5402
熹	-5403
霄	-5404
蜿	-5405
糙	-5406
る	-5407
−	-5408
誦	-5409
隍	-5410
渥	-5411
爷	-5412
畴	-5413
м	-5414
艰	-5415
镑	-5416
〜	-5417
虧	-5418
き	-5419
稠	-5420
铎	-5421
艷	-5422
缪	-5423
ま	-5424
泾	-5425
钾	-5426
羟	-5427
孵	-5428
澀	-5429
俾	-5430
谍	-5431
沸	-5432
湊	-5433
煞	-5434
祚	-5435
鍊	-5436
翟	-5437
尘	-5438
妄	-5439
敞	-5440
瘟	-5441
黜	-5442
燦	-5443
壟	-5444
偕	-5445
栓	-5446
慨	-5447
蕩	-5448
峭	-5449
莓	-5450
鄒	-5451
芥	-5452
皂	-5453
崑	-5454
沽	-5455
巳	-5456
妨	-5457
淇	-5458
艱	-5459
瑤	-5460
篷	-5461
曙	-5462
誅	-5463
荫	-5464
綴	-5465
昊	-5466
烂	-5467
箕	-5468
矽	-5469
烃	-5470
薰	-5471
鈕	-5472
酚	-5473
綏	-5474
蟬	-5475
坟	-5476
拦	-5477
埤	-5478
麾	-5479
殲	-5480
闹	-5481
驰	-5482
蚤	-5483
く	-5484
屑	-5485
澜	-5486
硼	-5487
侮	-5488
俸	-5489
閻	-5490
贖	-5491
溺	-5492
γ	-5493
龚	-5494
恕	-5495
潼	-5496
瑩	-5497
疯	-5498
邹	-5499
椭	-5500
繹	-5501
肽	-5502
鶯	-5503
笨	-5504
さ	-5505
靼	-5506
乍	-5507
嬪	-5508
ッ	-5509
皋	-5510
娄	-5511
灶	-5512
骤	-5513
娟	-5514
赌	-5515
闡	-5516
斡	-5517
蚊	-5518
钙	-5519
豎	-5520
摺	-5521
膳	-5522
諒	-5523
盎	-5524
竖	-5525
轎	-5526
苣	-5527
缮	-5528
鲤	-5529
垦	-5530
禺	-5531
泣	-5532
壺	-5533
曦	-5534
滞	-5535
笃	-5536
莆	-5537
樺	-5538
枣	-5539
舵	-5540
吡	-5541
妍	-5542
臧	-5543
蕴	-5544
彤	-5545
堇	-5546
濒	-5547
隅	-5548
π	-5549
は	-5550
楞	-5551
靴	-5552
缔	-5553
釘	-5554
у	-5555
刮	-5556
椰	-5557
酪	-5558
窃	-5559
豁	-5560
雛	-5561
□	-5562
鈔	-5563
譬	-5564
陞	-5565
鵡	-5566
沐	-5567
諫	-5568
渾	-5569
鹹	-5570
魨	-5571
渗	-5572
埗	-5573
砸	-5574
萝	-5575
傀	-5576
裘	-5577
暮	-5578
陛	-5579
吵	-5580
刹	-5581
衢	-5582
鑰	-5583
謊	-5584
樱	-5585
苟	-5586
鑒	-5587
滙	-5588
滬	-5589
洼	-5590
啸	-5591
炫	-5592
こ	-5593
δ	-5594
疹	-5595
阱	-5596
氦	-5597
晖	-5598
鎌	-5599
σ	-5600
烦	-5601
壢	-5602
謬	-5603
儡	-5604
扔	-5605
柜	-5606
沦	-5607
厨	-5608
佬	-5609
が	-5610
倩	-5611
萱	-5612
誇	-5613
鞘	-5614
鉤	-5615
匀	-5616
吗	-5617
垫	-5618
煎	-5619
谕	-5620
顎	-5621
蘊	-5622
谏	-5623
夭	-5624
幡	-5625
餓	-5626
\	-5627
藓	-5628
庾	-5629
鈣	-5630
峪	-5631
沮	-5632
泪	-5633
艳	-5634
蘚	-5635
蠟	-5636
п	-5637
シ	-5638
戮	-5639
葫	-5640
缆	-5641
腥	-5642
み	-5643
汴	-5644
淄	-5645
λ	-5646
诛	-5647
呆	-5648
伶	-5649
虾	-5650
毯	-5651
羲	-5652
靡	-5653
ら	-5654
隘	-5655
炯	-5656
僉	-5657
@	-5658
醚	-5659
磊	-5660
濠	-5661
柑	-5662
蔷	-5663
奚	-5664
焕	-5665
飄	-5666
泼	-5667
竇	-5668
垄	-5669
芋	-5670
槐	-5671
卤	-5672
湄	-5673
琵	-5674
嘻	-5675
廬	-5676
鼬	-5677
叱	-5678
敛	-5679
嘆	-5680
镍	-5681
擱	-5682
お	-5683
扯	-5684
鈉	-5685
鲨	-5686
巖	-5687
墊	-5688
晟	-5689
陌	-5690
姨	-5691
檬	-5692
萎	-5693
タ	-5694
叹	-5695
て	-5696
鄞	-5697
琶	-5698
咽	-5699
崁	-5700
陋	-5701
燮	-5702
淤	-5703
咎	-5704
胥	-5705
カ	-5706
嶽	-5707
垮	-5708
冉	-5709
醋	-5710
绸	-5711
跪	-5712
驼	-5713
諱	-5714
酱	-5715
覓	-5716
兑	-5717
绰	-5718
毙	-5719
拷	-5720
暉	-5721
繡	-5722
証	-5723
â	-5724
驿	-5725
倆	-5726
翊	-5727
恤	-5728
ç	-5729
壕	-5730
蒜	-5731
惱	-5732
蜡	-5733
訥	-5734
纱	-5735
肛	-5736
沾	-5737
駝	-5738
耦	-5739
○	-5740
蒐	-5741
ジ	-5742
稷	-5743
妆	-5744
斃	-5745
桅	-5746
锌	-5747
嘯	-5748
繆	-5749
ロ	-5750
汙	-5751
骆	-5752
悍	-5753
佚	-5754
寰	-5755
閔	-5756
毘	-5757
あ	-5758
朽	-5759
恥	-5760
卉	-5761
凿	-5762
攬	-5763
槳	-5764
苛	-5765
弈	-5766
憩	-5767
瞿	-5768
篆	-5769
釉	-5770
頑	-5771
笙	-5772
拐	-5773
蕙	-5774
诈	-5775
渲	-5776
漕	-5777
聆	-5778
珂	-5779
峇	-5780
悚	-5781
濮	-5782
竿	-5783
揆	-5784
嬌	-5785
诵	-5786
啓	-5787
臼	-5788
葱	-5789
剃	-5790
莒	-5791
侃	-5792
悄	-5793
汲	-5794
埕	-5795
潑	-5796
飘	-5797
侖	-5798
嵐	-5799
跆	-5800
轿	-5801
啶	-5802
饲	-5803
鮭	-5804
壶	-5805
悖	-5806
ち	-5807
咏	-5808
霰	-5809
兌	-5810
坍	-5811
孺	-5812
糯	-5813
窯	-5814
衆	-5815
鉅	-5816
昧	-5817
ε	-5818
鈾	-5819
駱	-5820
甥	-5821
臻	-5822
苓	-5823
飢	-5824
簇	-5825
媚	-5826
绎	-5827
琰	-5828
畝	-5829
隼	-5830
绅	-5831
杞	-5832
愁	-5833
驕	-5834
盼	-5835
ο	-5836
掣	-5837
甬	-5838
钞	-5839
龔	-5840
寝	-5841
ω	-5842
哆	-5843
捆	-5844
栅	-5845
芷	-5846
闯	-5847
マ	-5848
嫔	-5849
陂	-5850
褚	-5851
絨	-5852
г	-5853
昱	-5854
檳	-5855
踩	-5856
骏	-5857
毋	-5858
勻	-5859
攸	-5860
滄	-5861
齣	-5862
傻	-5863
珪	-5864
僖	-5865
ド	-5866
砷	-5867
瑋	-5868
←	-5869
鈍	-5870
侗	-5871
饿	-5872
鑿	-5873
撃	-5874
じ	-5875
灼	-5876
烘	-5877
谟	-5878
皈	-5879
殆	-5880
撼	-5881
歪	-5882
妒	-5883
謨	-5884
趟	-5885
硒	-5886
葆	-5887
毆	-5888
蛺	-5889
躁	-5890
贛	-5891
遏	-5892
綾	-5893
蔑	-5894
鳩	-5895
傣	-5896
圻	-5897
侈	-5898
椿	-5899
畸	-5900
樵	-5901
瀾	-5902
羧	-5903
濬	-5904
婭	-5905
蜗	-5906
ل	-5907
蜴	-5908
茉	-5909
栈	-5910
靂	-5911
レ	-5912
俭	-5913
筠	-5914
缠	-5915
〇	-5916
楔	-5917
ú	-5918
馈	-5919
薹	-5920
跤	-5921
褶	-5922
雉	-5923
±	-5924
锤	-5925
侬	-5926
秃	-5927
吓	-5928
赎	-5929
鳍	-5930
柵	-5931
锂	-5932
唸	-5933
谜	-5934
閏	-5935
叡	-5936
瀚	-5937
卅	-5938
铀	-5939
産	-5940
峯	-5941
灑	-5942
錘	-5943
魄	-5944
潞	-5945
靳	-5946
骂	-5947
瞳	-5948
倦	-5949
媳	-5950
钉	-5951
沅	-5952
亏	-5953
弩	-5954
ν	-5955
脾	-5956
泸	-5957
ρ	-5958
嫻	-5959
à	-5960
誣	-5961
锯	-5962
檻	-5963
鰈	-5964
匆	-5965
勐	-5966
碉	-5967
儉	-5968
桔	-5969
驛	-5970
拌	-5971
捞	-5972
圩	-5973
遴	-5974
鏢	-5975
韌	-5976
圃	-5977
耍	-5978
缉	-5979
喃	-5980
縛	-5981
つ	-5982
訶	-5983
τ	-5984
綺	-5985
鴿	-5986
б	-5987
襯	-5988
胱	-5989
甦	-5990
蚕	-5991
鐮	-5992
喘	-5993
刁	-5994
愧	-5995
儂	-5996
莘	-5997
挾	-5998
钊	-5999
杠	-6000
迥	-6001
琮	-6002
婢	-6003
勛	-6004
洮	-6005
澈	-6006
拂	-6007
擄	-6008
躺	-6009
も	-6010
濂	-6011
鳚	-6012
й	-6013
フ	-6014
を	-6015
膺	-6016
钮	-6017
蚜	-6018
姪	-6019
菅	-6020
裳	-6021
琥	-6022
鎧	-6023
軀	-6024
冢	-6025
恺	-6026
宸	-6027
襟	-6028
鬍	-6029
殴	-6030
搁	-6031
槃	-6032
浜	-6033
蝸	-6034
ô	-6035
瀧	-6036
璽	-6037
诬	-6038
朕	-6039
燭	-6040
ミ	-6041
昨	-6042
籽	-6043
賤	-6044
糞	-6045
兖	-6046
矚	-6047
丫	-6048
蚁	-6049
遁	-6050
乂	-6051
撈	-6052
狠	-6053
蟒	-6054
邕	-6055
粥	-6056
翎	-6057
蠅	-6058
瑕	-6059
饋	-6060
蔥	-6061
夔	-6062
婁	-6063
潢	-6064
猷	-6065
柿	-6066
蠢	-6067
だ	-6068
蠕	-6069
賃	-6070
闰	-6071
枋	-6072
洙	-6073
冗	-6074
吠	-6075
熵	-6076
痴	-6077
晦	-6078
で	-6079
嫉	-6080
瀋	-6081
暈	-6082
鉀	-6083
я	-6084
谅	-6085
詛	-6086
ς	-6087
れ	-6088
堕	-6089
殭	-6090
耻	-6091
剎	-6092
餉	-6093
妳	-6094
吼	-6095
扈	-6096
僻	-6097
掖	-6098
阙	-6099
キ	-6100
畑	-6101
豔	-6102
衬	-6103
駭	-6104
‰	-6105
莪	-6106
蝇	-6107
エ	-6108
桨	-6109
溧	-6110
訝	-6111
忻	-6112
掷	-6113
オ	-6114
弋	-6115
逵	-6116
や	-6117
澱	-6118
曳	-6119
茛	-6120
ə	-6121
岚	-6122
貂	-6123
ι	-6124
螂	-6125
囑	-6126
昕	-6127
瀉	-6128
寢	-6129
桩	-6130
樁	-6131
隴	-6132
鷲	-6133
奘	-6134
浊	-6135
顽	-6136
黴	-6137
藔	-6138
唑	-6139
氹	-6140
俩	-6141
惕	-6142
阡	-6143
す	-6144
咳	-6145
韬	-6146
殯	-6147
酥	-6148
岷	-6149
榔	-6150
薑	-6151
斛	-6152
矯	-6153
嘱	-6154
絮	-6155
羈	-6156
薨	-6157
輾	-6158
羰	-6159
昶	-6160
瞞	-6161
孀	-6162
蓟	-6163
コ	-6164
帧	-6165
裤	-6166
鍛	-6167
锈	-6168
拙	-6169
妊	-6170
讳	-6171
荧	-6172
☆	-6173
剔	-6174
渚	-6175
綸	-6176
虢	-6177
蛟	-6178
昼	-6179
逍	-6180
鮨	-6181
憐	-6182
捏	-6183
醣	-6184
潍	-6185
篩	-6186
涿	-6187
φ	-6188
っ	-6189
邺	-6190
饑	-6191
š	-6192
熄	-6193
鷺	-6194
鞑	-6195
幂	-6196
绛	-6197
偃	-6198
戛	-6199
嶋	-6200
兗	-6201
炀	-6202
巍	-6203
鋰	-6204
钝	-6205
撾	-6206
鰨	-6207
璜	-6208
佟	-6209
檸	-6210
眺	-6211
砾	-6212
樽	-6213
沌	-6214
鷗	-6215
绞	-6216
慷	-6217
叭	-6218
暇	-6219
宕	-6220
袜	-6221
匝	-6222
佃	-6223
巽	-6224
曇	-6225
楨	-6226
瑄	-6227
馴	-6228
鸽	-6229
璐	-6230
孛	-6231
穫	-6232
铵	-6233
驸	-6234
奄	-6235
扼	-6236
迺	-6237
烽	-6238
叮	-6239
怜	-6240
鎂	-6241
颍	-6242
肘	-6243
螯	-6244
雏	-6245
伎	-6246
掙	-6247
谎	-6248
龕	-6249
煜	-6250
グ	-6251
詭	-6252
礫	-6253
郢	-6254
ブ	-6255
莹	-6256
闕	-6257
骄	-6258
歙	-6259
檗	-6260
莺	-6261
坳	-6262
桦	-6263
迂	-6264
鄙	-6265
咤	-6266
璇	-6267
馥	-6268
諺	-6269
颐	-6270
叻	-6271
攏	-6272
蓼	-6273
懶	-6274
诰	-6275
ī	-6276
尬	-6277
餵	-6278
鸞	-6279
沱	-6280
篠	-6281
絞	-6282
嶄	-6283
癮	-6284
脖	-6285
黯	-6286
檎	-6287
涧	-6288
湳	-6289
皿	-6290
巔	-6291
氓	-6292
妲	-6293
吒	-6294
櫛	-6295
κ	-6296
斂	-6297
璟	-6298
憎	-6299
凑	-6300
炙	-6301
铬	-6302
雳	-6303
牒	-6304
鞠	-6305
頤	-6306
チ	-6307
滔	-6308
旻	-6309
仄	-6310
擂	-6311
诃	-6312
鰍	-6313
惰	-6314
癱	-6315
綬	-6316
锻	-6317
茫	-6318
昵	-6319
晝	-6320
炔	-6321
禿	-6322
ы	-6323
麝	-6324
咲	-6325
サ	-6326
帘	-6327
け	-6328
鈺	-6329
婺	-6330
倘	-6331
诠	-6332
ن	-6333
鉉	-6334
眶	-6335
鄱	-6336
綢	-6337
赚	-6338
銓	-6339
璞	-6340
瞰	-6341
丐	-6342
蝗	-6343
韃	-6344
榨	-6345
ナ	-6346
摊	-6347
鸠	-6348
曬	-6349
懈	-6350
荼	-6351
抖	-6352
緋	-6353
筛	-6354
涪	-6355
揽	-6356
瓯	-6357
骷	-6358
尻	-6359
碁	-6360
聾	-6361
挨	-6362
艋	-6363
劈	-6364
鎳	-6365
呀	-6366
舺	-6367
蠶	-6368
悶	-6369
啄	-6370
撓	-6371
θ	-6372
怠	-6373
旷	-6374
ч	-6375
磋	-6376
赂	-6377
嗅	-6378
拇	-6379
歳	-6380
テ	-6381
祉	-6382
瀝	-6383
櫚	-6384
鄺	-6385
鳄	-6386
ر	-6387
鵑	-6388
з	-6389
挠	-6390
頰	-6391
麴	-6392
ウ	-6393
婕	-6394
睞	-6395
唔	-6396
槓	-6397
缚	-6398
蘑	-6399
稼	-6400
旌	-6401
玟	-6402
ム	-6403
玺	-6404
翹	-6405
哮	-6406
嫂	-6407
ь	-6408
^	-6409
沥	-6410
卞	-6411
汛	-6412
劭	-6413
酗	-6414
灿	-6415
秤	-6416
咐	-6417
滦	-6418
デ	-6419
蝉	-6420
パ	-6421
屎	-6422
撇	-6423
蠍	-6424
酌	-6425
晒	-6426
镁	-6427
ャ	-6428
皱	-6429
よ	-6430
わ	-6431
鳅	-6432
焘	-6433
骁	-6434
崧	-6435
覃	-6436
淦	-6437
熏	-6438
祜	-6439
馏	-6440
乖	-6441
鑾	-6442
亢	-6443
飆	-6444
ょ	-6445
笋	-6446
艏	-6447
蝽	-6448
ひ	-6449
鍍	-6450
凋	-6451
韧	-6452
å	-6453
佗	-6454
槿	-6455
嬉	-6456
颅	-6457
ê	-6458
ñ	-6459
謗	-6460
柚	-6461
洒	-6462
瘓	-6463
钛	-6464
睢	-6465
睾	-6466
佥	-6467
唆	-6468
滁	-6469
珉	-6470
衮	-6471
醮	-6472
プ	-6473
螈	-6474
睽	-6475
愷	-6476
鄴	-6477
冼	-6478
葺	-6479
嗓	-6480
稟	-6481
賂	-6482
躬	-6483
簾	-6484
ë	-6485
咕	-6486
镀	-6487
鱇	-6488
η	-6489
ィ	-6490
佘	-6491
轍	-6492
鵰	-6493
嬴	-6494
泓	-6495
犍	-6496
檜	-6497
癖	-6498
蝨	-6499
瘫	-6500
笈	-6501
葦	-6502
娠	-6503
彷	-6504
熾	-6505
遐	-6506
魮	-6507
ø	-6508
蝎	-6509
撿	-6510
え	-6511
桢	-6512
羁	-6513
鬣	-6514
鮟	-6515
铉	-6516
ニ	-6517
锰	-6518
髻	-6519
粲	-6520
龛	-6521
バ	-6522
粪	-6523
査	-6524
●	-6525
瓮	-6526
鹦	-6527
豈	-6528
辗	-6529
镰	-6530
飪	-6531
竄	-6532
誡	-6533
ي	-6534
碌	-6535
羯	-6536
ハ	-6537
鳌	-6538
珲	-6539
喆	-6540
橇	-6541
蜱	-6542
瘾	-6543
恼	-6544
惶	-6545
澡	-6546
凳	-6547
恬	-6548
窪	-6549
鈦	-6550
耽	-6551
餡	-6552
羹	-6553
轅	-6554
鹘	-6555
熬	-6556
聿	-6557
锚	-6558
徘	-6559
鋅	-6560
晕	-6561
ʁ	-6562
堺	-6563
墘	-6564
甩	-6565
驴	-6566
鹭	-6567
槭	-6568
钴	-6569
兮	-6570
柩	-6571
槌	-6572
煒	-6573
榈	-6574
徊	-6575
摹	-6576
浣	-6577
烛	-6578
脩	-6579
泮	-6580
膩	-6581
歹	-6582
蕈	-6583
醯	-6584
窺	-6585
鲷	-6586
亳	-6587
寥	-6588
踝	-6589
赁	-6590
鏽	-6591
髒	-6592
漩	-6593
錨	-6594
泻	-6595
懇	-6596
湍	-6597
棧	-6598
ß	-6599
嚮	-6600
筱	-6601
愍	-6602
淖	-6603
م	-6604
灸	-6605
燧	-6606
秧	-6607
玖	-6608
贻	-6609
忱	-6610
苳	-6611
窖	-6612
鎚	-6613
梢	-6614
驯	-6615
叩	-6616
檯	-6617
腋	-6618
蔔	-6619
钵	-6620
鹛	-6621
窘	-6622
摯	-6623
贮	-6624
郴	-6625
ガ	-6626
厕	-6627
鈎	-6628
蒴	-6629
漱	-6630
澧	-6631
誥	-6632
ō	-6633
俏	-6634
怯	-6635
捻	-6636
窒	-6637
惇	-6638
洵	-6639
羨	-6640
蟠	-6641
謁	-6642
ろ	-6643
撮	-6644
瑣	-6645
喂	-6646
疵	-6647
筲	-6648
荻	-6649
娩	-6650
崴	-6651
驹	-6652
弛	-6653
珮	-6654
荚	-6655
č	-6656
瓚	-6657
寞	-6658
釗	-6659
骰	-6660
藜	-6661
ダ	-6662
杵	-6663
鹊	-6664
氙	-6665
翘	-6666
ュ	-6667
铲	-6668
屁	-6669
蜆	-6670
绶	-6671
疟	-6672
簷	-6673
躯	-6674
洱	-6675
琨	-6676
賑	-6677
顫	-6678
甯	-6679
蕪	-6680
傢	-6681
僭	-6682
桁	-6683
痊	-6684
訣	-6685
娇	-6686
唾	-6687
鼩	-6688
浇	-6689
狡	-6690
釧	-6691
妤	-6692
碇	-6693
胄	-6694
筍	-6695
呤	-6696
碾	-6697
蓓	-6698
诫	-6699
饷	-6700
鎬	-6701
メ	-6702
娼	-6703
纶	-6704
蔻	-6705
闾	-6706
鼐	-6707
肄	-6708
晷	-6709
諦	-6710
苇	-6711
و	-6712
柠	-6713
筵	-6714
麽	-6715
脇	-6716
痪	-6717
鱨	-6718
ビ	-6719
俑	-6720
戳	-6721
逕	-6722
せ	-6723
谬	-6724
堃	-6725
宥	-6726
巅	-6727
曠	-6728
浒	-6729
畠	-6730
脷	-6731
攘	-6732
邳	-6733
歆	-6734
灝	-6735
踞	-6736
拢	-6737
ɛ	-6738
薔	-6739
轭	-6740
鹵	-6741
ē	-6742
娑	-6743
盂	-6744
箴	-6745
籬	-6746
啞	-6747
姥	-6748
繕	-6749
闇	-6750
掏	-6751
貯	-6752
賬	-6753
楹	-6754
紓	-6755
嚼	-6756
琢	-6757
鞅	-6758
楣	-6759
瘧	-6760
鳃	-6761
揉	-6762
挣	-6763
搗	-6764
嘔	-6765
岂	-6766
镐	-6767
⁄	-6768
燊	-6769
锑	-6770
叟	-6771
筏	-6772
絃	-6773
缕	-6774
涩	-6775
疣	-6776
瞒	-6777
煦	-6778
镖	-6779
珈	-6780
奬	-6781
孽	-6782
攪	-6783
谒	-6784
髏	-6785
亘	-6786
枉	-6787
榛	-6788
矗	-6789
璘	-6790
俳	-6791
蜻	-6792
璉	-6793
恃	-6794
罔	-6795
輟	-6796
扒	-6797
氾	-6798
穢	-6799
薈	-6800
琐	-6801
琬	-6802
蜓	-6803
逅	-6804
儼	-6805
薊	-6806
皺	-6807
邂	-6808
绢	-6809
誹	-6810
饪	-6811
猝	-6812
嘌	-6813
婪	-6814
栎	-6815
絹	-6816
腱	-6817
懺	-6818
箔	-6819
め	-6820
炱	-6821
珞	-6822
栾	-6823
炽	-6824
瞎	-6825
粽	-6826
渎	-6827
雒	-6828
铂	-6829
鹉	-6830
蝰	-6831
釁	-6832
澍	-6833
茸	-6834
嘧	-6835
榻	-6836
谤	-6837
ェ	-6838
鸾	-6839
霑	-6840
霓	-6841
彧	-6842
砚	-6843
岌	-6844
蚓	-6845
鴞	-6846
榭	-6847
荥	-6848
诅	-6849
谿	-6850
侷	-6851
棗	-6852
檄	-6853
畲	-6854
肱	-6855
覲	-6856
抉	-6857
»	-6858
ゅ	-6859
濑	-6860
爹	-6861
佼	-6862
瘡	-6863
菠	-6864
拮	-6865
肴	-6866
噁	-6867
巒	-6868
糸	-6869
聳	-6870
韜	-6871
勖	-6872
赈	-6873
俐	-6874
祗	-6875
贱	-6876
ū	-6877
х	-6878
腈	-6879
鮃	-6880
辍	-6881
懦	-6882
沔	-6883
箏	-6884
粱	-6885
罄	-6886
焙	-6887
虱	-6888
鮠	-6889
溼	-6890
モ	-6891
馀	-6892
ã	-6893
挚	-6894
栃	-6895
佤	-6896
浔	-6897
岙	-6898
蚂	-6899
匕	-6900
掸	-6901
癲	-6902
袞	-6903
ب	-6904
辕	-6905
滘	-6906
閑	-6907
岖	-6908
荠	-6909
餚	-6910
夯	-6911
戡	-6912
銃	-6913
弔	-6914
醍	-6915
烙	-6916
杲	-6917
吩	-6918
帚	-6919
菀	-6920
嗽	-6921
栩	-6922
⋯	-6923
蛹	-6924
煬	-6925
蠡	-6926
豌	-6927
嬅	-6928
獾	-6929
鰂	-6930
喧	-6931
嫖	-6932
疽	-6933
艉	-6934
蹲	-6935
闍	-6936
佰	-6937
俚	-6938
涇	-6939
醴	-6940
噩	-6941
弁	-6942
洄	-6943
瑠	-6944
羣	-6945
醃	-6946
啼	-6947
寛	-6948
弒	-6949
氐	-6950
紊	-6951
鏗	-6952
芎	-6953
鲱	-6954
疚	-6955
疤	-6956
驃	-6957
幺	-6958
螞	-6959
諏	-6960
鮡	-6961
î	-6962
勺	-6963
媲	-6964
腻	-6965
谔	-6966
ズ	-6967
漾	-6968
瑭	-6969
垢	-6970
醐	-6971
蛭	-6972
黍	-6973
梟	-6974
鄢	-6975
鏞	-6976
钨	-6977
貽	-6978
鸥	-6979
«	-6980
蜈	-6981
鏟	-6982
悌	-6983
遽	-6984
睐	-6985
闷	-6986
塹	-6987
桧	-6988
膦	-6989
罂	-6990
羔	-6991
钰	-6992
ł	-6993
躋	-6994
驍	-6995
峒	-6996
挟	-6997
锺	-6998
彿	-6999
镕	-7000
鬃	-7001
鮫	-7002
鱲	-7003
纥	-7004
蚣	-7005
靚	-7006
儁	-7007
螳	-7008
酐	-7009
餾	-7010
æ	-7011
眩	-7012
ц	-7013
瑁	-7014
鑣	-7015
壠	-7016
捣	-7017
琊	-7018
觐	-7019
垩	-7020
呵	-7021
耸	-7022
驊	-7023
戦	-7024
瓘	-7025
糜	-7026
讞	-7027
徳	-7028
恂	-7029
栢	-7030
掺	-7031
滸	-7032
ど	-7033
ゆ	-7034
褫	-7035
鉑	-7036
佯	-7037
鄚	-7038
ć	-7039
絆	-7040
搅	-7041
呕	-7042
涤	-7043
謚	-7044
恳	-7045
杓	-7046
咯	-7047
貳	-7048
靛	-7049
袒	-7050
萩	-7051
冪	-7052
剋	-7053
甕	-7054
荨	-7055
昀	-7056
ı	-7057
柘	-7058
珩	-7059
矫	-7060
υ	-7061
涟	-7062
澗	-7063
頡	-7064
憬	-7065
庠	-7066
昴	-7067
皎	-7068
俟	-7069
稔	-7070
繇	-7071
揣	-7072
舫	-7073
이	-7074
邛	-7075
嬤	-7076
甾	-7077
ノ	-7078
痺	-7079
脛	-7080
骠	-7081
鯙	-7082
ш	-7083
≤	-7084
譏	-7085
餌	-7086
茴	-7087
―	-7088
鰲	-7089
漪	-7090
珥	-7091
觅	-7092
訛	-7093
蜍	-7094
懒	-7095
沭	-7096
軾	-7097
帷	-7098
驤	-7099
囪	-7100
菏	-7101
诽	-7102
颌	-7103
螃	-7104
譙	-7105
湟	-7106
瀆	-7107
诡	-7108
辻	-7109
櫸	-7110
漓	-7111
筷	-7112
鉻	-7113
鸢	-7114
ŋ	-7115
羥	-7116
ゃ	-7117
鲈	-7118
娣	-7119
敍	-7120
绮	-7121
歎	-7122
潇	-7123
烴	-7124
蝮	-7125
颓	-7126
鯽	-7127
囉	-7128
戸	-7129
掾	-7130
湮	-7131
詣	-7132
赓	-7133
驢	-7134
ζ	-7135
焯	-7136
褻	-7137
吶	-7138
痘	-7139
齦	-7140
筝	-7141
囂	-7142
瑯	-7143
遶	-7144
そ	-7145
嫦	-7146
د	-7147
盏	-7148
緞	-7149
韭	-7150
哑	-7151
羡	-7152
廍	-7153
衅	-7154
隗	-7155
咄	-7156
滌	-7157
癡	-7158
睫	-7159
ツ	-7160
淅	-7161
痰	-7162
轼	-7163
銮	-7164
賁	-7165
魷	-7166
尷	-7167
缽	-7168
鳖	-7169
隈	-7170
匐	-7171
逞	-7172
頷	-7173
ご	-7174
嵊	-7175
蠔	-7176
喵	-7177
瓢	-7178
臚	-7179
萸	-7180
ば	-7181
讶	-7182
珅	-7183
鱺	-7184
儸	-7185
鈸	-7186
涝	-7187
緹	-7188
嘩	-7189
慄	-7190
鉗	-7191
鳶	-7192
嗚	-7193
摒	-7194
斟	-7195
漬	-7196
钼	-7197
嵇	-7198
拚	-7199
耘	-7200
锣	-7201
顗	-7202
瀘	-7203
铯	-7204
憧	-7205
裨	-7206
崭	-7207
潁	-7208
錳	-7209
ㄧ	-7210
晁	-7211
驥	-7212
鹫	-7213
邾	-7214
铨	-7215
盞	-7216
邈	-7217
靺	-7218
絳	-7219
郤	-7220
★	-7221
玮	-7222
腭	-7223
鱧	-7224
匮	-7225
璿	-7226
盯	-7227
趴	-7228
矾	-7229
聋	-7230
簪	-7231
缙	-7232
軛	-7233
س	-7234
ョ	-7235
跻	-7236
邃	-7237
哗	-7238
涸	-7239
鞨	-7240
様	-7241
邠	-7242
扛	-7243
炜	-7244
啉	-7245
疮	-7246
勅	-7247
赉	-7248
ワ	-7249
渺	-7250
秽	-7251
霾	-7252
鰺	-7253
亟	-7254
濛	-7255
凜	-7256
昙	-7257
砦	-7258
剷	-7259
贲	-7260
瞩	-7261
钡	-7262
颤	-7263
鯡	-7264
囤	-7265
瑗	-7266
贓	-7267
栱	-7268
獺	-7269
繭	-7270
釷	-7271
奭	-7272
幔	-7273
囱	-7274
垛	-7275
揀	-7276
萤	-7277
駙	-7278
柝	-7279
糠	-7280
鵲	-7281
ɔ	-7282
嚕	-7283
撻	-7284
涕	-7285
縻	-7286
嫣	-7287
屹	-7288
嵯	-7289
瘠	-7290
猖	-7291
偈	-7292
咱	-7293
癇	-7294
硤	-7295
蒯	-7296
嚨	-7297
澹	-7298
蹦	-7299
郯	-7300
弑	-7301
瓏	-7302
胭	-7303
頹	-7304
ふ	-7305
忿	-7306
殡	-7307
猥	-7308
匱	-7309
馅	-7310
髦	-7311
鸫	-7312
乩	-7313
匍	-7314
玳	-7315
ず	-7316
褪	-7317
晞	-7318
桀	-7319
诲	-7320
榷	-7321
炊	-7322
砥	-7323
箍	-7324
胪	-7325
骥	-7326
萘	-7327
­	-7328
孰	-7329
闫	-7330
県	-7331
碲	-7332
阗	-7333
俨	-7334
玠	-7335
絢	-7336
盱	-7337
苋	-7338
鳗	-7339
ś	-7340
琇	-7341
澂	-7342
癫	-7343
笏	-7344
鯤	-7345
ほ	-7346
帑	-7347
綦	-7348
郗	-7349
梶	-7350
诣	-7351
恿	-7352
璠	-7353
蕲	-7354
钳	-7355
忏	-7356
燁	-7357
鵜	-7358
讹	-7359
専	-7360
棻	-7361
訖	-7362
哄	-7363
痢	-7364
阆	-7365
浬	-7366
珙	-7367
ж	-7368
妞	-7369
璨	-7370
颚	-7371
鯧	-7372
đ	-7373
า	-7374
拗	-7375
澆	-7376
稗	-7377
谘	-7378
钒	-7379
峴	-7380
窥	-7381
謫	-7382
ा	-7383
珣	-7384
茗	-7385
蟎	-7386
癢	-7387
櫟	-7388
儋	-7389
獠	-7390
腌	-7391
莢	-7392
谯	-7393
亵	-7394
熒	-7395
鋤	-7396
暐	-7397
犛	-7398
鹳	-7399
榘	-7400
漯	-7401
珏	-7402
砵	-7403
綵	-7404
誨	-7405
庑	-7406
恙	-7407
鄯	-7408
鐳	-7409
钯	-7410
蒨	-7411
्	-7412
谚	-7413
绯	-7414
蛻	-7415
鴦	-7416
ی	-7417
豺	-7418
閹	-7419
颉	-7420
腮	-7421
镛	-7422
鵙	-7423
瀬	-7424
馭	-7425
尕	-7426
璀	-7427
銹	-7428
燬	-7429
鉞	-7430
岫	-7431
漣	-7432
痹	-7433
菈	-7434
逛	-7435
鎢	-7436
セ	-7437
慑	-7438
翩	-7439
俺	-7440
鱔	-7441
溅	-7442
癬	-7443
縉	-7444
込	-7445
э	-7446
摻	-7447
枷	-7448
爍	-7449
藕	-7450
釵	-7451
魴	-7452
櫥	-7453
毎	-7454
轶	-7455
錠	-7456
煲	-7457
齧	-7458
憫	-7459
涓	-7460
郃	-7461
馱	-7462
壑	-7463
槻	-7464
瘍	-7465
薙	-7466
驷	-7467
唁	-7468
嚐	-7469
ぶ	-7470
湃	-7471
阇	-7472
む	-7473
汜	-7474
苴	-7475
钗	-7476
姍	-7477
幀	-7478
濡	-7479
轧	-7480
岘	-7481
犢	-7482
猾	-7483
煊	-7484
碓	-7485
鸳	-7486
麋	-7487
刈	-7488
墉	-7489
燙	-7490
ˈ	-7491
忤	-7492
敎	-7493
槛	-7494
甌	-7495
缎	-7496
郧	-7497
爨	-7498
陟	-7499
ケ	-7500
塭	-7501
錮	-7502
铮	-7503
禀	-7504
歴	-7505
疃	-7506
钚	-7507
啮	-7508
窜	-7509
呋	-7510
縊	-7511
耒	-7512
踵	-7513
憨	-7514
痒	-7515
ァ	-7516
尴	-7517
閨	-7518
陲	-7519
笹	-7520
菟	-7521
閭	-7522
咆	-7523
圜	-7524
猕	-7525
贅	-7526
恽	-7527
歿	-7528
疱	-7529
紂	-7530
絶	-7531
輒	-7532
ع	-7533
ร	-7534
肼	-7535
膾	-7536
鯖	-7537
蝌	-7538
曄	-7539
曖	-7540
蟑	-7541
嵋	-7542
眙	-7543
霏	-7544
楫	-7545
氈	-7546
燎	-7547
鸮	-7548
ί	-7549
瑀	-7550
ð	-7551
赃	-7552
́	-7553
噹	-7554
揪	-7555
擷	-7556
臍	-7557
蚪	-7558
镉	-7559
骅	-7560
瀰	-7561
鎗	-7562
鴕	-7563
ね	-7564
喱	-7565
蝓	-7566
锷	-7567
楯	-7568
焜	-7569
紜	-7570
蛞	-7571
飙	-7572
僞	-7573
愫	-7574
邇	-7575
銨	-7576
骡	-7577
坯	-7578
橐	-7579
燾	-7580
豊	-7581
阈	-7582
氘	-7583
氪	-7584
覬	-7585
鄔	-7586
镌	-7587
儷	-7588
猗	-7589
綻	-7590
雹	-7591
颊	-7592
呐	-7593
嶷	-7594
徭	-7595
恣	-7596
閤	-7597
鼴	-7598
ž	-7599
∈	-7600
蜚	-7601
赭	-7602
蹇	-7603
闐	-7604
ت	-7605
ネ	-7606
ボ	-7607
姫	-7608
欒	-7609
歩	-7610
赟	-7611
軼	-7612
瀟	-7613
煇	-7614
耙	-7615
睇	-7616
芩	-7617
荖	-7618
鎔	-7619
顒	-7620
χ	-7621
ぐ	-7622
剽	-7623
嘶	-7624
辮	-7625
哌	-7626
鳕	-7627
ˋ	-7628
骊	-7629
喹	-7630
禰	-7631
藐	-7632
阯	-7633
ă	-7634
ş	-7635
俶	-7636
嗪	-7637
荪	-7638
®	-7639
་	-7640
峠	-7641
朐	-7642
烨	-7643
瞪	-7644
缢	-7645
坵	-7646
殃	-7647
醌	-7648
锟	-7649
鱉	-7650
侑	-7651
墻	-7652
滂	-7653
鉢	-7654
龢	-7655
翱	-7656
郓	-7657
铠	-7658
獗	-7659
菓	-7660
詰	-7661
鈹	-7662
挹	-7663
桉	-7664
烁	-7665
脐	-7666
菖	-7667
雋	-7668
彊	-7669
掳	-7670
睪	-7671
骇	-7672
鲫	-7673
昉	-7674
勗	-7675
旃	-7676
硯	-7677
粿	-7678
膿	-7679
鄲	-7680
蹼	-7681
铋	-7682
ه	-7683
哔	-7684
軫	-7685
炅	-7686
蹂	-7687
镧	-7688
黒	-7689
痞	-7690
碣	-7691
鯔	-7692
і	-7693
汨	-7694
瓒	-7695
莿	-7696
旼	-7697
锭	-7698
嗆	-7699
揖	-7700
翦	-7701
蚵	-7702
蟆	-7703
滎	-7704
诀	-7705
錡	-7706
铰	-7707
孖	-7708
宓	-7709
攣	-7710
獐	-7711
痫	-7712
瘀	-7713
篙	-7714
脯	-7715
י	-7716
ザ	-7717
倻	-7718
椽	-7719
涞	-7720
脲	-7721
醞	-7722
潦	-7723
祟	-7724
坨	-7725
坷	-7726
捩	-7727
嚣	-7728
谌	-7729
谛	-7730
钏	-7731
骧	-7732
ά	-7733
竑	-7734
楸	-7735
ポ	-7736
厩	-7737
憚	-7738
攒	-7739
鶇	-7740
纘	-7741
詬	-7742
鱒	-7743
曷	-7744
朦	-7745
鈷	-7746
綝	-7747
蚩	-7748
魟	-7749
僳	-7750
蚺	-7751
辙	-7752
悯	-7753
挛	-7754
藨	-7755
玷	-7756
羿	-7757
吝	-7758
嘟	-7759
莅	-7760
鸯	-7761
卍	-7762
ф	-7763
ゲ	-7764
嶠	-7765
槎	-7766
邬	-7767
饵	-7768
鹬	-7769
蜷	-7770
嘅	-7771
埭	-7772
缨	-7773
鶲	-7774
र	-7775
∞	-7776
暄	-7777
鮪	-7778
≥	-7779
晗	-7780
暠	-7781
燼	-7782
僮	-7783
恍	-7784
氡	-7785
狒	-7786
铢	-7787
傈	-7788
哼	-7789
噻	-7790
碚	-7791
峦	-7792
淩	-7793
跖	-7794
ゴ	-7795
凪	-7796
娴	-7797
橈	-7798
燉	-7799
琏	-7800
稹	-7801
褂	-7802
弭	-7803
晔	-7804
讒	-7805
銖	-7806
铊	-7807
崂	-7808
惺	-7809
訢	-7810
冑	-7811
荟	-7812
輋	-7813
鲀	-7814
ぎ	-7815
惋	-7816
鴛	-7817
梆	-7818
紇	-7819
蠣	-7820
扉	-7821
葶	-7822
讫	-7823
拴	-7824
ό	-7825
墀	-7826
萜	-7827
蚶	-7828
淝	-7829
芍	-7830
嘿	-7831
滷	-7832
潯	-7833
筊	-7834
軋	-7835
伉	-7836
氚	-7837
窿	-7838
夙	-7839
蚯	-7840
騫	-7841
覦	-7842
蹊	-7843
ソ	-7844
佞	-7845
爰	-7846
箬	-7847
纓	-7848
髯	-7849
殤	-7850
洺	-7851
芪	-7852
ˊ	-7853
徠	-7854
畈	-7855
苄	-7856
ギ	-7857
ピ	-7858
杷	-7859
笞	-7860
蹠	-7861
銫	-7862
ψ	-7863
び	-7864
傕	-7865
毡	-7866
郜	-7867
閎	-7868
関	-7869
寔	-7870
怛	-7871
捡	-7872
擘	-7873
灞	-7874
繃	-7875
蜕	-7876
骈	-7877
髅	-7878
鮎	-7879
ò	-7880
楝	-7881
辊	-7882
¥	-7883
汎	-7884
玘	-7885
驒	-7886
愔	-7887
菴	-7888
崽	-7889
绊	-7890
蜑	-7891
蠱	-7892
蔺	-7893
戾	-7894
濺	-7895
穰	-7896
ו	-7897
臆	-7898
蜃	-7899
豉	-7900
驪	-7901
椴	-7902
镠	-7903
陉	-7904
勣	-7905
禛	-7906
讥	-7907
玥	-7908
膊	-7909
殮	-7910
溟	-7911
灏	-7912
簋	-7913
酆	-7914
錒	-7915
垠	-7916
孪	-7917
撣	-7918
繽	-7919
芾	-7920
跗	-7921
辇	-7922
隽	-7923
ː	-7924
垭	-7925
朮	-7926
訇	-7927
懾	-7928
搓	-7929
沢	-7930
餃	-7931
迤	-7932
鄜	-7933
颢	-7934
嚎	-7935
晾	-7936
樋	-7937
砧	-7938
縷	-7939
鳉	-7940
鹟	-7941
枇	-7942
柃	-7943
牯	-7944
û	-7945
ヤ	-7946
獼	-7947
舂	-7948
리	-7949
塬	-7950
绫	-7951
蒾	-7952
袂	-7953
鶘	-7954
巻	-7955
痉	-7956
篱	-7957
蒞	-7958
囓	-7959
惣	-7960
蹴	-7961
鳢	-7962
箇	-7963
裟	-7964
ベ	-7965
倬	-7966
愕	-7967
涎	-7968
璩	-7969
蛄	-7970
钜	-7971
铣	-7972
ï	-7973
揄	-7974
沆	-7975
藁	-7976
噓	-7977
砀	-7978
†	-7979
眞	-7980
躄	-7981
酝	-7982
駢	-7983
麂	-7984
袈	-7985
銣	-7986
铍	-7987
锄	-7988
啜	-7989
烫	-7990
罌	-7991
贰	-7992
鷸	-7993
ξ	-7994
へ	-7995
搔	-7996
痙	-7997
嵙	-7998
拭	-7999
淼	-8000
น	-8001
琚	-8002
袱	-8003
鞮	-8004
孃	-8005
崮	-8006
嶇	-8007
廝	-8008
笺	-8009
蓁	-8010
辫	-8011
锆	-8012
泫	-8013
疝	-8014
袤	-8015
錕	-8016
鏘	-8017
げ	-8018
ヒ	-8019
凄	-8020
嗡	-8021
濯	-8022
綑	-8023
錚	-8024
厮	-8025
慤	-8026
拽	-8027
睜	-8028
`	-8029
垓	-8030
洹	-8031
埴	-8032
蘸	-8033
闺	-8034
顥	-8035
増	-8036
璣	-8037
铿	-8038
顼	-8039
鮈	-8040
鳐	-8041
殇	-8042
蟀	-8043
謇	-8044
録	-8045
廨	-8046
栉	-8047
祎	-8048
秣	-8049
僥	-8050
楂	-8051
槲	-8052
辄	-8053
钺	-8054
岀	-8055
毬	-8056
紘	-8057
ح	-8058
喔	-8059
祛	-8060
筐	-8061
诩	-8062
猬	-8063
矜	-8064
踊	-8065
阉	-8066
吲	-8067
譁	-8068
ý	-8069
饺	-8070
珑	-8071
菝	-8072
蓀	-8073
霁	-8074
鲑	-8075
ю	-8076
敝	-8077
晩	-8078
竅	-8079
蛎	-8080
蜢	-8081
蝟	-8082
眈	-8083
ʃ	-8084
刎	-8085
洶	-8086
瞧	-8087
蛊	-8088
蹶	-8089
亶	-8090
舔	-8091
驭	-8092
銬	-8093
銼	-8094
鍺	-8095
骞	-8096
鮄	-8097
僊	-8098
儕	-8099
淌	-8100
渍	-8101
郅	-8102
ホ	-8103
寐	-8104
廩	-8105
玑	-8106
詡	-8107
邝	-8108
姒	-8109
沓	-8110
焗	-8111
虬	-8112
蟋	-8113
鱘	-8114
佶	-8115
傉	-8116
樫	-8117
蔵	-8118
蛸	-8119
汹	-8120
瓌	-8121
荳	-8122
赡	-8123
郦	-8124
哚	-8125
揶	-8126
泠	-8127
泷	-8128
篝	-8129
辎	-8130
遹	-8131
咫	-8132
橱	-8133
砜	-8134
腑	-8135
葭	-8136
慫	-8137
ì	-8138
冏	-8139
憊	-8140
杼	-8141
簫	-8142
褓	-8143
貘	-8144
礽	-8145
罡	-8146
鉸	-8147
钤	-8148
馗	-8149
ù	-8150
佺	-8151
嗝	-8152
氖	-8153
脓	-8154
鼱	-8155
奐	-8156
徇	-8157
贍	-8158
邽	-8159
钍	-8160
锶	-8161
闓	-8162
ḥ	-8163
ペ	-8164
刨	-8165
眨	-8166
嗇	-8167
枭	-8168
诟	-8169
隰	-8170
疡	-8171
鎏	-8172
諳	-8173
诋	-8174
飭	-8175
鬬	-8176
咁	-8177
哦	-8178
炖	-8179
蓑	-8180
靓	-8181
̇	-8182
ة	-8183
◎	-8184
澶	-8185
牍	-8186
茁	-8187
跛	-8188
闔	-8189
冇	-8190
邰	-8191
ń	-8192
ざ	-8193
榎	-8194
阑	-8195
孿	-8196
昺	-8197
砺	-8198
詒	-8199
鎰	-8200
驮	-8201
畹	-8202
磘	-8203
劵	-8204
徕	-8205
淒	-8206
犒	-8207
瘴	-8208
苾	-8209
鯓	-8210
凛	-8211
讖	-8212
鍬	-8213
丶	-8214
滏	-8215
疙	-8216
瘩	-8217
荞	-8218
詼	-8219
隷	-8220
壅	-8221
涣	-8222
発	-8223
箫	-8224
藪	-8225
鶻	-8226
兢	-8227
愨	-8228
淬	-8229
溱	-8230
葜	-8231
鈽	-8232
顔	-8233
箐	-8234
簸	-8235
胛	-8236
傚	-8237
啃	-8238
烬	-8239
藹	-8240
谪	-8241
暘	-8242
樾	-8243
蔴	-8244
蟄	-8245
鏖	-8246
骯	-8247
囍	-8248
璁	-8249
菰	-8250
銥	-8251
馒	-8252
喋	-8253
爻	-8254
绾	-8255
謐	-8256
嵬	-8257
蠹	-8258
躉	-8259
酈	-8260
铈	-8261
椁	-8262
櫓	-8263
泚	-8264
牴	-8265
↔	-8266
仡	-8267
嘢	-8268
汊	-8269
疍	-8270
糅	-8271
茧	-8272
諤	-8273
鈈	-8274
騏	-8275
ق	-8276
嗶	-8277
詆	-8278
鎘	-8279
佢	-8280
坌	-8281
獴	-8282
龈	-8283
捶	-8284
柞	-8285
皝	-8286
廸	-8287
犰	-8288
禕	-8289
穂	-8290
繙	-8291
謔	-8292
勲	-8293
慚	-8294
拣	-8295
皙	-8296
賡	-8297
霈	-8298
咭	-8299
囿	-8300
嵴	-8301
椋	-8302
苜	-8303
軻	-8304
钇	-8305
ư	-8306
啾	-8307
撬	-8308
萁	-8309
蘅	-8310
髹	-8311
轆	-8312
銑	-8313
阖	-8314
噗	-8315
膑	-8316
舯	-8317
苎	-8318
藿	-8319
鉚	-8320
ش	-8321
侂	-8322
咩	-8323
搪	-8324
狳	-8325
磕	-8326
粑	-8327
褥	-8328
闌	-8329
鳟	-8330
堑	-8331
塱	-8332
蔘	-8333
蛀	-8334
饅	-8335
ě	-8336
喫	-8337
燻	-8338
鋯	-8339
閡	-8340
顳	-8341
媧	-8342
惫	-8343
棂	-8344
毌	-8345
ج	-8346
倣	-8347
凈	-8348
渙	-8349
觴	-8350
郫	-8351
鹑	-8352
圪	-8353
婧	-8354
弢	-8355
恵	-8356
殓	-8357
磾	-8358
绚	-8359
ก	-8360
อ	-8361
ั	-8362
酣	-8363
嚥	-8364
媾	-8365
M	-8366
円	-8367
掐	-8368
攫	-8369
輅	-8370
嚙	-8371
懊	-8372
榫	-8373
祆	-8374
锢	-8375
黻	-8376
เ	-8377
冴	-8378
唧	-8379
姝	-8380
嬸	-8381
疋	-8382
箋	-8383
蓿	-8384
镭	-8385
琺	-8386
疸	-8387
郷	-8388
‖	-8389
坻	-8390
孳	-8391
楽	-8392
纣	-8393
脣	-8394
芻	-8395
T	-8396
ˇ	-8397
仝	-8398
呜	-8399
嶂	-8400
棨	-8401
榊	-8402
磬	-8403
輓	-8404
鉬	-8405
ف	-8406
ย	-8407
濘	-8408
秆	-8409
蕎	-8410
勰	-8411
窈	-8412
诒	-8413
ㄨ	-8414
刍	-8415
慟	-8416
枱	-8417
焓	-8418
佾	-8419
苫	-8420
栒	-8421
膈	-8422
苕	-8423
葩	-8424
蠑	-8425
逖	-8426
鶚	-8427
지	-8428
泯	-8429
舘	-8430
þ	-8431
ม	-8432
囧	-8433
拈	-8434
睁	-8435
邙	-8436
鉭	-8437
镂	-8438
頊	-8439
ה	-8440
ヴ	-8441
熠	-8442
鵟	-8443
痲	-8444
鉍	-8445
阚	-8446
ʔ	-8447
惮	-8448
萇	-8449
谗	-8450
鏐	-8451
靄	-8452
έ	-8453
狨	-8454
瑷	-8455
藺	-8456
贽	-8457
鈮	-8458
鍔	-8459
鵠	-8460
다	-8461
아	-8462
枸	-8463
槙	-8464
糰	-8465
鉄	-8466
鼯	-8467
伕	-8468
峤	-8469
苌	-8470
̃	-8471
搐	-8472
沣	-8473
紺	-8474
葳	-8475
赘	-8476
踴	-8477
迩	-8478
饗	-8479
ъ	-8480
䲗	-8481
瓩	-8482
罟	-8483
翳	-8484
锗	-8485
隣	-8486
魘	-8487
ง	-8488
伝	-8489
洸	-8490
芊	-8491
ि	-8492
△	-8493
悸	-8494
羸	-8495
讧	-8496
轸	-8497
仞	-8498
倔	-8499
胳	-8500
菘	-8501
蛆	-8502
鱚	-8503
塩	-8504
姗	-8505
挞	-8506
蓣	-8507
蹬	-8508
蹺	-8509
軔	-8510
镓	-8511
饬	-8512
駄	-8513
न	-8514
幗	-8515
蒽	-8516
雎	-8517
鰾	-8518
㹴	-8519
亙	-8520
廪	-8521
瓠	-8522
鈿	-8523
牂	-8524
缇	-8525
蜊	-8526
酢	-8527
鍀	-8528
া	-8529
倜	-8530
奂	-8531
屌	-8532
溲	-8533
牦	-8534
べ	-8535
惲	-8536
硐	-8537
鎵	-8538
霽	-8539
乜	-8540
薏	-8541
觊	-8542
釔	-8543
姉	-8544
礪	-8545
舛	-8546
螫	-8547
觎	-8548
鑭	-8549
閂	-8550
飚	-8551
사	-8552
焱	-8553
燿	-8554
讣	-8555
趺	-8556
鍰	-8557
ك	-8558
仟	-8559
噱	-8560
榖	-8561
濰	-8562
蚋	-8563
髑	-8564
甑	-8565
缬	-8566
胧	-8567
蘄	-8568
鲟	-8569
黼	-8570
대	-8571
埡	-8572
惘	-8573
暧	-8574
蠵	-8575
诂	-8576
鄄	-8577
黝	-8578
ぼ	-8579
炘	-8580
玹	-8581
睑	-8582
闿	-8583
颛	-8584
嘈	-8585
牘	-8586
肮	-8587
鉈	-8588
巯	-8589
捅	-8590
稙	-8591
閬	-8592
黟	-8593
ㄚ	-8594
尙	-8595
廡	-8596
睬	-8597
轲	-8598
김	-8599
枞	-8600
碛	-8601
簕	-8602
躪	-8603
輜	-8604
麿	-8605
ר	-8606
俎	-8607
埸	-8608
竈	-8609
胯	-8610
鋇	-8611
铟	-8612
铼	-8613
가	-8614
瑱	-8615
ユ	-8616
湜	-8617
炕	-8618
銦	-8619
鋂	-8620
锴	-8621
鸛	-8622
ɪ	-8623
ز	-8624
侥	-8625
娲	-8626
砭	-8627
呱	-8628
怙	-8629
扦	-8630
氬	-8631
鄖	-8632
鯒	-8633
ɑ	-8634
効	-8635
捺	-8636
痣	-8637
砰	-8638
閲	-8639
ğ	-8640
ή	-8641
ى	-8642
≠	-8643
稃	-8644
芈	-8645
訌	-8646
鞣	-8647
鯪	-8648
実	-8649
鬨	-8650
ա	-8651
א	-8652
呦	-8653
峄	-8654
溆	-8655
螭	-8656
酊	-8657
俣	-8658
吮	-8659
垅	-8660
尪	-8661
炤	-8662
癥	-8663
纫	-8664
脍	-8665
َ	-8666
嗟	-8667
燄	-8668
笆	-8669
诘	-8670
驩	-8671
龑	-8672
啥	-8673
胝	-8674
荽	-8675
虻	-8676
鏵	-8677
卹	-8678
噌	-8679
磴	-8680
鋆	-8681
琯	-8682
痔	-8683
祏	-8684
舎	-8685
苈	-8686
衹	-8687
ṣ	-8688
柊	-8689
湫	-8690
皰	-8691
縝	-8692
耜	-8693
鋦	-8694
鯷	-8695
鰧	-8696
鹞	-8697
म	-8698
呸	-8699
嫚	-8700
정	-8701
ą	-8702
ิ	-8703
■	-8704
卬	-8705
玆	-8706
幪	-8707
濉	-8708
窰	-8709
荏	-8710
螨	-8711
郇	-8712
¬	-8713
佇	-8714
剁	-8715
嘘	-8716
纭	-8717
缵	-8718
郾	-8719
頫	-8720
鬲	-8721
鬻	-8722
œ	-8723
劏	-8724
拏	-8725
柒	-8726
蝾	-8727
輦	-8728
鲹	-8729
ל	-8730
啰	-8731
怂	-8732
濶	-8733
瀅	-8734
粧	-8735
壆	-8736
徨	-8737
朧	-8738
訃	-8739
諶	-8740
鱀	-8741
偲	-8742
喰	-8743
埂	-8744
芗	-8745
蒔	-8746
襖	-8747
訕	-8748
镳	-8749
砻	-8750
仃	-8751
咙	-8752
唄	-8753
垌	-8754
姣	-8755
榧	-8756
肟	-8757
鍶	-8758
铌	-8759
鱟	-8760
ύ	-8761
ส	-8762
珽	-8763
逹	-8764
俁	-8765
俪	-8766
啲	-8767
嬛	-8768
蕤	-8769
하	-8770
한	-8771
ว	-8772
剡	-8773
塽	-8774
殻	-8775
芃	-8776
鹀	-8777
의	-8778
嗲	-8779
埒	-8780
妫	-8781
嶝	-8782
鶉	-8783
嘏	-8784
噝	-8785
団	-8786
孑	-8787
擧	-8788
桤	-8789
珺	-8790
罘	-8791
裱	-8792
豨	-8793
逋	-8794
饕	-8795
त	-8796
嗨	-8797
圉	-8798
圮	-8799
廆	-8800
瀞	-8801
犊	-8802
緲	-8803
舢	-8804
鰹	-8805
鲃	-8806
͡	-8807
ṭ	-8808
儆	-8809
湣	-8810
磧	-8811
籁	-8812
緘	-8813
蛰	-8814
谑	-8815
铕	-8816
锵	-8817
饉	-8818
ř	-8819
堉	-8820
鬟	-8821
対	-8822
獭	-8823
翥	-8824
颯	-8825
ɕ	-8826
∶	-8827
劻	-8828
榉	-8829
祢	-8830
稈	-8831
縈	-8832
諍	-8833
諲	-8834
诙	-8835
阊	-8836
嶙	-8837
昪	-8838
総	-8839
铆	-8840
क	-8841
ṇ	-8842
芫	-8843
蛉	-8844
钕	-8845
闳	-8846
魣	-8847
்	-8848
ㄇ	-8849
屐	-8850
巂	-8851
沩	-8852
睺	-8853
秭	-8854
锕	-8855
劊	-8856
哏	-8857
绽	-8858
胫	-8859
莨	-8860
蔼	-8861
鲆	-8862
鳝	-8863
≈	-8864
咗	-8865
惭	-8866
溏	-8867
狛	-8868
詧	-8869
豳	-8870
鄣	-8871
鍇	-8872
鏤	-8873
▲	-8874
嚏	-8875
어	-8876
珐	-8877
성	-8878
矇	-8879
谙	-8880
雩	-8881
鬘	-8882
哋	-8883
濞	-8884
砹	-8885
铐	-8886
韫	-8887
颞	-8888
髖	-8889
鹗	-8890
기	-8891
墬	-8892
栻	-8893
畬	-8894
瞼	-8895
胍	-8896
鋌	-8897
騾	-8898
鼹	-8899
라	-8900
ォ	-8901
呻	-8902
廕	-8903
撩	-8904
浯	-8905
炆	-8906
紉	-8907
鲇	-8908
鳎	-8909
♭	-8910
々	-8911
煚	-8912
窕	-8913
鏜	-8914
嵘	-8915
柽	-8916
槤	-8917
碶	-8918
腩	-8919
褔	-8920
鄠	-8921
頴	-8922
鮗	-8923
鯻	-8924
♪	-8925
坭	-8926
涮	-8927
绷	-8928
蓖	-8929
辺	-8930
鸕	-8931
晸	-8932
樗	-8933
錸	-8934
钌	-8935
雑	-8936
呷	-8937
嗩	-8938
煨	-8939
郛	-8940
崃	-8941
恫	-8942
殞	-8943
谧	-8944
나	-8945
ש	-8946
枳	-8947
盥	-8948
葯	-8949
釩	-8950
鉲	-8951
鐺	-8952
镯	-8953
颙	-8954
鲢	-8955
鹈	-8956
ゼ	-8957
嬋	-8958
宍	-8959
憍	-8960
滉	-8961
狽	-8962
篾	-8963
翀	-8964
荩	-8965
鑛	-8966
啪	-8967
戔	-8968
昐	-8969
氩	-8970
濊	-8971
璈	-8972
蓆	-8973
邗	-8974
鏑	-8975
铳	-8976
噠	-8977
猞	-8978
祔	-8979
粕	-8980
绀	-8981
豢	-8982
贇	-8983
邡	-8984
阂	-8985
頦	-8986
娓	-8987
殁	-8988
炁	-8989
薌	-8990
衊	-8991
谶	-8992
蹋	-8993
掰	-8994
熨	-8995
猁	-8996
芡	-8997
蛏	-8998
鋐	-8999
錇	-9000
頼	-9001
鱥	-9002
綉	-9003
蒺	-9004
迢	-9005
鳀	-9006
서	-9007
ʻ	-9008
מ	-9009
स	-9010
峥	-9011
戕	-9012
綃	-9013
铷	-9014
匏	-9015
廄	-9016
戢	-9017
槊	-9018
翕	-9019
耨	-9020
铑	-9021
闼	-9022
鸵	-9023
ё	-9024
揹	-9025
舾	-9026
주	-9027
づ	-9028
忡	-9029
惚	-9030
痤	-9031
鸪	-9032
ǎ	-9033
ท	-9034
碴	-9035
袄	-9036
鉏	-9037
鷄	-9038
प	-9039
咚	-9040
哎	-9041
噜	-9042
崆	-9043
昰	-9044
瑊	-9045
綰	-9046
臾	-9047
蠊	-9048
俵	-9049
咧	-9050
楙	-9051
瘁	-9052
笳	-9053
縁	-9054
茌	-9055
踹	-9056
酞	-9057
鱿	-9058
峋	-9059
狎	-9060
琿	-9061
瑈	-9062
絀	-9063
荸	-9064
莠	-9065
豸	-9066
遒	-9067
髂	-9068
鸲	-9069
槺	-9070
禩	-9071
腴	-9072
贄	-9073
鲂	-9074
่	-9075
窠	-9076
襁	-9077
赳	-9078
躏	-9079
鈀	-9080
鷂	-9081
唬	-9082
煖	-9083
玕	-9084
缄	-9085
臬	-9086
袴	-9087
賚	-9088
饌	-9089
동	-9090
燹	-9091
缜	-9092
菽	-9093
襦	-9094
铪	-9095
일	-9096
≡	-9097
伋	-9098
孱	-9099
懵	-9100
逄	-9101
噢	-9102
圏	-9103
悝	-9104
淯	-9105
獒	-9106
硏	-9107
蛔	-9108
逯	-9109
銻	-9110
원	-9111
щ	-9112
ב	-9113
ת	-9114
ล	-9115
凫	-9116
淸	-9117
茯	-9118
謾	-9119
顓	-9120
嚟	-9121
潺	-9122
箝	-9123
釤	-9124
鑀	-9125
镒	-9126
鲛	-9127
ṃ	-9128
ヨ	-9129
吱	-9130
咔	-9131
崐	-9132
帙	-9133
杳	-9134
스	-9135
ी	-9136
摑	-9137
渌	-9138
狍	-9139
硖	-9140
禑	-9141
笪	-9142
郞	-9143
鐲	-9144
餮	-9145
髭	-9146
鲲	-9147
黠	-9148
叁	-9149
巿	-9150
枹	-9151
橿	-9152
篦	-9153
衽	-9154
迸	-9155
鹧	-9156
卟	-9157
嚷	-9158
揍	-9159
缗	-9160
缭	-9161
茔	-9162
覡	-9163
遑	-9164
铽	-9165
鹩	-9166
§	-9167
唭	-9168
垻	-9169
峁	-9170
劢	-9171
滹	-9172
瓛	-9173
磔	-9174
箸	-9175
糍	-9176
苧	-9177
镨	-9178
顴	-9179
駅	-9180
ạ	-9181
丼	-9182
妣	-9183
捒	-9184
痍	-9185
瞥	-9186
祧	-9187
芨	-9188
薮	-9189
郕	-9190
閾	-9191
鳔	-9192
고	-9193
도	-9194
ơ	-9195
圹	-9196
垸	-9197
嵗	-9198
樨	-9199
纾	-9200
罈	-9201
赧	-9202
鐙	-9203
镞	-9204
ط	-9205
ა	-9206
圀	-9207
毽	-9208
浐	-9209
烜	-9210
畋	-9211
蚱	-9212
謄	-9213
鋹	-9214
钪	-9215
鹌	-9216
ę	-9217
ल	-9218
庥	-9219
気	-9220
汧	-9221
灤	-9222
稲	-9223
訐	-9224
豕	-9225
貉	-9226
銪	-9227
钿	-9228
韞	-9229
黥	-9230
õ	-9231
寳	-9232
渟	-9233
鐫	-9234
خ	-9235
啖	-9236
烺	-9237
窍	-9238
纍	-9239
钷	-9240
에	-9241
嚈	-9242
媯	-9243
旸	-9244
淠	-9245
礴	-9246
笄	-9247
裒	-9248
鰩	-9249
鸝	-9250
ี	-9251
ぬ	-9252
凊	-9253
卐	-9254
悫	-9255
浈	-9256
硃	-9257
絵	-9258
罽	-9259
胂	-9260
胼	-9261
貊	-9262
郿	-9263
閼	-9264
頵	-9265
髙	-9266
鶓	-9267
미	-9268
자	-9269
ต	-9270
พ	-9271
ぞ	-9272
俦	-9273
疥	-9274
痂	-9275
詁	-9276
鋨	-9277
鏊	-9278
鱵	-9279
수	-9280
䓬	-9281
䴉	-9282
劄	-9283
浠	-9284
灃	-9285
祓	-9286
郏	-9287
้	-9288
犸	-9289
襞	-9290
鎭	-9291
钹	-9292
隠	-9293
鲽	-9294
ż	-9295
崞	-9296
恸	-9297
悴	-9298
満	-9299
燏	-9300
皐	-9301
竜	-9302
萣	-9303
諴	-9304
雫	-9305
鹄	-9306
ヘ	-9307
埵	-9308
桫	-9309
眸	-9310
繖	-9311
髪	-9312
해	-9313
俅	-9314
嬗	-9315
筮	-9316
荛	-9317
覧	-9318
钐	-9319
ヶ	-9320
俬	-9321
壙	-9322
渑	-9323
瘙	-9324
粳	-9325
莴	-9326
鞦	-9327
骶	-9328
鸻	-9329
麹	-9330
÷	-9331
嘹	-9332
旂	-9333
毂	-9334
汭	-9335
籓	-9336
籙	-9337
縯	-9338
臏	-9339
鈇	-9340
铛	-9341
闩	-9342
韆	-9343
∧	-9344
埈	-9345
崢	-9346
戇	-9347
捱	-9348
欉	-9349
獁	-9350
璆	-9351
緱	-9352
誾	-9353
鄆	-9354
酩	-9355
麸	-9356
ะ	-9357
倧	-9358
嗯	-9359
怿	-9360
朊	-9361
梣	-9362
橹	-9363
泱	-9364
癭	-9365
籟	-9366
粄	-9367
攢	-9368
熲	-9369
獬	-9370
葷	-9371
闘	-9372
র	-9373
刽	-9374
売	-9375
廙	-9376
悽	-9377
抜	-9378
斫	-9379
牻	-9380
簃	-9381
紬	-9382
螄	-9383
鈐	-9384
闱	-9385
霭	-9386
驄	-9387
鲻	-9388
齶	-9389
व	-9390
ุ	-9391
廻	-9392
悰	-9393
桷	-9394
瞋	-9395
箓	-9396
繚	-9397
鴯	-9398
鶿	-9399
懌	-9400
掟	-9401
枥	-9402
畀	-9403
篪	-9404
胴	-9405
舐	-9406
賾	-9407
迳	-9408
국	-9409
〖	-9410
〗	-9411
〞	-9412
憔	-9413
洎	-9414
犄	-9415
犷	-9416
畯	-9417
籐	-9418
逑	-9419
銲	-9420
铱	-9421
오	-9422
♯	-9423
仵	-9424
嗔	-9425
摭	-9426
柢	-9427
滓	-9428
釙	-9429
鑊	-9430
ห	-9431
ㄐ	-9432
噲	-9433
庹	-9434
摶	-9435
秸	-9436
薷	-9437
霎	-9438
卽	-9439
咋	-9440
哒	-9441
嗤	-9442
広	-9443
戩	-9444
掄	-9445
涔	-9446
筴	-9447
菑	-9448
裾	-9449
觞	-9450
谄	-9451
飒	-9452
魍	-9453
य	-9454
∀	-9455
♥	-9456
栝	-9457
淙	-9458
熜	-9459
肜	-9460
颺	-9461
餞	-9462
髡	-9463
인	-9464
ک	-9465
द	-9466
両	-9467
囗	-9468
圯	-9469
垟	-9470
蕁	-9471
蠲	-9472
跸	-9473
咿	-9474
夤	-9475
寘	-9476
甙	-9477
萵	-9478
遨	-9479
邴	-9480
钫	-9481
饯	-9482
駟	-9483
우	-9484
ƒ	-9485
啬	-9486
婶	-9487
峩	-9488
弇	-9489
琍	-9490
稞	-9491
蛳	-9492
豇	-9493
鬩	-9494
鸬	-9495
̯	-9496
ु	-9497
⟩	-9498
佻	-9499
坩	-9500
徴	-9501
礬	-9502
缤	-9503
羗	-9504
讪	-9505
跏	-9506
韁	-9507
鮰	-9508
鲉	-9509
로	-9510
愎	-9511
泺	-9512
盅	-9513
竦	-9514
螅	-9515
蟜	-9516
詫	-9517
钽	-9518
馍	-9519
F	-9520
⟨	-9521
嘜	-9522
廞	-9523
笕	-9524
跷	-9525
阕	-9526
骘	-9527
叨	-9528
暻	-9529
澥	-9530
迨	-9531
์	-9532
埜	-9533
牀	-9534
畦	-9535
绂	-9536
蚬	-9537
镝	-9538
闈	-9539
요	-9540
ș	-9541
ị	-9542
劼	-9543
媞	-9544
帯	-9545
搵	-9546
暾	-9547
澪	-9548
獷	-9549
璪	-9550
畷	-9551
莧	-9552
謳	-9553
鎓	-9554
騁	-9555
鲳	-9556
ㄩ	-9557
仼	-9558
偁	-9559
冽	-9560
勔	-9561
嶲	-9562
徬	-9563
怦	-9564
扆	-9565
瘸	-9566
経	-9567
腧	-9568
蚴	-9569
鑠	-9570
钆	-9571
阏	-9572
飴	-9573
ד	-9574
偓	-9575
哽	-9576
垚	-9577
拧	-9578
椤	-9579
権	-9580
檩	-9581
毖	-9582
澚	-9583
琤	-9584
甪	-9585
臃	-9586
蘧	-9587
骜	-9588
鴟	-9589
鹚	-9590
시	-9591
े	-9592
⇔	-9593
岢	-9594
崤	-9595
暎	-9596
曩	-9597
痿	-9598
盩	-9599
砒	-9600
缯	-9601
荤	-9602
蚝	-9603
蜇	-9604
锉	-9605
髀	-9606
ด	-9607
〝	-9608
姵	-9609
彫	-9610
徂	-9611
棹	-9612
浍	-9613
猊	-9614
癩	-9615
舨	-9616
觚	-9617
誊	-9618
锇	-9619
鼷	-9620
ע	-9621
乗	-9622
憙	-9623
渕	-9624
烩	-9625
焖	-9626
眭	-9627
腆	-9628
骐	-9629
鹎	-9630
נ	-9631
ص	-9632
ი	-9633
ぜ	-9634
倓	-9635
値	-9636
厔	-9637
泞	-9638
玎	-9639
瑢	-9640
矧	-9641
聃	-9642
鈑	-9643
鴇	-9644
ţ	-9645
ʂ	-9646
ә	-9647
堞	-9648
扪	-9649
抟	-9650
蟳	-9651
諂	-9652
장	-9653
ས	-9654
唃	-9655
梉	-9656
樛	-9657
烊	-9658
燐	-9659
瞽	-9660
茆	-9661
薜	-9662
鐿	-9663
騭	-9664
ј	-9665
哙	-9666
捎	-9667
栲	-9668
楢	-9669
狈	-9670
莼	-9671
锝	-9672
隹	-9673
餒	-9674
鬢	-9675
소	-9676
ő	-9677
จ	-9678
勷	-9679
曽	-9680
玢	-9681
禔	-9682
苡	-9683
茭	-9684
菡	-9685
讴	-9686
ㄆ	-9687
洧	-9688
犨	-9689
蓍	-9690
衾	-9691
観	-9692
ệ	-9693
╱	-9694
暦	-9695
浞	-9696
犂	-9697
畤	-9698
碭	-9699
紱	-9700
譎	-9701
赝	-9702
鹕	-9703
∥	-9704
ヌ	-9705
冨	-9706
啻	-9707
嬈	-9708
嶸	-9709
彘	-9710
桜	-9711
窣	-9712
笮	-9713
酃	-9714
鬮	-9715
魋	-9716
鱯	-9717
鵪	-9718
산	-9719
ض	-9720
ἀ	-9721
⇒	-9722
叼	-9723
愆	-9724
旄	-9725
珧	-9726
癆	-9727
肓	-9728
诹	-9729
谩	-9730
踰	-9731
闞	-9732
조	-9733
أ	-9734
ِ	-9735
吖	-9736
応	-9737
朓	-9738
狁	-9739
璹	-9740
禳	-9741
絛	-9742
罨	-9743
谀	-9744
赊	-9745
陜	-9746
鲮	-9747
경	-9748
ག	-9749
倌	-9750
凖	-9751
嘖	-9752
婊	-9753
桕	-9754
珦	-9755
瓖	-9756
甡	-9757
硚	-9758
鄩	-9759
鍚	-9760
鴝	-9761
그	-9762
전	-9763
ɣ	-9764
ོ	-9765
ễ	-9766
ぱ	-9767
杙	-9768
篁	-9769
糬	-9770
薳	-9771
蚡	-9772
銚	-9773
钬	-9774
镱	-9775
鹮	-9776
영	-9777
𩷶	-9778
บ	-9779
ế	-9780
▪	-9781
ㄥ	-9782
槨	-9783
渉	-9784
燴	-9785
緑	-9786
醺	-9787
鍥	-9788
鍼	-9789
陘	-9790
은	-9791
̍	-9792
幄	-9793
暌	-9794
槁	-9795
琹	-9796
璥	-9797
辋	-9798
遄	-9799
銶	-9800
钋	-9801
민	-9802
부	-9803
্	-9804
ช	-9805
ㄠ	-9806
唛	-9807
嘸	-9808
囝	-9809
垵	-9810
柰	-9811
櫂	-9812
熺	-9813
翚	-9814
茀	-9815
衿	-9816
袛	-9817
贗	-9818
锜	-9819
骋	-9820
구	-9821
ʒ	-9822
ㄑ	-9823
ㄢ	-9824
傩	-9825
卣	-9826
変	-9827
嬷	-9828
庖	-9829
籀	-9830
絜	-9831
纨	-9832
虯	-9833
镗	-9834
鮀	-9835
鲎	-9836
鲭	-9837
보	-9838
비	-9839
ʿ	-9840
俥	-9841
勱	-9842
嫄	-9843
寀	-9844
捫	-9845
栿	-9846
浹	-9847
癣	-9848
纛	-9849
蒟	-9850
蹉	-9851
陔	-9852
鬓	-9853
鴣	-9854
黧	-9855
교	-9856
ָ	-9857
ُ	-9858
ố	-9859
√	-9860
ㄒ	-9861
ㄝ	-9862
亓	-9863
匄	-9864
幷	-9865
彀	-9866
慵	-9867
菪	-9868
蜉	-9869
譞	-9870
頠	-9871
髋	-9872
는	-9873
여	-9874
ぽ	-9875
嘀	-9876
撷	-9877
斎	-9878
歛	-9879
痈	-9880
翮	-9881
藎	-9882
藦	-9883
鋭	-9884
鑪	-9885
镫	-9886
鹱	-9887
ར	-9888
ḍ	-9889
ộ	-9890
亹	-9891
潾	-9892
璦	-9893
瓔	-9894
蒍	-9895
赜	-9896
鈰	-9897
鑌	-9898
駡	-9899
마	-9900
‬	-9901
凃	-9902
哷	-9903
嗒	-9904
挈	-9905
栀	-9906
栄	-9907
燔	-9908
瞌	-9909
纔	-9910
臯	-9911
螣	-9912
諛	-9913
鏷	-9914
鳊	-9915
鷯	-9916
니	-9917
진	-9918
ώ	-9919
ն	-9920
ग	-9921
ह	-9922
ầ	-9923
ㄅ	-9924
ㄎ	-9925
䲁	-9926
仮	-9927
帼	-9928
捌	-9929
晙	-9930
楮	-9931
沄	-9932
璲	-9933
皞	-9934
砟	-9935
萦	-9936
螟	-9937
鄮	-9938
鳙	-9939
鷓	-9940
鸱	-9941
야	-9942
호	-9943
乭	-9944
倮	-9945
嬿	-9946
慳	-9947
旛	-9948
眜	-9949
禵	-9950
鍱	-9951
鐐	-9952
铥	-9953
鴷	-9954
역	-9955
̄	-9956
ן	-9957
ं	-9958
∨	-9959
ㄛ	-9960
ㄜ	-9961
㚻	-9962
僰	-9963
嗑	-9964
屜	-9965
擰	-9966
斓	-9967
暝	-9968
暲	-9969
碸	-9970
簍	-9971
綎	-9972
缶	-9973
蕗	-9974
麩	-9975
을	-9976
ɐ	-9977
傥	-9978
厓	-9979
唵	-9980
噤	-9981
擀	-9982
璝	-9983
袓	-9984
譟	-9985
韪	-9986
鯢	-9987
ค	-9988
拄	-9989
椙	-9990
涑	-9991
縞	-9992
貍	-9993
鄘	-9994
酎	-9995
騶	-9996
魇	-9997
↑	-9998
堦	-9999
掇	-10000
搧	-10001
攙	-10002
棐	-10003
谠	-10004
蹙	-10005
锽	-10006
闥	-10007
鰐	-10008
화	-10009
ậ	-10010
ㄉ	-10011
唉	-10012
忞	-10013
晳	-10014
梾	-10015
滢	-10016
笥	-10017
翬	-10018
舀	-10019
虺	-10020
覈	-10021
軚	-10022
鲧	-10023
선	-10024
안	-10025
연	-10026
བ	-10027
ㄕ	-10028
埙	-10029
捜	-10030
檨	-10031
煐	-10032
瓟	-10033
篋	-10034
缰	-10035
羆	-10036
襠	-10037
跚	-10038
辘	-10039
鈁	-10040
박	-10041
신	-10042
학	-10043
伷	-10044
唷	-10045
噏	-10046
恚	-10047
戬	-10048
沘	-10049
牝	-10050
継	-10051
蔦	-10052
褸	-10053
诤	-10054
遛	-10055
铤	-10056
飩	-10057
ּ	-10058
ờ	-10059
屉	-10060
榦	-10061
璵	-10062
瘿	-10063
縠	-10064
蒗	-10065
薫	-10066
貲	-10067
铒	-10068
镥	-10069
騮	-10070
鱝	-10071
پ	-10072
偌	-10073
唢	-10074
壊	-10075
娉	-10076
嫘	-10077
惦	-10078
昝	-10079
桠	-10080
癜	-10081
纮	-10082
罅	-10083
胙	-10084
覷	-10085
辂	-10086
邋	-10087
韮	-10088
餛	-10089
餽	-10090
骝	-10091
鲵	-10092
鼇	-10093
제	-10094
ם	-10095
श	-10096
ম	-10097
ả	-10098
児	-10099
剣	-10100
朶	-10101
澐	-10102
瘢	-10103
砮	-10104
礡	-10105
竪	-10106
緡	-10107
绦	-10108
蓨	-10109
螽	-10110
襬	-10111
諄	-10112
讃	-10113
鲣	-10114
문	-10115
ㄟ	-10116
儺	-10117
惆	-10118
昃	-10119
湉	-10120
湎	-10121
漚	-10122
碕	-10123
箧	-10124
纈	-10125
鏻	-10126
闋	-10127
鰤	-10128
鳯	-10129
鸨	-10130
유	-10131
喳	-10132
喺	-10133
垡	-10134
埏	-10135
嫪	-10136
撚	-10137
栞	-10138
玙	-10139
璄	-10140
罃	-10141
罍	-10142
膂	-10143
蓥	-10144
蔹	-10145
蝣	-10146
貔	-10147
躇	-10148
釹	-10149
鐇	-10150
鑷	-10151
鬪	-10152
‡	-10153
►	-10154
ㄌ	-10155
唏	-10156
圄	-10157
塲	-10158
昞	-10159
毐	-10160
淍	-10161
癟	-10162
盦	-10163
瞑	-10164
蹭	-10165
轂	-10166
遢	-10167
邲	-10168
铧	-10169
騄	-10170
내	-10171
ে	-10172
∼	-10173
仫	-10174
咻	-10175
抡	-10176
揸	-10177
浤	-10178
渋	-10179
狷	-10180
瘰	-10181
葑	-10182
覘	-10183
诜	-10184
霨	-10185
颳	-10186
鮻	-10187
鹋	-10188
غ	-10189
ন	-10190
ি	-10191
匂	-10192
収	-10193
嘓	-10194
囹	-10195
姮	-10196
掲	-10197
楤	-10198
泐	-10199
珝	-10200
璎	-10201
紈	-10202
蕰	-10203
虓	-10204
覇	-10205
鉦	-10206
髢	-10207
ʼ	-10208
ज	-10209
亀	-10210
堍	-10211
妪	-10212
廌	-10213
晧	-10214
浄	-10215
篌	-10216
羕	-10217
詵	-10218
鞬	-10219
飨	-10220
너	-10221
랑	-10222
왕	-10223
현	-10224
̥	-10225
်	-10226
‐	-10227
佉	-10228
厰	-10229
啹	-10230
悪	-10231
暕	-10232
浃	-10233
獰	-10234
砫	-10235
菉	-10236
釦	-10237
鰱	-10238
鸸	-10239
鹪	-10240
䱛	-10241
偎	-10242
埝	-10243
悵	-10244
枏	-10245
玨	-10246
続	-10247
讎	-10248
遘	-10249
鬯	-10250
鹨	-10251
麐	-10252
گ	-10253
ㄍ	-10254
ㄏ	-10255
侪	-10256
媵	-10257
忐	-10258
忑	-10259
悧	-10260
拎	-10261
砝	-10262
筧	-10263
粦	-10264
繒	-10265
訾	-10266
赍	-10267
郈	-10268
錞	-10269
馄	-10270
鰳	-10271
세	-10272
송	-10273
ո	-10274
ो	-10275
♡	-10276
ㄓ	-10277
喲	-10278
埚	-10279
夼	-10280
姞	-10281
嵛	-10282
徼	-10283
杈	-10284
箦	-10285
耧	-10286
訏	-10287
鋮	-10288
颀	-10289
饨	-10290
鳧	-10291
방	-10292
ė	-10293
ʨ	-10294
ү	-10295
ㄣ	-10296
亜	-10297
呃	-10298
垱	-10299
垴	-10300
婵	-10301
惔	-10302
慜	-10303
梂	-10304
璡	-10305
璫	-10306
砬	-10307
缐	-10308
荬	-10309
蒻	-10310
錼	-10311
颧	-10312
울	-10313
ְ	-10314
ִ	-10315
ゾ	-10316
俛	-10317
喾	-10318
崚	-10319
旖	-10320
禋	-10321
苅	-10322
茍	-10323
銠	-10324
鍠	-10325
ө	-10326
ْ	-10327
ọ	-10328
│	-10329
哂	-10330
囒	-10331
廒	-10332
愣	-10333
搀	-10334
皴	-10335
缟	-10336
缥	-10337
菫	-10338
鍘	-10339
鑨	-10340
锛	-10341
鳜	-10342
남	-10343
ħ	-10344
ח	-10345
ㄈ	-10346
ㄙ	-10347
働	-10348
処	-10349
卮	-10350
塙	-10351
嫗	-10352
怅	-10353
旒	-10354
晊	-10355
検	-10356
玦	-10357
瑒	-10358
癞	-10359
舸	-10360
譔	-10361
跺	-10362
霊	-10363
驁	-10364
ǐ	-10365
ʾ	-10366
ئ	-10367
ল	-10368
儔	-10369
図	-10370
幛	-10371
廼	-10372
掬	-10373
摈	-10374
朏	-10375
煅	-10376
牁	-10377
縄	-10378
羋	-10379
讜	-10380
齢	-10381
க	-10382
ป	-10383
ศ	-10384
แ	-10385
ㄋ	-10386
剜	-10387
囷	-10388
屄	-10389
屺	-10390
悻	-10391
懽	-10392
搾	-10393
暊	-10394
枧	-10395
煕	-10396
繋	-10397
荦	-10398
薺	-10399
袪	-10400
謖	-10401
谲	-10402
醪	-10403
鎛	-10404
鎶	-10405
鑥	-10406
铙	-10407
頎	-10408
験	-10409
魃	-10410
魑	-10411
𡒉	-10412
ུ	-10413
伫	-10414
吽	-10415
啁	-10416
垍	-10417
堝	-10418
塀	-10419
塍	-10420
壼	-10421
懃	-10422
抃	-10423
晛	-10424
梏	-10425
殒	-10426
澠	-10427
煸	-10428
珵	-10429
甴	-10430
箜	-10431
颎	-10432
髁	-10433
鮒	-10434
鰃	-10435
鶺	-10436
ʊ	-10437
ா	-10438
ི	-10439
嫺	-10440
尅	-10441
怆	-10442
愬	-10443
曱	-10444
桎	-10445
沚	-10446
溞	-10447
燝	-10448
爿	-10449
獣	-10450
皑	-10451
蓴	-10452
諉	-10453
跩	-10454
遡	-10455
餗	-10456
鲩	-10457
鴴	-10458
鿫	-10459
강	-10460
양	-10461
철	-10462
ג	-10463
ე	-10464
偰	-10465
呑	-10466
哖	-10467
嘮	-10468
嬖	-10469
犽	-10470
皚	-10471
禊	-10472
紥	-10473
葰	-10474
薤	-10475
裆	-10476
趵	-10477
蹻	-10478
鐨	-10479
驺	-10480
鲠	-10481
鲶	-10482
鸩	-10483
麈	-10484
פ	-10485
ẽ	-10486
ồ	-10487
捂	-10488
掞	-10489
掮	-10490
梃	-10491
梔	-10492
溘	-10493
瀍	-10494
炷	-10495
簣	-10496
紆	-10497
蒡	-10498
诧	-10499
鎡	-10500
铖	-10501
锔	-10502
顬	-10503
鷉	-10504
만	-10505
상	-10506
ব	-10507
ང	-10508
რ	-10509
ṛ	-10510
∇	-10511
∠	-10512
傌	-10513
傒	-10514
叵	-10515
囡	-10516
塤	-10517
廵	-10518
怏	-10519
恁	-10520
惻	-10521
晌	-10522
澇	-10523
濙	-10524
焼	-10525
瑑	-10526
瞠	-10527
籮	-10528
釕	-10529
鉿	-10530
鎝	-10531
𠐤	-10532
ũ	-10533
ད	-10534
ấ	-10535
ゥ	-10536
寤	-10537
屻	-10538
嶧	-10539
橚	-10540
檫	-10541
櫈	-10542
潴	-10543
畧	-10544
疠	-10545
繻	-10546
莜	-10547
轫	-10548
鴆	-10549
鼋	-10550
ɡ	-10551
ە	-10552
ி	-10553
ไ	-10554
ს	-10555
∙	-10556
叽	-10557
哱	-10558
旳	-10559
暁	-10560
蝘	-10561
衪	-10562
蹩	-10563
陬	-10564
鳾	-10565
鸊	-10566
麇	-10567
齮	-10568
무	-10569
천	-10570
◆	-10571
ㄗ	-10572
呾	-10573
堠	-10574
寯	-10575
斕	-10576
昄	-10577
椏	-10578
椥	-10579
癘	-10580
缦	-10581
罴	-10582
艛	-10583
褌	-10584
醂	-10585
銩	-10586
镈	-10587
鯿	-10588
래	-10589
ர	-10590
↓	-10591
ㄤ	-10592
侁	-10593
儻	-10594
勦	-10595
囯	-10596
憋	-10597
扺	-10598
撂	-10599
朥	-10600
棡	-10601
滝	-10602
砼	-10603
翙	-10604
茚	-10605
蓇	-10606
蟶	-10607
鍙	-10608
锹	-10609
騒	-10610
트	-10611
च	-10612
த	-10613
མ	-10614
ḱ	-10615
ề	-10616
呔	-10617
喼	-10618
噎	-10619
垕	-10620
宧	-10621
掂	-10622
暸	-10623
歃	-10624
瀹	-10625
紵	-10626
縐	-10627
缫	-10628
舗	-10629
閦	-10630
鰏	-10631
鰶	-10632
鵯	-10633
ʕ	-10634
ক	-10635
䱵	-10636
吿	-10637
嗦	-10638
噍	-10639
埇	-10640
尢	-10641
彅	-10642
桴	-10643
梘	-10644
棪	-10645
棫	-10646
檉	-10647
澁	-10648
礐	-10649
禤	-10650
窨	-10651
艽	-10652
荑	-10653
荘	-10654
葖	-10655
蕖	-10656
蕻	-10657
藷	-10658
鎩	-10659
鐽	-10660
魎	-10661
鰷	-10662
鼒	-10663
바	-10664
회	-10665
ذ	-10666
ّ	-10667
█	-10668
咥	-10669
哟	-10670
墕	-10671
撝	-10672
旵	-10673
柟	-10674
椹	-10675
泅	-10676
泖	-10677
玭	-10678
畊	-10679
疳	-10680
碻	-10681
糀	-10682
纁	-10683
菔	-10684
郪	-10685
镣	-10686
鞞	-10687
餸	-10688
鰟	-10689
鹂	-10690
龋	-10691
석	-10692
ַ	-10693
अ	-10694
भ	-10695
ṅ	-10696
ぷ	-10697
ㄞ	-10698
佝	-10699
倶	-10700
咂	-10701
崠	-10702
懐	-10703
桡	-10704
涙	-10705
澣	-10706
煃	-10707
緜	-10708
耄	-10709
衲	-10710
蹕	-10711
転	-10712
鐃	-10713
镎	-10714
颡	-10715
치	-10716
태	-10717
ǔ	-10718
䱀	-10719
厍	-10720
壸	-10721
庁	-10722
挙	-10723
敔	-10724
旣	-10725
櫪	-10726
洌	-10727
湔	-10728
澔	-10729
爌	-10730
狞	-10731
筅	-10732
筌	-10733
脒	-10734
蠋	-10735
衎	-10736
褙	-10737
譫	-10738
诿	-10739
辔	-10740
铄	-10741
餿	-10742
鳏	-10743
黐	-10744
용	-10745
ɯ	-10746
ћ	-10747
ր	-10748
כ	-10749
দ	-10750
โ	-10751
倨	-10752
嫵	-10753
扞	-10754
淶	-10755
瑆	-10756
篓	-10757
荜	-10758
諗	-10759
酺	-10760
阋	-10761
馁	-10762
鲌	-10763
鷚	-10764
𤨒	-10765
ի	-10766
ւ	-10767
ק	-10768
آ	-10769
ம	-10770
ธ	-10771
ན	-10772
ា	-10773
„	-10774
⊆	-10775
嚳	-10776
坬	-10777
壎	-10778
妺	-10779
婼	-10780
彛	-10781
従	-10782
慥	-10783
搥	-10784
栌	-10785
槱	-10786
殛	-10787
淓	-10788
烝	-10789
畚	-10790
艚	-10791
芘	-10792
芴	-10793
蟥	-10794
袅	-10795
赀	-10796
逶	-10797
鄫	-10798
陁	-10799
飫	-10800
餬	-10801
骙	-10802
鯱	-10803
ヲ	-10804
㶞	-10805
仂	-10806
孌	-10807
巌	-10808
搆	-10809
攞	-10810
敉	-10811
柷	-10812
烱	-10813
癰	-10814
磝	-10815
禟	-10816
茘	-10817
蘗	-10818
谳	-10819
賒	-10820
贔	-10821
逌	-10822
锎	-10823
馔	-10824
鯭	-10825
鲥	-10826
黌	-10827
거	-10828
윤	-10829
ĩ	-10830
ˑ	-10831
ס	-10832
ट	-10833
ब	-10834
ớ	-10835
⊂	-10836
侔	-10837
劬	-10838
勍	-10839
呛	-10840
営	-10841
嫲	-10842
廛	-10843
弐	-10844
恻	-10845
杪	-10846
桄	-10847
樅	-10848
洭	-10849
磲	-10850
糗	-10851
絅	-10852
賛	-10853
躅	-10854
鏃	-10855
鲡	-10856
게	-10857
ŭ	-10858
স	-10859
ぴ	-10860
廋	-10861
弾	-10862
忉	-10863
愴	-10864
杻	-10865
楩	-10866
殄	-10867
涠	-10868
済	-10869
溍	-10870
漈	-10871
琄	-10872
瑨	-10873
縵	-10874
臊	-10875
诨	-10876
镤	-10877
颏	-10878
鮍	-10879
면	-10880
ĝ	-10881
➤	-10882
ㄔ	-10883
ㄡ	-10884
嗷	-10885
嘍	-10886
姶	-10887
崱	-10888
帔	-10889
彆	-10890
彜	-10891
掴	-10892
椪	-10893
櫺	-10894
洨	-10895
淏	-10896
狓	-10897
竽	-10898
簠	-10899
褡	-10900
覚	-10901
詝	-10902
躊	-10903
郟	-10904
鄀	-10905
鉾	-10906
鐡	-10907
鞫	-10908
馑	-10909
馘	-10910
骢	-10911
鰆	-10912
鰋	-10913
鷥	-10914
鷴	-10915
鹜	-10916
黁	-10917
ů	-10918
˥	-10919
إ	-10920
∕	-10921
単	-10922
嚀	-10923
嚓	-10924
堌	-10925
婀	-10926
孓	-10927
悛	-10928
拊	-10929
斝	-10930
柁	-10931
痠	-10932
矸	-10933
粼	-10934
紞	-10935
蟌	-10936
閆	-10937
명	-10938
𣴓	-10939
ʦ	-10940
刋	-10941
呗	-10942
唎	-10943
姸	-10944
漥	-10945
澮	-10946
炟	-10947
珎	-10948
盨	-10949
砈	-10950
褘	-10951
貙	-10952
鲿	-10953
鶩	-10954
鸰	-10955
군	-10956
승	-10957
재	-10958
N	-10959
ེ	-10960
∩	-10961
㦃	-10962
倏	-10963
偻	-10964
卨	-10965
啫	-10966
嗢	-10967
奁	-10968
廐	-10969
徉	-10970
徜	-10971
惴	-10972
朿	-10973
燠	-10974
玁	-10975
薬	-10976
虉	-10977
醢	-10978
鯀	-10979
鱊	-10980
들	-10981
희	-10982
ɾ	-10983
ო	-10984
្	-10985
吆	-10986
欸	-10987
湝	-10988
煴	-10989
穉	-10990
竝	-10991
箩	-10992
粢	-10993
繸	-10994
缑	-10995
蕷	-10996
詎	-10997
跞	-10998
跣	-10999
酂	-11000
釪	-11001
鈧	-11002
鉝	-11003
鍆	-11004
鷟	-11005
黉	-11006
당	-11007
ʉ	-11008
̂	-11009
ե	-11010
յ	-11011
ლ	-11012
ㄊ	-11013
㹢	-11014
㺢	-11015
啕	-11016
啷	-11017
嗰	-11018
彔	-11019
彖	-11020
搡	-11021
攄	-11022
昫	-11023
樘	-11024
漼	-11025
爀	-11026
牖	-11027
磻	-11028
簑	-11029
糌	-11030
葎	-11031
蚨	-11032
觿	-11033
讦	-11034
贌	-11035
鎣	-11036
铡	-11037
飏	-11038
駆	-11039
鰥	-11040
鲔	-11041
백	-11042
𨧀	-11043
ध	-11044
ত	-11045
䜣	-11046
伾	-11047
夲	-11048
帰	-11049
幞	-11050
枰	-11051
湓	-11052
燜	-11053
璮	-11054
秈	-11055
穏	-11056
筩	-11057
簗	-11058
纡	-11059
羱	-11060
葚	-11061
読	-11062
謡	-11063
譭	-11064
貅	-11065
韡	-11066
饽	-11067
鳽	-11068
鸌	-11069
黷	-11070
광	-11071
종	-11072
중	-11073
ɤ	-11074
ɿ	-11075
ष	-11076
འ	-11077
ལ	-11078
ἐ	-11079
⊙	-11080
ㄘ	-11081
䱻	-11082
呪	-11083
塅	-11084
媺	-11085
岿	-11086
嵒	-11087
懣	-11088
撳	-11089
杌	-11090
沇	-11091
洣	-11092
溈	-11093
澯	-11094
犖	-11095
猙	-11096
玓	-11097
珤	-11098
甗	-11099
疎	-11100
绌	-11101
蓂	-11102
衕	-11103
袢	-11104
觑	-11105
釆	-11106
鍩	-11107
阌	-11108
鴒	-11109
鶥	-11110
黽	-11111
를	-11112
준	-11113
ہ	-11114
ู	-11115
ῖ	-11116
丏	-11117
厙	-11118
啱	-11119
嗄	-11120
嚭	-11121
堈	-11122
孥	-11123
摟	-11124
昜	-11125
殫	-11126
氷	-11127
沏	-11128
浡	-11129
溇	-11130
溦	-11131
濩	-11132
畛	-11133
痧	-11134
痼	-11135
瘪	-11136
祹	-11137
苘	-11138
蚧	-11139
螠	-11140
蟯	-11141
蠖	-11142
襌	-11143
謢	-11144
蹣	-11145
鞴	-11146
飡	-11147
魈	-11148
鯆	-11149
鲼	-11150
鵄	-11151
금	-11152
단	-11153
디	-11154
최	-11155
ǒ	-11156
˧	-11157
̩	-11158
ू	-11159
∂	-11160
⋅	-11161
刖	-11162
劓	-11163
忖	-11164
愜	-11165
摳	-11166
棓	-11167
槰	-11168
櫞	-11169
殚	-11170
氂	-11171
浛	-11172
潽	-11173
穡	-11174
絪	-11175
縹	-11176
翃	-11177
苺	-11178
莸	-11179
蘂	-11180
蘼	-11181
诔	-11182
趸	-11183
迵	-11184
醅	-11185
鋕	-11186
錬	-11187
鎅	-11188
铚	-11189
韙	-11190
飈	-11191
骺	-11192
鲅	-11193
鵐	-11194
鸷	-11195
齟	-11196
루	-11197
임	-11198
ɦ	-11199
ข	-11200
䴥	-11201
佖	-11202
凇	-11203
崍	-11204
彠	-11205
愾	-11206
憺	-11207
摠	-11208
梿	-11209
橛	-11210
欹	-11211
浉	-11212
淛	-11213
疔	-11214
肸	-11215
芑	-11216
蜣	-11217
赕	-11218
蹿	-11219
鄗	-11220
隄	-11221
鞆	-11222
鷦	-11223
齬	-11224
날	-11225
𨨏	-11226
צ	-11227
ـ	-11228
য	-11229
ắ	-11230
咝	-11231
嗉	-11232
媪	-11233
崘	-11234
廑	-11235
挎	-11236
搂	-11237
撘	-11238
擯	-11239
旰	-11240
暅	-11241
柉	-11242
歟	-11243
湼	-11244
潸	-11245
瑺	-11246
瘘	-11247
绉	-11248
绔	-11249
聴	-11250
蜞	-11251
蠓	-11252
裿	-11253
讉	-11254
賨	-11255
醱	-11256
鯁	-11257
청	-11258
𠊎	-11259
ň	-11260
̚	-11261
̣	-11262
រ	-11263
∪	-11264
僂	-11265
唳	-11266
喈	-11267
坮	-11268
庯	-11269
戽	-11270
搠	-11271
旎	-11272
曕	-11273
楦	-11274
殳	-11275
殽	-11276
泩	-11277
砣	-11278
礱	-11279
祊	-11280
糶	-11281
螉	-11282
襤	-11283
貺	-11284
轵	-11285
鐧	-11286
鑅	-11287
鷀	-11288
예	-11289
˩	-11290
є	-11291
ứ	-11292
ㄖ	-11293
ㄦ	-11294
俋	-11295
刳	-11296
嚩	-11297
塋	-11298
奀	-11299
娍	-11300
嬬	-11301
巋	-11302
忭	-11303
懑	-11304
檊	-11305
欤	-11306
浿	-11307
灊	-11308
珰	-11309
穑	-11310
繐	-11311
蛱	-11312
衚	-11313
賅	-11314
輊	-11315
逡	-11316
鎿	-11317
険	-11318
霅	-11319
顙	-11320
颔	-11321
鴫	-11322
鼾	-11323
두	-11324
름	-11325
카	-11326
타	-11327
ˌ	-11328
կ	-11329
ء	-11330
ھ	-11331
ச	-11332
ப	-11333
།	-11334
侘	-11335
勑	-11336
忝	-11337
撙	-11338
杣	-11339
柾	-11340
栳	-11341
汆	-11342
琎	-11343
筇	-11344
羂	-11345
腙	-11346
舲	-11347
蕓	-11348
蕚	-11349
蕡	-11350
虿	-11351
蚰	-11352
迓	-11353
鏇	-11354
馕	-11355
鱠	-11356
공	-11357
씨	-11358
위	-11359
창	-11360
𢄂	-11361
𨭎	-11362
̱	-11363
ἰ	-11364
䁐	-11365
僎	-11366
唠	-11367
坧	-11368
奩	-11369
婬	-11370
悊	-11371
搦	-11372
撵	-11373
攥	-11374
橞	-11375
焿	-11376
犇	-11377
狻	-11378
玡	-11379
眦	-11380
矍	-11381
礑	-11382
禠	-11383
窋	-11384
笫	-11385
籛	-11386
縴	-11387
缛	-11388
聵	-11389
蒎	-11390
螻	-11391
褛	-11392
誄	-11393
锍	-11394
饴	-11395
馃	-11396
骀	-11397
鵺	-11398
鹇	-11399
麯	-11400
黡	-11401
黩	-11402
노	-11403
봉	-11404
ț	-11405
ȵ	-11406
ɨ	-11407
ু	-11408
ு	-11409
ื	-11410
ぺ	-11411
ㄫ	-11412
ㄭ	-11413
㗎	-11414
仉	-11415
傜	-11416
嘰	-11417
姘	-11418
媄	-11419
宬	-11420
戗	-11421
槇	-11422
浟	-11423
湌	-11424
漑	-11425
瀦	-11426
焄	-11427
狰	-11428
瑫	-11429
瘞	-11430
緄	-11431
绹	-11432
膻	-11433
茈	-11434
蒉	-11435
衄	-11436
訚	-11437
蹒	-11438
軏	-11439
锏	-11440
靬	-11441
頔	-11442
顕	-11443
麺	-11444
齎	-11445
龠	-11446
차	-11447
👑	-11448
ź	-11449
چ	-11450
ण	-11451
್	-11452
ภ	-11453
伢	-11454
儦	-11455
兕	-11456
噫	-11457
墁	-11458
姈	-11459
巘	-11460
悳	-11461
憕	-11462
懟	-11463
杬	-11464
枓	-11465
栴	-11466
梱	-11467
槼	-11468
汩	-11469
沤	-11470
渼	-11471
溷	-11472
烋	-11473
璂	-11474
痨	-11475
磙	-11476
祼	-11477
禥	-11478
箨	-11479
篥	-11480
籼	-11481
翽	-11482
觜	-11483
轡	-11484
釴	-11485
鉁	-11486
镬	-11487
靑	-11488
駰	-11489
驎	-11490
행	-11491
홍	-11492
˨	-11493
ֹ	-11494
ׁ	-11495
ܐ	-11496
ী	-11497
ု	-11498
း	-11499
∑	-11500
゚	-11501
吭	-11502
啣	-11503
埧	-11504
徧	-11505
拶	-11506
挵	-11507
掎	-11508
搢	-11509
摞	-11510
攆	-11511
斿	-11512
晈	-11513
泂	-11514
漷	-11515
烔	-11516
秕	-11517
脘	-11518
莳	-11519
薗	-11520
蘖	-11521
诶	-11522
躑	-11523
軽	-11524
鐔	-11525
镡	-11526
雠	-11527
骛	-11528
鱭	-11529
말	-11530
모	-11531
별	-11532
𠀧	-11533
𨭆	-11534
ŏ	-11535
ֶ	-11536
ல	-11537
ํ	-11538
╳	-11539
仳	-11540
伧	-11541
喦	-11542
垧	-11543
屭	-11544
岜	-11545
挻	-11546
撸	-11547
斲	-11548
梠	-11549
棼	-11550
槩	-11551
欏	-11552
氤	-11553
滃	-11554
熿	-11555
狃	-11556
玗	-11557
珹	-11558
琫	-11559
盹	-11560
竩	-11561
籾	-11562
糴	-11563
臈	-11564
茬	-11565
茼	-11566
荅	-11567
蕹	-11568
鈳	-11569
霙	-11570
飑	-11571
驌	-11572
骕	-11573
鵾	-11574
𣋉	-11575
ث	-11576
ნ	-11577
ḫ	-11578
₹	-11579
ぁ	-11580
䶄	-11581
妩	-11582
嬲	-11583
岣	-11584
庒	-11585
弉	-11586
旿	-11587
暪	-11588
曺	-11589
桲	-11590
檮	-11591
殍	-11592
洑	-11593
瀲	-11594
焞	-11595
瓿	-11596
瘗	-11597
瞓	-11598
礮	-11599
禼	-11600
筼	-11601
艶	-11602
蕺	-11603
衩	-11604
譓	-11605
讬	-11606
跎	-11607
郳	-11608
鉆	-11609
镅	-11610
魾	-11611
드	-11612
식	-11613
애	-11614
운	-11615
터	-11616
﨑	-11617
ġ	-11618
ľ	-11619
ї	-11620
ѣ	-11621
ު	-11622
ྱ	-11623
ᄅ	-11624
ữ	-11625
⊗	-11626
佧	-11627
娸	-11628
峣	-11629
巰	-11630
忾	-11631
惬	-11632
攷	-11633
曔	-11634
桱	-11635
槠	-11636
櫬	-11637
殂	-11638
渫	-11639
漉	-11640
潋	-11641
瀼	-11642
狔	-11643
瑔	-11644
瘉	-11645
眇	-11646
禨	-11647
筜	-11648
筰	-11649
籥	-11650
糺	-11651
繯	-11652
缣	-11653
萮	-11654
蠐	-11655
觇	-11656
赅	-11657
踱	-11658
軹	-11659
銛	-11660
銭	-11661
鍅	-11662
鳂	-11663
鶼	-11664
순	-11665
파	-11666
R	-11667
ֵ	-11668
ྲ	-11669
ἡ	-11670
∃	-11671
仨	-11672
傖	-11673
兎	-11674
憻	-11675
扱	-11676
抠	-11677
揑	-11678
柸	-11679
溎	-11680
犠	-11681
癀	-11682
睨	-11683
筚	-11684
篑	-11685
簞	-11686
籴	-11687
絷	-11688
綖	-11689
綷	-11690
聒	-11691
菼	-11692
赙	-11693
鄕	-11694
鉨	-11695
鍈	-11696
鏹	-11697
镏	-11698
魢	-11699
鮁	-11700
鴈	-11701
麪	-11702
黇	-11703
과	-11704
ų	-11705
ǣ	-11706
մ	-11707
ณ	-11708
ာ	-11709
თ	-11710
ង	-11711
ủ	-11712
›	-11713
⊕	-11714
┃	-11715
ぃ	-11716
ぇ	-11717
㶲	-11718
儇	-11719
匋	-11720
妁	-11721
娀	-11722
戧	-11723
扃	-11724
捋	-11725
旽	-11726
檠	-11727
漶	-11728
澌	-11729
濼	-11730
炻	-11731
燫	-11732
犼	-11733
琠	-11734
瑳	-11735
瓈	-11736
瘂	-11737
盍	-11738
瞇	-11739
缃	-11740
缈	-11741
聩	-11742
荇	-11743
蟱	-11744
謩	-11745
谞	-11746
遯	-11747
釓	-11748
鋃	-11749
鍪	-11750
鏌	-11751
钣	-11752
钶	-11753
镊	-11754
驀	-11755
鲴	-11756
러	-11757
레	-11758
복	-11759
포	-11760
𡃁	-11761
𤅷	-11762
𥙿	-11763
ǵ	-11764
ʐ	-11765
ז	-11766
ۇ	-11767
জ	-11768
უ	-11769
∗	-11770
∴	-11771
㐌	-11772
倞	-11773
冚	-11774
咾	-11775
嘞	-11776
囃	-11777
墡	-11778
娆	-11779
娫	-11780
媼	-11781
寊	-11782
岈	-11783
岞	-11784
嶍	-11785
巉	-11786
愼	-11787
摰	-11788
撅	-11789
曌	-11790
樉	-11791
樯	-11792
橼	-11793
漴	-11794
爚	-11795
璙	-11796
硇	-11797
硷	-11798
窓	-11799
纻	-11800
臓	-11801
蒭	-11802
蕅	-11803
蘩	-11804
虒	-11805
裢	-11806
踉	-11807
饟	-11808
骃	-11809
髕	-11810
鲋	-11811
鳇	-11812
鳈	-11813
麊	-11814
길	-11815
불	-11816
©	-11817
ű	-11818
ɒ	-11819
ʈ	-11820
ˀ	-11821
ң	-11822
ս	-11823
ட	-11824
ษ	-11825
မ	-11826
ស	-11827
ុ	-11828
ἄ	-11829
♣	-11830
俌	-11831
卲	-11832
喑	-11833
堎	-11834
夬	-11835
妘	-11836
峘	-11837
嵎	-11838
惪	-11839
杧	-11840
栂	-11841
橦	-11842
渶	-11843
爝	-11844
玶	-11845
瑮	-11846
盉	-11847
眛	-11848
罾	-11849
蒹	-11850
谮	-11851
賸	-11852
輳	-11853
鄃	-11854
鉷	-11855
鲊	-11856
鸂	-11857
鸶	-11858
계	-11859
관	-11860
달	-11861
빈	-11862
ĭ	-11863
வ	-11864
ญ	-11865
པ	-11866
န	-11867
ိ	-11868
ợ	-11869
ῶ	-11870
₩	-11871
◇	-11872
凼	-11873
叆	-11874
墭	-11875
嵝	-11876
抺	-11877
撄	-11878
晫	-11879
曮	-11880
椆	-11881
氵	-11882
潏	-11883
灕	-11884
犴	-11885
璊	-11886
矞	-11887
稉	-11888
箒	-11889
縭	-11890
缊	-11891
艤	-11892
苁	-11893
蒌	-11894
蕘	-11895
蠆	-11896
諝	-11897
譲	-11898
賻	-11899
蹑	-11900
軨	-11901
錀	-11902
錾	-11903
騅	-11904
騤	-11905
髫	-11906
髷	-11907
鬷	-11908
魩	-11909
鰜	-11910
鶒	-11911
鷿	-11912
년	-11913
심	-11914
크	-11915
평	-11916
¡	-11917
ť	-11918
ɲ	-11919
ʌ	-11920
˦	-11921
̪	-11922
հ	-11923
ظ	-11924
ன	-11925
ន	-11926
ᠨ	-11927
⿰	-11928
亻	-11929
仚	-11930
偪	-11931
匜	-11932
咺	-11933
喟	-11934
喩	-11935
囈	-11936
垤	-11937
塡	-11938
墌	-11939
妑	-11940
帡	-11941
庲	-11942
摁	-11943
擡	-11944
櫆	-11945
汚	-11946
滧	-11947
澉	-11948
烇	-11949
焌	-11950
猃	-11951
猻	-11952
玧	-11953
皤	-11954
盝	-11955
眯	-11956
秫	-11957
秬	-11958
粍	-11959
縟	-11960
腼	-11961
苊	-11962
荵	-11963
萋	-11964
蔊	-11965
蔞	-11966
覿	-11967
讙	-11968
谆	-11969
谡	-11970
踫	-11971
輶	-11972
轀	-11973
郄	-11974
鄶	-11975
銍	-11976
騋	-11977
鮸	-11978
齲	-11979
네	-11980
반	-11981
와	-11982
황	-11983
¢	-11984
̊	-11985
ా	-11986
ვ	-11987
ᄂ	-11988
ក	-11989
ῆ	-11990
≒	-11991
♂	-11992
䱗	-11993
䶮	-11994
丨	-11995
倂	-11996
倕	-11997
僜	-11998
姁	-11999
巣	-12000
摽	-12001
昚	-12002
桝	-12003
楧	-12004
榇	-12005
檟	-12006
濆	-12007
玚	-12008
珖	-12009
睏	-12010
矟	-12011
砗	-12012
篳	-12013
綮	-12014
羶	-12015
耋	-12016
耷	-12017
膘	-12018
艸	-12019
茏	-12020
蛐	-12021
蛩	-12022
誔	-12023
輥	-12024
轺	-12025
邶	-12026
鋗	-12027
锲	-12028
镆	-12029
骖	-12030
鬰	-12031
鲚	-12032
鲬	-12033
鷙	-12034
鼢	-12035
독	-12036
피	-12037
혁	-12038
ғ	-12039
़	-12040
়	-12041
ေ	-12042
მ	-12043
⊥	-12044
▌	-12045
丿	-12046
呉	-12047
嗌	-12048
圌	-12049
垿	-12050
奣	-12051
奨	-12052
孋	-12053
嶗	-12054
彄	-12055
慍	-12056
戯	-12057
抿	-12058
揩	-12059
擕	-12060
敫	-12061
楳	-12062
湴	-12063
滠	-12064
琡	-12065
瓉	-12066
筈	-12067
絺	-12068
綧	-12069
緖	-12070
缒	-12071
肏	-12072
臞	-12073
苒	-12074
莕	-12075
蒄	-12076
螋	-12077
觔	-12078
辧	-12079
鈃	-12080
锫	-12081
镲	-12082
鰣	-12083
鷈	-12084
黙	-12085
齪	-12086
즈	-12087
처	-12088
훈	-12089
𤅶	-12090
𧒽	-12091
𨥙	-12092
ĉ	-12093
ɹ	-12094
ʑ	-12095
љ	-12096
ड	-12097
ো	-12098
ụ	-12099
‹	-12100
㸅	-12101
侩	-12102
俀	-12103
冧	-12104
喎	-12105
喏	-12106
埿	-12107
堙	-12108
娈	-12109
婞	-12110
岵	-12111
嵕	-12112
帏	-12113
恊	-12114
悱	-12115
旉	-12116
昖	-12117
曈	-12118
枵	-12119
榿	-12120
檣	-12121
欅	-12122
沬	-12123
洊	-12124
琲	-12125
睚	-12126
硨	-12127
秏	-12128
筦	-12129
翺	-12130
蓊	-12131
衜	-12132
褴	-12133
覩	-12134
譖	-12135
踌	-12136
辏	-12137
邉	-12138
錙	-12139
鎦	-12140
鐤	-12141
雝	-12142
鳡	-12143
밤	-12144
월	-12145
음	-12146
있	-12147
통	-12148
𨮁	-12149
ʏ	-12150
̌	-12151
ט	-12152
ܝ	-12153
আ	-12154
প	-12155
င	-12156
တ	-12157
⟷	-12158
〒	-12159
㬂	-12160
㷿	-12161
䳭	-12162
亊	-12163
刄	-12164
匽	-12165
圑	-12166
坖	-12167
壱	-12168
寗	-12169
崄	-12170
巑	-12171
幃	-12172
廰	-12173
愒	-12174
慭	-12175
懍	-12176
拺	-12177
摛	-12178
氽	-12179
氿	-12180
沨	-12181
牾	-12182
珫	-12183
瑴	-12184
癤	-12185
碏	-12186
磎	-12187
窳	-12188
聡	-12189
肫	-12190
脗	-12191
脬	-12192
蜩	-12193
詈	-12194
誑	-12195
誴	-12196
貒	-12197
賔	-12198
跄	-12199
輗	-12200
邆	-12201
錛	-12202
钲	-12203
閶	-12204
靦	-12205
靨	-12206
颦	-12207
騖	-12208
鮣	-12209
鯥	-12210
鵼	-12211
黿	-12212
鼍	-12213
龎	-12214
건	-12215
근	-12216
람	-12217
적	-12218
형	-12219
ҡ	-12220
ใ	-12221
ử	-12222
㫻	-12223
仏	-12224
倀	-12225
僔	-12226
匚	-12227
厷	-12228
咇	-12229
啭	-12230
嫫	-12231
屇	-12232
幘	-12233
彞	-12234
怵	-12235
橒	-12236
欞	-12237
瀣	-12238
猇	-12239
痱	-12240
箎	-12241
箪	-12242
粜	-12243
緇	-12244
聼	-12245
觥	-12246
诳	-12247
賹	-12248
輞	-12249
錱	-12250
阝	-12251
顰	-12252
鿕	-12253
림	-12254
저	-12255
ɬ	-12256
ʅ	-12257
ម	-12258
ở	-12259
ỳ	-12260
ὶ	-12261
㚟	-12262
侅	-12263
侹	-12264
兪	-12265
匭	-12266
圧	-12267
妯	-12268
娌	-12269
婓	-12270
尒	-12271
屃	-12272
掦	-12273
敻	-12274
楗	-12275
橓	-12276
湞	-12277
滽	-12278
猄	-12279
獫	-12280
皦	-12281
睥	-12282
硓	-12283
硭	-12284
綯	-12285
繰	-12286
绖	-12287
艅	-12288
艟	-12289
茷	-12290
蝥	-12291
蟛	-12292
裊	-12293
觌	-12294
詥	-12295
諢	-12296
谵	-12297
躡	-12298
鄡	-12299
酇	-12300
酹	-12301
釭	-12302
鏸	-12303
钎	-12304
饈	-12305
馋	-12306
鵎	-12307
물	-12308
버	-12309
친	-12310
শ	-12311
ฟ	-12312
ᄃ	-12313
ᄋ	-12314
儐	-12315
冮	-12316
墫	-12317
墼	-12318
夨	-12319
嫱	-12320
崀	-12321
嵵	-12322
忯	-12323
悆	-12324
惓	-12325
慇	-12326
拝	-12327
捭	-12328
擭	-12329
攴	-12330
斆	-12331
旆	-12332
晄	-12333
晡	-12334
柺	-12335
栐	-12336
榑	-12337
泇	-12338
泔	-12339
牤	-12340
盌	-12341
祅	-12342
縡	-12343
蕯	-12344
虨	-12345
蝼	-12346
豷	-12347
鄤	-12348
鎇	-12349
鐄	-12350
鐩	-12351
锒	-12352
餑	-12353
饹	-12354
骓	-12355
鯵	-12356
齷	-12357
개	-12358
글	-12359
려	-12360
베	-12361
삼	-12362
ǧ	-12363
ǫ	-12364
̈	-12365
њ	-12366
হ	-12367
็	-12368
კ	-12369
ṯ	-12370
ῦ	-12371
㫤	-12372
䗉	-12373
価	-12374
劌	-12375
叄	-12376
囲	-12377
垰	-12378
埻	-12379
塄	-12380
墎	-12381
孬	-12382
寖	-12383
寜	-12384
庋	-12385
弨	-12386
栘	-12387
栟	-12388
樻	-12389
檁	-12390
檵	-12391
汸	-12392
沺	-12393
泝	-12394
浥	-12395
潆	-12396
潚	-12397
炌	-12398
炝	-12399
熥	-12400
瓐	-12401
瓴	-12402
甍	-12403
皷	-12404
磜	-12405
礤	-12406
綹	-12407
縂	-12408
纰	-12409
翫	-12410
舁	-12411
舄	-12412
艨	-12413
莛	-12414
莩	-12415
袆	-12416
襴	-12417
觋	-12418
讌	-12419
讐	-12420
贶	-12421
跂	-12422
轳	-12423
鈊	-12424
鋈	-12425
鐬	-12426
陴	-12427
隳	-12428
靭	-12429
騨	-12430
鯈	-12431
鰮	-12432
鹡	-12433
齕	-12434
간	-12435
권	-12436
더	-12437
데	-12438
르	-12439
린	-12440
후	-12441
𣚅	-12442
ʋ	-12443
վ	-12444
տ	-12445
ٹ	-12446
్	-12447
ರ	-12448
ນ	-12449
ბ	-12450
ḗ	-12451
ẓ	-12452
ὀ	-12453
ὁ	-12454
✕	-12455
䗩	-12456
佋	-12457
吔	-12458
嗥	-12459
嗱	-12460
坔	-12461
壂	-12462
壐	-12463
娡	-12464
孻	-12465
嵓	-12466
嶢	-12467
嶴	-12468
戆	-12469
戥	-12470
揲	-12471
摃	-12472
攽	-12473
棰	-12474
榼	-12475
氕	-12476
氲	-12477
泃	-12478
浵	-12479
瀷	-12480
爕	-12481
猢	-12482
獏	-12483
璸	-12484
皁	-12485
硿	-12486
禚	-12487
穠	-12488
緍	-12489
脢	-12490
荎	-12491
菥	-12492
藠	-12493
蠃	-12494
誆	-12495
谂	-12496
赑	-12497
踼	-12498
鏳	-12499
鐶	-12500
閰	-12501
雟	-12502
颮	-12503
駉	-12504
騣	-12505
鬈	-12506
鯇	-12507
黾	-12508
龊	-12509
덕	-12510
배	-12511
	-12512
𡳞	-12513
ĕ	-12514
ў	-12515
қ	-12516
క	-12517
ự	-12518
‪	-12519
♦	-12520
ヅ	-12521
ㄬ	-12522
㭽	-12523
䏲	-12524
䥑	-12525
䳍	-12526
佀	-12527
傧	-12528
凴	-12529
嘥	-12530
嚦	-12531
埨	-12532
埰	-12533
塆	-12534
壝	-12535
姹	-12536
孮	-12537
宄	-12538
屘	-12539
廃	-12540
悃	-12541
惎	-12542
捽	-12543
搽	-12544
攖	-12545
曁	-12546
柙	-12547
櫨	-12548
櫱	-12549
沍	-12550
洐	-12551
溁	-12552
溙	-12553
瀠	-12554
爟	-12555
疖	-12556
皛	-12557
礅	-12558
緙	-12559
縑	-12560
繅	-12561
缁	-12562
茑	-12563
葇	-12564
蝀	-12565
蝲	-12566
觯	-12567
誒	-12568
趼	-12569
躂	-12570
郚	-12571
鉶	-12572
鍟	-12573
鑴	-12574
鞌	-12575
饞	-12576
馛	-12577
馺	-12578
駔	-12579
黈	-12580
난	-12581
녕	-12582
입	-12583
초	-12584
티	-12585
𣰋	-12586
ɚ	-12587
ɵ	-12588
һ	-12589
ڠ	-12590
ܘ	-12591
ܪ	-12592
ަ	-12593
ਾ	-12594
ந	-12595
ి	-12596
າ	-12597
ཁ	-12598
ပ	-12599
ქ	-12600
ổ	-12601
∆	-12602
♠	-12603
〃	-12604
㮾	-12605
㵲	-12606
僙	-12607
剉	-12608
労	-12609
厖	-12610
叅	-12611
嚶	-12612
垈	-12613
垞	-12614
堽	-12615
壪	-12616
妬	-12617
嵿	-12618
憓	-12619
懔	-12620
晢	-12621
梴	-12622
洢	-12623
滆	-12624
焴	-12625
甓	-12626
甽	-12627
痳	-12628
癔	-12629
磪	-12630
祤	-12631
穟	-12632
篯	-12633
絝	-12634
绐	-12635
绺	-12636
聦	-12637
蓽	-12638
蘢	-12639
褧	-12640
訒	-12641
諌	-12642
諟	-12643
釺	-12644
鋱	-12645
鏓	-12646
铫	-12647
閞	-12648
阄	-12649
隃	-12650
霫	-12651
餺	-12652
馼	-12653
鱖	-12654
鵂	-12655
龃	-12656
龉	-12657
생	-12658
없	-12659
으	-12660
찬	-12661
체	-12662
테	-12663
혜	-12664
𤏸	-12665
ǝ	-12666
ʀ	-12667
थ	-12668
ਿ	-12669
ய	-12670
്	-12671
ྒ	-12672
ြ	-12673
ゑ	-12674
俓	-12675
刣	-12676
刧	-12677
剐	-12678
呣	-12679
喽	-12680
嗹	-12681
嘭	-12682
囘	-12683
埆	-12684
堿	-12685
夒	-12686
妠	-12687
娳	-12688
媜	-12689
寃	-12690
屓	-12691
屣	-12692
峅	-12693
帻	-12694
弖	-12695
忳	-12696
怱	-12697
悒	-12698
愠	-12699
慝	-12700
抦	-12701
拑	-12702
搴	-12703
斅	-12704
椇	-12705
櫫	-12706
涷	-12707
溋	-12708
滈	-12709
炲	-12710
熅	-12711
狝	-12712
猯	-12713
猱	-12714
瘐	-12715
簒	-12716
紕	-12717
羑	-12718
舳	-12719
蓯	-12720
薁	-12721
虵	-12722
诐	-12723
豲	-12724
辵	-12725
醵	-12726
釿	-12727
鉎	-12728
鏦	-12729
鏨	-12730
頲	-12731
飥	-12732
饃	-12733
髌	-12734
鲘	-12735
鵒	-12736
鵞	-12737
鶹	-12738
녀	-12739
빛	-12740
좋	-12741
합	-12742
헌	-12743
환	-12744
𩖃	-12745
ÿ	-12746
̆	-12747
ӏ	-12748
ཀ	-12749
ཆ	-12750
က	-12751
ὸ	-12752
⌋	-12753
♀	-12754
䚟	-12755
乸	-12756
倅	-12757
僩	-12758
刼	-12759
叧	-12760
啧	-12761
啵	-12762
噉	-12763
噼	-12764
圴	-12765
坼	-12766
垲	-12767
埌	-12768
塏	-12769
峃	-12770
崒	-12771
嵖	-12772
幵	-12773
彣	-12774
彳	-12775
忬	-12776
揼	-12777
旯	-12778
昑	-12779
梲	-12780
楘	-12781
楬	-12782
槚	-12783
淥	-12784
瓤	-12785
眥	-12786
睍	-12787
睒	-12788
礓	-12789
禡	-12790
粋	-12791
緤	-12792
縳	-12793
羖	-12794
脳	-12795
脿	-12796
舥	-12797
舩	-12798
艿	-12799
蓚	-12800
蕞	-12801
薴	-12802
襆	-12803
讵	-12804
趒	-12805
轘	-12806
鐒	-12807
阃	-12808
阼	-12809
靥	-12810
韠	-12811
頇	-12812
騊	-12813
鸹	-12814
꽃	-12815
본	-12816
옥	-12817
코	-12818
ɖ	-12819
ѥ	-12820
ট	-12821
ซ	-12822
ླ	-12823
ᄀ	-12824
ᄇ	-12825
វ	-12826
ហ	-12827
ិ	-12828
ḏ	-12829
ἑ	-12830
ὐ	-12831
䲎	-12832
佮	-12833
倈	-12834
倢	-12835
厣	-12836
呙	-12837
唫	-12838
喁	-12839
噚	-12840
囟	-12841
埽	-12842
妏	-12843
嫳	-12844
屙	-12845
嶚	-12846
忸	-12847
慆	-12848
戻	-12849
扥	-12850
挿	-12851
斉	-12852
曧	-12853
枬	-12854
桯	-12855
椀	-12856
榣	-12857
槏	-12858
櫧	-12859
溵	-12860
漒	-12861
漖	-12862
潕	-12863
珒	-12864
疐	-12865
硎	-12866
祘	-12867
筥	-12868
簏	-12869
罸	-12870
翾	-12871
莶	-12872
蓐	-12873
蜾	-12874
衒	-12875
裇	-12876
貤	-12877
踨	-12878
躔	-12879
轱	-12880
辿	-12881
郐	-12882
鑃	-12883
镦	-12884
雱	-12885
韺	-12886
颋	-12887
饸	-12888
鯃	-12889
鰛	-12890
鴗	-12891
鶏	-12892
龌	-12893
까	-12894
눈	-12895
돌	-12896
발	-12897
투	-12898
𥕟	-12899
𫙮	-12900
¿	-12901
ȟ	-12902
բ	-12903
լ	-12904
ܕ	-12905
গ	-12906
ை	-12907
ల	-12908
ရ	-12909
ី	-12910
ể	-12911
ỹ	-12912
ἴ	-12913
↗	-12914
ⱪ	-12915
ぢ	-12916
㥄	-12917
㬎	-12918
䃟	-12919
剳	-12920
唹	-12921
噥	-12922
嚢	-12923
坫	-12924
娎	-12925
婠	-12926
媓	-12927
媖	-12928
媭	-12929
嫋	-12930
嬢	-12931
巎	-12932
庳	-12933
彡	-12934
徫	-12935
怔	-12936
愐	-12937
揺	-12938
撖	-12939
敭	-12940
旡	-12941
旲	-12942
昹	-12943
枴	-12944
柤	-12945
梫	-12946
棊	-12947
榍	-12948
槪	-12949
洳	-12950
淎	-12951
渓	-12952
熈	-12953
熘	-12954
燨	-12955
牼	-12956
瑍	-12957
璛	-12958
疪	-12959
痾	-12960
瘼	-12961
瞫	-12962
矻	-12963
碽	-12964
笱	-12965
籜	-12966
缂	-12967
罣	-12968
胗	-12969
荄	-12970
葙	-12971
蔿	-12972
薀	-12973
蟈	-12974
蟊	-12975
袿	-12976
褕	-12977
趯	-12978
酤	-12979
鉕	-12980
鋏	-12981
錟	-12982
铩	-12983
閪	-12984
霦	-12985
騂	-12986
鲐	-12987
鵷	-12988
鸑	-12989
령	-12990
병	-12991
블	-12992
설	-12993
열	-12994
ņ	-12995
ŝ	-12996
̓	-12997
͘	-12998
ۈ	-12999
ै	-13000
ు	-13001
ು	-13002
ອ	-13003
ជ	-13004
⌈	-13005
㴶	-13006
亅	-13007
伃	-13008
佷	-13009
俍	-13010
倗	-13011
倥	-13012
剮	-13013
咢	-13014
咦	-13015
嚆	-13016
嚤	-13017
圕	-13018
圞	-13019
堮	-13020
墱	-13021
奫	-13022
妸	-13023
媿	-13024
宀	-13025
崶	-13026
嶓	-13027
慼	-13028
憼	-13029
挲	-13030
摀	-13031
斠	-13032
晪	-13033
曶	-13034
枡	-13035
栊	-13036
栜	-13037
氆	-13038
氶	-13039
洫	-13040
烚	-13041
獇	-13042
珓	-13043
琁	-13044
瑸	-13045
璷	-13046
疴	-13047
眕	-13048
瞅	-13049
礒	-13050
窅	-13051
笒	-13052
簟	-13053
粃	-13054
紑	-13055
綞	-13056
聟	-13057
芐	-13058
芰	-13059
菻	-13060
蓢	-13061
蜮	-13062
蠼	-13063
褊	-13064
訔	-13065
踎	-13066
躒	-13067
辶	-13068
鄎	-13069
鉌	-13070
鉺	-13071
銎	-13072
钖	-13073
霱	-13074
顢	-13075
駮	-13076
髆	-13077
鱣	-13078
鴰	-13079
鼉	-13080
때	-13081
립	-13082
술	-13083
워	-13084
촌	-13085
총	-13086
토	-13087
효	-13088
흥	-13089
ђ	-13090
ց	-13091
ڭ	-13092
ۆ	-13093
ँ	-13094
घ	-13095
ੰ	-13096
ண	-13097
ర	-13098
ಾ	-13099
ტ	-13100
ᅡ	-13101
ᅵ	-13102
ព	-13103
ḷ	-13104
ặ	-13105
ỏ	-13106
㟖	-13107
䄉	-13108
仛	-13109
僴	-13110
儈	-13111
卌	-13112
厳	-13113
哐	-13114
啯	-13115
壻	-13116
妗	-13117
嫮	-13118
嬃	-13119
峧	-13120
崈	-13121
崾	-13122
嵰	-13123
嶔	-13124
戉	-13125
搨	-13126
摂	-13127
杢	-13128
棁	-13129
楡	-13130
檞	-13131
欷	-13132
歊	-13133
氳	-13134
汫	-13135
洤	-13136
滍	-13137
漙	-13138
玀	-13139
玒	-13140
珌	-13141
珷	-13142
甝	-13143
瘜	-13144
眄	-13145
碡	-13146
祾	-13147
笊	-13148
箣	-13149
篔	-13150
絰	-13151
綣	-13152
緗	-13153
縋	-13154
纇	-13155
绲	-13156
臠	-13157
萆	-13158
葒	-13159
葸	-13160
蔫	-13161
蛯	-13162
蟴	-13163
袝	-13164
褞	-13165
謏	-13166
迆	-13167
逎	-13168
逨	-13169
邘	-13170
鄾	-13171
錝	-13172
钅	-13173
阬	-13174
頍	-13175
颼	-13176
飧	-13177
馓	-13178
駑	-13179
騑	-13180
鮐	-13181
鲾	-13182
黶	-13183
鼈	-13184
숙	-13185
슬	-13186
엔	-13187
줘	-13188
직	-13189
집	-13190
추	-13191
침	-13192
프	-13193
히	-13194
𦨭	-13195
𪹚	-13196
ļ	-13197
ʮ	-13198
ख	-13199
ং	-13200
ਰ	-13201
ಕ	-13202
ಗ	-13203
ನ	-13204
ಿ	-13205
්	-13206
ා	-13207
ถ	-13208
ᄒ	-13209
ត	-13210
ប	-13211
ỉ	-13212
▷	-13213
➕	-13214
ゝ	-13215
㘰	-13216
㻋	-13217
䓪	-13218
伥	-13219
傃	-13220
喨	-13221
嚧	-13222
囎	-13223
塜	-13224
壚	-13225
夂	-13226
婤	-13227
寍	-13228
崟	-13229
嵫	-13230
嶦	-13231
廔	-13232
徸	-13233
悭	-13234
摅	-13235
擐	-13236
暟	-13237
枟	-13238
梼	-13239
椟	-13240
榽	-13241
檡	-13242
檦	-13243
渢	-13244
漎	-13245
潲	-13246
焮	-13247
犏	-13248
犟	-13249
獛	-13250
獪	-13251
琜	-13252
璬	-13253
瓞	-13254
畇	-13255
畮	-13256
瘕	-13257
癿	-13258
皕	-13259
盋	-13260
祩	-13261
穋	-13262
粩	-13263
紃	-13264
緁	-13265
繾	-13266
羝	-13267
耬	-13268
脔	-13269
脤	-13270
舭	-13271
艄	-13272
茝	-13273
茳	-13274
蔀	-13275
蟷	-13276
賙	-13277
賫	-13278
踮	-13279
逦	-13280
鄅	-13281
釬	-13282
鈜	-13283
錤	-13284
霤	-13285
髎	-13286
鱤	-13287
鹁	-13288
麁	-13289
黗	-13290
鿬	-13291
느	-13292
머	-13293
속	-13294
손	-13295
했	-13296
향	-13297
𠒇	-13298
𣴛	-13299
𨁂	-13300
ŷ	-13301
̀	-13302
թ	-13303
ভ	-13304
ே	-13305
ි	-13306
ງ	-13307
ລ	-13308
გ	-13309
ხ	-13310
ᄉ	-13311
ᄎ	-13312
ច	-13313
ἱ	-13314
∅	-13315
◁	-13316
◯	-13317
㕎	-13318
㘭	-13319
㰘	-13320
䁥	-13321
卭	-13322
厠	-13323
噯	-13324
囇	-13325
塨	-13326
婑	-13327
嫈	-13328
嫠	-13329
崦	-13330
嵚	-13331
嶮	-13332
巹	-13333
廮	-13334
愃	-13335
慊	-13336
戫	-13337
擣	-13338
敳	-13339
旮	-13340
枨	-13341
椑	-13342
椼	-13343
櫝	-13344
櫲	-13345
歜	-13346
殪	-13347
毳	-13348
沕	-13349
熛	-13350
珔	-13351
琔	-13352
甃	-13353
甭	-13354
畳	-13355
禇	-13356
禘	-13357
禬	-13358
窴	-13359
糢	-13360
纕	-13361
绻	-13362
缌	-13363
罊	-13364
罳	-13365
耏	-13366
耑	-13367
莙	-13368
莰	-13369
蒓	-13370
蒢	-13371
蔟	-13372
薾	-13373
蝈	-13374
蟇	-13375
蠙	-13376
褵	-13377
詘	-13378
謤	-13379
貎	-13380
賧	-13381
逷	-13382
逺	-13383
邐	-13384
鄋	-13385
酏	-13386
錏	-13387
鐠	-13388
鑞	-13389
闗	-13390
隲	-13391
靉	-13392
鞗	-13393
飮	-13394
駼	-13395
騧	-13396
驫	-13397
鬭	-13398
魌	-13399
魕	-13400
鯮	-13401
鷰	-13402
鼙	-13403
龁	-13404
감	-13405
규	-13406
란	-13407
럼	-13408
메	-13409
실	-13410
작	-13411
죽	-13412
플	-13413
함	-13414
허	-13415
헤	-13416
️	-13417
￼	-13418
𡤕	-13419
𣏌	-13420
𥻵	-13421
S	-13422
ď	-13423
ĥ	-13424
ĵ	-13425
ȥ	-13426
ɸ	-13427
ˉ	-13428
̤	-13429
ӈ	-13430
ި	-13431
आ	-13432
ञ	-13433
ள	-13434
ఖ	-13435
ผ	-13436
ཡ	-13437
ྫ	-13438
လ	-13439
ᄌ	-13440
ᅩ	-13441
េ	-13442
ṓ	-13443
ằ	-13444
ẻ	-13445
ὑ	-13446
◌	-13447
⿱	-13448
ゐ	-13449
ㄪ	-13450
㫒	-13451
㬌	-13452
䣓	-13453
丌	-13454
乪	-13455
侉	-13456
剄	-13457
匁	-13458
夛	-13459
妌	-13460
尨	-13461
尫	-13462
廧	-13463
悺	-13464
抔	-13465
掊	-13466
掼	-13467
旴	-13468
昡	-13469
昣	-13470
昻	-13471
栔	-13472
棅	-13473
棆	-13474
椚	-13475
楪	-13476
楶	-13477
榃	-13478
櫳	-13479
欬	-13480
歔	-13481
歯	-13482
氇	-13483
氍	-13484
汋	-13485
洴	-13486
湋	-13487
漋	-13488
潩	-13489
燚	-13490
燡	-13491
爃	-13492
猺	-13493
瑬	-13494
眘	-13495
睟	-13496
碙	-13497
碥	-13498
禆	-13499
稾	-13500
穣	-13501
笤	-13502
筳	-13503
綪	-13504
緃	-13505
緦	-13506
縦	-13507
縶	-13508
罝	-13509
羾	-13510
聱	-13511
舡	-13512
舣	-13513
袷	-13514
裲	-13515
觝	-13516
謅	-13517
诓	-13518
軺	-13519
輄	-13520
轤	-13521
逈	-13522
銙	-13523
钂	-13524
閟	-13525
閧	-13526
頽	-13527
馐	-13528
駸	-13529
骹	-13530
魉	-13531
魠	-13532
鰗	-13533
鲕	-13534
鼕	-13535
齏	-13536
ꙗ	-13537
각	-13538
걸	-13539
된	-13540
목	-13541
북	-13542
알	-13543
억	-13544
온	-13545
커	-13546
할	-13547
𣳫	-13548
𤊟	-13549
𨬔	-13550
𬭸	-13551
U	-13552
ǰ	-13553
ɗ	-13554
̑	-13555
ϊ	-13556
ҙ	-13557
ԓ	-13558
գ	-13559
ڤ	-13560
ް	-13561
ृ	-13562
ం	-13563
ಡ	-13564
ಪ	-13565
ວ	-13566
အ	-13567
ျ	-13568
ᆞ	-13569
ᴇ	-13570
ḇ	-13571
∘	-13572
≦	-13573
ⱨ	-13574
ㆭ	-13575
㮙	-13576
㷩	-13577
㻑	-13578
㻞	-13579
㽏	-13580
䫻	-13581
亷	-13582
佽	-13583
侊	-13584
儵	-13585
刕	-13586
劒	-13587
卺	-13588
呲	-13589
呴	-13590
咛	-13591
哞	-13592
唪	-13593
嚞	-13594
囫	-13595
坰	-13596
塯	-13597
壌	-13598
夀	-13599
嫰	-13600
嫽	-13601
嫿	-13602
嬨	-13603
尟	-13604
屛	-13605
岧	-13606
幤	-13607
弌	-13608
慓	-13609
慬	-13610
戱	-13611
払	-13612
揵	-13613
揾	-13614
擤	-13615
暶	-13616
柶	-13617
棜	-13618
棩	-13619
楒	-13620
槅	-13621
槔	-13622
槜	-13623
櫾	-13624
欐	-13625
氅	-13626
泆	-13627
涍	-13628
渽	-13629
湑	-13630
湲	-13631
漭	-13632
潫	-13633
澋	-13634
澫	-13635
烒	-13636
熀	-13637
燵	-13638
爔	-13639
牋	-13640
犭	-13641
獃	-13642
玪	-13643
玼	-13644
琈	-13645
瑝	-13646
瑧	-13647
瑲	-13648
璚	-13649
瘻	-13650
癯	-13651
眅	-13652
矔	-13653
矬	-13654
矴	-13655
祫	-13656
笭	-13657
箅	-13658
綆	-13659
翛	-13660
艹	-13661
芟	-13662
茕	-13663
蓦	-13664
蔎	-13665
薅	-13666
螵	-13667
衖	-13668
褰	-13669
謦	-13670
踘	-13671
踦	-13672
踭	-13673
酅	-13674
酓	-13675
鉱	-13676
錩	-13677
鍉	-13678
鏼	-13679
鑓	-13680
铦	-13681
阍	-13682
饔	-13683
鷳	-13684
龗	-13685
龺	-13686
ꚗ	-13687
궁	-13688
극	-13689
꿈	-13690
등	-13691
력	-13692
록	-13693
빠	-13694
뿜	-13695
살	-13696
새	-13697
언	-13698
올	-13699
옹	-13700
왜	-13701
응	-13702
잘	-13703
점	-13704
채	-13705
춘	-13706
충	-13707
키	-13708
특	-13709
𠝹	-13710
𡰥	-13711
𣮤	-13712
𤏳	-13713
	-13714
į	-13715
ƣ	-13716
̧	-13717
ѵ	-13718
ղ	-13719
ף	-13720
ܒ	-13721
ܠ	-13722
ܬ	-13723
އ	-13724
މ	-13725
ণ	-13726
ਲ	-13727
ਹ	-13728
அ	-13729
జ	-13730
ಯ	-13731
ສ	-13732
ເ	-13733
ᄐ	-13734
ᅣ	-13735
ᅧ	-13736
ᅳ	-13737
ទ	-13738
ំ	-13739
ṁ	-13740
ẩ	-13741
ὄ	-13742
⇄	-13743
━	-13744
║	-13745
✓	-13746
ㆬ	-13747
㙉	-13748
㙟	-13749
䵋	-13750
佂	-13751
傪	-13752
僡	-13753
僬	-13754
儞	-13755
呌	-13756
咼	-13757
嗬	-13758
嗾	-13759
嘤	-13760
圫	-13761
垶	-13762
埢	-13763
埶	-13764
墈	-13765
嫕	-13766
屦	-13767
屨	-13768
岽	-13769
嶅	-13770
庀	-13771
徤	-13772
怍	-13773
戋	-13774
戣	-13775
搋	-13776
擥	-13777
擻	-13778
斄	-13779
晅	-13780
榲	-13781
歅	-13782
浰	-13783
滻	-13784
漵	-13785
潖	-13786
焻	-13787
煶	-13788
熇	-13789
熞	-13790
熯	-13791
玊	-13792
玏	-13793
瑎	-13794
畵	-13795
瘺	-13796
磱	-13797
祋	-13798
禓	-13799
禖	-13800
秺	-13801
簀	-13802
糉	-13803
糎	-13804
紿	-13805
絣	-13806
縢	-13807
繊	-13808
缷	-13809
翯	-13810
耖	-13811
脁	-13812
脎	-13813
脧	-13814
舻	-13815
艎	-13816
芼	-13817
荂	-13818
莃	-13819
萡	-13820
藟	-13821
藴	-13822
虗	-13823
蟪	-13824
袾	-13825
覔	-13826
訄	-13827
訳	-13828
誐	-13829
諪	-13830
貮	-13831
跽	-13832
蹌	-13833
軑	-13834
輌	-13835
鈋	-13836
鋩	-13837
鑕	-13838
閫	-13839
隞	-13840
馊	-13841
鮚	-13842
鱎	-13843
鳓	-13844
鳣	-13845
鴜	-13846
같	-13847
늘	-13848
룡	-13849
션	-13850
싶	-13851
악	-13852
외	-13853
페	-13854
𡓁	-13855
𢤮	-13856
𤈜	-13857
𨋢	-13858
𨦡	-13859
ģ	-13860
ȳ	-13861
ɓ	-13862
ɫ	-13863
̅	-13864
̲	-13865
͠	-13866
ұ	-13867
ܢ	-13868
উ	-13869
ਸ	-13870
ோ	-13871
మ	-13872
ದ	-13873
ල	-13874
ྟ	-13875
စ	-13876
ᄏ	-13877
ᄑ	-13878
ᅢ	-13879
ᅤ	-13880
ᅥ	-13881
ᅦ	-13882
ᅲ	-13883
ល	-13884
ṉ	-13885
ṳ	-13886
ừ	-13887
ὰ	-13888
ὴ	-13889
∉	-13890
∣	-13891
≅	-13892
❲	-13893
❳	-13894
ⲁ	-13895
ⴰ	-13896
㕭	-13897
㞗	-13898
㳦	-13899
㴱	-13900
㼈	-13901
冋	-13902
冩	-13903
叚	-13904
哝	-13905
嗖	-13906
嚚	-13907
垯	-13908
奡	-13909
奵	-13910
娙	-13911
寕	-13912
岏	-13913
崋	-13914
嶌	-13915
嶹	-13916
巃	-13917
弍	-13918
彍	-13919
怤	-13920
怼	-13921
愻	-13922
懮	-13923
扜	-13924
抻	-13925
挐	-13926
挢	-13927
挼	-13928
捴	-13929
撦	-13930
昍	-13931
暤	-13932
朖	-13933
杩	-13934
梡	-13935
榅	-13936
殢	-13937
淐	-13938
滟	-13939
滶	-13940
澙	-13941
澭	-13942
灜	-13943
煟	-13944
狲	-13945
獍	-13946
玾	-13947
瑂	-13948
璒	-13949
璺	-13950
瓓	-13951
癧	-13952
矓	-13953
砩	-13954
礻	-13955
祃	-13956
窆	-13957
竒	-13958
粛	-13959
絙	-13960
絫	-13961
綡	-13962
绡	-13963
羼	-13964
翈	-13965
聨	-13966
脰	-13967
膣	-13968
臑	-13969
艫	-13970
艼	-13971
芚	-13972
芛	-13973
芿	-13974
荈	-13975
菹	-13976
葊	-13977
蒈	-13978
蒥	-13979
蓧	-13980
蝻	-13981
裰	-13982
襜	-13983
覊	-13984
謌	-13985
謜	-13986
豋	-13987
趖	-13988
跬	-13989
踯	-13990
遝	-13991
酲	-13992
醘	-13993
鋋	-13994
鍭	-13995
鍳	-13996
鐈	-13997
鐏	-13998
鑁	-13999
锬	-14000
镟	-14001
霔	-14002
霬	-14003
餔	-14004
駘	-14005
驂	-14006
鬶	-14007
鮓	-14008
鯕	-14009
鯝	-14010
鰽	-14011
鲦	-14012
鵖	-14013
鹖	-14014
麃	-14015
麤	-14016
鼂	-14017
것	-14018
겨	-14019
련	-14020
른	-14021
매	-14022
먼	-14023
범	-14024
법	-14025
습	-14026
암	-14027
업	-14028
육	-14029
쳐	-14030
편	-14031
표	-14032
항	-14033
𡎊	-14034
𣷭	-14035
𦓿	-14036
ķ	-14037
ŗ	-14038
ɜ	-14039
ʎ	-14040
ʹ	-14041
џ	-14042
ѧ	-14043
ҫ	-14044
ҳ	-14045
ք	-14046
ׂ	-14047
ך	-14048
ރ	-14049
থ	-14050
ஸ	-14051
ீ	-14052
ി	-14053
ත	-14054
ฮ	-14055
ཕ	-14056
ီ	-14057
ფ	-14058
ᅨ	-14059
ᅭ	-14060
ខ	-14061
៊	-14062
ḡ	-14063
ᾶ	-14064
ῥ	-14065
‿	-14066
⇌	-14067
≪	-14068
▼	-14069
ㆢ	-14070
ㆦ	-14071
㖼	-14072
㝢	-14073
㩦	-14074
㮵	-14075
㴭	-14076
䄂	-14077
䛒	-14078
䴈	-14079
亠	-14080
伇	-14081
俤	-14082
儚	-14083
冔	-14084
冦	-14085
冫	-14086
剴	-14087
劔	-14088
匸	-14089
卋	-14090
厯	-14091
咍	-14092
囮	-14093
圬	-14094
垆	-14095
墒	-14096
壡	-14097
奓	-14098
媃	-14099
嬙	-14100
嬡	-14101
嬭	-14102
孭	-14103
崿	-14104
嵜	-14105
帢	-14106
彚	-14107
愽	-14108
扵	-14109
摎	-14110
摵	-14111
柎	-14112
楕	-14113
櫍	-14114
歭	-14115
洈	-14116
浭	-14117
淲	-14118
渃	-14119
溽	-14120
澴	-14121
濋	-14122
灋	-14123
琕	-14124
瑅	-14125
眚	-14126
眵	-14127
禴	-14128
窻	-14129
籣	-14130
粝	-14131
糈	-14132
糨	-14133
緈	-14134
纟	-14135
缋	-14136
胬	-14137
膥	-14138
臶	-14139
苽	-14140
茇	-14141
莋	-14142
菂	-14143
萳	-14144
薘	-14145
薲	-14146
蝤	-14147
裼	-14148
褭	-14149
諠	-14150
譌	-14151
诌	-14152
诮	-14153
踟	-14154
蹀	-14155
輬	-14156
鄳	-14157
釈	-14158
鈏	-14159
鉋	-14160
鋺	-14161
鎜	-14162
鑢	-14163
镔	-14164
镪	-14165
閙	-14166
隤	-14167
靁	-14168
饣	-14169
駃	-14170
駹	-14171
騸	-14172
鱙	-14173
鵶	-14174
鶆	-14175
鸺	-14176
鹍	-14177
鹠	-14178
鹣	-14179
ꚏ	-14180
랜	-14181
밥	-14182
변	-14183
봐	-14184
었	-14185
완	-14186
절	-14187
족	-14188
첫	-14189
판	-14190
︎	-14191
𠙶	-14192
𤄫	-14193
𤊨	-14194
𧊕	-14195
𨻧	-14196
𩻸	-14197
ɽ	-14198
ʥ	-14199
ʯ	-14200
̞	-14201
̠	-14202
ѳ	-14203
җ	-14204
ҧ	-14205
դ	-14206
ץ	-14207
ٌ	-14208
ܡ	-14209
ތ	-14210
ः	-14211
ई	-14212
उ	-14213
ठ	-14214
ौ	-14215
ই	-14216
ষ	-14217
ਦ	-14218
ற	-14219
ூ	-14220
ெ	-14221
ම	-14222
ฑ	-14223
ທ	-14224
ཚ	-14225
ည	-14226
ᅮ	-14227
ን	-14228
ែ	-14229
ᦶ	-14230
ḵ	-14231
ἔ	-14232
‵	-14233
∝	-14234
┴	-14235
▶	-14236
ヱ	-14237
ㆡ	-14238
㝅	-14239
㝬	-14240
㭎	-14241
䗛	-14242
䱂	-14243
侾	-14244
偀	-14245
傯	-14246
儍	-14247
儗	-14248
兟	-14249
凧	-14250
剰	-14251
勧	-14252
卄	-14253
吚	-14254
呓	-14255
嚿	-14256
囔	-14257
囥	-14258
堣	-14259
堩	-14260
塈	-14261
塉	-14262
塝	-14263
墠	-14264
妧	-14265
姃	-14266
尭	-14267
岠	-14268
巆	-14269
弳	-14270
弴	-14271
忄	-14272
忮	-14273
怩	-14274
愦	-14275
憯	-14276
戙	-14277
揷	-14278
敇	-14279
斁	-14280
晬	-14281
暀	-14282
暭	-14283
枲	-14284
栯	-14285
椝	-14286
榚	-14287
欵	-14288
歂	-14289
洇	-14290
涫	-14291
灴	-14292
煓	-14293
爇	-14294
牓	-14295
犘	-14296
犫	-14297
狆	-14298
狯	-14299
珘	-14300
琭	-14301
瑥	-14302
畎	-14303
畺	-14304
瞀	-14305
瞾	-14306
矼	-14307
砑	-14308
硗	-14309
秌	-14310
稭	-14311
笵	-14312
篸	-14313
簌	-14314
簖	-14315
籩	-14316
糁	-14317
綀	-14318
繮	-14319
纒	-14320
翜	-14321
翷	-14322
艻	-14323
芏	-14324
菍	-14325
萏	-14326
藳	-14327
虘	-14328
蚆	-14329
蚖	-14330
蛲	-14331
蜧	-14332
蝪	-14333
螲	-14334
蟧	-14335
蟫	-14336
觱	-14337
誚	-14338
讠	-14339
贋	-14340
蹓	-14341
躝	-14342
轢	-14343
郙	-14344
鄹	-14345
醸	-14346
鈒	-14347
鈥	-14348
鋉	-14349
鋡	-14350
鍗	-14351
锿	-14352
閇	-14353
阭	-14354
鞲	-14355
鞶	-14356
頞	-14357
颃	-14358
颿	-14359
驽	-14360
魦	-14361
鲯	-14362
鶖	-14363
鶡	-14364
黢	-14365
黮	-14366
鿍	-14367
겠	-14368
곁	-14369
넘	-14370
님	-14371
류	-14372
망	-14373
몰	-14374
못	-14375
밀	-14376
봄	-14377
브	-14378
않	-14379
았	-14380
웅	-14381
책	-14382
출	-14383
탄	-14384
탑	-14385
패	-14386
풍	-14387
필	-14388
🏆	-14389
𠐓	-14390
𧯄	-14391
𨰥	-14392
𩵦	-14393
𪘅	-14394
G	-14395
ɥ	-14396
ɳ	-14397
ґ	-14398
ӄ	-14399
ӳ	-14400
ԑ	-14401
խ	-14402
ֲ	-14403
ڈ	-14404
ۋ	-14405
ނ	-14406
ங	-14407
న	-14408
ಮ	-14409
റ	-14410
ฉ	-14411
ຈ	-14412
ີ	-14413
່	-14414
້	-14415
ཐ	-14416
ཛ	-14417
ံ	-14418
့	-14419
္	-14420
დ	-14421
ᄆ	-14422
ር	-14423
ᐃ	-14424
៉	-14425
ṡ	-14426
ṫ	-14427
ẳ	-14428
₤	-14429
∽	-14430
≫	-14431
▽	-14432
◾	-14433
☂	-14434
☑	-14435
⻍	-14436
ぉ	-14437
ヂ	-14438
㑹	-14439
㗰	-14440
㘵	-14441
㝉	-14442
㠱	-14443
㮣	-14444
㴐	-14445
㵑	-14446
㻗	-14447
㼎	-14448
㽘	-14449
䐶	-14450
䗴	-14451
侒	-14452
倴	-14453
僇	-14454
冂	-14455
冖	-14456
凵	-14457
刂	-14458
剀	-14459
劖	-14460
厶	-14461
呠	-14462
唰	-14463
嗏	-14464
嗳	-14465
嘵	-14466
噙	-14467
嚫	-14468
圐	-14469
圙	-14470
垐	-14471
垾	-14472
埱	-14473
婻	-14474
媟	-14475
孁	-14476
寁	-14477
岊	-14478
岍	-14479
岕	-14480
峼	-14481
巪	-14482
帞	-14483
幇	-14484
幚	-14485
庼	-14486
弰	-14487
弽	-14488
彐	-14489
彟	-14490
恝	-14491
愀	-14492
拃	-14493
拕	-14494
拡	-14495
揃	-14496
搣	-14497
擿	-14498
昛	-14499
曛	-14500
朞	-14501
枌	-14502
枖	-14503
桮	-14504
梈	-14505
棖	-14506
棷	-14507
椐	-14508
榱	-14509
槢	-14510
檇	-14511
汏	-14512
淰	-14513
澺	-14514
濍	-14515
濳	-14516
煿	-14517
爓	-14518
狌	-14519
獮	-14520
獳	-14521
璻	-14522
癈	-14523
眏	-14524
眴	-14525
睗	-14526
瞟	-14527
礌	-14528
祦	-14529
穄	-14530
穇	-14531
筸	-14532
筻	-14533
箆	-14534
篰	-14535
籖	-14536
糭	-14537
縕	-14538
绁	-14539
缞	-14540
羮	-14541
翂	-14542
肈	-14543
肭	-14544
胲	-14545
脞	-14546
臙	-14547
茖	-14548
荗	-14549
蔍	-14550
蕆	-14551
蕸	-14552
蘘	-14553
蘺	-14554
虁	-14555
虖	-14556
虮	-14557
裬	-14558
襃	-14559
襉	-14560
襍	-14561
襷	-14562
觏	-14563
觶	-14564
賰	-14565
赪	-14566
趆	-14567
蹚	-14568
躓	-14569
躥	-14570
轕	-14571
遫	-14572
邔	-14573
銕	-14574
鋳	-14575
鍧	-14576
钘	-14577
锞	-14578
镢	-14579
閽	-14580
霶	-14581
韈	-14582
韾	-14583
頏	-14584
餳	-14585
駈	-14586
骟	-14587
髳	-14588
魖	-14589
鰉	-14590
鹲	-14591
黹	-14592
鼗	-14593
齑	-14594
ꙑ	-14595
누	-14596
번	-14597
벌	-14598
빙	-14599
쇼	-14600
슈	-14601
쓰	-14602
찌	-14603
탕	-14604
퍼	-14605
혼	-14606
휘	-14607
𠵼	-14608
𢀛	-14609
𣉙	-14610
𤧛	-14611
𧨳	-14612
𬉺	-14613
𬓑	-14614
ƶ	-14615
ɟ	-14616
ʧ	-14617
̋	-14618
ϝ	-14619
ѕ	-14620
҉	-14621
ӑ	-14622
ӧ	-14623
ӱ	-14624
շ	-14625
ֱ	-14626
،	-14627
ٱ	-14628
ދ	-14629
ލ	-14630
ए	-14631
ঁ	-14632
ও	-14633
ধ	-14634
ৰ	-14635
ਗ	-14636
இ	-14637
ಬ	-14638
ක	-14639
ර	-14640
ව	-14641
ฐ	-14642
ฝ	-14643
๊	-14644
ກ	-14645
ັ	-14646
ິ	-14647
ཞ	-14648
ྤ	-14649
ခ	-14650
သ	-14651
ွ	-14652
ှ	-14653
პ	-14654
ራ	-14655
ደ	-14656
យ	-14657
អ	-14658
ួ	-14659
ᥰ	-14660
ẫ	-14661
ẹ	-14662
ỷ	-14663
↺	-14664
∫	-14665
∵	-14666
≧	-14667
☉	-14668
ⲉ	-14669
ⲟ	-14670
ㆤ	-14671
㘃	-14672
㙔	-14673
㬙	-14674
㮒	-14675
㷧	-14676
䄄	-14677
䐾	-14678
䢿	-14679
䤈	-14680
䵍	-14681
亁	-14682
亍	-14683
佴	-14684
俔	-14685
俽	-14686
偱	-14687
僦	-14688
剅	-14689
劦	-14690
呒	-14691
呖	-14692
咘	-14693
唅	-14694
唊	-14695
啇	-14696
嘣	-14697
嚻	-14698
囵	-14699
坣	-14700
垇	-14701
塁	-14702
夊	-14703
奼	-14704
娖	-14705
嫒	-14706
尃	-14707
峮	-14708
嵨	-14709
弶	-14710
徃	-14711
忪	-14712
怫	-14713
恾	-14714
悕	-14715
愭	-14716
慱	-14717
慿	-14718
戠	-14719
扙	-14720
掻	-14721
撺	-14722
擞	-14723
擼	-14724
攟	-14725
攵	-14726
晭	-14727
朒	-14728
枠	-14729
枿	-14730
椬	-14731
楛	-14732
榤	-14733
槑	-14734
樴	-14735
檰	-14736
欑	-14737
殑	-14738
汈	-14739
涴	-14740
漌	-14741
潪	-14742
澨	-14743
灂	-14744
灉	-14745
炑	-14746
烶	-14747
焐	-14748
煆	-14749
煋	-14750
煑	-14751
煠	-14752
熉	-14753
燆	-14754
狴	-14755
猋	-14756
玅	-14757
玱	-14758
珆	-14759
瑹	-14760
瓅	-14761
疬	-14762
痆	-14763
瘣	-14764
眎	-14765
矰	-14766
砳	-14767
碞	-14768
磉	-14769
磏	-14770
礵	-14771
禸	-14772
秾	-14773
稑	-14774
穨	-14775
窬	-14776
竃	-14777
竉	-14778
篼	-14779
綳	-14780
绠	-14781
耇	-14782
胠	-14783
舠	-14784
芺	-14785
莤	-14786
葠	-14787
蔯	-14788
藶	-14789
螬	-14790
衂	-14791
裀	-14792
裖	-14793
裥	-14794
裵	-14795
褀	-14796
褆	-14797
褍	-14798
襕	-14799
谼	-14800
踣	-14801
踬	-14802
踽	-14803
蹛	-14804
躦	-14805
轇	-14806
轓	-14807
辀	-14808
逴	-14809
邧	-14810
酔	-14811
醖	-14812
釒	-14813
釚	-14814
鈖	-14815
鈡	-14816
銏	-14817
鋬	-14818
錣	-14819
钭	-14820
锳	-14821
閿	-14822
阨	-14823
靱	-14824
餜	-14825
餼	-14826
饍	-14827
饜	-14828
饢	-14829
馇	-14830
馯	-14831
骎	-14832
髄	-14833
鯸	-14834
鰼	-14835
鱓	-14836
鲞	-14837
鵩	-14838
鹆	-14839
麑	-14840
갑	-14841
결	-14842
골	-14843
균	-14844
끝	-14845
끼	-14846
뉴	-14847
담	-14848
든	-14849
또	-14850
랐	-14851
붐	-14852
센	-14853
엑	-14854
엘	-14855
였	-14856
쟁	-14857
줄	-14858
클	-14859
틱	-14860
힘	-14861
𡐤	-14862
𡩀	-14863
𡪿	-14864
𢣴	-14865
𣎴	-14866
𥚃	-14867
𧊒	-14868
𩷕	-14869
ƴ	-14870
ǃ	-14871
ɴ	-14872
ʽ	-14873
ϙ	-14874
ѓ	-14875
ѡ	-14876
ѽ	-14877
ҷ	-14878
ӓ	-14879
ې	-14880
ܫ	-14881
छ	-14882
।	-14883
খ	-14884
ঙ	-14885
চ	-14886
ਜ	-14887
గ	-14888
వ	-14889
ీ	-14890
ಲ	-14891
ಳ	-14892
ಸ	-14893
න	-14894
ස	-14895
ພ	-14896
ཉ	-14897
ཏ	-14898
ྡ	-14899
ძ	-14900
ᒃ	-14901
ដ	-14902
ᦺ	-14903
ḻ	-14904
ẖ	-14905
ỗ	-14906
ỵ	-14907
ἁ	-14908
ὕ	-14909
‭	-14910
↦	-14911
∷	-14912
⊿	-14913
ⲓ	-14914
ⲛ	-14915
ⵉ	-14916
ⵔ	-14917
ぅ	-14918
ㆨ	-14919
㒜	-14920
㝝	-14921
㵂	-14922
㺹	-14923
㼅	-14924
䂮	-14925
䄔	-14926
䲀	-14927
䵺	-14928
俒	-14929
俢	-14930
俧	-14931
倰	-14932
偒	-14933
偾	-14934
傴	-14935
僄	-14936
呯	-14937
唻	-14938
啐	-14939
噂	-14940
囀	-14941
坜	-14942
埓	-14943
埫	-14944
塛	-14945
塰	-14946
墐	-14947
墣	-14948
墺	-14949
壖	-14950
夑	-14951
媗	-14952
媸	-14953
嬾	-14954
孆	-14955
孶	-14956
宂	-14957
寈	-14958
屮	-14959
嵮	-14960
嶁	-14961
嶐	-14962
嶰	-14963
巄	-14964
廎	-14965
恮	-14966
惢	-14967
愓	-14968
憮	-14969
扌	-14970
抋	-14971
拠	-14972
捦	-14973
掤	-14974
揠	-14975
撀	-14976
昤	-14977
曡	-14978
朅	-14979
杁	-14980
枒	-14981
枻	-14982
椛	-14983
椳	-14984
楎	-14985
槫	-14986
