<pad>	0
<unk>	0
[CLS]	0
[SEP]	0
[MASK]	0
(	0
)	0
”	0
-	0
.	0
–	0
£	0
€	0
20	-0
19	-1
201	-2
200	-3
▁19	-4
的一	-5
10	-6
▁在	-7
人口	-8
an	-9
中国	-10
18	-11
er	-12
12	-13
▁201	-14
公里	-15
in	-16
00	-17
or	-18
on	-19
可以	-20
11	-21
公司	-22
日本	-23
政府	-24
平方	-25
是一	-26
第一	-27
使用	-28
香港	-29
ar	-30
15	-31
以及	-32
▁200	-33
其中	-34
en	-35
la	-36
平方公里	-37
包括	-38
16	-39
st	-40
主要	-41
世界	-42
人民	-43
位於	-44
的一个	-45
17	-46
美國	-47
部分	-48
研究	-49
al	-50
▁他	-51
199	-52
14	-53
30	-54
at	-55
其他	-56
第二	-57
▁c	-58
大学	-59
因此	-60
13	-61
一个	-62
▁t	-63
代表	-64
一個	-65
中國	-66
▁s	-67
美国	-68
工作	-69
ic	-70
地区	-71
政治	-72
le	-73
成為	-74
位于	-75
自己	-76
中心	-77
re	-78
之一	-79
中的	-80
▁m	-81
開始	-82
可能	-83
成立	-84
台灣	-85
不同	-86
25	-87
he	-88
▁此	-89
」,	-90
ro	-91
国家	-92
中央	-93
▁《	-94
198	-95
for	-96
大學	-97
it	-98
行政	-99
表示	-100
他的	-101
50	-102
mu	-103
is	-104
共和	-105
文化	-106
▁p	-107
▁该	-108
地區	-109
年的	-110
▁这	-111
am	-112
」。	-113
21	-114
年代	-115
▁b	-116
24	-117
國家	-118
开始	-119
沒有	-120
進行	-121
▁由	-122
管理	-123
上的	-124
委员	-125
所有	-126
▁199	-127
正式	-128
面积	-129
▁d	-130
提供	-131
进行	-132
因為	-133
成为	-134
北京	-135
23	-136
市镇	-137
城市	-138
作品	-139
電影	-140
也是	-141
》,	-142
28	-143
面積	-144
電視	-145
一些	-146
教育	-147
、《	-148
認為	-149
▁但	-150
ac	-151
大的	-152
mula	-153
▁而	-154
formula	-155
es	-156
26	-157
el	-158
,200	-159
目前	-160
人的	-161
27	-162
足球	-163
當時	-164
un	-165
以下	-166
第三	-167
之後	-168
▁這	-169
上海	-170
下辖	-171
197	-172
▁同	-173
他們	-174
as	-175
学院	-176
重要	-177
工程	-178
ol	-179
没有	-180
40	-181
22	-182
行星	-183
國際	-184
60	-185
生活	-186
密度	-187
il	-188
海拔	-189
ch	-190
獲得	-191
方面	-192
通过	-193
負責	-194
人物	-195
获得	-196
29	-197
到了	-198
支持	-199
運動	-200
000	-201
ion	-202
英國	-203
铁路	-204
是在	-205
加入	-206
▁198	-207
zh	-208
高度	-209
法国	-210
et	-211
事件	-212
時間	-213
▁h	-214
》、《	-215
系列	-216
大利	-217
需要	-218
建立	-219
认为	-220
印度	-221
人口密度	-222
一般	-223
地方	-224
發展	-225
的人	-226
▁g	-227
▁o	-228
▁其	-229
系統	-230
单位	-231
擔任	-232
最高	-233
臺灣	-234
作为	-235
稱為	-236
北部	-237
他们	-238
▁大	-239
100	-240
中華	-241
194	-242
31	-243
分布	-244
完成	-245
中华	-246
南部	-247
自由	-248
音樂	-249
成功	-250
▁本	-251
例如	-252
us	-253
全国	-254
主教	-255
小行星	-256
国际	-257
最後	-258
有一	-259
▁w	-260
共和国	-261
要求	-262
om	-263
斯特	-264
▁f	-265
方式	-266
受到	-267
發現	-268
作為	-269
委员会	-270
設計	-271
的大	-272
通常	-273
所以	-274
系统	-275
存在	-276
就是	-277
建筑	-278
▁a	-279
运动	-280
之后	-281
委員	-282
出版	-283
and	-284
了一	-285
同時	-286
ed	-287
ur	-288
学名	-289
ing	-290
民主	-291
二十	-292
出現	-293
▁194	-294
196	-295
属于	-296
然而	-297
車站	-298
前往	-299
屬於	-300
另外	-301
id	-302
总面积	-303
的是	-304
後來	-305
35	-306
形成	-307
航空	-308
提出	-309
195	-310
》。	-311
主义	-312
组织	-313
該國	-314
是由	-315
中共	-316
1,	-317
合作	-318
历史	-319
民國	-320
2010	-321
社會	-322
▁18	-323
ad	-324
▁n	-325
得到	-326
出生	-327
遊戲	-328
70	-329
的一个市镇	-330
担任	-331
参加	-332
具有	-333
控制	-334
期間	-335
世纪	-336
植物	-337
女性	-338
德国	-339
主席	-340
▁l	-341
经济	-342
地的	-343
社会	-344
发展	-345
造成	-346
2011	-347
除了	-348
取得	-349
許多	-350
只有	-351
80	-352
海拔高度	-353
有限	-354
ent	-355
節目	-356
革命	-357
交通	-358
游戏	-359
学校	-360
影響	-361
年人口	-362
设计	-363
名的	-364
根據	-365
电影	-366
因为	-367
:“	-368
ig	-369
專輯	-370
成員	-371
管轄	-372
接受	-373
一直	-374
西班	-375
比賽	-376
西班牙	-377
任何	-378
的一個	-379
英国	-380
故事	-381
▁不	-382
位於該國	-383
角色	-384
發生	-385
歌曲	-386
当时	-387
时间	-388
如果	-389
自己的	-390
增加	-391
活動	-392
發行	-393
ow	-394
▁它	-395
首次	-396
宣布	-397
附近	-398
发现	-399
服務	-400
但是	-401
十二	-402
根据	-403
另一	-404
▁"	-405
人民共和国	-406
37	-407
2019	-408
之間	-409
▁阿	-410
38	-411
平均	-412
冠軍	-413
ra	-414
都是	-415
非常	-416
時期	-417
之前	-418
▁該	-419
公路	-420
▁195	-421
称为	-422
36	-423
尼亞	-424
也有	-425
同时	-426
製作	-427
版本	-428
ut	-429
雖然	-430
os	-431
參與	-432
學校	-433
已經	-434
名為	-435
舉行	-436
▁the	-437
居民	-438
由於	-439
中华人民共和国	-440
為了	-441
歷史	-442
問題	-443
im	-444
進入	-445
重新	-446
民族	-447
自治	-448
出的	-449
90	-450
▁197	-451
參加	-452
關係	-453
▁of	-454
▁有	-455
iv	-456
▁此外	-457
甚至	-458
組織	-459
34	-460
技术	-461
年至	-462
已经	-463
直接	-464
新的	-465
街道	-466
世紀	-467
不是	-468
負責管轄	-469
保护	-470
方法	-471
时期	-472
經濟	-473
▁k	-474
大量	-475
完全	-476
生物	-477
這個	-478
共有	-479
建築	-480
教授	-481
期间	-482
主任	-483
2012	-484
影响	-485
位置	-486
这个	-487
发生	-488
最佳	-489
39	-490
並且	-491
第四	-492
分別	-493
美元	-494
學生	-495
之间	-496
決定	-497
od	-498
不能	-499
包含	-500
一起	-501
:「	-502
br	-503
战争	-504
法院	-505
2,	-506
问题	-507
车站	-508
变化	-509
电视	-510
克斯	-511
最終	-512
ot	-513
安全	-514
形式	-515
45	-516
學院	-517
ir	-518
這些	-519
出现	-520
性的	-521
ia	-522
▁196	-523
直到	-524
▁由於	-525
的地	-526
han	-527
利用	-528
共同	-529
▁然而	-530
两个	-531
太平	-532
下的	-533
主義	-534
48	-535
西部	-536
有限公司	-537
尼亚	-538
总人口	-539
自然	-540
解放	-541
大陆	-542
三年	-543
2009	-544
政治人物	-545
后来	-546
兩個	-547
省的一个市镇	-548
2016	-549
书记	-550
的情	-551
法國	-552
國民	-553
音乐	-554
委員會	-555
中華民國	-556
擁有	-557
能力	-558
联合	-559
2014	-560
进入	-561
他在	-562
基本	-563
科学	-564
選舉	-565
罗斯	-566
2013	-567
33	-568
▁」	-569
意大利	-570
再次	-571
日在	-572
下辖的一个	-573
女子	-574
em	-575
歐洲	-576
很多	-577
通過	-578
2015	-579
时的	-580
球隊	-581
会议	-582
法律	-583
利亚	-584
活动	-585
——	-586
功能	-587
使得	-588
希望	-589
蒙古	-590
文物	-591
最终	-592
,《	-593
的主	-594
▁其中	-595
许多	-596
计划	-597
ec	-598
進士	-599
32	-600
特別	-601
時代	-602
这些	-603
▁同年	-604
一次	-605
▁v	-606
定的	-607
一年	-608
作用	-609
德國	-610
拉斯	-611
共产	-612
羅斯	-613
政策	-614
聯合	-615
戰爭	-616
▁in	-617
推出	-618
op	-619
不同的	-620
浙江	-621
成的	-622
▁st	-623
2008	-624
2000	-625
ap	-626
巴士	-627
▁2013	-628
方向	-629
對於	-630
而且	-631
演出	-632
聯賽	-633
斯坦	-634
英文	-635
鐵路	-636
的新	-637
▁新	-638
ag	-639
▁2016	-640
官方	-641
第十	-642
um	-643
▁李	-644
獨立	-645
無法	-646
唯一	-647
,000	-648
主持	-649
名为	-650
等地	-651
▁她	-652
是一个	-653
仍然	-654
ation	-655
,“	-656
基督	-657
的名	-658
服务	-659
用于	-660
列车	-661
來自	-662
比赛	-663
领导	-664
的特	-665
第一次	-666
相同	-667
▁曾	-668
▁另外	-669
ip	-670
全球	-671
年在	-672
男性	-673
博物	-674
早期	-675
道路	-676
级行政	-677
宗教	-678
加拿	-679
2017	-680
▁2015	-681
▁j	-682
由于	-683
学家	-684
▁當	-685
、「	-686
模式	-687
▁2014	-688
現在	-689
利亞	-690
總統	-691
或者	-692
天主教	-693
西北	-694
下辖以下	-695
决定	-696
計劃	-697
部份	-698
最大	-699
產生	-700
乡镇	-701
2001	-702
同年	-703
▁2012	-704
▁2010	-705
每平方公里	-706
大多	-707
四川	-708
一種	-709
青年	-710
南京	-711
75	-712
議員	-713
原因	-714
學家	-715
高速	-716
是下辖的一个	-717
是一個	-718
2007	-719
聯盟	-720
人口为	-721
越南	-722
西南	-723
65	-724
学生	-725
最初	-726
播出	-727
賽事	-728
开发	-729
指出	-730
▁总面积	-731
天文	-732
演唱	-733
▁自	-734
博士	-735
司令	-736
是法国	-737
歌手	-738
▁2017	-739
等人	-740
毕业	-741
欧洲	-742
生产	-743
关系	-744
去世	-745
公共	-746
这一	-747
全部	-748
家庭	-749
2018	-750
▁e	-751
▁,	-752
行的	-753
2006	-754
明朝	-755
独立	-756
▁2011	-757
机车	-758
190	-759
下辖以下地区	-760
%,	-761
個人	-762
地球	-763
集團	-764
四年	-765
藝術	-766
結束	-767
制度	-768
艺术	-769
▁2018	-770
州市	-771
人士	-772
并且	-773
清朝	-774
集团	-775
死亡	-776
ul	-777
最后	-778
列表	-779
建设	-780
级行政单位	-781
物理	-782
結果	-783
開發	-784
分别	-785
加拿大	-786
▁小行星	-787
成员	-788
乡镇级行政单位	-789
者的	-790
千米	-791
畢業	-792
一名	-793
里斯	-794
▁2008	-795
克蘭	-796
海軍	-797
为了	-798
的主要	-799
葡萄	-800
▁4	-801
中国大陆	-802
路線	-803
人口密度每平方公里	-804
生產	-805
速度	-806
天津	-807
▁由于	-808
中文	-809
男子	-810
采用	-811
是下辖的一个乡镇级行政单位	-812
科技	-813
阿拉	-814
多的	-815
相關	-816
行動	-817
傳統	-818
格蘭	-819
超過	-820
公尺	-821
▁王	-822
繼續	-823
描述	-824
透過	-825
出身	-826
亞洲	-827
韓國	-828
美洲	-829
%。	-830
並在	-831
th	-832
演員	-833
共产党	-834
土地	-835
▁r	-836
大陸	-837
有的	-838
下的一个	-839
父親	-840
技術	-841
47	-842
产生	-843
ist	-844
结构	-845
▁3	-846
單位	-847
河南	-848
教堂	-849
最早	-850
來的	-851
工业	-852
机构	-853
列車	-854
採用	-855
福建	-856
年起	-857
项目	-858
」、「	-859
改革	-860
年度	-861
外交	-862
動畫	-863
46	-864
三十	-865
羅馬	-866
av	-867
導致	-868
俄罗斯	-869
第五	-870
55	-871
▁是	-872
子的	-873
家族	-874
2005	-875
oc	-876
作家	-877
熱帶	-878
联赛	-879
te	-880
▁目前	-881
經過	-882
太平洋	-883
立法	-884
▁formula	-885
共和國	-886
图示	-887
og	-888
人口变化	-889
▁2	-890
大部分	-891
東京	-892
ter	-893
人口变化图示	-894
斯科	-895
▁根據	-896
最大的	-897
地下	-898
命名	-899
設有	-900
ak	-901
表演	-902
苏联	-903
的小	-904
以上	-905
ie	-906
公園	-907
总统	-908
语言	-909
台北	-910
單曲	-911
引起	-912
機場	-913
加上	-914
新聞	-915
▁该市镇	-916
元年	-917
每年	-918
西亚	-919
导致	-920
玩家	-921
▁西	-922
中部	-923
3,	-924
五年	-925
著名	-926
ay	-927
組成	-928
年时的	-929
ce	-930
▁南	-931
身份	-932
皇帝	-933
取代	-934
第二次	-935
距離	-936
動物	-937
拥有	-938
负责	-939
烏克蘭	-940
▁因此	-941
信息	-942
山东	-943
的一部分	-944
不少	-945
500	-946
▁一	-947
建於	-948
居住	-949
建造	-950
議會	-951
警察	-952
加坡	-953
月台	-954
公開	-955
型的	-956
回到	-957
▁2009	-958
多次	-959
对于	-960
她的	-961
至今	-962
数据	-963
人員	-964
,19	-965
▁8	-966
军事	-967
95	-968
是中国	-969
出任	-970
▁6	-971
之外	-972
▁1	-973
內容	-974
現時	-975
分析	-976
舉辦	-977
主角	-978
帝國	-979
可以指	-980
語言	-981
相當	-982
攻擊	-983
ab	-984
遭到	-985
重要的	-986
是指	-987
唱片	-988
ers	-989
西亞	-990
民国	-991
左右	-992
年时的人口为	-993
ov	-994
面的	-995
發表	-996
必須	-997
武器	-998
国民	-999
在此	-1000
有關	-1001
的第一	-1002
於是	-1003
資料	-1004
机场	-1005
的首	-1006
當地	-1007
制作	-1008
團體	-1009
组成	-1010
處理	-1011
▁5	-1012
出了	-1013
顯示	-1014
俄羅斯	-1015
参与	-1016
任命	-1017
ub	-1018
▁卡	-1019
部队	-1020
反应	-1021
64	-1022
联邦	-1023
部长	-1024
原本	-1025
98	-1026
▁2007	-1027
紀錄	-1028
来自	-1029
sp	-1030
罗马	-1031
十分	-1032
排名	-1033
分子	-1034
动物	-1035
二年	-1036
星期	-1037
分為	-1038
帝国	-1039
68	-1040
还有	-1041
兄弟	-1042
广东	-1043
戰鬥	-1044
人员	-1045
科的	-1046
棲息	-1047
流域	-1048
概念	-1049
計畫	-1050
內的	-1051
2004	-1052
▁re	-1053
the	-1054
伊斯	-1055
部隊	-1056
关于	-1057
标准	-1058
影片	-1059
會議	-1060
bo	-1061
毫米	-1062
▁高	-1063
範圍	-1064
改為	-1065
目的	-1066
▁7	-1067
湖南	-1068
计算	-1069
球队	-1070
普查	-1071
海军	-1072
发布	-1073
▁巴	-1074
99	-1075
公分	-1076
中学	-1077
保持	-1078
保護	-1079
小說	-1080
所在	-1081
朝鲜	-1082
的前	-1083
澳門	-1084
▁2006	-1085
人在	-1086
調查	-1087
我们	-1088
44	-1089
一步	-1090
学习	-1091
过程	-1092
拍攝	-1093
大会	-1094
▁2019	-1095
曾經	-1096
和平	-1097
虽然	-1098
▁<	-1099
創作	-1100
佛教	-1101
將軍	-1102
ard	-1103
hk	-1104
冠军	-1105
ind	-1106
来的	-1107
祖父	-1108
好的	-1109
用的	-1110
董事	-1111
精神	-1112
日至	-1113
交易	-1114
新加坡	-1115
限制	-1116
程序	-1117
78	-1118
基地	-1119
经过	-1120
市場	-1121
可達	-1122
標準	-1123
初期	-1124
属的	-1125
斯基	-1126
當中	-1127
思想	-1128
▁根据	-1129
、“	-1130
这种	-1131
军队	-1132
力量	-1133
人類	-1134
紀念	-1135
东北	-1136
结束	-1137
元素	-1138
羽毛	-1139
全國	-1140
▁但是	-1141
區域	-1142
平台	-1143
网络	-1144
▁and	-1145
发行	-1146
ii	-1147
▁10	-1148
及其	-1149
決賽	-1150
现代	-1151
化的	-1152
為主	-1153
理论	-1154
tw	-1155
分布于	-1156
基金	-1157
我們	-1158
▁三	-1159
區負責管轄	-1160
▁!	-1161
中學	-1162
則是	-1163
漫畫	-1164
父亲	-1165
▁以	-1166
普通	-1167
一位	-1168
環境	-1169
現代	-1170
都有	-1171
或是	-1172
行為	-1173
不久	-1174
日起	-1175
专业	-1176
解放军	-1177
sa	-1178
76	-1179
並於	-1180
只是	-1181
威廉	-1182
媒體	-1183
協會	-1184
力的	-1185
又名	-1186
超过	-1187
中国人民	-1188
现在	-1189
49	-1190
ge	-1191
巴西	-1192
用於	-1193
继续	-1194
举行	-1195
平方千米	-1196
程度	-1197
58	-1198
臺北	-1199
非洲	-1200
300	-1201
因而	-1202
的高	-1203
公元	-1204
号线	-1205
選擇	-1206
▁9	-1207
並不	-1208
世界大	-1209
年被	-1210
教區	-1211
電子	-1212
表現	-1213
小時	-1214
球員	-1215
反對	-1216
随后	-1217
▁当	-1218
,「	-1219
部的	-1220
二世	-1221
六年	-1222
,2001	-1223
节目	-1224
還有	-1225
▁北	-1226
拉克	-1227
,2009	-1228
联盟	-1229
▁中	-1230
巴黎	-1231
企业	-1232
同意	-1233
西省	-1234
指挥	-1235
不過	-1236
▁雖然	-1237
是否	-1238
夏季	-1239
▁至	-1240
也被	-1241
se	-1242
art	-1243
德里	-1244
不可	-1245
流行	-1246
如下	-1247
▁“	-1248
接近	-1249
南極	-1250
阿尔	-1251
反对	-1252
能夠	-1253
▁小	-1254
内的	-1255
ud	-1256
▁布	-1257
離開	-1258
斯的	-1259
是烏克蘭	-1260
科學	-1261
隨著	-1262
不明	-1263
区域	-1264
曾在	-1265
少年	-1266
ik	-1267
群島	-1268
但在	-1269
它的	-1270
軍事	-1271
公布	-1272
投入	-1273
传统	-1274
殖民	-1275
太阳	-1276
up	-1277
▁马	-1278
快速	-1279
過程	-1280
區的	-1281
名稱	-1282
方案	-1283
基础	-1284
all	-1285
王朝	-1286
後的	-1287
公园	-1288
ne	-1289
著名的	-1290
ba	-1291
qu	-1292
▁「	-1293
▁安	-1294
方的	-1295
使用的	-1296
56	-1297
特别	-1298
知道	-1299
建于	-1300
纪念	-1301
达到	-1302
交流	-1303
第六	-1304
尚未	-1305
文件	-1306
大型	-1307
氧化	-1308
公主	-1309
ph	-1310
▁金	-1311
▁天	-1312
葡萄牙	-1313
2003	-1314
首都	-1315
有效	-1316
="	-1317
擊敗	-1318
是以	-1319
協助	-1320
支援	-1321
是烏克蘭的	-1322
江苏	-1323
城鎮	-1324
體育	-1325
改为	-1326
返回	-1327
項目	-1328
工業	-1329
电子	-1330
色的	-1331
事務	-1332
ill	-1333
樂團	-1334
并在	-1335
各地	-1336
這種	-1337
na	-1338
▁前	-1339
韩国	-1340
製造	-1341
集中	-1342
下午	-1343
州的	-1344
機構	-1345
妻子	-1346
始建於	-1347
if	-1348
42	-1349
市的	-1350
海岸	-1351
保留	-1352
85	-1353
海域	-1354
的女	-1355
时代	-1356
皇家	-1357
批准	-1358
ss	-1359
執行	-1360
▁。	-1361
投票	-1362
办公	-1363
分布於	-1364
澳大利	-1365
分为	-1366
ok	-1367
設立	-1368
太陽	-1369
,199	-1370
成了	-1371
▁从	-1372
云南	-1373
地位	-1374
大臣	-1375
材料	-1376
河北	-1377
研究所	-1378
年間	-1379
一世	-1380
直至	-1381
▁de	-1382
興建	-1383
年以	-1384
▁於	-1385
鰭魚	-1386
不再	-1387
正在	-1388
相关	-1389
发表	-1390
96	-1391
公民	-1392
环境	-1393
播放	-1394
一樣	-1395
设立	-1396
sh	-1397
如此	-1398
林匹	-1399
村落	-1400
職業	-1401
類似	-1402
不會	-1403
ine	-1404
操作	-1405
生涯	-1406
77	-1407
化学	-1408
核心	-1409
下的一个种	-1410
只能	-1411
斯克	-1412
重建	-1413
的一座	-1414
輻鰭魚	-1415
银行	-1416
hans	-1417
輻鰭魚綱	-1418
协会	-1419
量的	-1420
是一種	-1421
處於	-1422
2002	-1423
的意	-1424
理論	-1425
停止	-1426
体育	-1427
提高	-1428
米的	-1429
地震	-1430
尤其	-1431
訓練	-1432
水域	-1433
▁2005	-1434
是日本	-1435
程式	-1436
自治区	-1437
未能	-1438
上映	-1439
实验	-1440
體長	-1441
再度	-1442
羽毛球	-1443
▁12	-1444
文物保护	-1445
und	-1446
企業	-1447
实际	-1448
銀行	-1449
ang	-1450
日的	-1451
收入	-1452
的研究	-1453
",	-1454
台湾	-1455
運動員	-1456
軍隊	-1457
東北	-1458
生长	-1459
是位於	-1460
經營	-1461
:00	-1462
引擎	-1463
▁香港	-1464
實際	-1465
十年	-1466
时候	-1467
基督教	-1468
主演	-1469
人工	-1470
命令	-1471
将军	-1472
亦有	-1473
高等	-1474
失去	-1475
ice	-1476
東南	-1477
林匹克	-1478
效力	-1479
▁该市镇总面积	-1480
调查	-1481
前的	-1482
錦標	-1483
結構	-1484
以外	-1485
▁190	-1486
十八	-1487
的方式	-1488
注意	-1489
结果	-1490
新闻	-1491
導演	-1492
国王	-1493
高的	-1494
4,	-1495
制造	-1496
中山	-1497
▁ch	-1498
各種	-1499
字母	-1500
范围	-1501
文物保护单位	-1502
处理	-1503
43	-1504
97	-1505
年间	-1506
簡稱	-1507
内容	-1508
《》	-1509
西藏	-1510
飾演	-1511
86	-1512
股份	-1513
ct	-1514
統治	-1515
当地	-1516
广州	-1517
▁圣	-1518
设有	-1519
持續	-1520
俱乐	-1521
連續	-1522
医院	-1523
情况	-1524
▁例如	-1525
電腦	-1526
职业	-1527
伯特	-1528
朋友	-1529
小时	-1530
南北	-1531
是一位	-1532
逐漸	-1533
空间	-1534
广场	-1535
時候	-1536
为主	-1537
商業	-1538
大道	-1539
英語	-1540
▁他在	-1541
逝世	-1542
无法	-1543
▁拉	-1544
指揮	-1545
文章	-1546
是一种	-1547
也在	-1548
路易	-1549
▁不過	-1550
▁如果	-1551
▁馬	-1552
空間	-1553
广播	-1554
澳洲	-1555
one	-1556
选择	-1557
媒体	-1558
生命	-1559
赛季	-1560
名字	-1561
yo	-1562
57	-1563
三個	-1564
市场	-1565
分鐘	-1566
朝鮮	-1567
隨後	-1568
移民	-1569
一度	-1570
随着	-1571
隧道	-1572
體長可達	-1573
學習	-1574
;}	-1575
斯卡	-1576
约翰	-1577
加利	-1578
某些	-1579
母親	-1580
倫敦	-1581
兩人	-1582
它们	-1583
▁的	-1584
英格蘭	-1585
等等	-1586
类似	-1587
66	-1588
看到	-1589
得以	-1590
瑞典	-1591
轨道	-1592
▁和	-1593
取消	-1594
選區	-1595
成績	-1596
飛機	-1597
▁17	-1598
▁全	-1599
的原	-1600
行动	-1601
合物	-1602
有些	-1603
曾任	-1604
41	-1605
過去	-1606
地利	-1607
著作	-1608
▁克	-1609
避免	-1610
ma	-1611
其中男性	-1612
国务	-1613
不得	-1614
知名	-1615
一同	-1616
▁原	-1617
规模	-1618
古代	-1619
宣佈	-1620
高雄	-1621
博物馆	-1622
嚴重	-1623
普遍	-1624
▁上	-1625
森林	-1626
湖北	-1627
当选	-1628
容易	-1629
人民政府	-1630
ber	-1631
▁他的	-1632
尼斯	-1633
皇后	-1634
之間的	-1635
文字	-1636
目標	-1637
建成	-1638
國王	-1639
运动员	-1640
蘇聯	-1641
是一名	-1642
ht	-1643
中国共产党	-1644
消息	-1645
1990	-1646
墨西	-1647
西方	-1648
ant	-1649
阿拉伯	-1650
市民	-1651
乘客	-1652
执行	-1653
可能是	-1654
文学	-1655
相似	-1656
1980	-1657
▁因	-1658
区的	-1659
▁伊	-1660
基礎	-1661
▁2004	-1662
之下	-1663
67	-1664
產品	-1665
姆斯	-1666
西洋	-1667
醫院	-1668
的第	-1669
提升	-1670
孩子	-1671
线路	-1672
人口普查	-1673
改變	-1674
科的其中	-1675
俱乐部	-1676
特殊	-1677
旅客	-1678
先后	-1679
文學	-1680
其它	-1681
廣播	-1682
超級	-1683
的海	-1684
菲律	-1685
行为	-1686
专辑	-1687
娛樂	-1688
士兵	-1689
人大	-1690
瑞士	-1691
紐約	-1692
網路	-1693
实现	-1694
任务	-1695
山脈	-1696
中共中央	-1697
出口	-1698
夫卡	-1699
选举	-1700
電視劇	-1701
乾隆	-1702
生于	-1703
必须	-1704
七年	-1705
高中	-1706
本身	-1707
兒子	-1708
委会	-1709
小的	-1710
热带	-1711
機會	-1712
应用	-1713
产品	-1714
中有	-1715
希臘	-1716
▁除了	-1717
连接	-1718
星等	-1719
而是	-1720
九龍	-1721
统治	-1722
1999	-1723
任務	-1724
不足	-1725
雜誌	-1726
商业	-1727
迅速	-1728
墨西哥	-1729
能够	-1730
尔德	-1731
尽管	-1732
酒店	-1733
▁后	-1734
三个	-1735
儿子	-1736
其後	-1737
提名	-1738
月至	-1739
恢复	-1740
59	-1741
金融	-1742
同一	-1743
模型	-1744
严重	-1745
ver	-1746
战斗	-1747
而被	-1748
爾斯	-1749
信仰	-1750
球會	-1751
细胞	-1752
廣東	-1753
境内	-1754
水平	-1755
创作	-1756
有关	-1757
禁止	-1758
報告	-1759
展開	-1760
是一颗	-1761
合併	-1762
表面	-1763
个人	-1764
警方	-1765
九年	-1766
都市	-1767
為輻鰭魚綱	-1768
色列	-1769
蛋白	-1770
安排	-1771
約翰	-1772
的地方	-1773
89	-1774
比較	-1775
150	-1776
io	-1777
之中	-1778
1998	-1779
工具	-1780
經常	-1781
运行	-1782
400	-1783
按照	-1784
de	-1785
▁後來	-1786
的事	-1787
这样	-1788
高速公路	-1789
宇宙	-1790
國立	-1791
纽约	-1792
各种	-1793
埃及	-1794
议会	-1795
▁與	-1796
年底	-1797
▁光	-1798
基因	-1799
▁11	-1800
小说	-1801
匈牙	-1802
領導	-1803
马来	-1804
社区	-1805
安徽	-1806
深圳	-1807
▁zh	-1808
51	-1809
學者	-1810
背景	-1811
也可以	-1812
匈牙利	-1813
函数	-1814
的重要	-1815
組合	-1816
ian	-1817
54	-1818
完整	-1819
阿爾	-1820
东南	-1821
显示	-1822
陸軍	-1823
▁以下	-1824
69	-1825
决赛	-1826
是烏克蘭的村落	-1827
87	-1828
▁每	-1829
一定	-1830
投资	-1831
會在	-1832
中国人民解放军	-1833
視為	-1834
定义	-1835
英雄	-1836
希腊	-1837
拉丁	-1838
▁to	-1839
又稱	-1840
报道	-1841
線的	-1842
于是	-1843
斯塔	-1844
规定	-1845
錦標賽	-1846
感到	-1847
后的	-1848
演员	-1849
53	-1850
部门	-1851
品牌	-1852
ows	-1853
▁2003	-1854
1997	-1855
維持	-1856
荷蘭	-1857
62	-1858
年由	-1859
帮助	-1860
并不	-1861
淡水	-1862
之间的	-1863
人类	-1864
至少	-1865
太子	-1866
東部	-1867
地铁	-1868
规划	-1869
先生	-1870
大使	-1871
公司的	-1872
建議	-1873
用户	-1874
人和	-1875
ive	-1876
bs	-1877
▁為	-1878
吸引	-1879
运营	-1880
有所	-1881
第七	-1882
多年	-1883
縣人	-1884
52	-1885
心理	-1886
開放	-1887
才能	-1888
之子	-1889
ell	-1890
自行	-1891
英尺	-1892
記載	-1893
比利	-1894
ack	-1895
co	-1896
十一	-1897
細胞	-1898
自動	-1899
長的	-1900
坦克	-1901
特的	-1902
格兰	-1903
情況	-1904
▁明	-1905
而言	-1906
授予	-1907
達到	-1908
人们	-1909
定義	-1910
德语	-1911
学位	-1912
河畔	-1913
▁中国	-1914
北京市	-1915
的外	-1916
規模	-1917
如何	-1918
▁陳	-1919
實驗	-1920
效果	-1921
白色	-1922
报告	-1923
比如	-1924
表现	-1925
遗址	-1926
國民黨	-1927
作曲	-1928
作者	-1929
ta	-1930
條約	-1931
都會	-1932
反應	-1933
合并	-1934
抗日	-1935
發動	-1936
十字	-1937
平方米	-1938
▁16	-1939
国务院	-1940
以來	-1941
▁當時	-1942
尔斯	-1943
階段	-1944
逐渐	-1945
報導	-1946
的山	-1947
棲息在	-1948
十六	-1949
工人	-1950
批評	-1951
est	-1952
79	-1953
贏得	-1954
連接	-1955
彼得	-1956
配合	-1957
飞机	-1958
入侵	-1959
▁日本	-1960
更加	-1961
72	-1962
风格	-1963
運動會	-1964
距离	-1965
將其	-1966
领域	-1967
整個	-1968
届全国	-1969
▁海	-1970
发动	-1971
贝尔	-1972
電視台	-1973
編號	-1974
▁從	-1975
▁据	-1976
十三	-1977
設施	-1978
土耳	-1979
投資	-1980
網站	-1981
設置	-1982
▁之後	-1983
61	-1984
com	-1985
设置	-1986
牠們	-1987
理事	-1988
ib	-1989
土耳其	-1990
正常	-1991
資訊	-1992
貿易	-1993
:"	-1994
教會	-1995
开放	-1996
很快	-1997
需求	-1998
获得了	-1999
聯邦	-2000
風格	-2001
的作品	-2002
科的其中一種	-2003
一种	-2004
tr	-2005
离开	-2006
更多	-2007
的三	-2008
,18	-2009
太空	-2010
一帶	-2011
设备	-2012
88	-2013
缺乏	-2014
而在	-2015
▁ro	-2016
被称为	-2017
的分	-2018
▁与	-2019
然後	-2020
万人	-2021
父母	-2022
並沒有	-2023
举办	-2024
規定	-2025
業務	-2026
夫人	-2027
計算	-2028
▁科	-2029
的中	-2030
記者	-2031
indows	-2032
有人	-2033
因素	-2034
的一种	-2035
健康	-2036
整个	-2037
同樣	-2038
,198	-2039
照片	-2040
爆发	-2041
減少	-2042
oh	-2043
▁2000	-2044
▁二	-2045
路口	-2046
即使	-2047
星等为	-2048
一样	-2049
加盟	-2050
加利福	-2051
找到	-2052
收錄	-2053
相信	-2054
也不	-2055
记载	-2056
然后	-2057
全面	-2058
當選	-2059
颱風	-2060
住宅	-2061
延伸	-2062
營運	-2063
晚上	-2064
ity	-2065
他們的	-2066
南方	-2067
还是	-2068
降低	-2069
中國大陸	-2070
修改	-2071
戰後	-2072
旗下	-2073
进行了	-2074
能量	-2075
參賽	-2076
爆發	-2077
1970	-2078
▁林	-2079
92	-2080
▁除	-2081
一座	-2082
战役	-2083
重点	-2084
真正	-2085
奥运	-2086
年前	-2087
柏林	-2088
飛行	-2089
部落	-2090
▁下	-2091
大致	-2092
▁这些	-2093
被稱為	-2094
山大	-2095
疾病	-2096
首先	-2097
大樓	-2098
個月	-2099
图书	-2100
少女	-2101
▁主要	-2102
go	-2103
所有的	-2104
比亞	-2105
那些	-2106
农业	-2107
舞台	-2108
ex	-2109
物種	-2110
镇下辖以下地区	-2111
简称	-2112
71	-2113
▁第	-2114
馬來	-2115
出生于	-2116
原子	-2117
人民共和國	-2118
出席	-2119
河流	-2120
统一	-2121
▁白	-2122
犹太	-2123
相比	-2124
球季	-2125
74	-2126
属下的一个种	-2127
出道	-2128
和其他	-2129
表明	-2130
作戰	-2131
cn	-2132
软件	-2133
▁2002	-2134
改善	-2135
man	-2136
▁清	-2137
形目	-2138
截至	-2139
63	-2140
大約	-2141
變化	-2142
▁唐	-2143
一家	-2144
▁第一	-2145
應用	-2146
重庆	-2147
代理	-2148
生的	-2149
入口	-2150
三角	-2151
幾乎	-2152
期的	-2153
▁多	-2154
兒童	-2155
度的	-2156
是香港	-2157
明朝政治人物	-2158
拉夫	-2159
汽車	-2160
相對	-2161
的情況	-2162
戰役	-2163
加州	-2164
這樣	-2165
秘密	-2166
▁正	-2167
首府	-2168
演唱會	-2169
一段	-2170
法案	-2171
代码	-2172
海外	-2173
条件	-2174
亞目	-2175
國會	-2176
最多	-2177
十五	-2178
新疆	-2179
统计	-2180
广泛	-2181
lo	-2182
以色列	-2183
用來	-2184
▁如	-2185
球場	-2186
委书记	-2187
運輸	-2188
混合	-2189
布拉	-2190
指定	-2191
火箭	-2192
93	-2193
1996	-2194
毕业于	-2195
發射	-2196
比例	-2197
▁埃	-2198
被迫	-2199
73	-2200
儘管	-2201
資格	-2202
狀態	-2203
關於	-2204
英语	-2205
這是	-2206
改編	-2207
的故事	-2208
84	-2209
年初	-2210
在大	-2211
軌道	-2212
形象	-2213
印尼	-2214
的成	-2215
了一个	-2216
维尔	-2217
面積為	-2218
||	-2219
▁x	-2220
83	-2221
出生於	-2222
ong	-2223
▁东	-2224
lay	-2225
1000	-2226
1994	-2227
廣告	-2228
示威	-2229
宣传	-2230
▁這些	-2231
同盟	-2232
ich	-2233
江西	-2234
突然	-2235
年輕	-2236
繼承	-2237
▁张	-2238
▁2001	-2239
地理	-2240
家的	-2241
比较	-2242
波兰	-2243
so	-2244
扮演	-2245
邀請	-2246
食物	-2247
位于中国	-2248
81	-2249
康熙	-2250
體的	-2251
▁嘉	-2252
準備	-2253
94	-2254
涉及	-2255
总理	-2256
秘书	-2257
的工作	-2258
投降	-2259
犯罪	-2260
中国大陆的	-2261
风暴	-2262
82	-2263
得知	-2264
符合	-2265
天皇	-2266
國的	-2267
幫助	-2268
军区	-2269
爆炸	-2270
海洋	-2271
展示	-2272
改造	-2273
综合	-2274
隸屬於	-2275
母亲	-2276
莫斯科	-2277
曾经	-2278
而該	-2279
未來	-2280
喬治	-2281
提到	-2282
武汉	-2283
相对	-2284
政府的	-2285
上有	-2286
汽车	-2287
固定	-2288
半島	-2289
恐怖	-2290
状态	-2291
司法	-2292
比亚	-2293
博物館	-2294
先後	-2295
時的	-2296
▁al	-2297
創立	-2298
君主	-2299
銷售	-2300
兼任	-2301
▁哈	-2302
亚洲	-2303
作出	-2304
安德	-2305
的數	-2306
觀眾	-2307
1995	-2308
西南部	-2309
ry	-2310
电视台	-2311
这是	-2312
進攻	-2313
城镇	-2314
将其	-2315
亨利	-2316
▁格	-2317
火山	-2318
▁for	-2319
、、	-2320
多个	-2321
將會	-2322
年開始	-2323
澳大利亚	-2324
十四	-2325
西北部	-2326
栽培	-2327
圖書	-2328
次年	-2329
tv	-2330
end	-2331
北方	-2332
pe	-2333
协议	-2334
网站	-2335
鄉試	-2336
就讀	-2337
州府	-2338
州的一个市镇	-2339
空中	-2340
化石	-2341
拒絕	-2342
習性	-2343
地面	-2344
而不	-2345
史上	-2346
▁la	-2347
国的	-2348
官員	-2349
年到	-2350
廣場	-2351
月初	-2352
可以在	-2353
ug	-2354
贸易	-2355
在日本	-2356
ps	-2357
180	-2358
源自	-2359
▁張	-2360
列入	-2361
頻道	-2362
主要是	-2363
ho	-2364
▁为	-2365
奪得	-2366
:30	-2367
保存	-2368
国内	-2369
相当	-2370
的城鎮	-2371
小學	-2372
依然	-2373
物种	-2374
▁後	-2375
條件	-2376
目标	-2377
總督	-2378
广西	-2379
▁他們	-2380
▁若	-2381
退休	-2382
還是	-2383
攻击	-2384
资源	-2385
式的	-2386
生於	-2387
机关	-2388
總部	-2389
学者	-2390
課程	-2391
经常	-2392
舰队	-2393
深度	-2394
600	-2395
▁20	-2396
挪威	-2397
年後	-2398
不斷	-2399
建制	-2400
發售	-2401
地区的	-2402
評論	-2403
的情况	-2404
在其	-2405
▁現	-2406
业务	-2407
建設	-2408
上海市	-2409
氣象	-2410
解決	-2411
飞行	-2412
應該	-2413
金屬	-2414
上市	-2415
体的	-2416
大會	-2417
ff	-2418
專業	-2419
留下	-2420
年夏季	-2421
近年	-2422
部門	-2423
解釋	-2424
ck	-2425
退出	-2426
世界上	-2427
ign	-2428
也就是	-2429
官员	-2430
走向	-2431
逮捕	-2432
價值	-2433
山西	-2434
运输	-2435
黑色	-2436
ast	-2437
空軍	-2438
三世	-2439
治療	-2440
票房	-2441
變成	-2442
▁co	-2443
下降	-2444
塞尔	-2445
▁到	-2446
sc	-2447
▁斯	-2448
國內	-2449
天的	-2450
持续	-2451
5,	-2452
ri	-2453
附近的	-2454
以北	-2455
重大	-2456
以前	-2457
選手	-2458
ate	-2459
討論	-2460
her	-2461
派遣	-2462
用作	-2463
特里	-2464
▁同时	-2465
為一	-2466
群岛	-2467
▁他们	-2468
1993	-2469
鐵道	-2470
在香港	-2471
通道	-2472
相互	-2473
而成	-2474
克里	-2475
他们的	-2476
议员	-2477
▁德	-2478
东部	-2479
八年	-2480
私人	-2481
病毒	-2482
记录	-2483
步兵	-2484
赢得	-2485
代表大会	-2486
主題	-2487
几乎	-2488
生活習性	-2489
合成	-2490
法的	-2491
往往	-2492
浙江省	-2493
导演	-2494
120	-2495
解决	-2496
行政區	-2497
亦是	-2498
以来	-2499
朝廷	-2500
▁pro	-2501
训练	-2502
長期	-2503
生活習性不明	-2504
也會	-2505
类型	-2506
被認為	-2507
奧運	-2508
年世界	-2509
月的	-2510
int	-2511
它們	-2512
91	-2513
明治	-2514
領域	-2515
座標	-2516
▁虽然	-2517
▁同時	-2518
的名字	-2519
規劃	-2520
be	-2521
▁元	-2522
食品	-2523
▁第二	-2524
cd	-2525
破壞	-2526
▁古	-2527
平原	-2528
恢復	-2529
车辆	-2530
▁15	-2531
車輛	-2532
案件	-2533
计算机	-2534
占领	-2535
多個	-2536
部長	-2537
體系	-2538
市政府	-2539
1991	-2540
恆星	-2541
來說	-2542
客运	-2543
撤销	-2544
克拉	-2545
對手	-2546
以後	-2547
常見	-2548
▁后来	-2549
政协	-2550
波蘭	-2551
艦隊	-2552
共產	-2553
移動	-2554
空军	-2555
▁分布于	-2556
ly	-2557
法官	-2558
陆军	-2559
加拉	-2560
多數	-2561
拍摄	-2562
了解	-2563
旅游	-2564
杂志	-2565
电力	-2566
1992	-2567
原名	-2568
▁周	-2569
最近	-2570
身體	-2571
民眾	-2572
維亞	-2573
6,	-2574
例子	-2575
統一	-2576
上下	-2577
事故	-2578
阶段	-2579
外的	-2580
名称	-2581
基于	-2582
針對	-2583
雙方	-2584
1900	-2585
記錄	-2586
退役	-2587
配音	-2588
廣泛	-2589
上午	-2590
▁另一	-2591
並非	-2592
無綫	-2593
ran	-2594
进攻	-2595
800	-2596
主要的	-2597
mar	-2598
立即	-2599
▁普	-2600
马来西亚	-2601
农村	-2602
月球	-2603
ace	-2604
内部	-2605
出演	-2606
大西洋	-2607
教練	-2608
公开	-2609
臺中	-2610
成立於	-2611
菲律賓	-2612
第二次世界大	-2613
申請	-2614
▁1949	-2615
給予	-2616
频道	-2617
分钟	-2618
准备	-2619
破坏	-2620
▁当时	-2621
挑戰	-2622
城堡	-2623
卡斯	-2624
御史	-2625
▁hd	-2626
不到	-2627
继承	-2628
是德国	-2629
源于	-2630
▁因為	-2631
爭議	-2632
伊朗	-2633
下令	-2634
中華人民共和國	-2635
确定	-2636
大约	-2637
基於	-2638
方言	-2639
南極洲	-2640
刺史	-2641
威尔	-2642
冬季	-2643
▁1999	-2644
ue	-2645
转的	-2646
拒绝	-2647
日治	-2648
飓风	-2649
家人	-2650
實施	-2651
科学院	-2652
▁这个	-2653
努力	-2654
▁一般	-2655
▁可	-2656
自身	-2657
▁這個	-2658
per	-2659
引入	-2660
特拉	-2661
特色	-2662
的不	-2663
結婚	-2664
cl	-2665
西安	-2666
▁米	-2667
人數	-2668
坐标	-2669
作战	-2670
水库	-2671
武装	-2672
解散	-2673
青岛	-2674
排行	-2675
歡迎	-2676
▁le	-2677
以南	-2678
資源	-2679
是美國	-2680
利益	-2681
在一	-2682
中被	-2683
▁劉	-2684
同性	-2685
義大利	-2686
▁com	-2687
王國	-2688
▁其他	-2689
十九	-2690
吉林	-2691
数学	-2692
現象	-2693
师范	-2694
发现了	-2695
改变	-2696
生长于	-2697
允许	-2698
从而	-2699
宣傳	-2700
方便	-2701
物質	-2702
柴油	-2703
windows	-2704
伦敦	-2705
器的	-2706
的一種	-2707
日军	-2708
丈夫	-2709
1960	-2710
事業	-2711
成本	-2712
▁1998	-2713
地區的	-2714
保守	-2715
現場	-2716
留在	-2717
洛杉	-2718
四川省	-2719
ga	-2720
ke	-2721
一切	-2722
合約	-2723
成都	-2724
穆斯	-2725
議院	-2726
并于	-2727
ort	-2728
▁永	-2729
哈尔	-2730
里的	-2731
击败	-2732
波斯	-2733
第八	-2734
貝爾	-2735
克的	-2736
分類	-2737
设施	-2738
评论	-2739
山东省	-2740
是美国	-2741
更新	-2742
產業	-2743
起来	-2744
德的	-2745
措施	-2746
設備	-2747
son	-2748
▁此后	-2749
已被	-2750
建立了	-2751
▁艾	-2752
发射	-2753
用来	-2754
enter	-2755
日軍	-2756
已有	-2757
從事	-2758
二人	-2759
公爵	-2760
說法	-2761
we	-2762
▁th	-2763
位于该	-2764
me	-2765
各自	-2766
感染	-2767
数量	-2768
证明	-2769
電台	-2770
一致	-2771
助理	-2772
阻止	-2773
出版社	-2774
小型	-2775
建议	-2776
事务	-2777
弟弟	-2778
原住	-2779
修正	-2780
石油	-2781
分配	-2782
bc	-2783
承認	-2784
站台	-2785
图书馆	-2786
化學	-2787
宪法	-2788
賽季	-2789
瓦尔	-2790
副主任	-2791
东西	-2792
少數	-2793
突破	-2794
萬人	-2795
平面	-2796
人們	-2797
有時	-2798
的水	-2799
连续	-2800
恒星	-2801
內部	-2802
升格	-2803
ord	-2804
▁奥	-2805
只要	-2806
原始	-2807
▁朱	-2808
▁東	-2809
前身	-2810
海道	-2811
ft	-2812
大幅	-2813
玻璃	-2814
殖民地	-2815
德拉	-2816
▁ar	-2817
国会	-2818
的时候	-2819
上陣	-2820
演奏	-2821
进一步	-2822
五月	-2823
化合物	-2824
房屋	-2825
▁现	-2826
引种	-2827
自动	-2828
中华民国	-2829
而非	-2830
第一個	-2831
小组	-2832
創辦	-2833
年時	-2834
▁為了	-2835
绕太阳	-2836
公安	-2837
增长	-2838
為止	-2839
▁據	-2840
明顯	-2841
▁1990	-2842
並未	-2843
毛泽	-2844
本土	-2845
1945	-2846
召开	-2847
起來	-2848
ire	-2849
▁黃	-2850
風暴	-2851
天文台	-2852
接替	-2853
调整	-2854
美軍	-2855
运动会	-2856
ont	-2857
面對	-2858
集合	-2859
尼克	-2860
▁而在	-2861
利斯	-2862
立方	-2863
ep	-2864
▁奧	-2865
ect	-2866
上述	-2867
派出	-2868
衝突	-2869
转的小行星	-2870
特定	-2871
隊的	-2872
到达	-2873
家中	-2874
很大	-2875
高级	-2876
圖書館	-2877
年和	-2878
尤其是	-2879
發電	-2880
批评	-2881
文明	-2882
由人工	-2883
制的	-2884
办公室	-2885
星系	-2886
参加了	-2887
利的	-2888
▁一些	-2889
被认为	-2890
广东省	-2891
軟體	-2892
副主席	-2893
提供了	-2894
服役	-2895
爵士	-2896
荷兰	-2897
參選	-2898
的影響	-2899
商品	-2900
結合	-2901
喜歡	-2902
臺南	-2903
毛泽东	-2904
性能	-2905
nba	-2906
佔領	-2907
兩種	-2908
col	-2909
▁美國	-2910
制定	-2911
历史上	-2912
引种栽培	-2913
ix	-2914
管理局	-2915
是南極洲	-2916
大小	-2917
▁弗	-2918
主張	-2919
属的植物	-2920
改制	-2921
市中心	-2922
的影响	-2923
由人工引种栽培	-2924
同样	-2925
城区	-2926
測試	-2927
爾蘭	-2928
▁is	-2929
公元前	-2930
武帝	-2931
民間	-2932
淘汰	-2933
每个	-2934
地鐵	-2935
修建	-2936
進一步	-2937
打算	-2938
▁波	-2939
用途	-2940
的手	-2941
▁四	-2942
婚姻	-2943
座標為	-2944
年后	-2945
接收	-2946
分裂	-2947
数字	-2948
他是	-2949
推動	-2950
hr	-2951
ure	-2952
名單	-2953
登上	-2954
的神	-2955
的城市	-2956
雷斯	-2957
的支持	-2958
接任	-2959
临时	-2960
产业	-2961
學位	-2962
绝对	-2963
长期	-2964
是一座	-2965
早年	-2966
舞蹈	-2967
7,	-2968
最低	-2969
發出	-2970
江苏省	-2971
机械	-2972
卫星	-2973
试图	-2974
1989	-2975
历任	-2976
含有	-2977
生存	-2978
的同	-2979
资格	-2980
过程中	-2981
成立的	-2982
位於該國西部	-2983
互相	-2984
以后	-2985
政黨	-2986
成为了	-2987
出售	-2988
纪录	-2989
联系	-2990
▁聖	-2991
指示	-2992
暴力	-2993
上升	-2994
生成	-2995
令人	-2996
儿童	-2997
奧林匹克	-2998
得名	-2999
為熱帶	-3000
今日	-3001
蒙特	-3002
農業	-3003
▁尽管	-3004
▁刘	-3005
从事	-3006
失敗	-3007
這一	-3008
的方法	-3009
ha	-3010
王子	-3011
穆斯林	-3012
▁14	-3013
洛克	-3014
▁其後	-3015
1950	-3016
反映	-3017
▁y	-3018
杭州	-3019
得到了	-3020
▁col	-3021
勢力	-3022
我的	-3023
尼亞州	-3024
ore	-3025
ust	-3026
移动	-3027
金牌	-3028
裝甲	-3029
的一些	-3030
不断	-3031
臨時	-3032
ess	-3033
位于该省	-3034
ty	-3035
办理	-3036
穩定	-3037
證明	-3038
第一个	-3039
厘米	-3040
來源	-3041
▁美国	-3042
本地	-3043
游泳	-3044
食用	-3045
▁1950	-3046
访问	-3047
联合国	-3048
方程	-3049
▁法	-3050
市區	-3051
▁be	-3052
160	-3053
意志	-3054
辽宁	-3055
靠近	-3056
愛爾蘭	-3057
1988	-3058
目前尚未	-3059
又称	-3060
社區	-3061
詹姆斯	-3062
支流	-3063
理想	-3064
胜利	-3065
卡拉	-3066
1985	-3067
下一	-3068
協議	-3069
運作	-3070
保障	-3071
lin	-3072
其中一	-3073
在美國	-3074
▁加	-3075
出來	-3076
桃園	-3077
十二年	-3078
廣州	-3079
張專輯	-3080
古典	-3081
ass	-3082
港口	-3083
的政治	-3084
是一部	-3085
▁1996	-3086
亞歷	-3087
設於	-3088
最後一	-3089
行政院	-3090
塞爾	-3091
有著	-3092
都在	-3093
完工	-3094
根廷	-3095
物质	-3096
四十	-3097
的第二	-3098
理解	-3099
职务	-3100
列為	-3101
北美	-3102
旅行	-3103
表達	-3104
net	-3105
的历史	-3106
▁1997	-3107
ux	-3108
马克	-3109
觀察	-3110
考慮	-3111
拆除	-3112
起义	-3113
勝利	-3114
mo	-3115
維爾	-3116
,197	-3117
球员	-3118
的天	-3119
日期	-3120
州刺史	-3121
放棄	-3122
藝人	-3123
贵州	-3124
米的地区	-3125
克里斯	-3126
社会主义	-3127
▁宋	-3128
的時候	-3129
偶像	-3130
不过	-3131
南非	-3132
大区	-3133
患者	-3134
在一起	-3135
pa	-3136
解释	-3137
生长于海拔	-3138
管辖	-3139
结合	-3140
金山	-3141
长江	-3142
应该	-3143
狀況	-3144
馬來西亞	-3145
▁石	-3146
▁不久	-3147
国防	-3148
抵抗	-3149
中最	-3150
定居	-3151
▁山	-3152
他被	-3153
以此	-3154
估計	-3155
减少	-3156
来说	-3157
確定	-3158
教宗	-3159
明星	-3160
内蒙古	-3161
教学	-3162
高級	-3163
當時的	-3164
这里	-3165
每個	-3166
目前尚未由人工引种栽培	-3167
的角色	-3168
▁沙	-3169
在中国	-3170
实施	-3171
消失	-3172
所屬	-3173
科夫	-3174
翻译	-3175
是意大利	-3176
天下	-3177
大多数	-3178
日正式	-3179
卡尔	-3180
另有	-3181
綜合	-3182
脂鯉	-3183
俱樂	-3184
吸收	-3185
股份有限公司	-3186
旅遊	-3187
引發	-3188
本人	-3189
競爭	-3190
▁0	-3191
路段	-3192
"。	-3193
▁年	-3194
▁/	-3195
校长	-3196
駕駛	-3197
通用	-3198
▁1980	-3199
列出	-3200
经营	-3201
立法會	-3202
团体	-3203
大廈	-3204
昭和	-3205
标志	-3206
機械	-3207
加入了	-3208
必要	-3209
ond	-3210
▁之后	-3211
知识	-3212
议院	-3213
候選	-3214
创办	-3215
袭击	-3216
相同的	-3217
1949	-3218
大獎	-3219
試圖	-3220
到達	-3221
的重	-3222
动画	-3223
意外	-3224
政权	-3225
辦公	-3226
副书记	-3227
河南省	-3228
不会	-3229
執導	-3230
▁为了	-3231
▁截至	-3232
jr	-3233
iz	-3234
主力	-3235
觀測	-3236
▁水	-3237
意思	-3238
收集	-3239
组建	-3240
司令部	-3241
即位	-3242
到的	-3243
学会	-3244
威爾	-3245
教会	-3246
方面的	-3247
年美國	-3248
学术	-3249
质量	-3250
常委	-3251
而不是	-3252
劳动	-3253
布里	-3254
创建	-3255
办事	-3256
更名为	-3257
強烈	-3258
團隊	-3259
多人	-3260
校長	-3261
機關	-3262
,195	-3263
小組	-3264
伊斯蘭	-3265
▁1945	-3266
冰川	-3267
持有	-3268
les	-3269
▁黑	-3270
量子	-3271
天堂	-3272
沿海	-3273
▁台灣	-3274
分布在	-3275
年开始	-3276
的部分	-3277
中期	-3278
新竹	-3279
奥地利	-3280
1987	-3281
下了	-3282
总部	-3283
經驗	-3284
专家	-3285
首播	-3286
首相	-3287
to	-3288
两种	-3289
价值	-3290
能源	-3291
啟用	-3292
实行	-3293
鎮區	-3294
地點	-3295
考古	-3296
乐队	-3297
ight	-3298
_1	-3299
环形	-3300
質量	-3301
金属	-3302
五十	-3303
理工	-3304
西斯	-3305
的位置	-3306
单曲	-3307
港元	-3308
几个	-3309
每天	-3310
乔治	-3311
市长	-3312
戲劇	-3313
是西班牙	-3314
▁羅	-3315
層水域	-3316
多数	-3317
的原因	-3318
未知	-3319
▁1995	-3320
dv	-3321
▁长	-3322
魚類	-3323
▁陈	-3324
为中国	-3325
本站	-3326
華人	-3327
的形式	-3328
什么	-3329
编辑	-3330
以上的	-3331
原住民	-3332
ith	-3333
京都	-3334
信号	-3335
hant	-3336
事實	-3337
劇情	-3338
年时的人口为人	-3339
医学	-3340
年齡	-3341
收購	-3342
泰國	-3343
派的	-3344
傳說	-3345
维亚	-3346
维奇	-3347
數量	-3348
萨克	-3349
大阪	-3350
主持人	-3351
大多數	-3352
國防	-3353
常见	-3354
其中包括	-3355
陷入	-3356
在美国	-3357
大夫	-3358
裝置	-3359
▁黄	-3360
平衡	-3361
承认	-3362
時任	-3363
700	-3364
舉行的	-3365
紅色	-3366
訪問	-3367
防止	-3368
ens	-3369
命名為	-3370
進士出身	-3371
▁相	-3372
参谋	-3373
ies	-3374
▁sp	-3375
城的	-3376
现象	-3377
▁un	-3378
而該地的	-3379
知縣	-3380
▁主	-3381
動作	-3382
發布	-3383
統計	-3384
乡下辖以下地区	-3385
收藏	-3386
民主黨	-3387
▁1994	-3388
▁u	-3389
設定	-3390
攝影	-3391
公交	-3392
半岛	-3393
位的	-3394
升任	-3395
接觸	-3396
1986	-3397
中式	-3398
其實	-3399
就在	-3400
權力	-3401
甘肃	-3402
亿元	-3403
阿根廷	-3404
并没有	-3405
更多的	-3406
长的	-3407
會有	-3408
經歷	-3409
▁i	-3410
古老	-3411
表达	-3412
▁罗	-3413
翻譯	-3414
唐朝	-3415
四個	-3416
女兒	-3417
簡單	-3418
试验	-3419
司馬	-3420
的最	-3421
則為	-3422
财政	-3423
舉人	-3424
花園	-3425
使用者	-3426
▁帕	-3427
▁成	-3428
9,	-3429
坐标为	-3430
教育部	-3431
研究院	-3432
創造	-3433
壓力	-3434
王国	-3435
▁文	-3436
抵達	-3437
本科	-3438
少数	-3439
布尔	-3440
獎項	-3441
發起	-3442
總理	-3443
網絡	-3444
条约	-3445
此外	-3446
學名	-3447
英里	-3448
▁最後	-3449
8,	-3450
商人	-3451
▁1992	-3452
法庭	-3453
伊斯兰	-3454
俱樂部	-3455
地圖	-3456
省的	-3457
函數	-3458
约为	-3459
act	-3460
▁1993	-3461
信號	-3462
形容	-3463
》、	-3464
出戰	-3465
氣旋	-3466
省道	-3467
首席	-3468
工廠	-3469
南美洲	-3470
四个	-3471
落成	-3472
代的	-3473
展开	-3474
強調	-3475
會的	-3476
警告	-3477
醫學	-3478
政權	-3479
軍的	-3480
侍郎	-3481
支付	-3482
测试	-3483
東西	-3484
達成	-3485
學術	-3486
龙江	-3487
商店	-3488
斯曼	-3489
格拉	-3490
治疗	-3491
▁最	-3492
公佈	-3493
猶太	-3494
爾德	-3495
▁莫	-3496
公斤	-3497
都被	-3498
级联赛	-3499
巨大	-3500
uc	-3501
上了	-3502
控股	-3503
记者	-3504
第九	-3505
萬元	-3506
並以	-3507
號線	-3508
身分	-3509
05	-3510
两人	-3511
正面	-3512
分佈	-3513
讨论	-3514
▁史	-3515
米尔	-3516
上帝	-3517
今天	-3518
她在	-3519
物的	-3520
放在	-3521
以西	-3522
市長	-3523
河北省	-3524
,2010	-3525
sm	-3526
国民党	-3527
▁梅	-3528
共產黨	-3529
十七	-3530
考虑	-3531
購買	-3532
蘇格蘭	-3533
,196	-3534
1984	-3535
但他	-3536
▁塔	-3537
通信	-3538
双方	-3539
天然	-3540
較為	-3541
界的	-3542
帶領	-3543
提及	-3544
引发	-3545
三人	-3546
中正	-3547
全長	-3548
威脅	-3549
mm	-3550
凌晨	-3551
巡洋	-3552
大量的	-3553
斯拉夫	-3554
大街	-3555
人民代表大会	-3556
复杂	-3557
醫療	-3558
做為	-3559
陸續	-3560
天体	-3561
通往	-3562
▁五	-3563
▁特	-3564
儀式	-3565
意味	-3566
終於	-3567
通知	-3568
動力	-3569
电台	-3570
內閣	-3571
常常	-3572
日於	-3573
观众	-3574
ram	-3575
島嶼	-3576
日下午	-3577
处于	-3578
打破	-3579
观察	-3580
秘書	-3581
享年	-3582
影像	-3583
沿岸	-3584
理由	-3585
关注	-3586
哲学	-3587
工厂	-3588
使用了	-3589
長度	-3590
,3	-3591
简单	-3592
ick	-3593
ment	-3594
埃尔	-3595
演化	-3596
小学	-3597
的反	-3598
成立了	-3599
東北部	-3600
太后	-3601
教师	-3602
就會	-3603
進黨	-3604
阳市	-3605
鄰近	-3606
道光	-3607
▁不过	-3608
區議會	-3609
福建省	-3610
另一個	-3611
星的	-3612
說明	-3613
▁胡	-3614
▁he	-3615
的所有	-3616
▁比	-3617
率領	-3618
的有	-3619
所在地	-3620
上是	-3621
咖啡	-3622
失败	-3623
安裝	-3624
路易斯	-3625
其餘	-3626
策略	-3627
一系列	-3628
▁这种	-3629
丹尼	-3630
知識	-3631
境內	-3632
做出	-3633
湖泊	-3634
110	-3635
在北京	-3636
不要	-3637
分支	-3638
明显	-3639
不滿	-3640
歲時	-3641
關注	-3642
▁直到	-3643
差異	-3644
的性	-3645
粒子	-3646
▁13	-3647
未有	-3648
稳定	-3649
居民点	-3650
在中	-3651
局长	-3652
碼頭	-3653
首位	-3654
ogle	-3655
则是	-3656
年轻	-3657
燃料	-3658
米爾	-3659
第一位	-3660
聯合國	-3661
▁1991	-3662
使其	-3663
冲突	-3664
硕士	-3665
的日	-3666
▁福	-3667
列为	-3668
多种	-3669
打擊	-3670
▁z	-3671
卫生	-3672
查理	-3673
出現在	-3674
早上	-3675
河的	-3676
巡迴	-3677
魔法	-3678
1982	-3679
合法	-3680
積極	-3681
並將	-3682
周年	-3683
官至	-3684
加以	-3685
ina	-3686
km	-3687
结婚	-3688
是位於美國	-3689
▁到了	-3690
月起	-3691
棒球	-3692
經典	-3693
▁1988	-3694
起初	-3695
针对	-3696
250	-3697
什麼	-3698
介紹	-3699
西班牙语	-3700
地在	-3701
顧問	-3702
创造	-3703
記憶	-3704
分成	-3705
過程中	-3706
州負責管轄	-3707
站的	-3708
并入	-3709
很少	-3710
來到	-3711
女王	-3712
間的	-3713
由此	-3714
邊界	-3715
克林	-3716
印刷	-3717
商場	-3718
對抗	-3719
开通	-3720
起源	-3721
专门	-3722
貢獻	-3723
任期	-3724
ark	-3725
06	-3726
在那	-3727
憲法	-3728
第十一	-3729
在這	-3730
象徵	-3731
资料	-3732
道德	-3733
陕西	-3734
回歸	-3735
東方	-3736
院士	-3737
▁兩	-3738
一百	-3739
援助	-3740
溫度	-3741
律師	-3742
▁an	-3743
基斯坦	-3744
局的	-3745
销售	-3746
南海	-3747
已知	-3748
財政	-3749
遭遇	-3750
▁中國	-3751
领导人	-3752
米至	-3753
规则	-3754
锦标	-3755
1983	-3756
之戰	-3757
近代	-3758
了他	-3759
尔特	-3760
指控	-3761
海上	-3762
角度	-3763
▁瓦	-3764
每日	-3765
]]	-3766
分类	-3767
首歌	-3768
▁吉	-3769
接著	-3770
評價	-3771
过去	-3772
撤退	-3773
pro	-3774
最高的	-3775
研究生	-3776
保加	-3777
想要	-3778
阿里	-3779
山的	-3780
以便	-3781
似乎	-3782
十月	-3783
隨即	-3784
宁波	-3785
港鐵	-3786
調整	-3787
加哥	-3788
登陸	-3789
▁sh	-3790
民進黨	-3791
受傷	-3792
後期	-3793
▁博	-3794
任教	-3795
伊拉克	-3796
芝加哥	-3797
09	-3798
公眾	-3799
尚书	-3800
锦标赛	-3801
01	-3802
傳播	-3803
台中	-3804
体系	-3805
经历	-3806
评价	-3807
来到	-3808
院长	-3809
參考	-3810
月在	-3811
组合	-3812
信徒	-3813
席位	-3814
琉球	-3815
▁对	-3816
形的	-3817
电视剧	-3818
呈現	-3819
yle	-3820
,5	-3821
[[	-3822
ew	-3823
唯一的	-3824
種族	-3825
道的	-3826
子女	-3827
视频	-3828
式月台	-3829
石坑	-3830
pl	-3831
che	-3832
原先	-3833
規則	-3834
▁中华人民共和国	-3835
依據	-3836
是不	-3837
特征	-3838
ial	-3839
奥林匹克	-3840
度使	-3841
複雜	-3842
外国	-3843
改编	-3844
130	-3845
與其	-3846
途中	-3847
,2011	-3848
希特	-3849
數據	-3850
翌年	-3851
序列	-3852
观点	-3853
也可	-3854
克兰	-3855
末期	-3856
預計	-3857
▁對	-3858
地上	-3859
接下	-3860
的多	-3861
会在	-3862
安装	-3863
巴拉	-3864
登場	-3865
英格兰	-3866
確認	-3867
身上	-3868
办事处	-3869
成為了	-3870
大家	-3871
斯洛	-3872
说法	-3873
顏色	-3874
代替	-3875
歲的	-3876
贡献	-3877
追溯	-3878
早在	-3879
用以	-3880
萨尔	-3881
日本的	-3882
清朝政治人物	-3883
参赛	-3884
爾的	-3885
▁雷	-3886
一人	-3887
ier	-3888
萬美元	-3889
率领	-3890
現今	-3891
無綫電視	-3892
08	-3893
ca	-3894
那么	-3895
替代	-3896
▁因为	-3897
动力	-3898
直播	-3899
大桥	-3900
海南	-3901
对象	-3902
教師	-3903
率为	-3904
與其他	-3905
尚書	-3906
改建	-3907
書院	-3908
ide	-3909
▁所以	-3910
騎士	-3911
ung	-3912
組成的	-3913
有时	-3914
ory	-3915
江南	-3916
山東	-3917
整合	-3918
格的	-3919
長官	-3920
马尔	-3921
▁on	-3922
也曾	-3923
學會	-3924
斯州	-3925
更是	-3926
超越	-3927
采取	-3928
海拔高度為	-3929
,2	-3930
sk	-3931
▁平	-3932
格勒	-3933
聚集	-3934
最早的	-3935
會員	-3936
河道	-3937
山西省	-3938
▁随后	-3939
像是	-3940
轟炸	-3941
▁1989	-3942
法蘭	-3943
▁yo	-3944
ev	-3945
mv	-3946
▁|	-3947
日报	-3948
月底	-3949
▁bo	-3950
巨大的	-3951
的模式	-3952
视星等为	-3953
收到	-3954
汉族	-3955
美術	-3956
了一些	-3957
可前往	-3958
哲學	-3959
▁隨著	-3960
▁1985	-3961
專門	-3962
明的	-3963
致力	-3964
07	-3965
机会	-3966
矛盾	-3967
北海道	-3968
年他	-3969
變得	-3970
也因此	-3971
cr	-3972
典禮	-3973
有三	-3974
逐步	-3975
▁在此	-3976
平均海拔高度為	-3977
▁徐	-3978
測量	-3979
而該地的平均海拔高度為	-3980
成就	-3981
日由	-3982
抗議	-3983
气候	-3984
爭取	-3985
是位于	-3986
是印度	-3987
ms	-3988
黑龙江	-3989
仍有	-3990
农民	-3991
pr	-3992
目的是	-3993
▁杨	-3994
周边	-3995
赤緯	-3996
▁他是	-3997
臺北市	-3998
play	-3999
值得	-4000
男女	-4001
年任	-4002
認識	-4003
市区	-4004
根本	-4005
玛丽	-4006
電話	-4007
交界	-4008
在於	-4009
战略	-4010
當局	-4011
發佈	-4012
聲音	-4013
自我	-4014
融合	-4015
赤經	-4016
允許	-4017
gro	-4018
斯托	-4019
通車	-4020
的問題	-4021
排列	-4022
步槍	-4023
領袖	-4024
日上午	-4025
公里的	-4026
,1	-4027
客運	-4028
經理	-4029
編輯	-4030
的概念	-4031
青少年	-4032
縣的一個	-4033
大眾	-4034
此時	-4035
畢業於	-4036
布朗	-4037
省負責管轄	-4038
ah	-4039
軍團	-4040
澳大利亞	-4041
污染	-4042
編劇	-4043
遭受	-4044
是因為	-4045
领袖	-4046
保羅	-4047
隊伍	-4048
黃金	-4049
丹麥	-4050
定期	-4051
手段	-4052
▁儘管	-4053
依照	-4054
免費	-4055
意識	-4056
构成	-4057
dr	-4058
四大	-4059
救援	-4060
轉換	-4061
非法	-4062
占地	-4063
掌握	-4064
理查	-4065
的關係	-4066
市政	-4067
改名	-4068
類型	-4069
可能會	-4070
,4	-4071
干部	-4072
條例	-4073
04	-4074
▁日	-4075
保安	-4076
eng	-4077
一部	-4078
人所	-4079
本線	-4080
次的	-4081
衛星	-4082
現時由	-4083
委任	-4084
布鲁	-4085
▁乾隆	-4086
任中共	-4087
東南部	-4088
xt	-4089
「」	-4090
发起	-4091
贵族	-4092
邀请	-4093
馬克	-4094
驅逐	-4095
成立于	-4096
亞歷山大	-4097
争议	-4098
住在	-4099
領土	-4100
span	-4101
嘗試	-4102
機器	-4103
當年	-4104
覆盖	-4105
1979	-4106
智慧	-4107
永久	-4108
真實	-4109
全世界	-4110
征服	-4111
法兰	-4112
西里	-4113
sao	-4114
请求	-4115
大革命	-4116
的代表	-4117
逢星期	-4118
加利福尼亞州	-4119
▁武	-4120
彰化	-4121
意义	-4122
选手	-4123
被視為	-4124
病逝	-4125
興趣	-4126
獲得了	-4127
提出了	-4128
億元	-4129
尔的	-4130
牵引	-4131
開設	-4132
結束後	-4133
回應	-4134
满足	-4135
透露	-4136
隊長	-4137
▁对于	-4138
帶來	-4139
藉由	-4140
ohn	-4141
親王	-4142
cod	-4143
福德	-4144
湖南省	-4145
翰林	-4146
證據	-4147
權利	-4148
嘉義	-4149
大楼	-4150
校区	-4151
编码	-4152
岩石	-4153
损失	-4154
配置	-4155
ary	-4156
增加了	-4157
東京都	-4158
ld	-4159
新界	-4160
巴基斯坦	-4161
對方	-4162
指令	-4163
ach	-4164
ern	-4165
开展	-4166
食性	-4167
bd	-4168
供應	-4169
色彩	-4170
教學	-4171
春秋	-4172
銀經	-4173
的世界	-4174
,,	-4175
成绩	-4176
會試	-4177
权力	-4178
銀緯	-4179
民主党	-4180
採取	-4181
消防	-4182
造成的	-4183
1946	-4184
漫画	-4185
购买	-4186
名進士	-4187
位于銀經	-4188
的绝对	-4189
▁=	-4190
美术	-4191
的情況下	-4192
坐标为赤經	-4193
在他	-4194
政党	-4195
死後	-4196
一條	-4197
三甲	-4198
▁车站	-4199
歷史上	-4200
的发展	-4201
的地位	-4202
学科	-4203
新建	-4204
襲擊	-4205
iss	-4206
新北	-4207
特徵	-4208
員工	-4209
聲明	-4210
装备	-4211
▁这一	-4212
land	-4213
劇集	-4214
权利	-4215
早期的	-4216
出来	-4217
士尼	-4218
就有	-4219
重量	-4220
▁建	-4221
创立	-4222
意見	-4223
候選人	-4224
2020	-4225
积极	-4226
分之一	-4227
的生活	-4228
,2007	-4229
平等	-4230
弗里	-4231
此事	-4232
▁作为	-4233
推出的	-4234
国立	-4235
▁te	-4236
▁現時	-4237
停靠	-4238
性質	-4239
陨石坑	-4240
具体	-4241
扩大	-4242
主管	-4243
多名	-4244
進步	-4245
抵达	-4246
攻打	-4247
红色	-4248
1930	-4249
1978	-4250
▁1983	-4251
亚历	-4252
ile	-4253
被認為是	-4254
入選	-4255
經由	-4256
迪士尼	-4257
算法	-4258
約為	-4259
有着	-4260
福州	-4261
河流域	-4262
清楚	-4263
的上	-4264
職務	-4265
通訊	-4266
台北市	-4267
的情况下	-4268
▁皮	-4269
课程	-4270
转向	-4271
▁曾祖	-4272
铁路局	-4273
、2	-4274
行走	-4275
頒獎	-4276
02	-4277
尋找	-4278
德斯	-4279
慈善	-4280
比赛中	-4281
修道	-4282
座堂	-4283
遇到	-4284
女主角	-4285
实验室	-4286
航空公司	-4287
入球	-4288
合唱	-4289
放弃	-4290
改制為	-4291
南極條約	-4292
下列	-4293
哥倫	-4294
中间	-4295
則在	-4296
地形	-4297
阶级	-4298
南極條約體系	-4299
危機	-4300
和大	-4301
都督	-4302
▁利	-4303
另一个	-4304
东方	-4305
万美元	-4306
交易所	-4307
,2005	-4308
一带	-4309
叫做	-4310
施工	-4311
洛斯	-4312
的特有	-4313
联合会	-4314
ational	-4315
导弹	-4316
航天	-4317
實際上	-4318
的山峰	-4319
南極條約體系管理	-4320
定理	-4321
拉德	-4322
航班	-4323
结束后	-4324
03	-4325
优秀	-4326
威胁	-4327
氣候	-4328
篮球	-4329
老師	-4330
▁1982	-4331
▁索	-4332
被捕	-4333
有一个	-4334
▁杜	-4335
年中	-4336
整體	-4337
武裝	-4338
安徽省	-4339
委副书记	-4340
▁维	-4341
万元	-4342
分校	-4343
北平	-4344
教士	-4345
族群	-4346
警報	-4347
億美元	-4348
奧地利	-4349
仪式	-4350
▁随着	-4351
bl	-4352
難以	-4353
奥运会	-4354
的時間	-4355
主题	-4356
史密	-4357
指导	-4358
cp	-4359
激烈	-4360
質疑	-4361
now	-4362
適合	-4363
ame	-4364
西蘭	-4365
連載	-4366
的意思	-4367
1981	-4368
的國家	-4369
▁長	-4370
三大	-4371
传播	-4372
傳媒	-4373
巴斯	-4374
传说	-4375
声称	-4376
意義	-4377
數字	-4378
雨量	-4379
了他的	-4380
成熟	-4381
进士	-4382
▁1986	-4383
,8	-4384
事实	-4385
gc	-4386
江戶	-4387
的歌曲	-4388
俄国	-4389
十大	-4390
召開	-4391
格里	-4392
空氣	-4393
青海	-4394
了一個	-4395
实际上	-4396
的日本	-4397
部部长	-4398
▁尼	-4399
的公	-4400
貴族	-4401
▁現在	-4402
人数	-4403
劇場	-4404
加速	-4405
ock	-4406
ton	-4407
▁1984	-4408
剧院	-4409
时任	-4410
▁&	-4411
對象	-4412
are	-4413
大師	-4414
总督	-4415
百姓	-4416
错误	-4417
ube	-4418
提出的	-4419
裁判	-4420
慕尼	-4421
衛生	-4422
age	-4423
現時由南極條約體系管理	-4424
hy	-4425
强烈	-4426
no	-4427
效率	-4428
首度	-4429
哥哥	-4430
▁楊	-4431
山市	-4432
神经	-4433
资金	-4434
▁这颗	-4435
▁两	-4436
加強	-4437
装置	-4438
理念	-4439
就可以	-4440
妹妹	-4441
的座標為	-4442
▁八	-4443
主辦	-4444
地中	-4445
密切	-4446
检查	-4447
高原	-4448
台南	-4449
工作室	-4450
深入	-4451
铁道	-4452
估计	-4453
智能	-4454
語的	-4455
1940	-4456
吉他	-4457
是有	-4458
模特	-4459
籃球	-4460
埔寨	-4461
dvd	-4462
▁1970	-4463
▁我	-4464
太守	-4465
歌唱	-4466
货运	-4467
▁光緒	-4468
足球隊	-4469
弗朗	-4470
證實	-4471
錯誤	-4472
成人	-4473
▁這種	-4474
my	-4475
事业	-4476
以為	-4477
周围	-4478
慕尼黑	-4479
,7	-4480
熱帶氣旋	-4481
伯爵	-4482
哥伦	-4483
基金會	-4484
柬埔寨	-4485
环形山	-4486
,9	-4487
更為	-4488
ork	-4489
畢業後	-4490
1941	-4491
但因	-4492
恐龍	-4493
申请	-4494
通车	-4495
▁1987	-4496
戏剧	-4497
一部分	-4498
並無	-4499
坐落	-4500
好友	-4501
格式	-4502
直隸	-4503
驱逐	-4504
的绝对星等为	-4505
动车	-4506
是最	-4507
气旋	-4508
連任	-4509
国家的	-4510
1920	-4511
▁这颗小行星	-4512
ai	-4513
戰車	-4514
版的	-4515
不得不	-4516
數位	-4517
▁这颗小行星的绝对星等为	-4518
az	-4519
是大	-4520
私立	-4521
包括了	-4522
出入口	-4523
出现在	-4524
对外	-4525
緬甸	-4526
old	-4527
的能力	-4528
全长	-4529
戰士	-4530
構成	-4531
赛事	-4532
任職	-4533
合同	-4534
女儿	-4535
成長	-4536
▁通常	-4537
幾個	-4538
消費	-4539
場比賽	-4540
排行榜	-4541
▁sch	-4542
丰富	-4543
兩者	-4544
民众	-4545
▁con	-4546
稱呼	-4547
縣的	-4548
阳县	-4549
作的	-4550
德尔	-4551
收視	-4552
竞争	-4553
弗雷	-4554
捷克	-4555
福利	-4556
選為	-4557
岁的	-4558
火星	-4559
用了	-4560
的發展	-4561
損失	-4562
裝備	-4563
運行	-4564
▁as	-4565
工程师	-4566
宣告	-4567
移到	-4568
▁泰	-4569
研發	-4570
銷量	-4571
奧林匹克運動會	-4572
搜索	-4573
洛夫	-4574
的音樂	-4575
瑪麗	-4576
送到	-4577
▁塞	-4578
仍在	-4579
可在	-4580
數學	-4581
的成員	-4582
围绕太阳	-4583
个月	-4584
推行	-4585
▁被	-4586
布魯	-4587
格雷	-4588
租界	-4589
方程式	-4590
人才	-4591
介绍	-4592
向南	-4593
奥尔	-4594
物品	-4595
促进	-4596
司马	-4597
海峽	-4598
101	-4599
围绕太阳公	-4600
加工	-4601
幻想	-4602
机器	-4603
的電影	-4604
加入中国共产党	-4605
是一颗围绕太阳公	-4606
是一颗围绕太阳公转的小行星	-4607
,6	-4608
名单	-4609
外國	-4610
受歡迎	-4611
后者	-4612
裡的	-4613
陸地	-4614
命名为	-4615
1948	-4616
對應	-4617
延長	-4618
捷運	-4619
推翻	-4620
签署	-4621
线的	-4622
芬兰	-4623
七月	-4624
▁沃	-4625
聚落	-4626
完成了	-4627
女孩	-4628
意识	-4629
▁嘉靖	-4630
日發行	-4631
▁1946	-4632
▁1978	-4633
▁吳	-4634
广告	-4635
栖息	-4636
google	-4637
及其他	-4638
au	-4639
公告	-4640
尔兰	-4641
所需	-4642
責任	-4643
遊行	-4644
都不	-4645
{}	-4646
安娜	-4647
肯定	-4648
人民币	-4649
有可能	-4650
此之外	-4651
的設計	-4652
實行	-4653
推廣	-4654
盛頓	-4655
刺激	-4656
四世	-4657
平民	-4658
直升	-4659
ite	-4660
ove	-4661
▁1960	-4662
▁托	-4663
dna	-4664
1975	-4665
行人	-4666
衍生	-4667
登進士	-4668
行政区	-4669
种子	-4670
觀點	-4671
位於該國北部	-4672
價格	-4673
在新	-4674
华盛	-4675
向北	-4676
德軍	-4677
责任	-4678
尼亚州	-4679
次日	-4680
雅典	-4681
▁ex	-4682
華盛頓	-4683
一天	-4684
所謂	-4685
日後	-4686
里克	-4687
1973	-4688
分別為	-4689
湖北省	-4690
▁于	-4691
刑事	-4692
後者	-4693
有一個	-4694
▁1979	-4695
兵力	-4696
并未	-4697
死刑	-4698
飛彈	-4699
华盛顿	-4700
强度	-4701
氣壓	-4702
流量	-4703
ica	-4704
中原	-4705
欢迎	-4706
簽署	-4707
觀光	-4708
代码为	-4709
包含了	-4710
改名為	-4711
主流	-4712
勒斯	-4713
工商	-4714
布雷	-4715
追求	-4716
錄音	-4717
use	-4718
任天堂	-4719
可見	-4720
娱乐	-4721
簽約	-4722
红军	-4723
名人	-4724
常务	-4725
1976	-4726
▁1948	-4727
遗产	-4728
叙利亚	-4729
居住在	-4730
▁苏	-4731
地帶	-4732
太原	-4733
波特	-4734
相反	-4735
▁有些	-4736
保罗	-4737
基隆	-4738
劇本	-4739
加强	-4740
實現	-4741
死后	-4742
批判	-4743
格林	-4744
选为	-4745
全国人大	-4746
作業	-4747
年美国	-4748
共有人口	-4749
之地	-4750
出场	-4751
無線	-4752
著有	-4753
po	-4754
功率	-4755
移居	-4756
系统的	-4757
▁各	-4758
党员	-4759
彼此	-4760
成年	-4761
日報	-4762
民间	-4763
自殺	-4764
队的	-4765
pc	-4766
▁又	-4767
之名	-4768
伊利	-4769
菲利	-4770
此天体	-4771
的話	-4772
生活在	-4773
未来	-4774
波士	-4775
維多	-4776
较为	-4777
电力机车	-4778
想法	-4779
ish	-4780
哥倫比亞	-4781
困難	-4782
左翼	-4783
黑暗	-4784
▁最初	-4785
形成的	-4786
王位	-4787
经理	-4788
洛杉磯	-4789
称作	-4790
li	-4791
即可	-4792
定位	-4793
稱作	-4794
取得了	-4795
董事長	-4796
荣誉	-4797
ple	-4798
孟加拉	-4799
当时的	-4800
猪笼	-4801
猪笼草	-4802
1947	-4803
▁亞	-4804
大字	-4805
对应	-4806
射擊	-4807
擴大	-4808
殺死	-4809
祖先	-4810
出版的	-4811
首歌曲	-4812
是為	-4813
活躍	-4814
總會	-4815
高達	-4816
之上	-4817
符號	-4818
加斯	-4819
登陆	-4820
空气	-4821
耶稣	-4822
视为	-4823
防守	-4824
馬拉	-4825
陕西省	-4826
istat	-4827
大公	-4828
探險	-4829
给了	-4830
这次	-4831
任命为	-4832
德意志	-4833
羅馬尼亞	-4834
百萬	-4835
联网	-4836
▁游戏	-4837
外交部	-4838
國民政府	-4839
两次	-4840
卡爾	-4841
夏威	-4842
期刊	-4843
此次	-4844
的正	-4845
電力	-4846
▁1937	-4847
分解	-4848
展覽	-4849
注册	-4850
资产	-4851
這次	-4852
队伍	-4853
ime	-4854
▁1958	-4855
勝出	-4856
布斯	-4857
時段	-4858
福音	-4859
綠色	-4860
经验	-4861
▁霍	-4862
曾被	-4863
職棒	-4864
被认为是	-4865
内战	-4866
榮譽	-4867
沈阳	-4868
突出	-4869
印第	-4870
類的	-4871
並由	-4872
日常	-4873
里亚	-4874
最多的	-4875
1942	-4876
、3	-4877
則有	-4878
面向	-4879
顾问	-4880
的第三	-4881
律师	-4882
教徒	-4883
漢字	-4884
性和	-4885
▁at	-4886
back	-4887
一级	-4888
分的	-4889
在西	-4890
幕府	-4891
海峡	-4892
辦公室	-4893
第一次世界大	-4894
親自	-4895
国民政府	-4896
军委	-4897
大批	-4898
探索	-4899
運用	-4900
组成的	-4901
分之	-4902
电气	-4903
存在的	-4904
秘书长	-4905
做法	-4906
沙田	-4907
的全	-4908
豐富	-4909
ames	-4910
清代	-4911
现场	-4912
的後	-4913
印第安	-4914
夏威夷	-4915
非建制	-4916
1944	-4917
不仅	-4918
四月	-4919
回答	-4920
手機	-4921
迷你	-4922
時期的	-4923
价格	-4924
成果	-4925
用戶	-4926
缅甸	-4927
瑟夫	-4928
▁id	-4929
建築物	-4930
形成了	-4931
克尔	-4932
喜欢	-4933
女神	-4934
弟子	-4935
曾是	-4936
迫使	-4937
年成立	-4938
1972	-4939
▁另一方面	-4940
_2	-4941
扩展	-4942
ara	-4943
作曲家	-4944
工作的	-4945
古拉	-4946
宿舍	-4947
的光	-4948
长沙	-4949
大学的	-4950
並與	-4951
内阁	-4952
印象	-4953
是個	-4954
順利	-4955
领土	-4956
cc	-4957
珊瑚	-4958
中心的	-4959
岁时	-4960
此后	-4961
祭祀	-4962
芬蘭	-4963
兩岸	-4964
學士	-4965
接触	-4966
其他的	-4967
戰鬥機	-4968
离子	-4969
lat	-4970
同名	-4971
德克	-4972
秘魯	-4973
不知	-4974
傑克	-4975
关闭	-4976
神經	-4977
里亞	-4978
重返	-4979
防禦	-4980
iel	-4981
成功的	-4982
保險	-4983
反而	-4984
管制	-4985
政治部	-4986
▁1947	-4987
省级	-4988
都会	-4989
附加	-4990
的前身	-4991
初年	-4992
多種	-4993
天使	-4994
屯門	-4995
巴赫	-4996
注入	-4997
聲稱	-4998
院校	-4999
政治家	-5000
受害	-5001
天府	-5002
餐廳	-5003
修道院	-5004
ve	-5005
▁九	-5006
公众	-5007
碩士	-5008
▁me	-5009
军的	-5010
原則	-5011
向量	-5012
垂直	-5013
穿越	-5014
萬曆	-5015
论文	-5016
和他的	-5017
克羅	-5018
的四	-5019
分別是	-5020
示威者	-5021
議題	-5022
優勢	-5023
又在	-5024
变得	-5025
▁何	-5026
性质	-5027
態度	-5028
罕默	-5029
▁對於	-5030
妇女	-5031
iii	-5032
rom	-5033
情况下	-5034
是俄羅斯	-5035
中华人民共和国政治人物	-5036
曾於	-5037
族的	-5038
夫斯基	-5039
▁六	-5040
兩次	-5041
出自	-5042
声明	-5043
手槍	-5044
拿下	-5045
論文	-5046
▁第三	-5047
爱尔兰	-5048
下方	-5049
天后	-5050
拉多	-5051
百年	-5052
愛情	-5053
無人	-5054
▁se	-5055
年美國人口普查	-5056
包圍	-5057
山脉	-5058
▁所有	-5059
▁该市镇年时的人口为人	-5060
af	-5061
入境	-5062
加勒	-5063
复兴	-5064
监督	-5065
▁牠們	-5066
宜蘭	-5067
監督	-5068
莱茵	-5069
特别是	-5070
du	-5071
一支	-5072
候选	-5073
總站	-5074
边界	-5075
高架	-5076
事情	-5077
山区	-5078
眾多	-5079
考試	-5080
▁但在	-5081
富汗	-5082
意为	-5083
監察	-5084
的国家	-5085
届全国人民代表大会	-5086
余人	-5087
提交	-5088
旨在	-5089
本地區	-5090
ax	-5091
抑制	-5092
改良	-5093
维持	-5094
和人口	-5095
的道路	-5096
公社	-5097
对手	-5098
定為	-5099
請求	-5100
▁次年	-5101
▁梁	-5102
下半	-5103
片的	-5104
▁am	-5105
发动机	-5106
系統的	-5107
任意	-5108
原有	-5109
標誌	-5110
1958	-5111
ground	-5112
众多	-5113
促進	-5114
兩名	-5115
医生	-5116
大賽	-5117
會長	-5118
的西	-5119
天津市	-5120
年香港	-5121
温度	-5122
▁style	-5123
告訴	-5124
每次	-5125
雙打	-5126
,10	-5127
▁so	-5128
的一位	-5129
兩位	-5130
撰寫	-5131
文献	-5132
涉嫌	-5133
的法	-5134
眼睛	-5135
突厥	-5136
醫生	-5137
開幕	-5138
技巧	-5139
接管	-5140
印度尼	-5141
是台灣	-5142
3000	-5143
地点	-5144
来源	-5145
特性	-5146
很大的	-5147
來往	-5148
入选	-5149
卫视	-5150
日被	-5151
爾特	-5152
知府	-5153
考察	-5154
造型	-5155
▁天主教	-5156
非建制地區	-5157
出土	-5158
在北	-5159
局長	-5160
雍正	-5161
首任	-5162
公開賽	-5163
足球俱乐部	-5164
▁汉	-5165
▁洪	-5166
发电	-5167
同步	-5168
它是	-5169
第二次世界大戰	-5170
等待	-5171
簽訂	-5172
成立后	-5173
原理	-5174
海水	-5175
釋放	-5176
院長	-5177
第一百	-5178
第十二	-5179
克莱	-5180
機車	-5181
资本	-5182
龍的	-5183
足球運動員	-5184
年春	-5185
直径	-5186
人是	-5187
签订	-5188
集的	-5189
将领	-5190
搖滾	-5191
主場	-5192
主打	-5193
有了	-5194
穆罕默	-5195
保证	-5196
覆蓋	-5197
都可以	-5198
鐵路車站	-5199
人生	-5200
培养	-5201
丹麦	-5202
兩年	-5203
中國國民黨	-5204
也会	-5205
坚持	-5206
巴勒	-5207
維奇	-5208
資金	-5209
释放	-5210
關閉	-5211
1943	-5212
國際機場	-5213
属下的一个	-5214
上游	-5215
性別	-5216
校園	-5217
添加	-5218
的阿	-5219
ical	-5220
架構	-5221
那州	-5222
长度	-5223
▁民国	-5224
ence	-5225
▁该物种	-5226
及後	-5227
均有	-5228
慕容	-5229
杀死	-5230
高校	-5231
張單曲	-5232
▁1955	-5233
屬下的一个种	-5234
压力	-5235
古巴	-5236
著的	-5237
象征	-5238
」;	-5239
不但	-5240
会上	-5241
县城	-5242
团队	-5243
得分	-5244
現任	-5245
神秘	-5246
佛罗	-5247
山地	-5248
整理	-5249
為食	-5250
乌克兰	-5251
在台灣	-5252
博士学位	-5253
呼吸	-5254
超级	-5255
哈尔滨	-5256
的最高	-5257
維多利亞	-5258
區內	-5259
教区	-5260
,2006	-5261
丁目	-5262
昆明	-5263
立方米	-5264
gr	-5265
jo	-5266
周邊	-5267
水深	-5268
花园	-5269
言人	-5270
1964	-5271
以往	-5272
喜劇	-5273
小姐	-5274
感情	-5275
手中	-5276
輸入	-5277
便是	-5278
斗争	-5279
hd	-5280
他也	-5281
hel	-5282
1968	-5283
1974	-5284
危險	-5285
1971	-5286
县的一个	-5287
aw	-5288
議席	-5289
▁美	-5290
向西	-5291
斯在	-5292
证据	-5293
立法院	-5294
这样的	-5295
交換	-5296
會被	-5297
泰国	-5298
重的	-5299
pre	-5300
底層水域	-5301
ivers	-5302
center	-5303
升級	-5304
回合	-5305
日晚	-5306
codice	-5307
之為	-5308
二月	-5309
大戰	-5310
带有	-5311
從而	-5312
受到了	-5313
在上海	-5314
特別是	-5315
上面	-5316
反抗	-5317
婦女	-5318
對外	-5319
端的	-5320
藥物	-5321
十一年	-5322
麥克	-5323
▁隨後	-5324
农村居民点	-5325
▁蘇	-5326
势力	-5327
地域	-5328
均为	-5329
就读	-5330
指導	-5331
互联网	-5332
伍德	-5333
曹操	-5334
符号	-5335
基础上	-5336
带来	-5337
德川	-5338
殺害	-5339
面上	-5340
國家隊	-5341
大规模	-5342
不僅	-5343
中以	-5344
產生的	-5345
共产主义	-5346
三次	-5347
兴建	-5348
大同	-5349
版本的	-5350
▁1981	-5351
一条	-5352
大帝	-5353
真实	-5354
關鍵	-5355
1977	-5356
ts	-5357
介石	-5358
医疗	-5359
生態	-5360
140	-5361
▁or	-5362
亿美元	-5363
的大型	-5364
最重要的	-5365
▁1920	-5366
效力於	-5367
犹太人	-5368
1966	-5369
召集	-5370
執政	-5371
▁1956	-5372
党组	-5373
國語	-5374
如同	-5375
良好	-5376
马拉	-5377
文獻	-5378
即是	-5379
已於	-5380
提前	-5381
竣工	-5382
等的	-5383
完整的	-5384
系列的	-5385
1/	-5386
佛羅	-5387
男孩	-5388
粵語	-5389
21、	-5390
con	-5391
节度使	-5392
▁1954	-5393
发现了此天体	-5394
南昌	-5395
宣言	-5396
廢除	-5397
行駛	-5398
旗下的	-5399
会的	-5400
其余	-5401
戰略	-5402
基督徒	-5403
子公司	-5404
1967	-5405
就任	-5406
階級	-5407
高雄市	-5408
fo	-5409
▁康	-5410
地名	-5411
就被	-5412
本名	-5413
綜藝	-5414
给予	-5415
連結	-5416
部署	-5417
ml	-5418
吏部	-5419
檔案	-5420
緊急	-5421
光緒	-5422
同志	-5423
引用	-5424
1956	-5425
fl	-5426
▁縣	-5427
优势	-5428
河口	-5429
济南	-5430
年代初	-5431
▁1941	-5432
cy	-5433
為其	-5434
ae	-5435
观测	-5436
book	-5437
微博	-5438
歌詞	-5439
命名的	-5440
地中海	-5441
拉特	-5442
电脑	-5443
900	-5444
1965	-5445
生長	-5446
▁此後	-5447
的名稱	-5448
▁維	-5449
容量	-5450
年才	-5451
并非	-5452
晚期	-5453
清真	-5454
無論	-5455
秩序	-5456
人口密度為	-5457
station	-5458
以及中国大陆的	-5459
是中华人民共和国	-5460
受伤	-5461
約有	-5462
研究中心	-5463
是一個位於	-5464
ds	-5465
山區	-5466
平定	-5467
德华	-5468
明确	-5469
號的	-5470
喬治亞	-5471
时期的	-5472
党的	-5473
各國	-5474
身体	-5475
▁民國	-5476
自主	-5477
说明	-5478
▁基	-5479
以其	-5480
相应	-5481
藍色	-5482
錄影	-5483
鼓勵	-5484
抗日战争	-5485
主张	-5486
各个	-5487
單一	-5488
德華	-5489
新城	-5490
百科	-5491
種子	-5492
新北市	-5493
學系	-5494
通行	-5495
ann	-5496
ium	-5497
代表团	-5498
情報	-5499
莎白	-5500
黃色	-5501
格拉斯	-5502
的儿子	-5503
,2012	-5504
东京	-5505
地质	-5506
战后	-5507
總裁	-5508
首個	-5509
car	-5510
總教區	-5511
yout	-5512
也能	-5513
他人	-5514
周期	-5515
国军	-5516
当局	-5517
球迷	-5518
短期	-5519
繁殖	-5520
重視	-5521
教科	-5522
月中	-5523
有許多	-5524
▁外	-5525
两侧	-5526
地址	-5527
定为	-5528
并将	-5529
移至	-5530
蘋果	-5531
大部份	-5532
,"	-5533
一職	-5534
選出	-5535
主教座堂	-5536
中間	-5537
亞軍	-5538
升级	-5539
戰術	-5540
拿破	-5541
東亞	-5542
测量	-5543
一詞	-5544
單元	-5545
對此	-5546
城墙	-5547
经典	-5548
資產	-5549
112	-5550
希特勒	-5551
因其	-5552
在該	-5553
存的	-5554
邮政	-5555
障礙	-5556
麦克	-5557
,12	-5558
ley	-5559
mer	-5560
sil	-5561
菲律宾	-5562
之意	-5563
長達	-5564
位於該國中部	-5565
之處	-5566
巴尔	-5567
檢查	-5568
等级	-5569
达尔	-5570
ase	-5571
iki	-5572
一共	-5573
上方	-5574
生态	-5575
精靈	-5576
▁go	-5577
提供的	-5578
立法委員	-5579
停車	-5580
学士	-5581
当年	-5582
文艺	-5583
泰勒	-5584
神社	-5585
身為	-5586
▁該地的	-5587
协助	-5588
國軍	-5589
姓氏	-5590
富士	-5591
收費	-5592
國家的	-5593
宣稱	-5594
民政	-5595
称号	-5596
路线	-5597
中国的	-5598
名舉人	-5599
的一条	-5600
分离	-5601
1969	-5602
二次	-5603
立場	-5604
uk	-5605
▁郭	-5606
但不	-5607
逻辑	-5608
毕业后	-5609
pt	-5610
月份	-5611
江蘇	-5612
皆未知	-5613
文化大革命	-5614
勋章	-5615
合理	-5616
告诉	-5617
樂隊	-5618
立陶	-5619
解除	-5620
預算	-5621
ans	-5622
村民	-5623
金曲	-5624
面積和人口	-5625
面積和人口皆未知	-5626
▁該地的面積和人口皆未知	-5627
姊妹	-5628
山县	-5629
该市	-5630
十三年	-5631
當地的	-5632
下游	-5633
入了	-5634
周恩	-5635
数的	-5636
每一	-5637
現實	-5638
的家	-5639
網球	-5640
身亡	-5641
red	-5642
▁it	-5643
▁使用	-5644
香港的	-5645
1959	-5646
▁毛	-5647
下属	-5648
供奉	-5649
日凌晨	-5650
%;	-5651
跟隨	-5652
史密斯	-5653
增強	-5654
接壤	-5655
美的	-5656
▁mo	-5657
山脈的一部分	-5658
困难	-5659
的后	-5660
更名為	-5661
人民法院	-5662
道教	-5663
马斯	-5664
真正的	-5665
1957	-5666
最高法院	-5667
▁里	-5668
人有	-5669
山坡	-5670
讲述	-5671
防空	-5672
mac	-5673
▁sy	-5674
省政府	-5675
▁1930	-5676
一至	-5677
启动	-5678
演藝	-5679
现实	-5680
輻射	-5681
交流道	-5682
可以用	-5683
葡萄牙语	-5684
螺旋	-5685
的存在	-5686
哥伦比亚	-5687
專家	-5688
普及	-5689
智利	-5690
背鰭	-5691
黑人	-5692
第三次	-5693
主事	-5694
予以	-5695
交换	-5696
堅持	-5697
正確	-5698
違反	-5699
棲息深度	-5700
▁1952	-5701
奥林匹克运动会	-5702
信任	-5703
更为	-5704
英軍	-5705
常見的	-5706
所辖	-5707
症狀	-5708
他和	-5709
侵略	-5710
取自	-5711
种族	-5712
雕塑	-5713
日開始	-5714
三位	-5715
三月	-5716
公式	-5717
名義	-5718
起了	-5719
ool	-5720
▁太	-5721
▁首	-5722
文帝	-5723
書籍	-5724
溶液	-5725
▁故事	-5726
休息	-5727
夺得	-5728
懷疑	-5729
止於	-5730
耶穌	-5731
草案	-5732
还在	-5733
最高點	-5734
穆罕默德	-5735
大橋	-5736
族人	-5737
流亡	-5738
满洲	-5739
等級	-5740
但由於	-5741
的一次	-5742
阿富汗	-5743
;"	-5744
▁初	-5745
暫時	-5746
装饰	-5747
边境	-5748
ale	-5749
ath	-5750
立陶宛	-5751
始人	-5752
1937	-5753
▁佩	-5754
在位	-5755
機的	-5756
正是	-5757
电话	-5758
考试	-5759
▁近年	-5760
兩國	-5761
声音	-5762
戰場	-5763
足協	-5764
馬爾	-5765
世界的	-5766
十四年	-5767
▁夏	-5768
以至	-5769
任职	-5770
就像	-5771
参谋长	-5772
大學的	-5773
播出的	-5774
製作的	-5775
会长	-5776
整体	-5777
旧址	-5778
晉級	-5779
最有	-5780
王室	-5781
講述	-5782
科學家	-5783
交叉	-5784
回国	-5785
班次	-5786
纳粹	-5787
不受	-5788
大埔	-5789
状况	-5790
社群	-5791
▁花	-5792
为一	-5793
人權	-5794
勞動	-5795
哈拉	-5796
格尔	-5797
不敌	-5798
军官	-5799
尔省的一个市镇	-5800
vi	-5801
傾向	-5802
消歧	-5803
维护	-5804
準決賽	-5805
科會試	-5806
但其	-5807
內地	-5808
马里	-5809
▁最终	-5810
cm	-5811
之女	-5812
多夫	-5813
开工	-5814
收购	-5815
能在	-5816
充滿	-5817
平安	-5818
復興	-5819
抗议	-5820
被判	-5821
青春	-5822
的问题	-5823
依靠	-5824
族自治	-5825
戰隊	-5826
校舍	-5827
ction	-5828
的特有植物	-5829
▁萨	-5830
分離	-5831
又被	-5832
此地	-5833
流浪	-5834
谈判	-5835
出生在	-5836
足球聯賽	-5837
▁1938	-5838
街道下辖以下地区	-5839
人次	-5840
区和	-5841
敵人	-5842
模仿	-5843
的長	-5844
▁阿尔	-5845
5000	-5846
▁分布在	-5847
切爾	-5848
國道	-5849
尺寸	-5850
海底	-5851
1939	-5852
口徑	-5853
學的	-5854
新增	-5855
聯繫	-5856
的模式产	-5857
align	-5858
平行	-5859
形态	-5860
教练	-5861
检察	-5862
足夠	-5863
▁这是	-5864
属的动物	-5865
島上	-5866
社交	-5867
装甲	-5868
贊助	-5869
頻率	-5870
,17	-5871
十五年	-5872
省道台	-5873
二级	-5874
图像	-5875
此时	-5876
軍官	-5877
▁一个	-5878
出现了	-5879
▁inter	-5880
巡洋舰	-5881
的其他	-5882
国际机场	-5883
届全国政协	-5884
水量	-5885
跑道	-5886
男主角	-5887
將領	-5888
縮寫	-5889
冒險	-5890
在于	-5891
正月	-5892
货币	-5893
司令员	-5894
在中國	-5895
部電影	-5896
1963	-5897
的老	-5898
神父	-5899
的身份	-5900
▁蒙	-5901
土壤	-5902
巴伐	-5903
▁该物种的模式产	-5904
年與	-5905
的金	-5906
真人	-5907
▁清朝	-5908
是巴西	-5909
名叫	-5910
公署	-5911
华人	-5912
得票	-5913
收录	-5914
的北	-5915
监狱	-5916
聖經	-5917
願意	-5918
▁曾任	-5919
苏格兰	-5920
1952	-5921
▁1975	-5922
gb	-5923
、1	-5924
亲王	-5925
客家	-5926
轨道交通	-5927
一代	-5928
下來	-5929
后期	-5930
周圍	-5931
哈爾	-5932
巴塞	-5933
曲目	-5934
為人	-5935
群众	-5936
觀賞	-5937
之前的	-5938
推进	-5939
機制	-5940
药物	-5941
▁除此之外	-5942
委员会委员	-5943
改进	-5944
英超	-5945
註冊	-5946
達爾	-5947
颜色	-5948
▁康熙	-5949
製作人	-5950
北京大学	-5951
優秀	-5952
登記	-5953
資本	-5954
騎兵	-5955
▁本站	-5956
世界盃	-5957
威尼斯	-5958
比賽中	-5959
手机	-5960
授權	-5961
background	-5962
tp	-5963
▁人	-5964
出發	-5965
升為	-5966
民籍	-5967
失去了	-5968
唱片公司	-5969
千人	-5970
蒸汽	-5971
▁1953	-5972
ys	-5973
▁神	-5974
免疫	-5975
在南	-5976
定律	-5977
帶有	-5978
强调	-5979
遺址	-5980
▁最終	-5981
指的是	-5982
是中國	-5983
icro	-5984
八月	-5985
县的	-5986
蒂芬	-5987
met	-5988
▁tr	-5989
▁假	-5990
▁洛	-5991
中所	-5992
二甲	-5993
云南省	-5994
大規模	-5995
▁吴	-5996
▁赫	-5997
哺乳	-5998
搭配	-5999
新人	-6000
荃灣	-6001
始建于	-6002
入圍	-6003
頒發	-6004
大正	-6005
投手	-6006
林斯	-6007
邊境	-6008
ash	-6009
color	-6010
信奉	-6011
打击	-6012
撞击	-6013
更改	-6014
片段	-6015
納粹	-6016
言論	-6017
▁现在	-6018
各個	-6019
擴展	-6020
格斯	-6021
風險	-6022
內戰	-6023
沿用	-6024
的美	-6025
移交	-6026
苏州	-6027
諮詢	-6028
货物	-6029
amp	-6030
ster	-6031
▁薩	-6032
增强	-6033
方形	-6034
清华	-6035
火车站	-6036
翰林院	-6037
位於該國西南部	-6038
不多	-6039
五世	-6040
各大	-6041
年夏	-6042
若干	-6043
隶属	-6044
十二月	-6045
审判	-6046
播映	-6047
效應	-6048
草原	-6049
重慶	-6050
ins	-6051
相關的	-6052
原型	-6053
循環	-6054
波音	-6055
一份	-6056
伐克	-6057
充分	-6058
已在	-6059
所谓	-6060
染色	-6061
▁車站	-6062
的作用	-6063
气压	-6064
法令	-6065
褐色	-6066
轰炸	-6067
第十三	-6068
▁1940	-6069
区间	-6070
屏東	-6071
体育场	-6072
通常是	-6073
1961	-6074
認同	-6075
防御	-6076
face	-6077
危机	-6078
和新	-6079
喇嘛	-6080
气象	-6081
orld	-6082
台幣	-6083
血液	-6084
隸屬	-6085
比利時	-6086
自此	-6087
▁面積	-6088
建立的	-6089
、6	-6090
奖项	-6091
法语	-6092
确认	-6093
附属	-6094
政治局	-6095
他與	-6096
位在	-6097
卡特	-6098
多元	-6099
大大	-6100
殿試	-6101
真的	-6102
站房	-6103
線上	-6104
道夫	-6105
饰演	-6106
克斯坦	-6107
的消息	-6108
科学家	-6109
1500	-6110
▁1966	-6111
外界	-6112
幸福	-6113
举行的	-6114
一場	-6115
公寓	-6116
死去	-6117
沙漠	-6118
知县	-6119
訊息	-6120
輸出	-6121
,2013	-6122
▁江	-6123
任內	-6124
县人	-6125
政使	-6126
看見	-6127
轉乘	-6128
副部长	-6129
古老的	-6130
同時也	-6131
是一家	-6132
成分	-6133
說是	-6134
週期	-6135
采访	-6136
在前	-6137
放射	-6138
競選	-6139
十八年	-6140
在内的	-6141
年加入	-6142
文化的	-6143
清真寺	-6144
▁希	-6145
、4	-6146
企圖	-6147
回家	-6148
地質	-6149
带领	-6150
文的	-6151
典型的	-6152
年人口普查	-6153
宰相	-6154
西路	-6155
▁总人口	-6156
fc	-6157
上任	-6158
中将	-6159
伯格	-6160
对此	-6161
校友	-6162
立刻	-6163
黄金	-6164
的功能	-6165
丁堡	-6166
大连	-6167
年有	-6168
幹線	-6169
输入	-6170
鄉道	-6171
高峰	-6172
▁至於	-6173
政府在	-6174
分享	-6175
發明	-6176
競賽	-6177
考入	-6178
own	-6179
▁當地	-6180
▁蔡	-6181
建有	-6182
拜占	-6183
監製	-6184
▁ra	-6185
居委会	-6186
為香港	-6187
在本	-6188
慶祝	-6189
滿足	-6190
最后一	-6191
航空母	-6192
da	-6193
一路	-6194
会员	-6195
兴趣	-6196
地產	-6197
差距	-6198
感覺	-6199
发售	-6200
政委	-6201
的南	-6202
十六年	-6203
降雨量	-6204
do	-6205
五個	-6206
克利	-6207
兵团	-6208
哈利	-6209
場地	-6210
gen	-6211
分别是	-6212
原來	-6213
太郎	-6214
框架	-6215
科幻	-6216
编号	-6217
評估	-6218
min	-6219
的不同	-6220
的要求	-6221
text	-6222
▁ser	-6223
其中一個	-6224
展览	-6225
自杀	-6226
att	-6227
各地的	-6228
或其他	-6229
▁1968	-6230
改称	-6231
日治時期	-6232
▁乌	-6233
协调	-6234
审查	-6235
尼泊	-6236
庄村	-6237
普拉	-6238
关键	-6239
單打	-6240
字率	-6241
形態	-6242
形狀	-6243
從此	-6244
心的	-6245
ste	-6246
事實上	-6247
▁那	-6248
乘坐	-6249
修复	-6250
变成	-6251
望遠	-6252
波羅	-6253
陨坑	-6254
经济学	-6255
主唱	-6256
僅有	-6257
启用	-6258
增長	-6259
打造	-6260
福特	-6261
变种	-6262
撞擊	-6263
放置	-6264
的使用	-6265
的可能	-6266
;0	-6267
mp	-6268
布萊	-6269
意為	-6270
歐盟	-6271
的两	-6272
股票	-6273
在他的	-6274
位於該國南部	-6275
动作	-6276
的心	-6277
道歉	-6278
開辦	-6279
▁1942	-6280
发出	-6281
变为	-6282
封面	-6283
报纸	-6284
當天	-6285
缩写	-6286
长达	-6287
2。	-6288
事後	-6289
寄生	-6290
开设	-6291
行业	-6292
醫師	-6293
面对	-6294
基本上	-6295
改名为	-6296
库尔	-6297
強度	-6298
支持者	-6299
的中心	-6300
john	-6301
▁无	-6302
即將	-6303
大理	-6304
病人	-6305
終點	-6306
rit	-6307
縣的一個非建制地區	-6308
▁今	-6309
一半	-6310
克萊	-6311
太宗	-6312
牛津	-6313
確保	-6314
联络	-6315
覺得	-6316
江西省	-6317
鱸形目	-6318
1955	-6319
bert	-6320
是一颗恒星	-6321
刊登	-6322
发明	-6323
知名的	-6324
youtube	-6325
北洋	-6326
在该	-6327
推动	-6328
杰克	-6329
低氣壓	-6330
設計師	-6331
客户	-6332
科研	-6333
絕對	-6334
維護	-6335
的數據	-6336
▁mar	-6337
颱風警報	-6338
亦可	-6339
喜剧	-6340
耶夫	-6341
▁許多	-6342
有很多	-6343
出战	-6344
子彈	-6345
片中	-6346
經紀	-6347
队长	-6348
為台灣	-6349
公會	-6350
大選	-6351
诗人	-6352
電視節目	-6353
playstation	-6354
▁鄭	-6355
勞工	-6356
▁we	-6357
大聯盟	-6358
1938	-6359
1954	-6360
,0	-6361
一千	-6362
免费	-6363
垃圾	-6364
外圍	-6365
技能	-6366
訊號	-6367
二十年	-6368
的一座城市	-6369
享有	-6370
斯和	-6371
明代	-6372
習慣	-6373
认识	-6374
▁通过	-6375
,2008	-6376
但仍	-6377
大林	-6378
寺院	-6379
将会	-6380
氣體	-6381
水利	-6382
▁電影	-6383
於香港	-6384
▁ngc	-6385
可以通过	-6386
▁1927	-6387
区别	-6388
澎湖	-6389
模特兒	-6390
又有	-6391
因應	-6392
東南亞	-6393
六月	-6394
可靠	-6395
安置	-6396
日語	-6397
期望	-6398
清水	-6399
▁而且	-6400
因此在	-6401
望遠鏡	-6402
器官	-6403
她們	-6404
時報	-6405
短篇	-6406
350	-6407
uper	-6408
尔多	-6409
的设计	-6410
舉辦的	-6411
世代	-6412
人文	-6413
挑战	-6414
特定的	-6415
▁coun	-6416
▁、	-6417
▁龙	-6418
先前	-6419
南下	-6420
最为	-6421
颶風	-6422
▁ho	-6423
哈佛	-6424
委會	-6425
畫面	-6426
立委	-6427
等职	-6428
維斯	-6429
證券	-6430
跨越	-6431
ise	-6432
年球季	-6433
城县	-6434
寻找	-6435
扩建	-6436
高地	-6437
意见	-6438
蝙蝠	-6439
▁臺灣	-6440
分别为	-6441
的土地	-6442
守護	-6443
尝试	-6444
崇拜	-6445
工部	-6446
情报	-6447
igh	-6448
常委会	-6449
以東	-6450
俗稱	-6451
室內	-6452
將於	-6453
镜头	-6454
频率	-6455
艺术家	-6456
1936	-6457
▁man	-6458
來越	-6459
危险	-6460
如今	-6461
逃亡	-6462
雲南	-6463
亚历山大	-6464
併入	-6465
字符	-6466
循环	-6467
效应	-6468
5%	-6469
告知	-6470
来越	-6471
途經	-6472
长春	-6473
電車	-6474
,16	-6475
推出了	-6476
inter	-6477
▁istat	-6478
national	-6479
保险	-6480
翡翠	-6481
里達	-6482
驾驶	-6483
肉食性	-6484
▁1977	-6485
▁colspan	-6486
一生	-6487
人為	-6488
得主	-6489
摄影	-6490
日文	-6491
獎金	-6492
織田	-6493
苏丹	-6494
1962	-6495
师范大学	-6496
月任	-6497
白人	-6498
系的	-6499
繁忙	-6500
規範	-6501
gre	-6502
時代的	-6503
su	-6504
处长	-6505
年獲	-6506
▁1935	-6507
终于	-6508
▁[	-6509
兵部	-6510
太祖	-6511
設計的	-6512
互動	-6513
引進	-6514
推進	-6515
ner	-6516
产生的	-6517
現在的	-6518
!」	-6519
久的	-6520
元朝	-6521
生效	-6522
路德	-6523
近似	-6524
那里	-6525
iam	-6526
是一款	-6527
爱德华	-6528
▁青	-6529
下来	-6530
攻入	-6531
无线	-6532
蒂安	-6533
105	-6534
的人口	-6535
九月	-6536
王后	-6537
神話	-6538
mon	-6539
ome	-6540
ult	-6541
候选人	-6542
越来越	-6543
▁漢	-6544
利尼	-6545
次子	-6546
試驗	-6547
首的	-6548
▁1951	-6549
▁施	-6550
▁贝	-6551
名列	-6552
年龄	-6553
脫離	-6554
談判	-6555
可能会	-6556
▁万	-6557
亲自	-6558
弗拉	-6559
故障	-6560
環球	-6561
ios	-6562
年毕业于	-6563
▁赵	-6564
生理	-6565
菩薩	-6566
人死亡	-6567
再加上	-6568
升为	-6569
帶著	-6570
波爾	-6571
貨幣	-6572
洛杉矶	-6573
》《	-6574
做了	-6575
尊重	-6576
就会	-6577
高山	-6578
不可能	-6579
比利时	-6580
、5	-6581
亮相	-6582
先进	-6583
战中	-6584
水的	-6585
決議	-6586
茨基	-6587
▁魏	-6588
使他	-6589
角逐	-6590
降落	-6591
ower	-6592
少将	-6593
差异	-6594
火力	-6595
运用	-6596
难以	-6597
▁ac	-6598
▁sc	-6599
▁此時	-6600
原因是	-6601
越來越	-6602
這樣的	-6603
利桑	-6604
友好	-6605
客车	-6606
日益	-6607
看法	-6608
ict	-6609
stem	-6610
年美国人口普查	-6611
典型	-6612
教的	-6613
數的	-6614
總監	-6615
骑士	-6616
1953	-6617
電視動畫	-6618
书院	-6619
干涉	-6620
曾有	-6621
獅子	-6622
羅德	-6623
預測	-6624
▁位於	-6625
▁現任	-6626
裔美國	-6627
,2014	-6628
专区	-6629
创新	-6630
賽的	-6631
▁1939	-6632
_3	-6633
元朗	-6634
品質	-6635
實力	-6636
延安	-6637
深刻	-6638
▁本魚	-6639
局部	-6640
所属	-6641
職位	-6642
邊緣	-6643
box	-6644
动车组	-6645
委常委	-6646
發行的	-6647
▁1965	-6648
是南極洲的	-6649
四人	-6650
性格	-6651
月刊	-6652
樣的	-6653
波罗	-6654
轄區	-6655
▁ap	-6656
出色	-6657
划归	-6658
推广	-6659
而得名	-6660
行政長官	-6661
sn	-6662
所得	-6663
該地	-6664
資助	-6665
org	-6666
更大的	-6667
▁1973	-6668
同學	-6669
大奖	-6670
模拟	-6671
車隊	-6672
主權	-6673
汉语	-6674
的时间	-6675
上一	-6676
原则	-6677
手術	-6678
拯救	-6679
授权	-6680
耶律	-6681
配備	-6682
野生	-6683
面臨	-6684
▁1944	-6685
▁莱	-6686
喜愛	-6687
季後	-6688
州立	-6689
升格為	-6690
印度洋	-6691
的一個區	-6692
sy	-6693
▁秦	-6694
哈德	-6695
定了	-6696
戰艦	-6697
零售	-6698
1933	-6699
▁1976	-6700
乐团	-6701
元的	-6702
共计	-6703
只好	-6704
对其	-6705
更有	-6706
標本	-6707
中书	-6708
東尼	-6709
過的	-6710
▁该地	-6711
族自治区	-6712
动机	-6713
支部	-6714
石器	-6715
通讯	-6716
ode	-6717
封為	-6718
尋求	-6719
擴張	-6720
监察	-6721
視覺	-6722
部作品	-6723
</	-6724
fa	-6725
他与	-6726
判決	-6727
各国	-6728
因子	-6729
場的	-6730
常用	-6731
爾頓	-6732
甲組	-6733
薩克	-6734
▁它是	-6735
中國的	-6736
的首府	-6737
上半	-6738
之路	-6739
售票	-6740
瑞拉	-6741
盆地	-6742
祖籍	-6743
練習	-6744
聯絡	-6745
路站	-6746
主義者	-6747
拜占庭	-6748
ka	-6749
▁:	-6750
元音	-6751
射入	-6752
而來	-6753
費用	-6754
决赛以	-6755
的中国	-6756
進行了	-6757
的大部分	-6758
其在	-6759
决议	-6760
市鎮	-6761
年秋	-6762
截止	-6763
游击	-6764
维埃	-6765
轉會	-6766
边缘	-6767
▁上海	-6768
──	-6769
出兵	-6770
型號	-6771
批复	-6772
故此	-6773
明確	-6774
里达	-6775
ade	-6776
▁英國	-6777
▁红	-6778
为止	-6779
工艺	-6780
發揮	-6781
进步	-6782
馬里	-6783
出來的	-6784
新台幣	-6785
於同年	-6786
一角	-6787
制片	-6788
只在	-6789
提琴	-6790
次於	-6791
氯化	-6792
的兩	-6793
广州市	-6794
的基本	-6795
薩斯州	-6796
聯合颱風警報	-6797
催化	-6798
徒刑	-6799
火炮	-6800
矩阵	-6801
加勒比	-6802
相当于	-6803
美國海軍	-6804
▁貝	-6805
使者	-6806
有多	-6807
郎中	-6808
ars	-6809
九州	-6810
作物	-6811
修訂	-6812
卡罗	-6813
累積	-6814
巴勒斯坦	-6815
▁1963	-6816
▁也	-6817
存储	-6818
層的	-6819
辖区	-6820
領地	-6821
發動機	-6822
的轨道	-6823
良好的	-6824
全国重点	-6825
聯合颱風警報中心	-6826
2》	-6827
培训	-6828
就能	-6829
达成	-6830
國際賽	-6831
两国	-6832
主動	-6833
屠杀	-6834
數為	-6835
编剧	-6836
吉林省	-6837
足球甲	-6838
南斯拉夫	-6839
建筑面积	-6840
書中	-6841
省份	-6842
轉向	-6843
離子	-6844
女性为	-6845
柴油机车	-6846
▁该物种的模式产地在	-6847
5"	-6848
加尔	-6849
吾尔	-6850
延續	-6851
消费	-6852
移植	-6853
级别	-6854
辞职	-6855
引起了	-6856
菲利普	-6857
▁1928	-6858
:《	-6859
▁迪	-6860
不如	-6861
地处	-6862
肌肉	-6863
发生在	-6864
td	-6865
不满	-6866
參謀	-6867
吉尔	-6868
將在	-6869
皆為	-6870
蘇丹	-6871
觀塘	-6872
118	-6873
其中有	-6874
1951	-6875
▁1964	-6876
silver	-6877
承担	-6878
改由	-6879
重修	-6880
辽宁省	-6881
則由	-6882
年因	-6883
牙齒	-6884
職員	-6885
農民	-6886
1935	-6887
公立	-6888
密的	-6889
布莱	-6890
擔心	-6891
相當於	-6892
▁1972	-6893
座位	-6894
直徑	-6895
認證	-6896
亦為	-6897
熟悉	-6898
ance	-6899
:,	-6900
刑部	-6901
提案	-6902
烈士	-6903
画家	-6904
北美洲	-6905
▁崇	-6906
▁或	-6907
种植	-6908
积分	-6909
船隻	-6910
這項	-6911
长安	-6912
十一月	-6913
▁1957	-6914
ya	-6915
場景	-6916
姐妹	-6917
枢纽	-6918
浪漫	-6919
率先	-6920
金斯	-6921
有人口	-6922
东侧	-6923
北魏	-6924
卑斯	-6925
有机	-6926
特區	-6927
種類	-6928
辦事	-6929
▁北京	-6930
的女兒	-6931
紐西蘭	-6932
線路口	-6933
初步	-6934
去了	-6935
反射	-6936
哈里	-6937
地图	-6938
大选	-6939
索尼	-6940
要塞	-6941
配角	-6942
發現了	-6943
稱之為	-6944
olog	-6945
侵犯	-6946
克雷	-6947
军团	-6948
山口	-6949
州人	-6950
校园	-6951
电车	-6952
詳細	-6953
ata	-6954
實驗室	-6955
▁1943	-6956
▁1961	-6957
大衛	-6958
戰國	-6959
機槍	-6960
物浦	-6961
等於	-6962
輔助	-6963
▁cl	-6964
▁一個	-6965
事務所	-6966
臺中市	-6967
▁1959	-6968
人被	-6969
其子	-6970
造船	-6971
▁1936	-6972
和西	-6973
小平	-6974
常被	-6975
影展	-6976
面前	-6977
产生了	-6978
分布於南美洲	-6979
fe	-6980
人都	-6981
但卻	-6982
推薦	-6983
ger	-6984
row	-6985
主义者	-6986
排名第	-6987
接受了	-6988
最好的	-6989
連續劇	-6990
by	-6991
」、	-6992
巴特	-6993
旋轉	-6994
錄製	-6995
也沒有	-6996
女演員	-6997
級聯賽	-6998
力学	-6999
岛屿	-7000
鋼琴	-7001
间的	-7002
▁位于	-7003
▁這是	-7004
同性戀	-7005
▁1962	-7006
写作	-7007
滅絕	-7008
等站	-7009
花蓮	-7010
遊客	-7011
har	-7012
並止於	-7013
但是在	-7014
之为	-7015
思考	-7016
畫家	-7017
美军	-7018
▁小行星列表	-7019
一所	-7020
一旦	-7021
完善	-7022
巴布	-7023
最為	-7024
线性	-7025
之際	-7026
剩下	-7027
國務	-7028
審查	-7029
的信	-7030
短暫	-7031
评为	-7032
路上	-7033
卡斯蒂	-7034
马克思	-7035
1。	-7036
▁华	-7037
不及	-7038
吉斯	-7039
漸漸	-7040
服务器	-7041
光绪	-7042
塔尔	-7043
的非	-7044
英寸	-7045
规范	-7046
的歷史	-7047
塞爾維亞	-7048
依据	-7049
的二	-7050
的先	-7051
转换	-7052
東日本	-7053
="5"	-7054
夫卡是烏克蘭的村落	-7055
促使	-7056
周刊	-7057
回憶	-7058
溝通	-7059
衛隊	-7060
西侧	-7061
公司在	-7062
岁人口	-7063
隶属于	-7064
soft	-7065
▁中華民國	-7066
洪水	-7067
里程	-7068
有一些	-7069
▁you	-7070
國家公園	-7071
香港政府	-7072
共享	-7073
利安	-7074
手法	-7075
敏感	-7076
皇室	-7077
米亚	-7078
组织的	-7079
维吾尔	-7080
五百	-7081
傷害	-7082
前者	-7083
厦门	-7084
啟動	-7085
排除	-7086
法人	-7087
營業	-7088
男人	-7089
種植	-7090
驱动	-7091
que	-7092
独立的	-7093
美國的	-7094
世界各地	-7095
,2015	-7096
▁with	-7097
单独	-7098
司職	-7099
尼奥	-7100
年於	-7101
斯里	-7102
ics	-7103
▁遊戲	-7104
的機會	-7105
縣知縣	-7106
▁1974	-7107
mb	-7108
▁城	-7109
以为	-7110
剧本	-7111
拉尔	-7112
流通	-7113
潜艇	-7114
十七年	-7115
基金会	-7116
為輻鰭魚綱鱸形目	-7117
消耗	-7118
滨海	-7119
頭部	-7120
不需要	-7121
事件的	-7122
任命為	-7123
意味着	-7124
,2002	-7125
_4	-7126
不在	-7127
巴爾	-7128
面體	-7129
原有的	-7130
提倡	-7131
武昌	-7132
苗栗	-7133
足以	-7134
轉為	-7135
處理器	-7136
部分的	-7137
▁穆	-7138
仅仅	-7139
合金	-7140
在今	-7141
生素	-7142
身高	-7143
str	-7144
三名	-7145
公平	-7146
在第	-7147
照顧	-7148
离心	-7149
▁松	-7150
▁田	-7151
奴隶	-7152
悉尼	-7153
换乘	-7154
科尔	-7155
当选为	-7156
▁comp	-7157
介入	-7158
前後	-7159
敘述	-7160
末年	-7161
模擬	-7162
消除	-7163
邊的	-7164
领事	-7165
▁学校	-7166
主題曲	-7167
国家队	-7168
獎最佳	-7169
▁new	-7170
▁1931	-7171
勳章	-7172
塔基	-7173
推荐	-7174
財產	-7175
▁由此	-7176
型机车	-7177
▁戴	-7178
流傳	-7179
游客	-7180
無限	-7181
自稱	-7182
為基礎	-7183
的國際	-7184
▁愛	-7185
主人	-7186
呼籲	-7187
往返	-7188
死于	-7189
領隊	-7190
出現的	-7191
周恩来	-7192
交付	-7193
化工	-7194
攻占	-7195
新区	-7196
股權	-7197
讓他	-7198
較低	-7199
迫害	-7200
fer	-7201
巴伐利亚	-7202
ll	-7203
参考	-7204
林中	-7205
胡同	-7206
财产	-7207
▁br	-7208
是由于	-7209
是英國	-7210
出发	-7211
型態	-7212
密西	-7213
東區	-7214
網上	-7215
年代的	-7216
日本人	-7217
培養	-7218
源於	-7219
真菌	-7220
和一	-7221
當日	-7222
相连	-7223
處的	-7224
西元	-7225
走廊	-7226
世界杯	-7227
发行的	-7228
▁1932	-7229
▁1969	-7230
号的	-7231
彻底	-7232
是他	-7233
血管	-7234
骑兵	-7235
240	-7236
ree	-7237
▁ed	-7238
—6	-7239
商务	-7240
嘉靖	-7241
治理	-7242
蒙德	-7243
▁中央	-7244
▁经过	-7245
情況下	-7246
生长在	-7247
1912	-7248
保加利亞	-7249
▁1933	-7250
▁母	-7251
不利	-7252
彈藥	-7253
恩斯	-7254
颁发	-7255
▁许多	-7256
來自於	-7257
年总人口	-7258
好評	-7259
寫作	-7260
港澳	-7261
癌症	-7262
股東	-7263
航行	-7264
觀音	-7265
金像	-7266
限定	-7267
▁1971	-7268
一日	-7269
公車	-7270
夥伴	-7271
年末	-7272
遺產	-7273
雕像	-7274
▁經過	-7275
东北部	-7276
办公厅	-7277
国家级	-7278
發生在	-7279
▁亚	-7280
▁受	-7281
中等	-7282
對其	-7283
尔顿	-7284
更換	-7285
機動	-7286
海姆	-7287
的那	-7288
辦法	-7289
dc	-7290
丘陵	-7291
報道	-7292
相近	-7293
▁他也	-7294
劇中	-7295
职位	-7296
變為	-7297
▁於是	-7298
意思是	-7299
时间为	-7300
眾議院	-7301
▁one	-7302
与其	-7303
工会	-7304
採訪	-7305
ank	-7306
▁双	-7307
不佳	-7308
德爾	-7309
硬币	-7310
首批	-7311
▁他曾	-7312
可以被	-7313
工作者	-7314
次列车	-7315
科進士	-7316
▁1967	-7317
印度尼西亚	-7318
供应	-7319
劇院	-7320
各省	-7321
聞名	-7322
聲優	-7323
韦尔	-7324
sch	-7325
可以是	-7326
▁總	-7327
元首	-7328
女人	-7329
并被	-7330
德勒	-7331
摧毀	-7332
發音	-7333
▁近	-7334
世的	-7335
位居	-7336
对抗	-7337
170	-7338
akb	-7339
▁直至	-7340
治所在	-7341
羅馬天主教	-7342
二百	-7343
分散	-7344
米亞	-7345
罪名	-7346
長子	-7347
威爾斯	-7348
▁就	-7349
▁英	-7350
为其	-7351
沖繩	-7352
消滅	-7353
紧急	-7354
給了	-7355
镇压	-7356
其中男	-7357
识字率	-7358
交匯	-7359
体制	-7360
兩側	-7361
北伐	-7362
占据	-7363
展現	-7364
島的	-7365
形状	-7366
杀害	-7367
薩爾	-7368
譯為	-7369
陆续	-7370
医学院	-7371
南宋	-7372
案的	-7373
極為	-7374
樂園	-7375
西兰	-7376
路的	-7377
開啟	-7378
▁包括	-7379
gu	-7380
▁常	-7381
即為	-7382
灰色	-7383
監獄	-7384
送往	-7385
飲食	-7386
方向的	-7387
第一部	-7388
位於該國西北部	-7389
总局	-7390
活性	-7391
路军	-7392
风险	-7393
相关的	-7394
位於該國東部	-7395
县的一个城镇	-7396
▁另	-7397
便利	-7398
出一	-7399
房子	-7400
执政	-7401
是從	-7402
▁它的	-7403
以外的	-7404
轟炸機	-7405
1931	-7406
▁孫	-7407
情形	-7408
本部	-7409
混凝	-7410
研制	-7411
耶路	-7412
迪斯	-7413
适应	-7414
題材	-7415
ls	-7416
▁富	-7417
书中	-7418
书籍	-7419
唐代	-7420
美麗	-7421
随即	-7422
1932	-7423
全国人大代表	-7424
▁老	-7425
列斯	-7426
剧情	-7427
引力	-7428
打敗	-7429
▁wh	-7430
集中在	-7431
國家足球隊	-7432
享受	-7433
公投	-7434
出局	-7435
撒冷	-7436
死於	-7437
物理学	-7438
追溯到	-7439
多項	-7440
安县	-7441
将在	-7442
拉姆	-7443
排球	-7444
書記	-7445
的下	-7446
的可	-7447
1927	-7448
▁mus	-7449
一词	-7450
事物	-7451
封为	-7452
服裝	-7453
盟軍	-7454
邊為	-7455
长子	-7456
體育館	-7457
icon	-7458
佛羅里達	-7459
可以使用	-7460
巴拿	-7461
文藝	-7462
構造	-7463
王的	-7464
绿色	-7465
vel	-7466
▁部分	-7467
其中的	-7468
淡水魚	-7469
區議會選舉	-7470
▁七	-7471
停车	-7472
写的	-7473
凭借	-7474
志愿	-7475
施行	-7476
最小	-7477
當作	-7478
英鎊	-7479
辦理	-7480
ala	-7481
app	-7482
造成了	-7483
1913	-7484
fr	-7485
但也	-7486
和中	-7487
▁戰後	-7488
▁父亲	-7489
年中国	-7490
当地的	-7491
混凝土	-7492
第三甲	-7493
董事长	-7494
华北	-7495
口岸	-7496
姐姐	-7497
指數	-7498
摧毁	-7499
改任	-7500
是被	-7501
爾夫	-7502
登堡	-7503
穿著	-7504
羅夫	-7505
衣服	-7506
证券	-7507
证实	-7508
回应	-7509
大力	-7510
特蘭	-7511
的總	-7512
進而	-7513
附屬	-7514
奧運會	-7515
工程師	-7516
年歐洲	-7517
的事情	-7518
假設	-7519
士坦	-7520
文本	-7521
瓦拉	-7522
竞选	-7523
防衛	-7524
鱼类	-7525
主教练	-7526
来源于	-7527
阿拉斯	-7528
带小行星	-7529
一职	-7530
天氣	-7531
搭乘	-7532
站在	-7533
較少	-7534
迁至	-7535
东南部	-7536
耶路撒冷	-7537
其中男性为	-7538
▁烏	-7539
一級	-7540
五个	-7541
升降	-7542
改用	-7543
水中	-7544
河谷	-7545
玫瑰	-7546
粉絲	-7547
女歌手	-7548
時間逢星期	-7549
事宜	-7550
亚军	-7551
他为	-7552
可供	-7553
多位	-7554
安东	-7555
有利	-7556
粮食	-7557
预计	-7558
的速度	-7559
1918	-7560
届全国政协委员	-7561
▁並	-7562
中也	-7563
交往	-7564
兩條	-7565
后被	-7566
圓形	-7567
客戶	-7568
槍管	-7569
詩人	-7570
辐射	-7571
▁世界	-7572
出版了	-7573
▁car	-7574
是中	-7575
月被	-7576
漢語	-7577
场所	-7578
机的	-7579
纳德	-7580
裝飾	-7581
透明	-7582
▁1934	-7583
城际	-7584
外部	-7585
步行	-7586
該庄	-7587
購物	-7588
這裡	-7589
郑州	-7590
▁它们	-7591
参议院	-7592
年代末	-7593
的情形	-7594
藝術家	-7595
传媒	-7596
大氣	-7597
觀看	-7598
金剛	-7599
黨的	-7600
▁她的	-7601
之一的	-7602
是秘魯	-7603
總督府	-7604
▁school	-7605
全国重点文物保护单位	-7606
公子	-7607
均為	-7608
,11	-7609
104	-7610
一直到	-7611
漫畫家	-7612
魚亞目	-7613
傳奇	-7614
吉爾	-7615
委託	-7616
展出	-7617
後方	-7618
战列	-7619
神话	-7620
诺夫	-7621
ink	-7622
▁卢	-7623
告示	-7624
巨人	-7625
普森	-7626
磷酸	-7627
脂肪	-7628
車廂	-7629
遵守	-7630
let	-7631
4000	-7632
型电力机车	-7633
1"	-7634
主導	-7635
園區	-7636
新生	-7637
桥梁	-7638
深受	-7639
维克	-7640
者和	-7641
觉得	-7642
軟條	-7643
都要	-7644
ris	-7645
臺南市	-7646
linux	-7647
亥俄	-7648
的電	-7649
神的	-7650
臀鰭	-7651
被告	-7652
車手	-7653
重點	-7654
俄亥俄	-7655
美国的	-7656
▁按	-7657
即時	-7658
是其	-7659
標題	-7660
歸類	-7661
点的	-7662
辭職	-7663
閩南	-7664
▁国家	-7665
品的	-7666
珍珠	-7667
者在	-7668
;0—6	-7669
上校	-7670
師範	-7671
年时	-7672
特尔	-7673
瑞克	-7674
瓦爾	-7675
警員	-7676
new	-7677
特殊的	-7678
程度上	-7679
1911	-7680
北宋	-7681
單獨	-7682
旋律	-7683
未被	-7684
為由	-7685
重播	-7686
ana	-7687
1928	-7688
行政中心	-7689
不敵	-7690
亞科	-7691
北面	-7692
员工	-7693
回忆	-7694
射击	-7695
机制	-7696
检测	-7697
气温	-7698
▁英国	-7699
▁pre	-7700
內有	-7701
前進	-7702
放送	-7703
桂林	-7704
的和	-7705
许可	-7706
▁于是	-7707
▁最后	-7708
▁本屆	-7709
利物浦	-7710
大獎賽	-7711
奥斯曼	-7712
roid	-7713
六十	-7714
拓跋	-7715
拼音	-7716
評審	-7717
高宗	-7718
oci	-7719
《》,	-7720
发生了	-7721
君士坦	-7722
采用了	-7723
另一方面	-7724
同時也是	-7725
1,000	-7726
圣经	-7727
航海	-7728
车厢	-7729
ob	-7730
▁謝	-7731
▁麥	-7732
三百	-7733
协商	-7734
大厦	-7735
延长	-7736
城市的	-7737
▁孙	-7738
▁雅	-7739
協調	-7740
右翼	-7741
宣称	-7742
废除	-7743
爱国	-7744
管道	-7745
年期間	-7746
▁隋	-7747
不一	-7748
北路	-7749
暗示	-7750
暴露	-7751
而死	-7752
苹果	-7753
赛会	-7754
雕刻	-7755
ser	-7756
▁早年	-7757
主义的	-7758
年正式	-7759
形式的	-7760
的兒子	-7761
▁des	-7762
航空母艦	-7763
hz	-7764
交由	-7765
出境	-7766
含量	-7767
天王	-7768
故意	-7769
沃尔	-7770
建築師	-7771
第一名	-7772
蛋白质	-7773
仅有	-7774
南投	-7775
場所	-7776
日和	-7777
景区	-7778
武力	-7779
足够	-7780
過世	-7781
也没有	-7782
只有一	-7783
的結果	-7784
佛罗里达	-7785
绕太阳运	-7786
第二次世界大战	-7787
其頓	-7788
是为	-7789
派人	-7790
指揮官	-7791
是一颗绕太阳运	-7792
是一颗绕太阳运转的小行星	-7793
▁勒	-7794
和阿	-7795
宋朝	-7796
物體	-7797
袁世	-7798
都能	-7799
社會主義	-7800
頒獎典禮	-7801
提议	-7802
障碍	-7803
mat	-7804
负责人	-7805
罗马尼亚	-7806
三國	-7807
原料	-7808
多尔	-7809
态度	-7810
攻勢	-7811
构造	-7812
炸彈	-7813
je	-7814
▁查	-7815
之初	-7816
事中	-7817
以东	-7818
原創	-7819
史料	-7820
報紙	-7821
小孩	-7822
局面	-7823
山谷	-7824
研发	-7825
运河	-7826
▁gro	-7827
修復	-7828
南路	-7829
原址	-7830
往來	-7831
本來	-7832
檢察	-7833
痛苦	-7834
马丁	-7835
传统的	-7836
月開始	-7837
不等	-7838
取了	-7839
战胜	-7840
最具	-7841
水上	-7842
洛伊	-7843
老人	-7844
urn	-7845
▁曹	-7846
三国	-7847
光明	-7848
县级	-7849
发挥	-7850
微軟	-7851
改稱	-7852
活跃	-7853
色情	-7854
uch	-7855
日舉行	-7856
▁戈	-7857
低於	-7858
写道	-7859
容納	-7860
彗星	-7861
承諾	-7862
本作	-7863
,15	-7864
參加了	-7865
的主題	-7866
不良	-7867
加里	-7868
啤酒	-7869
明尼	-7870
此一	-7871
ude	-7872
獨立的	-7873
發現的	-7874
为主小行星	-7875
为主小行星带小行星	-7876
孔子	-7877
影视	-7878
後於	-7879
或稱	-7880
更高	-7881
留学	-7882
enn	-7883
▁fo	-7884
rist	-7885
河道全長	-7886
水域面積為	-7887
▁咸	-7888
▁方	-7889
奉命	-7890
怀疑	-7891
扩张	-7892
搬到	-7893
教友	-7894
普鲁	-7895
脊椎	-7896
行李	-7897
選秀	-7898
第一屆	-7899
第一批	-7900
ward	-7901
陸地面積為	-7902
乌斯	-7903
二戰	-7904
亦被	-7905
产物	-7906
厚的	-7907
参数	-7908
探测	-7909
車身	-7910
金門	-7911
集會	-7912
ike	-7913
▁她在	-7914
罗伯特	-7915
▁曾祖父	-7916
作詞	-7917
元件	-7918
公頃	-7919
华东	-7920
天空	-7921
年获	-7922
株式	-7923
辅助	-7924
進口	-7925
首映	-7926
asa	-7927
以及其他	-7928
足球运动员	-7929
巴哈	-7930
數個	-7931
斯顿	-7932
樂器	-7933
的比	-7934
部曲	-7935
傳統的	-7936
斯大林	-7937
記者會	-7938
:1	-7939
sd	-7940
中環	-7941
公演	-7942
少量	-7943
总体	-7944
欧盟	-7945
永遠	-7946
精英	-7947
联军	-7948
賽馬	-7949
起的	-7950
输出	-7951
的官方	-7952
1934	-7953
天文學家	-7954
ng	-7955
之父	-7956
具備	-7957
出租	-7958
包围	-7959
早已	-7960
涵蓋	-7961
种类	-7962
運算	-7963
那麼	-7964
氣象廳	-7965
萨克森	-7966
判斷	-7967
埃爾	-7968
度假	-7969
当中	-7970
此後	-7971
生意	-7972
ald	-7973
▁印度	-7974
的版本	-7975
1914	-7976
//	-7977
农场	-7978
合肥	-7979
执导	-7980
是新	-7981
短片	-7982
群眾	-7983
軍人	-7984
适合	-7985
甘肃省	-7986
micro	-7987
下去	-7988
其父	-7989
哈特	-7990
大队	-7991
文革	-7992
治安	-7993
領先	-7994
黨籍	-7995
张专辑	-7996
的女性	-7997
阿拉巴	-7998
1929	-7999
mi	-8000
拉的	-8001
码头	-8002
維修	-8003
行使	-8004
▁香港時間逢星期	-8005
克罗	-8006
分割	-8007
团长	-8008
是用	-8009
流經	-8010
環保	-8011
缺陷	-8012
而已	-8013
行車	-8014
陝西	-8015
一方面	-8016
以及在	-8017
出現了	-8018
人稱	-8019
劇團	-8020
变量	-8021
叛亂	-8022
对称	-8023
斯德	-8024
混亂	-8025
生日	-8026
相继	-8027
站至	-8028
设在	-8029
世纪初	-8030
广播电台	-8031
▁順	-8032
格鲁	-8033
瀑布	-8034
鸟类	-8035
orn	-8036
▁他还	-8037
▁明朝	-8038
1919	-8039
hone	-8040
中央军委	-8041
wo	-8042
光的	-8043
兰州	-8044
圣母	-8045
庆祝	-8046
摩托	-8047
正确	-8048
灣仔	-8049
球的	-8050
紛紛	-8051
遷至	-8052
龍科	-8053
奥斯卡	-8054
而成的	-8055
主播	-8056
勇士	-8057
各有	-8058
和南	-8059
它在	-8060
玩具	-8061
硫酸	-8062
雷達	-8063
vis	-8064
翡翠台	-8065
范围内	-8066
錄影帶	-8067
屬肉食性	-8068
铁路车站	-8069
▁更	-8070
歷任	-8071
繪入	-8072
长轴	-8073
阿姆	-8074
首爾	-8075
的美國	-8076
、"	-8077
客串	-8078
纳斯	-8079
罗德	-8080
集体	-8081
以下的	-8082
的事件	-8083
中國共產黨	-8084
倫多	-8085
真相	-8086
級別	-8087
經費	-8088
閱讀	-8089
号种子	-8090
硕士学位	-8091
綜藝節目	-8092
之用	-8093
仍是	-8094
他曾	-8095
前夕	-8096
木材	-8097
样的	-8098
樂壇	-8099
混淆	-8100
相邻	-8101
跟随	-8102
青山	-8103
廣東省	-8104
是為了	-8105
理查德	-8106
▁1929	-8107
中国科学院	-8108
▁河	-8109
▁華	-8110
古斯	-8111
完美	-8112
探測	-8113
森堡	-8114
貨物	-8115
bar	-8116
認為是	-8117
设计的	-8118
热带风暴	-8119
学堂	-8120
射手	-8121
巡撫	-8122
巴克	-8123
摩斯	-8124
會以	-8125
有線	-8126
租借	-8127
站是	-8128
納入	-8129
转移	-8130
与其他	-8131
創辦人	-8132
期徒刑	-8133
的一所	-8134
秘書長	-8135
公共交通	-8136
黑龙江省	-8137
俄罗斯联邦	-8138
下轄	-8139
中途	-8140
代號	-8141
实践	-8142
时报	-8143
氏的	-8144
立的	-8145
尼古拉	-8146
年上映	-8147
驅逐艦	-8148
▁伯	-8149
全美	-8150
按察	-8151
歌舞	-8152
现有	-8153
許可	-8154
进程	-8155
這段	-8156
僅次於	-8157
年代为	-8158
port	-8159
▁潘	-8160
之事	-8161
五大	-8162
典礼	-8163
圆形	-8164
夫妻	-8165
映射	-8166
積分	-8167
125	-8168
▁也有	-8169
街道办事处	-8170
▁沈	-8171
乃至	-8172
他為	-8173
出賽	-8174
則以	-8175
名詞	-8176
和小	-8177
廣西	-8178
战队	-8179
洛特	-8180
火车	-8181
生育	-8182
编组	-8183
財務	-8184
是臺灣	-8185
位於該國東北部	-8186
▁凱	-8187
不详	-8188
停留	-8189
公務	-8190
擅長	-8191
業者	-8192
识别	-8193
部件	-8194
ico	-8195
國防部	-8196
领导的	-8197
▁※	-8198
▁阮	-8199
國中	-8200
屠殺	-8201
敌人	-8202
遗传	-8203
106	-8204
108	-8205
為日本	-8206
ited	-8207
facebook	-8208
▁丁	-8209
▁葉	-8210
不列	-8211
了在	-8212
各界	-8213
家庄	-8214
斯頓	-8215
案例	-8216
死者	-8217
流放	-8218
物業	-8219
社團	-8220
選民	-8221
開業	-8222
220	-8223
ene	-8224
一等	-8225
内地	-8226
加爾	-8227
數目	-8228
銀河	-8229
颁布	-8230
交通部	-8231
代表作	-8232
半长轴	-8233
生活的	-8234
最著名的	-8235
▁紅	-8236
不幸	-8237
刊物	-8238
北上	-8239
起義	-8240
霍夫	-8241
ham	-8242
▁by	-8243
多年的	-8244
1924	-8245
tain	-8246
传输	-8247
前后	-8248
匈奴	-8249
國小	-8250
安妮	-8251
巴嫩	-8252
战场	-8253
招募	-8254
解析	-8255
▁比如	-8256
並不是	-8257
在英國	-8258
敘利亞	-8259
是瑞士	-8260
ille	-8261
一事	-8262
前來	-8263
工會	-8264
電池	-8265
115	-8266
丞相	-8267
体现	-8268
俄國	-8269
党委	-8270
宗室	-8271
心臟	-8272
清廷	-8273
較高	-8274
常见的	-8275
▁并	-8276
一群	-8277
人力	-8278
協定	-8279
叛乱	-8280
拉萨	-8281
直属	-8282
雲林	-8283
高清	-8284
點的	-8285
▁pr	-8286
类型为	-8287
罗马帝国	-8288
,2004	-8289
年夏季奧林匹克運動會	-8290
全數	-8291
宁夏	-8292
廟宇	-8293
縣長	-8294
赤道	-8295
靈魂	-8296
日晚上	-8297
的學生	-8298
馬其頓	-8299
黎巴嫩	-8300
年代中期	-8301
▁崔	-8302
▁韋	-8303
以致	-8304
儲存	-8305
創建	-8306
助攻	-8307
提議	-8308
攻陷	-8309
这场	-8310
速率	-8311
發電廠	-8312
大區	-8313
情感	-8314
法定	-8315
法拉	-8316
爭奪	-8317
草科	-8318
蓝色	-8319
▁ua	-8320
pm	-8321
▁开	-8322
乒乓	-8323
人权	-8324
从此	-8325
假名	-8326
流動	-8327
探險隊	-8328
苏维埃	-8329
所辖的一个	-8330
不變	-8331
交汇	-8332
他又	-8333
位列	-8334
爵位	-8335
见于	-8336
開通	-8337
▁作為	-8338
面积为	-8339
利桑那州	-8340
,2016	-8341
▁台	-8342
一方	-8343
為期	-8344
草地	-8345
▁按照	-8346
年首次	-8347
研究员	-8348
繪入地圖	-8349
主体	-8350
內政	-8351
培訓	-8352
堂區	-8353
幾何	-8354
攜帶	-8355
里尼	-8356
金鐘	-8357
一般的	-8358
他們在	-8359
约瑟夫	-8360
illa	-8361
依赖	-8362
泰因	-8363
用在	-8364
ement	-8365
nowiki	-8366
▁桑	-8367
增設	-8368
应当	-8369
想到	-8370
最新	-8371
洛阳	-8372
爱情	-8373
站厅	-8374
討伐	-8375
诗歌	-8376
部下	-8377
預定	-8378
uth	-8379
参与了	-8380
最初的	-8381
1922	-8382
半长轴为	-8383
离心率为	-8384
两位	-8385
团结	-8386
民兵	-8387
童軍	-8388
製成	-8389
▁玩家	-8390
建筑师	-8391
赢得了	-8392
▁1926	-8393
弘治	-8394
橄欖	-8395
武士	-8396
獲勝	-8397
二氧化	-8398
开发区	-8399
此同时	-8400
研究的	-8401
加利福尼亚州	-8402
卡羅	-8403
感觉	-8404
過於	-8405
鼓励	-8406
三角形	-8407
yn	-8408
内有	-8409
列宁	-8410
前方	-8411
发达	-8412
司鐸	-8413
對話	-8414
推理	-8415
描寫	-8416
繪畫	-8417
贝格	-8418
迄今	-8419
隊友	-8420
隊員	-8421
事实上	-8422
的轨道半长轴为	-8423
人事	-8424
地带	-8425
山縣	-8426
後續	-8427
晚年	-8428
為此	-8429
的本	-8430
航線	-8431
購入	-8432
车队	-8433
ave	-8434
创始人	-8435
台灣的	-8436
延伸至	-8437
开始了	-8438
內亞	-8439
写了	-8440
強化	-8441
德利	-8442
炮兵	-8443
的一家	-8444
足球會	-8445
重庆市	-8446
操作系统	-8447
ition	-8448
之內	-8449
南面	-8450
古蹟	-8451
夫州	-8452
奴隸	-8453
年及	-8454
有意	-8455
特点	-8456
生前	-8457
聖誕	-8458
認可	-8459
较大	-8460
钢琴	-8461
隔年	-8462
主要由	-8463
法兰西	-8464
政治委员	-8465
中西	-8466
亦會	-8467
倾向	-8468
岛上	-8469
收回	-8470
但由于	-8471
的女儿	-8472
称之为	-8473
▁任	-8474
两年	-8475
亦在	-8476
总裁	-8477
東海	-8478
的好	-8479
确保	-8480
作品的	-8481
进行的	-8482
則會	-8483
天體	-8484
尚有	-8485
布爾	-8486
皮膚	-8487
翌日	-8488
队员	-8489
集結	-8490
ual	-8491
▁gr	-8492
edia	-8493
▁该小行星	-8494
gn	-8495
分區	-8496
回收	-8497
场景	-8498
月到	-8499
有助	-8500
次數	-8501
的石	-8502
論壇	-8503
重力	-8504
闻名	-8505
黄河	-8506
▁公司	-8507
可能的	-8508
奧斯卡	-8509
布政使	-8510
深圳市	-8511
的香港	-8512
領導人	-8513
iversity	-8514
▁宣	-8515
▁盧	-8516
每週	-8517
建筑物	-8518
月中旬	-8519
line	-8520
▁谢	-8521
分区	-8522
司徒	-8523
战士	-8524
抽象	-8525
曼聯	-8526
概率	-8527
秀吉	-8528
誕生	-8529
長大	-8530
的成员	-8531
蒋介石	-8532
之处	-8533
改進	-8534
文中	-8535
月下	-8536
毗邻	-8537
米蘭	-8538
年左右	-8539
氣象局	-8540
2,000	-8541
▁1925	-8542
sw	-8543
州长	-8544
日以	-8545
语的	-8546
▁ii	-8547
内蒙古自治区	-8548
▁趙	-8549
終止	-8550
维斯	-8551
蜘蛛	-8552
西比	-8553
週年	-8554
star	-8555
但被	-8556
低地	-8557
国共	-8558
夢想	-8559
天地	-8560
殺人	-8561
每月	-8562
萬張	-8563
起兵	-8564
黄色	-8565
illiam	-8566
▁该小行星于	-8567
伙伴	-8568
加泰	-8569
影視	-8570
气体	-8571
要在	-8572
預告	-8573
360	-8574
▁pl	-8575
主義的	-8576
1926	-8577
喬治亞州	-8578
下載	-8579
中將	-8580
小巴	-8581
帕拉	-8582
相繼	-8583
省长	-8584
觀念	-8585
▁祖父	-8586
数据库	-8587
ream	-8588
▁再	-8589
三種	-8590
之時	-8591
奧斯	-8592
手的	-8593
挖掘	-8594
曼哈	-8595
此前	-8596
當代	-8597
群的	-8598
航站	-8599
車道	-8600
並且在	-8601
三千	-8602
也纳	-8603
例外	-8604
始於	-8605
官兵	-8606
對稱	-8607
更名	-8608
空降	-8609
補充	-8610
順序	-8611
的妻子	-8612
1923	-8613
巴士路線	-8614
合共	-8615
忽略	-8616
慢慢	-8617
標示	-8618
▁道光	-8619
人口的	-8620
战争中	-8621
選舉中	-8622
两名	-8623
公益	-8624
前鋒	-8625
和的	-8626
国有	-8627
奧爾	-8628
布置	-8629
微分	-8630
排序	-8631
沙特	-8632
107	-8633
發生於	-8634
▁1924	-8635
不詳	-8636
变换	-8637
最少	-8638
格爾	-8639
皆有	-8640
者是	-8641
▁world	-8642
si	-8643
ti	-8644
保育	-8645
信用	-8646
凤凰	-8647
區間	-8648
发音	-8649
姓名	-8650
氨基	-8651
直隶	-8652
纵队	-8653
鏡頭	-8654
103	-8655
該公司	-8656
gd	-8657
▁木	-8658
後被	-8659
於此	-8660
波尔	-8661
用地	-8662
而有	-8663
訴訟	-8664
质疑	-8665
预测	-8666
102	-8667
愛德華	-8668
改編自	-8669
的关系	-8670
的地區	-8671
的法律	-8672
集团军	-8673
fran	-8674
地区代表	-8675
流域面積	-8676
他还	-8677
大师	-8678
奥斯	-8679
廠商	-8680
米兰	-8681
野战	-8682
ose	-8683
▁本作	-8684
▁此时	-8685
会议上	-8686
同时也	-8687
是一所	-8688
分歧	-8689
指数	-8690
接口	-8691
教室	-8692
无锡	-8693
清晰	-8694
致命	-8695
ron	-8696
▁en	-8697
德里克	-8698
的大小	-8699
的控制	-8700
的电影	-8701
體育場	-8702
▁system	-8703
不大	-8704
全台	-8705
在內	-8706
大名	-8707
夫妇	-8708
捐款	-8709
档案	-8710
球场	-8711
的一部	-8712
的最大	-8713
1905	-8714
的一個縣	-8715
人口密度為每	-8716
審判	-8717
当代	-8718
显著	-8719
的副	-8720
的话	-8721
虛構	-8722
龍類	-8723
所使用的	-8724
特別行政區	-8725
培育	-8726
家康	-8727
阿肯	-8728
也可能	-8729
开始在	-8730
的名称	-8731
_5	-8732
无论	-8733
書寫	-8734
正義	-8735
水扁	-8736
為名	-8737
脱离	-8738
適應	-8739
▁威廉	-8740
主要有	-8741
卢瓦尔	-8742
有一座	-8743
的內容	-8744
的父親	-8745
解放軍	-8746
信長	-8747
庄為	-8748
溪流	-8749
農曆	-8750
區議員	-8751
站位于	-8752
问题的	-8753
不敢	-8754
专科	-8755
威斯	-8756
政務	-8757
故居	-8758
時會	-8759
灌木	-8760
生殖	-8761
知的	-8762
藤原	-8763
見到	-8764
銅鑼	-8765
:""	-8766
1925	-8767
少数民族	-8768
世宗	-8769
並有	-8770
全程	-8771
司机	-8772
東側	-8773
牧師	-8774
現為	-8775
生母	-8776
西側	-8777
赫尔	-8778
▁此次	-8779
▁毕业于	-8780
▁windows	-8781
▁范	-8782
八十	-8783
夕法	-8784
復活	-8785
政变	-8786
昆蟲	-8787
阿斯	-8788
交給	-8789
後衛	-8790
改裝	-8791
活佛	-8792
的古	-8793
維基	-8794
編碼	-8795
1,0	-8796
pet	-8797
总经理	-8798
的一條	-8799
eric	-8800
加索	-8801
支配	-8802
條目	-8803
电路	-8804
绘画	-8805
肯尼	-8806
認定	-8807
面临	-8808
的力量	-8809
的历史年代为	-8810
一片	-8811
上演	-8812
全体	-8813
千瓦	-8814
各項	-8815
多少	-8816
專用	-8817
接到	-8818
本片	-8819
的自	-8820
編曲	-8821
的河流	-8822
地方政府	-8823
卡斯蒂利亚	-8824
七十	-8825
物体	-8826
纤维	-8827
1917	-8828
mr	-8829
並被	-8830
图案	-8831
在外	-8832
州和	-8833
數十	-8834
空調	-8835
總共	-8836
阿布	-8837
mus	-8838
为一个	-8839
日发现	-8840
类似于	-8841
總經理	-8842
年美國人口普查的數據	-8843
公顷	-8844
卸任	-8845
滑雪	-8846
級的	-8847
起點	-8848
里昂	-8849
是由於	-8850
肯塔基	-8851
而水域面積為	-8852
當中陸地面積為	-8853
上訴	-8854
不合	-8855
分組	-8856
吉士	-8857
命中	-8858
數碼	-8859
穿过	-8860
製片	-8861
邏輯	-8862
的行為	-8863
1910	-8864
應用程式	-8865
,2017	-8866
流传	-8867
溫泉	-8868
軍方	-8869
这部	-8870
首張	-8871
众议院	-8872
魚科的其中一種	-8873
▁反	-8874
不用	-8875
国旗	-8876
改成	-8877
攻克	-8878
时速	-8879
的音	-8880
素的	-8881
行程	-8882
賽車	-8883
ero	-8884
par	-8885
||0	-8886
生產的	-8887
1200	-8888
了其	-8889
原来	-8890
哥特	-8891
在家	-8892
華語	-8893
随机	-8894
▁國際	-8895
的自由	-8896
迈克尔	-8897
1909	-8898
▁1919	-8899
為熱帶淡水魚	-8900
严格	-8901
五代	-8902
夜間	-8903
很高	-8904
有四	-8905
民航	-8906
法尔	-8907
深夜	-8908
玻利	-8909
船只	-8910
路徑	-8911
▁影片	-8912
了許多	-8913
南部的	-8914
设置的	-8915
伺服	-8916
暫停	-8917
準確	-8918
繼任	-8919
赛中	-8920
迎接	-8921
▁光绪	-8922
控制的	-8923
bi	-8924
▁出	-8925
▁市	-8926
向前	-8927
很有	-8928
搭載	-8929
為大	-8930
百貨	-8931
直通	-8932
逃到	-8933
集成	-8934
bur	-8935
亚热带	-8936
有效的	-8937
部副部长	-8938
▁景	-8939
二等	-8940
人心	-8941
当天	-8942
戰敗	-8943
政事	-8944
渤海	-8945
港島	-8946
群体	-8947
聯軍	-8948
阿克	-8949
utc	-8950
的地下	-8951
保加利亚	-8952
保卫	-8953
傷亡	-8954
全新	-8955
區分	-8956
可汗	-8957
多项	-8958
巡演	-8959
巨星	-8960
從未	-8961
微软	-8962
的字	-8963
網頁	-8964
該校	-8965
低气压	-8966
期工程	-8967
1921	-8968
char	-8969
了自己的	-8970
▁1912	-8971
台的	-8972
在高	-8973
大火	-8974
奇幻	-8975
学的	-8976
打入	-8977
次于	-8978
泉州	-8979
珠海	-8980
百万	-8981
腓特	-8982
自称	-8983
被人	-8984
西克	-8985
魯斯	-8986
日發售	-8987
的文化	-8988
lass	-8989
,2000	-8990
▁love	-8991
ki	-8992
▁內	-8993
在海	-8994
埃德	-8995
待遇	-8996
放映	-8997
新星	-8998
至此	-8999
郡王	-9000
▁all	-9001
▁+	-9002
、7	-9003
一架	-9004
几何	-9005
夫婦	-9006
專案	-9007
新型	-9008
時裝	-9009
现任	-9010
考量	-9011
耶尔	-9012
还原	-9013
體型	-9014
▁my	-9015
的特殊	-9016
平方英里	-9017
沒有任何	-9018
▁stud	-9019
位於該國中	-9020
出去	-9021
包裹	-9022
地亚	-9023
富有	-9024
带着	-9025
星球	-9026
時常	-9027
江市	-9028
滅亡	-9029
途径	-9030
itt	-9031
縣政府	-9032
》;	-9033
件事	-9034
份子	-9035
区分	-9036
在上	-9037
增至	-9038
多為	-9039
引进	-9040
描繪	-9041
白金	-9042
的鄉	-9043
足總	-9044
難民	-9045
uro	-9046
▁qu	-9047
代表隊	-9048
停車場	-9049
將軍澳	-9050
是因为	-9051
ings	-9052
属的一种	-9053
足球俱樂部	-9054
3。	-9055
▁只	-9056
不太	-9057
六世	-9058
南端	-9059
塞拜	-9060
徹底	-9061
甲基	-9062
罪行	-9063
連同	-9064
不知道	-9065
出身於	-9066
▁當地共有人口	-9067
而人口密度為每	-9068
而人口密度為每平方千米	-9069
发掘	-9070
屍體	-9071
摩洛	-9072
斯拉	-9073
西伯	-9074
西州	-9075
頭銜	-9076
air	-9077
參賽者	-9078
佔地	-9079
保證	-9080
創意	-9081
加密	-9082
希伯	-9083
欧元	-9084
民用	-9085
注重	-9086
黎明	-9087
,14	-9088
188	-9089
正式的	-9090
注意到	-9091
知名度	-9092
腓特烈	-9093
辦事處	-9094
島式月台	-9095
分泌	-9096
她们	-9097
录音	-9098
更大	-9099
每周	-9100
氨酸	-9101
水泥	-9102
滿洲	-9103
直轄	-9104
腹部	-9105
ler	-9106
第二季	-9107
阿肯色	-9108
西藏自治区	-9109
▁及	-9110
▁孔	-9111
传动	-9112
是从	-9113
會社	-9114
稱號	-9115
线和	-9116
蝴蝶	-9117
资助	-9118
部位	-9119
way	-9120
年完成	-9121
avid	-9122
▁live	-9123
縣負責管轄	-9124
▁彭	-9125
壘打	-9126
屋苑	-9127
新村	-9128
樞機	-9129
步枪	-9130
民意	-9131
與大	-9132
行業	-9133
超人	-9134
鎮壓	-9135
馬達	-9136
anc	-9137
▁bl	-9138
的核心	-9139
棲息在底層水域	-9140
亦曾	-9141
低于	-9142
导师	-9143
房間	-9144
打開	-9145
直流	-9146
绍兴	-9147
认可	-9148
里奇	-9149
260	-9150
▁它們	-9151
之所以	-9152
代表團	-9153
万平方米	-9154
中央电视台	-9155
▁約	-9156
才是	-9157
演讲	-9158
碰撞	-9159
長約	-9160
描述了	-9161
的說法	-9162
被發現	-9163
做的	-9164
判决	-9165
天橋	-9166
天气	-9167
始于	-9168
就此	-9169
描绘	-9170
減弱	-9171
ild	-9172
億港元	-9173
在一个	-9174
局局长	-9175
所在的	-9176
诺贝尔	-9177
高等教育	-9178
▁月	-9179
东风	-9180
为此	-9181
之战	-9182
代数	-9183
呈现	-9184
塔克	-9185
希尔	-9186
深水	-9187
短暂	-9188
西岸	-9189
西站	-9190
讀者	-9191
销量	-9192
離婚	-9193
北部的	-9194
发表了	-9195
清华大学	-9196
中場	-9197
交響	-9198
会被	-9199
前去	-9200
吉祥	-9201
堡的	-9202
封建	-9203
希爾	-9204
徐州	-9205
情緒	-9206
摩尔	-9207
晚間	-9208
異常	-9209
窗口	-9210
競技	-9211
论坛	-9212
ake	-9213
通过了	-9214
,2018	-9215
▁隆	-9216
中和	-9217
中立	-9218
你的	-9219
元帥	-9220
可用	-9221
各类	-9222
平成	-9223
抗战	-9224
翻唱	-9225
受害者	-9226
告示牌	-9227
大城市	-9228
的政策	-9229
其后	-9230
和高	-9231
大卫	-9232
安定	-9233
戰中	-9234
手下	-9235
攻下	-9236
突擊	-9237
虚拟	-9238
这座	-9239
首府設於	-9240
事变	-9241
否認	-9242
嘉賓	-9243
国道	-9244
托勒	-9245
接着	-9246
的口	-9247
連串	-9248
選拔	-9249
雅各	-9250
馬斯	-9251
合作的	-9252
旅客鐵道	-9253
日本氣象廳	-9254
dd	-9255
▁庫	-9256
▁等	-9257
作客	-9258
化为	-9259
指责	-9260
摩爾	-9261
熱門	-9262
編寫	-9263
背面	-9264
▁ge	-9265
得到的	-9266
▁内	-9267
不論	-9268
前进	-9269
加的	-9270
北侧	-9271
和他	-9272
始終	-9273
感受	-9274
是对	-9275
法語	-9276
留守	-9277
精選	-9278
螢幕	-9279
過度	-9280
重組	-9281
领地	-9282
导致了	-9283
单元	-9284
命運	-9285
戰機	-9286
藉此	-9287
中的一	-9288
驱逐舰	-9289
是匈牙利	-9290
▁無	-9291
▁飾	-9292
個體	-9293
古屋	-9294
晶体	-9295
潛艇	-9296
的的	-9297
顺序	-9298
ane	-9299
ari	-9300
类似的	-9301
ject	-9302
ze	-9303
他以	-9304
具體	-9305
副使	-9306
富豪	-9307
师长	-9308
建國	-9309
插入	-9310
衝擊	-9311
首个	-9312
▁早期	-9313
年出版	-9314
致力于	-9315
相互作用	-9316
一面	-9317
保定	-9318
化為	-9319
原為	-9320
地表	-9321
川縣	-9322
得出	-9323
摇滚	-9324
還要	-9325
10,	-9326
就读于	-9327
第一任	-9328
美尼亞	-9329
南站	-9330
實體	-9331
底部	-9332
接待	-9333
段的	-9334
法師	-9335
过渡	-9336
阅读	-9337
ini	-9338
▁可以	-9339
修正案	-9340
男演員	-9341
物理学家	-9342
android	-9343
1%	-9344
一間	-9345
充满	-9346
党校	-9347
全年	-9348
宦官	-9349
并与	-9350
戀愛	-9351
承受	-9352
景點	-9353
盛行	-9354
眾人	-9355
鈴木	-9356
作品中	-9357
来自于	-9358
猶太人	-9359
1908	-9360
中央委员会	-9361
其为	-9362
創下	-9363
大地	-9364
撤回	-9365
水果	-9366
集體	-9367
鳥類	-9368
南京市	-9369
arch	-9370
军在	-9371
大和	-9372
山上	-9373
新华	-9374
最好	-9375
致使	-9376
详细	-9377
資深	-9378
过的	-9379
外交官	-9380
中層水域	-9381
邮政编码	-9382
優先	-9383
創新	-9384
助手	-9385
區別	-9386
呼吁	-9387
害怕	-9388
尼爾	-9389
必然	-9390
拘捕	-9391
攻佔	-9392
曝光	-9393
等同	-9394
认证	-9395
▁ma	-9396
之後的	-9397
并不是	-9398
經濟學	-9399
博士學位	-9400
▁分布于中国大陆的	-9401
主办	-9402
协定	-9403
曾于	-9404
水晶	-9405
莱昂	-9406
萨拉	-9407
販售	-9408
驅動	-9409
驻地	-9410
web	-9411
▁著有	-9412
一開始	-9413
年以来	-9414
庶吉士	-9415
指挥官	-9416
斯科特	-9417
电影节	-9418
贵州省	-9419
文物保護	-9420
可是	-9421
向东	-9422
品种	-9423
嬰兒	-9424
水道	-9425
派系	-9426
真理	-9427
繼位	-9428
tvb	-9429
強大的	-9430
流行的	-9431
!》	-9432
水面	-9433
翻新	-9434
转会	-9435
总书记	-9436
波士顿	-9437
王朝的	-9438
的紀錄	-9439
的需求	-9440
维也纳	-9441
ko	-9442
书法	-9443
仍未	-9444
前任	-9445
彩虹	-9446
支線	-9447
的歌	-9448
賽中	-9449
轉投	-9450
通勤	-9451
部和	-9452
高达	-9453
128	-9454
280	-9455
、21	-9456
乒乓球	-9457
纪念碑	-9458
陳水扁	-9459
▁rec	-9460
不同的是	-9461
位於該國東南部	-9462
出入	-9463
图形	-9464
处的	-9465
外觀	-9466
收费	-9467
终点	-9468
羽球	-9469
评估	-9470
週刊	-9471
電信	-9472
預備	-9473
led	-9474
▁per	-9475
云南等地	-9476
投入使用	-9477
行政區劃	-9478
伊尔	-9479
其為	-9480
武田	-9481
用品	-9482
象棋	-9483
参议员	-9484
1906	-9485
▁以下是	-9486
具备	-9487
分局	-9488
制服	-9489
嫌疑	-9490
德罗	-9491
收益	-9492
洪武	-9493
父子	-9494
瞄準	-9495
费用	-9496
多利亚	-9497
年亞洲	-9498
拿破仑	-9499
的人物	-9500
投入服務	-9501
1、	-9502
pg	-9503
▁土	-9504
▁辛	-9505
初始	-9506
和在	-9507
型号	-9508
多家	-9509
对方	-9510
尼日	-9511
歧視	-9512
立场	-9513
纖維	-9514
魁北	-9515
▁本片	-9516
常用的	-9517
類型的	-9518
▁奇	-9519
▁柳	-9520
一套	-9521
克爾	-9522
大略	-9523
天水	-9524
德甲	-9525
杜鹃	-9526
榮獲	-9527
英九	-9528
▁可是	-9529
▁歌曲	-9530
有一定	-9531
mc	-9532
他州	-9533
布局	-9534
并以	-9535
強制	-9536
特区	-9537
逃往	-9538
▁翌年	-9539
一直是	-9540
击败了	-9541
桃園市	-9542
理事会	-9543
电气化	-9544
的公司	-9545
za	-9546
上空	-9547
乡村	-9548
共識	-9549
則於	-9550
北站	-9551
压缩	-9552
回归	-9553
車型	-9554
郡的	-9555
450	-9556
世纪的	-9557
和一个	-9558
的成績	-9559
va	-9560
已于	-9561
推測	-9562
料理	-9563
甲板	-9564
確實	-9565
移除	-9566
較大	-9567
,13	-9568
jav	-9569
ven	-9570
的演出	-9571
江戶時代	-9572
的第一个	-9573
卓越	-9574
界面	-9575
硬件	-9576
耳曼	-9577
调任	-9578
邊形	-9579
ino	-9580
▁po	-9581
取代了	-9582
的表現	-9583
千葉	-9584
同日	-9585
混乱	-9586
登山	-9587
的機	-9588
聖母	-9589
聽到	-9590
花科	-9591
落敗	-9592
行列	-9593
://	-9594
▁德国	-9595
克拉克	-9596
共和党	-9597
戰爭中	-9598
鯰形目	-9599
1907	-9600
rich	-9601
hi	-9602
冰原	-9603
宗旨	-9604
建国	-9605
弗兰	-9606
携带	-9607
數百	-9608
福克	-9609
科羅	-9610
补充	-9611
长官	-9612
受欢迎	-9613
境内的	-9614
食用魚	-9615
伊斯蘭教	-9616
文物保護單位	-9617
初中	-9618
力學	-9619
後才	-9620
社長	-9621
製的	-9622
警務	-9623
都城	-9624
人民幣	-9625
開始在	-9626
2:	-9627
tt	-9628
专用	-9629
大軍	-9630
张家	-9631
录制	-9632
行省	-9633
護照	-9634
读书	-9635
高層	-9636
,20	-9637
230	-9638
▁政府	-9639
为基础	-9640
建造的	-9641
飛行員	-9642
▁cor	-9643
削弱	-9644
前期	-9645
放大	-9646
滑冰	-9647
演講	-9648
登记	-9649
约有	-9650
起訴	-9651
违反	-9652
顯著	-9653
菲尔德	-9654
進行的	-9655
飞行员	-9656
三星	-9657
依法	-9658
假日	-9659
出家	-9660
體制	-9661
▁24	-9662
▁no	-9663
參與了	-9664
位於香港	-9665
万吨	-9666
全力	-9667
動工	-9668
千年	-9669
年份	-9670
弗吉	-9671
患有	-9672
時刻	-9673
條款	-9674
球衣	-9675
薩斯	-9676
限於	-9677
馬丁	-9678
效力于	-9679
日开始	-9680
普鲁士	-9681
加勒比海	-9682
▁郑	-9683
否則	-9684
女士	-9685
宇文	-9686
普魯	-9687
流的	-9688
琳娜	-9689
any	-9690
▁結果	-9691
主要以	-9692
原本的	-9693
lack	-9694
人之	-9695
來看	-9696
六個	-9697
古城	-9698
墓地	-9699
崛起	-9700
強的	-9701
普里	-9702
民俗	-9703
航线	-9704
虛擬	-9705
規格	-9706
這場	-9707
▁ne	-9708
传教士	-9709
尼泊尔	-9710
日早上	-9711
被任命为	-9712
▁柯	-9713
中日	-9714
主动	-9715
依賴	-9716
好者	-9717
怪物	-9718
纷纷	-9719
该国	-9720
酒吧	-9721
bbc	-9722
chn	-9723
威尔士	-9724
的音乐	-9725
1600	-9726
▁1918	-9727
全市	-9728
密码	-9729
美金	-9730
街頭	-9731
診斷	-9732
及香港	-9733
月下旬	-9734
法兰克	-9735
第一代	-9736
习惯	-9737
二层	-9738
人氣	-9739
切尔	-9740
制动	-9741
原定	-9742
埃塞	-9743
建的	-9744
担心	-9745
每秒	-9746
民黨	-9747
為新	-9748
網民	-9749
蔬菜	-9750
unt	-9751
▁sm	-9752
▁法国	-9753
交匯處	-9754
场比赛	-9755
高等法院	-9756
▁非	-9757
因病	-9758
尸体	-9759
年第	-9760
本書	-9761
疫苗	-9762
近平	-9763
选中	-9764
ere	-9765
三十年	-9766
或者是	-9767
直升機	-9768
▁music	-9769
之星	-9770
他於	-9771
動詞	-9772
即将	-9773
土著	-9774
夫的	-9775
尾巴	-9776
布羅	-9777
开行	-9778
把他	-9779
據點	-9780
省委	-9781
109	-9782
出色的	-9783
▁1922	-9784
是一個位於美國	-9785
▁曼	-9786
元帅	-9787
可由	-9788
大概	-9789
室内	-9790
專利	-9791
巡回	-9792
網友	-9793
继任	-9794
電氣	-9795
預期	-9796
▁os	-9797
▁下午	-9798
▁即使	-9799
一直在	-9800
东南亚	-9801
全新的	-9802
很容易	-9803
认为是	-9804
聯賽冠軍	-9805
中華民國政府	-9806
wh	-9807
人均	-9808
吉隆	-9809
圖案	-9810
始终	-9811
宇航	-9812
屬的	-9813
德堡	-9814
数十	-9815
民生	-9816
王朱	-9817
聚居	-9818
轉移	-9819
酒精	-9820
日上映	-9821
優惠	-9822
參演	-9823
吸血	-9824
圍繞	-9825
撤出	-9826
牡丹	-9827
签约	-9828
职工	-9829
逃走	-9830
的目的	-9831
等人的	-9832
亞洲電視	-9833
争取	-9834
各式	-9835
吐蕃	-9836
失蹤	-9837
婚禮	-9838
存活	-9839
安打	-9840
常规	-9841
獨自	-9842
称呼	-9843
视觉	-9844
遇上	-9845
和美国	-9846
年獲得	-9847
托马斯	-9848
葡萄酒	-9849
▁韦	-9850
、8	-9851
人與	-9852
传递	-9853
出場	-9854
山镇	-9855
掌管	-9856
曲的	-9857
清晨	-9858
ena	-9859
ray	-9860
中飾演	-9861
分佈於	-9862
反对派	-9863
自行车	-9864
able	-9865
历史学家	-9866
中午	-9867
其实	-9868
发送	-9869
意指	-9870
懷孕	-9871
支队	-9872
斯蒂	-9873
无人	-9874
朗德	-9875
清理	-9876
获胜	-9877
被俘	-9878
補助	-9879
道具	-9880
ova	-9881
又稱為	-9882
巡洋艦	-9883
年以來	-9884
1903	-9885
orth	-9886
中子	-9887
俗称	-9888
全日	-9889
围绕	-9890
完結	-9891
接手	-9892
派往	-9893
的教	-9894
进口	-9895
进球	-9896
首领	-9897
之后的	-9898
摩洛哥	-9899
▁1923	-9900
▁用	-9901
人群	-9902
图尔	-9903
戈尔	-9904
扬州	-9905
旋转	-9906
星光	-9907
校方	-9908
算是	-9909
而出	-9910
遵循	-9911
重视	-9912
ott	-9913
uss	-9914
▁30	-9915
民主派	-9916
魁北克	-9917
1904	-9918
個性	-9919
力和	-9920
半球	-9921
哈根	-9922
指標	-9923
支线	-9924
毛利	-9925
理性	-9926
缺少	-9927
議長	-9928
釋出	-9929
的平均	-9930
的父亲	-9931
的行为	-9932
第一季	-9933
被选为	-9934
应用程序	-9935
的一部份	-9936
元璋	-9937
军人	-9938
后勤	-9939
多部	-9940
散文	-9941
术语	-9942
流程	-9943
症状	-9944
處長	-9945
ert	-9946
▁每年	-9947
的文章	-9948
記憶體	-9949
底中層水域	-9950
壓縮	-9951
左派	-9952
為該	-9953
看作	-9954
籌備	-9955
诉讼	-9956
▁国际	-9957
其他人	-9958
在那里	-9959
的结果	-9960
目的地	-9961
為輻鰭魚綱鯰形目	-9962
vo	-9963
▁百	-9964
大众	-9965
游行	-9966
的黑	-9967
續集	-9968
雄性	-9969
113	-9970
135	-9971
▁do	-9972
熱帶風暴	-9973
▁1917	-9974
▁part	-9975
也就	-9976
原作	-9977
大堂	-9978
愛的	-9979
新一	-9980
權的	-9981
流入	-9982
犧牲	-9983
裡面	-9984
美国国家	-9985
阿肯色州	-9986
两条	-9987
产量	-9988
同事	-9989
圣殿	-9990
战国	-9991
武術	-9992
碎片	-9993
结论	-9994
足协	-9995
車廠	-9996
較於	-9997
遺傳	-9998
丽莎白	-9999
家族的	-10000
斯克州	-10001
转向架	-10002
▁are	-10003
伊斯兰教	-10004
五人	-10005
伤亡	-10006
兄長	-10007
共青	-10008
分店	-10009
前作	-10010
加快	-10011
同為	-10012
將他	-10013
會上	-10014
模糊	-10015
權益	-10016
特雷	-10017
盟友	-10018
祖母	-10019
精確	-10020
被指	-10021
財團	-10022
▁他於	-10023
中使用	-10024
類似的	-10025
中央政府	-10026
▁库	-10027
佔據	-10028
依次	-10029
受损	-10030
拓展	-10031
服装	-10032
正好	-10033
義務	-10034
西德	-10035
可分為	-10036
广西壮	-10037
达到了	-10038
▁成立於	-10039
的可能性	-10040
科学技术	-10041
bb	-10042
pi	-10043
▁即	-10044
不被	-10045
之亂	-10046
個別	-10047
傳遞	-10048
布蘭	-10049
延续	-10050
现存	-10051
的代	-10052
▁25	-10053
世紀初	-10054
後來的	-10055
的人士	-10056
科三甲	-10057
配音員	-10058
羅馬帝國	-10059
人大常委会	-10060
▁公	-10061
▁達	-10062
于此	-10063
借用	-10064
准确	-10065
南侧	-10066
哥華	-10067
國旗	-10068
寻求	-10069
本书	-10070
清末	-10071
生下	-10072
获取	-10073
虐待	-10074
有不少	-10075
美術館	-10076
自治市	-10077
賽事中	-10078
塞尔维亚	-10079
亮的	-10080
四位	-10081
排放	-10082
末端	-10083
某一	-10084
注射	-10085
紧张	-10086
记忆	-10087
同性恋	-10088
在全球	-10089
大将军	-10090
数学家	-10091
銅鑼灣	-10092
,2003	-10093
▁1909	-10094
也称	-10095
全線	-10096
燃燒	-10097
郵政	-10098
mun	-10099
▁同日	-10100
保留了	-10101
每小時	-10102
發展的	-10103
的安全	-10104
日本政府	-10105
super	-10106
巡迴演唱會	-10107
▁中华人民共和国成立后	-10108
▁歐	-10109
▁費	-10110
北側	-10111
危害	-10112
混血	-10113
變更	-10114
安德烈	-10115
的特性	-10116
陸戰隊	-10117
在地	-10118
山站	-10119
德語	-10120
村庄	-10121
河水	-10122
海关	-10123
軟件	-10124
320	-10125
por	-10126
▁23	-10127
全壘打	-10128
设计师	-10129
广西壮族自治区	-10130
▁雙	-10131
一號	-10132
假设	-10133
副都	-10134
卡通	-10135
和其	-10136
品種	-10137
守備	-10138
房间	-10139
摩根	-10140
標記	-10141
竞技	-10142
軍在	-10143
配备	-10144
fin	-10145
的例子	-10146
属下的一个变种	-10147
中毒	-10148
值的	-10149
南側	-10150
标记	-10151
登基	-10152
示范	-10153
者為	-10154
而来	-10155
長安	-10156
▁早在	-10157
▁第四	-10158
电动机	-10159
1916	-10160
ital	-10161
▁短	-10162
▁龍	-10163
一场	-10164
了对	-10165
人称	-10166
位素	-10167
半徑	-10168
團結	-10169
土木	-10170
外郎	-10171
巴比	-10172
某个	-10173
納爾	-10174
表彰	-10175
世紀的	-10176
严重的	-10177
柴油机	-10178
的特徵	-10179
占地面积	-10180
正式成立	-10181
▁group	-10182
▁达	-10183
交戰	-10184
同治	-10185
安葬	-10186
屏幕	-10187
巴登	-10188
筹备	-10189
裁定	-10190
车体	-10191
边的	-10192
▁im	-10193
▁成化	-10194
嚴重的	-10195
巴尼亞	-10196
的最佳	-10197
蔣中正	-10198
年世界盃	-10199
gl	-10200
中止	-10201
兵器	-10202
分辨	-10203
在的	-10204
子和	-10205
政變	-10206
李氏	-10207
某种	-10208
節奏	-10209
精确	-10210
线上	-10211
讀書	-10212
运作	-10213
類別	-10214
體積	-10215
南北朝	-10216
程度的	-10217
运动的	-10218
铁路的	-10219
傑出	-10220
先進	-10221
利沃	-10222
在这	-10223
封閉	-10224
座的	-10225
毫無	-10226
沿途	-10227
為何	-10228
發達	-10229
細菌	-10230
编制	-10231
轉型	-10232
進軍	-10233
ute	-10234
发现的	-10235
佛羅里達州	-10236
临床	-10237
假期	-10238
原为	-10239
学和	-10240
學科	-10241
家村	-10242
都以	-10243
關東	-10244
陣營	-10245
▁关于	-10246
不存在	-10247
古建筑	-10248
意味著	-10249
iver	-10250
工作人员	-10251
是世界上	-10252
从未	-10253
四周	-10254
圖像	-10255
外星	-10256
時尚	-10257
景觀	-10258
流动	-10259
的白	-10260
美食	-10261
仍然是	-10262
季後賽	-10263
性魚類	-10264
更好的	-10265
爆发后	-10266
邓小平	-10267
党委书记	-10268
民主進步	-10269
職業生涯	-10270
_6	-10271
▁通	-10272
住房	-10273
南道	-10274
商務	-10275
塔爾	-10276
拉圭	-10277
本次	-10278
inc	-10279
在當時	-10280
庄為鄰	-10281
的形象	-10282
舊金山	-10283
天府鄉試	-10284
▁1901	-10285
亞利桑那州	-10286
是羅馬尼亞	-10287
▁鲁	-10288
全民	-10289
兩大	-10290
名义	-10291
强制	-10292
消灭	-10293
行本	-10294
衛視	-10295
適當	-10296
111	-10297
alk	-10298
▁lo	-10299
年统计	-10300
撞击坑	-10301
航站楼	-10302
型柴油机车	-10303
〉、	-10304
东路	-10305
了三	-10306
分部	-10307
塑料	-10308
尖沙	-10309
深海	-10310
灌溉	-10311
选秀	-10312
鱼雷	-10313
▁值得	-10314
▁凯	-10315
公会	-10316
公正	-10317
萨斯	-10318
费尔	-10319
ife	-10320
▁很多	-10321
保护区	-10322
查尔斯	-10323
臺灣省	-10324
▁1921	-10325
该市有人口	-10326
cs	-10327
公所	-10328
彩色	-10329
德军	-10330
德州	-10331
戲院	-10332
斯理	-10333
昔日	-10334
率军	-10335
縣道	-10336
複製	-10337
起草	-10338
鳳凰	-10339
个国家	-10340
吸引了	-10341
發生的	-10342
的一段	-10343
自己是	-10344
是南極洲的山峰	-10345
▁扎	-10346
▁牛	-10347
媽祖	-10348
对阵	-10349
山峰	-10350
普罗	-10351
电池	-10352
福岡	-10353
举办的	-10354
名古屋	-10355
斯特拉	-10356
了一系列	-10357
级行政区	-10358
▁尤	-10359
參觀	-10360
号为	-10361
年所	-10362
得獎	-10363
日到	-10364
旺角	-10365
民事	-10366
清治	-10367
特兰	-10368
的開	-10369
相机	-10370
緩慢	-10371
sur	-10372
世纪末	-10373
伺服器	-10374
年成为	-10375
年获得	-10376
类型的	-10377
菲爾德	-10378
大部分的	-10379
▁恩	-10380
全身	-10381
向東	-10382
太多	-10383
更好	-10384
歇尔	-10385
爪哇	-10386
物资	-10387
网友	-10388
言论	-10389
转任	-10390
過往	-10391
鬥爭	-10392
、10	-10393
事件中	-10394
发布了	-10395
大法官	-10396
最後的	-10397
都沒有	-10398
▁q	-10399
▁將	-10400
之久	-10401
南韓	-10402
宗座	-10403
底質	-10404
物件	-10405
硬棘	-10406
节点	-10407
還在	-10408
金星	-10409
▁up	-10410
中文版	-10411
和中国	-10412
彰化縣	-10413
的学生	-10414
的精神	-10415
的一系列	-10416
而人口密度為每平方千米人	-10417
上以	-10418
之稱	-10419
公墓	-10420
和解	-10421
委內	-10422
寫成	-10423
島峰	-10424
接駁	-10425
是西	-10426
水庫	-10427
读者	-10428
長沙	-10429
額外	-10430
las	-10431
▁專輯	-10432
▁约翰	-10433
xy	-10434
全线	-10435
办法	-10436
可见	-10437
客量	-10438
對戰	-10439
少將	-10440
擔當	-10441
普利	-10442
編入	-10443
詹姆	-10444
車的	-10445
重型	-10446
雌性	-10447
155	-10448
举行了	-10449
仅次于	-10450
完成的	-10451
影響力	-10452
日耳曼	-10453
6000	-10454
microsoft	-10455
▁地	-10456
▁湖	-10457
委托	-10458
山城	-10459
平县	-10460
年來	-10461
拿到	-10462
探討	-10463
清除	-10464
號為	-10465
融入	-10466
贝克	-10467
高於	-10468
会议员	-10469
处理器	-10470
生产的	-10471
相似的	-10472
錄音室	-10473
1800	-10474
work	-10475
侦察	-10476
化成	-10477
南洋	-10478
嚴格	-10479
四军	-10480
場合	-10481
契丹	-10482
工黨	-10483
灭亡	-10484
約克	-10485
編組	-10486
除非	-10487
年推出	-10488
此同時	-10489
經紀公司	-10490
▁play	-10491
▁enter	-10492
和第	-10493
時空	-10494
比爾	-10495
沿著	-10496
獲獎	-10497
間接	-10498
降格	-10499
了一座	-10500
出来的	-10501
為主題	-10502
是西班牙卡斯蒂利亚	-10503
上將	-10504
东亚	-10505
公使	-10506
兼容	-10507
升至	-10508
和北	-10509
履行	-10510
年又	-10511
手术	-10512
激素	-10513
炮台	-10514
270	-10515
ugh	-10516
因斯坦	-10517
1902	-10518
行政区划	-10519
動員	-10520
外科	-10521
学员	-10522
家臣	-10523
密集	-10524
层的	-10525
忍者	-10526
日食	-10527
橫濱	-10528
病的	-10529
等于	-10530
▁阿拉	-10531
多倫多	-10532
亞美尼亞	-10533
委內瑞拉	-10534
_7	-10535
▁諾	-10536
之人	-10537
交给	-10538
再轉	-10539
實踐	-10540
寺庙	-10541
投影	-10542
更换	-10543
期待	-10544
演技	-10545
的五	-10546
穿過	-10547
罕見	-10548
臺東	-10549
般的	-10550
114	-10551
iso	-10552
▁ph	-10553
▁研究	-10554
▁面积	-10555
去世后	-10556
在內的	-10557
""	-10558
半部	-10559
墓葬	-10560
容器	-10561
探险	-10562
政法	-10563
法学	-10564
玉米	-10565
聯會	-10566
軍艦	-10567
▁萬曆	-10568
所需的	-10569
找到了	-10570
是韓國	-10571
最終在	-10572
組織的	-10573
▁gir	-10574
明治三十	-10575
▁1914	-10576
年夏季奥林匹克运动会	-10577
全境	-10578
國籍	-10579
填海	-10580
开办	-10581
的子	-10582
空襲	-10583
體驗	-10584
eth	-10585
nhk	-10586
一定的	-10587
主教為	-10588
二十四	-10589
吉隆坡	-10590
每小时	-10591
美尼亚	-10592
冰原島峰	-10593
一項	-10594
再生	-10595
半年	-10596
南至	-10597
响应	-10598
威力	-10599
平坦	-10600
斯堡	-10601
決策	-10602
為第	-10603
田徑	-10604
诞生	-10605
vol	-10606
▁km	-10607
人認為	-10608
個國家	-10609
有兩個	-10610
这也是	-10611
青海省	-10612
▁from	-10613
亦於	-10614
他所	-10615
冲击	-10616
失望	-10617
宣誓	-10618
工农	-10619
担当	-10620
死了	-10621
纺织	-10622
耶和	-10623
走了	-10624
都尉	-10625
总司令	-10626
總人口	-10627
馬德里	-10628
▁art	-10629
▁与此同时	-10630
▁county	-10631
代碼	-10632
全省	-10633
塔拉	-10634
大王	-10635
年幼	-10636
謀殺	-10637
引起的	-10638
是为了	-10639
為主要	-10640
▁丹	-10641
中断	-10642
主场	-10643
射程	-10644
岸的	-10645
廣義	-10646
强的	-10647
性别	-10648
拜仁	-10649
撤銷	-10650
有功	-10651
業餘	-10652
線路	-10653
调节	-10654
貢士	-10655
带来的	-10656
溫哥華	-10657
的基礎	-10658
馬英九	-10659
1915	-10660
不了	-10661
五千	-10662
伯恩	-10663
冒险	-10664
分行	-10665
可惜	-10666
咨询	-10667
头衔	-10668
很好	-10669
泰山	-10670
的王	-10671
老师	-10672
蒂斯	-10673
鄉村	-10674
靈感	-10675
尼克斯	-10676
機器人	-10677
發現於	-10678
第二個	-10679
革命軍	-10680
▁ass	-10681
道格拉斯	-10682
▁袁	-10683
共用	-10684
划分	-10685
客機	-10686
居於	-10687
後在	-10688
提督	-10689
擴建	-10690
書店	-10691
最快	-10692
特在	-10693
玄宗	-10694
轉變	-10695
陣容	-10696
黨員	-10697
▁我们	-10698
▁阿爾	-10699
系主任	-10700
這兩個	-10701
▁mod	-10702
▁将	-10703
▁開	-10704
低的	-10705
卡的	-10706
回國	-10707
回族	-10708
專注	-10709
歷經	-10710
終結	-10711
腓力	-10712
螺科	-10713
制作的	-10714
希望能	-10715
羅伯特	-10716
野战军	-10717
▁gre	-10718
密西西比	-10719
之家	-10720
内存	-10721
參見	-10722
味道	-10723
多爾	-10724
會將	-10725
木星	-10726
片尾	-10727
真空	-10728
迪亞	-10729
预算	-10730
高于	-10731
166	-10732
rna	-10733
旧金山	-10734
▁par	-10735
组成部分	-10736
▁星	-10737
▁欧	-10738
交互	-10739
加冕	-10740
南華	-10741
島縣	-10742
工藝	-10743
巴里	-10744
招生	-10745
指向	-10746
有兩	-10747
機組	-10748
率兵	-10749
磁場	-10750
補給	-10751
西面	-10752
观看	-10753
谢尔	-10754
配套	-10755
钢铁	-10756
領事	-10757
era	-10758
塞拜疆	-10759
德里希	-10760
有两个	-10761
还包括	-10762
1901	-10763
3%	-10764
不想	-10765
九巴	-10766
代牧	-10767
印地	-10768
地亞	-10769
处决	-10770
对话	-10771
封鎖	-10772
式为	-10773
抵制	-10774
浏览	-10775
海口	-10776
珠江	-10777
相鄰	-10778
细菌	-10779
電動	-10780
ery	-10781
▁di	-10782
▁起初	-10783
另一位	-10784
战列舰	-10785
範圍內	-10786
美国人	-10787
xbox	-10788
篮球运动员	-10789
两者	-10790
卜杜	-10791
后又	-10792
后在	-10793
女友	-10794
檢測	-10795
當初	-10796
科斯	-10797
被殺	-10798
賠償	-10799
重複	-10800
電壓	-10801
ael	-10802
ism	-10803
▁jo	-10804
和日本	-10805
天文学	-10806
式站台	-10807
的家庭	-10808
的居民	-10809
的活動	-10810
适用于	-10811
匈牙利语	-10812
国家公园	-10813
第一次世界大战	-10814
』,	-10815
一台	-10816
中路	-10817
人造	-10818
制品	-10819
努斯	-10820
只得	-10821
布什	-10822
新任	-10823
朝阳	-10824
林肯	-10825
的花	-10826
这项	-10827
阿密	-10828
117	-10829
ius	-10830
▁只有	-10831
八路军	-10832
天文学家	-10833
批复同意	-10834
bu	-10835
▁早	-10836
光譜	-10837
分開	-10838
到底	-10839
增援	-10840
憤怒	-10841
校區	-10842
牺牲	-10843
環繞	-10844
草本	-10845
鋼鐵	-10846
零件	-10847
大地震	-10848
帶來的	-10849
甚至是	-10850
纪录片	-10851
▁1911	-10852
世俗	-10853
反派	-10854
周末	-10855
拆卸	-10856
搜尋	-10857
曼谷	-10858
沿線	-10859
现为	-10860
皇子	-10861
福爾	-10862
衰落	-10863
諾夫	-10864
迪南	-10865
预备	-10866
飯店	-10867
▁父親	-10868
副教授	-10869
法蘭克	-10870
中文大學	-10871
斯洛伐克	-10872
注意的是	-10873
▁colle	-10874
修斯	-10875
手持	-10876
板橋	-10877
潮州	-10878
科长	-10879
科隆	-10880
立面	-10881
译为	-10882
高句	-10883
魚雷	-10884
放射性	-10885
獨特的	-10886
的内容	-10887
一書	-10888
佩斯	-10889
偏西	-10890
公約	-10891
地产	-10892
外線	-10893
尼尔	-10894
愿意	-10895
有機	-10896
梅尔	-10897
汉字	-10898
的总	-10899
细节	-10900
自立	-10901
西蒙	-10902
語音	-10903
譴責	-10904
让他	-10905
電流	-10906
體字	-10907
380	-10908
共和黨	-10909
在一個	-10910
幾內亞	-10911
教科文	-10912
无线电	-10913
的成绩	-10914
角色的	-10915
颗恒星	-10916
羽毛球錦標賽	-10917
▁分布在中国大陆的	-10918
dy	-10919
ny	-10920
▁子	-10921
了该	-10922
卫队	-10923
在校	-10924
差別	-10925
摩擦	-10926
特爾	-10927
硝酸	-10928
ubl	-10929
每一個	-10930
遊戲的	-10931
apan	-10932
1:	-10933
▁诺	-10934
一點	-10935
六个	-10936
名录	-10937
天後	-10938
异常	-10939
炮塔	-10940
看出	-10941
背叛	-10942
迪克	-10943
win	-10944
▁pe	-10945
外圍賽	-10946
年成為	-10947
的特色	-10948
追溯至	-10949
開發的	-10950
1890	-10951
的第一個	-10952
平均降雨量	-10953
〉,	-10954
一中	-10955
医药	-10956
取景	-10957
多樣	-10958
山村	-10959
幽默	-10960
时刻	-10961
正規	-10962
率部	-10963
维修	-10964
西貢	-10965
見於	-10966
金額	-10967
陣亡	-10968
题材	-10969
116	-10970
don	-10971
尖沙咀	-10972
很快就	-10973
的資料	-10974
觀賞魚	-10975
ology	-10976
6%	-10977
▁保	-10978
一批	-10979
业余	-10980
东海	-10981
元老	-10982
初次	-10983
回來	-10984
她是	-10985
山路	-10986
曾為	-10987
画面	-10988
範疇	-10989
船舶	-10990
路斯	-10991
铸币	-10992
隨之	-10993
《》。	-10994
他们在	-10995
发展的	-10996
第二代	-10997
▁1913	-10998
先發	-10999
名誉	-11000
指南	-11001
既有	-11002
碳酸	-11003
該區	-11004
遷往	-11005
麵包	-11006
參議院	-11007
青岛市	-11008
▁抗日战争	-11009
三种	-11010
倫斯	-11011
全體	-11012
南越	-11013
實質	-11014
德雷	-11015
战区	-11016
新教	-11017
曲线	-11018
珍妮	-11019
老虎	-11020
职责	-11021
舰只	-11022
获奖	-11023
赫爾	-11024
辯論	-11025
送至	-11026
▁在他	-11027
演出的	-11028
等海域	-11029
主的	-11030
则在	-11031
向上	-11032
国外	-11033
捕捉	-11034
是自	-11035
相連	-11036
编程	-11037
财经	-11038
這也是	-11039
電影節	-11040
▁幼	-11041
▁次	-11042
四名	-11043
埼玉	-11044
暂时	-11045
暴雨	-11046
照明	-11047
狙擊	-11048
興起	-11049
關節	-11050
存在于	-11051
两座	-11052
可达	-11053
尼的	-11054
樹林	-11055
认定	-11056
隆頭	-11057
▁这次	-11058
生物学	-11059
的數量	-11060
简单的	-11061
同進士出身	-11062
一時	-11063
受邀	-11064
宫殿	-11065
家乡	-11066
年与	-11067
快樂	-11068
戰事	-11069
招收	-11070
操控	-11071
物資	-11072
特和	-11073
诸多	-11074
這類	-11075
並成為	-11076
國家盃	-11077
月正式	-11078
的弟弟	-11079
轨电车	-11080
羽毛球國際賽	-11081
4%	-11082
則被	-11083
宋代	-11084
实力	-11085
开封	-11086
打出	-11087
打开	-11088
条例	-11089
海的	-11090
衰退	-11091
要素	-11092
重复	-11093
陈列	-11094
ien	-11095
▁如今	-11096
消歧義	-11097
研究室	-11098
▁大部分	-11099
▁that	-11100
是位於美國加利福尼亞州	-11101
2、	-11102
▁广	-11103
中位	-11104
先行	-11105
全家	-11106
奉天	-11107
情人	-11108
承诺	-11109
淮南	-11110
線性	-11111
金馬	-11112
隱藏	-11113
mod	-11114
▁21	-11115
▁在這	-11116
▁这样	-11117
了许多	-11118
但因為	-11119
第二名	-11120
英國的	-11121
▁air	-11122
堪薩斯州	-11123
saint	-11124
wa	-11125
▁半	-11126
参观	-11127
在内	-11128
在天	-11129
市立	-11130
才會	-11131
數值	-11132
瀏覽	-11133
現有	-11134
留學	-11135
百合	-11136
罪犯	-11137
可做為	-11138
大學生	-11139
消費者	-11140
的主题	-11141
中国国民党	-11142
4。	-11143
mg	-11144
▁黎	-11145
北端	-11146
普尔	-11147
澳门	-11148
率軍	-11149
識別	-11150
青铜	-11151
ors	-11152
被列入	-11153
二十一年	-11154
3,000	-11155
▁所	-11156
▁時	-11157
下载	-11158
东站	-11159
冷却	-11160
很难	-11161
悬挂	-11162
戰時	-11163
戰死	-11164
权的	-11165
称赞	-11166
立了	-11167
血統	-11168
角的	-11169
認知	-11170
販賣	-11171
過後	-11172
队友	-11173
馬路	-11174
▁sa	-11175
▁原本	-11176
人口有	-11177
地球的	-11178
孙中山	-11179
的社會	-11180
遇到了	-11181
適用於	-11182
醫學院	-11183
铁道部	-11184
form	-11185
▁not	-11186
▁university	-11187
ww	-11188
▁;	-11189
中視	-11190
争夺	-11191
企图	-11192
改設	-11193
水源	-11194
火焰	-11195
火車	-11196
燃烧	-11197
版權	-11198
番茄	-11199
結論	-11200
路面	-11201
史蒂芬	-11202
它们的	-11203
布拉格	-11204
舞台劇	-11205
中国国家	-11206
大学教授	-11207
復仇	-11208
所长	-11209
托爾	-11210
激光	-11211
皮卡	-11212
矩陣	-11213
站名	-11214
风景	-11215
高丽	-11216
wan	-11217
▁有一	-11218
的教育	-11219
月加入中国共产党	-11220
:'	-11221
ja	-11222
▁总	-11223
、9	-11224
剧场	-11225
同知	-11226
字子	-11227
意圖	-11228
战术	-11229
改組	-11230
營養	-11231
牧师	-11232
遠征	-11233
大使館	-11234
7%	-11235
ef	-11236
二战	-11237
剩餘	-11238
打進	-11239
法軍	-11240
縣市	-11241
div	-11242
▁過去	-11243
有许多	-11244
消歧义	-11245
行政村	-11246
是中国的特有植物	-11247
2%	-11248
修行	-11249
军政	-11250
富裕	-11251
會計	-11252
毒性	-11253
河川	-11254
温带	-11255
瓦解	-11256
策劃	-11257
茨克	-11258
首部	-11259
mag	-11260
是世界	-11261
游戏的	-11262
ella	-11263
▁mag	-11264
加拿大的	-11265
itter	-11266
pp	-11267
▁要	-11268
光年	-11269
季的	-11270
容許	-11271
托夫	-11272
教導	-11273
数百	-11274
晶片	-11275
电站	-11276
複合	-11277
軍籍	-11278
道中	-11279
龍屬	-11280
年擔任	-11281
一道	-11282
三等	-11283
主编	-11284
共振	-11285
北韓	-11286
工党	-11287
帆船	-11288
恐懼	-11289
收取	-11290
是个	-11291
權威	-11292
煤炭	-11293
結局	-11294
群體	-11295
詢問	-11296
词汇	-11297
趨勢	-11298
較多	-11299
▁自由	-11300
后来的	-11301
曾多次	-11302
第二百	-11303
ield	-11304
國立臺灣	-11305
▁吕	-11306
▁真	-11307
交响	-11308
人體	-11309
位元	-11310
四方	-11311
拘留	-11312
江湖	-11313
神聖	-11314
车次	-11315
院的	-11316
頭的	-11317
顺治	-11318
今天的	-11319
时代的	-11320
的一切	-11321
的地区	-11322
致力於	-11323
足球队	-11324
革命军	-11325
ions	-11326
流行音樂	-11327
分布於非洲	-11328
▁下辖以下地区	-11329
上将	-11330
不变	-11331
主导	-11332
代之	-11333
依舊	-11334
刻有	-11335
南美	-11336
擴充	-11337
馬力	-11338
可能指	-11339
採用了	-11340
篇文章	-11341
专利	-11342
企劃	-11343
儀器	-11344
参见	-11345
媽媽	-11346
悠久	-11347
把它	-11348
日子	-11349
欣賞	-11350
正教	-11351
瓦多	-11352
科爾	-11353
编译	-11354
而其	-11355
诸侯	-11356
足利	-11357
陽光	-11358
颁奖	-11359
驻扎	-11360
▁浙江	-11361
固定的	-11362
常栖息	-11363
按察使	-11364
收視率	-11365
都没有	-11366
地方法院	-11367
超級聯賽	-11368
0,	-11369
侍中	-11370
多为	-11371
改组	-11372
日圓	-11373
松山	-11374
海盜	-11375
紅磡	-11376
都很	-11377
彼得堡	-11378
流域为	-11379
蛋白質	-11380
2500	-11381
▁can	-11382
最高點為	-11383
▁京	-11384
使之	-11385
供电	-11386
家鄉	-11387
彈匣	-11388
情節	-11389
想像	-11390
班機	-11391
相機	-11392
背部	-11393
誉为	-11394
陶瓷	-11395
330	-11396
_12	-11397
▁最近	-11398
▁約翰	-11399
传佛教	-11400
发布的	-11401
回到了	-11402
成功地	-11403
所謂的	-11404
波士頓	-11405
物理學	-11406
袁世凯	-11407
高加索	-11408
▁bar	-11409
为輻鰭魚綱	-11410
▁依	-11411
帕尔	-11412
拉格	-11413
毀滅	-11414
港府	-11415
纳州	-11416
lam	-11417
ral	-11418
ref	-11419
衛斯理	-11420
委员会主席	-11421
一首	-11422
厅长	-11423
提醒	-11424
揭露	-11425
維拉	-11426
藏族	-11427
貴州	-11428
郊区	-11429
aut	-11430
isc	-11431
一至五	-11432
的比賽	-11433
等方面	-11434
较大的	-11435
▁was	-11436
空中照片	-11437
路易斯安	-11438
di	-11439
▁威	-11440
光學	-11441
分隔	-11442
合一	-11443
外借	-11444
封闭	-11445
年为	-11446
影集	-11447
應付	-11448
所作	-11449
收视	-11450
歐元	-11451
水準	-11452
獨特	-11453
电压	-11454
號碼	-11455
被杀	-11456
谋杀	-11457
里面	-11458
/10	-11459
控制了	-11460
被视为	-11461
总部位于	-11462
的基础上	-11463
立法會議員	-11464
▁佐	-11465
▁先	-11466
▁許	-11467
三重	-11468
为人	-11469
仁宗	-11470
夺取	-11471
奠基	-11472
對他	-11473
屋頂	-11474
布兰	-11475
明白	-11476
洋基	-11477
洞穴	-11478
縮短	-11479
该校	-11480
輔導	-11481
選票	-11482
长约	-11483
除外	-11484
▁不同	-11485
▁接著	-11486
了很多	-11487
和文化	-11488
年去世	-11489
年夏天	-11490
得票率	-11491
托勒密	-11492
明顯的	-11493
杰克逊	-11494
獲得第	-11495
發生了	-11496
的一名	-11497
最终幻想	-11498
理工学院	-11499
▁叶	-11500
▁舊	-11501
之役	-11502
争论	-11503
囚犯	-11504
時被	-11505
晋升	-11506
村的	-11507
比起	-11508
相遇	-11509
邯郸	-11510
金錢	-11511
ada	-11512
▁tv	-11513
▁澳門	-11514
前身為	-11515
发生的	-11516
名稱為	-11517
在英国	-11518
日推出	-11519
公布时间为	-11520
▁萊	-11521
又以	-11522
字形	-11523
并由	-11524
細節	-11525
纳入	-11526
纳尔	-11527
老挝	-11528
逃離	-11529
阵亡	-11530
馬場	-11531
馬遜	-11532
駐守	-11533
ons	-11534
▁雍正	-11535
了一份	-11536
大教堂	-11537
拍攝的	-11538
紀錄片	-11539
萬港元	-11540
▁day	-11541
▁该陨坑	-11542
sl	-11543
▁故	-11544
一張	-11545
上台	-11546
之旅	-11547
伤害	-11548
全港	-11549
失利	-11550
影業	-11551
心脏	-11552
景观	-11553
最先	-11554
本的	-11555
破裂	-11556
级的	-11557
隨機	-11558
鲁斯	-11559
210	-11560
750	-11561
oll	-11562
top	-11563
分別在	-11564
年日本	-11565
强大的	-11566
新西兰	-11567
而該地	-11568
與日本	-11569
蔡英文	-11570
这两个	-11571
ater	-11572
株式會社	-11573
▁十	-11574
▁玉	-11575
▁甘	-11576
亞視	-11577
亮度	-11578
卡西	-11579
多半	-11580
季節	-11581
就已	-11582
平壤	-11583
某種	-11584
炸弹	-11585
發言	-11586
的半	-11587
的开	-11588
相隔	-11589
看台	-11590
起飛	-11591
远东	-11592
逼近	-11593
阮福	-11594
點是	-11595
50%	-11596
原来的	-11597
曾一度	-11598
的数据	-11599
總司令	-11600
分數	-11601
密歇	-11602
封锁	-11603
巴德	-11604
掉了	-11605
榴彈	-11606
納德	-11607
羅門	-11608
華納	-11609
電梯	-11610
馬州	-11611
大區的	-11612
安東尼	-11613
由香港	-11614
研究者	-11615
的重要性	-11616
一班	-11617
一郎	-11618
他對	-11619
俗名	-11620
公理	-11621
分手	-11622
只會	-11623
安市	-11624
展现	-11625
干燥	-11626
檢討	-11627
運會	-11628
▁越南	-11629
杭州市	-11630
為中心	-11631
的思想	-11632
都是由	-11633
亚美尼亚	-11634
伊丽莎白	-11635
同时也是	-11636
为中国的特有植物	-11637
个体	-11638
也很	-11639
包裝	-11640
向外	-11641
政务	-11642
整修	-11643
榜上	-11644
科索	-11645
米勒	-11646
艺人	-11647
逃跑	-11648
ele	-11649
不办理	-11650
向西北	-11651
密歇根	-11652
巴尼亚	-11653
教育家	-11654
朱元璋	-11655
法蘭西	-11656
發言人	-11657
的效果	-11658
皇太后	-11659
管理的	-11660
米特里	-11661
號月台	-11662
维多利亚	-11663
政治部主任	-11664
,	-11665
▁	-11666
的	-11667
。	-11668
1	-11669
0	-11670
年	-11671
2	-11672
、	-11673
一	-11674
在	-11675
9	-11676
中	-11677
是	-11678
人	-11679
a	-11680
e	-11681
大	-11682
有	-11683
3	-11684
和	-11685
5	-11686
為	-11687
i	-11688
8	-11689
o	-11690
以	-11691
r	-11692
4	-11693
月	-11694
n	-11695
日	-11696
6	-11697
7	-11698
了	-11699
t	-11700
s	-11701
国	-11702
为	-11703
地	-11704
國	-11705
於	-11706
成	-11707
上	-11708
公	-11709
不	-11710
l	-11711
出	-11712
行	-11713
他	-11714
部	-11715
斯	-11716
之	-11717
c	-11718
名	-11719
其	-11720
主	-11721
作	-11722
生	-11723
分	-11724
方	-11725
m	-11726
于	-11727
到	-11728
用	-11729
下	-11730
西	-11731
:	-11732
第	-11733
《	-11734
》	-11735
而	-11736
位	-11737
家	-11738
及	-11739
由	-11740
d	-11741
h	-11742
後	-11743
時	-11744
被	-11745
民	-11746
法	-11747
本	-11748
学	-11749
南	-11750
市	-11751
·	-11752
會	-11753
同	-11754
u	-11755
可	-11756
多	-11757
里	-11758
政	-11759
个	-11760
子	-11761
自	-11762
任	-11763
特	-11764
文	-11765
北	-11766
高	-11767
德	-11768
加	-11769
「	-11770
」	-11771
新	-11772
海	-11773
最	-11774
與	-11775
克	-11776
前	-11777
平	-11778
也	-11779
利	-11780
代	-11781
等	-11782
后	-11783
所	-11784
p	-11785
學	-11786
三	-11787
度	-11788
面	-11789
因	-11790
個	-11791
此	-11792
美	-11793
建	-11794
道	-11795
得	-11796
物	-11797
“	-11798
要	-11799
教	-11800
g	-11801
至	-11802
b	-11803
事	-11804
时	-11805
路	-11806
立	-11807
山	-11808
拉	-11809
会	-11810
小	-11811
入	-11812
口	-11813
能	-11814
尔	-11815
二	-11816
世	-11817
發	-11818
理	-11819
工	-11820
州	-11821
合	-11822
表	-11823
定	-11824
外	-11825
区	-11826
區	-11827
期	-11828
天	-11829
球	-11830
科	-11831
化	-11832
但	-11833
十	-11834
台	-11835
次	-11836
全	-11837
使	-11838
;	-11839
通	-11840
性	-11841
者	-11842
f	-11843
共	-11844
式	-11845
重	-11846
並	-11847
都	-11848
安	-11849
发	-11850
來	-11851
力	-11852
布	-11853
士	-11854
軍	-11855
"	-11856
站	-11857
军	-11858
院	-11859
比	-11860
基	-11861
相	-11862
城	-11863
原	-11864
王	-11865
爾	-11866
省	-11867
米	-11868
明	-11869
動	-11870
目	-11871
長	-11872
水	-11873
英	-11874
司	-11875
这	-11876
對	-11877
正	-11878
金	-11879
格	-11880
尼	-11881
治	-11882
開	-11883
系	-11884
k	-11885
府	-11886
与	-11887
制	-11888
這	-11889
长	-11890
四	-11891
或	-11892
列	-11893
如	-11894
電	-11895
元	-11896
y	-11897
亞	-11898
員	-11899
起	-11900
巴	-11901
港	-11902
影	-11903
現	-11904
首	-11905
女	-11906
对	-11907
提	-11908
星	-11909
經	-11910
阿	-11911
東	-11912
常	-11913
改	-11914
當	-11915
演	-11916
来	-11917
并	-11918
v	-11919
林	-11920
間	-11921
進	-11922
過	-11923
量	-11924
开	-11925
心	-11926
东	-11927
向	-11928
然	-11929
始	-11930
賽	-11931
接	-11932
就	-11933
戰	-11934
界	-11935
體	-11936
w	-11937
动	-11938
將	-11939
员	-11940
內	-11941
曾	-11942
管	-11943
意	-11944
手	-11945
車	-11946
受	-11947
委	-11948
機	-11949
程	-11950
卡	-11951
指	-11952
交	-11953
河	-11954
色	-11955
包	-11956
保	-11957
場	-11958
形	-11959
亚	-11960
机	-11961
型	-11962
已	-11963
音	-11964
镇	-11965
内	-11966
香	-11967
流	-11968
直	-11969
些	-11970
該	-11971
集	-11972
馬	-11973
史	-11974
总	-11975
进	-11976
太	-11977
经	-11978
过	-11979
線	-11980
隊	-11981
夫	-11982
稱	-11983
校	-11984
车	-11985
空	-11986
身	-11987
五	-11988
品	-11989
示	-11990
字	-11991
業	-11992
现	-11993
更	-11994
社	-11995
展	-11996
间	-11997
县	-11998
该	-11999
朝	-12000
古	-12001
种	-12002
兩	-12003
種	-12004
江	-12005
設	-12006
马	-12007
电	-12008
持	-12009
业	-12010
灣	-12011
各	-12012
數	-12013
官	-12014
将	-12015
回	-12016
体	-12017
洲	-12018
反	-12019
選	-12020
命	-12021
著	-12022
战	-12023
京	-12024
取	-12025
羅	-12026
造	-12027
活	-12028
達	-12029
普	-12030
支	-12031
光	-12032
信	-12033
少	-12034
设	-12035
局	-12036
族	-12037
曲	-12038
称	-12039
解	-12040
当	-12041
近	-12042
数	-12043
非	-12044
石	-12045
神	-12046
情	-12047
清	-12048
約	-12049
罗	-12050
又	-12051
只	-12052
队	-12053
聯	-12054
每	-12055
蘭	-12056
縣	-12057
研	-12058
联	-12059
件	-12060
它	-12061
波	-12062
運	-12063
属	-12064
放	-12065
村	-12066
即	-12067
片	-12068
角	-12069
號	-12070
關	-12071
伊	-12072
她	-12073
版	-12074
總	-12075
/	-12076
則	-12077
商	-12078
密	-12079
華	-12080
統	-12081
武	-12082
运	-12083
括	-12084
收	-12085
两	-12086
先	-12087
未	-12088
李	-12089
知	-12090
樂	-12091
計	-12092
們	-12093
场	-12094
座	-12095
往	-12096
無	-12097
产	-12098
組	-12099
去	-12100
屬	-12101
根	-12102
器	-12103
議	-12104
福	-12105
白	-12106
再	-12107
赛	-12108
果	-12109
线	-12110
歌	-12111
组	-12112
視	-12113
初	-12114
华	-12115
究	-12116
六	-12117
达	-12118
足	-12119
派	-12120
且	-12121
统	-12122
从	-12123
打	-12124
级	-12125
完	-12126
語	-12127
今	-12128
号	-12129
從	-12130
兵	-12131
引	-12132
域	-12133
语	-12134
帝	-12135
居	-12136
威	-12137
亦	-12138
季	-12139
关	-12140
们	-12141
z	-12142
塔	-12143
播	-12144
除	-12145
宗	-12146
书	-12147
段	-12148
计	-12149
育	-12150
參	-12151
令	-12152
實	-12153
務	-12154
團	-12155
服	-12156
說	-12157
广	-12158
很	-12159
花	-12160
言	-12161
兰	-12162
義	-12163
x	-12164
產	-12165
查	-12166
速	-12167
門	-12168
八	-12169
結	-12170
土	-12171
希	-12172
島	-12173
功	-12174
修	-12175
约	-12176
存	-12177
置	-12178
宣	-12179
另	-12180
客	-12181
推	-12182
死	-12183
周	-12184
類	-12185
傳	-12186
好	-12187
超	-12188
投	-12189
我	-12190
哈	-12191
率	-12192
雷	-12193
党	-12194
供	-12195
認	-12196
處	-12197
單	-12198
实	-12199
舉	-12200
%	-12201
洛	-12202
吉	-12203
具	-12204
獲	-12205
源	-12206
博	-12207
务	-12208
单	-12209
父	-12210
求	-12211
瓦	-12212
班	-12213
母	-12214
九	-12215
案	-12216
街	-12217
青	-12218
男	-12219
印	-12220
維	-12221
勒	-12222
己	-12223
议	-12224
维	-12225
田	-12226
書	-12227
参	-12228
例	-12229
义	-12230
張	-12231
助	-12232
j	-12233
臺	-12234
湖	-12235
故	-12236
伯	-12237
火	-12238
均	-12239
航	-12240
攻	-12241
那	-12242
百	-12243
廣	-12244
还	-12245
份	-12246
沙	-12247
皇	-12248
別	-12249
致	-12250
應	-12251
落	-12252
帶	-12253
早	-12254
導	-12255
點	-12256
整	-12257
图	-12258
技	-12259
劇	-12260
选	-12261
資	-12262
变	-12263
副	-12264
容	-12265
铁	-12266
增	-12267
萬	-12268
半	-12269
模	-12270
專	-12271
擊	-12272
龍	-12273
群	-12274
万	-12275
说	-12276
登	-12277
越	-12278
堂	-12279
告	-12280
处	-12281
師	-12282
七	-12283
游	-12284
境	-12285
失	-12286
门	-12287
黨	-12288
领	-12289
變	-12290
易	-12291
級	-12292
川	-12293
深	-12294
积	-12295
点	-12296
升	-12297
室	-12298
奥	-12299
应	-12300
領	-12301
团	-12302
積	-12303
结	-12304
需	-12305
黑	-12306
苏	-12307
風	-12308
排	-12309
传	-12310
塞	-12311
紀	-12312
导	-12313
限	-12314
節	-12315
連	-12316
获	-12317
食	-12318
席	-12319
氏	-12320
央	-12321
標	-12322
製	-12323
沒	-12324
乐	-12325
畫	-12326
頭	-12327
射	-12328
无	-12329
老	-12330
象	-12331
轉	-12332
据	-12333
类	-12334
才	-12335
像	-12336
甲	-12337
千	-12338
真	-12339
辖	-12340
仍	-12341
何	-12342
乡	-12343
盟	-12344
托	-12345
森	-12346
施	-12347
木	-12348
步	-12349
報	-12350
鐵	-12351
條	-12352
警	-12353
便	-12354
洋	-12355
權	-12356
奇	-12357
考	-12358
防	-12359
際	-12360
氣	-12361
感	-12362
牙	-12363
想	-12364
決	-12365
論	-12366
配	-12367
认	-12368
奧	-12369
據	-12370
哥	-12371
留	-12372
师	-12373
低	-12374
住	-12375
术	-12376
姆	-12377
止	-12378
纳	-12379
律	-12380
记	-12381
历	-12382
报	-12383
效	-12384
—	-12385
病	-12386
视	-12387
還	-12388
魚	-12389
術	-12390
把	-12391
察	-12392
曼	-12393
佛	-12394
冠	-12395
離	-12396
底	-12397
纪	-12398
泰	-12399
料	-12400
恩	-12401
蒙	-12402
唱	-12403
迪	-12404
降	-12405
埃	-12406
志	-12407
景	-12408
俄	-12409
批	-12410
納	-12411
創	-12412
圖	-12413
移	-12414
票	-12415
強	-12416
素	-12417
看	-12418
職	-12419
康	-12420
息	-12421
革	-12422
风	-12423
續	-12424
着	-12425
阳	-12426
祖	-12427
张	-12428
承	-12429
索	-12430
消	-12431
算	-12432
控	-12433
则	-12434
念	-12435
愛	-12436
授	-12437
_	-12438
专	-12439
觀	-12440
親	-12441
遊	-12442
較	-12443
标	-12444
負	-12445
带	-12446
思	-12447
典	-12448
記	-12449
友	-12450
獎	-12451
許	-12452
守	-12453
际	-12454
做	-12455
论	-12456
藏	-12457
拔	-12458
精	-12459
責	-12460
瑞	-12461
别	-12462
陸	-12463
没	-12464
岛	-12465
見	-12466
汉	-12467
望	-12468
園	-12469
房	-12470
附	-12471
題	-12472
督	-12473
办	-12474
依	-12475
照	-12476
资	-12477
夏	-12478
裝	-12479
转	-12480
决	-12481
权	-12482
質	-12483
述	-12484
节	-12485
錄	-12486
条	-12487
章	-12488
編	-12489
抗	-12490
毛	-12491
歷	-12492
辦	-12493
停	-12494
調	-12495
退	-12496
圣	-12497
击	-12498
职	-12499
牌	-12500
永	-12501
蘇	-12502
網	-12503
草	-12504
值	-12505
复	-12506
封	-12507
爭	-12508
丹	-12509
左	-12510
陳	-12511
堡	-12512
坦	-12513
构	-12514
丁	-12515
富	-12516
隨	-12517
快	-12518
澳	-12519
候	-12520
气	-12521
聖	-12522
破	-12523
給	-12524
歐	-12525
般	-12526
萨	-12527
營	-12528
終	-12529
莫	-12530
船	-12531
擔	-12532
邦	-12533
戲	-12534
拿	-12535
鎮	-12536
陆	-12537
梅	-12538
调	-12539
唐	-12540
問	-12541
含	-12542
協	-12543
隆	-12544
極	-12545
郡	-12546
黃	-12547
举	-12548
突	-12549
皮	-12550
准	-12551
创	-12552
似	-12553
强	-12554
蒂	-12555
眾	-12556
植	-12557
寺	-12558
莱	-12559
网	-12560
剧	-12561
項	-12562
必	-12563
旅	-12564
興	-12565
試	-12566
划	-12567
兒	-12568
嘉	-12569
走	-12570
注	-12571
尚	-12572
争	-12573
延	-12574
久	-12575
规	-12576
樣	-12577
藝	-12578
随	-12579
济	-12580
右	-12581
朗	-12582
切	-12583
离	-12584
岸	-12585
邊	-12586
店	-12587
头	-12588
售	-12589
护	-12590
架	-12591
規	-12592
连	-12593
鄉	-12594
野	-12595
协	-12596
轄	-12597
飛	-12598
给	-12599
倫	-12600
亡	-12601
装	-12602
熱	-12603
编	-12604
漢	-12605
讓	-12606
核	-12607
館	-12608
艾	-12609
判	-12610
弗	-12611
弟	-12612
衛	-12613
春	-12614
题	-12615
備	-12616
占	-12617
龙	-12618
质	-12619
馆	-12620
環	-12621
佳	-12622
繼	-12623
層	-12624
雄	-12625
構	-12626
股	-12627
鲁	-12628
油	-12629
问	-12630
项	-12631
遭	-12632
筑	-12633
策	-12634
圍	-12635
逐	-12636
薩	-12637
卫	-12638
耶	-12639
担	-12640
短	-12641
輯	-12642
端	-12643
许	-12644
雙	-12645
護	-12646
黄	-12647
評	-12648
宁	-12649
戏	-12650
样	-12651
聲	-12652
环	-12653
帕	-12654
獨	-12655
赫	-12656
序	-12657
諾	-12658
晚	-12659
摩	-12660
役	-12661
旗	-12662
送	-12663
籍	-12664
劃	-12665
营	-12666
观	-12667
松	-12668
菲	-12669
什	-12670
乘	-12671
}	-12672
費	-12673
暴	-12674
亲	-12675
{	-12676
殺	-12677
若	-12678
园	-12679
雅	-12680
伦	-12681
欧	-12682
距	-12683
诺	-12684
宋	-12685
酒	-12686
微	-12687
束	-12688
边	-12689
寫	-12690
勝	-12691
響	-12692
终	-12693
紅	-12694
末	-12695
陽	-12696
良	-12697
敗	-12698
秀	-12699
兼	-12700
準	-12701
歲	-12702
署	-12703
!	-12704
干	-12705
頓	-12706
款	-12707
织	-12708
略	-12709
红	-12710
范	-12711
證	-12712
农	-12713
善	-12714
备	-12715
庭	-12716
沃	-12717
胡	-12718
庄	-12719
续	-12720
奖	-12721
甚	-12722
采	-12723
醫	-12724
尾	-12725
彈	-12726
血	-12727
濟	-12728
銀	-12729
见	-12730
散	-12731
差	-12732
烏	-12733
裡	-12734
拍	-12735
津	-12736
魯	-12737
兴	-12738
婚	-12739
免	-12740
假	-12741
樓	-12742
予	-12743
桥	-12744
较	-12745
追	-12746
峰	-12747
艦	-12748
儿	-12749
復	-12750
卻	-12751
喜	-12752
杜	-12753
狀	-12754
臣	-12755
医	-12756
库	-12757
写	-12758
尺	-12759
烈	-12760
证	-12761
围	-12762
朱	-12763
顯	-12764
害	-12765
征	-12766
热	-12767
雖	-12768
屆	-12769
爱	-12770
話	-12771
玉	-12772
韓	-12773
贝	-12774
舞	-12775
板	-12776
企	-12777
罪	-12778
双	-12779
背	-12780
沿	-12781
劉	-12782
黎	-12783
爆	-12784
採	-12785
层	-12786
仁	-12787
录	-12788
盛	-12789
互	-12790
媒	-12791
織	-12792
預	-12793
援	-12794
廷	-12795
独	-12796
詞	-12797
酸	-12798
測	-12799
评	-12800
云	-12801
舰	-12802
众	-12803
牛	-12804
透	-12805
余	-12806
救	-12807
秘	-12808
載	-12809
艺	-12810
習	-12811
试	-12812
继	-12813
几	-12814
映	-12815
請	-12816
僅	-12817
谷	-12818
址	-12819
屋	-12820
遠	-12821
画	-12822
執	-12823
介	-12824
溪	-12825
宮	-12826
荷	-12827
声	-12828
幾	-12829
態	-12830
萊	-12831
楼	-12832
刘	-12833
坡	-12834
昌	-12835
君	-12836
响	-12837
材	-12838
智	-12839
飞	-12840
溫	-12841
勢	-12842
届	-12843
槍	-12844
梁	-12845
滿	-12846
按	-12847
佈	-12848
係	-12849
陈	-12850
貝	-12851
價	-12852
確	-12853
戶	-12854
徒	-12855
童	-12856
郎	-12857
费	-12858
皆	-12859
益	-12860
仅	-12861
敦	-12862
夜	-12863
拜	-12864
禁	-12865
混	-12866
巡	-12867
杀	-12868
簡	-12869
穆	-12870
探	-12871
壓	-12872
极	-12873
>	-12874
午	-12875
翰	-12876
築	-12877
冰	-12878
巨	-12879
跟	-12880
霍	-12881
岁	-12882
玩	-12883
某	-12884
橋	-12885
途	-12886
顿	-12887
旋	-12888
禮	-12889
雲	-12890
眼	-12891
<	-12892
讀	-12893
培	-12894
刻	-12895
羽	-12896
刊	-12897
撤	-12898
你	-12899
吸	-12900
替	-12901
遇	-12902
宇	-12903
确	-12904
充	-12905
乌	-12906
描	-12907
麗	-12908
符	-12909
测	-12910
叶	-12911
難	-12912
私	-12913
休	-12914
温	-12915
殿	-12916
户	-12917
固	-12918
聞	-12919
q	-12920
刺	-12921
逃	-12922
炮	-12923
爵	-12924
佩	-12925
毒	-12926
找	-12927
寶	-12928
雨	-12929
奉	-12930
側	-12931
犯	-12932
擁	-12933
聚	-12934
漫	-12935
话	-12936
捕	-12937
唯	-12938
责	-12939
验	-12940
召	-12941
斗	-12942
返	-12943
斷	-12944
葉	-12945
否	-12946
監	-12947
麥	-12948
幕	-12949
庫	-12950
骨	-12951
洪	-12952
耳	-12953
状	-12954
傷	-12955
農	-12956
岩	-12957
震	-12958
異	-12959
練	-12960
远	-12961
'	-12962
茨	-12963
缺	-12964
細	-12965
戈	-12966
显	-12967
操	-12968
飾	-12969
範	-12970
雪	-12971
刑	-12972
訊	-12973
竹	-12974
靠	-12975
银	-12976
激	-12977
優	-12978
露	-12979
忠	-12980
佔	-12981
庆	-12982
舊	-12983
輕	-12984
況	-12985
穿	-12986
魔	-12987
满	-12988
坐	-12989
娜	-12990
赤	-12991
識	-12992
廠	-12993
让	-12994
靈	-12995
乎	-12996
翻	-12997
|	-12998
尤	-12999
肯	-13000
抵	-13001
态	-13002
申	-13003
胞	-13004
輪	-13005
迫	-13006
攝	-13007
待	-13008
载	-13009
负	-13010
坑	-13011
驗	-13012
須	-13013
兄	-13014
浙	-13015
妻	-13016
廳	-13017
遗	-13018
侵	-13019
词	-13020
习	-13021
陣	-13022
徐	-13023
桑	-13024
呼	-13025
陵	-13026
換	-13027
价	-13028
临	-13029
秋	-13030
姓	-13031
柏	-13032
侧	-13033
孩	-13034
炸	-13035
餘	-13036
鬥	-13037
=	-13038
董	-13039
絕	-13040
篇	-13041
湾	-13042
识	-13043
畢	-13044
芬	-13045
汽	-13046
戴	-13047
嚴	-13048
潮	-13049
压	-13050
简	-13051
惠	-13052
疑	-13053
辛	-13054
融	-13055
泉	-13056
监	-13057
歸	-13058
慶	-13059
卷	-13060
厂	-13061
毕	-13062
順	-13063
吳	-13064
况	-13065
週	-13066
胜	-13067
急	-13068
韩	-13069
孔	-13070
泛	-13071
傑	-13072
鰭	-13073
避	-13074
丽	-13075
健	-13076
默	-13077
宫	-13078
努	-13079
墓	-13080
佐	-13081
甘	-13082
魏	-13083
榜	-13084
奏	-13085
码	-13086
套	-13087
细	-13088
概	-13089
翼	-13090
泽	-13091
榮	-13092
绝	-13093
执	-13094
断	-13095
呈	-13096
莉	-13097
隔	-13098
败	-13099
请	-13100
偏	-13101
宝	-13102
危	-13103
宜	-13104
舍	-13105
樹	-13106
杨	-13107
億	-13108
購	-13109
階	-13110
啟	-13111
楊	-13112
衣	-13113
预	-13114
殖	-13115
弹	-13116
驻	-13117
孙	-13118
厅	-13119
杰	-13120
減	-13121
难	-13122
雜	-13123
譯	-13124
臨	-13125
毫	-13126
肉	-13127
扎	-13128
墨	-13129
卢	-13130
虎	-13131
付	-13132
裁	-13133
迎	-13134
井	-13135
圈	-13136
染	-13137
瑪	-13138
阻	-13139
涉	-13140
捷	-13141
孫	-13142
哲	-13143
叫	-13144
奪	-13145
珠	-13146
冷	-13147
輸	-13148
严	-13149
銷	-13150
恐	-13151
御	-13152
渡	-13153
辑	-13154
乾	-13155
贵	-13156
氧	-13157
归	-13158
换	-13159
析	-13160
池	-13161
迷	-13162
秦	-13163
廉	-13164
亮	-13165
葡	-13166
伍	-13167
侯	-13168
碼	-13169
函	-13170
琴	-13171
轮	-13172
招	-13173
闻	-13174
訓	-13175
拥	-13176
漸	-13177
豐	-13178
賓	-13179
匹	-13180
享	-13181
症	-13182
俗	-13183
彩	-13184
礼	-13185
釋	-13186
仙	-13187
險	-13188
養	-13189
频	-13190
截	-13191
麻	-13192
势	-13193
徵	-13194
味	-13195
旧	-13196
豪	-13197
洞	-13198
尊	-13199
寧	-13200
紐	-13201
暗	-13202
颗	-13203
俱	-13204
瑟	-13205
齐	-13206
詩	-13207
妹	-13208
綱	-13209
頂	-13210
硬	-13211
鐘	-13212
吴	-13213
读	-13214
麦	-13215
蓋	-13216
徽	-13217
]	-13218
倒	-13219
棲	-13220
盃	-13221
借	-13222
崇	-13223
藥	-13224
奈	-13225
销	-13226
遺	-13227
圓	-13228
租	-13229
[	-13230
補	-13231
诗	-13232
液	-13233
繁	-13234
町	-13235
藍	-13236
財	-13237
鲜	-13238
齊	-13239
冬	-13240
优	-13241
树	-13242
儀	-13243
勞	-13244
昂	-13245
晋	-13246
劳	-13247
药	-13248
頻	-13249
估	-13250
输	-13251
昭	-13252
遷	-13253
邀	-13254
玛	-13255
討	-13256
凱	-13257
錦	-13258
隸	-13259
夠	-13260
楚	-13261
盖	-13262
振	-13263
柱	-13264
迁	-13265
跨	-13266
币	-13267
郭	-13268
乙	-13269
+	-13270
兹	-13271
莎	-13272
逝	-13273
掌	-13274
乃	-13275
簽	-13276
鄭	-13277
曹	-13278
杂	-13279
併	-13280
蛋	-13281
伐	-13282
萄	-13283
茲	-13284
幼	-13285
零	-13286
?	-13287
腦	-13288
弱	-13289
裔	-13290
顺	-13291
蔡	-13292
鱼	-13293
障	-13294
軟	-13295
恢	-13296
適	-13297
鼓	-13298
絲	-13299
拒	-13300
裂	-13301
浦	-13302
尽	-13303
訪	-13304
异	-13305
轨	-13306
译	-13307
络	-13308
滑	-13309
粉	-13310
陶	-13311
菌	-13312
陷	-13313
困	-13314
藤	-13315
淡	-13316
廟	-13317
浪	-13318
喬	-13319
檢	-13320
患	-13321
晉	-13322
審	-13323
伤	-13324
旁	-13325
牧	-13326
謝	-13327
却	-13328
涅	-13329
顶	-13330
盧	-13331
貴	-13332
亿	-13333
歡	-13334
菜	-13335
鮮	-13336
虽	-13337
競	-13338
灵	-13339
韦	-13340
覺	-13341
货	-13342
誌	-13343
祭	-13344
駐	-13345
埔	-13346
纽	-13347
徑	-13348
阶	-13349
冲	-13350
鄰	-13351
偶	-13352
彼	-13353
丘	-13354
宿	-13355
敵	-13356
貨	-13357
柯	-13358
勇	-13359
检	-13360
签	-13361
促	-13362
挥	-13363
伴	-13364
搭	-13365
扩	-13366
练	-13367
疆	-13368
敏	-13369
澤	-13370
輛	-13371
赵	-13372
丰	-13373
韋	-13374
壁	-13375
衝	-13376
軌	-13377
課	-13378
轻	-13379
财	-13380
审	-13381
亨	-13382
昆	-13383
答	-13384
桃	-13385
拆	-13386
汗	-13387
凯	-13388
講	-13389
沈	-13390
脈	-13391
熙	-13392
棒	-13393
荣	-13394
允	-13395
葬	-13396
遍	-13397
幫	-13398
糖	-13399
擴	-13400
殊	-13401
杯	-13402
宅	-13403
幅	-13404
珍	-13405
孟	-13406
額	-13407
仔	-13408
訂	-13409
沉	-13410
紫	-13411
祥	-13412
谢	-13413
療	-13414
句	-13415
侍	-13416
燃	-13417
輻	-13418
赴	-13419
訴	-13420
幸	-13421
械	-13422
揮	-13423
亂	-13424
覆	-13425
鏡	-13426
茶	-13427
績	-13428
綠	-13429
衡	-13430
敬	-13431
养	-13432
厚	-13433
艘	-13434
碑	-13435
奴	-13436
孝	-13437
幻	-13438
讲	-13439
慈	-13440
盤	-13441
磁	-13442
遣	-13443
跑	-13444
顧	-13445
启	-13446
廢	-13447
餐	-13448
塘	-13449
倍	-13450
减	-13451
晶	-13452
灰	-13453
襲	-13454
钟	-13455
擇	-13456
騎	-13457
挑	-13458
滅	-13459
獻	-13460
鳥	-13461
幣	-13462
乔	-13463
箭	-13464
諸	-13465
阵	-13466
寬	-13467
软	-13468
葛	-13469
複	-13470
慢	-13471
训	-13472
献	-13473
聽	-13474
螺	-13475
賣	-13476
疾	-13477
摄	-13478
苦	-13479
姐	-13480
释	-13481
艇	-13482
诸	-13483
柳	-13484
懷	-13485
綫	-13486
叛	-13487
〉	-13488
〈	-13489
剛	-13490
棋	-13491
访	-13492
么	-13493
願	-13494
宽	-13495
熟	-13496
惡	-13497
仰	-13498
够	-13499
燕	-13500
堅	-13501
伸	-13502
折	-13503
庙	-13504
妮	-13505
橫	-13506
购	-13507
遂	-13508
补	-13509
须	-13510
柴	-13511
尖	-13512
辽	-13513
撞	-13514
凡	-13515
跳	-13516
恒	-13517
談	-13518
额	-13519
钱	-13520
匈	-13521
憲	-13522
瓜	-13523
『	-13524
』	-13525
险	-13526
宾	-13527
尋	-13528
径	-13529
仪	-13530
辆	-13531
迅	-13532
刀	-13533
伏	-13534
彭	-13535
朋	-13536
買	-13537
潘	-13538
誤	-13539
枚	-13540
圆	-13541
桂	-13542
敌	-13543
适	-13544
枪	-13545
渐	-13546
雕	-13547
袭	-13548
勤	-13549
帮	-13550
錢	-13551
靖	-13552
夺	-13553
涯	-13554
郑	-13555
齒	-13556
岡	-13557
粒	-13558
輔	-13559
宪	-13560
慕	-13561
撒	-13562
础	-13563
谋	-13564
乱	-13565
吃	-13566
脂	-13567
鹿	-13568
賞	-13569
頒	-13570
脫	-13571
莊	-13572
琳	-13573
貢	-13574
°	-13575
夢	-13576
腳	-13577
累	-13578
熊	-13579
番	-13580
罕	-13581
毁	-13582
损	-13583
緣	-13584
赞	-13585
屯	-13586
绕	-13587
梯	-13588
繪	-13589
趣	-13590
贡	-13591
汇	-13592
泊	-13593
損	-13594
劍	-13595
掉	-13596
晨	-13597
鬼	-13598
秒	-13599
恆	-13600
針	-13601
縮	-13602
旺	-13603
賴	-13604
怪	-13605
蛇	-13606
杉	-13607
锡	-13608
藉	-13609
羊	-13610
牠	-13611
緯	-13612
臘	-13613
壞	-13614
觉	-13615
幹	-13616
怀	-13617
擎	-13618
毀	-13619
隶	-13620
屏	-13621
棄	-13622
詹	-13623
芝	-13624
芳	-13625
浮	-13626
趙	-13627
緊	-13628
废	-13629
玄	-13630
块	-13631
痛	-13632
仲	-13633
卓	-13634
拓	-13635
駛	-13636
俊	-13637
麼	-13638
腹	-13639
饰	-13640
凌	-13641
乳	-13642
插	-13643
绍	-13644
炎	-13645
择	-13646
紹	-13647
贏	-13648
坎	-13649
慧	-13650
隧	-13651
謀	-13652
厄	-13653
搜	-13654
讨	-13655
杭	-13656
爲	-13657
緒	-13658
豆	-13659
弘	-13660
腊	-13661
崎	-13662
隻	-13663
卿	-13664
畔	-13665
陰	-13666
陕	-13667
锦	-13668
甸	-13669
袁	-13670
～	-13671
揚	-13672
矿	-13673
竞	-13674
筆	-13675
圳	-13676
旦	-13677
鼠	-13678
咸	-13679
塑	-13680
宙	-13681
壽	-13682
泥	-13683
暫	-13684
宏	-13685
滨	-13686
祝	-13687
墙	-13688
灭	-13689
蟲	-13690
欢	-13691
乏	-13692
撰	-13693
貿	-13694
缩	-13695
犹	-13696
笑	-13697
鳳	-13698
诉	-13699
泳	-13700
喀	-13701
洗	-13702
錯	-13703
曆	-13704
骑	-13705
戀	-13706
斑	-13707
塊	-13708
绿	-13709
戒	-13710
寄	-13711
閣	-13712
疗	-13713
扬	-13714
玻	-13715
坚	-13716
觸	-13717
刚	-13718
藩	-13719
娛	-13720
苗	-13721
妃	-13722
阮	-13723
溶	-13724
穩	-13725
盡	-13726
蓝	-13727
谈	-13728
偉	-13729
叔	-13730
袖	-13731
听	-13732
耀	-13733
顆	-13734
焦	-13735
礎	-13736
脱	-13737
坊	-13738
坏	-13739
茂	-13740
鋼	-13741
崔	-13742
既	-13743
愿	-13744
巧	-13745
顾	-13746
循	-13747
盘	-13748
买	-13749
镜	-13750
邻	-13751
郊	-13752
僧	-13753
轴	-13754
亭	-13755
é	-13756
檔	-13757
紧	-13758
靜	-13759
岳	-13760
蔣	-13761
舒	-13762
逢	-13763
齡	-13764
措	-13765
箱	-13766
仿	-13767
疏	-13768
尉	-13769
契	-13770
扮	-13771
迴	-13772
驅	-13773
衰	-13774
吕	-13775
贸	-13776
彰	-13777
綜	-13778
勃	-13779
盾	-13780
閉	-13781
剂	-13782
絡	-13783
輝	-13784
擬	-13785
霸	-13786
遜	-13787
床	-13788
盐	-13789
拳	-13790
铜	-13791
捐	-13792
婦	-13793
针	-13794
串	-13795
剩	-13796
钢	-13797
搬	-13798
辭	-13799
夷	-13800
浩	-13801
歧	-13802
碳	-13803
券	-13804
脑	-13805
賢	-13806
填	-13807
潛	-13808
横	-13809
枝	-13810
翁	-13811
砲	-13812
裕	-13813
蓮	-13814
誉	-13815
丈	-13816
衍	-13817
顏	-13818
蝶	-13819
匯	-13820
廈	-13821
純	-13822
凤	-13823
灌	-13824
丝	-13825
壇	-13826
订	-13827
淮	-13828
误	-13829
譽	-13830
旨	-13831
紙	-13832
荒	-13833
傅	-13834
驱	-13835
災	-13836
课	-13837
综	-13838
岭	-13839
赖	-13840
燈	-13841
邮	-13842
隱	-13843
窗	-13844
怒	-13845
湯	-13846
割	-13847
错	-13848
污	-13849
鯉	-13850
欲	-13851
錫	-13852
抽	-13853
欣	-13854
獄	-13855
銅	-13856
珊	-13857
卜	-13858
冒	-13859
覽	-13860
迹	-13861
迈	-13862
稿	-13863
恶	-13864
胎	-13865
寨	-13866
阴	-13867
獸	-13868
儘	-13869
虫	-13870
静	-13871
税	-13872
妇	-13873
狄	-13874
疫	-13875
闭	-13876
儒	-13877
邨	-13878
濱	-13879
殘	-13880
駕	-13881
册	-13882
狂	-13883
粹	-13884
沟	-13885
陀	-13886
寿	-13887
虛	-13888
肥	-13889
燒	-13890
逊	-13891
冊	-13892
嶺	-13893
耗	-13894
弃	-13895
鸟	-13896
煤	-13897
孤	-13898
颱	-13899
吾	-13900
阁	-13901
聘	-13902
娘	-13903
栽	-13904
廊	-13905
悉	-13906
嶼	-13907
壤	-13908
坪	-13909
憶	-13910
粗	-13911
握	-13912
鋒	-13913
違	-13914
賀	-13915
&	-13916
潜	-13917
稳	-13918
獵	-13919
逆	-13920
翠	-13921
湘	-13922
剑	-13923
缘	-13924
籃	-13925
绩	-13926
柔	-13927
垂	-13928
猶	-13929
貌	-13930
挪	-13931
揭	-13932
忍	-13933
辰	-13934
呂	-13935
斜	-13936
纸	-13937
膜	-13938
潭	-13939
鹽	-13940
琉	-13941
婆	-13942
紋	-13943
脉	-13944
赢	-13945
翌	-13946
俘	-13947
灾	-13948
肃	-13949
堆	-13950
寒	-13951
拟	-13952
辞	-13953
叙	-13954
览	-13955
恰	-13956
籌	-13957
堪	-13958
贊	-13959
辅	-13960
汪	-13961
储	-13962
笔	-13963
阪	-13964
吐	-13965
貫	-13966
慮	-13967
魂	-13968
倉	-13969
寻	-13970
狗	-13971
稍	-13972
苑	-13973
残	-13974
薄	-13975
怖	-13976
遵	-13977
逮	-13978
邓	-13979
癌	-13980
档	-13981
璃	-13982
淘	-13983
憑	-13984
冯	-13985
刷	-13986
軸	-13987
押	-13988
屠	-13989
扶	-13990
祀	-13991
碎	-13992
键	-13993
胸	-13994
丙	-13995
姚	-13996
涵	-13997
厘	-13998
狱	-13999
蛛	-14000
硫	-14001
礦	-14002
蕭	-14003
兆	-14004
绘	-14005
嫌	-14006
泡	-14007
偷	-14008
添	-14009
繞	-14010
譜	-14011
稅	-14012
鍵	-14013
陨	-14014
吏	-14015
狼	-14016
矩	-14017
奎	-14018
牆	-14019
猪	-14020
姬	-14021
鼻	-14022
歇	-14023
鄧	-14024
誠	-14025
─	-14026
飲	-14027
脊	-14028
驚	-14029
殼	-14030
奔	-14031
寸	-14032
逼	-14033
卒	-14034
仇	-14035
弦	-14036
縱	-14037
詳	-14038
郵	-14039
夕	-14040
叉	-14041
雀	-14042
芒	-14043
惟	-14044
醒	-14045
颜	-14046
纵	-14047
绪	-14048
卑	-14049
卵	-14050
獅	-14051
劫	-14052
隋	-14053
腐	-14054
贈	-14055
勳	-14056
嗣	-14057
跡	-14058
鎖	-14059
姻	-14060
贾	-14061
颁	-14062
嫁	-14063
誕	-14064
娃	-14065
衔	-14066
纯	-14067
紛	-14068
劑	-14069
貓	-14070
酶	-14071
註	-14072
烟	-14073
梦	-14074
肖	-14075
磨	-14076
氯	-14077
峡	-14078
猛	-14079
暂	-14080
薛	-14081
頁	-14082
轟	-14083
謂	-14084
屈	-14085
壘	-14086
敘	-14087
笼	-14088
賈	-14089
犬	-14090
儲	-14091
讯	-14092
傾	-14093
蒸	-14094
菊	-14095
忙	-14096
伽	-14097
矛	-14098
伟	-14099
拼	-14100
隐	-14101
粵	-14102
触	-14103
飓	-14104
斤	-14105
峽	-14106
忽	-14107
嘴	-14108
勋	-14109
祠	-14110
銜	-14111
凝	-14112
虚	-14113
碟	-14114
敢	-14115
醇	-14116
掘	-14117
媽	-14118
緩	-14119
祿	-14120
悲	-14121
肌	-14122
雍	-14123
迦	-14124
缓	-14125
抑	-14126
灯	-14127
卖	-14128
烧	-14129
姊	-14130
汤	-14131
裏	-14132
擾	-14133
曰	-14134
扁	-14135
邁	-14136
姜	-14137
盜	-14138
妙	-14139
煙	-14140
牵	-14141
礁	-14142
抱	-14143
麟	-14144
詢	-14145
偵	-14146
・	-14147
砂	-14148
旬	-14149
汰	-14150
篮	-14151
吹	-14152
虑	-14153
筹	-14154
髮	-14155
拖	-14156
厦	-14157
恭	-14158
馮	-14159
蹈	-14160
蒋	-14161
棘	-14162
甫	-14163
碧	-14164
宰	-14165
讷	-14166
奶	-14167
株	-14168
翔	-14169
躍	-14170
汀	-14171
→	-14172
竟	-14173
稻	-14174
緬	-14175
萧	-14176
岗	-14177
崩	-14178
胶	-14179
尹	-14180
斐	-14181
沖	-14182
抓	-14183
怕	-14184
巫	-14185
鼎	-14186
丞	-14187
圭	-14188
袋	-14189
朴	-14190
罰	-14191
魁	-14192
掛	-14193
硕	-14194
吨	-14195
鯰	-14196
脚	-14197
溝	-14198
谱	-14199
~	-14200
锋	-14201
鄂	-14202
勵	-14203
幽	-14204
蕨	-14205
孕	-14206
毅	-14207
邪	-14208
龄	-14209
滕	-14210
龜	-14211
辨	-14212
膠	-14213
晓	-14214
蓬	-14215
丑	-14216
寮	-14217
汝	-14218
寓	-14219
栖	-14220
剪	-14221
抚	-14222
雌	-14223
冈	-14224
挂	-14225
盆	-14226
囊	-14227
伙	-14228
豫	-14229
珀	-14230
苯	-14231
溯	-14232
廖	-14233
託	-14234
’	-14235
氢	-14236
撫	-14237
襄	-14238
倡	-14239
貞	-14240
脅	-14241
削	-14242
扣	-14243
滾	-14244
咖	-14245
埋	-14246
募	-14247
×	-14248
邑	-14249
丸	-14250
巢	-14251
催	-14252
擅	-14253
讚	-14254
搖	-14255
违	-14256
濃	-14257
腔	-14258
虹	-14259
茅	-14260
酷	-14261
涌	-14262
漁	-14263
腺	-14264
氨	-14265
蜂	-14266
茵	-14267
坛	-14268
賜	-14269
喪	-14270
潔	-14271
蟹	-14272
礙	-14273
淺	-14274
纹	-14275
斥	-14276
俠	-14277
坂	-14278
披	-14279
彌	-14280
挖	-14281
舟	-14282
陪	-14283
吞	-14284
耕	-14285
碩	-14286
鴻	-14287
缅	-14288
链	-14289
坝	-14290
蕾	-14291
邱	-14292
蜜	-14293
棉	-14294
吧	-14295
閱	-14296
暖	-14297
湿	-14298
详	-14299
吻	-14300
暨	-14301
噶	-14302
徹	-14303
谓	-14304
屍	-14305
舌	-14306
滩	-14307
噴	-14308
卸	-14309
亥	-14310
姑	-14311
邵	-14312
崖	-14313
拘	-14314
札	-14315
巷	-14316
仓	-14317
莲	-14318
喇	-14319
壮	-14320
蒲	-14321
贤	-14322
忘	-14323
禄	-14324
肺	-14325
毗	-14326
淑	-14327
雞	-14328
愈	-14329
摧	-14330
贯	-14331
飯	-14332
丛	-14333
踏	-14334
矮	-14335
冕	-14336
貼	-14337
掠	-14338
瓶	-14339
仕	-14340
曉	-14341
筒	-14342
粮	-14343
鷹	-14344
页	-14345
蜀	-14346
鍾	-14347
稀	-14348
耐	-14349
薪	-14350
帽	-14351
啡	-14352
彻	-14353
鲍	-14354
铺	-14355
嘗	-14356
枢	-14357
拱	-14358
漠	-14359
渠	-14360
昇	-14361
弓	-14362
腾	-14363
椎	-14364
尿	-14365
慣	-14366
驾	-14367
琪	-14368
胺	-14369
驶	-14370
庶	-14371
薇	-14372
悬	-14373
販	-14374
穴	-14375
蹤	-14376
桓	-14377
堤	-14378
纷	-14379
赠	-14380
龐	-14381
鸡	-14382
诚	-14383
鱸	-14384
趕	-14385
宛	-14386
惜	-14387
哪	-14388
怡	-14389
麵	-14390
懸	-14391
宴	-14392
钦	-14393
‘	-14394
倾	-14395
睡	-14396
藻	-14397
澄	-14398
丧	-14399
鑑	-14400
梵	-14401
齿	-14402
铸	-14403
赐	-14404
玲	-14405
恋	-14406
豬	-14407
阅	-14408
*	-14409
励	-14410
菩	-14411
銘	-14412
赏	-14413
梨	-14414
遞	-14415
雇	-14416
弄	-14417
框	-14418
帆	-14419
樞	-14420
鳴	-14421
栗	-14422
甜	-14423
瘤	-14424
磷	-14425
漏	-14426
遲	-14427
冀	-14428
閩	-14429
奠	-14430
掩	-14431
慎	-14432
润	-14433
褐	-14434
腿	-14435
杆	-14436
棕	-14437
烯	-14438
疊	-14439
贺	-14440
碰	-14441
豹	-14442
爪	-14443
禦	-14444
逸	-14445
ー	-14446
淨	-14447
娶	-14448
猎	-14449
葵	-14450
搶	-14451
欽	-14452
瓷	-14453
繫	-14454
禾	-14455
誓	-14456
柄	-14457
悠	-14458
沪	-14459
牲	-14460
桌	-14461
鉴	-14462
帥	-14463
磯	-14464
跃	-14465
滋	-14466
庇	-14467
翅	-14468
桐	-14469
辉	-14470
胁	-14471
蹟	-14472
霞	-14473
慰	-14474
臂	-14475
肢	-14476
恨	-14477
‧	-14478
忆	-14479
帅	-14480
罚	-14481
凭	-14482
唇	-14483
鈴	-14484
彥	-14485
辯	-14486
柬	-14487
潤	-14488
饮	-14489
纲	-14490
窄	-14491
姿	-14492
锁	-14493
贞	-14494
猜	-14495
繩	-14496
惊	-14497
盈	-14498
庚	-14499
抄	-14500
禪	-14501
診	-14502
壯	-14503
肝	-14504
腓	-14505
厝	-14506
诞	-14507
逻	-14508
嵌	-14509
呎	-14510
肩	-14511
浸	-14512
递	-14513
遮	-14514
韻	-14515
槽	-14516
罷	-14517
劣	-14518
扭	-14519
汶	-14520
腰	-14521
吊	-14522
秩	-14523
诏	-14524
妖	-14525
彦	-14526
盗	-14527
祈	-14528
辟	-14529
朵	-14530
逾	-14531
轰	-14532
遼	-14533
炭	-14534
沼	-14535
殷	-14536
霧	-14537
扰	-14538
裸	-14539
哀	-14540
囚	-14541
怎	-14542
芭	-14543
頗	-14544
鐸	-14545
娱	-14546
寇	-14547
瑜	-14548
償	-14549
趨	-14550
夥	-14551
の	-14552
歉	-14553
兔	-14554
搞	-14555
亩	-14556
掃	-14557
閃	-14558
橡	-14559
辩	-14560
嫩	-14561
臟	-14562
鮑	-14563
忌	-14564
а	-14565
踪	-14566
貧	-14567
兽	-14568
猫	-14569
眉	-14570
猴	-14571
椅	-14572
庸	-14573
荃	-14574
α	-14575
烷	-14576
跌	-14577
阔	-14578
厥	-14579
戌	-14580
C	-14581
焚	-14582
扇	-14583
挺	-14584
禧	-14585
跋	-14586
祐	-14587
勸	-14588
贫	-14589
爬	-14590
攜	-14591
凰	-14592
勁	-14593
庞	-14594
芙	-14595
询	-14596
闊	-14597
灘	-14598
趁	-14599
薦	-14600
欠	-14601
糧	-14602
壳	-14603
弥	-14604
伪	-14605
蓄	-14606
坤	-14607
埠	-14608
夸	-14609
鯨	-14610
崙	-14611
蝠	-14612
駁	-14613
旱	-14614
肇	-14615
砖	-14616
赶	-14617
賦	-14618
鞋	-14619
昔	-14620
贴	-14621
眠	-14622
喷	-14623
瑚	-14624
擺	-14625
牽	-14626
迟	-14627
氟	-14628
$	-14629
鶴	-14630
擦	-14631
譚	-14632
#	-14633
闽	-14634
棟	-14635
ン	-14636
履	-14637
茄	-14638
赋	-14639
鸿	-14640
酮	-14641
捉	-14642
浓	-14643
尸	-14644
欄	-14645
債	-14646
о	-14647
喻	-14648
噸	-14649
彎	-14650
斬	-14651
摇	-14652
蕃	-14653
碍	-14654
鱗	-14655
勘	-14656
攀	-14657
佑	-14658
臉	-14659
踢	-14660
諮	-14661
昏	-14662
郁	-14663
悟	-14664
稣	-14665
惯	-14666
醉	-14667
頸	-14668
晴	-14669
漂	-14670
仑	-14671
蜥	-14672
肅	-14673
躲	-14674
罢	-14675
桿	-14676
穗	-14677
氫	-14678
琼	-14679
戊	-14680
怨	-14681
澎	-14682
睛	-14683
抢	-14684
濕	-14685
偽	-14686
竣	-14687
尝	-14688
帳	-14689
栏	-14690
裴	-14691
璋	-14692
詔	-14693
鹰	-14694
蘋	-14695
侦	-14696
糕	-14697
氮	-14698
櫻	-14699
橄	-14700
狐	-14701
齋	-14702
携	-14703
軒	-14704
椒	-14705
浅	-14706
辱	-14707
騰	-14708
瓊	-14709
侨	-14710
勾	-14711
涂	-14712
颇	-14713
畜	-14714
厢	-14715
臀	-14716
屿	-14717
滚	-14718
聰	-14719
慘	-14720
爺	-14721
帖	-14722
艙	-14723
净	-14724
荐	-14725
炳	-14726
矢	-14727
渔	-14728
塌	-14729
鑽	-14730
棚	-14731
喝	-14732
斌	-14733
旭	-14734
禅	-14735
僚	-14736
狹	-14737
妥	-14738
賊	-14739
鬆	-14740
盲	-14741
蛙	-14742
凉	-14743
碱	-14744
饭	-14745
爐	-14746
喉	-14747
罩	-14748
黛	-14749
謙	-14750
洁	-14751
陝	-14752
徙	-14753
鴨	-14754
涼	-14755
趋	-14756
酯	-14757
缸	-14758
凸	-14759
欺	-14760
哺	-14761
咒	-14762
邏	-14763
匠	-14764
漆	-14765
塗	-14766
爸	-14767
鱷	-14768
狮	-14769
霖	-14770
崗	-14771
廂	-14772
淳	-14773
匣	-14774
扫	-14775
盒	-14776
閘	-14777
瑙	-14778
い	-14779
畏	-14780
熔	-14781
痕	-14782
撥	-14783
窮	-14784
岐	-14785
瞄	-14786
绥	-14787
摔	-14788
菱	-14789
淵	-14790
阜	-14791
浴	-14792
夾	-14793
鏈	-14794
哭	-14795
秉	-14796
賭	-14797
虞	-14798
嘛	-14799
虐	-14800
鞍	-14801
擋	-14802
糊	-14803
粤	-14804
榴	-14805
煌	-14806
穌	-14807
匪	-14808
戚	-14809
漳	-14810
劝	-14811
胆	-14812
寵	-14813
嬰	-14814
憤	-14815
偿	-14816
憂	-14817
腸	-14818
閒	-14819
螢	-14820
潰	-14821
牟	-14822
и	-14823
奸	-14824
酋	-14825
拯	-14826
捲	-14827
廿	-14828
麓	-14829
á	-14830
堵	-14831
矶	-14832
遙	-14833
鋪	-14834
彬	-14835
乞	-14836
朔	-14837
侶	-14838
幢	-14839
欖	-14840
梭	-14841
鹤	-14842
氛	-14843
铭	-14844
僑	-14845
辣	-14846
侠	-14847
纖	-14848
棠	-14849
叠	-14850
橙	-14851
庵	-14852
匿	-14853
垣	-14854
貪	-14855
銳	-14856
噪	-14857
夹	-14858
奮	-14859
荆	-14860
惑	-14861
纤	-14862
墳	-14863
弧	-14864
磅	-14865
誘	-14866
笛	-14867
焰	-14868
駿	-14869
垃	-14870
瓣	-14871
脏	-14872
餅	-14873
粘	-14874
鸣	-14875
咀	-14876
硝	-14877
荊	-14878
蛤	-14879
棍	-14880
膽	-14881
寅	-14882
翡	-14883
蝦	-14884
诊	-14885
债	-14886
卧	-14887
壬	-14888
彗	-14889
騙	-14890
玫	-14891
撲	-14892
胃	-14893
鎊	-14894
傘	-14895
楠	-14896
瑰	-14897
舱	-14898
誰	-14899
韵	-14900
劾	-14901
纂	-14902
圾	-14903
悼	-14904
摆	-14905
颶	-14906
冶	-14907
孜	-14908
暢	-14909
泌	-14910
杏	-14911
膚	-14912
渊	-14913
娅	-14914
蝙	-14915
窟	-14916
懿	-14917
滴	-14918
湛	-14919
誼	-14920
櫃	-14921
牢	-14922
谭	-14923
輩	-14924
韶	-14925
剿	-14926
肆	-14927
鯛	-14928
摘	-14929
燥	-14930
禹	-14931
赦	-14932
淹	-14933
穷	-14934
β	-14935
寡	-14936
凹	-14937
汕	-14938
冥	-14939
禎	-14940
涛	-14941
酬	-14942
懂	-14943
邸	-14944
籤	-14945
傲	-14946
塵	-14947
栋	-14948
狭	-14949
懼	-14950
纬	-14951
喊	-14952
酰	-14953
炼	-14954
炉	-14955
辐	-14956
蘿	-14957
煉	-14958
塚	-14959
樑	-14960
蔽	-14961
橘	-14962
稽	-14963
黏	-14964
繳	-14965
雁	-14966
剌	-14967
倪	-14968
梓	-14969
膨	-14970
孚	-14971
惨	-14972
荡	-14973
ん	-14974
伺	-14975
汁	-14976
禍	-14977
峻	-14978
敖	-14979
煮	-14980
詠	-14981
隙	-14982
簧	-14983
н	-14984
泄	-14985
謠	-14986
宦	-14987
滇	-14988
奕	-14989
谥	-14990
勉	-14991
斋	-14992
筋	-14993
籲	-14994
侄	-14995
屢	-14996
桶	-14997
芯	-14998
頃	-14999
鵝	-15000
寂	-15001
闪	-15002
凶	-15003
叢	-15004
碘	-15005
е	-15006
戎	-15007
墅	-15008
畿	-15009
荔	-15010
萍	-15011
狩	-15012
′	-15013
仗	-15014
迄	-15015
酵	-15016
赣	-15017
鞭	-15018
諡	-15019
妓	-15020
瀑	-15021
刪	-15022
奋	-15023
彪	-15024
沛	-15025
裹	-15026
践	-15027
彙	-15028
淚	-15029
墜	-15030
訟	-15031
頌	-15032
ü	-15033
曝	-15034
癸	-15035
乒	-15036
墟	-15037
拋	-15038
窑	-15039
綁	-15040
俞	-15041
僱	-15042
岑	-15043
榆	-15044
綿	-15045
闸	-15046
р	-15047
穎	-15048
呢	-15049
擠	-15050
頜	-15051
騷	-15052
苹	-15053
拾	-15054
芽	-15055
鹏	-15056
稚	-15057
竭	-15058
う	-15059
厭	-15060
殉	-15061
蹄	-15062
咨	-15063
啤	-15064
茹	-15065
嫡	-15066
聊	-15067
拨	-15068
喚	-15069
臭	-15070
顷	-15071
彝	-15072
】	-15073
磚	-15074
淀	-15075
饶	-15076
狸	-15077
魅	-15078
敷	-15079
溃	-15080
悅	-15081
舜	-15082
钻	-15083
【	-15084
纺	-15085
粟	-15086
耿	-15087
墩	-15088
廚	-15089
暑	-15090
糾	-15091
婉	-15092
淋	-15093
烤	-15094
貸	-15095
锐	-15096
蓉	-15097
骸	-15098
绵	-15099
肪	-15100
茜	-15101
骚	-15102
萌	-15103
哩	-15104
衷	-15105
钠	-15106
※	-15107
吋	-15108
哇	-15109
爛	-15110
鑼	-15111
鵬	-15112
肿	-15113
с	-15114
砌	-15115
谊	-15116
肠	-15117
蝕	-15118
懲	-15119
賠	-15120
悔	-15121
嵩	-15122
樟	-15123
闲	-15124
壩	-15125
莞	-15126
瘋	-15127
羌	-15128
鳞	-15129
芦	-15130
薯	-15131
仆	-15132
樊	-15133
砍	-15134
垒	-15135
琦	-15136
衙	-15137
愚	-15138
杖	-15139
牡	-15140
蔓	-15141
諷	-15142
晰	-15143
渦	-15144
爽	-15145
擢	-15146
檀	-15147
俯	-15148
腎	-15149
谐	-15150
豚	-15151
顛	-15152
歼	-15153
擒	-15154
敲	-15155
瀨	-15156
し	-15157
扑	-15158
凍	-15159
締	-15160
兇	-15161
硅	-15162
淆	-15163
罐	-15164
褒	-15165
弼	-15166
舅	-15167
皖	-15168
舖	-15169
僕	-15170
愉	-15171
淫	-15172
谦	-15173
貶	-15174
堯	-15175
郝	-15176
鰻	-15177
咬	-15178
剖	-15179
渤	-15180
挽	-15181
乓	-15182
犁	-15183
鹅	-15184
沫	-15185
籠	-15186
蔬	-15187
邢	-15188
鸭	-15189
ā	-15190
剥	-15191
啦	-15192
腫	-15193
墾	-15194
弊	-15195
濾	-15196
鸦	-15197
窩	-15198
鴉	-15199
弯	-15200
趾	-15201
鱂	-15202
漿	-15203
遥	-15204
浏	-15205
莖	-15206
渭	-15207
狙	-15208
胤	-15209
霜	-15210
ス	-15211
檐	-15212
膀	-15213
濫	-15214
烹	-15215
猩	-15216
蔚	-15217
鹃	-15218
厲	-15219
棱	-15220
瞬	-15221
祁	-15222
苔	-15223
ö	-15224
庐	-15225
滤	-15226
碗	-15227
廓	-15228
暹	-15229
迭	-15230
匡	-15231
禽	-15232
诱	-15233
壹	-15234
吁	-15235
嘎	-15236
茎	-15237
т	-15238
臥	-15239
蘆	-15240
蜘	-15241
í	-15242
卦	-15243
坞	-15244
踐	-15245
删	-15246
崛	-15247
倭	-15248
缝	-15249
諧	-15250
扳	-15251
紳	-15252
蚀	-15253
樸	-15254
犀	-15255
罹	-15256
娥	-15257
鮋	-15258
抹	-15259
ó	-15260
榕	-15261
毓	-15262
炒	-15263
铝	-15264
イ	-15265
疲	-15266
贬	-15267
贷	-15268
颠	-15269
蔭	-15270
闖	-15271
•	-15272
釣	-15273
甄	-15274
穀	-15275
胚	-15276
丟	-15277
沂	-15278
绑	-15279
驳	-15280
抬	-15281
邯	-15282
眷	-15283
鑄	-15284
岱	-15285
饼	-15286
釜	-15287
陇	-15288
猿	-15289
锅	-15290
蕉	-15291
鑲	-15292
в	-15293
愤	-15294
塢	-15295
畅	-15296
宵	-15297
裙	-15298
哨	-15299
盔	-15300
袍	-15301
膛	-15302
虏	-15303
潟	-15304
脆	-15305
舆	-15306
沁	-15307
聪	-15308
虜	-15309
孢	-15310
篤	-15311
倖	-15312
笠	-15313
账	-15314
忧	-15315
輿	-15316
鍋	-15317
濁	-15318
醛	-15319
挫	-15320
惹	-15321
谁	-15322
か	-15323
渝	-15324
肤	-15325
蝴	-15326
隕	-15327
飼	-15328
斩	-15329
謹	-15330
è	-15331
擲	-15332
ル	-15333
媛	-15334
撐	-15335
鬱	-15336
縫	-15337
鬚	-15338
宠	-15339
睿	-15340
祇	-15341
湧	-15342
峙	-15343
莽	-15344
鰓	-15345
溢	-15346
纠	-15347
苷	-15348
楷	-15349
髓	-15350
婴	-15351
龟	-15352
喙	-15353
妈	-15354
磡	-15355
嚇	-15356
鹼	-15357
赔	-15358
瑶	-15359
晤	-15360
膝	-15361
梧	-15362
顱	-15363
饒	-15364
渣	-15365
泗	-15366
渴	-15367
脹	-15368
讼	-15369
脸	-15370
嗎	-15371
涡	-15372
雯	-15373
鯊	-15374
卯	-15375
婷	-15376
舶	-15377
勿	-15378
蒼	-15379
蒿	-15380
疇	-15381
蕊	-15382
阎	-15383
峨	-15384
巩	-15385
瞭	-15386
簿	-15387
堀	-15388
汾	-15389
匾	-15390
琅	-15391
婿	-15392
颂	-15393
苍	-15394
溥	-15395
た	-15396
傍	-15397
抛	-15398
矣	-15399
к	-15400
攔	-15401
説	-15402
梗	-15403
疼	-15404
绳	-15405
槟	-15406
阀	-15407
尧	-15408
汐	-15409
煩	-15410
缴	-15411
羞	-15412
虔	-15413
巾	-15414
铃	-15415
黔	-15416
妾	-15417
賺	-15418
棺	-15419
肚	-15420
闢	-15421
晃	-15422
帐	-15423
您	-15424
犧	-15425
飽	-15426
緝	-15427
颖	-15428
嘲	-15429
敕	-15430
睦	-15431
鋁	-15432
幌	-15433
辜	-15434
馨	-15435
溉	-15436
伞	-15437
窝	-15438
贪	-15439
μ	-15440
菁	-15441
贿	-15442
奢	-15443
磺	-15444
祺	-15445
璧	-15446
詮	-15447
闆	-15448
鬧	-15449
傭	-15450
膏	-15451
塾	-15452
醬	-15453
錐	-15454
冤	-15455
詐	-15456
譴	-15457
匙	-15458
屡	-15459
紮	-15460
ア	-15461
洽	-15462
罵	-15463
肋	-15464
л	-15465
浑	-15466
牺	-15467
苻	-15468
悦	-15469
枯	-15470
贼	-15471
鋸	-15472
侏	-15473
吟	-15474
埼	-15475
戟	-15476
濤	-15477
剝	-15478
惧	-15479
棵	-15480
蠻	-15481
浆	-15482
耆	-15483
窦	-15484
聂	-15485
晏	-15486
焊	-15487
纏	-15488
啊	-15489
沧	-15490
讽	-15491
釀	-15492
榄	-15493
馳	-15494
挝	-15495
斧	-15496
骗	-15497
摸	-15498
橢	-15499
辈	-15500
芜	-15501
磐	-15502
ト	-15503
ラ	-15504
漲	-15505
襪	-15506
泵	-15507
涨	-15508
謎	-15509
妝	-15510
慾	-15511
钥	-15512
铅	-15513
闵	-15514
艮	-15515
钩	-15516
と	-15517
瀏	-15518
酉	-15519
厉	-15520
腕	-15521
釐	-15522
驟	-15523
汞	-15524
盪	-15525
菸	-15526
蚌	-15527
糟	-15528
阐	-15529
颈	-15530
芮	-15531
な	-15532
搏	-15533
氰	-15534
綽	-15535
瑾	-15536
肾	-15537
丢	-15538
慌	-15539
淞	-15540
閥	-15541
坠	-15542
岬	-15543
瑛	-15544
紗	-15545
绒	-15546
刃	-15547
淪	-15548
禱	-15549
梳	-15550
諜	-15551
ä	-15552
咪	-15553
鰕	-15554
紡	-15555
酿	-15556
醜	-15557
堰	-15558
惩	-15559
瘦	-15560
撑	-15561
胖	-15562
芹	-15563
蟻	-15564
鱈	-15565
祸	-15566
錶	-15567
枫	-15568
瀕	-15569
祯	-15570
駒	-15571
兀	-15572
缀	-15573
郸	-15574
鈞	-15575
岔	-15576
饥	-15577
恪	-15578
雾	-15579
リ	-15580
丕	-15581
哉	-15582
墮	-15583
睹	-15584
蟾	-15585
鞏	-15586
抨	-15587
皓	-15588
篡	-15589
賄	-15590
に	-15591
竊	-15592
忒	-15593
琛	-15594
胀	-15595
衫	-15596
鑫	-15597
僵	-15598
锥	-15599
侣	-15600
噬	-15601
棣	-15602
竺	-15603
钓	-15604
菇	-15605
掀	-15606
劲	-15607
曜	-15608
枕	-15609
稜	-15610
緻	-15611
捨	-15612
舷	-15613
抒	-15614
羚	-15615
谣	-15616
鉛	-15617
浚	-15618
爷	-15619
褲	-15620
镑	-15621
鲸	-15622
兜	-15623
懋	-15624
撕	-15625
楓	-15626
挡	-15627
諭	-15628
谨	-15629
帜	-15630
祕	-15631
稠	-15632
倚	-15633
荀	-15634
萼	-15635
谴	-15636
麒	-15637
暱	-15638
羟	-15639
衞	-15640
钧	-15641
滲	-15642
钾	-15643
镶	-15644
廁	-15645
洩	-15646
厌	-15647
捍	-15648
幟	-15649
憾	-15650
绣	-15651
挤	-15652
祚	-15653
穹	-15654
纜	-15655
蔗	-15656
铎	-15657
莓	-15658
瀛	-15659
聶	-15660
靶	-15661
戍	-15662
溜	-15663
き	-15664
焉	-15665
萃	-15666
骼	-15667
鸚	-15668
湊	-15669
唤	-15670
捧	-15671
茱	-15672
蜒	-15673
霹	-15674
滯	-15675
瞻	-15676
癒	-15677
蜿	-15678
蟬	-15679
饱	-15680
轩	-15681
煽	-15682
祂	-15683
糙	-15684
ク	-15685
溺	-15686
祷	-15687
谍	-15688
贩	-15689
佣	-15690
姦	-15691
黜	-15692
瑤	-15693
綏	-15694
胰	-15695
蛮	-15696
鍊	-15697
帛	-15698
隍	-15699
艷	-15700
д	-15701
−	-15702
妨	-15703
芸	-15704
蛾	-15705
誦	-15706
逗	-15707
冻	-15708
曙	-15709
苞	-15710
蚤	-15711
烃	-15712
熹	-15713
矽	-15714
艰	-15715
拦	-15716
芥	-15717
攤	-15718
煥	-15719
瘟	-15720
〕	-15721
堇	-15722
崑	-15723
栓	-15724
霄	-15725
淇	-15726
霉	-15727
沽	-15728
钙	-15729
〔	-15730
俸	-15731
潼	-15732
虧	-15733
繹	-15734
ま	-15735
堊	-15736
滥	-15737
尘	-15738
溴	-15739
缪	-15740
霆	-15741
γ	-15742
孵	-15743
艱	-15744
り	-15745
壟	-15746
蕩	-15747
陡	-15748
侮	-15749
嗜	-15750
笨	-15751
酚	-15752
ا	-15753
瑩	-15754
俾	-15755
贖	-15756
裘	-15757
烂	-15758
鉤	-15759
龚	-15760
摺	-15761
偕	-15762
刹	-15763
皂	-15764
鲤	-15765
坟	-15766
妄	-15767
敞	-15768
苣	-15769
鄒	-15770
煞	-15771
く	-15772
畴	-15773
莆	-15774
雛	-15775
炬	-15776
蕴	-15777
埤	-15778
澀	-15779
ッ	-15780
皋	-15781
峭	-15782
巳	-15783
轎	-15784
〜	-15785
昊	-15786
灶	-15787
嬪	-15788
佬	-15789
慨	-15790
荫	-15791
閻	-15792
篷	-15793
洼	-15794
さ	-15795
乍	-15796
鈔	-15797
沸	-15798
渥	-15799
翟	-15800
м	-15801
樺	-15802
靴	-15803
靼	-15804
る	-15805
燦	-15806
闡	-15807
闹	-15808
驰	-15809
屑	-15810
鈣	-15811
斡	-15812
誅	-15813
陛	-15814
疯	-15815
硼	-15816
舵	-15817
娄	-15818
窃	-15819
豎	-15820
鑒	-15821
禺	-15822
笃	-15823
譬	-15824
泾	-15825
澜	-15826
綴	-15827
妍	-15828
匀	-15829
盎	-15830
諒	-15831
壺	-15832
肽	-15833
啸	-15834
箕	-15835
滙	-15836
臧	-15837
竖	-15838
缮	-15839
泣	-15840
蚊	-15841
赌	-15842
埗	-15843
殲	-15844
酪	-15845
鈕	-15846
渾	-15847
鶯	-15848
麾	-15849
阱	-15850
陞	-15851
柑	-15852
釘	-15853
ら	-15854
苟	-15855
謊	-15856
谕	-15857
豁	-15858
π	-15859
椭	-15860
楞	-15861
滞	-15862
庾	-15863
羲	-15864
鑰	-15865
垫	-15866
滬	-15867
薰	-15868
彤	-15869
隅	-15870
鹹	-15871
が	-15872
椰	-15873
у	-15874
シ	-15875
镍	-15876
骤	-15877
廬	-15878
疹	-15879
膳	-15880
沮	-15881
曦	-15882
飄	-15883
嘆	-15884
焕	-15885
邹	-15886
恕	-15887
炫	-15888
傀	-15889
檬	-15890
艳	-15891
蘊	-15892
垦	-15893
樱	-15894
鈉	-15895
烦	-15896
虾	-15897
刮	-15898
幡	-15899
暮	-15900
碉	-15901
隘	-15902
は	-15903
晖	-15904
汴	-15905
芋	-15906
醋	-15907
λ	-15908
吡	-15909
柜	-15910
磊	-15911
缔	-15912
δ	-15913
濒	-15914
諫	-15915
煎	-15916
蠟	-15917
壢	-15918
渗	-15919
锌	-15920
魨	-15921
謬	-15922
お	-15923
儡	-15924
毯	-15925
竇	-15926
醚	-15927
餓	-15928
淄	-15929
渲	-15930
衢	-15931
誇	-15932
鎌	-15933
沐	-15934
湄	-15935
陌	-15936
夭	-15937
绸	-15938
萝	-15939
顎	-15940
鵡	-15941
奚	-15942
崁	-15943
炯	-15944
戮	-15945
垄	-15946
淤	-15947
蘚	-15948
埕	-15949
峪	-15950
枣	-15951
槐	-15952
纱	-15953
萱	-15954
σ	-15955
兑	-15956
吵	-15957
沦	-15958
て	-15959
厨	-15960
吗	-15961
壕	-15962
蔷	-15963
诛	-15964
鄞	-15965
驼	-15966
こ	-15967
妆	-15968
敛	-15969
砸	-15970
п	-15971
燮	-15972
陋	-15973
绰	-15974
胥	-15975
カ	-15976
伶	-15977
卤	-15978
峇	-15979
靡	-15980
傻	-15981
孺	-15982
泪	-15983
蒐	-15984
諱	-15985
み	-15986
叱	-15987
墊	-15988
缆	-15989
翊	-15990
覓	-15991
嫔	-15992
鲨	-15993
擱	-15994
斃	-15995
杞	-15996
毙	-15997
泼	-15998
□	-15999
佚	-16000
扔	-16001
巖	-16002
悍	-16003
濠	-16004
绅	-16005
←	-16006
拷	-16007
瞿	-16008
篆	-16009
繡	-16010
肛	-16011
@	-16012
あ	-16013
垮	-16014
寝	-16015
ジ	-16016
倩	-16017
桅	-16018
竿	-16019
寰	-16020
嶽	-16021
晟	-16022
氦	-16023
沾	-16024
谏	-16025
轿	-16026
ロ	-16027
倆	-16028
兌	-16029
汲	-16030
腥	-16031
苛	-16032
葫	-16033
萎	-16034
咎	-16035
娟	-16036
扯	-16037
証	-16038
霰	-16039
饿	-16040
嘻	-16041
掣	-16042
汙	-16043
姨	-16044
簇	-16045
苓	-16046
鮭	-16047
剃	-16048
恤	-16049
憩	-16050
琶	-16051
藓	-16052
嬌	-16053
槳	-16054
驿	-16055
鼬	-16056
朽	-16057
稷	-16058
蒜	-16059
悚	-16060
毘	-16061
僉	-16062
閔	-16063
ω	-16064
侖	-16065
拐	-16066
ο	-16067
呆	-16068
暉	-16069
檳	-16070
訥	-16071
飘	-16072
僖	-16073
凿	-16074
嵐	-16075
惱	-16076
鉅	-16077
鞘	-16078
糯	-16079
鈾	-16080
攬	-16081
诵	-16082
骆	-16083
坍	-16084
窯	-16085
ل	-16086
卉	-16087
攸	-16088
昧	-16089
漕	-16090
タ	-16091
蜗	-16092
ç	-16093
俭	-16094
冉	-16095
叹	-16096
珂	-16097
畝	-16098
臼	-16099
駝	-16100
ε	-16101
○	-16102
傣	-16103
昱	-16104
毆	-16105
茉	-16106
驕	-16107
笙	-16108
臻	-16109
酱	-16110
饲	-16111
悄	-16112
琵	-16113
闯	-16114
頑	-16115
繆	-16116
毋	-16117
弈	-16118
恥	-16119
揆	-16120
樵	-16121
濮	-16122
聆	-16123
蛺	-16124
锂	-16125
â	-16126
悖	-16127
瀾	-16128
絨	-16129
谟	-16130
陂	-16131
龔	-16132
吓	-16133
嘯	-16134
潑	-16135
鑿	-16136
勻	-16137
咽	-16138
琰	-16139
甬	-16140
筠	-16141
楔	-16142
灑	-16143
秃	-16144
衆	-16145
跆	-16146
釉	-16147
侃	-16148
咏	-16149
栅	-16150
甥	-16151
綾	-16152
诈	-16153
撃	-16154
绎	-16155
啓	-16156
灼	-16157
皈	-16158
畸	-16159
啶	-16160
隼	-16161
鳍	-16162
耦	-16163
葱	-16164
じ	-16165
蜡	-16166
跪	-16167
齣	-16168
ち	-16169
侈	-16170
壶	-16171
ú	-16172
柿	-16173
砷	-16174
硒	-16175
蕙	-16176
侗	-16177
媚	-16178
愁	-16179
飢	-16180
駱	-16181
柵	-16182
踩	-16183
鳩	-16184
烘	-16185
缠	-16186
褚	-16187
軀	-16188
钞	-16189
±	-16190
唸	-16191
靳	-16192
勛	-16193
卅	-16194
锯	-16195
綺	-16196
骏	-16197
瑋	-16198
躁	-16199
迥	-16200
鰈	-16201
儉	-16202
圻	-16203
瀚	-16204
葆	-16205
鉀	-16206
〇	-16207
ド	-16208
匆	-16209
妳	-16210
擄	-16211
閏	-16212
魄	-16213
à	-16214
倦	-16215
朕	-16216
潞	-16217
襯	-16218
哆	-16219
錘	-16220
歪	-16221
锤	-16222
珪	-16223
盼	-16224
脾	-16225
诬	-16226
鈍	-16227
缉	-16228
耍	-16229
蜴	-16230
謨	-16231
遏	-16232
婭	-16233
捆	-16234
訶	-16235
遴	-16236
妒	-16237
殆	-16238
趟	-16239
τ	-16240
媳	-16241
狠	-16242
褶	-16243
钉	-16244
桔	-16245
蔑	-16246
襟	-16247
骂	-16248
芷	-16249
賃	-16250
ν	-16251
ρ	-16252
г	-16253
椿	-16254
亏	-16255
璽	-16256
跤	-16257
逵	-16258
濂	-16259
濬	-16260
縛	-16261
羧	-16262
馈	-16263
愧	-16264
滄	-16265
莒	-16266
つ	-16267
搁	-16268
昶	-16269
赎	-16270
钊	-16271
铀	-16272
靂	-16273
殴	-16274
を	-16275
溧	-16276
侬	-16277
刁	-16278
宸	-16279
弩	-16280
泸	-16281
澈	-16282
誣	-16283
雉	-16284
餉	-16285
喘	-16286
晦	-16287
栈	-16288
燭	-16289
ô	-16290
マ	-16291
捞	-16292
桩	-16293
鬍	-16294
潢	-16295
贛	-16296
丫	-16297
裳	-16298
躺	-16299
鴿	-16300
レ	-16301
檻	-16302
瀧	-16303
矚	-16304
エ	-16305
洙	-16306
兖	-16307
膺	-16308
蔥	-16309
阙	-16310
韌	-16311
拌	-16312
撼	-16313
桨	-16314
馥	-16315
拂	-16316
昕	-16317
曳	-16318
槃	-16319
糞	-16320
翎	-16321
薹	-16322
挾	-16323
饋	-16324
も	-16325
囑	-16326
賤	-16327
б	-16328
奄	-16329
恺	-16330
産	-16331
蝸	-16332
\	-16333
ə	-16334
喃	-16335
炀	-16336
駭	-16337
黴	-16338
佟	-16339
圩	-16340
昨	-16341
篩	-16342
籽	-16343
蠕	-16344
貂	-16345
だ	-16346
僻	-16347
峯	-16348
弋	-16349
惕	-16350
杠	-16351
洮	-16352
蓟	-16353
驛	-16354
オ	-16355
叡	-16356
冢	-16357
撈	-16358
枋	-16359
圃	-16360
婢	-16361
猷	-16362
瑕	-16363
甦	-16364
瞳	-16365
絮	-16366
衬	-16367
鐮	-16368
鷲	-16369
‰	-16370
乂	-16371
掷	-16372
沅	-16373
耻	-16374
鎧	-16375
闰	-16376
顽	-16377
婁	-16378
嫻	-16379
琮	-16380
禿	-16381
で	-16382
巽	-16383
菅	-16384
鳚	-16385
夔	-16386
蚜	-16387
谅	-16388
豔	-16389
檎	-16390
瀋	-16391
莘	-16392
幂	-16393
胱	-16394
虢	-16395
蚁	-16396
邕	-16397
鰨	-16398
吠	-16399
昼	-16400
羈	-16401
蝇	-16402
詛	-16403
ς	-16404
φ	-16405
冗	-16406
勐	-16407
忻	-16408
蚕	-16409
蛟	-16410
フ	-16411
檸	-16412
澱	-16413
羰	-16414
莪	-16415
蟒	-16416
姪	-16417
怜	-16418
扈	-16419
谜	-16420
剎	-16421
寢	-16422
谎	-16423
醣	-16424
嘱	-16425
綸	-16426
堕	-16427
掖	-16428
氹	-16429
涿	-16430
粥	-16431
鍛	-16432
鏢	-16433
拙	-16434
捏	-16435
琥	-16436
钮	-16437
咳	-16438
唑	-16439
斂	-16440
浜	-16441
瀉	-16442
迂	-16443
鸞	-16444
š	-16445
宕	-16446
篠	-16447
薑	-16448
锈	-16449
畑	-16450
讳	-16451
輾	-16452
ι	-16453
れ	-16454
ミ	-16455
匝	-16456
掙	-16457
汛	-16458
涧	-16459
蠅	-16460
孀	-16461
藔	-16462
邺	-16463
隴	-16464
巍	-16465
榨	-16466
皿	-16467
迺	-16468
遁	-16469
馴	-16470
兗	-16471
嫉	-16472
岚	-16473
曇	-16474
楨	-16475
瞞	-16476
礫	-16477
裤	-16478
й	-16479
サ	-16480
痴	-16481
骄	-16482
儂	-16483
蓼	-16484
薨	-16485
尬	-16486
斛	-16487
湳	-16488
帘	-16489
戛	-16490
驸	-16491
や	-16492
キ	-16493
妊	-16494
憐	-16495
璟	-16496
碁	-16497
肘	-16498
螂	-16499
酥	-16500
鋰	-16501
阡	-16502
鷗	-16503
浊	-16504
熵	-16505
莹	-16506
颍	-16507
鸽	-16508
^	-16509
奘	-16510
岷	-16511
暇	-16512
殭	-16513
莺	-16514
鞑	-16515
餵	-16516
挨	-16517
煜	-16518
仄	-16519
伎	-16520
擂	-16521
榔	-16522
瘾	-16523
蠢	-16524
韬	-16525
麴	-16526
☆	-16527
佃	-16528
叻	-16529
喆	-16530
摊	-16531
旌	-16532
旷	-16533
沌	-16534
渚	-16535
滦	-16536
癮	-16537
饑	-16538
黯	-16539
丐	-16540
叭	-16541
叮	-16542
熄	-16543
矯	-16544
筛	-16545
聾	-16546
韃	-16547
嶋	-16548
帧	-16549
歙	-16550
璇	-16551
绛	-16552
诠	-16553
攏	-16554
櫛	-16555
铬	-16556
鰍	-16557
θ	-16558
я	-16559
倘	-16560
吼	-16561
嶄	-16562
烽	-16563
牒	-16564
荧	-16565
袜	-16566
钝	-16567
け	-16568
ブ	-16569
剔	-16570
吒	-16571
孛	-16572
慷	-16573
揽	-16574
炱	-16575
眺	-16576
訝	-16577
詭	-16578
逍	-16579
锰	-16580
颐	-16581
鷺	-16582
ī	-16583
俩	-16584
蠶	-16585
诰	-16586
す	-16587
っ	-16588
劭	-16589
炔	-16590
璜	-16591
癱	-16592
砾	-16593
鄙	-16594
鑾	-16595
锻	-16596
鵑	-16597
撾	-16598
樽	-16599
瓯	-16600
茫	-16601
偃	-16602
婺	-16603
樁	-16604
氓	-16605
瀝	-16606
灿	-16607
瑄	-16608
緋	-16609
ñ	-16610
咤	-16611
曬	-16612
郢	-16613
雳	-16614
鮨	-16615
晝	-16616
沱	-16617
茛	-16618
诃	-16619
赂	-16620
铵	-16621
扼	-16622
挠	-16623
桦	-16624
沥	-16625
绞	-16626
骷	-16627
ß	-16628
舺	-16629
艋	-16630
赚	-16631
鈺	-16632
チ	-16633
懶	-16634
眶	-16635
稼	-16636
螯	-16637
磋	-16638
缚	-16639
龕	-16640
哮	-16641
酗	-16642
凑	-16643
惰	-16644
咲	-16645
嬉	-16646
甯	-16647
瞰	-16648
祉	-16649
雏	-16650
鱇	-16651
麝	-16652
ч	-16653
テ	-16654
崧	-16655
玟	-16656
玺	-16657
祜	-16658
穫	-16659
筱	-16660
鎚	-16661
鮟	-16662
劈	-16663
坳	-16664
屎	-16665
昵	-16666
淦	-16667
澡	-16668
羁	-16669
醮	-16670
骁	-16671
鳅	-16672
鸠	-16673
旻	-16674
潍	-16675
諺	-16676
闕	-16677
ن	-16678
グ	-16679
デ	-16680
パ	-16681
堺	-16682
涪	-16683
蘑	-16684
蝉	-16685
鎳	-16686
鹛	-16687
佥	-16688
槓	-16689
綬	-16690
κ	-16691
コ	-16692
憎	-16693
懈	-16694
葺	-16695
鍍	-16696
ャ	-16697
尻	-16698
巔	-16699
檜	-16700
殯	-16701
熏	-16702
珉	-16703
睽	-16704
聿	-16705
銓	-16706
鬣	-16707
ナ	-16708
妲	-16709
荻	-16710
謗	-16711
頤	-16712
ы	-16713
唆	-16714
嗅	-16715
悶	-16716
抖	-16717
櫚	-16718
璐	-16719
瘓	-16720
絞	-16721
鄺	-16722
頰	-16723
ê	-16724
亢	-16725
呀	-16726
晒	-16727
翹	-16728
螈	-16729
钛	-16730
鞠	-16731
驴	-16732
ひ	-16733
ム	-16734
怠	-16735
摹	-16736
浣	-16737
諦	-16738
鎂	-16739
プ	-16740
凋	-16741
咐	-16742
暈	-16743
脖	-16744
轍	-16745
遐	-16746
镀	-16747
镁	-16748
颅	-16749
髒	-16750
ø	-16751
ي	-16752
婕	-16753
嫂	-16754
拇	-16755
撇	-16756
檗	-16757
鉉	-16758
驯	-16759
嬴	-16760
炙	-16761
賂	-16762
魮	-16763
ь	-16764
傢	-16765
啄	-16766
愷	-16767
洒	-16768
筵	-16769
鈦	-16770
馏	-16771
ر	-16772
凳	-16773
摯	-16774
歳	-16775
瓮	-16776
粲	-16777
铉	-16778
ë	-16779
璞	-16780
秧	-16781
荼	-16782
蝗	-16783
橇	-16784
熬	-16785
綢	-16786
蜱	-16787
锚	-16788
镰	-16789
鹦	-16790
麽	-16791
冼	-16792
嚮	-16793
碌	-16794
衮	-16795
ょ	-16796
わ	-16797
卞	-16798
墘	-16799
惇	-16800
晕	-16801
灸	-16802
珲	-16803
瘫	-16804
竄	-16805
蓓	-16806
飪	-16807
å	-16808
咕	-16809
焘	-16810
睞	-16811
鄱	-16812
え	-16813
梢	-16814
胄	-16815
鏽	-16816
ィ	-16817
弛	-16818
槿	-16819
烛	-16820
秤	-16821
驹	-16822
査	-16823
窒	-16824
笋	-16825
覃	-16826
鲷	-16827
ニ	-16828
柩	-16829
煒	-16830
睢	-16831
ʁ	-16832
よ	-16833
ろ	-16834
バ	-16835
佘	-16836
嗓	-16837
娼	-16838
熾	-16839
瓚	-16840
稟	-16841
韧	-16842
η	-16843
喂	-16844
浇	-16845
辗	-16846
ō	-16847
з	-16848
桁	-16849
滁	-16850
羹	-16851
葦	-16852
蔔	-16853
蕈	-16854
豈	-16855
鳌	-16856
愍	-16857
泓	-16858
泻	-16859
皱	-16860
盂	-16861
筍	-16862
簾	-16863
羯	-16864
蟠	-16865
谿	-16866
轅	-16867
鄴	-16868
髻	-16869
寥	-16870
惶	-16871
戳	-16872
漩	-16873
畠	-16874
碇	-16875
蝎	-16876
踞	-16877
م	-16878
ウ	-16879
桢	-16880
畲	-16881
癖	-16882
羨	-16883
脷	-16884
膩	-16885
飆	-16886
و	-16887
姥	-16888
娠	-16889
歹	-16890
窺	-16891
粪	-16892
鋅	-16893
餡	-16894
啞	-16895
燧	-16896
翘	-16897
酌	-16898
铲	-16899
せ	-16900
俑	-16901
彷	-16902
忱	-16903
滔	-16904
甩	-16905
疵	-16906
窪	-16907
艏	-16908
蝨	-16909
踝	-16910
鳄	-16911
唔	-16912
恼	-16913
洱	-16914
耽	-16915
脩	-16916
賑	-16917
釧	-16918
鵰	-16919
乖	-16920
屁	-16921
崴	-16922
氾	-16923
犍	-16924
笈	-16925
绶	-16926
č	-16927
ハ	-16928
厕	-16929
恬	-16930
榈	-16931
湍	-16932
睾	-16933
繕	-16934
謁	-16935
醯	-16936
錨	-16937
钴	-16938
俏	-16939
勖	-16940
嚼	-16941
孽	-16942
楣	-16943
淖	-16944
渎	-16945
●	-16946
捻	-16947
瑣	-16948
疣	-16949
釗	-16950
闇	-16951
鹭	-16952
メ	-16953
搗	-16954
楹	-16955
浒	-16956
琨	-16957
纶	-16958
钵	-16959
モ	-16960
呤	-16961
怯	-16962
瘧	-16963
荚	-16964
骰	-16965
鹊	-16966
鼐	-16967
ɛ	-16968
碾	-16969
窘	-16970
蒴	-16971
薊	-16972
躯	-16973
馀	-16974
ダ	-16975
娑	-16976
懇	-16977
晷	-16978
籬	-16979
蔻	-16980
誥	-16981
郴	-16982
鼩	-16983
龛	-16984
娇	-16985
棧	-16986
槌	-16987
檯	-16988
泮	-16989
洵	-16990
狡	-16991
薔	-16992
鱨	-16993
婪	-16994
揉	-16995
柚	-16996
煦	-16997
缕	-16998
逕	-16999
饪	-17000
髏	-17001
⁄	-17002
亳	-17003
佗	-17004
奬	-17005
炽	-17006
谬	-17007
闾	-17008
徘	-17009
扒	-17010
玖	-17011
筲	-17012
絹	-17013
罔	-17014
脇	-17015
訣	-17016
贻	-17017
躬	-17018
镐	-17019
鳃	-17020
叩	-17021
徊	-17022
撿	-17023
槭	-17024
痪	-17025
糸	-17026
鹘	-17027
兮	-17028
唾	-17029
夯	-17030
懦	-17031
攘	-17032
柠	-17033
栾	-17034
焙	-17035
蠍	-17036
挣	-17037
掏	-17038
撮	-17039
杵	-17040
璘	-17041
瞒	-17042
窖	-17043
腋	-17044
苇	-17045
诅	-17046
逅	-17047
邳	-17048
ビ	-17049
僭	-17050
撓	-17051
疟	-17052
罄	-17053
苳	-17054
鎬	-17055
宥	-17056
氐	-17057
漱	-17058
腈	-17059
鈎	-17060
饷	-17061
妤	-17062
琢	-17063
肄	-17064
誡	-17065
谤	-17066
栃	-17067
澧	-17068
爹	-17069
誹	-17070
邂	-17071
鮠	-17072
ガ	-17073
曠	-17074
杲	-17075
菠	-17076
貯	-17077
寞	-17078
棗	-17079
榛	-17080
歆	-17081
箴	-17082
粽	-17083
絃	-17084
鹵	-17085
亘	-17086
叟	-17087
挚	-17088
榭	-17089
獾	-17090
痊	-17091
瞎	-17092
蕪	-17093
藜	-17094
谔	-17095
贮	-17096
赁	-17097
鸾	-17098
ュ	-17099
儼	-17100
嘌	-17101
嘧	-17102
垢	-17103
岌	-17104
戡	-17105
珮	-17106
疽	-17107
瘡	-17108
肴	-17109
薈	-17110
蜻	-17111
堃	-17112
岂	-17113
涩	-17114
濑	-17115
粱	-17116
羣	-17117
蝰	-17118
轭	-17119
驃	-17120
鹉	-17121
佰	-17122
恃	-17123
猝	-17124
茸	-17125
谒	-17126
鉑	-17127
枉	-17128
烙	-17129
矗	-17130
糜	-17131
緞	-17132
嘔	-17133
琬	-17134
醍	-17135
霓	-17136
鞅	-17137
鴞	-17138
噁	-17139
攪	-17140
琐	-17141
簷	-17142
纥	-17143
聳	-17144
蜈	-17145
蠡	-17146
诫	-17147
輟	-17148
鏞	-17149
锑	-17150
雒	-17151
顫	-17152
娩	-17153
懺	-17154
璉	-17155
稔	-17156
羔	-17157
蛹	-17158
豌	-17159
»	-17160
î	-17161
ı	-17162
匕	-17163
峒	-17164
氙	-17165
蚣	-17166
韜	-17167
餚	-17168
勺	-17169
憬	-17170
洄	-17171
疚	-17172
耸	-17173
肱	-17174
鮃	-17175
佤	-17176
巒	-17177
彧	-17178
掸	-17179
檄	-17180
癲	-17181
蜆	-17182
镖	-17183
侷	-17184
榻	-17185
澍	-17186
筏	-17187
腱	-17188
鉻	-17189
颌	-17190
ب	-17191
昴	-17192
栩	-17193
燊	-17194
珈	-17195
荨	-17196
菏	-17197
虱	-17198
蚓	-17199
賬	-17200
醐	-17201
鱲	-17202
ã	-17203
―	-17204
ェ	-17205
俚	-17206
嬅	-17207
弔	-17208
滘	-17209
煬	-17210
珩	-17211
箏	-17212
蜓	-17213
釁	-17214
靚	-17215
媲	-17216
抉	-17217
拢	-17218
柘	-17219
皺	-17220
祗	-17221
蛭	-17222
赈	-17223
辍	-17224
ш	-17225
ゅ	-17226
佯	-17227
吩	-17228
恂	-17229
昀	-17230
珞	-17231
皎	-17232
穢	-17233
紓	-17234
袞	-17235
貳	-17236
邃	-17237
铯	-17238
鰂	-17239
æ	-17240
俐	-17241
喧	-17242
嫣	-17243
幺	-17244
疤	-17245
荥	-17246
弁	-17247
憧	-17248
戸	-17249
砚	-17250
紊	-17251
褪	-17252
钰	-17253
⋯	-17254
佼	-17255
呕	-17256
巅	-17257
悌	-17258
栢	-17259
痘	-17260
痺	-17261
絆	-17262
覲	-17263
贱	-17264
遶	-17265
钨	-17266
闍	-17267
鳖	-17268
★	-17269
ど	-17270
ズ	-17271
啼	-17272
嗽	-17273
囉	-17274
溼	-17275
闷	-17276
이	-17277
्	-17278
め	-17279
梟	-17280
涇	-17281
鄚	-17282
醃	-17283
铂	-17284
铨	-17285
閑	-17286
髦	-17287
«	-17288
嗚	-17289
嵊	-17290
揣	-17291
沔	-17292
箔	-17293
绢	-17294
臚	-17295
舫	-17296
螃	-17297
蹲	-17298
軾	-17299
邠	-17300
銮	-17301
驍	-17302
俳	-17303
岙	-17304
拮	-17305
斟	-17306
潁	-17307
灝	-17308
瑠	-17309
瑯	-17310
蚂	-17311
蝮	-17312
螞	-17313
鏟	-17314
鯙	-17315
鲱	-17316
垩	-17317
撻	-17318
浔	-17319
瓢	-17320
盏	-17321
脛	-17322
膦	-17323
蝽	-17324
貽	-17325
蹦	-17326
≤	-17327
冪	-17328
剋	-17329
匱	-17330
呵	-17331
尷	-17332
岖	-17333
滸	-17334
漾	-17335
瀆	-17336
芎	-17337
菀	-17338
蜍	-17339
螳	-17340
訛	-17341
跻	-17342
鑣	-17343
靛	-17344
鳶	-17345
ł	-17346
嚨	-17347
嵯	-17348
栎	-17349
涟	-17350
湮	-17351
睐	-17352
箍	-17353
蒯	-17354
邾	-17355
霑	-17356
ゆ	-17357
嫖	-17358
掺	-17359
搅	-17360
涝	-17361
渺	-17362
甾	-17363
疮	-17364
蟎	-17365
褫	-17366
诽	-17367
鄢	-17368
頡	-17369
驢	-17370
鳗	-17371
ご	-17372
姍	-17373
戦	-17374
敍	-17375
櫸	-17376
瑗	-17377
矫	-17378
縻	-17379
萩	-17380
讶	-17381
酐	-17382
醴	-17383
銃	-17384
ば	-17385
ㄧ	-17386
咯	-17387
娣	-17388
潇	-17389
盱	-17390
絳	-17391
羡	-17392
腭	-17393
赓	-17394
镕	-17395
餌	-17396
驥	-17397
鸥	-17398
剷	-17399
哑	-17400
噩	-17401
帷	-17402
弒	-17403
珅	-17404
罂	-17405
讞	-17406
辻	-17407
逞	-17408
鈸	-17409
鏗	-17410
鬃	-17411
鮡	-17412
ć	-17413
匐	-17414
吶	-17415
囂	-17416
塹	-17417
庠	-17418
恳	-17419
晞	-17420
漪	-17421
瑭	-17422
碲	-17423
荠	-17424
菟	-17425
躋	-17426
辕	-17427
遽	-17428
邈	-17429
邛	-17430
驊	-17431
ū	-17432
υ	-17433
儸	-17434
塭	-17435
壠	-17436
嫦	-17437
歎	-17438
玮	-17439
矾	-17440
腻	-17441
鉗	-17442
顗	-17443
鮫	-17444
咄	-17445
燁	-17446
瑁	-17447
缙	-17448
褻	-17449
觅	-17450
諏	-17451
隗	-17452
韭	-17453
鰲	-17454
ョ	-17455
俟	-17456
儁	-17457
帚	-17458
忏	-17459
杓	-17460
颓	-17461
驤	-17462
ŋ	-17463
嵇	-17464
彿	-17465
扛	-17466
桧	-17467
瓘	-17468
痢	-17469
瞩	-17470
蠔	-17471
衅	-17472
詣	-17473
謫	-17474
鵲	-17475
ц	-17476
ゃ	-17477
廍	-17478
挟	-17479
掾	-17480
柝	-17481
湟	-17482
炜	-17483
珥	-17484
瓏	-17485
碓	-17486
筝	-17487
艉	-17488
譙	-17489
郗	-17490
钼	-17491
颤	-17492
勅	-17493
頷	-17494
ē	-17495
า	-17496
偈	-17497
匮	-17498
囱	-17499
垛	-17500
幔	-17501
窥	-17502
糠	-17503
賁	-17504
闫	-17505
鯽	-17506
ζ	-17507
亟	-17508
妞	-17509
慑	-17510
枷	-17511
浬	-17512
涓	-17513
涤	-17514
淅	-17515
漓	-17516
瘍	-17517
裨	-17518
譏	-17519
钡	-17520
د	-17521
嬤	-17522
昙	-17523
桀	-17524
殡	-17525
涕	-17526
猥	-17527
睫	-17528
耘	-17529
趴	-17530
钒	-17531
锺	-17532
陟	-17533
頹	-17534
骠	-17535
ワ	-17536
専	-17537
徳	-17538
懒	-17539
澗	-17540
烴	-17541
琊	-17542
痰	-17543
眩	-17544
笹	-17545
羥	-17546
萤	-17547
袒	-17548
釷	-17549
鉞	-17550
隈	-17551
鲈	-17552
ж	-17553
囪	-17554
慄	-17555
拚	-17556
漬	-17557
澹	-17558
犛	-17559
璠	-17560
緹	-17561
繇	-17562
腌	-17563
诡	-17564
谯	-17565
銖	-17566
銨	-17567
餾	-17568
ร	-17569
嘩	-17570
恙	-17571
漣	-17572
瀘	-17573
玠	-17574
珙	-17575
贓	-17576
銹	-17577
鐳	-17578
阈	-17579
颚	-17580
鸢	-17581
黍	-17582
亵	-17583
俺	-17584
歿	-17585
瀟	-17586
瀰	-17587
燙	-17588
稗	-17589
茴	-17590
觐	-17591
诲	-17592
颉	-17593
鱺	-17594
ほ	-17595
ツ	-17596
哗	-17597
屹	-17598
岘	-17599
岫	-17600
崭	-17601
揀	-17602
朦	-17603
滌	-17604
煊	-17605
琇	-17606
癡	-17607
秽	-17608
紜	-17609
腮	-17610
萸	-17611
軼	-17612
郧	-17613
锣	-17614
馅	-17615
齦	-17616
齧	-17617
ा	-17618
俨	-17619
寛	-17620
忤	-17621
恿	-17622
様	-17623
犢	-17624
癫	-17625
胪	-17626
讹	-17627
诣	-17628
赉	-17629
轼	-17630
郃	-17631
駙	-17632
鯧	-17633
鰺	-17634
そ	-17635
匍	-17636
奭	-17637
欒	-17638
眙	-17639
绮	-17640
缽	-17641
鄯	-17642
鯡	-17643
摒	-17644
晁	-17645
猖	-17646
粿	-17647
绯	-17648
豺	-17649
贲	-17650
鋤	-17651
阗	-17652
鲫	-17653
鸫	-17654
ś	-17655
儷	-17656
捣	-17657
棻	-17658
歴	-17659
沭	-17660
滂	-17661
熒	-17662
璿	-17663
茗	-17664
錮	-17665
鎗	-17666
閭	-17667
霾	-17668
ɔ	-17669
ノ	-17670
湃	-17671
澂	-17672
焯	-17673
甕	-17674
癇	-17675
癢	-17676
蒨	-17677
覬	-17678
軛	-17679
鎢	-17680
钯	-17681
馭	-17682
鹳	-17683
­	-17684
ぶ	-17685
凜	-17686
囤	-17687
涸	-17688
璨	-17689
硤	-17690
禰	-17691
繭	-17692
謚	-17693
逛	-17694
釵	-17695
镛	-17696
靺	-17697
魷	-17698
圜	-17699
埭	-17700
壑	-17701
尴	-17702
弑	-17703
槛	-17704
澆	-17705
砥	-17706
肼	-17707
荖	-17708
菖	-17709
蝌	-17710
鞨	-17711
鯖	-17712
ず	-17713
憨	-17714
榷	-17715
瀬	-17716
炊	-17717
煲	-17718
胭	-17719
蚪	-17720
蛻	-17721
郓	-17722
郤	-17723
钳	-17724
骥	-17725
鱔	-17726
َ	-17727
刈	-17728
咱	-17729
啉	-17730
拗	-17731
晗	-17732
梶	-17733
濛	-17734
濡	-17735
翩	-17736
莢	-17737
蚺	-17738
镧	-17739
阇	-17740
颊	-17741
魟	-17742
鵙	-17743
孰	-17744
獺	-17745
盯	-17746
砦	-17747
筷	-17748
絢	-17749
綦	-17750
蛞	-17751
蝓	-17752
閤	-17753
雹	-17754
鸳	-17755
®	-17756
ð	-17757
х	-17758
י	-17759
ふ	-17760
ネ	-17761
勗	-17762
咆	-17763
嶷	-17764
暐	-17765
氘	-17766
燾	-17767
爍	-17768
疃	-17769
瘀	-17770
県	-17771
縉	-17772
菈	-17773
輒	-17774
鈹	-17775
雋	-17776
む	-17777
ァ	-17778
乩	-17779
愫	-17780
栱	-17781
楫	-17782
烨	-17783
珣	-17784
疱	-17785
紇	-17786
缎	-17787
誨	-17788
谚	-17789
込	-17790
陲	-17791
э	-17792
س	-17793
僞	-17794
唁	-17795
嘶	-17796
憫	-17797
焜	-17798
甌	-17799
瘠	-17800
簪	-17801
紂	-17802
綵	-17803
縊	-17804
膿	-17805
薙	-17806
訖	-17807
赃	-17808
醌	-17809
铮	-17810
魴	-17811
鴦	-17812
鸮	-17813
ヒ	-17814
呐	-17815
帑	-17816
憚	-17817
榘	-17818
氚	-17819
鉢	-17820
锟	-17821
馱	-17822
嚕	-17823
嵋	-17824
恽	-17825
烁	-17826
獐	-17827
痹	-17828
窜	-17829
笏	-17830
苋	-17831
蕲	-17832
谘	-17833
跖	-17834
閨	-17835
閹	-17836
骇	-17837
鵜	-17838
∈	-17839
噻	-17840
嚣	-17841
姫	-17842
寔	-17843
徭	-17844
櫟	-17845
溅	-17846
珏	-17847
珑	-17848
禀	-17849
絶	-17850
耒	-17851
荪	-17852
錳	-17853
黒	-17854
ˈ	-17855
ع	-17856
幀	-17857
悯	-17858
曷	-17859
椽	-17860
氪	-17861
汜	-17862
煇	-17863
猕	-17864
瑀	-17865
盞	-17866
砵	-17867
碚	-17868
翦	-17869
翱	-17870
苴	-17871
蜑	-17872
豊	-17873
郯	-17874
鎔	-17875
锷	-17876
鱉	-17877
鹫	-17878
ケ	-17879
墉	-17880
尕	-17881
庑	-17882
挛	-17883
槻	-17884
橐	-17885
淩	-17886
獠	-17887
玳	-17888
竑	-17889
聋	-17890
苄	-17891
踵	-17892
関	-17893
鯤	-17894
麋	-17895
đ	-17896
ボ	-17897
儋	-17898
啮	-17899
墻	-17900
孪	-17901
汎	-17902
滷	-17903
燼	-17904
痒	-17905
羿	-17906
萘	-17907
藨	-17908
轆	-17909
骅	-17910
ί	-17911
ו	-17912
剽	-17913
挹	-17914
揪	-17915
摻	-17916
殃	-17917
詰	-17918
钚	-17919
鮎	-17920
ž	-17921
哄	-17922
恣	-17923
掳	-17924
毎	-17925
毡	-17926
漯	-17927
潯	-17928
燬	-17929
猾	-17930
痫	-17931
窿	-17932
篙	-17933
脯	-17934
膾	-17935
邬	-17936
铋	-17937
驷	-17938
骧	-17939
́	-17940
ψ	-17941
र	-17942
倬	-17943
嚐	-17944
彊	-17945
忿	-17946
拭	-17947
暠	-17948
曖	-17949
殮	-17950
玥	-17951
碣	-17952
稹	-17953
纓	-17954
蜚	-17955
袤	-17956
軫	-17957
飙	-17958
鱒	-17959
鱧	-17960
鸯	-17961
嗪	-17962
嘿	-17963
坯	-17964
墀	-17965
憊	-17966
楯	-17967
爨	-17968
菓	-17969
蹇	-17970
铠	-17971
阆	-17972
་	-17973
侑	-17974
坷	-17975
夙	-17976
奐	-17977
惋	-17978
晔	-17979
朐	-17980
梆	-17981
汨	-17982
炅	-17983
玷	-17984
璀	-17985
畈	-17986
瞪	-17987
綻	-17988
繃	-17989
芍	-17990
赟	-17991
辙	-17992
邇	-17993
鴕	-17994
鶲	-17995
χ	-17996
ゴ	-17997
セ	-17998
凪	-17999
峠	-18000
峴	-18001
擷	-18002
曄	-18003
沢	-18004
洶	-18005
痞	-18006
耙	-18007
藐	-18008
讒	-18009
贅	-18010
蹊	-18011
軋	-18012
轶	-18013
骊	-18014
骡	-18015
鹟	-18016
ه	-18017
ね	-18018
ポ	-18019
僮	-18020
冑	-18021
嗶	-18022
宓	-18023
峦	-18024
攣	-18025
旼	-18026
杷	-18027
沆	-18028
泷	-18029
涎	-18030
癬	-18031
禛	-18032
臍	-18033
舂	-18034
藕	-18035
蜷	-18036
讥	-18037
錠	-18038
铣	-18039
鲀	-18040
ی	-18041
ぐ	-18042
ザ	-18043
卍	-18044
厩	-18045
吝	-18046
哌	-18047
喵	-18048
嘟	-18049
徠	-18050
敎	-18051
暄	-18052
橈	-18053
殤	-18054
氈	-18055
痉	-18056
笞	-18057
箬	-18058
脐	-18059
褂	-18060
贍	-18061
赭	-18062
躄	-18063
阯	-18064
骈	-18065
鳕	-18066
龢	-18067
ş	-18068
凄	-18069
勣	-18070
柃	-18071
氡	-18072
滎	-18073
燎	-18074
罌	-18075
脲	-18076
蓀	-18077
訢	-18078
諳	-18079
蹂	-18080
辮	-18081
駢	-18082
ò	-18083
傈	-18084
僳	-18085
噹	-18086
坵	-18087
潦	-18088
獗	-18089
脓	-18090
荞	-18091
莿	-18092
蜃	-18093
蟆	-18094
谌	-18095
谛	-18096
鄔	-18097
銣	-18098
钏	-18099
阉	-18100
陉	-18101
饵	-18102
ξ	-18103
ό	-18104
啜	-18105
孖	-18106
惣	-18107
揖	-18108
槎	-18109
樫	-18110
蘸	-18111
譁	-18112
辫	-18113
顥	-18114
顼	-18115
鬬	-18116
傉	-18117
喹	-18118
垠	-18119
増	-18120
攒	-18121
敝	-18122
沓	-18123
爰	-18124
疝	-18125
眞	-18126
睇	-18127
篱	-18128
缨	-18129
芾	-18130
蚩	-18131
蠱	-18132
袂	-18133
诀	-18134
鄲	-18135
铢	-18136
铰	-18137
锆	-18138
锭	-18139
騫	-18140
ˋ	-18141
ά	-18142
ت	-18143
†	-18144
ゲ	-18145
ソ	-18146
ピ	-18147
凛	-18148
呋	-18149
哔	-18150
嚎	-18151
娴	-18152
崽	-18153
嶠	-18154
徇	-18155
拴	-18156
暘	-18157
樋	-18158
淝	-18159
灏	-18160
玘	-18161
瓒	-18162
砧	-18163
萜	-18164
蒾	-18165
覦	-18166
讫	-18167
跗	-18168
辇	-18169
迤	-18170
郅	-18171
郜	-18172
酝	-18173
鈷	-18174
鯔	-18175
ф	-18176
吲	-18177
噓	-18178
崂	-18179
恍	-18180
搓	-18181
撣	-18182
擘	-18183
昉	-18184
朮	-18185
枇	-18186
洹	-18187
硯	-18188
缢	-18189
蔵	-18190
辄	-18191
銬	-18192
镉	-18193
鱘	-18194
鴛	-18195
ˊ	-18196
伉	-18197
僥	-18198
喱	-18199
嗆	-18200
嗇	-18201
廝	-18202
愕	-18203
戾	-18204
櫥	-18205
泫	-18206
涞	-18207
焗	-18208
眨	-18209
膊	-18210
荳	-18211
蘅	-18212
蹼	-18213
醞	-18214
闺	-18215
霏	-18216
髅	-18217
鳉	-18218
ă	-18219
น	-18220
ḥ	-18221
佞	-18222
倻	-18223
刨	-18224
咩	-18225
晾	-18226
獼	-18227
祟	-18228
簋	-18229
纘	-18230
驪	-18231
ա	-18232
仡	-18233
喔	-18234
弭	-18235
惺	-18236
懾	-18237
桉	-18238
槲	-18239
殇	-18240
縷	-18241
蚵	-18242
蛎	-18243
蝟	-18244
诟	-18245
贰	-18246
鏐	-18247
镌	-18248
閎	-18249
鞮	-18250
颢	-18251
鼱	-18252
เ	-18253
∞	-18254
ぎ	-18255
へ	-18256
亶	-18257
冇	-18258
噗	-18259
廸	-18260
徕	-18261
愔	-18262
椁	-18263
淬	-18264
牍	-18265
猗	-18266
绫	-18267
芩	-18268
菴	-18269
葶	-18270
蒞	-18271
蜕	-18272
郷	-18273
錒	-18274
錚	-18275
闐	-18276
隽	-18277
霈	-18278
鲑	-18279
鹬	-18280
哚	-18281
垓	-18282
昺	-18283
楂	-18284
毬	-18285
猬	-18286
荟	-18287
莅	-18288
萇	-18289
蛊	-18290
蟑	-18291
詬	-18292
跛	-18293
蹠	-18294
鍬	-18295
鏖	-18296
钤	-18297
髯	-18298
̃	-18299
≥	-18300
ざ	-18301
喋	-18302
坨	-18303
塱	-18304
壅	-18305
毌	-18306
淼	-18307
渍	-18308
牯	-18309
疡	-18310
磕	-18311
箇	-18312
臆	-18313
苜	-18314
袱	-18315
轧	-18316
鉭	-18317
鋯	-18318
錡	-18319
钍	-18320
钺	-18321
镠	-18322
飭	-18323
骯	-18324
리	-18325
げ	-18326
丶	-18327
嘅	-18328
栉	-18329
氖	-18330
溟	-18331
獴	-18332
睑	-18333
祛	-18334
秣	-18335
笺	-18336
茧	-18337
蓑	-18338
虬	-18339
鉸	-18340
銦	-18341
録	-18342
钇	-18343
隷	-18344
驒	-18345
鮈	-18346
び	-18347
ベ	-18348
俶	-18349
厮	-18350
哼	-18351
囓	-18352
巻	-18353
扉	-18354
捡	-18355
捩	-18356
揄	-18357
搔	-18358
楸	-18359
殓	-18360
洺	-18361
溱	-18362
濺	-18363
琏	-18364
瑷	-18365
痙	-18366
睪	-18367
繽	-18368
芪	-18369
芻	-18370
裟	-18371
躉	-18372
铊	-18373
鮪	-18374
鳐	-18375
龈	-18376
`	-18377
ː	-18378
א	-18379
न	-18380
◎	-18381
傕	-18382
唧	-18383
啃	-18384
嚥	-18385
囍	-18386
孿	-18387
嵬	-18388
廩	-18389
愨	-18390
拣	-18391
歩	-18392
犰	-18393
琺	-18394
璩	-18395
瓌	-18396
発	-18397
膑	-18398
蓁	-18399
蠑	-18400
諤	-18401
诋	-18402
輋	-18403
鉈	-18404
銫	-18405
鍺	-18406
钗	-18407
钜	-18408
锄	-18409
顒	-18410
ר	-18411
ギ	-18412
佺	-18413
儕	-18414
嗝	-18415
婧	-18416
嶇	-18417
椴	-18418
汹	-18419
洸	-18420
砺	-18421
祎	-18422
稙	-18423
筊	-18424
篝	-18425
簫	-18426
苫	-18427
葭	-18428
藁	-18429
觴	-18430
貘	-18431
蹺	-18432
铿	-18433
闔	-18434
隰	-18435
鳟	-18436
鵟	-18437
ì	-18438
刎	-18439
啰	-18440
嚏	-18441
堑	-18442
揶	-18443
旃	-18444
楝	-18445
榊	-18446
渙	-18447
砜	-18448
禕	-18449
绊	-18450
罡	-18451
胛	-18452
蔺	-18453
蟄	-18454
袈	-18455
詒	-18456
遹	-18457
鎏	-18458
靄	-18459
鶻	-18460
鼴	-18461
ʃ	-18462
嵙	-18463
懊	-18464
杼	-18465
棂	-18466
烬	-18467
玑	-18468
秆	-18469
绾	-18470
舔	-18471
菝	-18472
蓿	-18473
蛄	-18474
蛸	-18475
褓	-18476
谪	-18477
軻	-18478
鉍	-18479
閡	-18480
饺	-18481
驭	-18482
骞	-18483
鯪	-18484
鶘	-18485
鶚	-18486
黻	-18487
대	-18488
û	-18489
ย	-18490
ั	-18491
↔	-18492
嘢	-18493
囿	-18494
垭	-18495
姝	-18496
媧	-18497
孃	-18498
巯	-18499
搪	-18500
朧	-18501
槙	-18502
氬	-18503
炖	-18504
烫	-18505
燉	-18506
狳	-18507
畹	-18508
疋	-18509
瘩	-18510
磾	-18511
箐	-18512
綝	-18513
舛	-18514
茁	-18515
莨	-18516
葜	-18517
蔴	-18518
蚯	-18519
蚶	-18520
诩	-18521
踊	-18522
蹶	-18523
鉚	-18524
铍	-18525
闌	-18526
闓	-18527
阚	-18528
鼯	-18529
і	-18530
ك	-18531
ヤ	-18532
佶	-18533
僊	-18534
呷	-18535
哦	-18536
怛	-18537
惘	-18538
慫	-18539
棨	-18540
椋	-18541
櫓	-18542
瓠	-18543
疍	-18544
痲	-18545
瞧	-18546
磘	-18547
紘	-18548
罟	-18549
腑	-18550
訇	-18551
豉	-18552
贽	-18553
邝	-18554
銑	-18555
鎵	-18556
霁	-18557
鯓	-18558
ý	-18559
έ	-18560
ל	-18561
ก	-18562
อ	-18563
喰	-18564
囧	-18565
坌	-18566
塬	-18567
姉	-18568
媾	-18569
廨	-18570
恵	-18571
慚	-18572
枭	-18573
汊	-18574
湜	-18575
溲	-18576
爻	-18577
琚	-18578
疙	-18579
瘴	-18580
砭	-18581
礽	-18582
祏	-18583
繙	-18584
胧	-18585
苎	-18586
菰	-18587
蔘	-18588
讧	-18589
蹴	-18590
辊	-18591
邽	-18592
郫	-18593
鄜	-18594
酣	-18595
銼	-18596
铈	-18597
餃	-18598
鰧	-18599
¥	-18600
ń	-18601
ư	-18602
ペ	-18603
姒	-18604
惫	-18605
晩	-18606
涣	-18607
濯	-18608
灞	-18609
砀	-18610
粑	-18611
绚	-18612
羸	-18613
脣	-18614
輅	-18615
辎	-18616
酆	-18617
鉬	-18618
鎰	-18619
铼	-18620
镂	-18621
顔	-18622
鱟	-18623
鵠	-18624
鶇	-18625
鷸	-18626
M	-18627
T	-18628
ě	-18629
ة	-18630
ม	-18631
侂	-18632
倣	-18633
傚	-18634
咫	-18635
嚙	-18636
姣	-18637
嬸	-18638
慤	-18639
榉	-18640
榎	-18641
橱	-18642
淒	-18643
滏	-18644
炕	-18645
牦	-18646
芊	-18647
苾	-18648
謇	-18649
迩	-18650
郦	-18651
鈿	-18652
錕	-18653
锴	-18654
鮄	-18655
ù	-18656
ю	-18657
ح	-18658
ز	-18659
त	-18660
म	-18661
䲗	-18662
亙	-18663
刍	-18664
圪	-18665
嵴	-18666
戢	-18667
扦	-18668
拽	-18669
挞	-18670
捶	-18671
楽	-18672
淌	-18673
澶	-18674
璣	-18675
疸	-18676
磬	-18677
窈	-18678
糰	-18679
綑	-18680
舯	-18681
藪	-18682
蝾	-18683
蟀	-18684
逋	-18685
邰	-18686
鄄	-18687
鏘	-18688
阖	-18689
隣	-18690
∶	-18691
劏	-18692
嘘	-18693
孳	-18694
岀	-18695
柞	-18696
沣	-18697
焓	-18698
牴	-18699
犒	-18700
琯	-18701
硐	-18702
藿	-18703
蘄	-18704
蛀	-18705
諲	-18706
謐	-18707
讖	-18708
诒	-18709
鈈	-18710
鈮	-18711
镓	-18712
阊	-18713
阑	-18714
靓	-18715
鞣	-18716
顳	-18717
馗	-18718
騏	-18719
魘	-18720
鰾	-18721
鱀	-18722
鹑	-18723
ą	-18724
佾	-18725
埴	-18726
対	-18727
攫	-18728
栒	-18729
瀅	-18730
狒	-18731
舘	-18732
蟋	-18733
蠣	-18734
詆	-18735
詡	-18736
輜	-18737
鈽	-18738
鍔	-18739
铌	-18740
锕	-18741
锗	-18742
閂	-18743
閲	-18744
髑	-18745
鬲	-18746
鯒	-18747
鲹	-18748
지	-18749
ǎ	-18750
ˇ	-18751
ה	-18752
ぼ	-18753
ㄨ	-18754
仝	-18755
倔	-18756
勲	-18757
唄	-18758
埡	-18759
埸	-18760
寐	-18761
幪	-18762
弢	-18763
拈	-18764
掰	-18765
璁	-18766
睺	-18767
脍	-18768
苌	-18769
葩	-18770
藺	-18771
蠹	-18772
蹬	-18773
逖	-18774
酈	-18775
銥	-18776
鑭	-18777
锢	-18778
锶	-18779
閬	-18780
饅	-18781
饗	-18782
騾	-18783
驩	-18784
鳢	-18785
鹞	-18786
ა	-18787
ホ	-18788
仞	-18789
円	-18790
冴	-18791
呱	-18792
咭	-18793
嗟	-18794
嶂	-18795
幗	-18796
廪	-18797
慟	-18798
掐	-18799
枱	-18800
樾	-18801
泠	-18802
泯	-18803
焱	-18804
牂	-18805
翳	-18806
苈	-18807
藹	-18808
褥	-18809
邗	-18810
釔	-18811
鉄	-18812
頊	-18813
頫	-18814
飚	-18815
麂	-18816
̇	-18817
ת	-18818
ُ	-18819
ง	-18820
≈	-18821
兢	-18822
嗡	-18823
尙	-18824
峄	-18825
崮	-18826
怂	-18827
怙	-18828
濉	-18829
燻	-18830
祆	-18831
穰	-18832
竅	-18833
竈	-18834
笆	-18835
箫	-18836
糅	-18837
縝	-18838
腴	-18839
苕	-18840
菘	-18841
蜊	-18842
詼	-18843
謔	-18844
賡	-18845
赘	-18846
鍶	-18847
铕	-18848
髹	-18849
鲟	-18850
麿	-18851
ï	-18852
ق	-18853
伕	-18854
効	-18855
啥	-18856
嗲	-18857
崆	-18858
戔	-18859
榧	-18860
榫	-18861
泚	-18862
湣	-18863
甑	-18864
矜	-18865
筐	-18866
蕤	-18867
蜢	-18868
讣	-18869
豨	-18870
躪	-18871
鄣	-18872
驮	-18873
鳎	-18874
鸛	-18875
¬	-18876
ج	-18877
倜	-18878
呸	-18879
哏	-18880
塩	-18881
姗	-18882
尪	-18883
廡	-18884
悝	-18885
捅	-18886
枞	-18887
燄	-18888
痣	-18889
稈	-18890
箋	-18891
簸	-18892
胫	-18893
膈	-18894
舢	-18895
芃	-18896
芈	-18897
蚋	-18898
蛉	-18899
踴	-18900
邡	-18901
酢	-18902
釤	-18903
鍰	-18904
鎘	-18905
钌	-18906
铟	-18907
铽	-18908
镭	-18909
闳	-18910
黝	-18911
龑	-18912
김	-18913
의	-18914
ʔ	-18915
ύ	-18916
ㄇ	-18917
仟	-18918
侥	-18919
俁	-18920
俣	-18921
凈	-18922
剡	-18923
啾	-18924
嘹	-18925
塽	-18926
屌	-18927
峤	-18928
惲	-18929
昪	-18930
毽	-18931
涮	-18932
滉	-18933
瀞	-18934
熠	-18935
皙	-18936
皰	-18937
睜	-18938
矇	-18939
禩	-18940
秭	-18941
窰	-18942
緘	-18943
蒽	-18944
螭	-18945
轲	-18946
邴	-18947
锵	-18948
雩	-18949
颛	-18950
齶	-18951
ș	-18952
ɕ	-18953
ъ	-18954
ش	-18955
া	-18956
△	-18957
偲	-18958
凊	-18959
勰	-18960
喫	-18961
嗨	-18962
垅	-18963
墬	-18964
徨	-18965
撬	-18966
濘	-18967
濶	-18968
玆	-18969
珺	-18970
癥	-18971
眈	-18972
睁	-18973
瞼	-18974
祔	-18975
秸	-18976
稃	-18977
穂	-18978
窕	-18979
紺	-18980
縈	-18981
肮	-18982
胳	-18983
萁	-18984
葳	-18985
虻	-18986
螫	-18987
诂	-18988
赡	-18989
轸	-18990
郾	-18991
鄖	-18992
鋆	-18993
錸	-18994
鏵	-18995
铆	-18996
기	-18997
일	-18998
þ	-18999
ɪ	-19000
ש	-19001
俎	-19002
匏	-19003
嘏	-19004
帙	-19005
捒	-19006
搐	-19007
榖	-19008
濊	-19009
濰	-19010
燿	-19011
皝	-19012
砻	-19013
篾	-19014
籁	-19015
糍	-19016
綰	-19017
纣	-19018
缇	-19019
茯	-19020
薌	-19021
薏	-19022
趺	-19023
逹	-19024
钕	-19025
镨	-19026
闿	-19027
韫	-19028
馒	-19029
鬟	-19030
鲆	-19031
鷂	-19032
아	-19033
œ	-19034
ɑ	-19035
ِ	-19036
่	-19037
‖	-19038
ユ	-19039
仃	-19040
冏	-19041
呜	-19042
噱	-19043
妫	-19044
惭	-19045
拏	-19046
昐	-19047
柊	-19048
殞	-19049
沩	-19050
牘	-19051
獭	-19052
瓩	-19053
痔	-19054
碴	-19055
磧	-19056
茌	-19057
蓖	-19058
觊	-19059
諍	-19060
谑	-19061
谧	-19062
邙	-19063
郛	-19064
釩	-19065
鋂	-19066
鍇	-19067
颙	-19068
鱚	-19069
鲃	-19070
鲇	-19071
黼	-19072
어	-19073
ف	-19074
स	-19075
ि	-19076
ล	-19077
ṇ	-19078
♪	-19079
ヴ	-19080
㹴	-19081
佇	-19082
俵	-19083
劵	-19084
吮	-19085
吱	-19086
咧	-19087
嘈	-19088
圏	-19089
娲	-19090
嶙	-19091
悸	-19092
惮	-19093
旸	-19094
渟	-19095
炆	-19096
炘	-19097
痤	-19098
砰	-19099
祢	-19100
縁	-19101
罘	-19102
耜	-19103
舎	-19104
蓣	-19105
蛆	-19106
訐	-19107
訕	-19108
诘	-19109
豳	-19110
賚	-19111
遑	-19112
鏜	-19113
镒	-19114
闘	-19115
阂	-19116
顓	-19117
鸲	-19118
사	-19119
정	-19120
ř	-19121
ى	-19122
य	-19123
ส	-19124
伝	-19125
唭	-19126
嗯	-19127
埂	-19128
屐	-19129
廆	-19130
暧	-19131
渌	-19132
炤	-19133
盥	-19134
睬	-19135
磔	-19136
礪	-19137
簃	-19138
籓	-19139
絀	-19140
総	-19141
纫	-19142
纭	-19143
翥	-19144
腩	-19145
芗	-19146
荏	-19147
荽	-19148
萣	-19149
蕎	-19150
觎	-19151
訃	-19152
贄	-19153
踹	-19154
蹋	-19155
輓	-19156
郇	-19157
酊	-19158
鋌	-19159
鍀	-19160
镳	-19161
雎	-19162
鬨	-19163
鰹	-19164
鶓	-19165
鹄	-19166
黟	-19167
क	-19168
พ	-19169
ṭ	-19170
べ	-19171
ㄚ	-19172
俪	-19173
団	-19174
圉	-19175
坻	-19176
奂	-19177
婶	-19178
揹	-19179
枸	-19180
殻	-19181
滓	-19182
狛	-19183
玕	-19184
缄	-19185
缬	-19186
缵	-19187
罽	-19188
芨	-19189
薮	-19190
蛏	-19191
詧	-19192
貉	-19193
軔	-19194
辺	-19195
郕	-19196
鋇	-19197
颯	-19198
髂	-19199
鯷	-19200
鳔	-19201
鴯	-19202
鸕	-19203
ב	-19204
䴉	-19205
乜	-19206
俬	-19207
劢	-19208
劻	-19209
卹	-19210
呻	-19211
咔	-19212
坭	-19213
廕	-19214
戩	-19215
掄	-19216
殁	-19217
汭	-19218
浠	-19219
淙	-19220
灃	-19221
犸	-19222
狨	-19223
瑈	-19224
瑱	-19225
磴	-19226
祓	-19227
綉	-19228
肟	-19229
蜇	-19230
蠵	-19231
衹	-19232
訌	-19233
諶	-19234
谙	-19235
赳	-19236
逯	-19237
遨	-19238
鎭	-19239
铑	-19240
霽	-19241
頴	-19242
餞	-19243
饬	-19244
饯	-19245
駄	-19246
鱥	-19247
鲲	-19248
鳀	-19249
鸪	-19250
黠	-19251
黥	-19252
하	-19253
÷	-19254
प	-19255
ี	-19256
ุ	-19257
ộ	-19258
≠	-19259
■	-19260
々	-19261
卟	-19262
叨	-19263
呦	-19264
咋	-19265
埒	-19266
嬛	-19267
撩	-19268
枳	-19269
柒	-19270
溏	-19271
眭	-19272
碶	-19273
窠	-19274
簕	-19275
粕	-19276
缜	-19277
蒔	-19278
衊	-19279
襖	-19280
谗	-19281
輦	-19282
逄	-19283
鈀	-19284
錇	-19285
鏤	-19286
駅	-19287
鬮	-19288
鮀	-19289
鶉	-19290
성	-19291
ή	-19292
ल	-19293
ะ	-19294
ิ	-19295
ი	-19296
剁	-19297
咗	-19298
啲	-19299
噌	-19300
噝	-19301
垌	-19302
媞	-19303
峋	-19304
巿	-19305
捺	-19306
擧	-19307
晸	-19308
栻	-19309
牻	-19310
猁	-19311
猞	-19312
玹	-19313
珐	-19314
珽	-19315
琿	-19316
砹	-19317
祧	-19318
箝	-19319
緲	-19320
绀	-19321
胯	-19322
臃	-19323
臏	-19324
臾	-19325
菪	-19326
詁	-19327
詫	-19328
鄠	-19329
鋐	-19330
钐	-19331
铷	-19332
頦	-19333
颞	-19334
髡	-19335
鮗	-19336
鱿	-19337
鸵	-19338
鹎	-19339
한	-19340
ę	-19341
خ	-19342
ं	-19343
ว	-19344
ゼ	-19345
伋	-19346
卬	-19347
啖	-19348
堉	-19349
壆	-19350
壙	-19351
実	-19352
嵘	-19353
恫	-19354
摭	-19355
摶	-19356
槺	-19357
浯	-19358
煨	-19359
疥	-19360
碛	-19361
禑	-19362
缭	-19363
肜	-19364
胍	-19365
胝	-19366
蕗	-19367
袄	-19368
逑	-19369
郞	-19370
銻	-19371
鋦	-19372
鐫	-19373
铐	-19374
铥	-19375
鬻	-19376
鹀	-19377
다	-19378
원	-19379
ğ	-19380
ْ	-19381
்	-19382
้	-19383
ṣ	-19384
ㄩ	-19385
丼	-19386
劊	-19387
唃	-19388
噏	-19389
圮	-19390
孑	-19391
孱	-19392
寳	-19393
峁	-19394
嵗	-19395
嶲	-19396
巂	-19397
庹	-19398
廙	-19399
彘	-19400
忡	-19401
怿	-19402
橿	-19403
氩	-19404
泱	-19405
淯	-19406
淸	-19407
湫	-19408
燏	-19409
狎	-19410
狽	-19411
痂	-19412
癩	-19413
硏	-19414
籟	-19415
粧	-19416
絵	-19417
綃	-19418
纾	-19419
绽	-19420
翀	-19421
莴	-19422
裱	-19423
襁	-19424
诙	-19425
豢	-19426
迸	-19427
酞	-19428
酩	-19429
鍼	-19430
鎓	-19431
鐲	-19432
锝	-19433
镯	-19434
閾	-19435
闱	-19436
頼	-19437
鬘	-19438
鯻	-19439
鳝	-19440
라	-19441
서	-19442
ż	-19443
ु	-19444
จ	-19445
ṃ	-19446
づ	-19447
ㄐ	-19448
佢	-19449
咿	-19450
噠	-19451
垚	-19452
嬋	-19453
峥	-19454
戕	-19455
柽	-19456
桫	-19457
樗	-19458
渑	-19459
犊	-19460
犨	-19461
琍	-19462
瑊	-19463
瓛	-19464
畀	-19465
礴	-19466
笪	-19467
糬	-19468
耨	-19469
臬	-19470
芫	-19471
蒟	-19472
蚝	-19473
蛰	-19474
蛳	-19475
衽	-19476
裒	-19477
覡	-19478
謾	-19479
迢	-19480
迳	-19481
郿	-19482
鉏	-19483
鉲	-19484
鋹	-19485
鑀	-19486
鑊	-19487
閼	-19488
韞	-19489
馍	-19490
髖	-19491
鮰	-19492
鰩	-19493
鲢	-19494
鹗	-19495
鹧	-19496
鼷	-19497
해	-19498
ʻ	-19499
ם	-19500
द	-19501
ท	-19502
ོ	-19503
ぞ	-19504
ㄝ	-19505
倧	-19506
劄	-19507
咙	-19508
咚	-19509
啪	-19510
嘜	-19511
嚷	-19512
垟	-19513
嫚	-19514
徂	-19515
栲	-19516
楙	-19517
欉	-19518
毂	-19519
汧	-19520
濞	-19521
烊	-19522
煚	-19523
痿	-19524
瘁	-19525
矧	-19526
窍	-19527
舨	-19528
荩	-19529
菽	-19530
蓨	-19531
謄	-19532
赧	-19533
鄆	-19534
銪	-19535
钷	-19536
锉	-19537
雑	-19538
饕	-19539
騁	-19540
骜	-19541
骶	-19542
鼹	-19543
나	-19544
스	-19545
조	-19546
ɣ	-19547
ә	-19548
ह	-19549
▲	-19550
〞	-19551
ぜ	-19552
ぬ	-19553
仵	-19554
叁	-19555
哎	-19556
唬	-19557
嗤	-19558
嗩	-19559
圀	-19560
圯	-19561
夤	-19562
妣	-19563
宍	-19564
庥	-19565
悰	-19566
懵	-19567
拧	-19568
昰	-19569
桤	-19570
桷	-19571
槤	-19572
樨	-19573
滹	-19574
澪	-19575
熨	-19576
犷	-19577
璆	-19578
畋	-19579
畯	-19580
砟	-19581
笄	-19582
箸	-19583
篪	-19584
粳	-19585
翕	-19586
胼	-19587
舾	-19588
莠	-19589
蔼	-19590
薳	-19591
螨	-19592
襞	-19593
賾	-19594
贇	-19595
踰	-19596
鈐	-19597
鈰	-19598
鑛	-19599
铳	-19600
驄	-19601
髭	-19602
鲉	-19603
鹈	-19604
그	-19605
동	-19606
에	-19607
오	-19608
§	-19609
ơ	-19610
נ	-19611
ต	-19612
∀	-19613
♭	-19614
ㄑ	-19615
ㄢ	-19616
倮	-19617
冨	-19618
劼	-19619
卽	-19620
嚈	-19621
囗	-19622
垡	-19623
垻	-19624
嬈	-19625
崃	-19626
庖	-19627
怅	-19628
悴	-19629
朊	-19630
枹	-19631
槊	-19632
毖	-19633
浍	-19634
潺	-19635
潾	-19636
炁	-19637
煖	-19638
牀	-19639
獒	-19640
獬	-19641
璹	-19642
痍	-19643
眸	-19644
筮	-19645
籙	-19646
紉	-19647
紬	-19648
縞	-19649
繖	-19650
繚	-19651
舐	-19652
莧	-19653
莼	-19654
蓆	-19655
褔	-19656
觚	-19657
躏	-19658
迨	-19659
遒	-19660
銚	-19661
鋨	-19662
鐙	-19663
鐺	-19664
钫	-19665
钹	-19666
阏	-19667
雫	-19668
韁	-19669
鱯	-19670
鸝	-19671
주	-19672
מ	-19673
व	-19674
ो	-19675
⇔	-19676
♯	-19677
〖	-19678
〗	-19679
ォ	-19680
ヨ	-19681
俦	-19682
傩	-19683
儆	-19684
凃	-19685
凫	-19686
卐	-19687
咁	-19688
噢	-19689
寘	-19690
廞	-19691
徴	-19692
応	-19693
恸	-19694
憍	-19695
憔	-19696
懌	-19697
挈	-19698
掟	-19699
摑	-19700
擀	-19701
旒	-19702
暾	-19703
栄	-19704
梉	-19705
浈	-19706
溆	-19707
狁	-19708
璪	-19709
畦	-19710
畬	-19711
砫	-19712
稲	-19713
篁	-19714
紱	-19715
缗	-19716
罈	-19717
茔	-19718
蜉	-19719
蟜	-19720
覧	-19721
觞	-19722
讪	-19723
讴	-19724
谄	-19725
豇	-19726
豕	-19727
贗	-19728
赝	-19729
郏	-19730
铧	-19731
镫	-19732
顴	-19733
颺	-19734
饌	-19735
騭	-19736
骐	-19737
가	-19738
경	-19739
미	-19740
선	-19741
소	-19742
õ	-19743
ţ	-19744
ƒ	-19745
ע	-19746
ी	-19747
ས	-19748
ờ	-19749
∧	-19750
ぽ	-19751
䱀	-19752
偁	-19753
叼	-19754
啬	-19755
啻	-19756
埜	-19757
売	-19758
峩	-19759
嶝	-19760
廄	-19761
弇	-19762
彫	-19763
悫	-19764
拄	-19765
揍	-19766
攙	-19767
昞	-19768
暌	-19769
曽	-19770
杳	-19771
栞	-19772
楮	-19773
櫂	-19774
歛	-19775
澚	-19776
燹	-19777
畤	-19778
禔	-19779
箧	-19780
簍	-19781
纍	-19782
芡	-19783
菑	-19784
蒺	-19785
袴	-19786
襬	-19787
諛	-19788
谶	-19789
鍚	-19790
鑪	-19791
闈	-19792
闼	-19793
陘	-19794
飴	-19795
餗	-19796
餮	-19797
駡	-19798
魍	-19799
鯿	-19800
鱝	-19801
鶿	-19802
鷄	-19803
국	-19804
ő	-19805
ض	-19806
ک	-19807
ग	-19808
ห	-19809
ར	-19810
რ	-19811
ㄍ	-19812
ㄎ	-19813
ㄕ	-19814
偓	-19815
冽	-19816
匄	-19817
唛	-19818
噲	-19819
埵	-19820
娓	-19821
嬷	-19822
帯	-19823
徬	-19824
悽	-19825
扆	-19826
捱	-19827
搵	-19828
斫	-19829
旂	-19830
栀	-19831
栝	-19832
梣	-19833
楢	-19834
気	-19835
洎	-19836
犄	-19837
璈	-19838
瘙	-19839
笮	-19840
笳	-19841
緡	-19842
绷	-19843
缯	-19844
臯	-19845
萵	-19846
葷	-19847
薫	-19848
蝣	-19849
螅	-19850
蠊	-19851
誾	-19852
譟	-19853
蹙	-19854
遄	-19855
钿	-19856
锇	-19857
颳	-19858
駟	-19859
骋	-19860
髙	-19861
鬢	-19862
魣	-19863
鵪	-19864
鹩	-19865
鹮	-19866
麸	-19867
교	-19868
수	-19869
인	-19870
𩷶	-19871
ʂ	-19872
̍	-19873
श	-19874
์	-19875
ე	-19876
ạ	-19877
ị	-19878
♥	-19879
ㄅ	-19880
ㄣ	-19881
両	-19882
亓	-19883
仮	-19884
嚟	-19885
圹	-19886
嬗	-19887
寀	-19888
崞	-19889
忞	-19890
惚	-19891
愆	-19892
愎	-19893
攢	-19894
樛	-19895
洧	-19896
澥	-19897
烩	-19898
烺	-19899
熲	-19900
熺	-19901
獷	-19902
琤	-19903
瑢	-19904
璥	-19905
甡	-19906
癣	-19907
皐	-19908
礬	-19909
笕	-19910
筴	-19911
箓	-19912
篦	-19913
絛	-19914
羗	-19915
腆	-19916
荤	-19917
葯	-19918
蒻	-19919
薷	-19920
藎	-19921
蛔	-19922
衿	-19923
貔	-19924
辋	-19925
遡	-19926
釙	-19927
銶	-19928
鏑	-19929
鐿	-19930
镗	-19931
镝	-19932
隠	-19933
魇	-19934
鯢	-19935
鲳	-19936
鲽	-19937
麹	-19938
민	-19939
자	-19940
학	-19941
F	-19942
ָ	-19943
ค	-19944
ช	-19945
ด	-19946
ს	-19947
ầ	-19948
⇒	-19949
∠	-19950
≡	-19951
〝	-19952
ㄟ	-19953
佉	-19954
俅	-19955
儔	-19956
喳	-19957
噜	-19958
坩	-19959
垸	-19960
妪	-19961
婊	-19962
崐	-19963
広	-19964
憙	-19965
擰	-19966
朓	-19967
柰	-19968
楤	-19969
権	-19970
浐	-19971
渕	-19972
湉	-19973
澐	-19974
瀍	-19975
焖	-19976
狍	-19977
獁	-19978
瞥	-19979
碸	-19980
禵	-19981
竦	-19982
紥	-19983
経	-19984
緱	-19985
绂	-19986
