<pad>	0
<unk>	0
[CLS]	0
[SEP]	0
[MASK]	0
(	0
)	0
”	0
-	0
.	0
–	0
£	0
€	0
20	-0
19	-1
200	-2
201	-3
▁19	-4
的一	-5
10	-6
▁在	-7
中国	-8
an	-9
18	-10
er	-11
人口	-12
12	-13
in	-14
00	-15
or	-16
公里	-17
可以	-18
▁201	-19
on	-20
政府	-21
公司	-22
日本	-23
11	-24
使用	-25
香港	-26
第一	-27
是一	-28
ar	-29
▁200	-30
的一个	-31
其中	-32
平方	-33
以及	-34
15	-35
la	-36
en	-37
主要	-38
包括	-39
世界	-40
st	-41
16	-42
17	-43
人民	-44
部分	-45
al	-46
平方公里	-47
研究	-48
199	-49
▁他	-50
美國	-51
at	-52
其他	-53
14	-54
中國	-55
一個	-56
因此	-57
13	-58
第二	-59
地区	-60
一个	-61
▁c	-62
大学	-63
代表	-64
30	-65
成為	-66
位於	-67
le	-68
ic	-69
美国	-70
之一	-71
位于	-72
th	-73
自己	-74
▁s	-75
中的	-76
政治	-77
工作	-78
開始	-79
不同	-80
可能	-81
台灣	-82
mu	-83
for	-84
re	-85
中心	-86
成立	-87
行政	-88
25	-89
」,	-90
国家	-91
▁此	-92
198	-93
面积	-94
市镇	-95
中央	-96
▁m	-97
ro	-98
大學	-99
他的	-100
50	-101
▁该	-102
▁《	-103
▁这	-104
年的	-105
is	-106
」。	-107
年代	-108
文化	-109
共和	-110
沒有	-111
上的	-112
表示	-113
國家	-114
▁p	-115
管理	-116
下辖	-117
行星	-118
21	-119
▁由	-120
因為	-121
am	-122
开始	-123
▁199	-124
mula	-125
進行	-126
ch	-127
所有	-128
24	-129
formula	-130
成为	-131
▁但	-132
it	-133
▁b	-134
el	-135
大的	-136
正式	-137
北京	-138
▁而	-139
一些	-140
以下	-141
提供	-142
城市	-143
进行	-144
》,	-145
▁d	-146
23	-147
也是	-148
目前	-149
認為	-150
當時	-151
地區	-152
委员	-153
es	-154
28	-155
電視	-156
作品	-157
▁這	-158
、《	-159
人的	-160
之後	-161
教育	-162
26	-163
上海	-164
27	-165
un	-166
197	-167
電影	-168
他們	-169
重要	-170
▁同	-171
足球	-172
小行星	-173
生活	-174
60	-175
第三	-176
40	-177
ol	-178
▁h	-179
000	-180
zh	-181
学院	-182
方面	-183
没有	-184
il	-185
ac	-186
國際	-187
法国	-188
▁t	-189
as	-190
22	-191
工程	-192
一般	-193
到了	-194
分布	-195
的人	-196
单位	-197
是在	-198
英國	-199
通过	-200
铁路	-201
支持	-202
發展	-203
,200	-204
学名	-205
29	-206
总面积	-207
▁198	-208
地方	-209
需要	-210
獲得	-211
ion	-212
》、《	-213
系統	-214
時間	-215
大利	-216
稱為	-217
建立	-218
印度	-219
的一个市镇	-220
例如	-221
運動	-222
认为	-223
中華	-224
事件	-225
加入	-226
▁大	-227
▁其	-228
就是	-229
系列	-230
主教	-231
所以	-232
最後	-233
属于	-234
發現	-235
100	-236
有一	-237
成功	-238
他们	-239
最高	-240
获得	-241
et	-242
▁g	-243
194	-244
作为	-245
31	-246
全国	-247
臺灣	-248
完成	-249
▁o	-250
存在	-251
自由	-252
通常	-253
人物	-254
音樂	-255
中华	-256
植物	-257
委員	-258
設計	-259
the	-260
方式	-261
受到	-262
作為	-263
擔任	-264
的大	-265
要求	-266
出現	-267
密度	-268
系统	-269
建筑	-270
om	-271
的是	-272
之后	-273
另外	-274
▁f	-275
▁w	-276
共和国	-277
us	-278
了一	-279
後來	-280
斯特	-281
同時	-282
北部	-283
提出	-284
出版	-285
ur	-286
196	-287
ad	-288
是由	-289
国际	-290
id	-291
形成	-292
航空	-293
▁本	-294
▁18	-295
ed	-296
社會	-297
▁194	-298
195	-299
二十	-300
南部	-301
然而	-302
ing	-303
民主	-304
得到	-305
民國	-306
历史	-307
世纪	-308
and	-309
》。	-310
2011	-311
具有	-312
只有	-313
車站	-314
35	-315
遊戲	-316
除了	-317
控制	-318
許多	-319
中共	-320
70	-321
运动	-322
造成	-323
西班	-324
时的	-325
影響	-326
西班牙	-327
但是	-328
名的	-329
委员会	-330
经济	-331
女性	-332
1,	-333
:“	-334
革命	-335
▁n	-336
▁a	-337
80	-338
人口密度	-339
取得	-340
出生	-341
一直	-342
合作	-343
发现	-344
发展	-345
期間	-346
2010	-347
德国	-348
主席	-349
组织	-350
主义	-351
▁l	-352
有限	-353
如果	-354
服務	-355
▁不	-356
交通	-357
ig	-358
学校	-359
任何	-360
發生	-361
因为	-362
海拔	-363
担任	-364
接受	-365
增加	-366
ent	-367
自己的	-368
电影	-369
非常	-370
社会	-371
雖然	-372
街道	-373
活動	-374
屬於	-375
之間	-376
英国	-377
省的一个市镇	-378
負責	-379
節目	-380
总人口	-381
也有	-382
時期	-383
时间	-384
设计	-385
参加	-386
另一	-387
都是	-388
ow	-389
故事	-390
行的	-391
首次	-392
已經	-393
▁"	-394
面積	-395
根據	-396
前往	-397
比賽	-398
称为	-399
变化	-400
由於	-401
37	-402
36	-403
根据	-404
附近	-405
自治	-406
專輯	-407
為了	-408
▁它	-409
學校	-410
問題	-411
名為	-412
成員	-413
公路	-414
甚至	-415
ra	-416
角色	-417
之前	-418
這個	-419
方法	-420
歷史	-421
游戏	-422
38	-423
▁有	-424
▁阿	-425
同时	-426
下辖的一个	-427
▁195	-428
版本	-429
冠軍	-430
民族	-431
經濟	-432
宣布	-433
大陆	-434
人民共和国	-435
十二	-436
os	-437
已经	-438
世紀	-439
不是	-440
时期	-441
直接	-442
90	-443
大量	-444
完全	-445
關係	-446
34	-447
这个	-448
組織	-449
進入	-450
im	-451
新的	-452
參與	-453
重新	-454
製作	-455
不能	-456
▁由於	-457
iv	-458
▁197	-459
2009	-460
保护	-461
並且	-462
性的	-463
推出	-464
中华人民共和国	-465
:「	-466
2012	-467
br	-468
分別	-469
▁此外	-470
影响	-471
主義	-472
技术	-473
歌曲	-474
這些	-475
39	-476
高度	-477
生物	-478
当时	-479
決定	-480
电视	-481
战争	-482
位置	-483
學生	-484
參加	-485
利用	-486
法院	-487
▁of	-488
的地	-489
年至	-490
下辖以下	-491
建築	-492
自然	-493
级行政	-494
形式	-495
发生	-496
很多	-497
基本	-498
之间	-499
出现	-500
han	-501
學院	-502
最佳	-503
em	-504
od	-505
包含	-506
最終	-507
一起	-508
國民	-509
两个	-510
蒙古	-511
▁k	-512
问题	-513
乡镇	-514
地的	-515
太平	-516
▁总面积	-517
歐洲	-518
直到	-519
ia	-520
ir	-521
教授	-522
意大利	-523
兩個	-524
,000	-525
擁有	-526
委員會	-527
第四	-528
是下辖的一个	-529
下的	-530
法國	-531
發行	-532
安全	-533
▁」	-534
利亚	-535
的一個	-536
共有	-537
能力	-538
ut	-539
主任	-540
后来	-541
下辖以下地区	-542
戰爭	-543
中華民國	-544
▁然而	-545
——	-546
功能	-547
尼亚	-548
美元	-549
45	-550
克斯	-551
使得	-552
的特	-553
作用	-554
▁196	-555
三年	-556
期间	-557
▁the	-558
32	-559
有限公司	-560
平均	-561
時代	-562
巴士	-563
德國	-564
48	-565
▁小行星	-566
的情	-567
2008	-568
共同	-569
再次	-570
球隊	-571
许多	-572
人口为	-573
通過	-574
定的	-575
▁同年	-576
是法国	-577
级行政单位	-578
乡镇级行政单位	-579
2001	-580
33	-581
进入	-582
而且	-583
不同的	-584
解放	-585
等地	-586
2000	-587
居民	-588
车站	-589
这些	-590
十一	-591
對於	-592
部份	-593
法律	-594
▁其中	-595
他在	-596
是下辖的一个乡镇级行政单位	-597
2013	-598
活动	-599
特別	-600
一次	-601
演出	-602
,“	-603
学家	-604
▁另外	-605
成的	-606
政策	-607
希望	-608
,《	-609
英文	-610
下的一个	-611
的主	-612
男性	-613
音乐	-614
最终	-615
尼亞	-616
▁v	-617
聯賽	-618
机车	-619
仍然	-620
ot	-621
命名	-622
▁該	-623
選舉	-624
的名	-625
或者	-626
拉斯	-627
模式	-628
的新	-629
聯合	-630
▁2013	-631
op	-632
方向	-633
天主教	-634
相同	-635
無法	-636
由于	-637
是一个	-638
學家	-639
2007	-640
唯一	-641
um	-642
ag	-643
▁2012	-644
联合	-645
中国大陆	-646
早期	-647
▁该市镇	-648
图示	-649
一種	-650
2006	-651
獨立	-652
人口变化	-653
计划	-654
书记	-655
人口变化图示	-656
ec	-657
年时的	-658
▁st	-659
▁2008	-660
鐵路	-661
清朝	-662
ap	-663
產生	-664
基督	-665
会议	-666
▁新	-667
2,	-668
舉行	-669
來自	-670
大多	-671
現在	-672
2014	-673
主持	-674
原因	-675
罗斯	-676
第一次	-677
總統	-678
ation	-679
計劃	-680
%,	-681
」、	-682
▁李	-683
浙江	-684
全球	-685
宗教	-686
羅斯	-687
天津	-688
年在	-689
加拿	-690
年时的人口为	-691
75	-692
用于	-693
全部	-694
ip	-695
集團	-696
学生	-697
▁2010	-698
高速	-699
关系	-700
出的	-701
地球	-702
政治人物	-703
欧洲	-704
▁in	-705
列车	-706
南京	-707
同年	-708
官方	-709
领导	-710
物理	-711
日在	-712
▁2011	-713
这一	-714
共产	-715
等人	-716
子的	-717
▁2014	-718
2005	-719
司令	-720
四川	-721
决定	-722
進士	-723
▁j	-724
65	-725
并且	-726
文物	-727
斯坦	-728
越南	-729
制度	-730
最大	-731
生产	-732
服务	-733
%。	-734
路線	-735
人士	-736
葡萄	-737
聯盟	-738
▁西	-739
結束	-740
生產	-741
为了	-742
最初	-743
天文	-744
結果	-745
中文	-746
ex	-747
大陸	-748
描述	-749
家庭	-750
州市	-751
多的	-752
超過	-753
190	-754
独立	-755
著名	-756
指出	-757
▁自	-758
▁由于	-759
速度	-760
公共	-761
最早	-762
开发	-763
▁當	-764
是一個	-765
比赛	-766
▁一	-767
最后	-768
的主要	-769
博物	-770
會議	-771
賽事	-772
▁她	-773
個人	-774
開發	-775
技術	-776
繼續	-777
博士	-778
女子	-779
西部	-780
死亡	-781
採用	-782
加拿大	-783
有的	-784
青年	-785
不少	-786
藝術	-787
傳統	-788
分别	-789
機場	-790
利亞	-791
者的	-792
科学	-793
現時	-794
海軍	-795
福建	-796
亞洲	-797
美洲	-798
動物	-799
出身	-800
采用	-801
毕业	-802
ist	-803
來的	-804
结构	-805
最大的	-806
阿拉	-807
是中国	-808
▁4	-809
年人口	-810
产生	-811
工业	-812
相關	-813
去世	-814
演唱	-815
年起	-816
ul	-817
公尺	-818
▁r	-819
64	-820
集团	-821
以上	-822
大部分	-823
皇帝	-824
▁目前	-825
改革	-826
歌手	-827
语言	-828
▁3	-829
建设	-830
東京	-831
艺术	-832
总统	-833
加上	-834
引起	-835
科技	-836
民国	-837
四年	-838
導致	-839
格蘭	-840
500	-841
新聞	-842
畢業	-843
共和國	-844
▁曾	-845
▁2009	-846
」、「	-847
外交	-848
▁是	-849
相當	-850
▁2	-851
土地	-852
攻擊	-853
行動	-854
台北	-855
南極	-856
里斯	-857
▁王	-858
取代	-859
單位	-860
設有	-861
立法	-862
属的	-863
▁因此	-864
av	-865
家族	-866
分布于	-867
国民	-868
年度	-869
太平洋	-870
对于	-871
棲息	-872
至今	-873
科的	-874
列表	-875
55	-876
每年	-877
的小	-878
羅馬	-879
▁formula	-880
▁,	-881
联赛	-882
語言	-883
元年	-884
河南	-885
父親	-886
名为	-887
透過	-888
47	-889
ba	-890
播出	-891
於是	-892
距離	-893
第二次	-894
十分	-895
型的	-896
居住	-897
公分	-898
第五	-899
流域	-900
資料	-901
表演	-902
澳門	-903
月台	-904
重要的	-905
og	-906
作家	-907
ce	-908
组成	-909
西北	-910
列車	-911
之外	-912
sa	-913
佛教	-914
地下	-915
並在	-916
▁南	-917
军事	-918
目的	-919
罗马	-920
必須	-921
湖南	-922
拥有	-923
武器	-924
人員	-925
該國	-926
ter	-927
原本	-928
▁2007	-929
動畫	-930
68	-931
玩家	-932
2004	-933
ie	-934
95	-935
导致	-936
組成	-937
出任	-938
顯示	-939
內容	-940
五年	-941
反应	-942
动物	-943
明朝	-944
可以指	-945
戰鬥	-946
道路	-947
公園	-948
教堂	-949
机构	-950
多次	-951
分析	-952
回到	-953
是指	-954
西南	-955
處理	-956
遭到	-957
广东	-958
分子	-959
oc	-960
部隊	-961
帝國	-962
,19	-963
面的	-964
机场	-965
在此	-966
出了	-967
98	-968
有關	-969
,2009	-970
苏联	-971
可達	-972
左右	-973
建造	-974
▁2015	-975
▁1	-976
ak	-977
教區	-978
▁2006	-979
2019	-980
一年	-981
▁8	-982
唱片	-983
經過	-984
韓國	-985
共产党	-986
為主	-987
▁但是	-988
西亚	-989
的第一	-990
球队	-991
管轄	-992
熱帶	-993
还有	-994
信息	-995
2015	-996
太阳	-997
兄弟	-998
發表	-999
身份	-1000
巴西	-1001
加坡	-1002
紀錄	-1003
ers	-1004
又名	-1005
市場	-1006
帝国	-1007
过程	-1008
负责	-1009
分為	-1010
成员	-1011
的一部分	-1012
下的一个种	-1013
第十	-1014
元素	-1015
她的	-1016
、“	-1017
曾經	-1018
演員	-1019
▁中	-1020
3,	-1021
▁5	-1022
保持	-1023
sp	-1024
主角	-1025
山东	-1026
虽然	-1027
概念	-1028
部的	-1029
好的	-1030
朝鲜	-1031
用的	-1032
當地	-1033
67	-1034
hk	-1035
经过	-1036
公元	-1037
人類	-1038
範圍	-1039
改為	-1040
ov	-1041
计算	-1042
思想	-1043
舉辦	-1044
單曲	-1045
ay	-1046
部长	-1047
99	-1048
来自	-1049
▁高	-1050
都有	-1051
團體	-1052
▁<	-1053
所在	-1054
將軍	-1055
普通	-1056
小說	-1057
精神	-1058
现在	-1059
44	-1060
的首	-1061
关于	-1062
任命	-1063
二年	-1064
和平	-1065
群島	-1066
警察	-1067
化的	-1068
計畫	-1069
米的	-1070
西亞	-1071
力量	-1072
一步	-1073
交易	-1074
▁该市镇总面积	-1075
一名	-1076
區域	-1077
現代	-1078
限制	-1079
▁三	-1080
ind	-1081
bo	-1082
▁7	-1083
,「	-1084
部队	-1085
俄罗斯	-1086
军队	-1087
十年	-1088
▁雖然	-1089
議員	-1090
数据	-1091
我们	-1092
现代	-1093
俄羅斯	-1094
公開	-1095
紀念	-1096
非洲	-1097
▁以	-1098
只是	-1099
標準	-1100
排名	-1101
中学	-1102
这种	-1103
ii	-1104
調查	-1105
▁e	-1106
标准	-1107
的前	-1108
▁当	-1109
▁6	-1110
基地	-1111
参与	-1112
內的	-1113
環境	-1114
ard	-1115
不過	-1116
学习	-1117
来的	-1118
生长	-1119
著名的	-1120
董事	-1121
尚未	-1122
人在	-1123
力的	-1124
因而	-1125
及其	-1126
▁!	-1127
電子	-1128
46	-1129
300	-1130
或是	-1131
结束	-1132
接近	-1133
決賽	-1134
我們	-1135
▁根据	-1136
▁根據	-1137
並不	-1138
氧化	-1139
ge	-1140
王朝	-1141
星期	-1142
▁卡	-1143
保護	-1144
ou	-1145
tw	-1146
還有	-1147
是以	-1148
冠军	-1149
海拔高度	-1150
2003	-1151
反對	-1152
中學	-1153
能夠	-1154
制作	-1155
▁re	-1156
行為	-1157
男子	-1158
威廉	-1159
人员	-1160
全國	-1161
殖民	-1162
科學	-1163
程度	-1164
分布於	-1165
反对	-1166
ph	-1167
程序	-1168
伊斯	-1169
軍事	-1170
新加坡	-1171
議會	-1172
▁「	-1173
大会	-1174
選擇	-1175
製造	-1176
表現	-1177
▁北	-1178
85	-1179
专业	-1180
色的	-1181
初期	-1182
97	-1183
不久	-1184
号线	-1185
的高	-1186
理论	-1187
太陽	-1188
斯科	-1189
拍攝	-1190
鰭魚	-1191
媒體	-1192
球員	-1193
巴黎	-1194
知道	-1195
臺北	-1196
過程	-1197
▁2016	-1198
不可	-1199
▁“	-1200
▁至	-1201
隨著	-1202
是否	-1203
流行	-1204
大型	-1205
超过	-1206
阿尔	-1207
西省	-1208
="	-1209
十六	-1210
▁10	-1211
這種	-1212
不明	-1213
但在	-1214
輻鰭魚	-1215
同意	-1216
ab	-1217
小時	-1218
工業	-1219
離開	-1220
輻鰭魚綱	-1221
並於	-1222
继续	-1223
基金	-1224
用於	-1225
創作	-1226
传统	-1227
的海	-1228
體長	-1229
一位	-1230
擊敗	-1231
其中男性	-1232
拉克	-1233
建于	-1234
父亲	-1235
使用的	-1236
方案	-1237
二世	-1238
支援	-1239
hans	-1240
影片	-1241
人工	-1242
投入	-1243
中部	-1244
境内	-1245
量的	-1246
世界大	-1247
執行	-1248
西藏	-1249
te	-1250
則是	-1251
如下	-1252
▁小	-1253
後的	-1254
類似	-1255
葡萄牙	-1256
它的	-1257
sh	-1258
日起	-1259
联邦	-1260
▁马	-1261
實際	-1262
也被	-1263
方的	-1264
qu	-1265
集中	-1266
首都	-1267
公主	-1268
49	-1269
▁圣	-1270
有效	-1271
漫畫	-1272
58	-1273
▁天	-1274
分为	-1275
位於該國	-1276
自治区	-1277
名稱	-1278
企业	-1279
興建	-1280
all	-1281
基础	-1282
協會	-1283
理論	-1284
引擎	-1285
程式	-1286
▁2005	-1287
市的	-1288
指挥	-1289
▁从	-1290
核心	-1291
区域	-1292
成了	-1293
播放	-1294
76	-1295
东北	-1296
只能	-1297
ne	-1298
达到	-1299
云南	-1300
时代	-1301
电子	-1302
少年	-1303
毫米	-1304
斯的	-1305
機構	-1306
项目	-1307
不再	-1308
se	-1309
特别	-1310
解放军	-1311
,199	-1312
州的	-1313
公园	-1314
妻子	-1315
art	-1316
地位	-1317
樂團	-1318
ub	-1319
江苏	-1320
尤其	-1321
的意	-1322
星等	-1323
文件	-1324
一樣	-1325
78	-1326
保留	-1327
台湾	-1328
▁於	-1329
德里	-1330
网络	-1331
2016	-1332
ill	-1333
是一颗	-1334
一世	-1335
举行	-1336
不會	-1337
海域	-1338
▁前	-1339
協助	-1340
中山	-1341
日至	-1342
事務	-1343
42	-1344
na	-1345
河北	-1346
體長可達	-1347
随后	-1348
曾在	-1349
等等	-1350
韩国	-1351
各地	-1352
时候	-1353
銀行	-1354
▁and	-1355
年間	-1356
▁金	-1357
返回	-1358
材料	-1359
",	-1360
朝鮮	-1361
亦有	-1362
实际	-1363
皇家	-1364
;}	-1365
直至	-1366
2002	-1367
发布	-1368
大臣	-1369
纪念	-1370
簡稱	-1371
平台	-1372
收入	-1373
快速	-1374
96	-1375
改为	-1376
是一種	-1377
▁巴	-1378
電腦	-1379
ine	-1380
商業	-1381
結構	-1382
當中	-1383
国王	-1384
體育	-1385
如此	-1386
操作	-1387
▁ch	-1388
重建	-1389
年被	-1390
发行	-1391
年以	-1392
▁安	-1393
公民	-1394
軍隊	-1395
訓練	-1396
提高	-1397
未能	-1398
设立	-1399
ik	-1400
企業	-1401
十八	-1402
海岸	-1403
56	-1404
第六	-1405
中国人民	-1406
if	-1407
up	-1408
公布	-1409
为主	-1410
區的	-1411
▁12	-1412
飛機	-1413
环境	-1414
逐漸	-1415
澳洲	-1416
的研究	-1417
交流	-1418
und	-1419
各種	-1420
經營	-1421
▁例如	-1422
▁de	-1423
羽毛	-1424
▁如果	-1425
ss	-1426
停止	-1427
失去	-1428
▁布	-1429
发表	-1430
▁9	-1431
設立	-1432
并在	-1433
項目	-1434
文字	-1435
广州	-1436
處於	-1437
文物保护	-1438
联盟	-1439
正在	-1440
某些	-1441
▁2017	-1442
高的	-1443
科的其中	-1444
ok	-1445
時候	-1446
三個	-1447
基督教	-1448
节目	-1449
无法	-1450
地利	-1451
的女	-1452
以外	-1453
湖北	-1454
再度	-1455
ell	-1456
▁2018	-1457
逝世	-1458
实验	-1459
高等	-1460
▁17	-1461
▁不過	-1462
產品	-1463
前的	-1464
澳大利	-1465
統治	-1466
生命	-1467
约翰	-1468
命令	-1469
注意	-1470
古代	-1471
生涯	-1472
股份	-1473
俱乐	-1474
结果	-1475
赛季	-1476
▁光	-1477
夏季	-1478
九龍	-1479
de	-1480
▁香港	-1481
斯基	-1482
委会	-1483
德语	-1484
不得	-1485
隧道	-1486
的原	-1487
西方	-1488
嚴重	-1489
文物保护单位	-1490
银行	-1491
57	-1492
指揮	-1493
文學	-1494
朋友	-1495
伯特	-1496
ang	-1497
制造	-1498
轨道	-1499
普遍	-1500
投票	-1501
▁拉	-1502
▁全	-1503
字母	-1504
皇后	-1505
它们	-1506
新闻	-1507
蘇聯	-1508
效力	-1509
66	-1510
是日本	-1511
過去	-1512
職業	-1513
連續	-1514
批准	-1515
為輻鰭魚綱	-1516
▁。	-1517
看到	-1518
1990	-1519
合物	-1520
日的	-1521
希臘	-1522
得以	-1523
著作	-1524
容易	-1525
相关	-1526
研究所	-1527
内容	-1528
瑞典	-1529
乾隆	-1530
路易	-1531
▁2004	-1532
化学	-1533
條約	-1534
南北	-1535
当选	-1536
建成	-1537
相似	-1538
ice	-1539
情况	-1540
分鐘	-1541
协会	-1542
统治	-1543
海军	-1544
避免	-1545
一度	-1546
▁的	-1547
ma	-1548
牠們	-1549
有些	-1550
持續	-1551
文章	-1552
改變	-1553
职业	-1554
镇下辖以下地区	-1555
43	-1556
▁和	-1557
处理	-1558
比較	-1559
其它	-1560
目標	-1561
空间	-1562
人大	-1563
特殊	-1564
取消	-1565
生于	-1566
体育	-1567
细胞	-1568
随着	-1569
ber	-1570
1980	-1571
1999	-1572
的成	-1573
▁原	-1574
也在	-1575
阿拉伯	-1576
廣播	-1577
空間	-1578
86	-1579
范围	-1580
设有	-1581
的方式	-1582
选择	-1583
41	-1584
规模	-1585
▁因	-1586
經常	-1587
年间	-1588
可能是	-1589
英語	-1590
名字	-1591
ct	-1592
▁上	-1593
學習	-1594
本身	-1595
类似	-1596
▁除了	-1597
星等为	-1598
函数	-1599
之下	-1600
兩人	-1601
基礎	-1602
高雄	-1603
内的	-1604
母親	-1605
醫院	-1606
广播	-1607
的一座	-1608
倫敦	-1609
移民	-1610
的地方	-1611
之中	-1612
之間的	-1613
属下的一个种	-1614
下午	-1615
山脈	-1616
任務	-1617
一定	-1618
俱乐部	-1619
埃及	-1620
超級	-1621
士兵	-1622
而是	-1623
匈牙	-1624
乘客	-1625
77	-1626
社区	-1627
▁後來	-1628
媒体	-1629
西洋	-1630
这样	-1631
匈牙利	-1632
宣佈	-1633
是一种	-1634
将军	-1635
球會	-1636
文学	-1637
學者	-1638
▁zh	-1639
▁他在	-1640
祖父	-1641
市场	-1642
ver	-1643
英格蘭	-1644
先生	-1645
2017	-1646
知名	-1647
当地	-1648
林匹	-1649
多年	-1650
蛋白	-1651
产品	-1652
機會	-1653
人民政府	-1654
國王	-1655
商业	-1656
酒店	-1657
ht	-1658
小的	-1659
国务	-1660
旅客	-1661
陸軍	-1662
▁中国	-1663
不足	-1664
淡水	-1665
的三	-1666
十字	-1667
隨後	-1668
实现	-1669
都會	-1670
400	-1671
,	-1672
▁	-1673
的	-1674
。	-1675
1	-1676
0	-1677
年	-1678
、	-1679
2	-1680
一	-1681
在	-1682
是	-1683
中	-1684
9	-1685
人	-1686
a	-1687
有	-1688
大	-1689
e	-1690
3	-1691
和	-1692
5	-1693
為	-1694
以	-1695
i	-1696
8	-1697
o	-1698
r	-1699
4	-1700
n	-1701
月	-1702
日	-1703
6	-1704
了	-1705
国	-1706
7	-1707
s	-1708
t	-1709
为	-1710
地	-1711
成	-1712
國	-1713
不	-1714
於	-1715
上	-1716
l	-1717
公	-1718
行	-1719
出	-1720
他	-1721
之	-1722
部	-1723
斯	-1724
其	-1725
c	-1726
名	-1727
主	-1728
生	-1729
分	-1730
作	-1731
下	-1732
:	-1733
m	-1734
于	-1735
用	-1736
方	-1737
到	-1738
而	-1739
及	-1740
第	-1741
西	-1742
》	-1743
《	-1744
家	-1745
時	-1746
後	-1747
d	-1748
h	-1749
法	-1750
由	-1751
位	-1752
被	-1753
市	-1754
民	-1755
本	-1756
学	-1757
个	-1758
同	-1759
會	-1760
多	-1761
可	-1762
南	-1763
u	-1764
政	-1765
子	-1766
·	-1767
自	-1768
里	-1769
」	-1770
「	-1771
文	-1772
任	-1773
特	-1774
最	-1775
等	-1776
與	-1777
新	-1778
德	-1779
北	-1780
代	-1781
也	-1782
加	-1783
高	-1784
所	-1785
前	-1786
海	-1787
學	-1788
后	-1789
因	-1790
利	-1791
個	-1792
此	-1793
三	-1794
p	-1795
“	-1796
要	-1797
物	-1798
得	-1799
平	-1800
道	-1801
克	-1802
建	-1803
面	-1804
美	-1805
教	-1806
小	-1807
度	-1808
山	-1809
时	-1810
立	-1811
b	-1812
至	-1813
g	-1814
能	-1815
事	-1816
入	-1817
尔	-1818
路	-1819
理	-1820
世	-1821
發	-1822
区	-1823
拉	-1824
会	-1825
二	-1826
外	-1827
天	-1828
但	-1829
合	-1830
定	-1831
化	-1832
工	-1833
口	-1834
表	-1835
期	-1836
使	-1837
球	-1838
全	-1839
台	-1840
性	-1841
次	-1842
十	-1843
科	-1844
;	-1845
通	-1846
州	-1847
f	-1848
者	-1849
式	-1850
都	-1851
重	-1852
共	-1853
力	-1854
"	-1855
來	-1856
軍	-1857
區	-1858
並	-1859
发	-1860
安	-1861
士	-1862
原	-1863
布	-1864
相	-1865
王	-1866
比	-1867
城	-1868
院	-1869
省	-1870
長	-1871
军	-1872
站	-1873
對	-1874
这	-1875
明	-1876
動	-1877
目	-1878
基	-1879
水	-1880
這	-1881
系	-1882
金	-1883
司	-1884
正	-1885
英	-1886
星	-1887
開	-1888
如	-1889
长	-1890
府	-1891
或	-1892
与	-1893
治	-1894
k	-1895
制	-1896
格	-1897
元	-1898
港	-1899
現	-1900
四	-1901
起	-1902
爾	-1903
電	-1904
常	-1905
巴	-1906
对	-1907
經	-1908
尼	-1909
米	-1910
y	-1911
量	-1912
列	-1913
提	-1914
員	-1915
影	-1916
當	-1917
首	-1918
改	-1919
女	-1920
来	-1921
阿	-1922
然	-1923
間	-1924
镇	-1925
就	-1926
戰	-1927
過	-1928
進	-1929
并	-1930
亞	-1931
v	-1932
心	-1933
接	-1934
東	-1935
林	-1936
體	-1937
东	-1938
向	-1939
演	-1940
开	-1941
意	-1942
界	-1943
機	-1944
將	-1945
始	-1946
賽	-1947
w	-1948
內	-1949
車	-1950
河	-1951
动	-1952
程	-1953
受	-1954
色	-1955
場	-1956
型	-1957
包	-1958
总	-1959
指	-1960
曾	-1961
形	-1962
交	-1963
保	-1964
手	-1965
香	-1966
已	-1967
些	-1968
委	-1969
机	-1970
流	-1971
亚	-1972
内	-1973
直	-1974
音	-1975
员	-1976
稱	-1977
管	-1978
太	-1979
经	-1980
隊	-1981
种	-1982
集	-1983
史	-1984
过	-1985
馬	-1986
空	-1987
卡	-1988
業	-1989
身	-1990
校	-1991
进	-1992
種	-1993
现	-1994
更	-1995
县	-1996
五	-1997
字	-1998
品	-1999
線	-2000
江	-2001
车	-2002
兩	-2003
古	-2004
朝	-2005
电	-2006
展	-2007
示	-2008
設	-2009
灣	-2010
社	-2011
各	-2012
洲	-2013
间	-2014
數	-2015
著	-2016
反	-2017
持	-2018
马	-2019
业	-2020
该	-2021
命	-2022
体	-2023
回	-2024
官	-2025
京	-2026
光	-2027
属	-2028
将	-2029
活	-2030
取	-2031
造	-2032
战	-2033
達	-2034
少	-2035
只	-2036
族	-2037
清	-2038
又	-2039
信	-2040
約	-2041
神	-2042
選	-2043
石	-2044
数	-2045
夫	-2046
支	-2047
当	-2048
称	-2049
解	-2050
非	-2051
近	-2052
聯	-2053
情	-2054
它	-2055
设	-2056
局	-2057
普	-2058
號	-2059
罗	-2060
則	-2061
總	-2062
件	-2063
運	-2064
曲	-2065
/	-2066
放	-2067
統	-2068
研	-2069
即	-2070
關	-2071
角	-2072
該	-2073
羅	-2074
華	-2075
商	-2076
波	-2077
武	-2078
無	-2079
版	-2080
們	-2081
队	-2082
先	-2083
片	-2084
計	-2085
联	-2086
括	-2087
收	-2088
村	-2089
两	-2090
白	-2091
器	-2092
去	-2093
樂	-2094
李	-2095
果	-2096
未	-2097
她	-2098
语	-2099
伊	-2100
組	-2101
产	-2102
再	-2103
根	-2104
每	-2105
屬	-2106
场	-2107
知	-2108
运	-2109
往	-2110
初	-2111
蘭	-2112
亦	-2113
密	-2114
线	-2115
座	-2116
視	-2117
引	-2118
且	-2119
达	-2120
語	-2121
华	-2122
今	-2123
派	-2124
兵	-2125
足	-2126
统	-2127
福	-2128
從	-2129
级	-2130
議	-2131
完	-2132
縣	-2133
究	-2134
从	-2135
z	-2136
六	-2137
帝	-2138
歌	-2139
域	-2140
花	-2141
组	-2142
们	-2143
除	-2144
務	-2145
打	-2146
很	-2147
宗	-2148
赛	-2149
實	-2150
島	-2151
居	-2152
关	-2153
產	-2154
言	-2155
說	-2156
令	-2157
義	-2158
广	-2159
服	-2160
門	-2161
團	-2162
結	-2163
段	-2164
威	-2165
号	-2166
兰	-2167
類	-2168
育	-2169
季	-2170
功	-2171
x	-2172
塔	-2173
另	-2174
播	-2175
八	-2176
书	-2177
客	-2178
土	-2179
存	-2180
速	-2181
參	-2182
死	-2183
傳	-2184
置	-2185
修	-2186
计	-2187
%	-2188
率	-2189
推	-2190
超	-2191
好	-2192
约	-2193
周	-2194
認	-2195
单	-2196
希	-2197
宣	-2198
实	-2199
處	-2200
源	-2201
具	-2202
我	-2203
九	-2204
投	-2205
供	-2206
書	-2207
班	-2208
雷	-2209
例	-2210
街	-2211
求	-2212
变	-2213
攻	-2214
皇	-2215
龍	-2216
湖	-2217
维	-2218
獲	-2219
單	-2220
吉	-2221
查	-2222
航	-2223
印	-2224
积	-2225
火	-2226
故	-2227
乡	-2228
田	-2229
己	-2230
案	-2231
沙	-2232
青	-2233
廣	-2234
哈	-2235
那	-2236
务	-2237
勒	-2238
图	-2239
伯	-2240
應	-2241
助	-2242
男	-2243
早	-2244
增	-2245
博	-2246
还	-2247
張	-2248
j	-2249
洛	-2250
別	-2251
資	-2252
份	-2253
舉	-2254
整	-2255
母	-2256
辖	-2257
义	-2258
瓦	-2259
半	-2260
擊	-2261
百	-2262
模	-2263
容	-2264
党	-2265
群	-2266
臺	-2267
技	-2268
铁	-2269
说	-2270
維	-2271
帶	-2272
万	-2273
越	-2274
變	-2275
父	-2276
致	-2277
议	-2278
均	-2279
失	-2280
萬	-2281
點	-2282
導	-2283
師	-2284
易	-2285
参	-2286
專	-2287
黨	-2288
副	-2289
川	-2290
食	-2291
領	-2292
七	-2293
境	-2294
黑	-2295
门	-2296
堂	-2297
紀	-2298
需	-2299
传	-2300
处	-2301
结	-2302
級	-2303
射	-2304
选	-2305
告	-2306
登	-2307
連	-2308
深	-2309
沒	-2310
类	-2311
劇	-2312
应	-2313
塞	-2314
才	-2315
限	-2316
领	-2317
頭	-2318
權	-2319
仍	-2320
木	-2321
游	-2322
升	-2323
條	-2324
无	-2325
苏	-2326
室	-2327
何	-2328
便	-2329
節	-2330
排	-2331
步	-2332
老	-2333
牙	-2334
导	-2335
風	-2336
奥	-2337
象	-2338
团	-2339
魚	-2340
央	-2341
点	-2342
真	-2343
落	-2344
製	-2345
氏	-2346
施	-2347
盟	-2348
像	-2349
考	-2350
際	-2351
乐	-2352
想	-2353
論	-2354
報	-2355
鐵	-2356
甲	-2357
決	-2358
轉	-2359
畫	-2360
氣	-2361
席	-2362
感	-2363
配	-2364
把	-2365
据	-2366
防	-2367
標	-2368
低	-2369
病	-2370
纳	-2371
哥	-2372
洋	-2373
還	-2374
—	-2375
托	-2376
底	-2377
阳	-2378
律	-2379
留	-2380
森	-2381
效	-2382
住	-2383
认	-2384
離	-2385
蒙	-2386
素	-2387
历	-2388
料	-2389
佛	-2390
_	-2391
师	-2392
获	-2393
術	-2394
埃	-2395
止	-2396
冠	-2397
泰	-2398
千	-2399
志	-2400
视	-2401
记	-2402
奇	-2403
息	-2404
據	-2405
奧	-2406
术	-2407
較	-2408
強	-2409
景	-2410
康	-2411
纪	-2412
看	-2413
降	-2414
姆	-2415
曼	-2416
革	-2417
恩	-2418
算	-2419
圖	-2420
典	-2421
迪	-2422
觀	-2423
报	-2424
承	-2425
藏	-2426
移	-2427
職	-2428
愛	-2429
創	-2430
消	-2431
批	-2432
警	-2433
唱	-2434
續	-2435
思	-2436
张	-2437
控	-2438
念	-2439
着	-2440
察	-2441
見	-2442
则	-2443
親	-2444
許	-2445
汉	-2446
做	-2447
带	-2448
遊	-2449
記	-2450
精	-2451
質	-2452
授	-2453
草	-2454
守	-2455
索	-2456
友	-2457
专	-2458
納	-2459
陸	-2460
獎	-2461
论	-2462
票	-2463
俄	-2464
裝	-2465
标	-2466
岛	-2467
極	-2468
題	-2469
瑞	-2470
风	-2471
督	-2472
般	-2473
依	-2474
别	-2475
述	-2476
没	-2477
望	-2478
照	-2479
转	-2480
附	-2481
际	-2482
圣	-2483
权	-2484
祖	-2485
歷	-2486
毛	-2487
調	-2488
抗	-2489
植	-2490
退	-2491
值	-2492
爭	-2493
澳	-2494
章	-2495
陆	-2496
夏	-2497
条	-2498
錄	-2499
富	-2500
封	-2501
候	-2502
歐	-2503
职	-2504
園	-2505
唐	-2506
房	-2507
辦	-2508
永	-2509
編	-2510
終	-2511
办	-2512
复	-2513
網	-2514
停	-2515
丹	-2516
决	-2517
资	-2518
牌	-2519
營	-2520
丁	-2521
构	-2522
隨	-2523
給	-2524
左	-2525
蘇	-2526
破	-2527
节	-2528
含	-2529
積	-2530
快	-2531
拿	-2532
戲	-2533
陳	-2534
莱	-2535
气	-2536
聖	-2537
問	-2538
寺	-2539
似	-2540
必	-2541
萨	-2542
黃	-2543
突	-2544
隆	-2545
邦	-2546
坦	-2547
堡	-2548
協	-2549
飛	-2550
旅	-2551
船	-2552
击	-2553
樣	-2554
尚	-2555
头	-2556
核	-2557
岸	-2558
离	-2559
龙	-2560
调	-2561
興	-2562
争	-2563
眾	-2564
皮	-2565
擔	-2566
項	-2567
梅	-2568
济	-2569
漢	-2570
久	-2571
架	-2572
店	-2573
划	-2574
注	-2575
准	-2576
蒂	-2577
朗	-2578
莫	-2579
强	-2580
延	-2581
举	-2582
油	-2583
兒	-2584
備	-2585
创	-2586
占	-2587
右	-2588
規	-2589
野	-2590
质	-2591
郡	-2592
藝	-2593
剧	-2594
環	-2595
層	-2596
连	-2597
黄	-2598
走	-2599
规	-2600
亡	-2601
衛	-2602
弟	-2603
構	-2604
春	-2605
给	-2606
售	-2607
编	-2608
股	-2609
随	-2610
护	-2611
网	-2612
短	-2613
繼	-2614
負	-2615
}	-2616
熱	-2617
{	-2618
雄	-2619
鲁	-2620
讓	-2621
嘉	-2622
切	-2623
判	-2624
館	-2625
佳	-2626
倫	-2627
試	-2628
装	-2629
策	-2630
协	-2631
筑	-2632
役	-2633
遭	-2634
许	-2635
艾	-2636
邊	-2637
问	-2638
圍	-2639
逐	-2640
样	-2641
乘	-2642
题	-2643
宁	-2644
端	-2645
劃	-2646
旗	-2647
序	-2648
松	-2649
費	-2650
獨	-2651
寫	-2652
距	-2653
弗	-2654
護	-2655
聲	-2656
責	-2657
拔	-2658
雙	-2659
陽	-2660
鎮	-2661
欧	-2662
摩	-2663
宋	-2664
紅	-2665
若	-2666
酒	-2667
敗	-2668
亲	-2669
殺	-2670
響	-2671
送	-2672
园	-2673
伦	-2674
菲	-2675
輯	-2676
观	-2677
束	-2678
诺	-2679
担	-2680
銀	-2681
末	-2682
卫	-2683
證	-2684
甚	-2685
評	-2686
雅	-2687
干	-2688
赫	-2689
红	-2690
营	-2691
微	-2692
尾	-2693
晚	-2694
署	-2695
终	-2696
良	-2697
耶	-2698
勝	-2699
馆	-2700
!	-2701
略	-2702
準	-2703
兴	-2704
樓	-2705
胡	-2706
秀	-2707
项	-2708
津	-2709
醫	-2710
差	-2711
彈	-2712
戏	-2713
范	-2714
边	-2715
裡	-2716
頓	-2717
薩	-2718
兼	-2719
狀	-2720
免	-2721
帕	-2722
见	-2723
婚	-2724
血	-2725
庭	-2726
善	-2727
濟	-2728
籍	-2729
较	-2730
雖	-2731
假	-2732
卻	-2733
臣	-2734
散	-2735
款	-2736
采	-2737
桥	-2738
復	-2739
峰	-2740
续	-2741
备	-2742
库	-2743
話	-2744
顯	-2745
暴	-2746
歲	-2747
什	-2748
予	-2749
諾	-2750
測	-2751
贝	-2752
艦	-2753
织	-2754
奖	-2755
詞	-2756
拍	-2757
写	-2758
围	-2759
喜	-2760
征	-2761
杜	-2762
儿	-2763
农	-2764
朱	-2765
环	-2766
仁	-2767
背	-2768
盛	-2769
追	-2770
热	-2771
云	-2772
酸	-2773
載	-2774
採	-2775
证	-2776
害	-2777
廷	-2778
双	-2779
烈	-2780
企	-2781
爆	-2782
玉	-2783
互	-2784
織	-2785
沿	-2786
板	-2787
劉	-2788
習	-2789
魯	-2790
幾	-2791
牛	-2792
几	-2793
独	-2794
继	-2795
谷	-2796
援	-2797
层	-2798
鄉	-2799
屆	-2800
態	-2801
遠	-2802
介	-2803
爱	-2804
医	-2805
罪	-2806
黎	-2807
君	-2808
僅	-2809
媒	-2810
昌	-2811
救	-2812
舞	-2813
众	-2814
屋	-2815
勢	-2816
請	-2817
余	-2818
试	-2819
價	-2820
預	-2821
滿	-2822
陈	-2823
執	-2824
荷	-2825
画	-2826
溫	-2827
韓	-2828
评	-2829
透	-2830
材	-2831
刘	-2832
沃	-2833
艺	-2834
槍	-2835
录	-2836
宮	-2837
响	-2838
確	-2839
係	-2840
坡	-2841
巨	-2842
秘	-2843
智	-2844
楼	-2845
簡	-2846
飞	-2847
>	-2848
叶	-2849
届	-2850
按	-2851
溪	-2852
址	-2853
益	-2854
徒	-2855
仅	-2856
声	-2857
某	-2858
途	-2859
冰	-2860
佈	-2861
敦	-2862
费	-2863
培	-2864
戶	-2865
梁	-2866
映	-2867
极	-2868
撤	-2869
禁	-2870
<	-2871
拜	-2872
替	-2873
貝	-2874
禮	-2875
轄	-2876
童	-2877
殿	-2878
混	-2879
尺	-2880
探	-2881
翰	-2882
温	-2883
萊	-2884
夜	-2885
聞	-2886
郎	-2887
描	-2888
難	-2889
讀	-2890
築	-2891
壓	-2892
骨	-2893
吸	-2894
刻	-2895
跟	-2896
岁	-2897
眼	-2898
符	-2899
赤	-2900
话	-2901
杀	-2902
刺	-2903
刊	-2904
顿	-2905
擁	-2906
寶	-2907
玩	-2908
固	-2909
毒	-2910
爵	-2911
皆	-2912
乌	-2913
私	-2914
耳	-2915
斷	-2916
遇	-2917
橋	-2918
否	-2919
唯	-2920
确	-2921
q	-2922
岩	-2923
葉	-2924
雲	-2925
逃	-2926
訊	-2927
農	-2928
找	-2929
麗	-2930
充	-2931
休	-2932
穆	-2933
宇	-2934
奉	-2935
返	-2936
傷	-2937
洪	-2938
幕	-2939
細	-2940
雪	-2941
'	-2942
激	-2943
佔	-2944
異	-2945
状	-2946
缺	-2947
你	-2948
監	-2949
霍	-2950
乎	-2951
巡	-2952
操	-2953
況	-2954
旋	-2955
庆	-2956
犯	-2957
词	-2958
庄	-2959
远	-2960
召	-2961
验	-2962
範	-2963
聚	-2964
刑	-2965
練	-2966
優	-2967
户	-2968
满	-2969
午	-2970
識	-2971
須	-2972
穿	-2973
魔	-2974
迫	-2975
漫	-2976
鰭	-2977
廠	-2978
輕	-2979
雨	-2980
斗	-2981
姓	-2982
露	-2983
坐	-2984
靈	-2985
絕	-2986
陵	-2987
翻	-2988
輪	-2989
佩	-2990
餘	-2991
麥	-2992
捕	-2993
测	-2994
尤	-2995
显	-2996
羽	-2997
忠	-2998
让	-2999
舊	-3000
換	-3001
驗	-3002
兄	-3003
=	-3004
嚴	-3005
责	-3006
鬥	-3007
待	-3008
陣	-3009
态	-3010
潮	-3011
载	-3012
抵	-3013
妻	-3014
申	-3015
侵	-3016
呼	-3017
靠	-3018
柏	-3019
秋	-3020
徐	-3021
胞	-3022
湾	-3023
银	-3024
庫	-3025
竹	-3026
价	-3027
遗	-3028
炸	-3029
攝	-3030
肯	-3031
汽	-3032
压	-3033
宫	-3034
负	-3035
篇	-3036
惠	-3037
卷	-3038
側	-3039
茨	-3040
码	-3041
泉	-3042
临	-3043
娜	-3044
泛	-3045
甘	-3046
颗	-3047
绝	-3048
飾	-3049
浙	-3050
孔	-3051
|	-3052
翼	-3053
避	-3054
细	-3055
戈	-3056
炮	-3057
识	-3058
融	-3059
简	-3060
泽	-3061
董	-3062
习	-3063
歸	-3064
韩	-3065
危	-3066
桑	-3067
肉	-3068
烏	-3069
吳	-3070
宝	-3071
胜	-3072
購	-3073
殖	-3074
败	-3075
戴	-3076
芬	-3077
急	-3078
辛	-3079
億	-3080
概	-3081
呈	-3082
疑	-3083
厂	-3084
默	-3085
畢	-3086
順	-3087
健	-3088
努	-3089
况	-3090
孫	-3091
丽	-3092
奪	-3093
套	-3094
孩	-3095
榮	-3096
慶	-3097
奏	-3098
秦	-3099
断	-3100
譯	-3101
叫	-3102
氧	-3103
啟	-3104
碼	-3105
階	-3106
杨	-3107
週	-3108
乾	-3109
卢	-3110
減	-3111
染	-3112
臨	-3113
雜	-3114
阻	-3115
虎	-3116
佐	-3117
渡	-3118
毕	-3119
漸	-3120
魏	-3121
墨	-3122
珠	-3123
归	-3124
隔	-3125
衣	-3126
銷	-3127
井	-3128
难	-3129
葡	-3130
裁	-3131
樹	-3132
函	-3133
贵	-3134
孙	-3135
宜	-3136
杰	-3137
輸	-3138
驻	-3139
迎	-3140
请	-3141
冷	-3142
仙	-3143
震	-3144
析	-3145
味	-3146
换	-3147
棲	-3148
迷	-3149
圈	-3150
付	-3151
墓	-3152
弹	-3153
涉	-3154
御	-3155
亮	-3156
]	-3157
哲	-3158
楊	-3159
严	-3160
傑	-3161
綱	-3162
池	-3163
舍	-3164
廉	-3165
[	-3166
执	-3167
詩	-3168
麻	-3169
俗	-3170
侧	-3171
險	-3172
徵	-3173
偏	-3174
暗	-3175
町	-3176
豐	-3177
洞	-3178
监	-3179
恐	-3180
招	-3181
訓	-3182
拥	-3183
势	-3184
榜	-3185
侯	-3186
厅	-3187
尊	-3188
瑪	-3189
硬	-3190
享	-3191
賓	-3192
闻	-3193
俱	-3194
液	-3195
症	-3196
租	-3197
繁	-3198
辑	-3199
彩	-3200
毫	-3201
树	-3202
廳	-3203
圓	-3204
莉	-3205
轮	-3206
倒	-3207
豪	-3208
楚	-3209
釋	-3210
寧	-3211
藍	-3212
琴	-3213
藥	-3214
预	-3215
妹	-3216
掌	-3217
盃	-3218
麦	-3219
昂	-3220
鐘	-3221
財	-3222
夠	-3223
逝	-3224
扎	-3225
借	-3226
礼	-3227
齐	-3228
崇	-3229
鲜	-3230
销	-3231
吴	-3232
曹	-3233
紐	-3234
捷	-3235
舰	-3236
補	-3237
+	-3238
徽	-3239
遷	-3240
冬	-3241
浦	-3242
诗	-3243
药	-3244
昭	-3245
養	-3246
腦	-3247
柱	-3248
淡	-3249
截	-3250
瑟	-3251
萄	-3252
旧	-3253
伍	-3254
匹	-3255
裂	-3256
適	-3257
軟	-3258
鱼	-3259
幼	-3260
頂	-3261
输	-3262
乃	-3263
读	-3264
奈	-3265
儀	-3266
盖	-3267
伐	-3268
乙	-3269
蓋	-3270
勞	-3271
迁	-3272
鼓	-3273
蛋	-3274
杂	-3275
频	-3276
估	-3277
零	-3278
玛	-3279
簽	-3280
遺	-3281
优	-3282
振	-3283
顺	-3284
討	-3285
拒	-3286
輛	-3287
劳	-3288
患	-3289
晋	-3290
頻	-3291
併	-3292
鮮	-3293
弱	-3294
顶	-3295
菜	-3296
陶	-3297
恢	-3298
邀	-3299
藤	-3300
陷	-3301
晉	-3302
敵	-3303
郭	-3304
韦	-3305
鄭	-3306
?	-3307
虽	-3308
灵	-3309
异	-3310
粉	-3311
轨	-3312
兹	-3313
困	-3314
却	-3315
亿	-3316
译	-3317
凱	-3318
货	-3319
貨	-3320
句	-3321
菌	-3322
貴	-3323
跨	-3324
覺	-3325
丰	-3326
浪	-3327
檢	-3328
尽	-3329
牧	-3330
輻	-3331
歡	-3332
滑	-3333
審	-3334
莎	-3335
偶	-3336
宿	-3337
旁	-3338
誌	-3339
熙	-3340
冲	-3341
障	-3342
汗	-3343
駐	-3344
糖	-3345
訪	-3346
競	-3347
錦	-3348
徑	-3349
塘	-3350
殊	-3351
蔡	-3352
衡	-3353
遍	-3354
紫	-3355
擴	-3356
阶	-3357
茶	-3358
柯	-3359
勇	-3360
伤	-3361
衝	-3362
亨	-3363
軌	-3364
鳥	-3365
扩	-3366
燃	-3367
丘	-3368
宅	-3369
磁	-3370
幫	-3371
祭	-3372
财	-3373
答	-3374
签	-3375
纽	-3376
課	-3377
亂	-3378
澤	-3379
奴	-3380
昆	-3381
赵	-3382
諸	-3383
挥	-3384
疆	-3385
灰	-3386
币	-3387
庙	-3388
沈	-3389
滅	-3390
搭	-3391
脈	-3392
盤	-3393
彼	-3394
络	-3395
講	-3396
棒	-3397
敏	-3398
揮	-3399
絲	-3400
促	-3401
养	-3402
幅	-3403
允	-3404
鏡	-3405
覆	-3406
杯	-3407
綠	-3408
珍	-3409
鄰	-3410
額	-3411
凯	-3412
幸	-3413
伴	-3414
谢	-3415
訴	-3416
赴	-3417
訂	-3418
荣	-3419
械	-3420
綫	-3421
療	-3422
恒	-3423
拆	-3424
讲	-3425
检	-3426
跑	-3427
审	-3428
仔	-3429
葬	-3430
茲	-3431
幻	-3432
績	-3433
祥	-3434
晶	-3435
慈	-3436
顧	-3437
厚	-3438
练	-3439
擇	-3440
诸	-3441
软	-3442
餐	-3443
獻	-3444
倍	-3445
裔	-3446
葛	-3447
幣	-3448
堅	-3449
敬	-3450
遂	-3451
减	-3452
廟	-3453
齊	-3454
剛	-3455
聽	-3456
宽	-3457
複	-3458
孟	-3459
轻	-3460
匈	-3461
孝	-3462
折	-3463
箭	-3464
熟	-3465
碑	-3466
释	-3467
惡	-3468
寬	-3469
苦	-3470
『	-3471
賣	-3472
柴	-3473
遣	-3474
钟	-3475
沉	-3476
燕	-3477
』	-3478
謝	-3479
埔	-3480
襲	-3481
桃	-3482
叛	-3483
緯	-3484
姐	-3485
乔	-3486
°	-3487
慢	-3488
尖	-3489
願	-3490
桂	-3491
騎	-3492
齒	-3493
绕	-3494
疾	-3495
阵	-3496
憲	-3497
粒	-3498
盧	-3499
脂	-3500
柳	-3501
侍	-3502
橫	-3503
牠	-3504
献	-3505
懷	-3506
启	-3507
誤	-3508
廢	-3509
喬	-3510
辽	-3511
迅	-3512
够	-3513
螺	-3514
挑	-3515
么	-3516
渐	-3517
蛇	-3518
凡	-3519
枚	-3520
棋	-3521
伏	-3522
摄	-3523
仰	-3524
買	-3525
刀	-3526
须	-3527
恆	-3528
敌	-3529
談	-3530
访	-3531
伸	-3532
圆	-3533
朋	-3534
瓜	-3535
吃	-3536
补	-3537
险	-3538
撒	-3539
额	-3540
尋	-3541
〉	-3542
〈	-3543
枪	-3544
彭	-3545
跳	-3546
慕	-3547
貢	-3548
腳	-3549
雕	-3550
壁	-3551
艘	-3552
賞	-3553
錢	-3554
損	-3555
妮	-3556
宪	-3557
涅	-3558
适	-3559
擎	-3560
緣	-3561
汇	-3562
劍	-3563
仪	-3564
宾	-3565
钱	-3566
緒	-3567
训	-3568
旺	-3569
臘	-3570
縮	-3571
頒	-3572
础	-3573
掉	-3574
潘	-3575
鬼	-3576
谋	-3577
棄	-3578
辆	-3579
贡	-3580
夺	-3581
购	-3582
帮	-3583
乱	-3584
芳	-3585
郑	-3586
韋	-3587
羊	-3588
艇	-3589
罕	-3590
駛	-3591
番	-3592
撞	-3593
勤	-3594
岡	-3595
趣	-3596
毀	-3597
芝	-3598
輔	-3599
鼠	-3600
涯	-3601
藉	-3602
隶	-3603
脫	-3604
乳	-3605
梯	-3606
泊	-3607
累	-3608
拓	-3609
夢	-3610
繪	-3611
莊	-3612
幹	-3613
琳	-3614
赞	-3615
熊	-3616
趙	-3617
泥	-3618
藩	-3619
痛	-3620
毁	-3621
炎	-3622
腹	-3623
屯	-3624
浮	-3625
锡	-3626
咸	-3627
針	-3628
鹿	-3629
废	-3630
豆	-3631
斑	-3632
隧	-3633
玄	-3634
绍	-3635
麼	-3636
杉	-3637
陰	-3638
壞	-3639
怀	-3640
賴	-3641
詹	-3642
隸	-3643
怪	-3644
緊	-3645
块	-3646
腊	-3647
～	-3648
袁	-3649
觉	-3650
喀	-3651
爲	-3652
仲	-3653
秒	-3654
灭	-3655
卓	-3656
陕	-3657
径	-3658
隻	-3659
袭	-3660
屏	-3661
杭	-3662
顆	-3663
坑	-3664
择	-3665
慧	-3666
玻	-3667
謀	-3668
滨	-3669
錯	-3670
乏	-3671
筆	-3672
贏	-3673
溶	-3674
蟲	-3675
厄	-3676
旦	-3677
插	-3678
晨	-3679
塑	-3680
畔	-3681
缩	-3682
盡	-3683
墙	-3684
矿	-3685
靖	-3686
宙	-3687
崎	-3688
暫	-3689
轴	-3690
绿	-3691
衰	-3692
寄	-3693
戒	-3694
蔣	-3695
损	-3696
妃	-3697
坚	-3698
紹	-3699
剂	-3700
搜	-3701
洗	-3702
é	-3703
笑	-3704
坎	-3705
貿	-3706
饰	-3707
圳	-3708
鳳	-3709
巧	-3710
戀	-3711
檔	-3712
讨	-3713
盘	-3714
祝	-3715
穩	-3716
凌	-3717
俊	-3718
岳	-3719
壽	-3720
脱	-3721
碳	-3722
甸	-3723
亭	-3724
礎	-3725
箱	-3726
循	-3727
坊	-3728
揚	-3729
宏	-3730
觸	-3731
骑	-3732
疏	-3733
袖	-3734
鯉	-3735
盾	-3736
栽	-3737
辭	-3738
顾	-3739
閣	-3740
塊	-3741
僧	-3742
撰	-3743
枝	-3744
郊	-3745
焦	-3746
偉	-3747
既	-3748
刚	-3749
扮	-3750
叔	-3751
邨	-3752
欢	-3753
愿	-3754
鋼	-3755
弘	-3756
仿	-3757
卿	-3758
灌	-3759
锦	-3760
蓝	-3761
紙	-3762
谈	-3763
扬	-3764
輝	-3765
邻	-3766
岭	-3767
竞	-3768
虫	-3769
脑	-3770
吕	-3771
买	-3772
听	-3773
茂	-3774
驅	-3775
譽	-3776
凤	-3777
诉	-3778
契	-3779
曆	-3780
贸	-3781
针	-3782
絡	-3783
疗	-3784
舒	-3785
盐	-3786
镜	-3787
廈	-3788
欲	-3789
匯	-3790
翁	-3791
拳	-3792
荒	-3793
夷	-3794
砲	-3795
措	-3796
霸	-3797
純	-3798
娛	-3799
裕	-3800
靜	-3801
潛	-3802
勃	-3803
耀	-3804
券	-3805
浩	-3806
遜	-3807
迴	-3808
床	-3809
尉	-3810
串	-3811
填	-3812
割	-3813
钢	-3814
閉	-3815
横	-3816
赖	-3817
淮	-3818
擬	-3819
剩	-3820
顏	-3821
紧	-3822
綜	-3823
订	-3824
捐	-3825
婦	-3826
丝	-3827
沟	-3828
覽	-3829
嶼	-3830
嶺	-3831
阴	-3832
坏	-3833
燒	-3834
鸟	-3835
誉	-3836
苗	-3837
丈	-3838
崔	-3839
衍	-3840
犹	-3841
隱	-3842
泳	-3843
獸	-3844
銅	-3845
怒	-3846
冊	-3847
壇	-3848
歧	-3849
肥	-3850
厘	-3851
错	-3852
琉	-3853
垂	-3854
湘	-3855
污	-3856
傅	-3857
湯	-3858
蓮	-3859
邮	-3860
燈	-3861
搬	-3862
铜	-3863
賢	-3864
脉	-3865
窗	-3866
廊	-3867
卜	-3868
齡	-3869
珊	-3870
斜	-3871
災	-3872
迈	-3873
膜	-3874
儒	-3875
獵	-3876
综	-3877
儘	-3878
恶	-3879
肃	-3880
耗	-3881
寿	-3882
錫	-3883
駕	-3884
握	-3885
寒	-3886
薄	-3887
逆	-3888
狄	-3889
欣	-3890
课	-3891
悉	-3892
妇	-3893
呂	-3894
孤	-3895
煤	-3896
旨	-3897
猪	-3898
册	-3899
胎	-3900
獄	-3901
稳	-3902
殘	-3903
虛	-3904
逊	-3905
鋒	-3906
抽	-3907
逢	-3908
阁	-3909
壤	-3910
误	-3911
粗	-3912
寨	-3913
蛛	-3914
貌	-3915
聘	-3916
迹	-3917
粹	-3918
弃	-3919
鼻	-3920
陀	-3921
濱	-3922
冒	-3923
笼	-3924
吐	-3925
静	-3926
剑	-3927
吾	-3928
憶	-3929
猶	-3930
缘	-3931
坪	-3932
倉	-3933
笔	-3934
狂	-3935
稿	-3936
狗	-3937
柔	-3938
翠	-3939
俘	-3940
税	-3941
辞	-3942
键	-3943
纸	-3944
婆	-3945
蝶	-3946
叙	-3947
闭	-3948
譜	-3949
挪	-3950
忍	-3951
揭	-3952
賀	-3953
違	-3954
潜	-3955
貫	-3956
謂	-3957
阮	-3958
璃	-3959
紋	-3960
矩	-3961
疫	-3962
稍	-3963
驱	-3964
扶	-3965
籌	-3966
翌	-3967
辅	-3968
娘	-3969
邓	-3970
胸	-3971
拟	-3972
&	-3973
鹽	-3974
─	-3975
酶	-3976
菊	-3977
稅	-3978
姬	-3979
憑	-3980
汪	-3981
贊	-3982
硫	-3983
魂	-3984
慮	-3985
潭	-3986
狼	-3987
苑	-3988
礦	-3989
彰	-3990
赢	-3991
泡	-3992
遵	-3993
殼	-3994
雀	-3995
卵	-3996
刷	-3997
鍵	-3998
惟	-3999
丙	-4000
绩	-4001
棘	-4002
储	-4003
颱	-4004
堆	-4005
弦	-4006
峡	-4007
歇	-4008
兆	-4009
軸	-4010
驚	-4011
碎	-4012
寻	-4013
郵	-4014
绪	-4015
奔	-4016
牵	-4017
添	-4018
鄧	-4019
淘	-4020
吏	-4021
恰	-4022
腐	-4023
狱	-4024
曰	-4025
纵	-4026
癌	-4027
跡	-4028
阪	-4029
脊	-4030
註	-4031
姻	-4032
粵	-4033
押	-4034
猛	-4035
屈	-4036
档	-4037
姚	-4038
偷	-4039
詳	-4040
览	-4041
碟	-4042
嘴	-4043
鯰	-4044
劑	-4045
傾	-4046
繞	-4047
堪	-4048
纯	-4049
蕨	-4050
紛	-4051
岗	-4052
仇	-4053
飲	-4054
貓	-4055
夕	-4056
誕	-4057
誠	-4058
叉	-4059
勳	-4060
轟	-4061
醇	-4062
蒸	-4063
芒	-4064
蕭	-4065
獅	-4066
籃	-4067
裏	-4068
涵	-4069
逼	-4070
牆	-4071
縱	-4072
残	-4073
拼	-4074
奶	-4075
矛	-4076
贾	-4077
辰	-4078
灾	-4079
烟	-4080
儲	-4081
冯	-4082
扁	-4083
绘	-4084
隋	-4085
卒	-4086
鎖	-4087
寸	-4088
頁	-4089
屠	-4090
祀	-4091
逮	-4092
劫	-4093
嫁	-4094
→	-4095
敢	-4096
触	-4097
卑	-4098
掘	-4099
煙	-4100
奎	-4101
肌	-4102
讷	-4103
隐	-4104
醒	-4105
峽	-4106
斤	-4107
娃	-4108
礁	-4109
緩	-4110
伽	-4111
氯	-4112
薛	-4113
嫌	-4114
忙	-4115
怖	-4116
凝	-4117
蒋	-4118
迦	-4119
汤	-4120
磨	-4121
卖	-4122
雍	-4123
嗣	-4124
偵	-4125
虚	-4126
犬	-4127
伟	-4128
梦	-4129
颜	-4130
袋	-4131
悲	-4132
烧	-4133
肖	-4134
髮	-4135
抑	-4136
鼎	-4137
妙	-4138
株	-4139
篮	-4140
虑	-4141
忽	-4142
沖	-4143
栖	-4144
勋	-4145
掛	-4146
厦	-4147
膠	-4148
銜	-4149
颁	-4150
盆	-4151
汰	-4152
盜	-4153
稻	-4154
罰	-4155
蟹	-4156
竟	-4157
躍	-4158
吨	-4159
雌	-4160
抱	-4161
暂	-4162
脚	-4163
吹	-4164
毅	-4165
灯	-4166
丸	-4167
祿	-4168
襄	-4169
擾	-4170
怕	-4171
’	-4172
龜	-4173
讯	-4174
氢	-4175
麟	-4176
衔	-4177
幽	-4178
湿	-4179
缓	-4180
鄂	-4181
砂	-4182
拖	-4183
豫	-4184
翔	-4185
斐	-4186
贈	-4187
勵	-4188
巢	-4189
宰	-4190
涌	-4191
圭	-4192
茵	-4193
~	-4194
姊	-4195
崩	-4196
丛	-4197
萧	-4198
貞	-4199
賈	-4200
碧	-4201
詢	-4202
敘	-4203
茅	-4204
辨	-4205
噶	-4206
抚	-4207
旬	-4208
蜂	-4209
倡	-4210
馮	-4211
甫	-4212
剪	-4213
媽	-4214
腔	-4215
鴻	-4216
腺	-4217
囊	-4218
谱	-4219
筹	-4220
淺	-4221
邪	-4222
・	-4223
恭	-4224
邑	-4225
祠	-4226
濃	-4227
漠	-4228
漁	-4229
託	-4230
鱸	-4231
龄	-4232
姜	-4233
硕	-4234
晓	-4235
滾	-4236
锋	-4237
埋	-4238
吞	-4239
暖	-4240
壘	-4241
喇	-4242
孕	-4243
虹	-4244
尹	-4245
谓	-4246
雞	-4247
氨	-4248
胶	-4249
魁	-4250
彌	-4251
冈	-4252
莲	-4253
朴	-4254
溝	-4255
邁	-4256
寓	-4257
珀	-4258
喪	-4259
滕	-4260
挂	-4261
×	-4262
蹈	-4263
舟	-4264
蓬	-4265
咖	-4266
坛	-4267
俠	-4268
扣	-4269
吻	-4270
坝	-4271
脅	-4272
愈	-4273
苯	-4274
伙	-4275
噴	-4276
耐	-4277
抓	-4278
汀	-4279
挖	-4280
胺	-4281
椎	-4282
飯	-4283
礙	-4284
搖	-4285
巫	-4286
壮	-4287
陪	-4288
贯	-4289
仓	-4290
披	-4291
耕	-4292
催	-4293
碩	-4294
稀	-4295
薇	-4296
舌	-4297
斥	-4298
矮	-4299
慣	-4300
廖	-4301
撫	-4302
瓶	-4303
齿	-4304
削	-4305
掠	-4306
讚	-4307
卸	-4308
龐	-4309
桓	-4310
藻	-4311
滩	-4312
违	-4313
吧	-4314
烯	-4315
详	-4316
鍾	-4317
渠	-4318
蒲	-4319
鸡	-4320
邱	-4321
铺	-4322
纹	-4323
閱	-4324
蜀	-4325
崖	-4326
唇	-4327
姑	-4328
屍	-4329
棉	-4330
葵	-4331
擅	-4332
庶	-4333
募	-4334
徹	-4335
粮	-4336
賜	-4337
链	-4338
帽	-4339
汝	-4340
禾	-4341
‘	-4342
薪	-4343
褐	-4344
溯	-4345
贤	-4346
潔	-4347
筒	-4348
豹	-4349
暨	-4350
昇	-4351
曉	-4352
蜜	-4353
鷹	-4354
啡	-4355
札	-4356
亥	-4357
弓	-4358
尿	-4359
閩	-4360
忘	-4361
梨	-4362
磷	-4363
貼	-4364
懸	-4365
酷	-4366
摧	-4367
鲍	-4368
梵	-4369
帥	-4370
缅	-4371
鑑	-4372
穴	-4373
邵	-4374
丞	-4375
麵	-4376
惜	-4377
踏	-4378
肺	-4379
坂	-4380
拘	-4381
纷	-4382
琪	-4383
悬	-4384
彻	-4385
杆	-4386
漏	-4387
甜	-4388
巷	-4389
蕾	-4390
趕	-4391
润	-4392
宴	-4393
拱	-4394
怡	-4395
翅	-4396
掩	-4397
沪	-4398
緬	-4399
页	-4400
腾	-4401
蹤	-4402
淑	-4403
冕	-4404
睡	-4405
奠	-4406
肢	-4407
碰	-4408
嘗	-4409
仕	-4410
禦	-4411
宛	-4412
鉴	-4413
棕	-4414
枢	-4415
販	-4416
堤	-4417
澄	-4418
柄	-4419
爪	-4420
誓	-4421
倾	-4422
励	-4423
哪	-4424
菩	-4425
钦	-4426
逸	-4427
诚	-4428
慎	-4429
框	-4430
玲	-4431
赏	-4432
毗	-4433
丑	-4434
遞	-4435
疊	-4436
鳴	-4437
臂	-4438
遲	-4439
呎	-4440
桌	-4441
驾	-4442
蹟	-4443
帅	-4444
赐	-4445
驶	-4446
霞	-4447
腿	-4448
遼	-4449
饮	-4450
銘	-4451
姿	-4452
猎	-4453
豬	-4454
丧	-4455
递	-4456
禄	-4457
贺	-4458
逻	-4459
禪	-4460
窄	-4461
腓	-4462
頗	-4463
冀	-4464
恋	-4465
淨	-4466
弄	-4467
雇	-4468
潤	-4469
烷	-4470
帆	-4471
辉	-4472
寮	-4473
娶	-4474
鐸	-4475
兔	-4476
腰	-4477
桐	-4478
韻	-4479
恨	-4480
栗	-4481
阔	-4482
肩	-4483
搶	-4484
悠	-4485
ー	-4486
辯	-4487
C	-4488
猜	-4489
瘤	-4490
蝠	-4491
扭	-4492
忆	-4493
抄	-4494
跃	-4495
欽	-4496
‧	-4497
貧	-4498
辟	-4499
罚	-4500
朵	-4501
赠	-4502
趨	-4503
壳	-4504
嫩	-4505
爬	-4506
繩	-4507
裸	-4508
惊	-4509
殷	-4510
沼	-4511
盈	-4512
胁	-4513
臟	-4514
滋	-4515
壯	-4516
庇	-4517
忌	-4518
逾	-4519
牲	-4520
飓	-4521
肝	-4522
禧	-4523
囚	-4524
蜥	-4525
糧	-4526
吊	-4527
纲	-4528
妖	-4529
炭	-4530
浸	-4531
α	-4532
庸	-4533
繫	-4534
罷	-4535
磯	-4536
荃	-4537
贞	-4538
厥	-4539
锁	-4540
鯨	-4541
劣	-4542
勸	-4543
掃	-4544
慰	-4545
閃	-4546
*	-4547
鈴	-4548
诞	-4549
贫	-4550
兽	-4551
铸	-4552
阅	-4553
弥	-4554
旱	-4555
а	-4556
勁	-4557
哀	-4558
埠	-4559
瑚	-4560
鱗	-4561
彥	-4562
扇	-4563
闊	-4564
蓄	-4565
駁	-4566
亩	-4567
搞	-4568
浓	-4569
盗	-4570
怎	-4571
趁	-4572
の	-4573
喷	-4574
秩	-4575
診	-4576
賦	-4577
氟	-4578
橡	-4579
辩	-4580
砖	-4581
跋	-4582
凰	-4583
樞	-4584
ン	-4585
濕	-4586
霧	-4587
扰	-4588
祈	-4589
焚	-4590
臀	-4591
柬	-4592
椅	-4593
槽	-4594
氫	-4595
庞	-4596
灘	-4597
債	-4598
償	-4599
瓷	-4600
庚	-4601
昔	-4602
噸	-4603
跌	-4604
薦	-4605
鱷	-4606
肅	-4607
赶	-4608
诏	-4609
擦	-4610
轰	-4611
牽	-4612
嵌	-4613
遮	-4614
蕃	-4615
赋	-4616
闽	-4617
瑜	-4618
欠	-4619
芙	-4620
鮑	-4621
猫	-4622
$	-4623
攜	-4624
夸	-4625
酮	-4626
屿	-4627
仑	-4628
挺	-4629
猴	-4630
肇	-4631
寇	-4632
艙	-4633
о	-4634
彦	-4635
偽	-4636
凭	-4637
缸	-4638
晴	-4639
涂	-4640
禅	-4641
祐	-4642
怨	-4643
哺	-4644
汶	-4645
氮	-4646
擺	-4647
鸿	-4648
狹	-4649
娱	-4650
頸	-4651
履	-4652
慘	-4653
净	-4654
眠	-4655
芭	-4656
询	-4657
鞋	-4658
棟	-4659
漂	-4660
鶴	-4661
碱	-4662
贴	-4663
郁	-4664
伪	-4665
鑽	-4666
喻	-4667
欄	-4668
悟	-4669
狐	-4670
踢	-4671
捉	-4672
眉	-4673
斬	-4674
嘛	-4675
攀	-4676
#	-4677
桿	-4678
昏	-4679
琼	-4680
栏	-4681
徙	-4682
璋	-4683
炳	-4684
喝	-4685
尸	-4686
夥	-4687
狮	-4688
軒	-4689
颇	-4690
浅	-4691
摇	-4692
麓	-4693
彎	-4694
穗	-4695
妥	-4696
譚	-4697
渔	-4698
佑	-4699
粤	-4700
睛	-4701
賊	-4702
踪	-4703
厢	-4704
坤	-4705
蘋	-4706
廂	-4707
撥	-4708
鹰	-4709
喉	-4710
僚	-4711
抢	-4712
窮	-4713
彗	-4714
爸	-4715
醉	-4716
匣	-4717
侨	-4718
糕	-4719
齋	-4720
淳	-4721
帖	-4722
绥	-4723
鞍	-4724
饭	-4725
寵	-4726
迟	-4727
歉	-4728
惯	-4729
棚	-4730
櫻	-4731
菱	-4732
崗	-4733
躲	-4734
邏	-4735
胆	-4736
戊	-4737
匪	-4738
荐	-4739
酯	-4740
尝	-4741
諮	-4742
臉	-4743
漆	-4744
и	-4745
梭	-4746
旭	-4747
畜	-4748
淵	-4749
涼	-4750
穌	-4751
勘	-4752
矢	-4753
辱	-4754
洁	-4755
岐	-4756
椒	-4757
盒	-4758
戚	-4759
茄	-4760
熔	-4761
鴨	-4762
劝	-4763
帳	-4764
鬆	-4765
詔	-4766
榴	-4767
騰	-4768
凉	-4769
聰	-4770
咒	-4771
勾	-4772
秉	-4773
摔	-4774
咀	-4775
碍	-4776
戌	-4777
賭	-4778
盲	-4779
霖	-4780
罩	-4781
罢	-4782
鹤	-4783
蛙	-4784
糊	-4785
煌	-4786
謙	-4787
瓊	-4788
鏈	-4789
閘	-4790
爐	-4791
鯛	-4792
牟	-4793
纤	-4794
庵	-4795
欺	-4796
滚	-4797
韶	-4798
痕	-4799
夾	-4800
陝	-4801
燥	-4802
竣	-4803
虞	-4804
笛	-4805
漳	-4806
瞄	-4807
虐	-4808
棠	-4809
′	-4810
澎	-4811
奮	-4812
幢	-4813
浴	-4814
趋	-4815
廿	-4816
斌	-4817
拯	-4818
腸	-4819
塌	-4820
荆	-4821
携	-4822
爺	-4823
蛤	-4824
遙	-4825
奸	-4826
匠	-4827
阜	-4828
侶	-4829
垣	-4830
瑙	-4831
貪	-4832
哭	-4833
塗	-4834
憤	-4835
胃	-4836
á	-4837
蝦	-4838
瓣	-4839
穷	-4840
嬰	-4841
畏	-4842
僑	-4843
侠	-4844
潰	-4845
捲	-4846
纖	-4847
矶	-4848
扫	-4849
擋	-4850
膚	-4851
誘	-4852
鎊	-4853
い	-4854
膨	-4855
憂	-4856
黛	-4857
螢	-4858
崙	-4859
焰	-4860
稣	-4861
朔	-4862
駿	-4863
剿	-4864
汁	-4865
酋	-4866
噪	-4867
凸	-4868
弧	-4869
鋪	-4870
摘	-4871
铭	-4872
悼	-4873
誰	-4874
辣	-4875
杏	-4876
窟	-4877
翡	-4878
凹	-4879
狭	-4880
黏	-4881
夹	-4882
偿	-4883
楠	-4884
粘	-4885
禹	-4886
辐	-4887
韵	-4888
鸣	-4889
乞	-4890
债	-4891
閒	-4892
暢	-4893
硝	-4894
輩	-4895
芽	-4896
赦	-4897
銳	-4898
е	-4899
荊	-4900
頜	-4901
橙	-4902
冥	-4903
塵	-4904
牢	-4905
滇	-4906
拋	-4907
樑	-4908
卧	-4909
戎	-4910
彬	-4911
湛	-4912
宦	-4913
炼	-4914
闸	-4915
橘	-4916
叠	-4917
瑰	-4918
诊	-4919
惑	-4920
纂	-4921
肆	-4922
膽	-4923
懼	-4924
酬	-4925
傘	-4926
餅	-4927
勉	-4928
玫	-4929
寂	-4930
涛	-4931
畿	-4932
脏	-4933
懂	-4934
酰	-4935
寅	-4936
棍	-4937
迄	-4938
н	-4939
狸	-4940
瀑	-4941
纬	-4942
孜	-4943
蹄	-4944
煮	-4945
冶	-4946
蔽	-4947
諡	-4948
磅	-4949
橄	-4950
繳	-4951
β	-4952
渊	-4953
酵	-4954
寡	-4955
堵	-4956
摆	-4957
赣	-4958
汕	-4959
泌	-4960
裴	-4961
惨	-4962
叢	-4963
鵝	-4964
邸	-4965
鱂	-4966
с	-4967
喊	-4968
懿	-4969
侦	-4970
榆	-4971
氛	-4972
匿	-4973
奋	-4974
簧	-4975
隙	-4976
伺	-4977
頃	-4978
鳞	-4979
櫃	-4980
孚	-4981
】	-4982
茎	-4983
誼	-4984
峻	-4985
沛	-4986
鞭	-4987
【	-4988
俞	-4989
滴	-4990
稽	-4991
顷	-4992
侄	-4993
詠	-4994
鹃	-4995
肪	-4996
臭	-4997
奕	-4998
荔	-4999
騙	-5000
斋	-5001
欖	-5002
仗	-5003
垃	-5004
倪	-5005
荡	-5006
扑	-5007
彙	-5008
筋	-5009
劾	-5010
彪	-5011
蝕	-5012
р	-5013
撲	-5014
訟	-5015
碘	-5016
禽	-5017
粟	-5018
裹	-5019
圾	-5020
雁	-5021
妓	-5022
芦	-5023
舱	-5024
衙	-5025
屢	-5026
綁	-5027
芯	-5028
鮋	-5029
泄	-5030
婉	-5031
傲	-5032
娅	-5033
牡	-5034
苹	-5035
ん	-5036
肠	-5037
鑼	-5038
闪	-5039
烤	-5040
殉	-5041
蓉	-5042
墜	-5043
墟	-5044
墩	-5045
岑	-5046
謠	-5047
谭	-5048
壬	-5049
暑	-5050
皖	-5051
僱	-5052
凶	-5053
趾	-5054
苔	-5055
煉	-5056
绵	-5057
彝	-5058
颠	-5059
豚	-5060
钻	-5061
塚	-5062
糾	-5063
頌	-5064
悅	-5065
曝	-5066
践	-5067
ü	-5068
拨	-5069
淹	-5070
硅	-5071
籤	-5072
諧	-5073
騷	-5074
嫡	-5075
鸦	-5076
呢	-5077
禍	-5078
賠	-5079
渦	-5080
狩	-5081
樟	-5082
萍	-5083
蝙	-5084
垒	-5085
舜	-5086
弊	-5087
纺	-5088
栋	-5089
倭	-5090
啦	-5091
嘎	-5092
貸	-5093
竭	-5094
茹	-5095
諷	-5096
檀	-5097
歼	-5098
炉	-5099
擠	-5100
鵬	-5101
拾	-5102
顛	-5103
桶	-5104
谊	-5105
谥	-5106
剌	-5107
溃	-5108
狙	-5109
穎	-5110
懲	-5111
梓	-5112
哇	-5113
刪	-5114
吋	-5115
爽	-5116
悔	-5117
啤	-5118
鴉	-5119
墅	-5120
釣	-5121
喚	-5122
闲	-5123
羌	-5124
谦	-5125
墾	-5126
衷	-5127
郝	-5128
窑	-5129
т	-5130
鰻	-5131
咬	-5132
毓	-5133
籠	-5134
膀	-5135
稚	-5136
蔓	-5137
薯	-5138
饶	-5139
魅	-5140
隕	-5141
淚	-5142
舖	-5143
蔭	-5144
砍	-5145
う	-5146
愚	-5147
沫	-5148
淀	-5149
锐	-5150
乒	-5151
哩	-5152
磚	-5153
淋	-5154
鹏	-5155
樸	-5156
挽	-5157
檐	-5158
í	-5159
愉	-5160
舅	-5161
萌	-5162
犁	-5163
鸭	-5164
耿	-5165
剖	-5166
締	-5167
莖	-5168
渤	-5169
禎	-5170
蘿	-5171
茜	-5172
莞	-5173
凍	-5174
聊	-5175
腎	-5176
骸	-5177
壹	-5178
咨	-5179
霜	-5180
厭	-5181
嵩	-5182
淫	-5183
鬚	-5184
犀	-5185
渭	-5186
炒	-5187
肿	-5188
癸	-5189
籲	-5190
濫	-5191
淆	-5192
罐	-5193
仆	-5194
僕	-5195
蔚	-5196
缝	-5197
谐	-5198
敷	-5199
苷	-5200
顱	-5201
砌	-5202
釜	-5203
颶	-5204
沁	-5205
綿	-5206
し	-5207
蘆	-5208
梗	-5209
谁	-5210
俯	-5211
漿	-5212
胚	-5213
扳	-5214
棱	-5215
滤	-5216
脹	-5217
膏	-5218
喙	-5219
擒	-5220
迭	-5221
兇	-5222
婴	-5223
弯	-5224
弼	-5225
贷	-5226
愤	-5227
鹅	-5228
ā	-5229
窩	-5230
诱	-5231
脆	-5232
醛	-5233
謹	-5234
闖	-5235
腫	-5236
卦	-5237
钠	-5238
矣	-5239
猩	-5240
琦	-5241
庐	-5242
廚	-5243
浏	-5244
崛	-5245
删	-5246
蕊	-5247
袍	-5248
烹	-5249
瞬	-5250
縫	-5251
厲	-5252
輿	-5253
鑄	-5254
в	-5255
晰	-5256
臥	-5257
遥	-5258
堯	-5259
斩	-5260
貶	-5261
骚	-5262
蔬	-5263
蜘	-5264
ö	-5265
抬	-5266
樊	-5267
碗	-5268
罹	-5269
岱	-5270
溥	-5271
祇	-5272
榕	-5273
纠	-5274
畅	-5275
瘋	-5276
黔	-5277
壩	-5278
疲	-5279
蝴	-5280
ス	-5281
挫	-5282
蒿	-5283
伞	-5284
к	-5285
坞	-5286
尧	-5287
膝	-5288
濾	-5289
蕉	-5290
ó	-5291
颈	-5292
杖	-5293
篤	-5294
廓	-5295
钩	-5296
匡	-5297
塢	-5298
甄	-5299
妾	-5300
祁	-5301
泗	-5302
猿	-5303
哨	-5304
胤	-5305
剥	-5306
瀨	-5307
撐	-5308
敖	-5309
馳	-5310
è	-5311
睿	-5312
錐	-5313
敲	-5314
厝	-5315
穀	-5316
虜	-5317
髓	-5318
擲	-5319
肋	-5320
鹼	-5321
饼	-5322
嚇	-5323
鑲	-5324
鬱	-5325
娥	-5326
傍	-5327
莽	-5328
説	-5329
峙	-5330
裙	-5331
擢	-5332
橢	-5333
疇	-5334
踐	-5335
鸚	-5336
阎	-5337
吁	-5338
飼	-5339
眷	-5340
肤	-5341
※	-5342
紳	-5343
匾	-5344
辜	-5345
か	-5346
溉	-5347
忧	-5348
贿	-5349
ル	-5350
戟	-5351
イ	-5352
聂	-5353
堰	-5354
梧	-5355
爛	-5356
敕	-5357
瀕	-5358
鬧	-5359
褒	-5360
鯊	-5361
楷	-5362
勿	-5363
宠	-5364
晤	-5365
陇	-5366
龟	-5367
丟	-5368
耆	-5369
邢	-5370
潟	-5371
缴	-5372
铝	-5373
た	-5374
磡	-5375
窝	-5376
宵	-5377
罵	-5378
羚	-5379
萼	-5380
墳	-5381
巩	-5382
湧	-5383
鍋	-5384
祺	-5385
瘦	-5386
抛	-5387
孢	-5388
绑	-5389
攔	-5390
舶	-5391
惹	-5392
浆	-5393
渣	-5394
琅	-5395
沂	-5396
瑶	-5397
盔	-5398
倖	-5399
阀	-5400
雯	-5401
肚	-5402
铃	-5403
闢	-5404
妈	-5405
聪	-5406
л	-5407
驳	-5408
抹	-5409
蒼	-5410
肾	-5411
漲	-5412
侏	-5413
贬	-5414
濁	-5415
煩	-5416
峨	-5417
巾	-5418
沧	-5419
媛	-5420
瞭	-5421
飽	-5422
渝	-5423
μ	-5424
冤	-5425
汐	-5426
瀏	-5427
暹	-5428
苻	-5429
乓	-5430
岬	-5431
疼	-5432
膛	-5433
溢	-5434
虏	-5435
舆	-5436
鋁	-5437
刃	-5438
蚀	-5439
邯	-5440
渴	-5441
颂	-5442
芹	-5443
菇	-5444
•	-5445
脸	-5446
挝	-5447
赔	-5448
嗎	-5449
涡	-5450
睦	-5451
屡	-5452
驟	-5453
苍	-5454
麒	-5455
奢	-5456
汾	-5457
諜	-5458
焊	-5459
绒	-5460
醬	-5461
虔	-5462
鞏	-5463
堀	-5464
婷	-5465
枯	-5466
錶	-5467
傭	-5468
贼	-5469
颖	-5470
闆	-5471
噬	-5472
芜	-5473
锥	-5474
醜	-5475
掀	-5476
枫	-5477
淞	-5478
蠻	-5479
酿	-5480
贪	-5481
锅	-5482
閥	-5483
詮	-5484
ア	-5485
腕	-5486
ラ	-5487
婿	-5488
賄	-5489
鰓	-5490
棣	-5491
蚌	-5492
卯	-5493
堊	-5494
讽	-5495
钓	-5496
泵	-5497
犧	-5498
胖	-5499
丕	-5500
倚	-5501
岔	-5502
厉	-5503
啊	-5504
淪	-5505
僵	-5506
吟	-5507
您	-5508
苞	-5509
辈	-5510
幌	-5511
忒	-5512
笠	-5513
賺	-5514
棺	-5515
纏	-5516
匙	-5517
羞	-5518
摸	-5519
剝	-5520
槟	-5521
紮	-5522
鰕	-5523
骼	-5524
釀	-5525
饱	-5526
馨	-5527
洽	-5528
糟	-5529
鈞	-5530
鉛	-5531
駒	-5532
棵	-5533
璧	-5534
紡	-5535
慌	-5536
磺	-5537
饒	-5538
と	-5539
稜	-5540
胀	-5541
兀	-5542
挡	-5543
濤	-5544
梳	-5545
緻	-5546
塾	-5547
詐	-5548
枕	-5549
瑾	-5550
糙	-5551
虧	-5552
骗	-5553
綽	-5554
榄	-5555
萃	-5556
斧	-5557
褲	-5558
祯	-5559
禱	-5560
諭	-5561
釐	-5562
霆	-5563
簿	-5564
嘲	-5565
捨	-5566
氰	-5567
紗	-5568
菁	-5569
謎	-5570
账	-5571
雾	-5572
艮	-5573
铅	-5574
霉	-5575
ا	-5576
牺	-5577
盪	-5578
竺	-5579
緝	-5580
陡	-5581
魨	-5582
纜	-5583
慾	-5584
撑	-5585
焉	-5586
蚤	-5587
捧	-5588
墮	-5589
恪	-5590
瞻	-5591
蟾	-5592
鋸	-5593
隍	-5594
晃	-5595
溜	-5596
孵	-5597
幟	-5598
抒	-5599
闵	-5600
饥	-5601
浑	-5602
蔗	-5603
ク	-5604
衫	-5605
钾	-5606
讼	-5607
涨	-5608
竊	-5609
惩	-5610
攤	-5611
祸	-5612
鵡	-5613
廁	-5614
帐	-5615
苣	-5616
襪	-5617
リ	-5618
搏	-5619
钧	-5620
悦	-5621
ト	-5622
绳	-5623
芥	-5624
荀	-5625
谣	-5626
哉	-5627
坠	-5628
〔	-5629
〕	-5630
埼	-5631
沽	-5632
蛮	-5633
阐	-5634
な	-5635
磐	-5636
д	-5637
嗜	-5638
琛	-5639
芸	-5640
谨	-5641
藓	-5642
抨	-5643
姦	-5644
滯	-5645
熹	-5646
蛾	-5647
誅	-5648
烃	-5649
帛	-5650
惧	-5651
兜	-5652
睹	-5653
侣	-5654
撕	-5655
沸	-5656
滲	-5657
ä	-5658
浚	-5659
茱	-5660
镶	-5661
丢	-5662
佣	-5663
暱	-5664
滙	-5665
に	-5666
憾	-5667
俾	-5668
晏	-5669
菸	-5670
楓	-5671
靶	-5672
尘	-5673
戍	-5674
摺	-5675
煽	-5676
劲	-5677
綏	-5678
帜	-5679
祂	-5680
蔷	-5681
譴	-5682
壟	-5683
溴	-5684
瀛	-5685
厌	-5686
皓	-5687
綴	-5688
り	-5689
偕	-5690
挤	-5691
穹	-5692
艰	-5693
炬	-5694
鲸	-5695
窦	-5696
龚	-5697
咪	-5698
妝	-5699
矽	-5700
禺	-5701
懋	-5702
鲤	-5703
る	-5704
煞	-5705
蟬	-5706
艱	-5707
谴	-5708
湊	-5709
澀	-5710
畴	-5711
酉	-5712
蕩	-5713
癒	-5714
缪	-5715
霹	-5716
栓	-5717
唤	-5718
篡	-5719
绣	-5720
煥	-5721
隅	-5722
雛	-5723
酚	-5724
釘	-5725
鍊	-5726
箕	-5727
衞	-5728
缀	-5729
γ	-5730
瑤	-5731
π	-5732
蚊	-5733
洩	-5734
−	-5735
泾	-5736
谍	-5737
娄	-5738
翟	-5739
蘚	-5740
爷	-5741
邹	-5742
堇	-5743
誦	-5744
妄	-5745
皂	-5746
祕	-5747
铎	-5748
妨	-5749
祚	-5750
镑	-5751
殲	-5752
贖	-5753
м	-5754
ま	-5755
豎	-5756
逗	-5757
鄒	-5758
钙	-5759
敞	-5760
曙	-5761
贩	-5762
闹	-5763
缮	-5764
轩	-5765
黜	-5766
椭	-5767
艷	-5768
荫	-5769
譬	-5770
蘊	-5771
鑒	-5772
薰	-5773
乍	-5774
曜	-5775
閻	-5776
峭	-5777
竖	-5778
冻	-5779
滥	-5780
屑	-5781
硼	-5782
鈔	-5783
澜	-5784
瘟	-5785
傀	-5786
俸	-5787
慨	-5788
瑛	-5789
楞	-5790
羟	-5791
臧	-5792
舷	-5793
蕴	-5794
坟	-5795
暮	-5796
濠	-5797
鈾	-5798
鑫	-5799
崑	-5800
氦	-5801
烂	-5802
麾	-5803
骤	-5804
く	-5805
靴	-5806
祷	-5807
彤	-5808
稠	-5809
羲	-5810
巳	-5811
灶	-5812
繹	-5813
儡	-5814
赌	-5815
捍	-5816
き	-5817
刹	-5818
峪	-5819
萝	-5820
鈕	-5821
靡	-5822
鹹	-5823
芋	-5824
驰	-5825
嬪	-5826
燦	-5827
肽	-5828
虾	-5829
吡	-5830
吵	-5831
夭	-5832
淇	-5833
渾	-5834
煎	-5835
疯	-5836
〜	-5837
葫	-5838
蟻	-5839
諫	-5840
樱	-5841
笃	-5842
謬	-5843
闡	-5844
λ	-5845
娟	-5846
缔	-5847
拦	-5848
莓	-5849
谕	-5850
昊	-5851
鲨	-5852
σ	-5853
さ	-5854
胥	-5855
轎	-5856
壺	-5857
汞	-5858
霄	-5859
埗	-5860
у	-5861
渥	-5862
斡	-5863
枣	-5864
笨	-5865
盎	-5866
垦	-5867
\	-5868
ッ	-5869
伶	-5870
恕	-5871
卤	-5872
沐	-5873
砸	-5874
簇	-5875
は	-5876
皋	-5877
芮	-5878
樺	-5879
钥	-5880
隘	-5881
δ	-5882
柜	-5883
篷	-5884
酪	-5885
佬	-5886
胰	-5887
掣	-5888
苟	-5889
郸	-5890
匀	-5891
侮	-5892
潼	-5893
聶	-5894
豁	-5895
が	-5896
淄	-5897
刮	-5898
溺	-5899
嘯	-5900
垄	-5901
烦	-5902
鉤	-5903
咽	-5904
瑩	-5905
誇	-5906
鶯	-5907
濒	-5908
鈉	-5909
醚	-5910
靼	-5911
陋	-5912
椰	-5913
腥	-5914
滬	-5915
莆	-5916
叱	-5917
奚	-5918
泣	-5919
諒	-5920
蒜	-5921
炯	-5922
こ	-5923
沦	-5924
竇	-5925
繡	-5926
炫	-5927
証	-5928
諱	-5929
餓	-5930
扔	-5931
ω	-5932
ら	-5933
嶽	-5934
鈣	-5935
冉	-5936
沮	-5937
薹	-5938
壕	-5939
憩	-5940
顎	-5941
滞	-5942
绸	-5943
鎌	-5944
泪	-5945
膳	-5946
萎	-5947
蠟	-5948
ε	-5949
叹	-5950
衢	-5951
鞘	-5952
吗	-5953
窃	-5954
謊	-5955
醋	-5956
鉅	-5957
頑	-5958
驿	-5959
妍	-5960
拷	-5961
槐	-5962
艳	-5963
厨	-5964
蜡	-5965
幡	-5966
覓	-5967
â	-5968
萱	-5969
嘆	-5970
巖	-5971
敛	-5972
隼	-5973
飄	-5974
鼬	-5975
曦	-5976
ç	-5977
み	-5978
漕	-5979
肛	-5980
寝	-5981
晟	-5982
舵	-5983
哆	-5984
垫	-5985
晖	-5986
驼	-5987
兌	-5988
擱	-5989
咎	-5990
昧	-5991
毯	-5992
甬	-5993
阱	-5994
陛	-5995
剃	-5996
莒	-5997
鑰	-5998
悖	-5999
臼	-6000
诛	-6001
侖	-6002
柑	-6003
毘	-6004
洼	-6005
庾	-6006
疹	-6007
繆	-6008
シ	-6009
悄	-6010
惱	-6011
渗	-6012
斃	-6013
淤	-6014
渲	-6015
绰	-6016
扯	-6017
鄞	-6018
鰈	-6019
僖	-6020
檬	-6021
纱	-6022
п	-6023
恤	-6024
て	-6025
垮	-6026
←	-6027
侗	-6028
呆	-6029
墊	-6030
篆	-6031
タ	-6032
倩	-6033
廬	-6034
戮	-6035
湄	-6036
琶	-6037
佚	-6038
卉	-6039
苛	-6040
お	-6041
姨	-6042
瞿	-6043
駝	-6044
沾	-6045
衆	-6046
ジ	-6047
汲	-6048
琵	-6049
笙	-6050
裘	-6051
汴	-6052
聆	-6053
愁	-6054
弈	-6055
楔	-6056
絨	-6057
悍	-6058
拐	-6059
朽	-6060
槳	-6061
齣	-6062
殆	-6063
畝	-6064
寰	-6065
葱	-6066
駱	-6067
鳍	-6068
汙	-6069
臻	-6070
潑	-6071
焕	-6072
ل	-6073
嫔	-6074
毙	-6075
磊	-6076
綾	-6077
跪	-6078
倆	-6079
燮	-6080
傻	-6081
灼	-6082
稷	-6083
揆	-6084
盼	-6085
蒐	-6086
蜴	-6087
勻	-6088
绅	-6089
飘	-6090
骆	-6091
沅	-6092
蕙	-6093
陂	-6094
啸	-6095
镍	-6096
诵	-6097
锌	-6098
兑	-6099
恥	-6100
驕	-6101
埕	-6102
珂	-6103
翊	-6104
饲	-6105
嬌	-6106
滄	-6107
ο	-6108
绎	-6109
褚	-6110
啶	-6111
媚	-6112
竿	-6113
雉	-6114
骏	-6115
ロ	-6116
圩	-6117
撼	-6118
蚜	-6119
霰	-6120
壶	-6121
羧	-6122
陌	-6123
蜗	-6124
鈍	-6125
凿	-6126
攬	-6127
苓	-6128
遏	-6129
桔	-6130
ν	-6131
産	-6132
飢	-6133
糯	-6134
酱	-6135
ち	-6136
杞	-6137
攸	-6138
閔	-6139
あ	-6140
侬	-6141
±	-6142
ú	-6143
潞	-6144
甥	-6145
褶	-6146
濮	-6147
茛	-6148
訥	-6149
贛	-6150
マ	-6151
鳩	-6152
丫	-6153
栅	-6154
樵	-6155
胱	-6156
魄	-6157
侃	-6158
谏	-6159
坍	-6160
脾	-6161
澱	-6162
閏	-6163
卅	-6164
泼	-6165
畸	-6166
捆	-6167
喃	-6168
檳	-6169
跆	-6170
秃	-6171
г	-6172
カ	-6173
嵐	-6174
暉	-6175
浜	-6176
缆	-6177
圃	-6178
烘	-6179
珪	-6180
杠	-6181
躁	-6182
葆	-6183
妆	-6184
皈	-6185
鑿	-6186
椿	-6187
耦	-6188
饿	-6189
吓	-6190
擄	-6191
锯	-6192
弋	-6193
洮	-6194
琰	-6195
缠	-6196
侈	-6197
甦	-6198
餉	-6199
ρ	-6200
○	-6201
弩	-6202
柵	-6203
鉀	-6204
鐮	-6205
妒	-6206
锤	-6207
鬍	-6208
й	-6209
孺	-6210
踩	-6211
龔	-6212
叡	-6213
嫻	-6214
蔑	-6215
虢	-6216
誣	-6217
锂	-6218
鰨	-6219
鳚	-6220
亏	-6221
窯	-6222
趟	-6223
嘻	-6224
拌	-6225
浊	-6226
峯	-6227
桅	-6228
砷	-6229
蟒	-6230
濂	-6231
毋	-6232
@	-6233
谟	-6234
唸	-6235
蚁	-6236
鷲	-6237
僉	-6238
啓	-6239
遁	-6240
媳	-6241
撃	-6242
籽	-6243
謨	-6244
ə	-6245
壢	-6246
芷	-6247
τ	-6248
莘	-6249
闯	-6250
ι	-6251
瑋	-6252
儉	-6253
瀾	-6254
蠕	-6255
靂	-6256
〇	-6257
喘	-6258
鏢	-6259
刁	-6260
咏	-6261
殭	-6262
缉	-6263
匆	-6264
袜	-6265
蔥	-6266
铀	-6267
陨	-6268
ς	-6269
轿	-6270
じ	-6271
澈	-6272
燭	-6273
濬	-6274
б	-6275
冢	-6276
闰	-6277
鮨	-6278
俭	-6279
泸	-6280
畑	-6281
縛	-6282
襟	-6283
毆	-6284
茉	-6285
裳	-6286
勐	-6287
槃	-6288
筠	-6289
钞	-6290
栈	-6291
舺	-6292
艋	-6293
薑	-6294
ド	-6295
吼	-6296
赎	-6297
倦	-6298
圻	-6299
蓼	-6300
拂	-6301
粥	-6302
邕	-6303
陞	-6304
馈	-6305
灑	-6306
狠	-6307
瞳	-6308
も	-6309
傣	-6310
樁	-6311
痴	-6312
韌	-6313
骂	-6314
à	-6315
瀋	-6316
蠅	-6317
鋰	-6318
瑕	-6319
遴	-6320
崁	-6321
晦	-6322
檻	-6323
氹	-6324
迥	-6325
襯	-6326
驛	-6327
掖	-6328
琥	-6329
ô	-6330
フ	-6331
仄	-6332
岷	-6333
碉	-6334
鱈	-6335
僻	-6336
挾	-6337
瀚	-6338
オ	-6339
姪	-6340
耻	-6341
蚕	-6342
峇	-6343
斛	-6344
冗	-6345
埤	-6346
愧	-6347
暈	-6348
柿	-6349
瀧	-6350
軀	-6351
钉	-6352
饋	-6353
‰	-6354
を	-6355
昼	-6356
檗	-6357
レ	-6358
朕	-6359
琮	-6360
躺	-6361
撈	-6362
潢	-6363
瀉	-6364
蝇	-6365
蠢	-6366
谜	-6367
鎧	-6368
れ	-6369
勛	-6370
吠	-6371
硒	-6372
豔	-6373
鳅	-6374
阙	-6375
鷺	-6376
溧	-6377
饑	-6378
洙	-6379
鷗	-6380
恺	-6381
檎	-6382
錘	-6383
妊	-6384
瞞	-6385
輾	-6386
つ	-6387
鱇	-6388
璽	-6389
耍	-6390
や	-6391
剔	-6392
唑	-6393
寢	-6394
悚	-6395
迂	-6396
攏	-6397
绛	-6398
逵	-6399
酥	-6400
钊	-6401
昱	-6402
糞	-6403
翎	-6404
螯	-6405
顽	-6406
礫	-6407
蓟	-6408
キ	-6409
熵	-6410
猷	-6411
訶	-6412
锈	-6413
暇	-6414
矚	-6415
诬	-6416
婢	-6417
鮟	-6418
咳	-6419
扈	-6420
櫛	-6421
荧	-6422
κ	-6423
す	-6424
憐	-6425
枋	-6426
賤	-6427
鰍	-6428
φ	-6429
掷	-6430
矯	-6431
釉	-6432
綺	-6433
緋	-6434
薨	-6435
詛	-6436
钝	-6437
だ	-6438
螂	-6439
俩	-6440
槭	-6441
衬	-6442
я	-6443
忻	-6444
皿	-6445
禿	-6446
醣	-6447
囑	-6448
帘	-6449
幂	-6450
訝	-6451
賃	-6452
エ	-6453
拙	-6454
璜	-6455
讳	-6456
诈	-6457
跤	-6458
ن	-6459
婁	-6460
逍	-6461
靳	-6462
咤	-6463
昨	-6464
癮	-6465
佟	-6466
嫉	-6467
孀	-6468
樽	-6469
駭	-6470
奘	-6471
桩	-6472
殯	-6473
膺	-6474
鎂	-6475
韬	-6476
颐	-6477
曬	-6478
沱	-6479
匝	-6480
捏	-6481
潍	-6482
蝽	-6483
で	-6484
兖	-6485
婭	-6486
嶄	-6487
砾	-6488
ミ	-6489
榨	-6490
渚	-6491
眺	-6492
裤	-6493
肘	-6494
宸	-6495
楨	-6496
璇	-6497
羰	-6498
轅	-6499
碁	-6500
頤	-6501
鴿	-6502
鸽	-6503
グ	-6504
擂	-6505
沌	-6506
茫	-6507
麝	-6508
妳	-6509
曳	-6510
諺	-6511
钮	-6512
鮭	-6513
岚	-6514
貂	-6515
堕	-6516
剎	-6517
惰	-6518
扼	-6519
蜱	-6520
榔	-6521
歪	-6522
綢	-6523
雏	-6524
黯	-6525
倘	-6526
煜	-6527
眶	-6528
奄	-6529
晝	-6530
篩	-6531
餵	-6532
^	-6533
悶	-6534
斂	-6535
馏	-6536
馴	-6537
鼩	-6538
巍	-6539
炙	-6540
瑄	-6541
莺	-6542
蛟	-6543
詭	-6544
鍛	-6545
筛	-6546
诃	-6547
赚	-6548
鄙	-6549
偃	-6550
嘱	-6551
懶	-6552
熄	-6553
頰	-6554
兗	-6555
惕	-6556
昵	-6557
炔	-6558
隴	-6559
鸠	-6560
巽	-6561
帧	-6562
鄱	-6563
チ	-6564
迺	-6565
坳	-6566
嫂	-6567
磋	-6568
鬣	-6569
θ	-6570
コ	-6571
叻	-6572
摊	-6573
牒	-6574
绞	-6575
鞑	-6576
黴	-6577
桦	-6578
氙	-6579
翹	-6580
魮	-6581
叮	-6582
怜	-6583
氓	-6584
涧	-6585
絮	-6586
綸	-6587
蒴	-6588
谅	-6589
鈺	-6590
铉	-6591
鵰	-6592
夔	-6593
嬴	-6594
怠	-6595
戛	-6596
菅	-6597
捞	-6598
秤	-6599
卞	-6600
殴	-6601
昶	-6602
沥	-6603
っ	-6604
劈	-6605
叭	-6606
蝉	-6607
麴	-6608
嗅	-6609
宕	-6610
尻	-6611
撇	-6612
脖	-6613
蛺	-6614
嶋	-6615
璐	-6616
诠	-6617
鞠	-6618
ʁ	-6619
デ	-6620
旷	-6621
秧	-6622
笋	-6623
腋	-6624
蝸	-6625
鎳	-6626
ر	-6627
筲	-6628
锻	-6629
ы	-6630
佃	-6631
鹛	-6632
ハ	-6633
槓	-6634
瀝	-6635
蘑	-6636
酌	-6637
乂	-6638
亢	-6639
孛	-6640
搁	-6641
昕	-6642
烽	-6643
璞	-6644
羹	-6645
藜	-6646
鍍	-6647
ê	-6648
憎	-6649
汛	-6650
炀	-6651
笈	-6652
伎	-6653
凑	-6654
哮	-6655
唔	-6656
颍	-6657
龛	-6658
ي	-6659
拇	-6660
掙	-6661
撓	-6662
檸	-6663
涿	-6664
羯	-6665
谎	-6666
铬	-6667
パ	-6668
丐	-6669
吒	-6670
晒	-6671
洒	-6672
賂	-6673
劭	-6674
啄	-6675
癱	-6676
ч	-6677
懈	-6678
絞	-6679
颅	-6680
サ	-6681
歙	-6682
蝎	-6683
骄	-6684
ë	-6685
佗	-6686
蠍	-6687
诰	-6688
邺	-6689
雳	-6690
焘	-6691
篠	-6692
簾	-6693
鳄	-6694
η	-6695
け	-6696
穫	-6697
豈	-6698
鄴	-6699
淦	-6700
綬	-6701
荼	-6702
蠶	-6703
醯	-6704
鲷	-6705
咐	-6706
晷	-6707
揽	-6708
浣	-6709
ī	-6710
滔	-6711
莹	-6712
郢	-6713
鳌	-6714
わ	-6715
揉	-6716
曇	-6717
瞰	-6718
郴	-6719
镁	-6720
☆	-6721
彷	-6722
璟	-6723
赂	-6724
鈎	-6725
馥	-6726
慷	-6727
旌	-6728
熏	-6729
瓮	-6730
荚	-6731
蝗	-6732
蝨	-6733
з	-6734
乖	-6735
儂	-6736
挨	-6737
熬	-6738
稼	-6739
缚	-6740
銓	-6741
驴	-6742
鮃	-6743
鹦	-6744
ウ	-6745
巔	-6746
徘	-6747
桨	-6748
榈	-6749
漱	-6750
瓯	-6751
聿	-6752
闕	-6753
誡	-6754
辗	-6755
ь	-6756
プ	-6757
尬	-6758
睞	-6759
羈	-6760
鋅	-6761
鑾	-6762
š	-6763
淖	-6764
祉	-6765
荠	-6766
躬	-6767
鸞	-6768
テ	-6769
佘	-6770
呤	-6771
檜	-6772
滁	-6773
玺	-6774
踝	-6775
镰	-6776
ニ	-6777
ャ	-6778
屎	-6779
徊	-6780
櫚	-6781
酗	-6782
寥	-6783
挠	-6784
窺	-6785
衮	-6786
韃	-6787
僭	-6788
槌	-6789
熾	-6790
覃	-6791
査	-6792
睾	-6793
遐	-6794
醮	-6795
躯	-6796
餡	-6797
呀	-6798
娠	-6799
梢	-6800
澧	-6801
耽	-6802
謗	-6803
贻	-6804
轍	-6805
钵	-6806
バ	-6807
姥	-6808
柩	-6809
烛	-6810
甯	-6811
皱	-6812
窪	-6813
邳	-6814
钛	-6815
韧	-6816
驹	-6817
驯	-6818
و	-6819
冼	-6820
凋	-6821
嚮	-6822
婺	-6823
滦	-6824
甩	-6825
瘓	-6826
踞	-6827
麽	-6828
凳	-6829
妲	-6830
澡	-6831
灸	-6832
羁	-6833
葺	-6834
蔔	-6835
鈦	-6836
鞅	-6837
鹘	-6838
م	-6839
ガ	-6840
喆	-6841
晕	-6842
歳	-6843
玟	-6844
蟠	-6845
鏽	-6846
鹊	-6847
□	-6848
錨	-6849
よ	-6850
兮	-6851
薈	-6852
镀	-6853
桢	-6854
洵	-6855
祜	-6856
稟	-6857
鄺	-6858
鎚	-6859
髻	-6860
鱨	-6861
鵑	-6862
咕	-6863
惶	-6864
锰	-6865
唾	-6866
捻	-6867
灿	-6868
犍	-6869
罔	-6870
娇	-6871
癖	-6872
睢	-6873
苇	-6874
骷	-6875
ナ	-6876
唆	-6877
棧	-6878
泻	-6879
瘫	-6880
涪	-6881
窒	-6882
蕪	-6883
ɛ	-6884
ひ	-6885
崧	-6886
愍	-6887
摹	-6888
碌	-6889
訣	-6890
铵	-6891
驸	-6892
鉉	-6893
飆	-6894
懇	-6895
柠	-6896
瘾	-6897
骰	-6898
翘	-6899
闾	-6900
佼	-6901
俏	-6902
絃	-6903
鳃	-6904
ß	-6905
ム	-6906
佥	-6907
嘌	-6908
恼	-6909
撾	-6910
栾	-6911
歹	-6912
珉	-6913
ñ	-6914
ィ	-6915
疣	-6916
竄	-6917
蓓	-6918
釗	-6919
飪	-6920
ょ	-6921
嗓	-6922
嬉	-6923
浒	-6924
筵	-6925
薊	-6926
喂	-6927
怯	-6928
攘	-6929
槿	-6930
瓚	-6931
粽	-6932
脷	-6933
愷	-6934
旻	-6935
螈	-6936
饷	-6937
傢	-6938
叩	-6939
嘧	-6940
娩	-6941
孽	-6942
拢	-6943
泓	-6944
煒	-6945
窘	-6946
粲	-6947
莪	-6948
蝰	-6949
铲	-6950
鹭	-6951
屁	-6952
惇	-6953
湍	-6954
羨	-6955
鼐	-6956
弛	-6957
疵	-6958
籬	-6959
咲	-6960
柚	-6961
栎	-6962
楹	-6963
滘	-6964
燊	-6965
绶	-6966
蔻	-6967
攪	-6968
杵	-6969
浇	-6970
瑁	-6971
筱	-6972
ブ	-6973
婕	-6974
岂	-6975
忱	-6976
炱	-6977
痊	-6978
绢	-6979
镐	-6980
堃	-6981
扒	-6982
缕	-6983
鹵	-6984
ろ	-6985
曠	-6986
滸	-6987
琨	-6988
筏	-6989
紓	-6990
谒	-6991
儼	-6992
叟	-6993
寞	-6994
抖	-6995
瘧	-6996
蕈	-6997
誥	-6998
贮	-6999
鮡	-7000
纶	-7001
膩	-7002
锚	-7003
鰂	-7004
え	-7005
皺	-7006
せ	-7007
珮	-7008
琢	-7009
葦	-7010
諦	-7011
鴞	-7012
č	-7013
枉	-7014
炽	-7015
珲	-7016
罂	-7017
逕	-7018
酐	-7019
涩	-7020
溼	-7021
琬	-7022
畲	-7023
诫	-7024
亳	-7025
撮	-7026
洱	-7027
貯	-7028
⁄	-7029
岌	-7030
恬	-7031
榛	-7032
荨	-7033
虱	-7034
顫	-7035
撿	-7036
獾	-7037
玖	-7038
鹉	-7039
渎	-7040
睽	-7041
糸	-7042
絹	-7043
谬	-7044
靚	-7045
厕	-7046
巅	-7047
璉	-7048
瞎	-7049
聾	-7050
肄	-7051
蚓	-7052
蛭	-7053
诅	-7054
髒	-7055
幺	-7056
碾	-7057
蜓	-7058
俑	-7059
俳	-7060
戳	-7061
狡	-7062
琐	-7063
箔	-7064
镖	-7065
鮠	-7066
ø	-7067
嬅	-7068
檯	-7069
珞	-7070
賑	-7071
楣	-7072
泮	-7073
脩	-7074
赁	-7075
黍	-7076
ζ	-7077
堺	-7078
恃	-7079
抉	-7080
摯	-7081
痪	-7082
茸	-7083
菠	-7084
螳	-7085
ب	-7086
涟	-7087
荻	-7088
釧	-7089
鸢	-7090
ē	-7091
ダ	-7092
ビ	-7093
噁	-7094
箏	-7095
梟	-7096
砚	-7097
筷	-7098
薔	-7099
韜	-7100
鱺	-7101
æ	-7102
ゅ	-7103
嘔	-7104
懦	-7105
澍	-7106
猝	-7107
疽	-7108
筍	-7109
粱	-7110
鯙	-7111
ェ	-7112
メ	-7113
娼	-7114
瑣	-7115
讞	-7116
輟	-7117
ō	-7118
俚	-7119
漩	-7120
燧	-7121
粪	-7122
ū	-7123
―	-7124
繕	-7125
謁	-7126
赈	-7127
轭	-7128
钴	-7129
ュ	-7130
妤	-7131
灝	-7132
煦	-7133
聳	-7134
谤	-7135
醴	-7136
鉑	-7137
å	-7138
婪	-7139
崴	-7140
棗	-7141
箴	-7142
貽	-7143
閑	-7144
淅	-7145
珅	-7146
穢	-7147
肱	-7148
蜒	-7149
め	-7150
侷	-7151
焙	-7152
羔	-7153
蚂	-7154
呵	-7155
桁	-7156
琊	-7157
畠	-7158
蜻	-7159
褫	-7160
邂	-7161
阡	-7162
霓	-7163
龕	-7164
啞	-7165
榭	-7166
胄	-7167
豌	-7168
鮫	-7169
啼	-7170
喧	-7171
弔	-7172
檄	-7173
疚	-7174
緞	-7175
肴	-7176
蛹	-7177
逅	-7178
拮	-7179
挣	-7180
瘡	-7181
釁	-7182
闷	-7183
靺	-7184
饪	-7185
≤	-7186
垢	-7187
癲	-7188
睐	-7189
窖	-7190
誹	-7191
鏟	-7192
戡	-7193
搅	-7194
氐	-7195
氾	-7196
洄	-7197
浔	-7198
烙	-7199
羥	-7200
荥	-7201
蜈	-7202
賬	-7203
鉻	-7204
鸥	-7205
鸾	-7206
モ	-7207
嚼	-7208
搗	-7209
碇	-7210
糜	-7211
頡	-7212
餾	-7213
х	-7214
俐	-7215
嗽	-7216
脇	-7217
膦	-7218
覲	-7219
谔	-7220
鹫	-7221
掏	-7222
栱	-7223
苋	-7224
謚	-7225
闇	-7226
颓	-7227
骁	-7228
î	-7229
涇	-7230
腱	-7231
蚣	-7232
贱	-7233
蹲	-7234
瞒	-7235
矗	-7236
紊	-7237
腻	-7238
鞨	-7239
勖	-7240
吩	-7241
嘩	-7242
媲	-7243
漾	-7244
鎬	-7245
锑	-7246
壠	-7247
奬	-7248
弁	-7249
杓	-7250
沭	-7251
瀆	-7252
祗	-7253
銃	-7254
吶	-7255
塹	-7256
夯	-7257
珈	-7258
軛	-7259
頷	-7260
驃	-7261
鬃	-7262
彧	-7263
彿	-7264
橇	-7265
纥	-7266
菀	-7267
韭	-7268
柝	-7269
湟	-7270
漓	-7271
腈	-7272
镕	-7273
頹	-7274
魷	-7275
鳖	-7276
»	-7277
ã	-7278
垛	-7279
柘	-7280
湮	-7281
爹	-7282
疤	-7283
簷	-7284
袒	-7285
轼	-7286
餚	-7287
鲱	-7288
烴	-7289
癫	-7290
矫	-7291
羣	-7292
茴	-7293
蠡	-7294
袞	-7295
鏞	-7296
铂	-7297
冪	-7298
挚	-7299
漪	-7300
痰	-7301
蝮	-7302
躋	-7303
ц	-7304
儸	-7305
峒	-7306
榻	-7307
脛	-7308
遽	-7309
靛	-7310
鸫	-7311
ㄧ	-7312
匕	-7313
巒	-7314
耸	-7315
萸	-7316
鄢	-7317
锺	-7318
雒	-7319
鱲	-7320
鳗	-7321
鼴	-7322
د	-7323
帚	-7324
焯	-7325
玳	-7326
珥	-7327
盂	-7328
舫	-7329
蜍	-7330
訛	-7331
娑	-7332
捣	-7333
揣	-7334
沔	-7335
邛	-7336
匐	-7337
掺	-7338
辻	-7339
闍	-7340
馀	-7341
庑	-7342
悌	-7343
慄	-7344
挟	-7345
斟	-7346
歆	-7347
歎	-7348
瓘	-7349
痢	-7350
詣	-7351
宥	-7352
菏	-7353
蜿	-7354
谿	-7355
υ	-7356
噩	-7357
拗	-7358
栢	-7359
譏	-7360
貳	-7361
赉	-7362
逞	-7363
餌	-7364
鯡	-7365
佯	-7366
勺	-7367
囪	-7368
殡	-7369
滌	-7370
澹	-7371
煬	-7372
疟	-7373
眩	-7374
ł	-7375
匮	-7376
瑯	-7377
癡	-7378
锣	-7379
鯽	-7380
鵲	-7381
ズ	-7382
涤	-7383
矾	-7384
絆	-7385
邾	-7386
郤	-7387
颌	-7388
髦	-7389
呕	-7390
帷	-7391
稔	-7392
螃	-7393
驢	-7394
ш	-7395
ツ	-7396
俟	-7397
痘	-7398
萤	-7399
觐	-7400
讶	-7401
軾	-7402
鏗	-7403
钯	-7404
驍	-7405
鲫	-7406
鸮	-7407
匍	-7408
咱	-7409
昙	-7410
繭	-7411
蠔	-7412
辍	-7413
铨	-7414
齧	-7415
●	-7416
咯	-7417
戦	-7418
棻	-7419
痺	-7420
繇	-7421
蕲	-7422
辕	-7423
郗	-7424
鉗	-7425
鳶	-7426
嫦	-7427
缽	-7428
蚺	-7429
褻	-7430
醍	-7431
驤	-7432
佰	-7433
嫖	-7434
岙	-7435
錳	-7436
鑣	-7437
髏	-7438
«	-7439
匱	-7440
掾	-7441
昴	-7442
潇	-7443
璘	-7444
阯	-7445
霑	-7446
鵙	-7447
ゆ	-7448
儁	-7449
拚	-7450
觅	-7451
鵜	-7452
垩	-7453
懒	-7454
栃	-7455
胭	-7456
蒯	-7457
諏	-7458
诽	-7459
恂	-7460
摒	-7461
瘠	-7462
睫	-7463
筝	-7464
糠	-7465
羡	-7466
裨	-7467
诡	-7468
醃	-7469
醐	-7470
阗	-7471
ŋ	-7472
甕	-7473
菟	-7474
賁	-7475
僞	-7476
嚨	-7477
绮	-7478
膾	-7479
蝌	-7480
込	-7481
齦	-7482
咄	-7483
橐	-7484
濑	-7485
煲	-7486
瑠	-7487
痹	-7488
稗	-7489
钗	-7490
铯	-7491
驊	-7492
ど	-7493
剋	-7494
剷	-7495
嗚	-7496
崭	-7497
弒	-7498
敍	-7499
杲	-7500
珙	-7501
瑗	-7502
缙	-7503
腭	-7504
贓	-7505
鰲	-7506
ć	-7507
娣	-7508
徳	-7509
湳	-7510
璀	-7511
絳	-7512
罄	-7513
蚪	-7514
ś	-7515
س	-7516
嚕	-7517
寛	-7518
忿	-7519
懺	-7520
涸	-7521
緹	-7522
銮	-7523
钰	-7524
ा	-7525
恳	-7526
揀	-7527
盏	-7528
莢	-7529
釷	-7530
钨	-7531
­	-7532
哑	-7533
啉	-7534
孰	-7535
帑	-7536
扛	-7537
澗	-7538
猖	-7539
鲀	-7540
嵋	-7541
暐	-7542
珩	-7543
簪	-7544
萩	-7545
闫	-7546
鱔	-7547
ɔ	-7548
勅	-7549
尷	-7550
晁	-7551
癇	-7552
皎	-7553
盯	-7554
譙	-7555
赓	-7556
馅	-7557
ノ	-7558
櫟	-7559
瑭	-7560
碲	-7561
谛	-7562
谯	-7563
蹇	-7564
邈	-7565
颉	-7566
鲈	-7567
ご	-7568
ぶ	-7569
幔	-7570
汜	-7571
涝	-7572
褪	-7573
霾	-7574
颊	-7575
龢	-7576
⋯	-7577
奭	-7578
擷	-7579
桧	-7580
榘	-7581
榷	-7582
珣	-7583
瓢	-7584
箍	-7585
翦	-7586
誨	-7587
诣	-7588
诲	-7589
魴	-7590
鯤	-7591
鱧	-7592
ば	-7593
囤	-7594
恿	-7595
渺	-7596
犛	-7597
琇	-7598
艏	-7599
訖	-7600
谚	-7601
豺	-7602
鎗	-7603
ワ	-7604
漬	-7605
痒	-7606
瞩	-7607
耘	-7608
芩	-7609
蹦	-7610
镉	-7611
闐	-7612
颚	-7613
鴕	-7614
爨	-7615
獺	-7616
笏	-7617
鈹	-7618
駙	-7619
ず	-7620
呋	-7621
尕	-7622
摻	-7623
晞	-7624
桀	-7625
炜	-7626
箬	-7627
茗	-7628
藕	-7629
藨	-7630
衅	-7631
辮	-7632
邃	-7633
俺	-7634
儋	-7635
嵊	-7636
掸	-7637
栩	-7638
珏	-7639
硤	-7640
粿	-7641
蛻	-7642
蜆	-7643
螞	-7644
閭	-7645
そ	-7646
ョ	-7647
攣	-7648
畈	-7649
痫	-7650
釵	-7651
鋤	-7652
锷	-7653
屹	-7654
嵇	-7655
憫	-7656
涕	-7657
熒	-7658
謫	-7659
趴	-7660
逛	-7661
閹	-7662
魟	-7663
嵯	-7664
様	-7665
煊	-7666
燾	-7667
盱	-7668
腌	-7669
鹳	-7670
ˋ	-7671
ά	-7672
э	-7673
亟	-7674
憬	-7675
挹	-7676
玮	-7677
贲	-7678
跻	-7679
轧	-7680
郃	-7681
郧	-7682
馱	-7683
哗	-7684
弑	-7685
欒	-7686
湃	-7687
禰	-7688
锟	-7689
隈	-7690
ı	-7691
ع	-7692
ゃ	-7693
唁	-7694
恽	-7695
撻	-7696
瀰	-7697
癢	-7698
秽	-7699
谘	-7700
姍	-7701
疮	-7702
缎	-7703
鄔	-7704
錮	-7705
钏	-7706
顗	-7707
髯	-7708
्	-7709
む	-7710
庠	-7711
濛	-7712
爍	-7713
獠	-7714
砥	-7715
砦	-7716
紜	-7717
苳	-7718
鸳	-7719
ж	-7720
喱	-7721
囉	-7722
癬	-7723
綵	-7724
镛	-7725
驷	-7726
骥	-7727
鯧	-7728
∈	-7729
哼	-7730
嫣	-7731
昀	-7732
桉	-7733
楝	-7734
槎	-7735
氈	-7736
涓	-7737
甌	-7738
讒	-7739
钡	-7740
偈	-7741
毎	-7742
盞	-7743
聋	-7744
胪	-7745
葶	-7746
藐	-7747
鎢	-7748
钼	-7749
鯖	-7750
鳕	-7751
勗	-7752
峠	-7753
氘	-7754
汨	-7755
燎	-7756
猕	-7757
璨	-7758
紇	-7759
脯	-7760
蹼	-7761
轶	-7762
骡	-7763
★	-7764
俨	-7765
啮	-7766
彊	-7767
旃	-7768
澆	-7769
疃	-7770
瘍	-7771
縉	-7772
蜷	-7773
踵	-7774
銨	-7775
阆	-7776
驥	-7777
́	-7778
峴	-7779
徭	-7780
忏	-7781
曖	-7782
歿	-7783
璿	-7784
瓏	-7785
萘	-7786
邇	-7787
鈷	-7788
이	-7789
ァ	-7790
佤	-7791
妞	-7792
憧	-7793
浬	-7794
燙	-7795
翩	-7796
菈	-7797
蜑	-7798
鄯	-7799
颤	-7800
ふ	-7801
凜	-7802
孖	-7803
潁	-7804
犢	-7805
眙	-7806
耒	-7807
蒨	-7808
蚩	-7809
詬	-7810
讹	-7811
躄	-7812
骠	-7813
χ	-7814
刈	-7815
嘶	-7816
戸	-7817
梶	-7818
漣	-7819
瀟	-7820
赟	-7821
輒	-7822
邬	-7823
钚	-7824
铠	-7825
雹	-7826
骅	-7827
麋	-7828
ˈ	-7829
セ	-7830
揪	-7831
縊	-7832
縻	-7833
蒾	-7834
邠	-7835
郓	-7836
銖	-7837
钒	-7838
陟	-7839
鯔	-7840
囂	-7841
専	-7842
愫	-7843
慑	-7844
殃	-7845
漯	-7846
烨	-7847
玠	-7848
臚	-7849
芪	-7850
辊	-7851
鉞	-7852
鶇	-7853
楸	-7854
燁	-7855
璠	-7856
腮	-7857
辙	-7858
郯	-7859
鄲	-7860
骊	-7861
ί	-7862
ت	-7863
∞	-7864
岘	-7865
岫	-7866
昉	-7867
脲	-7868
蜚	-7869
饵	-7870
鼱	-7871
≥	-7872
捩	-7873
滂	-7874
瑀	-7875
疱	-7876
窜	-7877
纓	-7878
脐	-7879
蚶	-7880
銹	-7881
鐳	-7882
鱉	-7883
鹬	-7884
þ	-7885
侑	-7886
儷	-7887
噹	-7888
滷	-7889
燬	-7890
獐	-7891
県	-7892
跖	-7893
醌	-7894
鰺	-7895
ه	-7896
嚐	-7897
坵	-7898
墉	-7899
惺	-7900
椽	-7901
氖	-7902
氡	-7903
濡	-7904
碓	-7905
竑	-7906
薙	-7907
蛞	-7908
遶	-7909
鳉	-7910
ほ	-7911
ケ	-7912
俶	-7913
咆	-7914
壑	-7915
弭	-7916
恙	-7917
暠	-7918
曷	-7919
猗	-7920
砵	-7921
绯	-7922
蝓	-7923
蠣	-7924
豊	-7925
赃	-7926
馭	-7927
鮈	-7928
鸯	-7929
倻	-7930
嘅	-7931
圜	-7932
搓	-7933
梆	-7934
禀	-7935
缨	-7936
鄚	-7937
陲	-7938
飙	-7939
鶘	-7940
ゲ	-7941
孪	-7942
灏	-7943
烁	-7944
瞪	-7945
碚	-7946
膿	-7947
臆	-7948
蛄	-7949
軼	-7950
錒	-7951
铊	-7952
鹟	-7953
ی	-7954
冑	-7955
凄	-7956
埭	-7957
曄	-7958
杼	-7959
枷	-7960
橈	-7961
殮	-7962
潯	-7963
焜	-7964
狒	-7965
疍	-7966
絶	-7967
綝	-7968
驪	-7969
乩	-7970
剽	-7971
喵	-7972
嗪	-7973
囓	-7974
栉	-7975
簋	-7976
荪	-7977
醞	-7978
銫	-7979
鞮	-7980
哄	-7981
挛	-7982
椋	-7983
槲	-7984
猥	-7985
獗	-7986
祟	-7987
笹	-7988
缢	-7989
菝	-7990
赭	-7991
镌	-7992
骇	-7993
ソ	-7994
ネ	-7995
喹	-7996
墘	-7997
宓	-7998
恍	-7999
歴	-8000
煇	-8001
燉	-8002
碣	-8003
窥	-8004
箇	-8005
綻	-8006
蜢	-8007
褂	-8008
詰	-8009
諳	-8010
錡	-8011
鎔	-8012
鶲	-8013
đ	-8014
ф	-8015
傈	-8016
坨	-8017
嶠	-8018
幀	-8019
朐	-8020
潦	-8021
灞	-8022
炊	-8023
牯	-8024
猾	-8025
痞	-8026
羿	-8027
翱	-8028
蹂	-8029
鉬	-8030
雋	-8031
鴦	-8032
黒	-8033
า	-8034
་	-8035
ボ	-8036
塬	-8037
愔	-8038
柃	-8039
稹	-8040
蜃	-8041
诀	-8042
軫	-8043
钍	-8044
铮	-8045
阖	-8046
`	-8047
ò	-8048
ح	-8049
恣	-8050
涞	-8051
澂	-8052
訢	-8053
鏘	-8054
鷸	-8055
僥	-8056
僳	-8057
垭	-8058
姫	-8059
憚	-8060
搔	-8061
敎	-8062
殇	-8063
毡	-8064
滎	-8065
燼	-8066
琚	-8067
謇	-8068
蹊	-8069
锄	-8070
阇	-8071
騫	-8072
骧	-8073
َ	-8074
厮	-8075
嗆	-8076
憨	-8077
揖	-8078
槻	-8079
淝	-8080
砀	-8081
禛	-8082
穰	-8083
芎	-8084
荞	-8085
讥	-8086
贅	-8087
鈈	-8088
錠	-8089
鍺	-8090
鱒	-8091
ό	-8092
ザ	-8093
尴	-8094
擘	-8095
朦	-8096
槛	-8097
沆	-8098
泠	-8099
涎	-8100
痙	-8101
睪	-8102
耙	-8103
苄	-8104
鎘	-8105
顒	-8106
鮄	-8107
®	-8108
ž	-8109
ˊ	-8110
ぎ	-8111
び	-8112
掳	-8113
楂	-8114
殤	-8115
琏	-8116
甾	-8117
縷	-8118
藁	-8119
邽	-8120
亘	-8121
佞	-8122
坯	-8123
捡	-8124
瓒	-8125
砜	-8126
菖	-8127
葜	-8128
郜	-8129
钳	-8130
і	-8131
र	-8132
ね	-8133
呐	-8134
塭	-8135
娴	-8136
嶷	-8137
毬	-8138
紂	-8139
荟	-8140
萜	-8141
藔	-8142
裟	-8143
訇	-8144
閤	-8145
亵	-8146
伉	-8147
吝	-8148
垓	-8149
懾	-8150
攒	-8151
瀬	-8152
痉	-8153
睇	-8154
筐	-8155
荖	-8156
閨	-8157
ă	-8158
卍	-8159
峦	-8160
崮	-8161
嶇	-8162
忤	-8163
惋	-8164
揄	-8165
晗	-8166
玷	-8167
瘀	-8168
睜	-8169
秣	-8170
篝	-8171
銥	-8172
铢	-8173
隗	-8174
鱘	-8175
鳐	-8176
ş	-8177
吲	-8178
啜	-8179
夙	-8180
杷	-8181
沢	-8182
濺	-8183
篙	-8184
篱	-8185
絢	-8186
罡	-8187
艉	-8188
虬	-8189
袈	-8190
鉚	-8191
铋	-8192
鬬	-8193
ψ	-8194
ヤ	-8195
傉	-8196
傕	-8197
哌	-8198
坷	-8199
墀	-8200
悯	-8201
戾	-8202
氚	-8203
氪	-8204
綦	-8205
芍	-8206
覬	-8207
謔	-8208
遹	-8209
閎	-8210
隽	-8211
霏	-8212
鳢	-8213
ξ	-8214
ヒ	-8215
冏	-8216
勣	-8217
嘟	-8218
枇	-8219
楫	-8220
獼	-8221
窿	-8222
繃	-8223
蟆	-8224
跗	-8225
迤	-8226
阈	-8227
鮪	-8228
ː	-8229
ゴ	-8230
ポ	-8231
姒	-8232
愕	-8233
扉	-8234
芾	-8235
苴	-8236
蓑	-8237
蠹	-8238
袤	-8239
詼	-8240
軋	-8241
锭	-8242
髅	-8243
י	-8244
㹴	-8245
佶	-8246
哚	-8247
沓	-8248
簫	-8249
菓	-8250
蓀	-8251
蝟	-8252
蹠	-8253
銼	-8254
餃	-8255
ï	-8256
ð	-8257
ぐ	-8258
僮	-8259
厩	-8260
啃	-8261
崽	-8262
惣	-8263
敝	-8264
汎	-8265
烫	-8266
箐	-8267
缬	-8268
輋	-8269
顼	-8270
傚	-8271
増	-8272
怛	-8273
樋	-8274
淌	-8275
璩	-8276
礽	-8277
绊	-8278
舔	-8279
貘	-8280
贰	-8281
跛	-8282
邝	-8283
銣	-8284
闺	-8285
骈	-8286
ホ	-8287
嘿	-8288
樫	-8289
淩	-8290
溟	-8291
炅	-8292
祛	-8293
綑	-8294
罌	-8295
茧	-8296
蔺	-8297
蛸	-8298
蟑	-8299
诩	-8300
蹴	-8301
鉢	-8302
錕	-8303
鯓	-8304
↔	-8305
墻	-8306
捶	-8307
櫥	-8308
焗	-8309
瘴	-8310
砧	-8311
硯	-8312
膑	-8313
菴	-8314
蟀	-8315
豉	-8316
関	-8317
隰	-8318
ʃ	-8319
囍	-8320
垠	-8321
壅	-8322
枱	-8323
獴	-8324
玑	-8325
瘩	-8326
眈	-8327
舂	-8328
覦	-8329
詡	-8330
鈮	-8331
鉍	-8332
铣	-8333
闓	-8334
馒	-8335
ق	-8336
刨	-8337
嬤	-8338
崂	-8339
揶	-8340
爻	-8341
笺	-8342
繙	-8343
臍	-8344
苎	-8345
苾	-8346
蠱	-8347
軻	-8348
霁	-8349
ف	-8350
‖	-8351
嚣	-8352
囱	-8353
塱	-8354
枭	-8355
歩	-8356
疙	-8357
绫	-8358
袱	-8359
辄	-8360
辎	-8361
镧	-8362
駄	-8363
麂	-8364
̇	-8365
ร	-8366
ざ	-8367
刎	-8368
喫	-8369
廝	-8370
拴	-8371
拽	-8372
撣	-8373
晾	-8374
椴	-8375
楯	-8376
榊	-8377
殓	-8378
毌	-8379
渍	-8380
溱	-8381
溲	-8382
矜	-8383
胛	-8384
蔘	-8385
蛎	-8386
蟋	-8387
褓	-8388
諤	-8389
锆	-8390
阑	-8391
顔	-8392
鱚	-8393
ю	-8394
げ	-8395
仡	-8396
儕	-8397
冴	-8398
噻	-8399
嚎	-8400
孿	-8401
岀	-8402
巻	-8403
徠	-8404
発	-8405
皝	-8406
竅	-8407
繽	-8408
纘	-8409
舛	-8410
菰	-8411
蔵	-8412
蚯	-8413
蛀	-8414
邰	-8415
酝	-8416
锶	-8417
駢	-8418
喔	-8419
堑	-8420
憊	-8421
晔	-8422
櫓	-8423
猬	-8424
珑	-8425
璣	-8426
疋	-8427
肼	-8428
芈	-8429
苜	-8430
荳	-8431
蚵	-8432
鲑	-8433
ý	-8434
ギ	-8435
佢	-8436
倬	-8437
慫	-8438
掐	-8439
汊	-8440
瀘	-8441
疝	-8442
蓣	-8443
蓿	-8444
轸	-8445
鄜	-8446
鈽	-8447
飭	-8448
驮	-8449
鰧	-8450
리	-8451
û	-8452
亶	-8453
哔	-8454
廩	-8455
旼	-8456
橱	-8457
濯	-8458
瓩	-8459
茁	-8460
葩	-8461
诟	-8462
蹶	-8463
铰	-8464
顥	-8465
鯪	-8466
鰾	-8467
龈	-8468
䲗	-8469
佺	-8470
咩	-8471
咫	-8472
奐	-8473
嬸	-8474
榎	-8475
榫	-8476
溅	-8477
爰	-8478
碶	-8479
磴	-8480
膊	-8481
萁	-8482
诋	-8483
赡	-8484
蹺	-8485
軔	-8486
銬	-8487
鋂	-8488
鎏	-8489
钜	-8490
呱	-8491
哦	-8492
囿	-8493
媾	-8494
寔	-8495
徇	-8496
洹	-8497
湜	-8498
焓	-8499
笞	-8500
粑	-8501
脓	-8502
萇	-8503
藹	-8504
谌	-8505
郅	-8506
鎵	-8507
鵟	-8508
ě	-8509
ו	-8510
寐	-8511
嵬	-8512
慤	-8513
炖	-8514
犒	-8515
禕	-8516
糅	-8517
绚	-8518
舘	-8519
逋	-8520
郫	-8521
阉	-8522
隷	-8523
鴛	-8524
†	-8525
ピ	-8526
劵	-8527
咁	-8528
嗇	-8529
嚙	-8530
廍	-8531
惘	-8532
愨	-8533
朮	-8534
洶	-8535
淒	-8536
狨	-8537
玘	-8538
琺	-8539
瞧	-8540
蒞	-8541
蒽	-8542
褥	-8543
詒	-8544
譁	-8545
轆	-8546
錚	-8547
น	-8548
噓	-8549
栒	-8550
渙	-8551
犰	-8552
狳	-8553
瓠	-8554
皙	-8555
磕	-8556
箫	-8557
苫	-8558
荽	-8559
谪	-8560
酆	-8561
陉	-8562
鮎	-8563
黟	-8564
ù	-8565
ń	-8566
◎	-8567
ベ	-8568
嵙	-8569
棨	-8570
泫	-8571
睁	-8572
苈	-8573
莅	-8574
藪	-8575
蠑	-8576
讧	-8577
輓	-8578
鉈	-8579
鍀	-8580
钺	-8581
闌	-8582
驭	-8583
鶻	-8584
ج	-8585
へ	-8586
嘢	-8587
媧	-8588
孳	-8589
弢	-8590
暄	-8591
洺	-8592
烬	-8593
簕	-8594
腑	-8595
蜕	-8596
謐	-8597
贍	-8598
辫	-8599
鋇	-8600
録	-8601
鍔	-8602
铿	-8603
饗	-8604
骞	-8605
鹑	-8606
唄	-8607
墬	-8608
拭	-8609
牘	-8610
紘	-8611
蜊	-8612
觴	-8613
辇	-8614
釔	-8615
馗	-8616
驒	-8617
न	-8618
囧	-8619
垅	-8620
嵴	-8621
幗	-8622
拣	-8623
晩	-8624
楽	-8625
榖	-8626
濘	-8627
牦	-8628
痲	-8629
穂	-8630
葭	-8631
蛊	-8632
赘	-8633
鉭	-8634
颢	-8635
鲢	-8636
黝	-8637
ì	-8638
έ	-8639
ъ	-8640
ة	-8641
ṣ	-8642
ペ	-8643
孃	-8644
屌	-8645
昺	-8646
暘	-8647
枸	-8648
涣	-8649
璁	-8650
稃	-8651
绀	-8652
脣	-8653
荸	-8654
袂	-8655
踊	-8656
躉	-8657
逖	-8658
镂	-8659
閡	-8660
闔	-8661
靓	-8662
饺	-8663
대	-8664
¥	-8665
ą	-8666
̃	-8667
ḥ	-8668
乜	-8669
凪	-8670
刍	-8671
圪	-8672
幪	-8673
懊	-8674
捺	-8675
榧	-8676
泷	-8677
溆	-8678
稈	-8679
纣	-8680
茯	-8681
藿	-8682
蟎	-8683
蠵	-8684
訕	-8685
郦	-8686
惫	-8687
慟	-8688
搐	-8689
淬	-8690
熠	-8691
牴	-8692
砻	-8693
簸	-8694
芻	-8695
蘸	-8696
蟄	-8697
诒	-8698
輜	-8699
鎰	-8700
鱀	-8701
麿	-8702
黼	-8703
ि	-8704
ṭ	-8705
ㄨ	-8706
倜	-8707
倣	-8708
凛	-8709
剁	-8710
嗝	-8711
孑	-8712
岖	-8713
徕	-8714
慚	-8715
拈	-8716
攫	-8717
淠	-8718
濉	-8719
瓌	-8720
睑	-8721
蓁	-8722
蛏	-8723
諍	-8724
谗	-8725
饅	-8726
M	-8727
ك	-8728
剡	-8729
嗟	-8730
尪	-8731
廨	-8732
惲	-8733
棂	-8734
樾	-8735
燻	-8736
牂	-8737
磬	-8738
苌	-8739
苕	-8740
讖	-8741
豨	-8742
踴	-8743
鏵	-8744
镭	-8745
飚	-8746
黻	-8747
T	-8748
ɕ	-8749
ʔ	-8750
榉	-8751
澶	-8752
疡	-8753
眨	-8754
砭	-8755
磾	-8756
箋	-8757
绾	-8758
羸	-8759
菘	-8760
詆	-8761
贽	-8762
鋯	-8763
鏐	-8764
鑭	-8765
镠	-8766
阚	-8767
饕	-8768
驩	-8769
ش	-8770
ก	-8771
伕	-8772
侂	-8773
呦	-8774
嚏	-8775
坻	-8776
嬛	-8777
瀅	-8778
芊	-8779
襖	-8780
觊	-8781
觎	-8782
郛	-8783
郷	-8784
酢	-8785
銦	-8786
钤	-8787
锢	-8788
闿	-8789
雎	-8790
靄	-8791
頫	-8792
鯷	-8793
¬	-8794
佾	-8795
嗲	-8796
垸	-8797
悸	-8798
惮	-8799
柞	-8800
沣	-8801
獭	-8802
甑	-8803
耜	-8804
膈	-8805
螭	-8806
鍬	-8807
铐	-8808
锴	-8809
霈	-8810
頊	-8811
鲇	-8812
ˇ	-8813
ר	-8814
म	-8815
冇	-8816
呜	-8817
搪	-8818
槙	-8819
炘	-8820
牍	-8821
狛	-8822
砹	-8823
笆	-8824
笪	-8825
紺	-8826
莨	-8827
蘅	-8828
讫	-8829
诙	-8830
輦	-8831
迩	-8832
釩	-8833
鏖	-8834
铍	-8835
髖	-8836
鶉	-8837
亙	-8838
仃	-8839
兢	-8840
凈	-8841
唧	-8842
喋	-8843
嗩	-8844
嗶	-8845
嘈	-8846
廪	-8847
怂	-8848
扦	-8849
昐	-8850
毽	-8851
汹	-8852
滏	-8853
濞	-8854
畹	-8855
眞	-8856
碛	-8857
祎	-8858
秆	-8859
稙	-8860
纫	-8861
胧	-8862
脍	-8863
舎	-8864
輅	-8865
邙	-8866
顳	-8867
鶚	-8868
ṇ	-8869
ヴ	-8870
ㄚ	-8871
倔	-8872
勰	-8873
呷	-8874
嘘	-8875
埴	-8876
嶂	-8877
枞	-8878
狽	-8879
糰	-8880
芗	-8881
蒺	-8882
蓖	-8883
諶	-8884
讣	-8885
賡	-8886
轲	-8887
錇	-8888
镳	-8889
騏	-8890
鸲	-8891
김	-8892
͡	-8893
ِ	-8894
ั	-8895
เ	-8896
俁	-8897
効	-8898
呻	-8899
嘏	-8900
噗	-8901
坌	-8902
姉	-8903
崃	-8904
廸	-8905
枳	-8906
桤	-8907
泚	-8908
淼	-8909
疸	-8910
痤	-8911
胳	-8912
酞	-8913
饉	-8914
魘	-8915
鸝	-8916
鹀	-8917
鼯	-8918
다	-8919
ư	-8920
ה	-8921
■	-8922
丶	-8923
仞	-8924
呸	-8925
噱	-8926
峤	-8927
捅	-8928
柊	-8929
柽	-8930
焱	-8931
玥	-8932
珽	-8933
肮	-8934
訌	-8935
酣	-8936
鉄	-8937
銑	-8938
鍇	-8939
鍰	-8940
鍶	-8941
铆	-8942
锗	-8943
隣	-8944
颛	-8945
鰹	-8946
鲹	-8947
鸕	-8948
鹞	-8949
ή	-8950
べ	-8951
劏	-8952
坭	-8953
垌	-8954
娲	-8955
屐	-8956
巂	-8957
廡	-8958
暧	-8959
沩	-8960
燿	-8961
瑈	-8962
緲	-8963
翥	-8964
蚋	-8965
诂	-8966
蹬	-8967
锕	-8968
鬨	-8969
지	-8970
ง	-8971
ย	-8972
仝	-8973
俎	-8974
哋	-8975
壆	-8976
嶝	-8977
徨	-8978
掰	-8979
泯	-8980
洸	-8981
浐	-8982
湣	-8983
溏	-8984
煚	-8985
琯	-8986
秸	-8987
緘	-8988
翳	-8989
荏	-8990
莠	-8991
趺	-8992
酈	-8993
铳	-8994
铼	-8995
骯	-8996
髹	-8997
鬲	-8998
鮗	-8999
鲆	-9000
鳟	-9001
鸛	-9002
鸵	-9003
龑	-9004
哏	-9005
啰	-9006
圏	-9007
塽	-9008
対	-9009
撬	-9010
楙	-9011
燄	-9012
璈	-9013
癥	-9014
祆	-9015
祔	-9016
籁	-9017
罟	-9018
胝	-9019
舢	-9020
衹	-9021
訃	-9022
谑	-9023
鉸	-9024
鑀	-9025
锵	-9026
饬	-9027
鲃	-9028
鼹	-9029
아	-9030
क	-9031
்	-9032
づ	-9033
俣	-9034
劢	-9035
嚥	-9036
枥	-9037
樨	-9038
涮	-9039
湫	-9040
濰	-9041
炁	-9042
痣	-9043
矇	-9044
绽	-9045
蔼	-9046
蕎	-9047
蛆	-9048
蛉	-9049
襦	-9050
躪	-9051
鄄	-9052
鄖	-9053
鋦	-9054
铈	-9055
鞣	-9056
餮	-9057
鱟	-9058
鸪	-9059
ز	-9060
≈	-9061
ユ	-9062
伝	-9063
埂	-9064
埸	-9065
塩	-9066
姣	-9067
尙	-9068
怙	-9069
濊	-9070
濶	-9071
筊	-9072
綉	-9073
绷	-9074
腩	-9075
虻	-9076
裱	-9077
诘	-9078
贄	-9079
邡	-9080
鈿	-9081
鋆	-9082
钌	-9083
铛	-9084
镞	-9085
鬟	-9086
鯒	-9087
鱥	-9088
黥	-9089
정	-9090
한	-9091
ğ	-9092
ύ	-9093
स	-9094
อ	-9095
∶	-9096
仟	-9097
勲	-9098
哎	-9099
噝	-9100
圮	-9101
婧	-9102
巯	-9103
擧	-9104
朧	-9105
梣	-9106
瀞	-9107
痔	-9108
祓	-9109
窈	-9110
縝	-9111
纭	-9112
胯	-9113
芡	-9114
莴	-9115
蔴	-9116
藺	-9117
袴	-9118
裒	-9119
蹋	-9120
郾	-9121
鈀	-9122
霽	-9123
颯	-9124
鬘	-9125
鳔	-9126
鳝	-9127
鹗	-9128
가	-9129
ɪ	-9130
א	-9131
ㄇ	-9132
侥	-9133
咙	-9134
嗡	-9135
崆	-9136
恵	-9137
満	-9138
犊	-9139
磧	-9140
粧	-9141
缭	-9142
肟	-9143
胫	-9144
葳	-9145
谧	-9146
鋌	-9147
錸	-9148
髂	-9149
라	-9150
ა	-9151
≠	-9152
ぼ	-9153
䴉	-9154
咭	-9155
嚈	-9156
埡	-9157
渟	-9158
炆	-9159
珺	-9160
睺	-9161
祢	-9162
箓	-9163
簃	-9164
芫	-9165
蛰	-9166
赳	-9167
逹	-9168
鉏	-9169
銪	-9170
髑	-9171
鱵	-9172
鱿	-9173
鳎	-9174
鷂	-9175
鹧	-9176
사	-9177
ל	-9178
ม	-9179
ṃ	-9180
々	-9181
吮	-9182
咗	-9183
奂	-9184
姝	-9185
峁	-9186
廆	-9187
拏	-9188
櫸	-9189
灃	-9190
炕	-9191
煨	-9192
瑷	-9193
癭	-9194
盥	-9195
睬	-9196
砺	-9197
硏	-9198
笳	-9199
篦	-9200
缇	-9201
缗	-9202
翀	-9203
臾	-9204
辺	-9205
迢	-9206
郇	-9207
鄆	-9208
鈸	-9209
鉲	-9210
镓	-9211
閂	-9212
鲟	-9213
鶓	-9214
鹌	-9215
œ	-9216
ى	-9217
ะ	-9218
ㄐ	-9219
俪	-9220
円	-9221
劊	-9222
啖	-9223
圀	-9224
実	-9225
峄	-9226
恫	-9227
挞	-9228
昰	-9229
晸	-9230
煖	-9231
猁	-9232
猞	-9233
葯	-9234
薌	-9235
蚱	-9236
褔	-9237
鄣	-9238
鑛	-9239
铪	-9240
閲	-9241
鳀	-9242
鸻	-9243
ש	-9244
ط	-9245
∥	-9246
〖	-9247
〗	-9248
ゼ	-9249
凫	-9250
劻	-9251
媯	-9252
廄	-9253
椁	-9254
殁	-9255
氬	-9256
浈	-9257
潺	-9258
獒	-9259
玆	-9260
硐	-9261
窰	-9262
箝	-9263
翕	-9264
耨	-9265
胍	-9266
躏	-9267
郿	-9268
銻	-9269
鑊	-9270
阂	-9271
阊	-9272
颞	-9273
鬩	-9274
鰩	-9275
鲽	-9276
도	-9277
원	-9278
劄	-9279
卬	-9280
唃	-9281
啥	-9282
啲	-9283
噌	-9284
噠	-9285
団	-9286
圉	-9287
妫	-9288
姗	-9289
惚	-9290
戕	-9291
柒	-9292
栻	-9293
泱	-9294
熨	-9295
獁	-9296
瞼	-9297
礪	-9298
縈	-9299
缵	-9300
茌	-9301
荩	-9302
萣	-9303
蒔	-9304
蕤	-9305
蝾	-9306
蠊	-9307
袄	-9308
訐	-9309
貊	-9310
鐙	-9311
閼	-9312
顓	-9313
顴	-9314
기	-9315
에	-9316
מ	-9317
त	-9318
ว	-9319
ォ	-9320
卹	-9321
吱	-9322
咧	-9323
啪	-9324
噲	-9325
懵	-9326
戔	-9327
摭	-9328
暎	-9329
樗	-9330
獬	-9331
皰	-9332
総	-9333
薮	-9334
螨	-9335
隹	-9336
頼	-9337
鬻	-9338
鲂	-9339
ɑ	-9340
щ	-9341
ُ	-9342
ْ	-9343
ท	-9344
廕	-9345
憍	-9346
戢	-9347
浯	-9348
澚	-9349
畬	-9350
糍	-9351
綰	-9352
繚	-9353
纍	-9354
苧	-9355
蟜	-9356
諲	-9357
贇	-9358
鈇	-9359
銶	-9360
钫	-9361
雑	-9362
雩	-9363
鲳	-9364
鶿	-9365
鹄	-9366
प	-9367
ी	-9368
ส	-9369
≡	-9370
儆	-9371
嘜	-9372
嫚	-9373
嵘	-9374
悝	-9375
惭	-9376
殞	-9377
氩	-9378
滉	-9379
牻	-9380
琿	-9381
碴	-9382
礬	-9383
笄	-9384
篾	-9385
缄	-9386
胼	-9387
荛	-9388
莿	-9389
蜇	-9390
覧	-9391
谶	-9392
跸	-9393
逑	-9394
郕	-9395
郞	-9396
阕	-9397
霎	-9398
韫	-9399
鵪	-9400
ż	-9401
ल	-9402
両	-9403
佇	-9404
唬	-9405
啾	-9406
噜	-9407
圹	-9408
売	-9409
峥	-9410
嶙	-9411
揹	-9412
枹	-9413
桫	-9414
槊	-9415
汭	-9416
畯	-9417
瞥	-9418
祧	-9419
窍	-9420
竦	-9421
籐	-9422
薏	-9423
誾	-9424
豸	-9425
貉	-9426
鐺	-9427
钽	-9428
铌	-9429
闱	-9430
騾	-9431
鴯	-9432
鵠	-9433
鹩	-9434
F	-9435
ř	-9436
♥	-9437
叁	-9438
唭	-9439
嗤	-9440
宍	-9441
烜	-9442
狎	-9443
秭	-9444
竈	-9445
箸	-9446
胴	-9447
腆	-9448
舐	-9449
芃	-9450
菑	-9451
萵	-9452
薷	-9453
蛔	-9454
螄	-9455
襁	-9456
賚	-9457
鋨	-9458
鏑	-9459
鐲	-9460
钷	-9461
铑	-9462
雫	-9463
馍	-9464
ę	-9465
พ	-9466
ἀ	-9467
ヨ	-9468
ㄝ	-9469
ㄩ	-9470
伋	-9471
俬	-9472
嘹	-9473
埵	-9474
嬋	-9475
庹	-9476
恸	-9477
捫	-9478
橿	-9479
滓	-9480
烺	-9481
玕	-9482
畋	-9483
疥	-9484
瞌	-9485
硖	-9486
磔	-9487
禩	-9488
緱	-9489
肓	-9490
茔	-9491
菽	-9492
裾	-9493
詧	-9494
豢	-9495
邗	-9496
釙	-9497
釤	-9498
驄	-9499
鮰	-9500
鳙	-9501
黧	-9502
õ	-9503
ơ	-9504
ǎ	-9505
خ	-9506
ิ	-9507
ぬ	-9508
咚	-9509
噢	-9510
堉	-9511
崐	-9512
嵗	-9513
庥	-9514
撩	-9515
槤	-9516
渌	-9517
熜	-9518
犨	-9519
狍	-9520
瘁	-9521
盅	-9522
礴	-9523
筮	-9524
臬	-9525
茀	-9526
蛳	-9527
衽	-9528
覡	-9529
赧	-9530
郏	-9531
鄠	-9532
闼	-9533
饌	-9534
鸬	-9535
鹮	-9536
黠	-9537
인	-9538
§	-9539
य	-9540
⇒	-9541
∧	-9542
匏	-9543
嚷	-9544
埒	-9545
寳	-9546
摑	-9547
旂	-9548
滹	-9549
焖	-9550
燏	-9551
猊	-9552
碭	-9553
絀	-9554
舨	-9555
蘄	-9556
蚝	-9557
衊	-9558
觚	-9559
詁	-9560
諴	-9561
謾	-9562
讴	-9563
谙	-9564
豳	-9565
辋	-9566
邴	-9567
酊	-9568
鋹	-9569
钹	-9570
锜	-9571
镒	-9572
闳	-9573
隠	-9574
韁	-9575
颙	-9576
飴	-9577
髪	-9578
鬢	-9579
鹚	-9580
수	-9581
ё	-9582
ص	-9583
व	-9584
่	-9585
╱	-9586
〞	-9587
ㄕ	-9588
偲	-9589
匄	-9590
啬	-9591
垚	-9592
峩	-9593
帯	-9594
徬	-9595
忞	-9596
忡	-9597
悽	-9598
斫	-9599
暌	-9600
澪	-9601
狁	-9602
璥	-9603
眸	-9604
窠	-9605
竜	-9606
粕	-9607
紬	-9608
縁	-9609
繖	-9610
纾	-9611
缜	-9612
罈	-9613
罘	-9614
腴	-9615
薜	-9616
螣	-9617
酩	-9618
銲	-9619
鋐	-9620
餞	-9621
饯	-9622
騭	-9623
髡	-9624
鮀	-9625
鱯	-9626
鲮	-9627
鴝	-9628
鹈	-9629
고	-9630
나	-9631
어	-9632
ָ	-9633
द	-9634
ヘ	-9635
偁	-9636
卽	-9637
嗔	-9638
嚟	-9639
囷	-9640
埈	-9641
嬗	-9642
悫	-9643
昪	-9644
栝	-9645
犄	-9646
犷	-9647
狈	-9648
琍	-9649
瑱	-9650
痂	-9651
砒	-9652
籙	-9653
籟	-9654
粄	-9655
荤	-9656
菪	-9657
蕗	-9658
蚴	-9659
謄	-9660
赊	-9661
遄	-9662
韞	-9663
韪	-9664
頦	-9665
駅	-9666
騁	-9667
鲉	-9668
ţ	-9669
ʻ	-9670
ա	-9671
乗	-9672
佻	-9673
倌	-9674
勷	-9675
噏	-9676
崢	-9677
嶲	-9678
廞	-9679
徂	-9680
旄	-9681
旸	-9682
柢	-9683
熲	-9684
燴	-9685
珐	-9686
珦	-9687
甡	-9688
甪	-9689
畀	-9690
癩	-9691
砰	-9692
硃	-9693
絛	-9694
腧	-9695
臏	-9696
茭	-9697
菉	-9698
螅	-9699
觞	-9700
諄	-9701
踹	-9702
逄	-9703
鏜	-9704
鏤	-9705
铟	-9706
铷	-9707
閾	-9708
颺	-9709
骶	-9710
鹎	-9711
서	-9712
성	-9713
하	-9714
÷	-9715
ƒ	-9716
ǣ	-9717
ד	-9718
أ	-9719
ạ	-9720
▪	-9721
♭	-9722
ぞ	-9723
ㄥ	-9724
䓬	-9725
俅	-9726
僊	-9727
冨	-9728
冽	-9729
哽	-9730
喰	-9731
妣	-9732
孱	-9733
屻	-9734
彫	-9735
愆	-9736
搵	-9737
擀	-9738
朊	-9739
栿	-9740
椤	-9741
橹	-9742
烩	-9743
犸	-9744
瞽	-9745
禳	-9746
篪	-9747
簍	-9748
粳	-9749
聃	-9750
莧	-9751
蓆	-9752
虺	-9753
螫	-9754
衾	-9755
譞	-9756
豕	-9757
遒	-9758
鍥	-9759
鍼	-9760
鐫	-9761
鐿	-9762
钇	-9763
閬	-9764
闥	-9765
駟	-9766
髭	-9767
鲎	-9768
齶	-9769
요	-9770
의	-9771
ɣ	-9772
ʨ	-9773
ן	-9774
↑	-9775
〝	-9776
俥	-9777
値	-9778
刽	-9779
卟	-9780
吖	-9781
咋	-9782
哒	-9783
哷	-9784
喳	-9785
帙	-9786
広	-9787
弇	-9788
忐	-9789
忑	-9790
拧	-9791
栲	-9792
樛	-9793
欉	-9794
気	-9795
灤	-9796
燹	-9797
牝	-9798
稲	-9799
窕	-9800
纔	-9801
纛	-9802
罨	-9803
羕	-9804
胂	-9805
芨	-9806
茆	-9807
藦	-9808
褸	-9809
鈁	-9810
镗	-9811
镫	-9812
闩	-9813
髙	-9814
鮒	-9815
경	-9816
문	-9817
미	-9818
스	-9819
ј	-9820
ב	-9821
ض	-9822
ี	-9823
ი	-9824
♪	-9825
♯	-9826
ㄆ	-9827
䱛	-9828
丼	-9829
僰	-9830
叨	-9831
哙	-9832
圯	-9833
垟	-9834
壙	-9835
娓	-9836
屜	-9837
幷	-9838
廻	-9839
徼	-9840
怆	-9841
曽	-9842
柰	-9843
桕	-9844
淯	-9845
炤	-9846
瘙	-9847
禔	-9848
籓	-9849
絵	-9850
绂	-9851
罽	-9852
萦	-9853
蔹	-9854
誊	-9855
迸	-9856
逯	-9857
鍚	-9858
鑠	-9859
飒	-9860
駡	-9861
髀	-9862
鲲	-9863
鷯	-9864
로	-9865
장	-9866
ő	-9867
े	-9868
া	-9869
ả	-9870
∀	-9871
△	-9872
ㄠ	-9873
䲁	-9874
垵	-9875
姵	-9876
崞	-9877
巿	-9878
悴	-9879
憙	-9880
揍	-9881
斓	-9882
汧	-9883
洎	-9884
浞	-9885
淙	-9886
牀	-9887
甙	-9888
畦	-9889
畷	-9890
砮	-9891
磘	-9892
禑	-9893
笕	-9894
紱	-9895
蕰	-9896
虯	-9897
蚬	-9898
遨	-9899
銠	-9900
錞	-9901
鏊	-9902
锉	-9903
鞦	-9904
韆	-9905
骜	-9906
魣	-9907
鼷	-9908
국	-9909
보	-9910
선	-9911
ʂ	-9912
ְ	-9913
ּ	-9914
ु	-9915
ễ	-9916
仵	-9917
仼	-9918
咔	-9919
囗	-9920
坩	-9921
埝	-9922
崤	-9923
嶸	-9924
彘	-9925
怦	-9926
挈	-9927
捱	-9928
掄	-9929
晳	-9930
暾	-9931
曩	-9932
杳	-9933
枏	-9934
楮	-9935
浠	-9936
淸	-9937
渑	-9938
燐	-9939
玎	-9940
琤	-9941
琹	-9942
瑢	-9943
璆	-9944
璦	-9945
癆	-9946
瞋	-9947
箦	-9948
紉	-9949
翬	-9950
葷	-9951
蒟	-9952
薫	-9953
蘧	-9954
袓	-9955
詝	-9956
迳	-9957
鈰	-9958
鍘	-9959
鎓	-9960
钪	-9961
钬	-9962
闘	-9963
騄	-9964
鲧	-9965
鲵	-9966
鳊	-9967
鹨	-9968
자	-9969
ә	-9970
ぜ	-9971
ㄉ	-9972
ㄓ	-9973
ㄜ	-9974
ㄟ	-9975
傥	-9976
児	-9977
勦	-9978
唉	-9979
夤	-9980
寀	-9981
懌	-9982
戇	-9983
捌	-9984
旒	-9985
梉	-9986
