<pad>	0
<unk>	0
[CLS]	0
[SEP]	0
[MASK]	0
(	0
)	0
”	0
-	0
.	0
–	0
£	0
€	0
20	-0
19	-1
200	-2
201	-3
▁19	-4
的一	-5
10	-6
▁在	-7
中国	-8
an	-9
18	-10
er	-11
人口	-12
12	-13
in	-14
00	-15
or	-16
公里	-17
可以	-18
▁201	-19
on	-20
政府	-21
公司	-22
日本	-23
11	-24
使用	-25
香港	-26
第一	-27
是一	-28
ar	-29
▁200	-30
的一个	-31
其中	-32
平方	-33
以及	-34
15	-35
la	-36
en	-37
主要	-38
包括	-39
世界	-40
st	-41
16	-42
17	-43
人民	-44
部分	-45
al	-46
平方公里	-47
研究	-48
199	-49
▁他	-50
美國	-51
at	-52
其他	-53
14	-54
中國	-55
一個	-56
因此	-57
13	-58
第二	-59
地区	-60
一个	-61
▁c	-62
大学	-63
代表	-64
30	-65
成為	-66
位於	-67
le	-68
ic	-69
美国	-70
之一	-71
位于	-72
th	-73
自己	-74
▁s	-75
中的	-76
政治	-77
工作	-78
開始	-79
不同	-80
可能	-81
台灣	-82
mu	-83
for	-84
re	-85
中心	-86
成立	-87
行政	-88
25	-89
」,	-90
国家	-91
▁此	-92
198	-93
面积	-94
市镇	-95
中央	-96
▁m	-97
ro	-98
大學	-99
他的	-100
50	-101
▁该	-102
▁《	-103
▁这	-104
年的	-105
is	-106
」。	-107
年代	-108
文化	-109
共和	-110
沒有	-111
上的	-112
表示	-113
國家	-114
▁p	-115
管理	-116
下辖	-117
行星	-118
21	-119
▁由	-120
因為	-121
am	-122
开始	-123
▁199	-124
mula	-125
進行	-126
ch	-127
所有	-128
24	-129
formula	-130
成为	-131
▁但	-132
it	-133
▁b	-134
el	-135
大的	-136
正式	-137
北京	-138
▁而	-139
一些	-140
以下	-141
提供	-142
城市	-143
进行	-144
》,	-145
▁d	-146
23	-147
也是	-148
目前	-149
認為	-150
當時	-151
地區	-152
委员	-153
es	-154
28	-155
電視	-156
作品	-157
▁這	-158
、《	-159
人的	-160
之後	-161
教育	-162
26	-163
上海	-164
27	-165
un	-166
197	-167
電影	-168
他們	-169
重要	-170
▁同	-171
足球	-172
小行星	-173
生活	-174
60	-175
第三	-176
40	-177
ol	-178
▁h	-179
000	-180
zh	-181
学院	-182
方面	-183
没有	-184
il	-185
ac	-186
國際	-187
法国	-188
▁t	-189
as	-190
22	-191
工程	-192
一般	-193
到了	-194
分布	-195
的人	-196
单位	-197
是在	-198
英國	-199
通过	-200
铁路	-201
支持	-202
發展	-203
,200	-204
学名	-205
29	-206
总面积	-207
▁198	-208
地方	-209
需要	-210
獲得	-211
ion	-212
》、《	-213
系統	-214
時間	-215
大利	-216
稱為	-217
建立	-218
印度	-219
的一个市镇	-220
例如	-221
運動	-222
认为	-223
中華	-224
事件	-225
加入	-226
▁大	-227
▁其	-228
就是	-229
系列	-230
主教	-231
所以	-232
最後	-233
属于	-234
發現	-235
100	-236
有一	-237
成功	-238
他们	-239
最高	-240
获得	-241
et	-242
▁g	-243
194	-244
作为	-245
31	-246
全国	-247
臺灣	-248
完成	-249
▁o	-250
存在	-251
自由	-252
通常	-253
人物	-254
音樂	-255
中华	-256
植物	-257
委員	-258
設計	-259
the	-260
方式	-261
受到	-262
作為	-263
擔任	-264
的大	-265
要求	-266
出現	-267
密度	-268
系统	-269
建筑	-270
om	-271
的是	-272
之后	-273
另外	-274
▁f	-275
▁w	-276
共和国	-277
us	-278
了一	-279
後來	-280
斯特	-281
同時	-282
北部	-283
提出	-284
出版	-285
ur	-286
196	-287
ad	-288
是由	-289
国际	-290
id	-291
形成	-292
航空	-293
▁本	-294
▁18	-295
ed	-296
社會	-297
▁194	-298
195	-299
二十	-300
南部	-301
然而	-302
ing	-303
民主	-304
得到	-305
民國	-306
历史	-307
世纪	-308
and	-309
》。	-310
2011	-311
具有	-312
只有	-313
車站	-314
35	-315
遊戲	-316
除了	-317
控制	-318
許多	-319
中共	-320
70	-321
运动	-322
造成	-323
西班	-324
时的	-325
影響	-326
西班牙	-327
但是	-328
名的	-329
委员会	-330
经济	-331
女性	-332
1,	-333
:“	-334
革命	-335
▁n	-336
▁a	-337
80	-338
人口密度	-339
取得	-340
出生	-341
一直	-342
合作	-343
发现	-344
发展	-345
期間	-346
2010	-347
德国	-348
主席	-349
组织	-350
主义	-351
▁l	-352
有限	-353
如果	-354
服務	-355
▁不	-356
交通	-357
ig	-358
学校	-359
任何	-360
發生	-361
因为	-362
海拔	-363
担任	-364
接受	-365
增加	-366
ent	-367
自己的	-368
电影	-369
非常	-370
社会	-371
雖然	-372
街道	-373
活動	-374
屬於	-375
之間	-376
英国	-377
省的一个市镇	-378
負責	-379
節目	-380
总人口	-381
也有	-382
時期	-383
时间	-384
设计	-385
参加	-386
另一	-387
都是	-388
ow	-389
故事	-390
行的	-391
首次	-392
已經	-393
▁"	-394
面積	-395
根據	-396
前往	-397
比賽	-398
称为	-399
变化	-400
由於	-401
37	-402
36	-403
根据	-404
附近	-405
自治	-406
專輯	-407
為了	-408
▁它	-409
學校	-410
問題	-411
名為	-412
成員	-413
公路	-414
甚至	-415
ra	-416
角色	-417
之前	-418
這個	-419
方法	-420
歷史	-421
游戏	-422
38	-423
▁有	-424
▁阿	-425
同时	-426
下辖的一个	-427
▁195	-428
版本	-429
冠軍	-430
民族	-431
經濟	-432
宣布	-433
大陆	-434
人民共和国	-435
十二	-436
os	-437
已经	-438
世紀	-439
不是	-440
时期	-441
直接	-442
90	-443
大量	-444
完全	-445
關係	-446
34	-447
这个	-448
組織	-449
進入	-450
im	-451
新的	-452
參與	-453
重新	-454
製作	-455
不能	-456
▁由於	-457
iv	-458
▁197	-459
2009	-460
保护	-461
並且	-462
性的	-463
推出	-464
中华人民共和国	-465
:「	-466
2012	-467
br	-468
分別	-469
▁此外	-470
影响	-471
主義	-472
技术	-473
歌曲	-474
這些	-475
39	-476
高度	-477
生物	-478
当时	-479
決定	-480
电视	-481
战争	-482
位置	-483
學生	-484
參加	-485
利用	-486
法院	-487
▁of	-488
的地	-489
年至	-490
下辖以下	-491
建築	-492
自然	-493
级行政	-494
形式	-495
发生	-496
很多	-497
基本	-498
之间	-499
出现	-500
han	-501
學院	-502
最佳	-503
em	-504
od	-505
包含	-506
最終	-507
一起	-508
國民	-509
两个	-510
蒙古	-511
▁k	-512
问题	-513
乡镇	-514
地的	-515
太平	-516
▁总面积	-517
歐洲	-518
直到	-519
ia	-520
ir	-521
教授	-522
意大利	-523
兩個	-524
,000	-525
擁有	-526
委員會	-527
第四	-528
是下辖的一个	-529
下的	-530
法國	-531
發行	-532
安全	-533
▁」	-534
利亚	-535
的一個	-536
共有	-537
能力	-538
ut	-539
主任	-540
后来	-541
下辖以下地区	-542
戰爭	-543
中華民國	-544
▁然而	-545
——	-546
功能	-547
尼亚	-548
美元	-549
45	-550
克斯	-551
使得	-552
的特	-553
作用	-554
▁196	-555
三年	-556
期间	-557
▁the	-558
32	-559
有限公司	-560
平均	-561
時代	-562
巴士	-563
德國	-564
48	-565
▁小行星	-566
的情	-567
2008	-568
共同	-569
再次	-570
球隊	-571
许多	-572
人口为	-573
通過	-574
定的	-575
▁同年	-576
是法国	-577
级行政单位	-578
乡镇级行政单位	-579
2001	-580
33	-581
进入	-582
而且	-583
不同的	-584
解放	-585
等地	-586
2000	-587
居民	-588
车站	-589
这些	-590
十一	-591
對於	-592
部份	-593
法律	-594
▁其中	-595
他在	-596
是下辖的一个乡镇级行政单位	-597
2013	-598
活动	-599
特別	-600
一次	-601
演出	-602
,“	-603
学家	-604
▁另外	-605
成的	-606
政策	-607
希望	-608
,《	-609
英文	-610
下的一个	-611
的主	-612
男性	-613
音乐	-614
最终	-615
尼亞	-616
▁v	-617
聯賽	-618
机车	-619
仍然	-620
ot	-621
命名	-622
▁該	-623
選舉	-624
的名	-625
或者	-626
拉斯	-627
模式	-628
的新	-629
聯合	-630
▁2013	-631
op	-632
方向	-633
天主教	-634
相同	-635
無法	-636
由于	-637
是一个	-638
學家	-639
2007	-640
唯一	-641
um	-642
ag	-643
▁2012	-644
联合	-645
中国大陆	-646
早期	-647
▁该市镇	-648
图示	-649
一種	-650
2006	-651
獨立	-652
人口变化	-653
计划	-654
书记	-655
人口变化图示	-656
ec	-657
年时的	-658
▁st	-659
▁2008	-660
鐵路	-661
清朝	-662
ap	-663
產生	-664
基督	-665
会议	-666
▁新	-667
2,	-668
舉行	-669
來自	-670
大多	-671
現在	-672
2014	-673
主持	-674
原因	-675
罗斯	-676
第一次	-677
總統	-678
ation	-679
計劃	-680
%,	-681
」、	-682
▁李	-683
浙江	-684
全球	-685
宗教	-686
羅斯	-687
天津	-688
年在	-689
加拿	-690
年时的人口为	-691
75	-692
用于	-693
全部	-694
ip	-695
集團	-696
学生	-697
▁2010	-698
高速	-699
关系	-700
出的	-701
地球	-702
政治人物	-703
欧洲	-704
▁in	-705
列车	-706
南京	-707
同年	-708
官方	-709
领导	-710
物理	-711
日在	-712
▁2011	-713
这一	-714
共产	-715
等人	-716
子的	-717
▁2014	-718
2005	-719
司令	-720
四川	-721
决定	-722
進士	-723
▁j	-724
65	-725
并且	-726
文物	-727
斯坦	-728
越南	-729
制度	-730
最大	-731
生产	-732
服务	-733
%。	-734
路線	-735
人士	-736
葡萄	-737
聯盟	-738
▁西	-739
結束	-740
生產	-741
为了	-742
最初	-743
天文	-744
結果	-745
中文	-746
ex	-747
大陸	-748
描述	-749
家庭	-750
州市	-751
多的	-752
超過	-753
190	-754
独立	-755
著名	-756
指出	-757
▁自	-758
▁由于	-759
速度	-760
公共	-761
最早	-762
开发	-763
▁當	-764
是一個	-765
比赛	-766
▁一	-767
最后	-768
的主要	-769
博物	-770
會議	-771
賽事	-772
▁她	-773
個人	-774
開發	-775
技術	-776
繼續	-777
博士	-778
女子	-779
西部	-780
死亡	-781
採用	-782
加拿大	-783
有的	-784
青年	-785
不少	-786
藝術	-787
傳統	-788
分别	-789
機場	-790
利亞	-791
者的	-792
科学	-793
現時	-794
海軍	-795
福建	-796
亞洲	-797
美洲	-798
動物	-799
出身	-800
采用	-801
毕业	-802
ist	-803
來的	-804
结构	-805
最大的	-806
阿拉	-807
是中国	-808
▁4	-809
年人口	-810
产生	-811
工业	-812
相關	-813
去世	-814
演唱	-815
年起	-816
ul	-817
公尺	-818
▁r	-819
64	-820
集团	-821
以上	-822
大部分	-823
皇帝	-824
▁目前	-825
改革	-826
歌手	-827
语言	-828
▁3	-829
建设	-830
東京	-831
艺术	-832
总统	-833
加上	-834
引起	-835
科技	-836
民国	-837
四年	-838
導致	-839
格蘭	-840
500	-841
新聞	-842
畢業	-843
共和國	-844
▁曾	-845
▁2009	-846
」、「	-847
外交	-848
▁是	-849
相當	-850
▁2	-851
土地	-852
攻擊	-853
行動	-854
台北	-855
南極	-856
里斯	-857
▁王	-858
取代	-859
單位	-860
設有	-861
立法	-862
属的	-863
▁因此	-864
av	-865
家族	-866
分布于	-867
国民	-868
年度	-869
太平洋	-870
对于	-871
棲息	-872
至今	-873
科的	-874
列表	-875
55	-876
每年	-877
的小	-878
羅馬	-879
▁formula	-880
▁,	-881
联赛	-882
語言	-883
元年	-884
河南	-885
父親	-886
名为	-887
透過	-888
47	-889
ba	-890
播出	-891
於是	-892
距離	-893
第二次	-894
十分	-895
型的	-896
居住	-897
公分	-898
第五	-899
流域	-900
資料	-901
表演	-902
澳門	-903
月台	-904
重要的	-905
og	-906
作家	-907
ce	-908
组成	-909
西北	-910
列車	-911
之外	-912
sa	-913
佛教	-914
地下	-915
並在	-916
▁南	-917
军事	-918
目的	-919
罗马	-920
必須	-921
湖南	-922
拥有	-923
武器	-924
人員	-925
該國	-926
ter	-927
原本	-928
▁2007	-929
動畫	-930
68	-931
玩家	-932
2004	-933
ie	-934
95	-935
导致	-936
組成	-937
出任	-938
顯示	-939
內容	-940
五年	-941
反应	-942
动物	-943
明朝	-944
可以指	-945
戰鬥	-946
道路	-947
公園	-948
教堂	-949
机构	-950
多次	-951
分析	-952
回到	-953
是指	-954
西南	-955
處理	-956
遭到	-957
广东	-958
分子	-959
oc	-960
部隊	-961
帝國	-962
,19	-963
面的	-964
机场	-965
在此	-966
出了	-967
98	-968
有關	-969
,2009	-970
苏联	-971
可達	-972
左右	-973
建造	-974
▁2015	-975
▁1	-976
ak	-977
教區	-978
▁2006	-979
2019	-980
一年	-981
▁8	-982
唱片	-983
經過	-984
韓國	-985
共产党	-986
為主	-987
▁但是	-988
西亚	-989
的第一	-990
球队	-991
管轄	-992
熱帶	-993
还有	-994
信息	-995
2015	-996
太阳	-997
兄弟	-998
發表	-999
身份	-1000
巴西	-1001
加坡	-1002
紀錄	-1003
ers	-1004
又名	-1005
市場	-1006
帝国	-1007
过程	-1008
负责	-1009
分為	-1010
成员	-1011
的一部分	-1012
下的一个种	-1013
第十	-1014
元素	-1015
她的	-1016
、“	-1017
曾經	-1018
演員	-1019
▁中	-1020
3,	-1021
▁5	-1022
保持	-1023
sp	-1024
主角	-1025
山东	-1026
虽然	-1027
概念	-1028
部的	-1029
好的	-1030
朝鲜	-1031
用的	-1032
當地	-1033
67	-1034
hk	-1035
经过	-1036
公元	-1037
人類	-1038
範圍	-1039
改為	-1040
ov	-1041
计算	-1042
思想	-1043
舉辦	-1044
單曲	-1045
ay	-1046
部长	-1047
99	-1048
来自	-1049
▁高	-1050
都有	-1051
團體	-1052
▁<	-1053
所在	-1054
將軍	-1055
普通	-1056
小說	-1057
精神	-1058
现在	-1059
44	-1060
的首	-1061
关于	-1062
任命	-1063
二年	-1064
和平	-1065
群島	-1066
警察	-1067
化的	-1068
計畫	-1069
米的	-1070
西亞	-1071
力量	-1072
一步	-1073
交易	-1074
▁该市镇总面积	-1075
一名	-1076
區域	-1077
現代	-1078
限制	-1079
▁三	-1080
ind	-1081
bo	-1082
▁7	-1083
,「	-1084
部队	-1085
俄罗斯	-1086
军队	-1087
十年	-1088
▁雖然	-1089
議員	-1090
数据	-1091
我们	-1092
现代	-1093
俄羅斯	-1094
公開	-1095
紀念	-1096
非洲	-1097
▁以	-1098
只是	-1099
標準	-1100
排名	-1101
中学	-1102
这种	-1103
ii	-1104
調查	-1105
▁e	-1106
标准	-1107
的前	-1108
▁当	-1109
▁6	-1110
基地	-1111
参与	-1112
內的	-1113
環境	-1114
ard	-1115
不過	-1116
学习	-1117
来的	-1118
生长	-1119
著名的	-1120
董事	-1121
尚未	-1122
人在	-1123
力的	-1124
因而	-1125
及其	-1126
▁!	-1127
電子	-1128
46	-1129
300	-1130
或是	-1131
结束	-1132
接近	-1133
決賽	-1134
我們	-1135
▁根据	-1136
▁根據	-1137
並不	-1138
氧化	-1139
ge	-1140
王朝	-1141
星期	-1142
▁卡	-1143
保護	-1144
ou	-1145
tw	-1146
還有	-1147
是以	-1148
冠军	-1149
海拔高度	-1150
2003	-1151
反對	-1152
中學	-1153
能夠	-1154
制作	-1155
▁re	-1156
行為	-1157
男子	-1158
威廉	-1159
人员	-1160
全國	-1161
殖民	-1162
科學	-1163
程度	-1164
分布於	-1165
反对	-1166
ph	-1167
程序	-1168
伊斯	-1169
軍事	-1170
新加坡	-1171
議會	-1172
▁「	-1173
大会	-1174
選擇	-1175
製造	-1176
表現	-1177
▁北	-1178
85	-1179
专业	-1180
色的	-1181
初期	-1182
97	-1183
不久	-1184
号线	-1185
的高	-1186
理论	-1187
太陽	-1188
斯科	-1189
拍攝	-1190
鰭魚	-1191
媒體	-1192
球員	-1193
巴黎	-1194
知道	-1195
臺北	-1196
過程	-1197
▁2016	-1198
不可	-1199
▁“	-1200
▁至	-1201
隨著	-1202
是否	-1203
流行	-1204
大型	-1205
超过	-1206
阿尔	-1207
西省	-1208
="	-1209
十六	-1210
▁10	-1211
這種	-1212
不明	-1213
但在	-1214
輻鰭魚	-1215
同意	-1216
ab	-1217
小時	-1218
工業	-1219
離開	-1220
輻鰭魚綱	-1221
並於	-1222
继续	-1223
基金	-1224
用於	-1225
創作	-1226
传统	-1227
的海	-1228
體長	-1229
一位	-1230
擊敗	-1231
其中男性	-1232
拉克	-1233
建于	-1234
父亲	-1235
使用的	-1236
方案	-1237
二世	-1238
支援	-1239
hans	-1240
影片	-1241
人工	-1242
投入	-1243
中部	-1244
境内	-1245
量的	-1246
世界大	-1247
執行	-1248
西藏	-1249
te	-1250
則是	-1251
如下	-1252
▁小	-1253
後的	-1254
類似	-1255
葡萄牙	-1256
它的	-1257
sh	-1258
日起	-1259
联邦	-1260
▁马	-1261
實際	-1262
也被	-1263
方的	-1264
qu	-1265
集中	-1266
首都	-1267
公主	-1268
49	-1269
▁圣	-1270
有效	-1271
漫畫	-1272
58	-1273
▁天	-1274
分为	-1275
位於該國	-1276
自治区	-1277
名稱	-1278
企业	-1279
興建	-1280
all	-1281
基础	-1282
協會	-1283
理論	-1284
引擎	-1285
程式	-1286
▁2005	-1287
市的	-1288
指挥	-1289
▁从	-1290
核心	-1291
区域	-1292
成了	-1293
播放	-1294
76	-1295
东北	-1296
只能	-1297
ne	-1298
达到	-1299
云南	-1300
时代	-1301
电子	-1302
少年	-1303
毫米	-1304
斯的	-1305
機構	-1306
项目	-1307
不再	-1308
se	-1309
特别	-1310
解放军	-1311
,199	-1312
州的	-1313
公园	-1314
妻子	-1315
art	-1316
地位	-1317
樂團	-1318
ub	-1319
江苏	-1320
尤其	-1321
的意	-1322
星等	-1323
文件	-1324
一樣	-1325
78	-1326
保留	-1327
台湾	-1328
▁於	-1329
德里	-1330
网络	-1331
2016	-1332
ill	-1333
是一颗	-1334
一世	-1335
举行	-1336
不會	-1337
海域	-1338
▁前	-1339
協助	-1340
中山	-1341
日至	-1342
事務	-1343
42	-1344
na	-1345
河北	-1346
體長可達	-1347
随后	-1348
曾在	-1349
等等	-1350
韩国	-1351
各地	-1352
时候	-1353
銀行	-1354
▁and	-1355
年間	-1356
▁金	-1357
返回	-1358
材料	-1359
",	-1360
朝鮮	-1361
亦有	-1362
实际	-1363
皇家	-1364
;}	-1365
直至	-1366
2002	-1367
发布	-1368
大臣	-1369
纪念	-1370
簡稱	-1371
平台	-1372
收入	-1373
快速	-1374
96	-1375
改为	-1376
是一種	-1377
▁巴	-1378
電腦	-1379
ine	-1380
商業	-1381
結構	-1382
當中	-1383
国王	-1384
體育	-1385
如此	-1386
操作	-1387
▁ch	-1388
重建	-1389
年被	-1390
发行	-1391
年以	-1392
▁安	-1393
公民	-1394
軍隊	-1395
訓練	-1396
提高	-1397
未能	-1398
设立	-1399
ik	-1400
企業	-1401
十八	-1402
海岸	-1403
56	-1404
第六	-1405
中国人民	-1406
if	-1407
up	-1408
公布	-1409
为主	-1410
區的	-1411
▁12	-1412
飛機	-1413
环境	-1414
逐漸	-1415
澳洲	-1416
的研究	-1417
交流	-1418
und	-1419
各種	-1420
經營	-1421
▁例如	-1422
▁de	-1423
羽毛	-1424
▁如果	-1425
ss	-1426
停止	-1427
失去	-1428
▁布	-1429
发表	-1430
▁9	-1431
設立	-1432
并在	-1433
項目	-1434
文字	-1435
广州	-1436
處於	-1437
文物保护	-1438
联盟	-1439
正在	-1440
某些	-1441
▁2017	-1442
高的	-1443
科的其中	-1444
ok	-1445
時候	-1446
三個	-1447
基督教	-1448
节目	-1449
无法	-1450
地利	-1451
的女	-1452
以外	-1453
湖北	-1454
再度	-1455
ell	-1456
▁2018	-1457
逝世	-1458
实验	-1459
高等	-1460
▁17	-1461
▁不過	-1462
產品	-1463
前的	-1464
澳大利	-1465
統治	-1466
生命	-1467
约翰	-1468
命令	-1469
注意	-1470
古代	-1471
生涯	-1472
股份	-1473
俱乐	-1474
结果	-1475
赛季	-1476
▁光	-1477
夏季	-1478
九龍	-1479
de	-1480
▁香港	-1481
斯基	-1482
委会	-1483
德语	-1484
不得	-1485
隧道	-1486
的原	-1487
西方	-1488
嚴重	-1489
文物保护单位	-1490
银行	-1491
57	-1492
指揮	-1493
文學	-1494
朋友	-1495
伯特	-1496
ang	-1497
制造	-1498
轨道	-1499
普遍	-1500
投票	-1501
▁拉	-1502
▁全	-1503
字母	-1504
皇后	-1505
它们	-1506
新闻	-1507
蘇聯	-1508
效力	-1509
66	-1510
是日本	-1511
過去	-1512
職業	-1513
連續	-1514
批准	-1515
為輻鰭魚綱	-1516
▁。	-1517
看到	-1518
1990	-1519
合物	-1520
日的	-1521
希臘	-1522
得以	-1523
著作	-1524
容易	-1525
相关	-1526
研究所	-1527
内容	-1528
瑞典	-1529
乾隆	-1530
路易	-1531
▁2004	-1532
化学	-1533
條約	-1534
南北	-1535
当选	-1536
建成	-1537
相似	-1538
ice	-1539
情况	-1540
分鐘	-1541
协会	-1542
统治	-1543
海军	-1544
避免	-1545
一度	-1546
▁的	-1547
ma	-1548
牠們	-1549
有些	-1550
持續	-1551
文章	-1552
改變	-1553
职业	-1554
镇下辖以下地区	-1555
43	-1556
▁和	-1557
处理	-1558
比較	-1559
其它	-1560
目標	-1561
空间	-1562
人大	-1563
特殊	-1564
取消	-1565
生于	-1566
体育	-1567
细胞	-1568
随着	-1569
ber	-1570
1980	-1571
1999	-1572
的成	-1573
▁原	-1574
也在	-1575
阿拉伯	-1576
廣播	-1577
空間	-1578
86	-1579
范围	-1580
设有	-1581
的方式	-1582
选择	-1583
41	-1584
规模	-1585
▁因	-1586
經常	-1587
年间	-1588
可能是	-1589
英語	-1590
名字	-1591
ct	-1592
▁上	-1593
學習	-1594
本身	-1595
类似	-1596
▁除了	-1597
星等为	-1598
函数	-1599
之下	-1600
兩人	-1601
基礎	-1602
高雄	-1603
内的	-1604
母親	-1605
醫院	-1606
广播	-1607
的一座	-1608
倫敦	-1609
移民	-1610
的地方	-1611
之中	-1612
之間的	-1613
属下的一个种	-1614
下午	-1615
山脈	-1616
任務	-1617
一定	-1618
俱乐部	-1619
埃及	-1620
超級	-1621
士兵	-1622
而是	-1623
匈牙	-1624
乘客	-1625
77	-1626
社区	-1627
▁後來	-1628
媒体	-1629
西洋	-1630
这样	-1631
匈牙利	-1632
宣佈	-1633
是一种	-1634
将军	-1635
球會	-1636
文学	-1637
學者	-1638
▁zh	-1639
▁他在	-1640
祖父	-1641
市场	-1642
ver	-1643
英格蘭	-1644
先生	-1645
2017	-1646
知名	-1647
当地	-1648
林匹	-1649
多年	-1650
蛋白	-1651
产品	-1652
機會	-1653
人民政府	-1654
國王	-1655
商业	-1656
酒店	-1657
ht	-1658
小的	-1659
国务	-1660
旅客	-1661
陸軍	-1662
▁中国	-1663
不足	-1664
淡水	-1665
的三	-1666
十字	-1667
隨後	-1668
实现	-1669
都會	-1670
400	-1671
各种	-1672
墨西	-1673
都市	-1674
年底	-1675
的重要	-1676
負責管轄	-1677
水平	-1678
迅速	-1679
出口	-1680
广场	-1681
也可以	-1682
的事	-1683
同一	-1684
七年	-1685
棲息在	-1686
提升	-1687
高中	-1688
國民黨	-1689
表面	-1690
ant	-1691
展開	-1692
4,	-1693
菲律	-1694
發動	-1695
先后	-1696
尼斯	-1697
瑞士	-1698
反應	-1699
坦克	-1700
其後	-1701
廣東	-1702
小说	-1703
希腊	-1704
領導	-1705
報告	-1706
能够	-1707
办公	-1708
中有	-1709
儿子	-1710
森林	-1711
金融	-1712
必须	-1713
科的其中一種	-1714
87	-1715
市民	-1716
整個	-1717
▁16	-1718
年由	-1719
:"	-1720
▁y	-1721
尔德	-1722
建議	-1723
1998	-1724
模型	-1725
紐約	-1726
品牌	-1727
兒子	-1728
59	-1729
消息	-1730
雜誌	-1731
69	-1732
而被	-1733
定义	-1734
连接	-1735
爾斯	-1736
的第	-1737
▁馬	-1738
一同	-1739
高速公路	-1740
▁與	-1741
國立	-1742
的城	-1743
51	-1744
62	-1745
按照	-1746
網路	-1747
中共中央	-1748
89	-1749
战斗	-1750
的外	-1751
墨西哥	-1752
定義	-1753
錦標	-1754
才能	-1755
姆斯	-1756
中国大陆的	-1757
▁明	-1758
ows	-1759
调查	-1760
大道	-1761
医院	-1762
▁2003	-1763
禁止	-1764
one	-1765
▁后	-1766
▁每	-1767
▁當時	-1768
背景	-1769
ack	-1770
行为	-1771
連接	-1772
工具	-1773
应用	-1774
安排	-1775
記載	-1776
1997	-1777
小时	-1778
基因	-1779
視為	-1780
水域	-1781
公司的	-1782
选举	-1783
有所	-1784
球季	-1785
人类	-1786
▁他的	-1787
實驗	-1788
能量	-1789
亞目	-1790
恢复	-1791
導演	-1792
設施	-1793
格兰	-1794
发动	-1795
信仰	-1796
曾任	-1797
形目	-1798
球場	-1799
比利	-1800
深圳	-1801
ri	-1802
達到	-1803
主演	-1804
52	-1805
战役	-1806
林匹克	-1807
▁為	-1808
有关	-1809
▁伊	-1810
吸引	-1811
規模	-1812
合併	-1813
后的	-1814
心理	-1815
斯卡	-1816
又稱	-1817
作者	-1818
贝尔	-1819
情況	-1820
宇宙	-1821
并不	-1822
資訊	-1823
比如	-1824
行动	-1825
万人	-1826
150	-1827
运行	-1828
飛行	-1829
2018	-1830
任务	-1831
54	-1832
逐渐	-1833
州的一个市镇	-1834
拉丁	-1835
太子	-1836
色列	-1837
安徽	-1838
東北	-1839
荷蘭	-1840
的中	-1841
完整	-1842
聯邦	-1843
栽培	-1844
而在	-1845
▁主要	-1846
est	-1847
▁克	-1848
孩子	-1849
距离	-1850
严重	-1851
ud	-1852
▁11	-1853
入侵	-1854
的分	-1855
尔斯	-1856
▁之後	-1857
作曲	-1858
53	-1859
運動員	-1860
約翰	-1861
娛樂	-1862
专辑	-1863
投资	-1864
夫人	-1865
普查	-1866
自行	-1867
博物馆	-1868
oh	-1869
人们	-1870
投資	-1871
而言	-1872
原子	-1873
▁第	-1874
规定	-1875
開放	-1876
尽管	-1877
維持	-1878
创作	-1879
太空	-1880
自動	-1881
上映	-1882
羽毛球	-1883
届全国	-1884
抗日	-1885
更加	-1886
代码	-1887
79	-1888
效果	-1889
長的	-1890
▁190	-1891
線的	-1892
南方	-1893
是一位	-1894
會在	-1895
至少	-1896
遗址	-1897
于是	-1898
授予	-1899
配合	-1900
一帶	-1901
河畔	-1902
执行	-1903
感到	-1904
三十	-1905
一种	-1906
正常	-1907
英雄	-1908
农业	-1909
因素	-1910
之子	-1911
帮助	-1912
飞机	-1913
如何	-1914
热带	-1915
加盟	-1916
電視劇	-1917
72	-1918
期的	-1919
三个	-1920
indows	-1921
計算	-1922
地铁	-1923
提名	-1924
ta	-1925
並沒有	-1926
的一种	-1927
重点	-1928
組合	-1929
物种	-1930
白色	-1931
然後	-1932
需求	-1933
九年	-1934
更多	-1935
缺乏	-1936
汽車	-1937
议会	-1938
整个	-1939
的作品	-1940
人和	-1941
戰役	-1942
以來	-1943
合并	-1944
ian	-1945
88	-1946
住宅	-1947
报道	-1948
记载	-1949
平方米	-1950
年前	-1951
爆發	-1952
是香港	-1953
▁從	-1954
▁2002	-1955
被稱為	-1956
即使	-1957
之间的	-1958
演员	-1959
风格	-1960
批評	-1961
貿易	-1962
用來	-1963
一样	-1964
電視台	-1965
教會	-1966
中國大陸	-1967
幾乎	-1968
君主	-1969
位于中国	-1970
三角	-1971
這樣	-1972
特的	-1973
▁东	-1974
同樣	-1975
▁2000	-1976
io	-1977
比较	-1978
所有的	-1979
減少	-1980
▁海	-1981
業務	-1982
設置	-1983
co	-1984
康熙	-1985
飾演	-1986
也不	-1987
階段	-1988
个人	-1989
用户	-1990
人民共和國	-1991
規定	-1992
贏得	-1993
風格	-1994
国务院	-1995
▁二	-1996
那些	-1997
南極洲	-1998
▁日本	-1999
大使	-2000
线路	-2001
bs	-2002
ive	-2003
表现	-2004
▁白	-2005
照片	-2006
纽约	-2007
個月	-2008
北京市	-2009
61	-2010
有人	-2011
显示	-2012
▁这些	-2013
ich	-2014
作戰	-2015
千米	-2016
马来	-2017
,198	-2018
比例	-2019
设备	-2020
▁如	-2021
很快	-2022
大約	-2023
cn	-2024
还是	-2025
運輸	-2026
相信	-2027
▁分布于	-2028
食物	-2029
全面	-2030
真正	-2031
com	-2032
,18	-2033
▁清	-2034
首先	-2035
地理	-2036
健康	-2037
ity	-2038
重庆	-2039
山大	-2040
开放	-2041
上有	-2042
空中	-2043
天皇	-2044
被称为	-2045
月至	-2046
软件	-2047
:00	-2048
大樓	-2049
應用	-2050
63	-2051
變化	-2052
體系	-2053
进行了	-2054
中国共产党	-2055
▁与	-2056
半島	-2057
▁hd	-2058
編號	-2059
被迫	-2060
水库	-2061
运营	-2062
改善	-2063
這是	-2064
的小行星	-2065
74	-2066
六年	-2067
▁這些	-2068
體的	-2069
戰後	-2070
他們的	-2071
然后	-2072
十三	-2073
条件	-2074
▁林	-2075
1970	-2076
▁以下	-2077
维尔	-2078
《》	-2079
▁下	-2080
繼承	-2081
發射	-2082
92	-2083
▁唐	-2084
進攻	-2085
中国人民解放军	-2086
▁除	-2087
土耳	-2088
决赛	-2089
生的	-2090
的情況	-2091
化石	-2092
關於	-2093
的山	-2094
学位	-2095
找到	-2096
领域	-2097
生长于	-2098
河流	-2099
1000	-2100
土耳其	-2101
报告	-2102
广泛	-2103
營運	-2104
降低	-2105
父母	-2106
不斷	-2107
同盟	-2108
▁2019	-2109
区的	-2110
规划	-2111
度的	-2112
狀態	-2113
离开	-2114
海外	-2115
亨利	-2116
71	-2117
相對	-2118
▁ro	-2119
▁陳	-2120
東南	-2121
金屬	-2122
修改	-2123
设置	-2124
疾病	-2125
網站	-2126
恆星	-2127
ran	-2128
和其他	-2129
部门	-2130
man	-2131
电力	-2132
年初	-2133
國的	-2134
時的	-2135
爆发	-2136
第七	-2137
形象	-2138
拒絕	-2139
舞台	-2140
彼得	-2141
类型	-2142
▁第一	-2143
比亞	-2144
成績	-2145
部落	-2146
火山	-2147
理事	-2148
统一	-2149
延伸	-2150
阿爾	-2151
細胞	-2152
▁多	-2153
報導	-2154
发现了	-2155
最多	-2156
是一名	-2157
記者	-2158
軌道	-2159
也就是	-2160
火箭	-2161
先後	-2162
▁2001	-2163
幫助	-2164
斯塔	-2165
改造	-2166
工人	-2167
曾经	-2168
日軍	-2169
旗下	-2170
相当	-2171
go	-2172
奪得	-2173
式的	-2174
江西	-2175
英语	-2176
政府的	-2177
电视台	-2178
柏林	-2179
參賽	-2180
地震	-2181
是南極洲	-2182
属的植物	-2183
引种	-2184
秘密	-2185
是德国	-2186
1996	-2187
習性	-2188
平原	-2189
儘管	-2190
运动员	-2191
84	-2192
的工作	-2193
ps	-2194
以前	-2195
在大	-2196
扮演	-2197
它們	-2198
投降	-2199
以色列	-2200
总理	-2201
在日本	-2202
加州	-2203
广西	-2204
武汉	-2205
一家	-2206
城镇	-2207
举办	-2208
国内	-2209
相比	-2210
ry	-2211
获得了	-2212
今天	-2213
將其	-2214
兒童	-2215
在香港	-2216
83	-2217
混合	-2218
73	-2219
年後	-2220
▁to	-2221
食品	-2222
近年	-2223
绕太阳	-2224
世界上	-2225
代理	-2226
作出	-2227
廣告	-2228
將會	-2229
當選	-2230
符合	-2231
馬來	-2232
东南	-2233
還是	-2234
94	-2235
拉夫	-2236
突然	-2237
由人工	-2238
以後	-2239
恒星	-2240
次年	-2241
方言	-2242
汽车	-2243
銷售	-2244
ong	-2245
變成	-2246
转的小行星	-2247
依然	-2248
合成	-2249
亦是	-2250
爆炸	-2251
涉及	-2252
往往	-2253
引种栽培	-2254
物種	-2255
pe	-2256
1900	-2257
▁张	-2258
表明	-2259
司法	-2260
創立	-2261
简称	-2262
步兵	-2263
600	-2264
通道	-2265
由人工引种栽培	-2266
運動會	-2267
▁埃	-2268
国的	-2269
位于该	-2270
固定	-2271
新疆	-2272
一座	-2273
退出	-2274
地面	-2275
官員	-2276
比亚	-2277
体的	-2278
出席	-2279
價值	-2280
總督	-2281
源自	-2282
十五	-2283
史上	-2284
▁la	-2285
條件	-2286
收錄	-2287
波兰	-2288
▁正	-2289
颱風	-2290
常見	-2291
家的	-2292
晚上	-2293
be	-2294
入口	-2295
母亲	-2296
int	-2297
93	-2298
準備	-2299
1995	-2300
1994	-2301
经常	-2302
ff	-2303
首府	-2304
主要是	-2305
錦標賽	-2306
▁後	-2307
一段	-2308
演唱會	-2309
▁为	-2310
黑色	-2311
82	-2312
cd	-2313
空軍	-2314
生活習性	-2315
兼任	-2316
▁因為	-2317
而成	-2318
小學	-2319
法的	-2320
▁若	-2321
贸易	-2322
資格	-2323
了一个	-2324
生活習性不明	-2325
車輛	-2326
少女	-2327
課程	-2328
例子	-2329
▁現	-2330
大會	-2331
塞尔	-2332
未來	-2333
治療	-2334
留下	-2335
觀眾	-2336
而不	-2337
統一	-2338
▁15	-2339
将其	-2340
數量	-2341
海洋	-2342
北方	-2343
病毒	-2344
總部	-2345
撤销	-2346
可以在	-2347
年到	-2348
山西	-2349
鐵道	-2350
相对	-2351
上市	-2352
▁他們	-2353
建設	-2354
邀請	-2355
奧運	-2356
综合	-2357
▁一般	-2358
出生于	-2359
得知	-2360
提到	-2361
國內	-2362
800	-2363
應該	-2364
业务	-2365
ign	-2366
▁x	-2367
资源	-2368
的故事	-2369
厘米	-2370
▁for	-2371
多數	-2372
年輕	-2373
美軍	-2374
▁据	-2375
共產	-2376
攻击	-2377
長期	-2378
群岛	-2379
解決	-2380
雙方	-2381
法案	-2382
保存	-2383
恢復	-2384
成立於	-2385
▁科	-2386
东部	-2387
東部	-2388
下降	-2389
物質	-2390
改編	-2391
的名字	-2392
用作	-2393
81	-2394
坐标	-2395
亚洲	-2396
▁这个	-2397
宣传	-2398
状态	-2399
國會	-2400
委书记	-2401
對手	-2402
180	-2403
廣場	-2404
建於	-2405
▁al	-2406
占领	-2407
專業	-2408
布拉	-2409
艦隊	-2410
▁co	-2411
学者	-2412
警方	-2413
五月	-2414
ate	-2415
展示	-2416
市政府	-2417
私人	-2418
解釋	-2419
頻道	-2420
規劃	-2421
进攻	-2422
地区的	-2423
被認為	-2424
卡斯	-2425
生於	-2426
▁同时	-2427
客运	-2428
▁到	-2429
▁這個	-2430
實施	-2431
主題	-2432
澳大利亚	-2433
廣泛	-2434
目前尚未	-2435
主要的	-2436
记录	-2437
绝对	-2438
並非	-2439
end	-2440
破壞	-2441
相互	-2442
外的	-2443
▁可	-2444
挪威	-2445
無綫	-2446
米的地区	-2447
▁后来	-2448
哈尔	-2449
在其	-2450
發售	-2451
現象	-2452
出生於	-2453
生长于海拔	-2454
身體	-2455
公元前	-2456
图书	-2457
犯罪	-2458
网站	-2459
1993	-2460
军区	-2461
旅游	-2462
圖書	-2463
方便	-2464
运输	-2465
多个	-2466
几乎	-2467
事業	-2468
努力	-2469
数学	-2470
電台	-2471
集合	-2472
▁虽然	-2473
就讀	-2474
他们的	-2475
朝廷	-2476
位于该省	-2477
ast	-2478
附近的	-2479
截至	-2480
lay	-2481
秘书	-2482
120	-2483
中華人民共和國	-2484
ib	-2485
协议	-2486
原名	-2487
▁他们	-2488
上下	-2489
星系	-2490
不到	-2491
了解	-2492
▁th	-2493
源于	-2494
目标	-2495
來說	-2496
▁第二	-2497
继承	-2498
選區	-2499
也會	-2500
石油	-2501
領域	-2502
重大	-2503
代表大会	-2504
乡下辖以下地区	-2505
这是	-2506
地區的	-2507
增长	-2508
加利	-2509
斯克	-2510
討論	-2511
1992	-2512
导演	-2513
91	-2514
目前尚未由人工引种栽培	-2515
的不	-2516
年開始	-2517
安德	-2518
一切	-2519
移動	-2520
記錄	-2521
的情况	-2522
第二次世界大	-2523
毕业于	-2524
1991	-2525
退休	-2526
改变	-2527
mar	-2528
退役	-2529
陆军	-2530
多個	-2531
cl	-2532
▁最	-2533
合約	-2534
犹太	-2535
的城鎮	-2536
接替	-2537
▁其他	-2538
博物館	-2539
以南	-2540
伊朗	-2541
一致	-2542
申請	-2543
的时候	-2544
▁元	-2545
以来	-2546
引入	-2547
年时的人口为人	-2548
冰川	-2549
5,	-2550
▁張	-2551
▁长	-2552
ort	-2553
下令	-2554
tv	-2555
杂志	-2556
主張	-2557
▁另一	-2558
的一種	-2559
部門	-2560
ke	-2561
印尼	-2562
上海市	-2563
柴油	-2564
特色	-2565
廣州	-2566
解决	-2567
赢得	-2568
统计	-2569
计算机	-2570
大约	-2571
▁1949	-2572
大区	-2573
月初	-2574
立即	-2575
上陣	-2576
民眾	-2577
▁同時	-2578
十四	-2579
||	-2580
資源	-2581
政协	-2582
含有	-2583
波斯	-2584
結婚	-2585
三世	-2586
小型	-2587
▁1998	-2588
法官	-2589
伦敦	-2590
enter	-2591
利益	-2592
部長	-2593
說法	-2594
au	-2595
保守	-2596
化學	-2597
hr	-2598
明顯	-2599
以北	-2600
作战	-2601
▁古	-2602
ont	-2603
佔領	-2604
感染	-2605
确定	-2606
為一	-2607
▁周	-2608
行政區	-2609
案件	-2610
是美国	-2611
選手	-2612
冬季	-2613
殖民地	-2614
持续	-2615
文明	-2616
中华民国	-2617
官员	-2618
▁1999	-2619
兩種	-2620
▁奥	-2621
派遣	-2622
深度	-2623
大西洋	-2624
特里	-2625
▁德	-2626
人們	-2627
年時	-2628
設備	-2629
证明	-2630
▁20	-2631
▁le	-2632
windows	-2633
分布在	-2634
机关	-2635
王國	-2636
自身	-2637
准备	-2638
so	-2639
▁此后	-2640
起来	-2641
车辆	-2642
玻璃	-2643
1960	-2644
海道	-2645
菲律賓	-2646
解散	-2647
基於	-2648
频道	-2649
恐怖	-2650
器的	-2651
歡迎	-2652
分類	-2653
爵士	-2654
的神	-2655
只要	-2656
中被	-2657
爭議	-2658
列入	-2659
事故	-2660
指定	-2661
飞行	-2662
克里	-2663
出道	-2664
評論	-2665
大小	-2666
排行	-2667
▁pro	-2668
发射	-2669
內部	-2670
月的	-2671
基于	-2672
教練	-2673
互相	-2674
▁哈	-2675
很大	-2676
浙江省	-2677
的方法	-2678
少數	-2679
这里	-2680
逮捕	-2681
義大利	-2682
拍摄	-2683
▁sh	-2684
从而	-2685
击败	-2686
连续	-2687
原始	-2688
是西班牙	-2689
二人	-2690
用来	-2691
建立了	-2692
司馬	-2693
起來	-2694
尤其是	-2695
本土	-2696
瓦尔	-2697
萬人	-2698
前身	-2699
阶段	-2700
col	-2701
而非	-2702
▁而在	-2703
制的	-2704
為止	-2705
物质	-2706
理想	-2707
公爵	-2708
賽季	-2709
結合	-2710
貝爾	-2711
是意大利	-2712
方程	-2713
▁现	-2714
拒绝	-2715
国会	-2716
年世界	-2717
毛泽	-2718
城区	-2719
阻止	-2720
历史上	-2721
宣傳	-2722
允许	-2723
▁普	-2724
的影響	-2725
並未	-2726
星的	-2727
uc	-2728
承認	-2729
广东省	-2730
大幅	-2731
生存	-2732
威尔	-2733
天下	-2734
化合物	-2735
房屋	-2736
每平方公里	-2737
針對	-2738
面對	-2739
ue	-2740
▁劉	-2741
的水	-2742
克拉	-2743
▁col	-2744
西安	-2745
ace	-2746
▁東	-2747
用途	-2748
me	-2749
的同	-2750
波蘭	-2751
測試	-2752
突破	-2753
的時候	-2754
丈夫	-2755
有時	-2756
吉林	-2757
人數	-2758
分钟	-2759
6,	-2760
▁朱	-2761
数量	-2762
的最	-2763
师范	-2764
以后	-2765
食用	-2766
贵州	-2767
son	-2768
第一個	-2769
平面	-2770
八年	-2771
觀測	-2772
進一步	-2773
婚姻	-2774
早年	-2775
修正	-2776
修建	-2777
維亞	-2778
per	-2779
成都	-2780
裝甲	-2781
武装	-2782
得到了	-2783
毛泽东	-2784
的历史	-2785
东西	-2786
年后	-2787
▁一些	-2788
▁com	-2789
上述	-2790
天体	-2791
ess	-2792
▁為了	-2793
的影响	-2794
留在	-2795
奥地利	-2796
隊的	-2797
運作	-2798
是位於	-2799
脂鯉	-2800
在一	-2801
質量	-2802
德拉	-2803
议员	-2804
日军	-2805
产业	-2806
1989	-2807
nba	-2808
制定	-2809
得名	-2810
出來	-2811
產業	-2812
公开	-2813
又称	-2814
ty	-2815
办理	-2816
宪法	-2817
立方	-2818
這一	-2819
杭州	-2820
we	-2821
▁永	-2822
家人	-2823
接任	-2824
▁1990	-2825
已被	-2826
失敗	-2827
意志	-2828
農業	-2829
措施	-2830
根廷	-2831
内部	-2832
洛杉	-2833
天文台	-2834
数字	-2835
已有	-2836
成本	-2837
胜利	-2838
御史	-2839
挑戰	-2840
是美國	-2841
弟弟	-2842
建议	-2843
上升	-2844
▁ar	-2845
生成	-2846
的支持	-2847
接收	-2848
當時的	-2849
舉行的	-2850
民間	-2851
ire	-2852
▁四	-2853
ly	-2854
加拉	-2855
不断	-2856
分裂	-2857
各自	-2858
商品	-2859
特拉	-2860
来说	-2861
十九	-2862
第八	-2863
高級	-2864
甘肃	-2865
提供了	-2866
▁1997	-2867
給予	-2868
ord	-2869
1945	-2870
特定	-2871
ga	-2872
意思	-2873
發出	-2874
性能	-2875
演奏	-2876
▁艾	-2877
勝利	-2878
行政院	-2879
空军	-2880
长江	-2881
利斯	-2882
配音	-2883
sc	-2884
过程中	-2885
打算	-2886
爾蘭	-2887
票房	-2888
勢力	-2889
來源	-2890
南非	-2891
政权	-2892
證明	-2893
▁美國	-2894
ep	-2895
jr	-2896
西北部	-2897
進士出身	-2898
最後一	-2899
德的	-2900
學位	-2901
穩定	-2902
hant	-2903
ft	-2904
▁黄	-2905
魚類	-2906
联合国	-2907
到达	-2908
破坏	-2909
古典	-2910
▁其後	-2911
成为了	-2912
▁據	-2913
昭和	-2914
王子	-2915
出版社	-2916
反映	-2917
副主席	-2918
训练	-2919
bc	-2920
天然	-2921
西班牙语	-2922
起义	-2923
名称	-2924
结合	-2925
内蒙古	-2926
州府	-2927
淘汰	-2928
管理局	-2929
從事	-2930
lo	-2931
到達	-2932
創辦	-2933
大廈	-2934
更新	-2935
调整	-2936
派的	-2937
两种	-2938
成立的	-2939
1950	-2940
協議	-2941
估計	-2942
▁嘉	-2943
▁格	-2944
他是	-2945
消失	-2946
同性	-2947
不过	-2948
推動	-2949
旅行	-2950
的手	-2951
臺南	-2952
住民	-2953
方面的	-2954
政黨	-2955
英里	-2956
分配	-2957
▁14	-2958
放棄	-2959
張專輯	-2960
下一	-2961
臨時	-2962
被认为	-2963
年和	-2964
收購	-2965
江苏省	-2966
评论	-2967
喜歡	-2968
縣人	-2969
年夏季	-2970
联系	-2971
为中国	-2972
的一些	-2973
荷兰	-2974
量子	-2975
本人	-2976
质量	-2977
▁当时	-2978
地在	-2979
島嶼	-2980
米至	-2981
进一步	-2982
辽宁	-2983
理解	-2984
金属	-2985
ect	-2986
克的	-2987
实行	-2988
▁刘	-2989
上了	-2990
令人	-2991
家中	-2992
▁宋	-2993
衝突	-2994
市中心	-2995
上午	-2996
華人	-2997
职务	-2998
蒙特	-2999
狀況	-3000
軟體	-3001
派出	-3002
雷斯	-3003
科学院	-3004
公安	-3005
有著	-3006
"。	-3007
机械	-3008
校长	-3009
批评	-3010
港元	-3011
访问	-3012
平衡	-3013
设施	-3014
裝置	-3015
觀察	-3016
700	-3017
月球	-3018
穆斯	-3019
高级	-3020
每个	-3021
▁0	-3022
卡尔	-3023
▁石	-3024
▁黃	-3025
氣象	-3026
的原因	-3027
的城市	-3028
并于	-3029
都在	-3030
中最	-3031
召开	-3032
大多数	-3033
愛爾蘭	-3034
綜合	-3035
刺史	-3036
喬治	-3037
指示	-3038
日期	-3039
球员	-3040
中期	-3041
藝人	-3042
助理	-3043
圖書館	-3044
在中国	-3045
數據	-3046
南美洲	-3047
阿根廷	-3048
考慮	-3049
副主任	-3050
莫斯科	-3051
、、	-3052
紅色	-3053
1988	-3054
马来西亚	-3055
亿元	-3056
自动	-3057
現時由	-3058
代的	-3059
应该	-3060
現場	-3061
▁米	-3062
地圖	-3063
機關	-3064
减少	-3065
出售	-3066
教会	-3067
權力	-3068
武帝	-3069
社區	-3070
160	-3071
服役	-3072
les	-3073
北美	-3074
確定	-3075
解释	-3076
ho	-3077
试图	-3078
港口	-3079
的第二	-3080
ix	-3081
的部分	-3082
信号	-3083
地點	-3084
本站	-3085
▁沙	-3086
的政治	-3087
萨克	-3088
第一个	-3089
事务	-3090
ext	-3091
奧林匹克	-3092
本科	-3093
亞歷	-3094
其實	-3095
创办	-3096
能源	-3097
機械	-3098
▁黑	-3099
ass	-3100
的模式	-3101
标志	-3102
ond	-3103
_1	-3104
本地	-3105
命名為	-3106
1949	-3107
競爭	-3108
同样	-3109
吸收	-3110
駕駛	-3111
▁波	-3112
相同的	-3113
,195	-3114
临时	-3115
旅遊	-3116
層水域	-3117
▁斯	-3118
終於	-3119
軍的	-3120
▁1996	-3121
即位	-3122
金山	-3123
pa	-3124
▁另	-3125
而不是	-3126
▁美国	-3127
以上的	-3128
出演	-3129
患者	-3130
必要	-3131
統計	-3132
动画	-3133
约为	-3134
ore	-3135
坐标为	-3136
▁水	-3137
唐朝	-3138
实施	-3139
強烈	-3140
大多數	-3141
,197	-3142
事實	-3143
每個	-3144
ure	-3145
▁陈	-3146
下了	-3147
洛克	-3148
通用	-3149
沿海	-3150
管辖	-3151
从事	-3152
lin	-3153
视星等为	-3154
▁弗	-3155
我的	-3156
赤緯	-3157
太后	-3158
辦公	-3159
則為	-3160
陷入	-3161
以此	-3162
少数	-3163
在一起	-3164
引發	-3165
在美國	-3166
暴力	-3167
王国	-3168
傳說	-3169
▁不久	-3170
几个	-3171
▁山	-3172
抵抗	-3173
赤經	-3174
▁为了	-3175
俱樂	-3176
半岛	-3177
天堂	-3178
长期	-3179
塞爾	-3180
小组	-3181
▁u	-3182
条约	-3183
學會	-3184
▁1980	-3185
ath	-3186
定居	-3187
牵引	-3188
防止	-3189
的形式	-3190
南極條約	-3191
mo	-3192
常见	-3193
詹姆斯	-3194
国民党	-3195
尼克	-3196
翻译	-3197
列為	-3198
教学	-3199
風暴	-3200
ens	-3201
不会	-3202
常常	-3203
的位置	-3204
明治	-3205
小組	-3206
粒子	-3207
ight	-3208
南極條約體系	-3209
首相	-3210
校長	-3211
較為	-3212
意外	-3213
现象	-3214
示威	-3215
創造	-3216
南極條約體系管理	-3217
风暴	-3218
巨大	-3219
图书馆	-3220
保障	-3221
政權	-3222
舞蹈	-3223
長度	-3224
乔治	-3225
啟用	-3226
經驗	-3227
乐队	-3228
大致	-3229
大獎	-3230
位的	-3231
▁is	-3232
▁法	-3233
财政	-3234
西南部	-3235
儿童	-3236
多人	-3237
理工	-3238
是一座	-3239
每天	-3240
大量的	-3241
馬來西亞	-3242
▁聖	-3243
价值	-3244
股份有限公司	-3245
利的	-3246
明星	-3247
ith	-3248
vd	-3249
西斯	-3250
参谋	-3251
簡單	-3252
▁年	-3253
路段	-3254
▁尽管	-3255
山东省	-3256
sao	-3257
act	-3258
医学	-3259
城堡	-3260
龙江	-3261
完工	-3262
議院	-3263
今日	-3264
布里	-3265
▁1950	-3266
落成	-3267
表達	-3268
▁最後	-3269
承认	-3270
]]	-3271
主力	-3272
共產黨	-3273
動力	-3274
知识	-3275
總理	-3276
持有	-3277
第十一	-3278
現時由南極條約體系管理	-3279
名單	-3280
其中一	-3281
1987	-3282
四個	-3283
使用者	-3284
物的	-3285
沿岸	-3286
市長	-3287
支流	-3288
東西	-3289
考虑	-3290
历任	-3291
▁之后	-3292
就在	-3293
租界	-3294
▁13	-3295
抵達	-3296
積極	-3297
▁1945	-3298
分佈	-3299
花園	-3300
青岛	-3301
收藏	-3302
翻譯	-3303
升任	-3304
日正式	-3305
tr	-3306
常委	-3307
更名为	-3308
1986	-3309
京都	-3310
碼頭	-3311
銀經	-3312
銀緯	-3313
工廠	-3314
他被	-3315
加以	-3316
率为	-3317
號線	-3318
位于銀經	-3319
坐标为赤經	-3320
福建省	-3321
此外	-3322
▁成	-3323
最低	-3324
年开始	-3325
很少	-3326
到的	-3327
[[	-3328
▁中國	-3329
▁1993	-3330
參選	-3331
其餘	-3332
的重	-3333
的角色	-3334
mm	-3335
双方	-3336
形容	-3337
設定	-3338
市區	-3339
简单	-3340
办事	-3341
四川省	-3342
商人	-3343
7,	-3344
琉球	-3345
失败	-3346
江南	-3347
net	-3348
并没有	-3349
偶像	-3350
▁五	-3351
強調	-3352
穆斯林	-3353
國防	-3354
壓力	-3355
收集	-3356
市长	-3357
多数	-3358
拆除	-3359
泰國	-3360
▁1994	-3361
▁1995	-3362
河南省	-3363
就會	-3364
鄰近	-3365
上是	-3366
劳动	-3367
里的	-3368
▁不过	-3369
▁罗	-3370
1985	-3371
參考	-3372
司令部	-3373
十七	-3374
其中包括	-3375
理由	-3376
教宗	-3377
的有	-3378
▁这种	-3379
奥运	-3380
稳定	-3381
為熱帶	-3382
iz	-3383
所屬	-3384
的绝对	-3385
1984	-3386
卡拉	-3387
维亚	-3388
冲突	-3389
▁1992	-3390
250	-3391
出現在	-3392
办公室	-3393
复杂	-3394
影像	-3395
購買	-3396
意味	-3397
放在	-3398
分类	-3399
埃尔	-3400
试验	-3401
表达	-3402
食性	-3403
的特有	-3404
▁/	-3405
更多的	-3406
经营	-3407
動作	-3408
城的	-3409
陸續	-3410
马克	-3411
成為了	-3412
測量	-3413
做為	-3414
金牌	-3415
克里斯	-3416
接觸	-3417
發電	-3418
俱樂部	-3419
所在地	-3420
控股	-3421
進黨	-3422
身分	-3423
差異	-3424
ux	-3425
性質	-3426
訪問	-3427
公斤	-3428
道光	-3429
網絡	-3430
燃料	-3431
陕西	-3432
什么	-3433
宁波	-3434
知識	-3435
站台	-3436
候選	-3437
角度	-3438
▁文	-3439
人民代表大会	-3440
代替	-3441
学术	-3442
移动	-3443
演化	-3444
間的	-3445
法庭	-3446
並以	-3447
時任	-3448
阳市	-3449
▁光緒	-3450
之戰	-3451
国防	-3452
bd	-3453
憲法	-3454
▁日	-3455
湖南省	-3456
议院	-3457
斯拉夫	-3458
,3	-3459
加哥	-3460
商場	-3461
加入了	-3462
威爾	-3463
經典	-3464
▁相	-3465
學術	-3466
書院	-3467
气候	-3468
级联赛	-3469
戲劇	-3470
率領	-3471
编辑	-3472
轟炸	-3473
通往	-3474
芝加哥	-3475
接著	-3476
▁sp	-3477
不滿	-3478
▁un	-3479
以西	-3480
最近	-3481
分成	-3482
工厂	-3483
教师	-3484
都被	-3485
新界	-3486
學名	-3487
撤退	-3488
經歷	-3489
社会主义	-3490
治疗	-3491
ick	-3492
蘇格蘭	-3493
》、	-3494
上帝	-3495
两人	-3496
大阪	-3497
清朝政治人物	-3498
列出	-3499
古老	-3500
溫度	-3501
獎項	-3502
长的	-3503
处于	-3504
試圖	-3505
▁到了	-3506
ha	-3507
▁i	-3508
参加了	-3509
尔特	-3510
根本	-3511
的反	-3512
编码	-3513
十二年	-3514
创造	-3515
女王	-3516
创建	-3517
提及	-3518
在美国	-3519
使其	-3520
劇情	-3521
地鐵	-3522
猶太	-3523
ust	-3524
威脅	-3525
過程中	-3526
▁加	-3527
但他	-3528
臺中	-3529
,196	-3530
一百	-3531
考古	-3532
函數	-3533
▁这颗	-3534
加利福	-3535
本線	-3536
05	-3537
yle	-3538
sm	-3539
小学	-3540
布尔	-3541
病逝	-3542
▁be	-3543
出戰	-3544
的日	-3545
醫學	-3546
達成	-3547
此天体	-3548
笼草	-3549
多种	-3550
▁所以	-3551
人口密度每平方公里	-3552
观点	-3553
醫療	-3554
長官	-3555
猪笼草	-3556
绕太阳公	-3557
一系列	-3558
女兒	-3559
登上	-3560
使用了	-3561
安裝	-3562
,5	-3563
團隊	-3564
代码为	-3565
咖啡	-3566
打破	-3567
財政	-3568
通信	-3569
成立了	-3570
副书记	-3571
是一颗围	-3572
商店	-3573
第九	-3574
km	-3575
▁直到	-3576
萬元	-3577
是一颗围绕太阳公	-3578
是一颗围绕太阳公转的小行星	-3579
州刺史	-3580
親王	-3581
近代	-3582
大街	-3583
是不	-3584
110	-3585
升格	-3586
天的	-3587
會的	-3588
学会	-3589
攝影	-3590
istat	-3591
▁|	-3592
组建	-3593
记者	-3594
gro	-3595
民進黨	-3596
ev	-3597
▁截至	-3598
纪录	-3599
民主黨	-3600
原住民	-3601
帶領	-3602
數字	-3603
格拉	-3604
哲学	-3605
站的	-3606
改建	-3607
東方	-3608
港鐵	-3609
秘書	-3610
周年	-3611
青海	-3612
聯合國	-3613
结婚	-3614
道德	-3615
09	-3616
游泳	-3617
策略	-3618
▁这颗小行星	-3619
分支	-3620
在這	-3621
象徵	-3622
ina	-3623
日本的	-3624
过去	-3625
的绝对星等为	-3626
似乎	-3627
▁这颗小行星的绝对星等为	-3628
途中	-3629
公眾	-3630
形的	-3631
:30	-3632
人口普查	-3633
克蘭	-3634
汉族	-3635
翌年	-3636
三人	-3637
十一年	-3638
在北京	-3639
▁1991	-3640
河北省	-3641
會員	-3642
未有	-3643
貢獻	-3644
對抗	-3645
春秋	-3646
排列	-3647
的天	-3648
的正	-3649
▁mu	-3650
市区	-3651
桃園	-3652
伊斯兰	-3653
電話	-3654
主持人	-3655
四大	-3656
關注	-3657
最早的	-3658
to	-3659
▁胡	-3660
依據	-3661
合法	-3662
可能會	-3663
并入	-3664
教育部	-3665
子女	-3666
伊斯蘭	-3667
研究院	-3668
四个	-3669
掌握	-3670
發起	-3671
複雜	-3672
gr	-3673
英格兰	-3674
內閣	-3675
登陸	-3676
規則	-3677
ug	-3678
已知	-3679
隨即	-3680
十月	-3681
巨大的	-3682
▁莫	-3683
斯曼	-3684
查理	-3685
數學	-3686
那里	-3687
ide	-3688
he	-3689
也可	-3690
編輯	-3691
ca	-3692
▁平	-3693
不要	-3694
來到	-3695
專門	-3696
什麼	-3697
記憶	-3698
警告	-3699
做出	-3700
对象	-3701
衛星	-3702
来到	-3703
歲時	-3704
由此	-3705
走向	-3706
是印度	-3707
▁该市镇年时的人口为人	-3708
呈現	-3709
中正	-3710
更是	-3711
顧問	-3712
pl	-3713
是一部	-3714
最高的	-3715
五十	-3716
▁福	-3717
硕士	-3718
路易斯	-3719
06	-3720
▁塔	-3721
观察	-3722
马尔	-3723
南海	-3724
1982	-3725
三大	-3726
卫星	-3727
客運	-3728
米尔	-3729
研究生	-3730
▁1988	-3731
的地位	-3732
的關係	-3733
丹尼	-3734
信號	-3735
岩石	-3736
享年	-3737
山東	-3738
那么	-3739
明朝政治人物	-3740
了他	-3741
魔法	-3742
希特	-3743
ment	-3744
▁對	-3745
专家	-3746
恐龍	-3747
ame	-3748
受傷	-3749
年他	-3750
印刷	-3751
早在	-3752
設於	-3753
第一位	-3754
▁=	-3755
体系	-3756
儀式	-3757
尚書	-3758
權利	-3759
ark	-3760
则是	-3761
院长	-3762
克林	-3763
道的	-3764
明显	-3765
ogle	-3766
靠近	-3767
07	-3768
▁主	-3769
讨论	-3770
河流域	-3771
入球	-3772
年任	-3773
8,	-3774
局的	-3775
▁乾隆	-3776
介紹	-3777
征服	-3778
格的	-3779
維爾	-3780
侍郎	-3781
每日	-3782
現今	-3783
起源	-3784
▁史	-3785
外国	-3786
列为	-3787
团体	-3788
电力机车	-3789
成就	-3790
大革命	-3791
机会	-3792
調整	-3793
帶來	-3794
首位	-3795
黑龙江	-3796
1983	-3797
▁1989	-3798
▁羅	-3799
仍有	-3800
值得	-3801
平方千米	-3802
▁兩	-3803
特徵	-3804
死後	-3805
等的	-3806
保羅	-3807
满足	-3808
後期	-3809
▁该物种	-3810
像是	-3811
总部	-3812
起初	-3813
臺北市	-3814
棒球	-3815
袭击	-3816
領土	-3817
打擊	-3818
有时	-3819
传说	-3820
免費	-3821
律師	-3822
的多	-3823
pro	-3824
▁奧	-3825
阿里	-3826
了一個	-3827
sk	-3828
說明	-3829
资料	-3830
维奇	-3831
通知	-3832
意义	-3833
聲音	-3834
gc	-3835
1979	-3836
克兰	-3837
經理	-3838
黃金	-3839
億元	-3840
允許	-3841
無綫電視	-3842
原先	-3843
战略	-3844
日於	-3845
▁对	-3846
全長	-3847
销售	-3848
污染	-3849
與其他	-3850
权力	-3851
货运	-3852
適合	-3853
海南	-3854
电台	-3855
▁梅	-3856
动力	-3857
大夫	-3858
采取	-3859
ory	-3860
01	-3861
评价	-3862
航班	-3863
观众	-3864
▁z	-3865
湖泊	-3866
ies	-3867
办事处	-3868
唯一的	-3869
哲學	-3870
性质	-3871
的意思	-3872
依照	-3873
探險	-3874
说法	-3875
专门	-3876
教師	-3877
聚集	-3878
軍團	-3879
全世界	-3880
手段	-3881
月起	-3882
校区	-3883
認識	-3884
身上	-3885
规则	-3886
叫做	-3887
成熟	-3888
支付	-3889
用以	-3890
變得	-3891
一條	-3892
在中	-3893
就有	-3894
院士	-3895
融合	-3896
,4	-3897
男女	-3898
矛盾	-3899
效率	-3900
步槍	-3901
顏色	-3902
增加了	-3903
序列	-3904
早期的	-3905
ck	-3906
明的	-3907
▁建	-3908
在於	-3909
會有	-3910
铁道	-3911
向量	-3912
▁因为	-3913
族的	-3914
海上	-3915
爾德	-3916
進步	-3917
登進士	-3918
经历	-3919
ern	-3920
行走	-3921
始建於	-3922
實際上	-3923
治時期	-3924
整合	-3925
开通	-3926
dr	-3927
翰林	-3928
歷史上	-3929
land	-3930
典禮	-3931
▁对于	-3932
也曾	-3933
目的是	-3934
遭遇	-3935
通訊	-3936
山西省	-3937
此時	-3938
配置	-3939
▁武	-3940
测试	-3941
当时的	-3942
发现了此天体	-3943
傳播	-3944
大眾	-3945
當年	-3946
首席	-3947
展开	-3948
援助	-3949
領袖	-3950
电视剧	-3951
▁吉	-3952
▁比	-3953
一部	-3954
北海道	-3955
逐步	-3956
的所有	-3957
公交	-3958
危機	-3959
氣候	-3960
巡迴	-3961
台中	-3962
推行	-3963
eng	-3964
▁天主教	-3965
證據	-3966
08	-3967
並將	-3968
,1	-3969
▁長	-3970
教學	-3971
ier	-3972
她在	-3973
定理	-3974
▁這種	-3975
领导人	-3976
年轻	-3977
弗里	-3978
爾的	-3979
藉由	-3980
教士	-3981
迪士	-3982
实际上	-3983
通車	-3984
▁儘管	-3985
▁帕	-3986
争议	-3987
改名	-3988
属下的一个	-3989
採取	-3990
的發展	-3991
▁sch	-3992
保加	-3993
局长	-3994
改编	-3995
造成的	-3996
被認為是	-3997
▁台灣	-3998
▁雷	-3999
格式	-4000
火星	-4001
分之一	-4002
的发展	-4003
ohn	-4004
的生活	-4005
运动会	-4006
,2	-4007
栖息	-4008
▁特	-4009
地上	-4010
ial	-4011
提出了	-4012
都督	-4013
针对	-4014
隊伍	-4015
▁bo	-4016
歲的	-4017
致力	-4018
以為	-4019
信徒	-4020
的代表	-4021
迪士尼	-4022
行政区	-4023
境內	-4024
興趣	-4025
也因此	-4026
任教	-4027
亞歷山大	-4028
伊拉克	-4029
巴拉	-4030
此事	-4031
的問題	-4032
关注	-4033
的國家	-4034
供應	-4035
轉換	-4036
難以	-4037
公里的	-4038
的概念	-4039
交界	-4040
大家	-4041
自我	-4042
铁路局	-4043
农民	-4044
屬下的一个种	-4045
市政	-4046
ms	-4047
大桥	-4048
永久	-4049
組成的	-4050
构成	-4051
飓风	-4052
飛彈	-4053
交易所	-4054
就可以	-4055
指控	-4056
▁on	-4057
意識	-4058
理查	-4059
式月台	-4060
贡献	-4061
高原	-4062
東京都	-4063
結束後	-4064
凌晨	-4065
月底	-4066
学科	-4067
中华人民共和国政治人物	-4068
想要	-4069
登場	-4070
所謂	-4071
航空公司	-4072
四十	-4073
▁维	-4074
幻想	-4075
頒獎	-4076
類型	-4077
出来	-4078
有三	-4079
江戶	-4080
知縣	-4081
ary	-4082
對象	-4083
另一個	-4084
有一个	-4085
cr	-4086
▁瓦	-4087
萨尔	-4088
的上	-4089
任期	-4090
首播	-4091
▁在此	-4092
的情況下	-4093
住在	-4094
单曲	-4095
證實	-4096
超越	-4097
cod	-4098
导弹	-4099
開設	-4100
▁現時	-4101
是因為	-4102
漫画	-4103
ah	-4104
红色	-4105
遭受	-4106
抗議	-4107
稱呼	-4108
▁作为	-4109
包括了	-4110
消費	-4111
與其	-4112
重量	-4113
定期	-4114
的世界	-4115
1981	-4116
组合	-4117
下列	-4118
早上	-4119
领袖	-4120
推翻	-4121
iss	-4122
布朗	-4123
預計	-4124
span	-4125
當局	-4126
經由	-4127
被視為	-4128
pr	-4129
替代	-4130
积极	-4131
評價	-4132
在新	-4133
邀请	-4134
驅逐	-4135
传播	-4136
攻打	-4137
,2010	-4138
▁an	-4139
安装	-4140
確認	-4141
台北市	-4142
清楚	-4143
真實	-4144
湖北省	-4145
族群	-4146
山市	-4147
河道	-4148
是位于	-4149
04	-4150
機器	-4151
首歌	-4152
1978	-4153
以便	-4154
年齡	-4155
率领	-4156
發佈	-4157
,2011	-4158
▁这一	-4159
日下午	-4160
追溯	-4161
馬克	-4162
戰車	-4163
接下	-4164
洛斯	-4165
美術	-4166
西里	-4167
基斯坦	-4168
在他	-4169
度使	-4170
數位	-4171
航天	-4172
▁隨著	-4173
ld	-4174
兵力	-4175
权利	-4176
▁1985	-4177
▁博	-4178
算法	-4179
▁有些	-4180
一人	-4181
东方	-4182
委任	-4183
注入	-4184
装置	-4185
的模式产	-4186
法兰	-4187
对外	-4188
意見	-4189
隊長	-4190
▁1984	-4191
主管	-4192
ational	-4193
▁徐	-4194
戰士	-4195
不得不	-4196
「」	-4197
色彩	-4198
长沙	-4199
实验室	-4200
会在	-4201
年中	-4202
特征	-4203
裝備	-4204
龍的	-4205
ton	-4206
職務	-4207
激烈	-4208
丰富	-4209
傳媒	-4210
居委会	-4211
万元	-4212
河的	-4213
ung	-4214
保安	-4215
北平	-4216
引发	-4217
錯誤	-4218
以及中国大陆的	-4219
德軍	-4220
dvd	-4221
百姓	-4222
雅典	-4223
ew	-4224
意義	-4225
為人	-4226
事实	-4227
布鲁	-4228
用了	-4229
騎士	-4230
刺激	-4231
可見	-4232
是大	-4233
国民政府	-4234
是有	-4235
劇場	-4236
十大	-4237
是最	-4238
1946	-4239
比赛中	-4240
国立	-4241
官至	-4242
一带	-4243
总督	-4244
死刑	-4245
▁通常	-4246
其他的	-4247
指令	-4248
維多	-4249
、2	-4250
日後	-4251
▁该物种的模式产	-4252
智慧	-4253
構成	-4254
次的	-4255
▁杨	-4256
日由	-4257
發布	-4258
方程式	-4259
9,	-4260
尔兰	-4261
王位	-4262
的公	-4263
阳县	-4264
合唱	-4265
新建	-4266
鄉試	-4267
巴斯	-4268
伯爵	-4269
員工	-4270
海峡	-4271
▁1960	-4272
种子	-4273
▁1986	-4274
▁八	-4275
加強	-4276
對方	-4277
省的	-4278
▁随后	-4279
玛丽	-4280
▁牠們	-4281
困難	-4282
理念	-4283
了一些	-4284
畢業於	-4285
亚历	-4286
加速	-4287
漢字	-4288
德尔	-4289
衛生	-4290
back	-4291
发起	-4292
请求	-4293
但因	-4294
损失	-4295
的光	-4296
贵族	-4297
{}	-4298
作業	-4299
執導	-4300
非法	-4301
尋找	-4302
爭取	-4303
中间	-4304
損失	-4305
大楼	-4306
沈阳	-4307
很大的	-4308
占地	-4309
裡的	-4310
哥倫	-4311
國民政府	-4312
氣旋	-4313
作的	-4314
日报	-4315
百萬	-4316
語的	-4317
億美元	-4318
▁1982	-4319
區內	-4320
裁判	-4321
卫生	-4322
密切	-4323
成長	-4324
責任	-4325
了他的	-4326
並無	-4327
地中	-4328
干部	-4329
莱茵	-4330
都不	-4331
大部份	-4332
有着	-4333
銷量	-4334
▁id	-4335
my	-4336
▁我	-4337
路口	-4338
版的	-4339
po	-4340
广告	-4341
覆盖	-4342
军的	-4343
放弃	-4344
主場	-4345
回應	-4346
国家的	-4347
周围	-4348
奧地利	-4349
則在	-4350
大師	-4351
嘗試	-4352
日報	-4353
格勒	-4354
原理	-4355
條例	-4356
阶级	-4357
捷運	-4358
are	-4359
私立	-4360
平民	-4361
,,	-4362
機的	-4363
無線	-4364
防守	-4365
no	-4366
山的	-4367
聲明	-4368
德意志	-4369
提出的	-4370
總站	-4371
類的	-4372
ish	-4373
3000	-4374
▁1983	-4375
,7	-4376
bl	-4377
遇到	-4378
吉他	-4379
的特有植物	-4380
分之	-4381
整體	-4382
公佈	-4383
幾個	-4384
,2005	-4385
另有	-4386
部部长	-4387
透露	-4388
age	-4389
有可能	-4390
董事長	-4391
▁1987	-4392
和大	-4393
结束后	-4394
▁分布在	-4395
电气	-4396
福州	-4397
西蘭	-4398
,8	-4399
加工	-4400
▁現在	-4401
沙田	-4402
cp	-4403
青少年	-4404
中原	-4405
称作	-4406
的時間	-4407
批判	-4408
空氣	-4409
购买	-4410
101	-4411
分別為	-4412
之名	-4413
妹妹	-4414
威胁	-4415
及其他	-4416
成功的	-4417
▁1970	-4418
进士	-4419
好友	-4420
延長	-4421
為食	-4422
綠色	-4423
通车	-4424
仍在	-4425
實行	-4426
▁style	-4427
澳大利亞	-4428
合同	-4429
里亚	-4430
▁随着	-4431
此之外	-4432
搜索	-4433
召開	-4434
ile	-4435
形成的	-4436
该市	-4437
女主角	-4438
新竹	-4439
珊瑚	-4440
装备	-4441
尔省的一个市镇	-4442
介石	-4443
弟子	-4444
民间	-4445
play	-4446
慕容	-4447
资金	-4448
反而	-4449
扩大	-4450
追求	-4451
出现在	-4452
哥伦	-4453
▁被	-4454
老師	-4455
ork	-4456
觀光	-4457
1948	-4458
物品	-4459
運用	-4460
」;	-4461
人才	-4462
有一個	-4463
一级	-4464
出场	-4465
舰队	-4466
众多	-4467
福利	-4468
生活在	-4469
02	-4470
加斯	-4471
深入	-4472
維多利亞	-4473
外國	-4474
多種	-4475
慈善	-4476
殿試	-4477
▁1946	-4478
的話	-4479
月在	-4480
省負責管轄	-4481
发动机	-4482
流量	-4483
万美元	-4484
1940	-4485
是為	-4486
錄音	-4487
功率	-4488
符號	-4489
山坡	-4490
给了	-4491
受歡迎	-4492
,9	-4493
_2	-4494
不仅	-4495
转向	-4496
作曲家	-4497
两次	-4498
丹麥	-4499
想法	-4500
的能力	-4501
仪式	-4502
垂直	-4503
山区	-4504
神经	-4505
1941	-4506
1975	-4507
主流	-4508
发电	-4509
所辖	-4510
推廣	-4511
now	-4512
最多的	-4513
擴大	-4514
界的	-4515
的電影	-4516
,6	-4517
著有	-4518
東北部	-4519
全国人大	-4520
自殺	-4521
首度	-4522
任中共	-4523
基金會	-4524
ground	-4525
對應	-4526
分別是	-4527
的日本	-4528
入選	-4529
檔案	-4530
河口	-4531
一部分	-4532
的情况下	-4533
光緒	-4534
具体	-4535
▁他是	-4536
任天堂	-4537
背鰭	-4538
馬拉	-4539
估计	-4540
兩者	-4541
分解	-4542
展覽	-4543
回歸	-4544
豐富	-4545
▁车站	-4546
發行的	-4547
1920	-4548
座堂	-4549
榮譽	-4550
研發	-4551
篮球	-4552
维持	-4553
大学的	-4554
形成了	-4555
芬蘭	-4556
巴赫	-4557
末期	-4558
美术	-4559
黑暗	-4560
台南	-4561
歌唱	-4562
1930	-4563
曹操	-4564
线的	-4565
七月	-4566
优秀	-4567
管制	-4568
候選人	-4569
mv	-4570
修道	-4571
名人	-4572
戏剧	-4573
更為	-4574
爱尔兰	-4575
衍生	-4576
dna	-4577
它是	-4578
法蘭	-4579
介绍	-4580
架構	-4581
日上午	-4582
之地	-4583
山地	-4584
華盛	-4585
old	-4586
事业	-4587
俄国	-4588
后者	-4589
四世	-4590
尔的	-4591
竞争	-4592
年成立	-4593
▁1978	-4594
内战	-4595
幕府	-4596
全长	-4597
哥哥	-4598
相反	-4599
包含了	-4600
的設計	-4601
價格	-4602
北市	-4603
武裝	-4604
監督	-4605
▁洪	-4606
初年	-4607
动车	-4608
勒斯	-4609
死后	-4610
▁te	-4611
巴基斯坦	-4612
03	-4613
不但	-4614
四月	-4615
救援	-4616
粵語	-4617
總教區	-4618
下属	-4619
开展	-4620
日常	-4621
行人	-4622
空气	-4623
觀點	-4624
的音樂	-4625
各國	-4626
奥尔	-4627
海峽	-4628
防禦	-4629
尚书	-4630
斯洛	-4631
科夫	-4632
稱作	-4633
ock	-4634
完成了	-4635
葡萄牙语	-4636
▁塞	-4637
our	-4638
▁九	-4639
▁又	-4640
德斯	-4641
曾被	-4642
立法會	-4643
指导	-4644
連載	-4645
華盛頓	-4646
高達	-4647
天津市	-4648
改名為	-4649
即可	-4650
叙利亚	-4651
棲息深度	-4652
pc	-4653
會長	-4654
▁苏	-4655
考試	-4656
所需	-4657
特性	-4658
年美国	-4659
取得了	-4660
ai	-4661
创立	-4662
送到	-4663
都可以	-4664
google	-4665
▁中华人民共和国	-4666
▁&	-4667
会的	-4668
福音	-4669
视为	-4670
立方米	-4671
成绩	-4672
的後	-4673
突厥	-4674
1947	-4675
人数	-4676
山脉	-4677
肯定	-4678
襲擊	-4679
國際機場	-4680
有了	-4681
殺死	-4682
安徽省	-4683
第二次世界大戰	-4684
優勢	-4685
彼此	-4686
無人	-4687
用戶	-4688
领土	-4689
任職	-4690
慕尼	-4691
模特	-4692
貴族	-4693
▁但在	-4694
▁民国	-4695
▁皮	-4696
選為	-4697
县的一个	-4698
▁清朝	-4699
著的	-4700
宣告	-4701
▁索	-4702
分的	-4703
及後	-4704
拉德	-4705
短期	-4706
sil	-4707
民众	-4708
嘉義	-4709
▁两	-4710
华盛	-4711
開幕	-4712
即是	-4713
温度	-4714
是巴西	-4715
下半	-4716
史密	-4717
布魯	-4718
德川	-4719
福德	-4720
第十二	-4721
▁吳	-4722
▁縣	-4723
课程	-4724
1944	-4725
委副书记	-4726
▁托	-4727
▁美	-4728
太原	-4729
居住在	-4730
li	-4731
印象	-4732
是個	-4733
经理	-4734
底層水域	-4735
▁汉	-4736
女儿	-4737
布斯	-4738
捷克	-4739
祖先	-4740
▁me	-4741
上游	-4742
兩岸	-4743
弗朗	-4744
正面	-4745
存在的	-4746
▁于	-4747
对应	-4748
行駛	-4749
华盛顿	-4750
1958	-4751
公社	-4752
收到	-4753
附加	-4754
後者	-4755
文獻	-4756
检查	-4757
责任	-4758
中國國民黨	-4759
政党	-4760
民主党	-4761
接触	-4762
對外	-4763
改良	-4764
運行	-4765
定位	-4766
雍正	-4767
意识	-4768
教区	-4769
▁该物种的模式产地在	-4770
▁泰	-4771
一詞	-4772
來往	-4773
大戰	-4774
邮政	-4775
hd	-4776
簽約	-4777
質疑	-4778
个月	-4779
主辦	-4780
任命为	-4781
態度	-4782
施工	-4783
球迷	-4784
的西	-4785
重返	-4786
▁面積	-4787
技巧	-4788
错误	-4789
國家隊	-4790
▁花	-4791
az	-4792
、3	-4793
离子	-4794
眾多	-4795
餐廳	-4796
任意	-4797
格雷	-4798
签署	-4799
一天	-4800
慕尼黑	-4801
之上	-4802
街道下辖以下地区	-4803
繁殖	-4804
地形	-4805
麥克	-4806
▁最初	-4807
▁istat	-4808
cc	-4809
屯門	-4810
標誌	-4811
可在	-4812
天使	-4813
弗雷	-4814
成年	-4815
活躍	-4816
職棒	-4817
這次	-4818
場比賽	-4819
强烈	-4820
欢迎	-4821
畢業後	-4822
属的动物	-4823
;"	-4824
▁杜	-4825
原則	-4826
執政	-4827
簽署	-4828
人民币	-4829
哈尔滨	-4830
在位	-4831
姓氏	-4832
工商	-4833
签订	-4834
系统的	-4835
便是	-4836
大公	-4837
1972	-4838
▁con	-4839
分校	-4840
大同	-4841
ica	-4842
系統的	-4843
移到	-4844
▁尼	-4845
逻辑	-4846
建築物	-4847
以往	-4848
做法	-4849
釋放	-4850
兩次	-4851
格里	-4852
1973	-4853
多名	-4854
實現	-4855
英軍	-4856
较为	-4857
▁1979	-4858
危險	-4859
感情	-4860
清代	-4861
意为	-4862
直升	-4863
連結	-4864
1976	-4865
無論	-4866
高校	-4867
出版的	-4868
▁1958	-4869
周邊	-4870
足球俱乐部	-4871
印第	-4872
學士	-4873
出入口	-4874
丹麦	-4875
加强	-4876
势力	-4877
时任	-4878
突出	-4879
锦标	-4880
130	-4881
压力	-4882
直播	-4883
迫使	-4884
小姐	-4885
▁第三	-4886
總會	-4887
首任	-4888
的四	-4889
center	-4890
促進	-4891
ach	-4892
論文	-4893
外交部	-4894
▁总人口	-4895
南昌	-4896
反抗	-4897
已於	-4898
此后	-4899
周边	-4900
定律	-4901
▁對於	-4902
排行榜	-4903
组成的	-4904
添加	-4905
移居	-4906
红军	-4907
队的	-4908
產生的	-4909
符号	-4910
教徒	-4911
象征	-4912
▁楊	-4913
上面	-4914
的歌曲	-4915
价格	-4916
兩年	-4917
各个	-4918
▁ex	-4919
yo	-4920
女神	-4921
对手	-4922
命名为	-4923
▁1937	-4924
培养	-4925
射擊	-4926
都会	-4927
哥倫比亞	-4928
之為	-4929
基隆	-4930
大批	-4931
神經	-4932
公式	-4933
醫生	-4934
成立后	-4935
岁时	-4936
长度	-4937
陕西省	-4938
三月	-4939
請求	-4940
足球隊	-4941
中間	-4942
拿破	-4943
百科	-4944
在上海	-4945
并未	-4946
抑制	-4947
带来	-4948
消防	-4949
的国家	-4950
杀死	-4951
经验	-4952
顾问	-4953
▁次年	-4954
親自	-4955
的成員	-4956
▁本魚	-4957
大规模	-4958
情况下	-4959
是一颗恒星	-4960
在西	-4961
富汗	-4962
日被	-4963
印第安	-4964
▁利	-4965
会上	-4966
大賽	-4967
法语	-4968
特别是	-4969
之意	-4970
百年	-4971
覆蓋	-4972
这次	-4973
收視	-4974
常务	-4975
锦标赛	-4976
ml	-4977
卡爾	-4978
政治部	-4979
这样的	-4980
停靠	-4981
的前身	-4982
▁1948	-4983
連任	-4984
ove	-4985
十六年	-4986
布雷	-4987
释放	-4988
ium	-4989
波特	-4990
重的	-4991
▁另一方面	-4992
一支	-4993
中国的	-4994
,"	-4995
克尔	-4996
戰略	-4997
則有	-4998
埔寨	-4999
扩展	-5000
来源	-5001
生長	-5002
的阿	-5003
種子	-5004
三次	-5005
手中	-5006
说明	-5007
等待	-5008
輻射	-5009
1942	-5010
字率	-5011
安娜	-5012
從而	-5013
碩士	-5014
成立于	-5015
國軍	-5016
瑟夫	-5017
余人	-5018
保罗	-5019
变种	-5020
柬埔寨	-5021
均有	-5022
天后	-5023
會被	-5024
lat	-5025
秘书长	-5026
辦公室	-5027
高雄市	-5028
1974	-5029
六月	-5030
周期	-5031
夏威	-5032
太守	-5033
的全	-5034
海水	-5035
褐色	-5036
▁所有	-5037
政治家	-5038
成人	-5039
時段	-5040
面向	-5041
騎兵	-5042
奥林匹克	-5043
波士	-5044
包圍	-5045
廢除	-5046
伊利	-5047
公众	-5048
原有	-5049
庄村	-5050
ax	-5051
學的	-5052
院校	-5053
十八年	-5054
岁的	-5055
民政	-5056
论文	-5057
届全国人民代表大会	-5058
剧院	-5059
勝出	-5060
考察	-5061
iel	-5062
届全国政协	-5063
变得	-5064
司马	-5065
不知	-5066
声称	-5067
娱乐	-5068
建制	-5069
良好	-5070
中心的	-5071
國家的	-5072
内阁	-5073
資產	-5074
保險	-5075
宣言	-5076
彰化	-5077
ite	-5078
尼亚州	-5079
斯托	-5080
校園	-5081
並由	-5082
刑事	-5083
順利	-5084
最有	-5085
總裁	-5086
區議會	-5087
▁何	-5088
出自	-5089
回合	-5090
國語	-5091
数的	-5092
戰鬥機	-5093
號的	-5094
▁1947	-5095
af	-5096
哺乳	-5097
性格	-5098
簽訂	-5099
县城	-5100
均为	-5101
山區	-5102
引用	-5103
拿下	-5104
曾於	-5105
未来	-5106
资产	-5107
電力	-5108
回答	-5109
抵达	-5110
color	-5111
單一	-5112
年春	-5113
文献	-5114
加入中国共产党	-5115
搖滾	-5116
整理	-5117
瑪麗	-5118
,2006	-5119
▁毛	-5120
他人	-5121
斯在	-5122
被捕	-5123
乌克兰	-5124
肉食性	-5125
align	-5126
並與	-5127
保证	-5128
正是	-5129
容量	-5130
iii	-5131
鱸形目	-5132
background	-5133
同步	-5134
此次	-5135
申请	-5136
区间	-5137
▁此後	-5138
ames	-5139
立法委員	-5140
在北	-5141
900	-5142
奧林匹克運動會	-5143
女孩	-5144
王室	-5145
被认为是	-5146
以其	-5147
公告	-5148
資本	-5149
版本的	-5150
立法院	-5151
接管	-5152
階級	-5153
獲得了	-5154
第一次世界大	-5155
性和	-5156
祭祀	-5157
资格	-5158
劇集	-5159
愛情	-5160
英超	-5161
首個	-5162
科學家	-5163
促进	-5164
觀賞	-5165
洛杉磯	-5166
抗日战争	-5167
丁目	-5168
主张	-5169
生態	-5170
省级	-5171
約為	-5172
螺旋	-5173
院長	-5174
夏威夷	-5175
知府	-5176
▁该地	-5177
的名稱	-5178
主题	-5179
二月	-5180
二次	-5181
告訴	-5182
妇女	-5183
是南極洲的	-5184
特別是	-5185
最高法院	-5186
文化大革命	-5187
ve	-5188
一条	-5189
種族	-5190
,10	-5191
▁使用	-5192
1969	-5193
1977	-5194
ds	-5195
平等	-5196
起了	-5197
有許多	-5198
ys	-5199
国军	-5200
成果	-5201
戰場	-5202
▁霍	-5203
达尔	-5204
遗产	-5205
ara	-5206
完整的	-5207
希特勒	-5208
▁1981	-5209
又在	-5210
洛夫	-5211
,2012	-5212
喇嘛	-5213
指導	-5214
註冊	-5215
,17	-5216
和他的	-5217
江蘇	-5218
米爾	-5219
機車	-5220
跑道	-5221
▁民國	-5222
的一座城市	-5223
堅持	-5224
鼓勵	-5225
另一个	-5226
在台灣	-5227
1/	-5228
机器	-5229
的法	-5230
复兴	-5231
沙漠	-5232
眼睛	-5233
赛事	-5234
道教	-5235
金曲	-5236
出现了	-5237
1968	-5238
将领	-5239
▁康熙	-5240
形狀	-5241
注册	-5242
登陆	-5243
專家	-5244
如同	-5245
發明	-5246
基础上	-5247
亿美元	-5248
格拉斯	-5249
年代初	-5250
codice	-5251
將領	-5252
端的	-5253
ple	-5254
▁阿尔	-5255
ae	-5256
▁梁	-5257
优势	-5258
兩位	-5259
此地	-5260
班次	-5261
女性为	-5262
坚持	-5263
為其	-5264
电脑	-5265
菲利	-5266
超级	-5267
的第三	-5268
交換	-5269
村民	-5270
黃色	-5271
ivers	-5272
長達	-5273
指的是	-5274
的山峰	-5275
ts	-5276
下游	-5277
宿舍	-5278
收費	-5279
耶穌	-5280
ence	-5281
ical	-5282
州負責管轄	-5283
族人	-5284
樂隊	-5285
蘋果	-5286
為香港	-5287
1967	-5288
合理	-5289
情報	-5290
普及	-5291
爾特	-5292
精靈	-5293
聖經	-5294
資金	-5295
地質	-5296
▁神	-5297
喜欢	-5298
氣壓	-5299
▁近年	-5300
工作的	-5301
1966	-5302
多夫	-5303
巴勒	-5304
曾是	-5305
芬兰	-5306
部署	-5307
關閉	-5308
侵略	-5309
撞擊	-5310
缅甸	-5311
十三年	-5312
入了	-5313
演藝	-5314
監察	-5315
律师	-5316
若干	-5317
選出	-5318
mac	-5319
▁1955	-5320
不僅	-5321
黑人	-5322
21、	-5323
text	-5324
▁现在	-5325
亲王	-5326
兴建	-5327
▁至於	-5328
不多	-5329
同名	-5330
平安	-5331
经典	-5332
正確	-5333
身為	-5334
ob	-5335
他也	-5336
麦克	-5337
的轨道	-5338
寄生	-5339
每一	-5340
的大型	-5341
1956	-5342
罕默	-5343
警報	-5344
地中海	-5345
最重要的	-5346
人是	-5347
平定	-5348
并非	-5349
探索	-5350
智能	-5351
区和	-5352
網球	-5353
pre	-5354
▁一个	-5355
系的	-5356
約有	-5357
重視	-5358
1943	-5359
循環	-5360
子公司	-5361
时期的	-5362
▁外	-5363
升級	-5364
寺院	-5365
视频	-5366
参谋长	-5367
工作室	-5368
一共	-5369
戰術	-5370
每次	-5371
通行	-5372
當地的	-5373
下方	-5374
兩名	-5375
大连	-5376
斗争	-5377
東亞	-5378
基督徒	-5379
更名為	-5380
所谓	-5381
藍色	-5382
140	-5383
1964	-5384
古拉	-5385
年才	-5386
事情	-5387
信奉	-5388
停車	-5389
测量	-5390
知县	-5391
信任	-5392
新城	-5393
受到了	-5394
香港的	-5395
晚期	-5396
等级	-5397
资本	-5398
身体	-5399
边界	-5400
mer	-5401
在前	-5402
电话	-5403
上方	-5404
依靠	-5405
巴尔	-5406
晉級	-5407
議題	-5408
造型	-5409
▁or	-5410
左翼	-5411
格林	-5412
隶属	-5413
▁am	-5414
事實上	-5415
岁人口	-5416
年球季	-5417
夏天	-5418
宣稱	-5419
成分	-5420
之處	-5421
主權	-5422
懷疑	-5423
常見的	-5424
会长	-5425
接壤	-5426
里克	-5427
▁小行星列表	-5428
考试	-5429
草原	-5430
轄區	-5431
库尔	-5432
德華	-5433
花园	-5434
高架	-5435
傾向	-5436
医生	-5437
呼吸	-5438
戰隊	-5439
歐盟	-5440
1971	-5441
▁1956	-5442
烏克蘭	-5443
▁蒙	-5444
召集	-5445
殺害	-5446
週期	-5447
族自治	-5448
da	-5449
得分	-5450
涉嫌	-5451
荣誉	-5452
ime	-5453
联网	-5454
授權	-5455
雨量	-5456
提供的	-5457
的一次	-5458
阿富汗	-5459
但不	-5460
期刊	-5461
的作用	-5462
公署	-5463
大帝	-5464
對此	-5465
汉语	-5466
也会	-5467
智利	-5468
股票	-5469
在中國	-5470
內戰	-5471
哈拉	-5472
的美	-5473
聲稱	-5474
軍官	-5475
car	-5476
月中	-5477
司令员	-5478
工程师	-5479
菲律宾	-5480
放射	-5481
本名	-5482
的金	-5483
穿越	-5484
立場	-5485
縮寫	-5486
的最高	-5487
流亡	-5488
緬甸	-5489
输入	-5490
萬美元	-5491
面上	-5492
的存在	-5493
穆罕默	-5494
出土	-5495
升為	-5496
復興	-5497
波音	-5498
溶液	-5499
足夠	-5500
驱逐	-5501
her	-5502
基本上	-5503
是中华人民共和国	-5504
监督	-5505
藥物	-5506
苏州	-5507
年总人口	-5508
▁1952	-5509
▁康	-5510
障礙	-5511
▁ngc	-5512
▁coun	-5513
幹線	-5514
现实	-5515
年人口普查	-5516
望遠	-5517
水量	-5518
說是	-5519
ann	-5520
的儿子	-5521
解除	-5522
就任	-5523
就被	-5524
暫時	-5525
队伍	-5526
交换	-5527
克莱	-5528
各大	-5529
国际机场	-5530
带有	-5531
更为	-5532
言人	-5533
關鍵	-5534
出發	-5535
德华	-5536
战后	-5537
年香港	-5538
時期的	-5539
地点	-5540
▁初	-5541
地质	-5542
当局	-5543
▁位於	-5544
不受	-5545
候选	-5546
島上	-5547
昆明	-5548
清华	-5549
印度尼	-5550
是中國	-5551
人所	-5552
向南	-5553
相应	-5554
,12	-5555
%;	-5556
周恩	-5557
轉乘	-5558
sch	-5559
、1	-5560
加勒	-5561
声明	-5562
神秘	-5563
吏部	-5564
客家	-5565
性別	-5566
足球聯賽	-5567
人生	-5568
福特	-5569
▁at	-5570
省政府	-5571
▁太	-5572
原來	-5573
立陶	-5574
但仍	-5575
格尔	-5576
違反	-5577
use	-5578
东京	-5579
入选	-5580
敵人	-5581
文的	-5582
休息	-5583
富士	-5584
水利	-5585
旗下的	-5586
熱帶氣旋	-5587
▁江	-5588
內地	-5589
因其	-5590
年與	-5591
ley	-5592
1937	-5593
▁假	-5594
遊行	-5595
▁colspan	-5596
在南	-5597
▁as	-5598
於香港	-5599
享有	-5600
回国	-5601
射入	-5602
抗议	-5603
提交	-5604
防御	-5605
東南部	-5606
航空母	-5607
两侧	-5608
德克	-5609
輸入	-5610
▁青	-5611
之女	-5612
予以	-5613
望遠鏡	-5614
中以	-5615
但由於	-5616
翰林院	-5617
1965	-5618
▁龙	-5619
片的	-5620
能在	-5621
路线	-5622
山县	-5623
▁隨後	-5624
隸屬於	-5625
明确	-5626
移至	-5627
困难	-5628
教科	-5629
供奉	-5630
名叫	-5631
离心	-5632
通常是	-5633
—6	-5634
佛罗	-5635
年有	-5636
手槍	-5637
▁曾任	-5638
的中心	-5639
為輻鰭魚綱鱸形目	-5640
一職	-5641
八月	-5642
改进	-5643
状况	-5644
▁sy	-5645
製作的	-5646
傑克	-5647
元的	-5648
协助	-5649
機制	-5650
颜色	-5651
▁1954	-5652
以至	-5653
勞動	-5654
同志	-5655
增強	-5656
药物	-5657
其中男	-5658
名義	-5659
局長	-5660
流浪	-5661
編劇	-5662
识字率	-5663
古巴	-5664
會試	-5665
iki	-5666
原型	-5667
投手	-5668
集的	-5669
ool	-5670
▁se	-5671
新增	-5672
足球運動員	-5673
向西	-5674
真实	-5675
ale	-5676
哥伦比亚	-5677
完美	-5678
帶有	-5679
從此	-5680
立陶宛	-5681
▁郭	-5682
危机	-5683
受害	-5684
▁he	-5685
張單曲	-5686
cm	-5687
▁基	-5688
中所	-5689
勋章	-5690
的北	-5691
高峰	-5692
1959	-5693
文艺	-5694
,2007	-5695
尺寸	-5696
意為	-5697
大學的	-5698
▁1930	-5699
农村	-5700
动机	-5701
場地	-5702
▁游戏	-5703
的功能	-5704
▁首	-5705
習慣	-5706
马里	-5707
amp	-5708
亞軍	-5709
大埔	-5710
监狱	-5711
推出的	-5712
不敌	-5713
二级	-5714
人權	-5715
兩國	-5716
划归	-5717
荃灣	-5718
▁1941	-5719
下來	-5720
增長	-5721
沿用	-5722
john	-5723
的南	-5724
盆地	-5725
名单	-5726
校舍	-5727
身亡	-5728
第三次	-5729
silver	-5730
tp	-5731
一生	-5732
有多	-5733
112	-5734
▁1938	-5735
劇本	-5736
贊助	-5737
con	-5738
太郎	-5739
氣體	-5740
修道院	-5741
拉特	-5742
▁除此之外	-5743
生态	-5744
货物	-5745
防空	-5746
马斯	-5747
姊妹	-5748
引進	-5749
標本	-5750
rom	-5751
系列的	-5752
;0	-5753
▁就	-5754
关闭	-5755
千人	-5756
書籍	-5757
日開始	-5758
各個	-5759
大大	-5760
整体	-5761
真正的	-5762
发明	-5763
后期	-5764
長子	-5765
始建于	-5766
orld	-5767
崇拜	-5768
可以用	-5769
命名的	-5770
男主角	-5771
的人口	-5772
其中男性为	-5773
▁秦	-5774
使他	-5775
华人	-5776
婦女	-5777
尔多	-5778
檢查	-5779
证据	-5780
開辦	-5781
1952	-5782
格斯	-5783
次日	-5784
的老	-5785
觀塘	-5786
ube	-5787
唱片公司	-5788
立刻	-5789
失去了	-5790
免疫	-5791
學系	-5792
巴伐	-5793
江西省	-5794
▁贝	-5795
因此在	-5796
其中一個	-5797
鐵路車站	-5798
杰克	-5799
泰勒	-5800
奥运会	-5801
▁1940	-5802
三位	-5803
世的	-5804
区别	-5805
器官	-5806
現任	-5807
苏格兰	-5808
5000	-5809
林斯	-5810
之前的	-5811
地名	-5812
清真	-5813
看見	-5814
又被	-5815
口徑	-5816
讲述	-5817
马拉	-5818
建立的	-5819
又有	-5820
平行	-5821
大規模	-5822
向北	-5823
搭配	-5824
泰国	-5825
的使用	-5826
主打	-5827
在于	-5828
地域	-5829
跟隨	-5830
cy	-5831
企圖	-5832
现场	-5833
現實	-5834
;0—6	-5835
vi	-5836
也能	-5837
入境	-5838
其余	-5839
强度	-5840
新人	-5841
海底	-5842
博士学位	-5843
▁inter	-5844
被判	-5845
1939	-5846
人民法院	-5847
一至	-5848
充滿	-5849
席位	-5850
广州市	-5851
城墙	-5852
絕對	-5853
緊急	-5854
的家	-5855
認同	-5856
5"	-5857
团队	-5858
太祖	-5859
济南	-5860
男孩	-5861
货币	-5862
十二月	-5863
撰寫	-5864
称号	-5865
研究中心	-5866
分布於南美洲	-5867
专区	-5868
改制	-5869
教练	-5870
症狀	-5871
1963	-5872
巴塞	-5873
納粹	-5874
的其他	-5875
優秀	-5876
动作	-5877
尼泊	-5878
耶稣	-5879
英尺	-5880
典型的	-5881
的问题	-5882
周圍	-5883
改称	-5884
▁万	-5885
分离	-5886
地址	-5887
定为	-5888
提前	-5889
给予	-5890
边境	-5891
逢星期	-5892
九月	-5893
秩序	-5894
是台灣	-5895
1500	-5896
1957	-5897
一份	-5898
途經	-5899
物浦	-5900
登記	-5901
还在	-5902
党员	-5903
黄金	-5904
▁萨	-5905
告诉	-5906
、4	-5907
但其	-5908
感覺	-5909
故此	-5910
▁許多	-5911
乘坐	-5912
分離	-5913
太宗	-5914
自此	-5915
為台灣	-5916
相關的	-5917
就会	-5918
种族	-5919
的人物	-5920
一代	-5921
经济学	-5922
▁赫	-5923
卫视	-5924
是他	-5925
竣工	-5926
頻率	-5927
关键	-5928
兴趣	-5929
馬爾	-5930
的要求	-5931
医疗	-5932
滿足	-5933
雕塑	-5934
ase	-5935
互联网	-5936
十五年	-5937
穆罕默德	-5938
、6	-5939
主事	-5940
存的	-5941
地產	-5942
染色	-5943
談判	-5944
新北市	-5945
的不同	-5946
委员会委员	-5947
mp	-5948
一場	-5949
明代	-5950
社群	-5951
终于	-5952
願意	-5953
做了	-5954
形态	-5955
此时	-5956
落在	-5957
以東	-5958
兵团	-5959
的心	-5960
分别是	-5961
薩斯	-5962
高山	-5963
的基本	-5964
aw	-5965
fl	-5966
并将	-5967
开工	-5968
正月	-5969
种植	-5970
里亞	-5971
土壤	-5972
得主	-5973
足協	-5974
脫離	-5975
西路	-5976
訊息	-5977
▁吴	-5978
任职	-5979
框架	-5980
獅子	-5981
莎白	-5982
主教座堂	-5983
城县	-5984
iam	-5985
▁世界	-5986
▁亞	-5987
▁蘇	-5988
发出	-5989
参赛	-5990
尊重	-5991
建有	-5992
看法	-5993
受伤	-5994
差距	-5995
擴張	-5996
校友	-5997
孟加拉	-5998
籃球	-5999
貨幣	-6000
book	-6001
美國海軍	-6002
书院	-6003
就读	-6004
效應	-6005
公開賽	-6006
和新	-6007
直徑	-6008
维护	-6009
言論	-6010
骑士	-6011
,2008	-6012
北洋	-6013
模仿	-6014
变成	-6015
收购	-6016
ash	-6017
min	-6018
red	-6019
日發行	-6020
單元	-6021
斯大	-6022
真的	-6023
自主	-6024
頒發	-6025
1961	-6026
="5"	-6027
own	-6028
有很多	-6029
的歷史	-6030
任內	-6031
出兵	-6032
对此	-6033
擴展	-6034
更改	-6035
清水	-6036
▁夏	-6037
▁沃	-6038
如今	-6039
數的	-6040
十一月	-6041
毕业后	-6042
科学家	-6043
製作人	-6044
,2001	-6045
▁、	-6046
丘陵	-6047
检察	-6048
歌詞	-6049
達爾	-6050
1936	-6051
:,	-6052
强调	-6053
最为	-6054
直隸	-6055
科幻	-6056
競選	-6057
上任	-6058
报纸	-6059
覺得	-6060
野生	-6061
亲自	-6062
他和	-6063
当年	-6064
轉會	-6065
型机车	-6066
▁红	-6067
流傳	-6068
▁此時	-6069
生长在	-6070
的身份	-6071
僅有	-6072
多元	-6073
水深	-6074
號為	-6075
行政長官	-6076
保险	-6077
光绪	-6078
宜蘭	-6079
等站	-6080
认识	-6081
1955	-6082
来越	-6083
诗人	-6084
錄影	-6085
有人口	-6086
_3	-6087
亦可	-6088
在該	-6089
決議	-6090
满洲	-6091
频率	-6092
su	-6093
克羅	-6094
矩阵	-6095
神社	-6096
繪入	-6097
装饰	-6098
迷你	-6099
夫斯基	-6100
带小行星	-6101
5%	-6102
▁里	-6103
充分	-6104
将会	-6105
情报	-6106
血液	-6107
字符	-6108
十四年	-6109
节度使	-6110
北京大学	-6111
▁无	-6112
军团	-6113
图像	-6114
常被	-6115
確保	-6116
不可能	-6117
而得名	-6118
部電影	-6119
▁各	-6120
反射	-6121
station	-6122
王后	-6123
認證	-6124
▁ad	-6125
学士	-6126
产生的	-6127
政治局	-6128
人文	-6129
出战	-6130
大選	-6131
斯和	-6132
世界的	-6133
县的一个城镇	-6134
为一	-6135
因子	-6136
蒂利亚	-6137
national	-6138
五個	-6139
拉多	-6140
水的	-6141
交叉	-6142
元音	-6143
力学	-6144
即將	-6145
带领	-6146
行业	-6147
發動機	-6148
明確	-6149
林中	-6150
零售	-6151
350	-6152
▁最終	-6153
可能性	-6154
離子	-6155
電車	-6156
▁也	-6157
俗稱	-6158
巡洋	-6159
运用	-6160
道夫	-6161
一半	-6162
科研	-6163
發現了	-6164
越来越	-6165
▁1939	-6166
去了	-6167
日益	-6168
次子	-6169
移交	-6170
1,000	-6171
攻入	-6172
旨在	-6173
等級	-6174
谈判	-6175
长达	-6176
同時也	-6177
!」	-6178
則由	-6179
定為	-6180
群众	-6181
翡翠	-6182
證券	-6183
改名为	-6184
設計的	-6185
1954	-6186
工艺	-6187
ise	-6188
美國的	-6189
日治時期	-6190
在本	-6191
大橋	-6192
宰相	-6193
東區	-6194
現在的	-6195
其子	-6196
手機	-6197
聯繫	-6198
知名的	-6199
▁那	-6200
人都	-6201
长轴	-6202
▁六	-6203
声音	-6204
密的	-6205
编号	-6206
出來的	-6207
大理	-6208
常用	-6209
心的	-6210
神話	-6211
委會	-6212
bert	-6213
▁赵	-6214
悠久	-6215
▁或	-6216
、「	-6217
政委	-6218
模拟	-6219
風險	-6220
2。	-6221
伯格	-6222
甲組	-6223
維奇	-6224
fo	-6225
jo	-6226
卡特	-6227
日語	-6228
的后	-6229
線上	-6230
在他的	-6231
升级	-6232
岛屿	-6233
白人	-6234
ner	-6235
▁通过	-6236
比利時	-6237
拜占	-6238
牙齒	-6239
病人	-6240
繪入地圖	-6241
inter	-6242
一路	-6243
所得	-6244
播映	-6245
職位	-6246
分别为	-6247
屬肉食性	-6248
安县	-6249
機槍	-6250
當天	-6251
領隊	-6252
支持者	-6253
喜劇	-6254
生理	-6255
等职	-6256
預算	-6257
gen	-6258
▁go	-6259
首歌曲	-6260
▁1966	-6261
审判	-6262
形態	-6263
▁現任	-6264
各地的	-6265
比利时	-6266
封面	-6267
發音	-6268
▁该小行星	-6269
▁佩	-6270
層的	-6271
政使	-6272
蒸汽	-6273
1962	-6274
▁乌	-6275
名列	-6276
夺得	-6277
始人	-6278
月份	-6279
法令	-6280
转换	-6281
▁故事	-6282
▁这是	-6283
古老的	-6284
全国重点	-6285
的先	-6286
評估	-6287
长春	-6288
▁而且	-6289
印度洋	-6290
党的	-6291
选为	-6292
绕太阳运	-6293
在那	-6294
邊境	-6295
冒險	-6296
拯救	-6297
時報	-6298
曾有	-6299
的可	-6300
推出了	-6301
逃亡	-6302
領地	-6303
绕太阳运转的小行星	-6304
──	-6305
▁鄭	-6306
定了	-6307
年龄	-6308
幸福	-6309
效应	-6310
越來	-6311
史密斯	-6312
犹太人	-6313
是一颗绕太阳运转的小行星	-6314
外界	-6315
軟條	-6316
icro	-6317
亚历山大	-6318
公子	-6319
輸出	-6320
半长轴	-6321
出色	-6322
喜剧	-6323
配備	-6324
再加上	-6325
三甲	-6326
判決	-6327
地处	-6328
线性	-6329
ome	-6330
柴油机车	-6331
ction	-6332
型电力机车	-6333
▁该小行星于	-6334
分享	-6335
時代的	-6336
比賽中	-6337
▁1927	-6338
南下	-6339
月任	-6340
立委	-6341
观测	-6342
▁臺灣	-6343
副部长	-6344
届全国政协委员	-6345
詳細	-6346
一千	-6347
催化	-6348
前後	-6349
神父	-6350
諮詢	-6351
相當於	-6352
▁人	-6353
扩建	-6354
方形	-6355
中國的	-6356
▁[	-6357
不满	-6358
伐克	-6359
實力	-6360
寫作	-6361
年於	-6362
文帝	-6363
政府在	-6364
▁ser	-6365
繁忙	-6366
▁br	-6367
常委会	-6368
這樣的	-6369
公寓	-6370
跨越	-6371
輔助	-6372
越來越	-6373
刊登	-6374
終點	-6375
附属	-6376
▁ph	-6377
火车站	-6378
▁1975	-6379
▁漢	-6380
併入	-6381
军官	-6382
手術	-6383
相当于	-6384
小行星带小行星	-6385
書中	-6386
樣的	-6387
車隊	-6388
▁ua	-6389
良好的	-6390
为主小行星带小行星	-6391
移植	-6392
競賽	-6393
譯為	-6394
世界盃	-6395
稱之為	-6396
离心率为	-6397
先前	-6398
克萊	-6399
石器	-6400
而來	-6401
半长轴为	-6402
作物	-6403
教的	-6404
會議員	-6405
攻占	-6406
时间为	-6407
寻找	-6408
干涉	-6409
漸漸	-6410
▁we	-6411
▁1942	-6412
的轨道半长轴为	-6413
du	-6414
一职	-6415
模擬	-6416
共计	-6417
最為	-6418
纳粹	-6419
龍科	-6420
、5	-6421
客车	-6422
丁堡	-6423
已在	-6424
韦尔	-6425
鱼类	-6426
探險隊	-6427
日发现	-6428
ka	-6429
▁施	-6430
勞工	-6431
县的	-6432
彗星	-6433
徒刑	-6434
片中	-6435
只好	-6436
季後	-6437
日晚	-6438
聯絡	-6439
訊號	-6440
首的	-6441
公會	-6442
制片	-6443
喜愛	-6444
推动	-6445
航線	-6446
ins	-6447
是由于	-6448
▁1953	-6449
▁1973	-6450
發揮	-6451
igh	-6452
主人	-6453
五世	-6454
气温	-6455
珍珠	-6456
辖区	-6457
的土地	-6458
▁mar	-6459
会员	-6460
種類	-6461
邊界	-6462
采访	-6463
▁it	-6464
下来	-6465
圓形	-6466
外圍	-6467
封為	-6468
延安	-6469
提倡	-6470
的總	-6471
产生了	-6472
營業	-6473
規範	-6474
ster	-6475
by	-6476
奴隶	-6477
小平	-6478
期望	-6479
的一条	-6480
處理器	-6481
启动	-6482
哈利	-6483
因應	-6484
短篇	-6485
蒂芬	-6486
轟炸機	-6487
上半	-6488
事後	-6489
的電	-6490
農民	-6491
最后一	-6492
mb	-6493
一角	-6494
哈佛	-6495
極為	-6496
体育场	-6497
模特兒	-6498
间的	-6499
军委	-6500
品質	-6501
子彈	-6502
枢纽	-6503
自杀	-6504
选手	-6505
排名第	-6506
_4	-6507
收录	-6508
盟軍	-6509
原因是	-6510
文化的	-6511
的消息	-6512
▁莱	-6513
北伐	-6514
塔基	-6515
室內	-6516
牛津	-6517
辞职	-6518
主義者	-6519
1938	-6520
▁华	-6521
▁城	-6522
守護	-6523
帶著	-6524
年秋	-6525
ode	-6526
清真寺	-6527
类型为	-6528
▁man	-6529
县级	-6530
思考	-6531
站房	-6532
维埃	-6533
被告	-6534
國務	-6535
意见	-6536
▁ra	-6537
主义者	-6538
便利	-6539
屏東	-6540
循环	-6541
數目	-6542
肌肉	-6543
這項	-6544
利物浦	-6545
ower	-6546
pm	-6547
南路	-6548
展览	-6549
批复	-6550
驾驶	-6551
高地	-6552
ict	-6553
难以	-6554
▁tr	-6555
▁洛	-6556
公立	-6557
台幣	-6558
畫面	-6559
变为	-6560
提琴	-6561
維護	-6562
講述	-6563
,16	-6564
先进	-6565
消歧	-6566
▁cl	-6567
爱德华	-6568
可以通过	-6569
:1	-6570
不如	-6571
入圍	-6572
和中	-6573
回家	-6574
完善	-6575
旋轉	-6576
无线	-6577
短暫	-6578
决赛以	-6579
有一些	-6580
往返	-6581
探測	-6582
放置	-6583
死去	-6584
綜藝	-6585
洛杉矶	-6586
進行了	-6587
族自治区	-6588
▁1968	-6589
写作	-6590
推進	-6591
織田	-6592
▁經過	-6593
場的	-6594
技能	-6595
拉的	-6596
旧址	-6597
深刻	-6598
神话	-6599
邊緣	-6600
▁1965	-6601
之路	-6602
各国	-6603
各省	-6604
慶祝	-6605
是從	-6606
更換	-6607
次於	-6608
近似	-6609
生素	-6610
年代为	-6611
引起了	-6612
只在	-6613
月刊	-6614
拉尔	-6615
祖籍	-6616
脊椎	-6617
启用	-6618
局部	-6619
积分	-6620
效力於	-6621
1"	-6622
主動	-6623
典型	-6624
分散	-6625
发售	-6626
等於	-6627
sic	-6628
前者	-6629
城鎮	-6630
對其	-6631
座位	-6632
斯里	-6633
滅絕	-6634
臀鰭	-6635
fr	-6636
但卻	-6637
打击	-6638
浪漫	-6639
股東	-6640
att	-6641
▁上海	-6642
▁学校	-6643
pt	-6644
截止	-6645
2020	-6646
摄影	-6647
武昌	-6648
滨海	-6649
二氧化	-6650
魚亞目	-6651
轨道交通	-6652
中将	-6653
免费	-6654
工部	-6655
打造	-6656
:《	-6657
▁愛	-6658
不及	-6659
原则	-6660
州立	-6661
确认	-6662
考入	-6663
東南亞	-6664
1935	-6665
▁希	-6666
面臨	-6667
人次	-6668
纳德	-6669
选中	-6670
代表团	-6671
,	-6672
▁	-6673
的	-6674
。	-6675
1	-6676
0	-6677
年	-6678
、	-6679
2	-6680
一	-6681
在	-6682
是	-6683
中	-6684
9	-6685
人	-6686
a	-6687
有	-6688
大	-6689
e	-6690
3	-6691
和	-6692
5	-6693
為	-6694
以	-6695
i	-6696
8	-6697
o	-6698
r	-6699
4	-6700
n	-6701
月	-6702
日	-6703
6	-6704
了	-6705
国	-6706
7	-6707
s	-6708
t	-6709
为	-6710
地	-6711
成	-6712
國	-6713
不	-6714
於	-6715
上	-6716
l	-6717
公	-6718
行	-6719
出	-6720
他	-6721
之	-6722
部	-6723
斯	-6724
其	-6725
c	-6726
名	-6727
主	-6728
生	-6729
分	-6730
作	-6731
下	-6732
:	-6733
m	-6734
于	-6735
用	-6736
方	-6737
到	-6738
而	-6739
及	-6740
第	-6741
西	-6742
》	-6743
《	-6744
家	-6745
時	-6746
後	-6747
d	-6748
h	-6749
法	-6750
由	-6751
位	-6752
被	-6753
市	-6754
民	-6755
本	-6756
学	-6757
个	-6758
同	-6759
會	-6760
多	-6761
可	-6762
南	-6763
u	-6764
政	-6765
子	-6766
·	-6767
自	-6768
里	-6769
」	-6770
「	-6771
文	-6772
任	-6773
特	-6774
最	-6775
等	-6776
與	-6777
新	-6778
德	-6779
北	-6780
代	-6781
也	-6782
加	-6783
高	-6784
所	-6785
前	-6786
海	-6787
學	-6788
后	-6789
因	-6790
利	-6791
個	-6792
此	-6793
三	-6794
p	-6795
“	-6796
要	-6797
物	-6798
得	-6799
平	-6800
道	-6801
克	-6802
建	-6803
面	-6804
美	-6805
教	-6806
小	-6807
度	-6808
山	-6809
时	-6810
立	-6811
b	-6812
至	-6813
g	-6814
能	-6815
事	-6816
入	-6817
尔	-6818
路	-6819
理	-6820
世	-6821
發	-6822
区	-6823
拉	-6824
会	-6825
二	-6826
外	-6827
天	-6828
但	-6829
合	-6830
定	-6831
化	-6832
工	-6833
口	-6834
表	-6835
期	-6836
使	-6837
球	-6838
全	-6839
台	-6840
性	-6841
次	-6842
十	-6843
科	-6844
;	-6845
通	-6846
州	-6847
f	-6848
者	-6849
式	-6850
都	-6851
重	-6852
共	-6853
力	-6854
"	-6855
來	-6856
軍	-6857
區	-6858
並	-6859
发	-6860
安	-6861
士	-6862
原	-6863
布	-6864
相	-6865
王	-6866
比	-6867
城	-6868
院	-6869
省	-6870
長	-6871
军	-6872
站	-6873
對	-6874
这	-6875
明	-6876
動	-6877
目	-6878
基	-6879
水	-6880
這	-6881
系	-6882
金	-6883
司	-6884
正	-6885
英	-6886
星	-6887
開	-6888
如	-6889
长	-6890
府	-6891
或	-6892
与	-6893
治	-6894
k	-6895
制	-6896
格	-6897
元	-6898
港	-6899
現	-6900
四	-6901
起	-6902
爾	-6903
電	-6904
常	-6905
巴	-6906
对	-6907
經	-6908
尼	-6909
米	-6910
y	-6911
量	-6912
列	-6913
提	-6914
員	-6915
影	-6916
當	-6917
首	-6918
改	-6919
女	-6920
来	-6921
阿	-6922
然	-6923
間	-6924
镇	-6925
就	-6926
戰	-6927
過	-6928
進	-6929
并	-6930
亞	-6931
v	-6932
心	-6933
接	-6934
東	-6935
林	-6936
體	-6937
东	-6938
向	-6939
演	-6940
开	-6941
意	-6942
界	-6943
機	-6944
將	-6945
始	-6946
賽	-6947
w	-6948
內	-6949
車	-6950
河	-6951
动	-6952
程	-6953
受	-6954
色	-6955
場	-6956
型	-6957
包	-6958
总	-6959
指	-6960
曾	-6961
形	-6962
交	-6963
保	-6964
手	-6965
香	-6966
已	-6967
些	-6968
委	-6969
机	-6970
流	-6971
亚	-6972
内	-6973
直	-6974
音	-6975
员	-6976
稱	-6977
管	-6978
太	-6979
经	-6980
隊	-6981
种	-6982
集	-6983
史	-6984
过	-6985
馬	-6986
空	-6987
卡	-6988
業	-6989
身	-6990
校	-6991
进	-6992
種	-6993
现	-6994
更	-6995
县	-6996
五	-6997
字	-6998
品	-6999
線	-7000
江	-7001
车	-7002
兩	-7003
古	-7004
朝	-7005
电	-7006
展	-7007
示	-7008
設	-7009
灣	-7010
社	-7011
各	-7012
洲	-7013
间	-7014
數	-7015
著	-7016
反	-7017
持	-7018
马	-7019
业	-7020
该	-7021
命	-7022
体	-7023
回	-7024
官	-7025
京	-7026
光	-7027
属	-7028
将	-7029
活	-7030
取	-7031
造	-7032
战	-7033
達	-7034
少	-7035
只	-7036
族	-7037
清	-7038
又	-7039
信	-7040
約	-7041
神	-7042
選	-7043
石	-7044
数	-7045
夫	-7046
支	-7047
当	-7048
称	-7049
解	-7050
非	-7051
近	-7052
聯	-7053
情	-7054
它	-7055
设	-7056
局	-7057
普	-7058
號	-7059
罗	-7060
則	-7061
總	-7062
件	-7063
運	-7064
曲	-7065
/	-7066
放	-7067
統	-7068
研	-7069
即	-7070
關	-7071
角	-7072
該	-7073
羅	-7074
華	-7075
商	-7076
波	-7077
武	-7078
無	-7079
版	-7080
們	-7081
队	-7082
先	-7083
片	-7084
計	-7085
联	-7086
括	-7087
收	-7088
村	-7089
两	-7090
白	-7091
器	-7092
去	-7093
樂	-7094
李	-7095
果	-7096
未	-7097
她	-7098
语	-7099
伊	-7100
組	-7101
产	-7102
再	-7103
根	-7104
每	-7105
屬	-7106
场	-7107
知	-7108
运	-7109
往	-7110
初	-7111
蘭	-7112
亦	-7113
密	-7114
线	-7115
座	-7116
視	-7117
引	-7118
且	-7119
达	-7120
語	-7121
华	-7122
今	-7123
派	-7124
兵	-7125
足	-7126
统	-7127
福	-7128
從	-7129
级	-7130
議	-7131
完	-7132
縣	-7133
究	-7134
从	-7135
z	-7136
六	-7137
帝	-7138
歌	-7139
域	-7140
花	-7141
组	-7142
们	-7143
除	-7144
務	-7145
打	-7146
很	-7147
宗	-7148
赛	-7149
實	-7150
島	-7151
居	-7152
关	-7153
產	-7154
言	-7155
說	-7156
令	-7157
義	-7158
广	-7159
服	-7160
門	-7161
團	-7162
結	-7163
段	-7164
威	-7165
号	-7166
兰	-7167
類	-7168
育	-7169
季	-7170
功	-7171
x	-7172
塔	-7173
另	-7174
播	-7175
八	-7176
书	-7177
客	-7178
土	-7179
存	-7180
速	-7181
參	-7182
死	-7183
傳	-7184
置	-7185
修	-7186
计	-7187
%	-7188
率	-7189
推	-7190
超	-7191
好	-7192
约	-7193
周	-7194
認	-7195
单	-7196
希	-7197
宣	-7198
实	-7199
處	-7200
源	-7201
具	-7202
我	-7203
九	-7204
投	-7205
供	-7206
書	-7207
班	-7208
雷	-7209
例	-7210
街	-7211
求	-7212
变	-7213
攻	-7214
皇	-7215
龍	-7216
湖	-7217
维	-7218
獲	-7219
單	-7220
吉	-7221
查	-7222
航	-7223
印	-7224
积	-7225
火	-7226
故	-7227
乡	-7228
田	-7229
己	-7230
案	-7231
沙	-7232
青	-7233
廣	-7234
哈	-7235
那	-7236
务	-7237
勒	-7238
图	-7239
伯	-7240
應	-7241
助	-7242
男	-7243
早	-7244
增	-7245
博	-7246
还	-7247
張	-7248
j	-7249
洛	-7250
別	-7251
資	-7252
份	-7253
舉	-7254
整	-7255
母	-7256
辖	-7257
义	-7258
瓦	-7259
半	-7260
擊	-7261
百	-7262
模	-7263
容	-7264
党	-7265
群	-7266
臺	-7267
技	-7268
铁	-7269
说	-7270
維	-7271
帶	-7272
万	-7273
越	-7274
變	-7275
父	-7276
致	-7277
议	-7278
均	-7279
失	-7280
萬	-7281
點	-7282
導	-7283
師	-7284
易	-7285
参	-7286
專	-7287
黨	-7288
副	-7289
川	-7290
食	-7291
領	-7292
七	-7293
境	-7294
黑	-7295
门	-7296
堂	-7297
紀	-7298
需	-7299
传	-7300
处	-7301
结	-7302
級	-7303
射	-7304
选	-7305
告	-7306
登	-7307
連	-7308
深	-7309
沒	-7310
类	-7311
劇	-7312
应	-7313
塞	-7314
才	-7315
限	-7316
领	-7317
頭	-7318
權	-7319
仍	-7320
木	-7321
游	-7322
升	-7323
條	-7324
无	-7325
苏	-7326
室	-7327
何	-7328
便	-7329
節	-7330
排	-7331
步	-7332
老	-7333
牙	-7334
导	-7335
風	-7336
奥	-7337
象	-7338
团	-7339
魚	-7340
央	-7341
点	-7342
真	-7343
落	-7344
製	-7345
氏	-7346
施	-7347
盟	-7348
像	-7349
考	-7350
際	-7351
乐	-7352
想	-7353
論	-7354
報	-7355
鐵	-7356
甲	-7357
決	-7358
轉	-7359
畫	-7360
氣	-7361
席	-7362
感	-7363
配	-7364
把	-7365
据	-7366
防	-7367
標	-7368
低	-7369
病	-7370
纳	-7371
哥	-7372
洋	-7373
還	-7374
—	-7375
托	-7376
底	-7377
阳	-7378
律	-7379
留	-7380
森	-7381
效	-7382
住	-7383
认	-7384
離	-7385
蒙	-7386
素	-7387
历	-7388
料	-7389
佛	-7390
_	-7391
师	-7392
获	-7393
術	-7394
埃	-7395
止	-7396
冠	-7397
泰	-7398
千	-7399
志	-7400
视	-7401
记	-7402
奇	-7403
息	-7404
據	-7405
奧	-7406
术	-7407
較	-7408
強	-7409
景	-7410
康	-7411
纪	-7412
看	-7413
降	-7414
姆	-7415
曼	-7416
革	-7417
恩	-7418
算	-7419
圖	-7420
典	-7421
迪	-7422
觀	-7423
报	-7424
承	-7425
藏	-7426
移	-7427
職	-7428
愛	-7429
創	-7430
消	-7431
批	-7432
警	-7433
唱	-7434
續	-7435
思	-7436
张	-7437
控	-7438
念	-7439
着	-7440
察	-7441
見	-7442
则	-7443
親	-7444
許	-7445
汉	-7446
做	-7447
带	-7448
遊	-7449
記	-7450
精	-7451
質	-7452
授	-7453
草	-7454
守	-7455
索	-7456
友	-7457
专	-7458
納	-7459
陸	-7460
獎	-7461
论	-7462
票	-7463
俄	-7464
裝	-7465
标	-7466
岛	-7467
極	-7468
題	-7469
瑞	-7470
风	-7471
督	-7472
般	-7473
依	-7474
别	-7475
述	-7476
没	-7477
望	-7478
照	-7479
转	-7480
附	-7481
际	-7482
圣	-7483
权	-7484
祖	-7485
歷	-7486
毛	-7487
調	-7488
抗	-7489
植	-7490
退	-7491
值	-7492
爭	-7493
澳	-7494
章	-7495
陆	-7496
夏	-7497
条	-7498
錄	-7499
富	-7500
封	-7501
候	-7502
歐	-7503
职	-7504
園	-7505
唐	-7506
房	-7507
辦	-7508
永	-7509
編	-7510
終	-7511
办	-7512
复	-7513
網	-7514
停	-7515
丹	-7516
决	-7517
资	-7518
牌	-7519
營	-7520
丁	-7521
构	-7522
隨	-7523
給	-7524
左	-7525
蘇	-7526
破	-7527
节	-7528
含	-7529
積	-7530
快	-7531
拿	-7532
戲	-7533
陳	-7534
莱	-7535
气	-7536
聖	-7537
問	-7538
寺	-7539
似	-7540
必	-7541
萨	-7542
黃	-7543
突	-7544
隆	-7545
邦	-7546
坦	-7547
堡	-7548
協	-7549
飛	-7550
旅	-7551
船	-7552
击	-7553
樣	-7554
尚	-7555
头	-7556
核	-7557
岸	-7558
离	-7559
龙	-7560
调	-7561
興	-7562
争	-7563
眾	-7564
皮	-7565
擔	-7566
項	-7567
梅	-7568
济	-7569
漢	-7570
久	-7571
架	-7572
店	-7573
划	-7574
注	-7575
准	-7576
蒂	-7577
朗	-7578
莫	-7579
强	-7580
延	-7581
举	-7582
油	-7583
兒	-7584
備	-7585
创	-7586
占	-7587
右	-7588
規	-7589
野	-7590
质	-7591
郡	-7592
藝	-7593
剧	-7594
環	-7595
層	-7596
连	-7597
黄	-7598
走	-7599
规	-7600
亡	-7601
衛	-7602
弟	-7603
構	-7604
春	-7605
给	-7606
售	-7607
编	-7608
股	-7609
随	-7610
护	-7611
网	-7612
短	-7613
繼	-7614
負	-7615
}	-7616
熱	-7617
{	-7618
雄	-7619
鲁	-7620
讓	-7621
嘉	-7622
切	-7623
判	-7624
館	-7625
佳	-7626
倫	-7627
試	-7628
装	-7629
策	-7630
协	-7631
筑	-7632
役	-7633
遭	-7634
许	-7635
艾	-7636
邊	-7637
问	-7638
圍	-7639
逐	-7640
样	-7641
乘	-7642
题	-7643
宁	-7644
端	-7645
劃	-7646
旗	-7647
序	-7648
松	-7649
費	-7650
獨	-7651
寫	-7652
距	-7653
弗	-7654
護	-7655
聲	-7656
責	-7657
拔	-7658
雙	-7659
陽	-7660
鎮	-7661
欧	-7662
摩	-7663
宋	-7664
紅	-7665
若	-7666
酒	-7667
敗	-7668
亲	-7669
殺	-7670
響	-7671
送	-7672
园	-7673
伦	-7674
菲	-7675
輯	-7676
观	-7677
束	-7678
诺	-7679
担	-7680
銀	-7681
末	-7682
卫	-7683
證	-7684
甚	-7685
評	-7686
雅	-7687
干	-7688
赫	-7689
红	-7690
营	-7691
微	-7692
尾	-7693
晚	-7694
署	-7695
终	-7696
良	-7697
耶	-7698
勝	-7699
馆	-7700
!	-7701
略	-7702
準	-7703
兴	-7704
樓	-7705
胡	-7706
秀	-7707
项	-7708
津	-7709
醫	-7710
差	-7711
彈	-7712
戏	-7713
范	-7714
边	-7715
裡	-7716
頓	-7717
薩	-7718
兼	-7719
狀	-7720
免	-7721
帕	-7722
见	-7723
婚	-7724
血	-7725
庭	-7726
善	-7727
濟	-7728
籍	-7729
较	-7730
雖	-7731
假	-7732
卻	-7733
臣	-7734
散	-7735
款	-7736
采	-7737
桥	-7738
復	-7739
峰	-7740
续	-7741
备	-7742
库	-7743
話	-7744
顯	-7745
暴	-7746
歲	-7747
什	-7748
予	-7749
諾	-7750
測	-7751
贝	-7752
艦	-7753
织	-7754
奖	-7755
詞	-7756
拍	-7757
写	-7758
围	-7759
喜	-7760
征	-7761
杜	-7762
儿	-7763
农	-7764
朱	-7765
环	-7766
仁	-7767
背	-7768
盛	-7769
追	-7770
热	-7771
云	-7772
酸	-7773
載	-7774
採	-7775
证	-7776
害	-7777
廷	-7778
双	-7779
烈	-7780
企	-7781
爆	-7782
玉	-7783
互	-7784
織	-7785
沿	-7786
板	-7787
劉	-7788
習	-7789
魯	-7790
幾	-7791
牛	-7792
几	-7793
独	-7794
继	-7795
谷	-7796
援	-7797
层	-7798
鄉	-7799
屆	-7800
態	-7801
遠	-7802
介	-7803
爱	-7804
医	-7805
罪	-7806
黎	-7807
君	-7808
僅	-7809
媒	-7810
昌	-7811
救	-7812
舞	-7813
众	-7814
屋	-7815
勢	-7816
請	-7817
余	-7818
试	-7819
價	-7820
預	-7821
滿	-7822
陈	-7823
執	-7824
荷	-7825
画	-7826
溫	-7827
韓	-7828
评	-7829
透	-7830
材	-7831
刘	-7832
沃	-7833
艺	-7834
槍	-7835
录	-7836
宮	-7837
响	-7838
確	-7839
係	-7840
坡	-7841
巨	-7842
秘	-7843
智	-7844
楼	-7845
簡	-7846
飞	-7847
>	-7848
叶	-7849
届	-7850
按	-7851
溪	-7852
址	-7853
益	-7854
徒	-7855
仅	-7856
声	-7857
某	-7858
途	-7859
冰	-7860
佈	-7861
敦	-7862
费	-7863
培	-7864
戶	-7865
梁	-7866
映	-7867
极	-7868
撤	-7869
禁	-7870
<	-7871
拜	-7872
替	-7873
貝	-7874
禮	-7875
轄	-7876
童	-7877
殿	-7878
混	-7879
尺	-7880
探	-7881
翰	-7882
温	-7883
萊	-7884
夜	-7885
聞	-7886
郎	-7887
描	-7888
難	-7889
讀	-7890
築	-7891
壓	-7892
骨	-7893
吸	-7894
刻	-7895
跟	-7896
岁	-7897
眼	-7898
符	-7899
赤	-7900
话	-7901
杀	-7902
刺	-7903
刊	-7904
顿	-7905
擁	-7906
寶	-7907
玩	-7908
固	-7909
毒	-7910
爵	-7911
皆	-7912
乌	-7913
私	-7914
耳	-7915
斷	-7916
遇	-7917
橋	-7918
否	-7919
唯	-7920
确	-7921
q	-7922
岩	-7923
葉	-7924
雲	-7925
逃	-7926
訊	-7927
農	-7928
找	-7929
麗	-7930
充	-7931
休	-7932
穆	-7933
宇	-7934
奉	-7935
返	-7936
傷	-7937
洪	-7938
幕	-7939
細	-7940
雪	-7941
'	-7942
激	-7943
佔	-7944
異	-7945
状	-7946
缺	-7947
你	-7948
監	-7949
霍	-7950
乎	-7951
巡	-7952
操	-7953
況	-7954
旋	-7955
庆	-7956
犯	-7957
词	-7958
庄	-7959
远	-7960
召	-7961
验	-7962
範	-7963
聚	-7964
刑	-7965
練	-7966
優	-7967
户	-7968
满	-7969
午	-7970
識	-7971
須	-7972
穿	-7973
魔	-7974
迫	-7975
漫	-7976
鰭	-7977
廠	-7978
輕	-7979
雨	-7980
斗	-7981
姓	-7982
露	-7983
坐	-7984
靈	-7985
絕	-7986
陵	-7987
翻	-7988
輪	-7989
佩	-7990
餘	-7991
麥	-7992
捕	-7993
测	-7994
尤	-7995
显	-7996
羽	-7997
忠	-7998
让	-7999
舊	-8000
換	-8001
驗	-8002
兄	-8003
=	-8004
嚴	-8005
责	-8006
鬥	-8007
待	-8008
陣	-8009
态	-8010
潮	-8011
载	-8012
抵	-8013
妻	-8014
申	-8015
侵	-8016
呼	-8017
靠	-8018
柏	-8019
秋	-8020
徐	-8021
胞	-8022
湾	-8023
银	-8024
庫	-8025
竹	-8026
价	-8027
遗	-8028
炸	-8029
攝	-8030
肯	-8031
汽	-8032
压	-8033
宫	-8034
负	-8035
篇	-8036
惠	-8037
卷	-8038
側	-8039
茨	-8040
码	-8041
泉	-8042
临	-8043
娜	-8044
泛	-8045
甘	-8046
颗	-8047
绝	-8048
飾	-8049
浙	-8050
孔	-8051
|	-8052
翼	-8053
避	-8054
细	-8055
戈	-8056
炮	-8057
识	-8058
融	-8059
简	-8060
泽	-8061
董	-8062
习	-8063
歸	-8064
韩	-8065
危	-8066
桑	-8067
肉	-8068
烏	-8069
吳	-8070
宝	-8071
胜	-8072
購	-8073
殖	-8074
败	-8075
戴	-8076
芬	-8077
急	-8078
辛	-8079
億	-8080
概	-8081
呈	-8082
疑	-8083
厂	-8084
默	-8085
畢	-8086
順	-8087
健	-8088
努	-8089
况	-8090
孫	-8091
丽	-8092
奪	-8093
套	-8094
孩	-8095
榮	-8096
慶	-8097
奏	-8098
秦	-8099
断	-8100
譯	-8101
叫	-8102
氧	-8103
啟	-8104
碼	-8105
階	-8106
杨	-8107
週	-8108
乾	-8109
卢	-8110
減	-8111
染	-8112
臨	-8113
雜	-8114
阻	-8115
虎	-8116
佐	-8117
渡	-8118
毕	-8119
漸	-8120
魏	-8121
墨	-8122
珠	-8123
归	-8124
隔	-8125
衣	-8126
銷	-8127
井	-8128
难	-8129
葡	-8130
裁	-8131
樹	-8132
函	-8133
贵	-8134
孙	-8135
宜	-8136
杰	-8137
輸	-8138
驻	-8139
迎	-8140
请	-8141
冷	-8142
仙	-8143
震	-8144
析	-8145
味	-8146
换	-8147
棲	-8148
迷	-8149
圈	-8150
付	-8151
墓	-8152
弹	-8153
涉	-8154
御	-8155
亮	-8156
]	-8157
哲	-8158
楊	-8159
严	-8160
傑	-8161
綱	-8162
池	-8163
舍	-8164
廉	-8165
[	-8166
执	-8167
詩	-8168
麻	-8169
俗	-8170
侧	-8171
險	-8172
徵	-8173
偏	-8174
暗	-8175
町	-8176
豐	-8177
洞	-8178
监	-8179
恐	-8180
招	-8181
訓	-8182
拥	-8183
势	-8184
榜	-8185
侯	-8186
厅	-8187
尊	-8188
瑪	-8189
硬	-8190
享	-8191
賓	-8192
闻	-8193
俱	-8194
液	-8195
症	-8196
租	-8197
繁	-8198
辑	-8199
彩	-8200
毫	-8201
树	-8202
廳	-8203
圓	-8204
莉	-8205
轮	-8206
倒	-8207
豪	-8208
楚	-8209
釋	-8210
寧	-8211
藍	-8212
琴	-8213
藥	-8214
预	-8215
妹	-8216
掌	-8217
盃	-8218
麦	-8219
昂	-8220
鐘	-8221
財	-8222
夠	-8223
逝	-8224
扎	-8225
借	-8226
礼	-8227
齐	-8228
崇	-8229
鲜	-8230
销	-8231
吴	-8232
曹	-8233
紐	-8234
捷	-8235
舰	-8236
補	-8237
+	-8238
徽	-8239
遷	-8240
冬	-8241
浦	-8242
诗	-8243
药	-8244
昭	-8245
養	-8246
腦	-8247
柱	-8248
淡	-8249
截	-8250
瑟	-8251
萄	-8252
旧	-8253
伍	-8254
匹	-8255
裂	-8256
適	-8257
軟	-8258
鱼	-8259
幼	-8260
頂	-8261
输	-8262
乃	-8263
读	-8264
奈	-8265
儀	-8266
盖	-8267
伐	-8268
乙	-8269
蓋	-8270
勞	-8271
迁	-8272
鼓	-8273
蛋	-8274
杂	-8275
频	-8276
估	-8277
零	-8278
玛	-8279
簽	-8280
遺	-8281
优	-8282
振	-8283
顺	-8284
討	-8285
拒	-8286
輛	-8287
劳	-8288
患	-8289
晋	-8290
頻	-8291
併	-8292
鮮	-8293
弱	-8294
顶	-8295
菜	-8296
陶	-8297
恢	-8298
邀	-8299
藤	-8300
陷	-8301
晉	-8302
敵	-8303
郭	-8304
韦	-8305
鄭	-8306
?	-8307
虽	-8308
灵	-8309
异	-8310
粉	-8311
轨	-8312
兹	-8313
困	-8314
却	-8315
亿	-8316
译	-8317
凱	-8318
货	-8319
貨	-8320
句	-8321
菌	-8322
貴	-8323
跨	-8324
覺	-8325
丰	-8326
浪	-8327
檢	-8328
尽	-8329
牧	-8330
輻	-8331
歡	-8332
滑	-8333
審	-8334
莎	-8335
偶	-8336
宿	-8337
旁	-8338
誌	-8339
熙	-8340
冲	-8341
障	-8342
汗	-8343
駐	-8344
糖	-8345
訪	-8346
競	-8347
錦	-8348
徑	-8349
塘	-8350
殊	-8351
蔡	-8352
衡	-8353
遍	-8354
紫	-8355
擴	-8356
阶	-8357
茶	-8358
柯	-8359
勇	-8360
伤	-8361
衝	-8362
亨	-8363
軌	-8364
鳥	-8365
扩	-8366
燃	-8367
丘	-8368
宅	-8369
磁	-8370
幫	-8371
祭	-8372
财	-8373
答	-8374
签	-8375
纽	-8376
課	-8377
亂	-8378
澤	-8379
奴	-8380
昆	-8381
赵	-8382
諸	-8383
挥	-8384
疆	-8385
灰	-8386
币	-8387
庙	-8388
沈	-8389
滅	-8390
搭	-8391
脈	-8392
盤	-8393
彼	-8394
络	-8395
講	-8396
棒	-8397
敏	-8398
揮	-8399
絲	-8400
促	-8401
养	-8402
幅	-8403
允	-8404
鏡	-8405
覆	-8406
杯	-8407
綠	-8408
珍	-8409
鄰	-8410
額	-8411
凯	-8412
幸	-8413
伴	-8414
谢	-8415
訴	-8416
赴	-8417
訂	-8418
荣	-8419
械	-8420
綫	-8421
療	-8422
恒	-8423
拆	-8424
讲	-8425
检	-8426
跑	-8427
审	-8428
仔	-8429
葬	-8430
茲	-8431
幻	-8432
績	-8433
祥	-8434
晶	-8435
慈	-8436
顧	-8437
厚	-8438
练	-8439
擇	-8440
诸	-8441
软	-8442
餐	-8443
獻	-8444
倍	-8445
裔	-8446
葛	-8447
幣	-8448
堅	-8449
敬	-8450
遂	-8451
减	-8452
廟	-8453
齊	-8454
剛	-8455
聽	-8456
宽	-8457
複	-8458
孟	-8459
轻	-8460
匈	-8461
孝	-8462
折	-8463
箭	-8464
熟	-8465
碑	-8466
释	-8467
惡	-8468
寬	-8469
苦	-8470
『	-8471
賣	-8472
柴	-8473
遣	-8474
钟	-8475
沉	-8476
燕	-8477
』	-8478
謝	-8479
埔	-8480
襲	-8481
桃	-8482
叛	-8483
緯	-8484
姐	-8485
乔	-8486
°	-8487
慢	-8488
尖	-8489
願	-8490
桂	-8491
騎	-8492
齒	-8493
绕	-8494
疾	-8495
阵	-8496
憲	-8497
粒	-8498
盧	-8499
脂	-8500
柳	-8501
侍	-8502
橫	-8503
牠	-8504
献	-8505
懷	-8506
启	-8507
誤	-8508
廢	-8509
喬	-8510
辽	-8511
迅	-8512
够	-8513
螺	-8514
挑	-8515
么	-8516
渐	-8517
蛇	-8518
凡	-8519
枚	-8520
棋	-8521
伏	-8522
摄	-8523
仰	-8524
買	-8525
刀	-8526
须	-8527
恆	-8528
敌	-8529
談	-8530
访	-8531
伸	-8532
圆	-8533
朋	-8534
瓜	-8535
吃	-8536
补	-8537
险	-8538
撒	-8539
额	-8540
尋	-8541
〉	-8542
〈	-8543
枪	-8544
彭	-8545
跳	-8546
慕	-8547
貢	-8548
腳	-8549
雕	-8550
壁	-8551
艘	-8552
賞	-8553
錢	-8554
損	-8555
妮	-8556
宪	-8557
涅	-8558
适	-8559
擎	-8560
緣	-8561
汇	-8562
劍	-8563
仪	-8564
宾	-8565
钱	-8566
緒	-8567
训	-8568
旺	-8569
臘	-8570
縮	-8571
頒	-8572
础	-8573
掉	-8574
潘	-8575
鬼	-8576
谋	-8577
棄	-8578
辆	-8579
贡	-8580
夺	-8581
购	-8582
帮	-8583
乱	-8584
芳	-8585
郑	-8586
韋	-8587
羊	-8588
艇	-8589
罕	-8590
駛	-8591
番	-8592
撞	-8593
勤	-8594
岡	-8595
趣	-8596
毀	-8597
芝	-8598
輔	-8599
鼠	-8600
涯	-8601
藉	-8602
隶	-8603
脫	-8604
乳	-8605
梯	-8606
泊	-8607
累	-8608
拓	-8609
夢	-8610
繪	-8611
莊	-8612
幹	-8613
琳	-8614
赞	-8615
熊	-8616
趙	-8617
泥	-8618
藩	-8619
痛	-8620
毁	-8621
炎	-8622
腹	-8623
屯	-8624
浮	-8625
锡	-8626
咸	-8627
針	-8628
鹿	-8629
废	-8630
豆	-8631
斑	-8632
隧	-8633
玄	-8634
绍	-8635
麼	-8636
杉	-8637
陰	-8638
壞	-8639
怀	-8640
賴	-8641
詹	-8642
隸	-8643
怪	-8644
緊	-8645
块	-8646
腊	-8647
～	-8648
袁	-8649
觉	-8650
喀	-8651
爲	-8652
仲	-8653
秒	-8654
灭	-8655
卓	-8656
陕	-8657
径	-8658
隻	-8659
袭	-8660
屏	-8661
杭	-8662
顆	-8663
坑	-8664
择	-8665
慧	-8666
玻	-8667
謀	-8668
滨	-8669
錯	-8670
乏	-8671
筆	-8672
贏	-8673
溶	-8674
蟲	-8675
厄	-8676
旦	-8677
插	-8678
晨	-8679
塑	-8680
畔	-8681
缩	-8682
盡	-8683
墙	-8684
矿	-8685
靖	-8686
宙	-8687
崎	-8688
暫	-8689
轴	-8690
绿	-8691
衰	-8692
寄	-8693
戒	-8694
蔣	-8695
损	-8696
妃	-8697
坚	-8698
紹	-8699
剂	-8700
搜	-8701
洗	-8702
é	-8703
笑	-8704
坎	-8705
貿	-8706
饰	-8707
圳	-8708
鳳	-8709
巧	-8710
戀	-8711
檔	-8712
讨	-8713
盘	-8714
祝	-8715
穩	-8716
凌	-8717
俊	-8718
岳	-8719
壽	-8720
脱	-8721
碳	-8722
甸	-8723
亭	-8724
礎	-8725
箱	-8726
循	-8727
坊	-8728
揚	-8729
宏	-8730
觸	-8731
骑	-8732
疏	-8733
袖	-8734
鯉	-8735
盾	-8736
栽	-8737
辭	-8738
顾	-8739
閣	-8740
塊	-8741
僧	-8742
撰	-8743
枝	-8744
郊	-8745
焦	-8746
偉	-8747
既	-8748
刚	-8749
扮	-8750
叔	-8751
邨	-8752
欢	-8753
愿	-8754
鋼	-8755
弘	-8756
仿	-8757
卿	-8758
灌	-8759
锦	-8760
蓝	-8761
紙	-8762
谈	-8763
扬	-8764
輝	-8765
邻	-8766
岭	-8767
竞	-8768
虫	-8769
脑	-8770
吕	-8771
买	-8772
听	-8773
茂	-8774
驅	-8775
譽	-8776
凤	-8777
诉	-8778
契	-8779
曆	-8780
贸	-8781
针	-8782
絡	-8783
疗	-8784
舒	-8785
盐	-8786
镜	-8787
廈	-8788
欲	-8789
匯	-8790
翁	-8791
拳	-8792
荒	-8793
夷	-8794
砲	-8795
措	-8796
霸	-8797
純	-8798
娛	-8799
裕	-8800
靜	-8801
潛	-8802
勃	-8803
耀	-8804
券	-8805
浩	-8806
遜	-8807
迴	-8808
床	-8809
尉	-8810
串	-8811
填	-8812
割	-8813
钢	-8814
閉	-8815
横	-8816
赖	-8817
淮	-8818
擬	-8819
剩	-8820
顏	-8821
紧	-8822
綜	-8823
订	-8824
捐	-8825
婦	-8826
丝	-8827
沟	-8828
覽	-8829
嶼	-8830
嶺	-8831
阴	-8832
坏	-8833
燒	-8834
鸟	-8835
誉	-8836
苗	-8837
丈	-8838
崔	-8839
衍	-8840
犹	-8841
隱	-8842
泳	-8843
獸	-8844
銅	-8845
怒	-8846
冊	-8847
壇	-8848
歧	-8849
肥	-8850
厘	-8851
错	-8852
琉	-8853
垂	-8854
湘	-8855
污	-8856
傅	-8857
湯	-8858
蓮	-8859
邮	-8860
燈	-8861
搬	-8862
铜	-8863
賢	-8864
脉	-8865
窗	-8866
廊	-8867
卜	-8868
齡	-8869
珊	-8870
斜	-8871
災	-8872
迈	-8873
膜	-8874
儒	-8875
獵	-8876
综	-8877
儘	-8878
恶	-8879
肃	-8880
耗	-8881
寿	-8882
錫	-8883
駕	-8884
握	-8885
寒	-8886
薄	-8887
逆	-8888
狄	-8889
欣	-8890
课	-8891
悉	-8892
妇	-8893
呂	-8894
孤	-8895
煤	-8896
旨	-8897
猪	-8898
册	-8899
胎	-8900
獄	-8901
稳	-8902
殘	-8903
虛	-8904
逊	-8905
鋒	-8906
抽	-8907
逢	-8908
阁	-8909
壤	-8910
误	-8911
粗	-8912
寨	-8913
蛛	-8914
貌	-8915
聘	-8916
迹	-8917
粹	-8918
弃	-8919
鼻	-8920
陀	-8921
濱	-8922
冒	-8923
笼	-8924
吐	-8925
静	-8926
剑	-8927
吾	-8928
憶	-8929
猶	-8930
缘	-8931
坪	-8932
倉	-8933
笔	-8934
狂	-8935
稿	-8936
狗	-8937
柔	-8938
翠	-8939
俘	-8940
税	-8941
辞	-8942
键	-8943
纸	-8944
婆	-8945
蝶	-8946
叙	-8947
闭	-8948
譜	-8949
挪	-8950
忍	-8951
揭	-8952
賀	-8953
違	-8954
潜	-8955
貫	-8956
謂	-8957
阮	-8958
璃	-8959
紋	-8960
矩	-8961
疫	-8962
稍	-8963
驱	-8964
扶	-8965
籌	-8966
翌	-8967
辅	-8968
娘	-8969
邓	-8970
胸	-8971
拟	-8972
&	-8973
鹽	-8974
─	-8975
酶	-8976
菊	-8977
稅	-8978
姬	-8979
憑	-8980
汪	-8981
贊	-8982
硫	-8983
魂	-8984
慮	-8985
潭	-8986
狼	-8987
苑	-8988
礦	-8989
彰	-8990
赢	-8991
泡	-8992
遵	-8993
殼	-8994
雀	-8995
卵	-8996
刷	-8997
鍵	-8998
惟	-8999
丙	-9000
绩	-9001
棘	-9002
储	-9003
颱	-9004
堆	-9005
弦	-9006
峡	-9007
歇	-9008
兆	-9009
軸	-9010
驚	-9011
碎	-9012
寻	-9013
郵	-9014
绪	-9015
奔	-9016
牵	-9017
添	-9018
鄧	-9019
淘	-9020
吏	-9021
恰	-9022
腐	-9023
狱	-9024
曰	-9025
纵	-9026
癌	-9027
跡	-9028
阪	-9029
脊	-9030
註	-9031
姻	-9032
粵	-9033
押	-9034
猛	-9035
屈	-9036
档	-9037
姚	-9038
偷	-9039
詳	-9040
览	-9041
碟	-9042
嘴	-9043
鯰	-9044
劑	-9045
傾	-9046
繞	-9047
堪	-9048
纯	-9049
蕨	-9050
紛	-9051
岗	-9052
仇	-9053
飲	-9054
貓	-9055
夕	-9056
誕	-9057
誠	-9058
叉	-9059
勳	-9060
轟	-9061
醇	-9062
蒸	-9063
芒	-9064
蕭	-9065
獅	-9066
籃	-9067
裏	-9068
涵	-9069
逼	-9070
牆	-9071
縱	-9072
残	-9073
拼	-9074
奶	-9075
矛	-9076
贾	-9077
辰	-9078
灾	-9079
烟	-9080
儲	-9081
冯	-9082
扁	-9083
绘	-9084
隋	-9085
卒	-9086
鎖	-9087
寸	-9088
頁	-9089
屠	-9090
祀	-9091
逮	-9092
劫	-9093
嫁	-9094
→	-9095
敢	-9096
触	-9097
卑	-9098
掘	-9099
煙	-9100
奎	-9101
肌	-9102
讷	-9103
隐	-9104
醒	-9105
峽	-9106
斤	-9107
娃	-9108
礁	-9109
緩	-9110
伽	-9111
氯	-9112
薛	-9113
嫌	-9114
忙	-9115
怖	-9116
凝	-9117
蒋	-9118
迦	-9119
汤	-9120
磨	-9121
卖	-9122
雍	-9123
嗣	-9124
偵	-9125
虚	-9126
犬	-9127
伟	-9128
梦	-9129
颜	-9130
袋	-9131
悲	-9132
烧	-9133
肖	-9134
髮	-9135
抑	-9136
鼎	-9137
妙	-9138
株	-9139
篮	-9140
虑	-9141
忽	-9142
沖	-9143
栖	-9144
勋	-9145
掛	-9146
厦	-9147
膠	-9148
銜	-9149
颁	-9150
盆	-9151
汰	-9152
盜	-9153
稻	-9154
罰	-9155
蟹	-9156
竟	-9157
躍	-9158
吨	-9159
雌	-9160
抱	-9161
暂	-9162
脚	-9163
吹	-9164
毅	-9165
灯	-9166
丸	-9167
祿	-9168
襄	-9169
擾	-9170
怕	-9171
’	-9172
龜	-9173
讯	-9174
氢	-9175
麟	-9176
衔	-9177
幽	-9178
湿	-9179
缓	-9180
鄂	-9181
砂	-9182
拖	-9183
豫	-9184
翔	-9185
斐	-9186
贈	-9187
勵	-9188
巢	-9189
宰	-9190
涌	-9191
圭	-9192
茵	-9193
~	-9194
姊	-9195
崩	-9196
丛	-9197
萧	-9198
貞	-9199
賈	-9200
碧	-9201
詢	-9202
敘	-9203
茅	-9204
辨	-9205
噶	-9206
抚	-9207
旬	-9208
蜂	-9209
倡	-9210
馮	-9211
甫	-9212
剪	-9213
媽	-9214
腔	-9215
鴻	-9216
腺	-9217
囊	-9218
谱	-9219
筹	-9220
淺	-9221
邪	-9222
・	-9223
恭	-9224
邑	-9225
祠	-9226
濃	-9227
漠	-9228
漁	-9229
託	-9230
鱸	-9231
龄	-9232
姜	-9233
硕	-9234
晓	-9235
滾	-9236
锋	-9237
埋	-9238
吞	-9239
暖	-9240
壘	-9241
喇	-9242
孕	-9243
虹	-9244
尹	-9245
谓	-9246
雞	-9247
氨	-9248
胶	-9249
魁	-9250
彌	-9251
冈	-9252
莲	-9253
朴	-9254
溝	-9255
邁	-9256
寓	-9257
珀	-9258
喪	-9259
滕	-9260
挂	-9261
×	-9262
蹈	-9263
舟	-9264
蓬	-9265
咖	-9266
坛	-9267
俠	-9268
扣	-9269
吻	-9270
坝	-9271
脅	-9272
愈	-9273
苯	-9274
伙	-9275
噴	-9276
耐	-9277
抓	-9278
汀	-9279
挖	-9280
胺	-9281
椎	-9282
飯	-9283
礙	-9284
搖	-9285
巫	-9286
壮	-9287
陪	-9288
贯	-9289
仓	-9290
披	-9291
耕	-9292
催	-9293
碩	-9294
稀	-9295
薇	-9296
舌	-9297
斥	-9298
矮	-9299
慣	-9300
廖	-9301
撫	-9302
瓶	-9303
齿	-9304
削	-9305
掠	-9306
讚	-9307
卸	-9308
龐	-9309
桓	-9310
藻	-9311
滩	-9312
违	-9313
吧	-9314
烯	-9315
详	-9316
鍾	-9317
渠	-9318
蒲	-9319
鸡	-9320
邱	-9321
铺	-9322
纹	-9323
閱	-9324
蜀	-9325
崖	-9326
唇	-9327
姑	-9328
屍	-9329
棉	-9330
葵	-9331
擅	-9332
庶	-9333
募	-9334
徹	-9335
粮	-9336
賜	-9337
链	-9338
帽	-9339
汝	-9340
禾	-9341
‘	-9342
薪	-9343
褐	-9344
溯	-9345
贤	-9346
潔	-9347
筒	-9348
豹	-9349
暨	-9350
昇	-9351
曉	-9352
蜜	-9353
鷹	-9354
啡	-9355
札	-9356
亥	-9357
弓	-9358
尿	-9359
閩	-9360
忘	-9361
梨	-9362
磷	-9363
貼	-9364
懸	-9365
酷	-9366
摧	-9367
鲍	-9368
梵	-9369
帥	-9370
缅	-9371
鑑	-9372
穴	-9373
邵	-9374
丞	-9375
麵	-9376
惜	-9377
踏	-9378
肺	-9379
坂	-9380
拘	-9381
纷	-9382
琪	-9383
悬	-9384
彻	-9385
杆	-9386
漏	-9387
甜	-9388
巷	-9389
蕾	-9390
趕	-9391
润	-9392
宴	-9393
拱	-9394
怡	-9395
翅	-9396
掩	-9397
沪	-9398
緬	-9399
页	-9400
腾	-9401
蹤	-9402
淑	-9403
冕	-9404
睡	-9405
奠	-9406
肢	-9407
碰	-9408
嘗	-9409
仕	-9410
禦	-9411
宛	-9412
鉴	-9413
棕	-9414
枢	-9415
販	-9416
堤	-9417
澄	-9418
柄	-9419
爪	-9420
誓	-9421
倾	-9422
励	-9423
哪	-9424
菩	-9425
钦	-9426
逸	-9427
诚	-9428
慎	-9429
框	-9430
玲	-9431
赏	-9432
毗	-9433
丑	-9434
遞	-9435
疊	-9436
鳴	-9437
臂	-9438
遲	-9439
呎	-9440
桌	-9441
驾	-9442
蹟	-9443
帅	-9444
赐	-9445
驶	-9446
霞	-9447
腿	-9448
遼	-9449
饮	-9450
銘	-9451
姿	-9452
猎	-9453
豬	-9454
丧	-9455
递	-9456
禄	-9457
贺	-9458
逻	-9459
禪	-9460
窄	-9461
腓	-9462
頗	-9463
冀	-9464
恋	-9465
淨	-9466
弄	-9467
雇	-9468
潤	-9469
烷	-9470
帆	-9471
辉	-9472
寮	-9473
娶	-9474
鐸	-9475
兔	-9476
腰	-9477
桐	-9478
韻	-9479
恨	-9480
栗	-9481
阔	-9482
肩	-9483
搶	-9484
悠	-9485
ー	-9486
辯	-9487
C	-9488
猜	-9489
瘤	-9490
蝠	-9491
扭	-9492
忆	-9493
抄	-9494
跃	-9495
欽	-9496
‧	-9497
貧	-9498
辟	-9499
罚	-9500
朵	-9501
赠	-9502
趨	-9503
壳	-9504
嫩	-9505
爬	-9506
繩	-9507
裸	-9508
惊	-9509
殷	-9510
沼	-9511
盈	-9512
胁	-9513
臟	-9514
滋	-9515
壯	-9516
庇	-9517
忌	-9518
逾	-9519
牲	-9520
飓	-9521
肝	-9522
禧	-9523
囚	-9524
蜥	-9525
糧	-9526
吊	-9527
纲	-9528
妖	-9529
炭	-9530
浸	-9531
α	-9532
庸	-9533
繫	-9534
罷	-9535
磯	-9536
荃	-9537
贞	-9538
厥	-9539
锁	-9540
鯨	-9541
劣	-9542
勸	-9543
掃	-9544
慰	-9545
閃	-9546
*	-9547
鈴	-9548
诞	-9549
贫	-9550
兽	-9551
铸	-9552
阅	-9553
弥	-9554
旱	-9555
а	-9556
勁	-9557
哀	-9558
埠	-9559
瑚	-9560
鱗	-9561
彥	-9562
扇	-9563
闊	-9564
蓄	-9565
駁	-9566
亩	-9567
搞	-9568
浓	-9569
盗	-9570
怎	-9571
趁	-9572
の	-9573
喷	-9574
秩	-9575
診	-9576
賦	-9577
氟	-9578
橡	-9579
辩	-9580
砖	-9581
跋	-9582
凰	-9583
樞	-9584
ン	-9585
濕	-9586
霧	-9587
扰	-9588
祈	-9589
焚	-9590
臀	-9591
柬	-9592
椅	-9593
槽	-9594
氫	-9595
庞	-9596
灘	-9597
債	-9598
償	-9599
瓷	-9600
庚	-9601
昔	-9602
噸	-9603
跌	-9604
薦	-9605
鱷	-9606
肅	-9607
赶	-9608
诏	-9609
擦	-9610
轰	-9611
牽	-9612
嵌	-9613
遮	-9614
蕃	-9615
赋	-9616
闽	-9617
瑜	-9618
欠	-9619
芙	-9620
鮑	-9621
猫	-9622
$	-9623
攜	-9624
夸	-9625
酮	-9626
屿	-9627
仑	-9628
挺	-9629
猴	-9630
肇	-9631
寇	-9632
艙	-9633
о	-9634
彦	-9635
偽	-9636
凭	-9637
缸	-9638
晴	-9639
涂	-9640
禅	-9641
祐	-9642
怨	-9643
哺	-9644
汶	-9645
氮	-9646
擺	-9647
鸿	-9648
狹	-9649
娱	-9650
頸	-9651
履	-9652
慘	-9653
净	-9654
眠	-9655
芭	-9656
询	-9657
鞋	-9658
棟	-9659
漂	-9660
鶴	-9661
碱	-9662
贴	-9663
郁	-9664
伪	-9665
鑽	-9666
喻	-9667
欄	-9668
悟	-9669
狐	-9670
踢	-9671
捉	-9672
眉	-9673
斬	-9674
嘛	-9675
攀	-9676
#	-9677
桿	-9678
昏	-9679
琼	-9680
栏	-9681
徙	-9682
璋	-9683
炳	-9684
喝	-9685
尸	-9686
夥	-9687
狮	-9688
軒	-9689
颇	-9690
浅	-9691
摇	-9692
麓	-9693
彎	-9694
穗	-9695
妥	-9696
譚	-9697
渔	-9698
佑	-9699
粤	-9700
睛	-9701
賊	-9702
踪	-9703
厢	-9704
坤	-9705
蘋	-9706
廂	-9707
撥	-9708
鹰	-9709
喉	-9710
僚	-9711
抢	-9712
窮	-9713
彗	-9714
爸	-9715
醉	-9716
匣	-9717
侨	-9718
糕	-9719
齋	-9720
淳	-9721
帖	-9722
绥	-9723
鞍	-9724
饭	-9725
寵	-9726
迟	-9727
歉	-9728
惯	-9729
棚	-9730
櫻	-9731
菱	-9732
崗	-9733
躲	-9734
邏	-9735
胆	-9736
戊	-9737
匪	-9738
荐	-9739
酯	-9740
尝	-9741
諮	-9742
臉	-9743
漆	-9744
и	-9745
梭	-9746
旭	-9747
畜	-9748
淵	-9749
涼	-9750
穌	-9751
勘	-9752
矢	-9753
辱	-9754
洁	-9755
岐	-9756
椒	-9757
盒	-9758
戚	-9759
茄	-9760
熔	-9761
鴨	-9762
劝	-9763
帳	-9764
鬆	-9765
詔	-9766
榴	-9767
騰	-9768
凉	-9769
聰	-9770
咒	-9771
勾	-9772
秉	-9773
摔	-9774
咀	-9775
碍	-9776
戌	-9777
賭	-9778
盲	-9779
霖	-9780
罩	-9781
罢	-9782
鹤	-9783
蛙	-9784
糊	-9785
煌	-9786
謙	-9787
瓊	-9788
鏈	-9789
閘	-9790
爐	-9791
鯛	-9792
牟	-9793
纤	-9794
庵	-9795
欺	-9796
滚	-9797
韶	-9798
痕	-9799
夾	-9800
陝	-9801
燥	-9802
竣	-9803
虞	-9804
笛	-9805
漳	-9806
瞄	-9807
虐	-9808
棠	-9809
′	-9810
澎	-9811
奮	-9812
幢	-9813
浴	-9814
趋	-9815
廿	-9816
斌	-9817
拯	-9818
腸	-9819
塌	-9820
荆	-9821
携	-9822
爺	-9823
蛤	-9824
遙	-9825
奸	-9826
匠	-9827
阜	-9828
侶	-9829
垣	-9830
瑙	-9831
貪	-9832
哭	-9833
塗	-9834
憤	-9835
胃	-9836
á	-9837
蝦	-9838
瓣	-9839
穷	-9840
嬰	-9841
畏	-9842
僑	-9843
侠	-9844
潰	-9845
捲	-9846
纖	-9847
矶	-9848
扫	-9849
擋	-9850
膚	-9851
誘	-9852
鎊	-9853
い	-9854
膨	-9855
憂	-9856
黛	-9857
螢	-9858
崙	-9859
焰	-9860
稣	-9861
朔	-9862
駿	-9863
剿	-9864
汁	-9865
酋	-9866
噪	-9867
凸	-9868
弧	-9869
鋪	-9870
摘	-9871
铭	-9872
悼	-9873
誰	-9874
辣	-9875
杏	-9876
窟	-9877
翡	-9878
凹	-9879
狭	-9880
黏	-9881
夹	-9882
偿	-9883
楠	-9884
粘	-9885
禹	-9886
辐	-9887
韵	-9888
鸣	-9889
乞	-9890
债	-9891
閒	-9892
暢	-9893
硝	-9894
輩	-9895
芽	-9896
赦	-9897
銳	-9898
е	-9899
荊	-9900
頜	-9901
橙	-9902
冥	-9903
塵	-9904
牢	-9905
滇	-9906
拋	-9907
樑	-9908
卧	-9909
戎	-9910
彬	-9911
湛	-9912
宦	-9913
炼	-9914
闸	-9915
橘	-9916
叠	-9917
瑰	-9918
诊	-9919
惑	-9920
纂	-9921
肆	-9922
膽	-9923
懼	-9924
酬	-9925
傘	-9926
餅	-9927
勉	-9928
玫	-9929
寂	-9930
涛	-9931
畿	-9932
脏	-9933
懂	-9934
酰	-9935
寅	-9936
棍	-9937
迄	-9938
н	-9939
狸	-9940
瀑	-9941
纬	-9942
孜	-9943
蹄	-9944
煮	-9945
冶	-9946
蔽	-9947
諡	-9948
磅	-9949
橄	-9950
繳	-9951
β	-9952
渊	-9953
酵	-9954
寡	-9955
堵	-9956
摆	-9957
赣	-9958
汕	-9959
泌	-9960
裴	-9961
惨	-9962
叢	-9963
鵝	-9964
邸	-9965
鱂	-9966
с	-9967
喊	-9968
懿	-9969
侦	-9970
榆	-9971
氛	-9972
匿	-9973
奋	-9974
簧	-9975
隙	-9976
伺	-9977
頃	-9978
鳞	-9979
櫃	-9980
孚	-9981
】	-9982
茎	-9983
誼	-9984
峻	-9985
沛	-9986
鞭	-9987
【	-9988
俞	-9989
滴	-9990
稽	-9991
顷	-9992
侄	-9993
詠	-9994
鹃	-9995
肪	-9996
臭	-9997
奕	-9998
荔	-9999
騙	-10000
斋	-10001
欖	-10002
仗	-10003
垃	-10004
倪	-10005
荡	-10006
扑	-10007
彙	-10008
筋	-10009
劾	-10010
彪	-10011
蝕	-10012
р	-10013
撲	-10014
訟	-10015
碘	-10016
禽	-10017
粟	-10018
裹	-10019
圾	-10020
雁	-10021
妓	-10022
芦	-10023
舱	-10024
衙	-10025
屢	-10026
綁	-10027
芯	-10028
鮋	-10029
泄	-10030
婉	-10031
傲	-10032
娅	-10033
牡	-10034
苹	-10035
ん	-10036
肠	-10037
鑼	-10038
闪	-10039
烤	-10040
殉	-10041
蓉	-10042
墜	-10043
墟	-10044
墩	-10045
岑	-10046
謠	-10047
谭	-10048
壬	-10049
暑	-10050
皖	-10051
僱	-10052
凶	-10053
趾	-10054
苔	-10055
煉	-10056
绵	-10057
彝	-10058
颠	-10059
豚	-10060
钻	-10061
塚	-10062
糾	-10063
頌	-10064
悅	-10065
曝	-10066
践	-10067
ü	-10068
拨	-10069
淹	-10070
硅	-10071
籤	-10072
諧	-10073
騷	-10074
嫡	-10075
鸦	-10076
呢	-10077
禍	-10078
賠	-10079
渦	-10080
狩	-10081
樟	-10082
萍	-10083
蝙	-10084
垒	-10085
舜	-10086
弊	-10087
纺	-10088
栋	-10089
倭	-10090
啦	-10091
嘎	-10092
貸	-10093
竭	-10094
茹	-10095
諷	-10096
檀	-10097
歼	-10098
炉	-10099
擠	-10100
鵬	-10101
拾	-10102
顛	-10103
桶	-10104
谊	-10105
谥	-10106
剌	-10107
溃	-10108
狙	-10109
穎	-10110
懲	-10111
梓	-10112
哇	-10113
刪	-10114
吋	-10115
爽	-10116
悔	-10117
啤	-10118
鴉	-10119
墅	-10120
釣	-10121
喚	-10122
闲	-10123
羌	-10124
谦	-10125
墾	-10126
衷	-10127
郝	-10128
窑	-10129
т	-10130
鰻	-10131
咬	-10132
毓	-10133
籠	-10134
膀	-10135
稚	-10136
蔓	-10137
薯	-10138
饶	-10139
魅	-10140
隕	-10141
淚	-10142
舖	-10143
蔭	-10144
砍	-10145
う	-10146
愚	-10147
沫	-10148
淀	-10149
锐	-10150
乒	-10151
哩	-10152
磚	-10153
淋	-10154
鹏	-10155
樸	-10156
挽	-10157
檐	-10158
í	-10159
愉	-10160
舅	-10161
萌	-10162
犁	-10163
鸭	-10164
耿	-10165
剖	-10166
締	-10167
莖	-10168
渤	-10169
禎	-10170
蘿	-10171
茜	-10172
莞	-10173
凍	-10174
聊	-10175
腎	-10176
骸	-10177
壹	-10178
咨	-10179
霜	-10180
厭	-10181
嵩	-10182
淫	-10183
鬚	-10184
犀	-10185
渭	-10186
炒	-10187
肿	-10188
癸	-10189
籲	-10190
濫	-10191
淆	-10192
罐	-10193
仆	-10194
僕	-10195
蔚	-10196
缝	-10197
谐	-10198
敷	-10199
苷	-10200
顱	-10201
砌	-10202
釜	-10203
颶	-10204
沁	-10205
綿	-10206
し	-10207
蘆	-10208
梗	-10209
谁	-10210
俯	-10211
漿	-10212
胚	-10213
扳	-10214
棱	-10215
滤	-10216
脹	-10217
膏	-10218
喙	-10219
擒	-10220
迭	-10221
兇	-10222
婴	-10223
弯	-10224
弼	-10225
贷	-10226
愤	-10227
鹅	-10228
ā	-10229
窩	-10230
诱	-10231
脆	-10232
醛	-10233
謹	-10234
闖	-10235
腫	-10236
卦	-10237
钠	-10238
矣	-10239
猩	-10240
琦	-10241
庐	-10242
廚	-10243
浏	-10244
崛	-10245
删	-10246
蕊	-10247
袍	-10248
烹	-10249
瞬	-10250
縫	-10251
厲	-10252
輿	-10253
鑄	-10254
в	-10255
晰	-10256
臥	-10257
遥	-10258
堯	-10259
斩	-10260
貶	-10261
骚	-10262
蔬	-10263
蜘	-10264
ö	-10265
抬	-10266
樊	-10267
碗	-10268
罹	-10269
岱	-10270
溥	-10271
祇	-10272
榕	-10273
纠	-10274
畅	-10275
瘋	-10276
黔	-10277
壩	-10278
疲	-10279
蝴	-10280
ス	-10281
挫	-10282
蒿	-10283
伞	-10284
к	-10285
坞	-10286
尧	-10287
膝	-10288
濾	-10289
蕉	-10290
ó	-10291
颈	-10292
杖	-10293
篤	-10294
廓	-10295
钩	-10296
匡	-10297
塢	-10298
甄	-10299
妾	-10300
祁	-10301
泗	-10302
猿	-10303
哨	-10304
胤	-10305
剥	-10306
瀨	-10307
撐	-10308
敖	-10309
馳	-10310
è	-10311
睿	-10312
錐	-10313
敲	-10314
厝	-10315
穀	-10316
虜	-10317
髓	-10318
擲	-10319
肋	-10320
鹼	-10321
饼	-10322
嚇	-10323
鑲	-10324
鬱	-10325
娥	-10326
傍	-10327
莽	-10328
説	-10329
峙	-10330
裙	-10331
擢	-10332
橢	-10333
疇	-10334
踐	-10335
鸚	-10336
阎	-10337
吁	-10338
飼	-10339
眷	-10340
肤	-10341
※	-10342
紳	-10343
匾	-10344
辜	-10345
か	-10346
溉	-10347
忧	-10348
贿	-10349
ル	-10350
戟	-10351
イ	-10352
聂	-10353
堰	-10354
梧	-10355
爛	-10356
敕	-10357
瀕	-10358
鬧	-10359
褒	-10360
鯊	-10361
楷	-10362
勿	-10363
宠	-10364
晤	-10365
陇	-10366
龟	-10367
丟	-10368
耆	-10369
邢	-10370
潟	-10371
缴	-10372
铝	-10373
た	-10374
磡	-10375
窝	-10376
宵	-10377
罵	-10378
羚	-10379
萼	-10380
墳	-10381
巩	-10382
湧	-10383
鍋	-10384
祺	-10385
瘦	-10386
抛	-10387
孢	-10388
绑	-10389
攔	-10390
舶	-10391
惹	-10392
浆	-10393
渣	-10394
琅	-10395
沂	-10396
瑶	-10397
盔	-10398
倖	-10399
阀	-10400
雯	-10401
肚	-10402
铃	-10403
闢	-10404
妈	-10405
聪	-10406
л	-10407
驳	-10408
抹	-10409
蒼	-10410
肾	-10411
漲	-10412
侏	-10413
贬	-10414
濁	-10415
煩	-10416
峨	-10417
巾	-10418
沧	-10419
媛	-10420
瞭	-10421
飽	-10422
渝	-10423
μ	-10424
冤	-10425
汐	-10426
瀏	-10427
暹	-10428
苻	-10429
乓	-10430
岬	-10431
疼	-10432
膛	-10433
溢	-10434
虏	-10435
舆	-10436
鋁	-10437
刃	-10438
蚀	-10439
邯	-10440
渴	-10441
颂	-10442
芹	-10443
菇	-10444
•	-10445
脸	-10446
挝	-10447
赔	-10448
嗎	-10449
涡	-10450
睦	-10451
屡	-10452
驟	-10453
苍	-10454
麒	-10455
奢	-10456
汾	-10457
諜	-10458
焊	-10459
绒	-10460
醬	-10461
虔	-10462
鞏	-10463
堀	-10464
婷	-10465
枯	-10466
錶	-10467
傭	-10468
贼	-10469
颖	-10470
闆	-10471
噬	-10472
芜	-10473
锥	-10474
醜	-10475
掀	-10476
枫	-10477
淞	-10478
蠻	-10479
酿	-10480
贪	-10481
锅	-10482
閥	-10483
詮	-10484
ア	-10485
腕	-10486
ラ	-10487
婿	-10488
賄	-10489
鰓	-10490
棣	-10491
蚌	-10492
卯	-10493
堊	-10494
讽	-10495
钓	-10496
泵	-10497
犧	-10498
胖	-10499
丕	-10500
倚	-10501
岔	-10502
厉	-10503
啊	-10504
淪	-10505
僵	-10506
吟	-10507
您	-10508
苞	-10509
辈	-10510
幌	-10511
忒	-10512
笠	-10513
賺	-10514
棺	-10515
纏	-10516
匙	-10517
羞	-10518
摸	-10519
剝	-10520
槟	-10521
紮	-10522
鰕	-10523
骼	-10524
釀	-10525
饱	-10526
馨	-10527
洽	-10528
糟	-10529
鈞	-10530
鉛	-10531
駒	-10532
棵	-10533
璧	-10534
紡	-10535
慌	-10536
磺	-10537
饒	-10538
と	-10539
稜	-10540
胀	-10541
兀	-10542
挡	-10543
濤	-10544
梳	-10545
緻	-10546
塾	-10547
詐	-10548
枕	-10549
瑾	-10550
糙	-10551
虧	-10552
骗	-10553
綽	-10554
榄	-10555
萃	-10556
斧	-10557
褲	-10558
祯	-10559
禱	-10560
諭	-10561
釐	-10562
霆	-10563
簿	-10564
嘲	-10565
捨	-10566
氰	-10567
紗	-10568
菁	-10569
謎	-10570
账	-10571
雾	-10572
艮	-10573
铅	-10574
霉	-10575
ا	-10576
牺	-10577
盪	-10578
竺	-10579
緝	-10580
陡	-10581
魨	-10582
纜	-10583
慾	-10584
撑	-10585
焉	-10586
蚤	-10587
捧	-10588
墮	-10589
恪	-10590
瞻	-10591
蟾	-10592
鋸	-10593
隍	-10594
晃	-10595
溜	-10596
孵	-10597
幟	-10598
抒	-10599
闵	-10600
饥	-10601
浑	-10602
蔗	-10603
ク	-10604
衫	-10605
钾	-10606
讼	-10607
涨	-10608
竊	-10609
惩	-10610
攤	-10611
祸	-10612
鵡	-10613
廁	-10614
帐	-10615
苣	-10616
襪	-10617
リ	-10618
搏	-10619
钧	-10620
悦	-10621
ト	-10622
绳	-10623
芥	-10624
荀	-10625
谣	-10626
哉	-10627
坠	-10628
〔	-10629
〕	-10630
埼	-10631
沽	-10632
蛮	-10633
阐	-10634
な	-10635
磐	-10636
д	-10637
嗜	-10638
琛	-10639
芸	-10640
谨	-10641
藓	-10642
抨	-10643
姦	-10644
滯	-10645
熹	-10646
蛾	-10647
誅	-10648
烃	-10649
帛	-10650
惧	-10651
兜	-10652
睹	-10653
侣	-10654
撕	-10655
沸	-10656
滲	-10657
ä	-10658
浚	-10659
茱	-10660
镶	-10661
丢	-10662
佣	-10663
暱	-10664
滙	-10665
に	-10666
憾	-10667
俾	-10668
晏	-10669
菸	-10670
楓	-10671
靶	-10672
尘	-10673
戍	-10674
摺	-10675
煽	-10676
劲	-10677
綏	-10678
帜	-10679
祂	-10680
蔷	-10681
譴	-10682
壟	-10683
溴	-10684
瀛	-10685
厌	-10686
皓	-10687
綴	-10688
り	-10689
偕	-10690
挤	-10691
穹	-10692
艰	-10693
炬	-10694
鲸	-10695
窦	-10696
龚	-10697
咪	-10698
妝	-10699
矽	-10700
禺	-10701
懋	-10702
鲤	-10703
る	-10704
煞	-10705
蟬	-10706
艱	-10707
谴	-10708
湊	-10709
澀	-10710
畴	-10711
酉	-10712
蕩	-10713
癒	-10714
缪	-10715
霹	-10716
栓	-10717
唤	-10718
篡	-10719
绣	-10720
煥	-10721
隅	-10722
雛	-10723
酚	-10724
釘	-10725
鍊	-10726
箕	-10727
衞	-10728
缀	-10729
γ	-10730
瑤	-10731
π	-10732
蚊	-10733
洩	-10734
−	-10735
泾	-10736
谍	-10737
娄	-10738
翟	-10739
蘚	-10740
爷	-10741
邹	-10742
堇	-10743
誦	-10744
妄	-10745
皂	-10746
祕	-10747
铎	-10748
妨	-10749
祚	-10750
镑	-10751
殲	-10752
贖	-10753
м	-10754
ま	-10755
豎	-10756
逗	-10757
鄒	-10758
钙	-10759
敞	-10760
曙	-10761
贩	-10762
闹	-10763
缮	-10764
轩	-10765
黜	-10766
椭	-10767
艷	-10768
荫	-10769
譬	-10770
蘊	-10771
鑒	-10772
薰	-10773
乍	-10774
曜	-10775
閻	-10776
峭	-10777
竖	-10778
冻	-10779
滥	-10780
屑	-10781
硼	-10782
鈔	-10783
澜	-10784
瘟	-10785
傀	-10786
俸	-10787
慨	-10788
瑛	-10789
楞	-10790
羟	-10791
臧	-10792
舷	-10793
蕴	-10794
坟	-10795
暮	-10796
濠	-10797
鈾	-10798
鑫	-10799
崑	-10800
氦	-10801
烂	-10802
麾	-10803
骤	-10804
く	-10805
靴	-10806
祷	-10807
彤	-10808
稠	-10809
羲	-10810
巳	-10811
灶	-10812
繹	-10813
儡	-10814
赌	-10815
捍	-10816
き	-10817
刹	-10818
峪	-10819
萝	-10820
鈕	-10821
靡	-10822
鹹	-10823
芋	-10824
驰	-10825
嬪	-10826
燦	-10827
肽	-10828
虾	-10829
吡	-10830
吵	-10831
夭	-10832
淇	-10833
渾	-10834
煎	-10835
疯	-10836
〜	-10837
葫	-10838
蟻	-10839
諫	-10840
樱	-10841
笃	-10842
謬	-10843
闡	-10844
λ	-10845
娟	-10846
缔	-10847
拦	-10848
莓	-10849
谕	-10850
昊	-10851
鲨	-10852
σ	-10853
さ	-10854
胥	-10855
轎	-10856
壺	-10857
汞	-10858
霄	-10859
埗	-10860
у	-10861
渥	-10862
斡	-10863
枣	-10864
笨	-10865
盎	-10866
垦	-10867
\	-10868
ッ	-10869
伶	-10870
恕	-10871
卤	-10872
沐	-10873
砸	-10874
簇	-10875
は	-10876
皋	-10877
芮	-10878
樺	-10879
钥	-10880
隘	-10881
δ	-10882
柜	-10883
篷	-10884
酪	-10885
佬	-10886
胰	-10887
掣	-10888
苟	-10889
郸	-10890
匀	-10891
侮	-10892
潼	-10893
聶	-10894
豁	-10895
が	-10896
淄	-10897
刮	-10898
溺	-10899
嘯	-10900
垄	-10901
烦	-10902
鉤	-10903
咽	-10904
瑩	-10905
誇	-10906
鶯	-10907
濒	-10908
鈉	-10909
醚	-10910
靼	-10911
陋	-10912
椰	-10913
腥	-10914
滬	-10915
莆	-10916
叱	-10917
奚	-10918
泣	-10919
諒	-10920
蒜	-10921
炯	-10922
こ	-10923
沦	-10924
竇	-10925
繡	-10926
炫	-10927
証	-10928
諱	-10929
餓	-10930
扔	-10931
ω	-10932
ら	-10933
嶽	-10934
鈣	-10935
冉	-10936
沮	-10937
薹	-10938
壕	-10939
憩	-10940
顎	-10941
滞	-10942
绸	-10943
鎌	-10944
泪	-10945
膳	-10946
萎	-10947
蠟	-10948
ε	-10949
叹	-10950
衢	-10951
鞘	-10952
吗	-10953
窃	-10954
謊	-10955
醋	-10956
鉅	-10957
頑	-10958
驿	-10959
妍	-10960
拷	-10961
槐	-10962
艳	-10963
厨	-10964
蜡	-10965
幡	-10966
覓	-10967
â	-10968
萱	-10969
嘆	-10970
巖	-10971
敛	-10972
隼	-10973
飄	-10974
鼬	-10975
曦	-10976
ç	-10977
み	-10978
漕	-10979
肛	-10980
寝	-10981
晟	-10982
舵	-10983
哆	-10984
垫	-10985
晖	-10986
驼	-10987
兌	-10988
擱	-10989
咎	-10990
昧	-10991
毯	-10992
甬	-10993
阱	-10994
陛	-10995
剃	-10996
莒	-10997
鑰	-10998
悖	-10999
臼	-11000
诛	-11001
侖	-11002
柑	-11003
毘	-11004
洼	-11005
庾	-11006
疹	-11007
繆	-11008
シ	-11009
悄	-11010
惱	-11011
渗	-11012
斃	-11013
淤	-11014
渲	-11015
绰	-11016
扯	-11017
鄞	-11018
鰈	-11019
僖	-11020
檬	-11021
纱	-11022
п	-11023
恤	-11024
て	-11025
垮	-11026
←	-11027
侗	-11028
呆	-11029
墊	-11030
篆	-11031
タ	-11032
倩	-11033
廬	-11034
戮	-11035
湄	-11036
琶	-11037
佚	-11038
卉	-11039
苛	-11040
お	-11041
姨	-11042
瞿	-11043
駝	-11044
沾	-11045
衆	-11046
ジ	-11047
汲	-11048
琵	-11049
笙	-11050
裘	-11051
汴	-11052
聆	-11053
愁	-11054
弈	-11055
楔	-11056
絨	-11057
悍	-11058
拐	-11059
朽	-11060
槳	-11061
齣	-11062
殆	-11063
畝	-11064
寰	-11065
葱	-11066
駱	-11067
鳍	-11068
汙	-11069
臻	-11070
潑	-11071
焕	-11072
ل	-11073
嫔	-11074
毙	-11075
磊	-11076
綾	-11077
跪	-11078
倆	-11079
燮	-11080
傻	-11081
灼	-11082
稷	-11083
揆	-11084
盼	-11085
蒐	-11086
蜴	-11087
勻	-11088
绅	-11089
飘	-11090
骆	-11091
沅	-11092
蕙	-11093
陂	-11094
啸	-11095
镍	-11096
诵	-11097
锌	-11098
兑	-11099
恥	-11100
驕	-11101
埕	-11102
珂	-11103
翊	-11104
饲	-11105
嬌	-11106
滄	-11107
ο	-11108
绎	-11109
褚	-11110
啶	-11111
媚	-11112
竿	-11113
雉	-11114
骏	-11115
ロ	-11116
圩	-11117
撼	-11118
蚜	-11119
霰	-11120
壶	-11121
羧	-11122
陌	-11123
蜗	-11124
鈍	-11125
凿	-11126
攬	-11127
苓	-11128
遏	-11129
桔	-11130
ν	-11131
産	-11132
飢	-11133
糯	-11134
酱	-11135
ち	-11136
杞	-11137
攸	-11138
閔	-11139
あ	-11140
侬	-11141
±	-11142
ú	-11143
潞	-11144
甥	-11145
褶	-11146
濮	-11147
茛	-11148
訥	-11149
贛	-11150
マ	-11151
鳩	-11152
丫	-11153
栅	-11154
樵	-11155
胱	-11156
魄	-11157
侃	-11158
谏	-11159
坍	-11160
脾	-11161
澱	-11162
閏	-11163
卅	-11164
泼	-11165
畸	-11166
捆	-11167
喃	-11168
檳	-11169
跆	-11170
秃	-11171
г	-11172
カ	-11173
嵐	-11174
暉	-11175
浜	-11176
缆	-11177
圃	-11178
烘	-11179
珪	-11180
杠	-11181
躁	-11182
葆	-11183
妆	-11184
皈	-11185
鑿	-11186
椿	-11187
耦	-11188
饿	-11189
吓	-11190
擄	-11191
锯	-11192
弋	-11193
洮	-11194
琰	-11195
缠	-11196
侈	-11197
甦	-11198
餉	-11199
ρ	-11200
○	-11201
弩	-11202
柵	-11203
鉀	-11204
鐮	-11205
妒	-11206
锤	-11207
鬍	-11208
й	-11209
孺	-11210
踩	-11211
龔	-11212
叡	-11213
嫻	-11214
蔑	-11215
虢	-11216
誣	-11217
锂	-11218
鰨	-11219
鳚	-11220
亏	-11221
窯	-11222
趟	-11223
嘻	-11224
拌	-11225
浊	-11226
峯	-11227
桅	-11228
砷	-11229
蟒	-11230
濂	-11231
毋	-11232
@	-11233
谟	-11234
唸	-11235
蚁	-11236
鷲	-11237
僉	-11238
啓	-11239
遁	-11240
媳	-11241
撃	-11242
籽	-11243
謨	-11244
ə	-11245
壢	-11246
芷	-11247
τ	-11248
莘	-11249
闯	-11250
ι	-11251
瑋	-11252
儉	-11253
瀾	-11254
蠕	-11255
靂	-11256
〇	-11257
喘	-11258
鏢	-11259
刁	-11260
咏	-11261
殭	-11262
缉	-11263
匆	-11264
袜	-11265
蔥	-11266
铀	-11267
陨	-11268
ς	-11269
轿	-11270
じ	-11271
澈	-11272
燭	-11273
濬	-11274
б	-11275
冢	-11276
闰	-11277
鮨	-11278
俭	-11279
泸	-11280
畑	-11281
縛	-11282
襟	-11283
毆	-11284
茉	-11285
裳	-11286
勐	-11287
槃	-11288
筠	-11289
钞	-11290
栈	-11291
舺	-11292
艋	-11293
薑	-11294
ド	-11295
吼	-11296
赎	-11297
倦	-11298
圻	-11299
蓼	-11300
拂	-11301
粥	-11302
邕	-11303
陞	-11304
馈	-11305
灑	-11306
狠	-11307
瞳	-11308
も	-11309
傣	-11310
樁	-11311
痴	-11312
韌	-11313
骂	-11314
à	-11315
瀋	-11316
蠅	-11317
鋰	-11318
瑕	-11319
遴	-11320
崁	-11321
晦	-11322
檻	-11323
氹	-11324
迥	-11325
襯	-11326
驛	-11327
掖	-11328
琥	-11329
ô	-11330
フ	-11331
仄	-11332
岷	-11333
碉	-11334
鱈	-11335
僻	-11336
挾	-11337
瀚	-11338
オ	-11339
姪	-11340
耻	-11341
蚕	-11342
峇	-11343
斛	-11344
冗	-11345
埤	-11346
愧	-11347
暈	-11348
柿	-11349
瀧	-11350
軀	-11351
钉	-11352
饋	-11353
‰	-11354
を	-11355
昼	-11356
檗	-11357
レ	-11358
朕	-11359
琮	-11360
躺	-11361
撈	-11362
潢	-11363
瀉	-11364
蝇	-11365
蠢	-11366
谜	-11367
鎧	-11368
れ	-11369
勛	-11370
吠	-11371
硒	-11372
豔	-11373
鳅	-11374
阙	-11375
鷺	-11376
溧	-11377
饑	-11378
洙	-11379
鷗	-11380
恺	-11381
檎	-11382
錘	-11383
妊	-11384
瞞	-11385
輾	-11386
つ	-11387
鱇	-11388
璽	-11389
耍	-11390
や	-11391
剔	-11392
唑	-11393
寢	-11394
悚	-11395
迂	-11396
攏	-11397
绛	-11398
逵	-11399
酥	-11400
钊	-11401
昱	-11402
糞	-11403
翎	-11404
螯	-11405
顽	-11406
礫	-11407
蓟	-11408
キ	-11409
熵	-11410
猷	-11411
訶	-11412
锈	-11413
暇	-11414
矚	-11415
诬	-11416
婢	-11417
鮟	-11418
咳	-11419
扈	-11420
櫛	-11421
荧	-11422
κ	-11423
す	-11424
憐	-11425
枋	-11426
賤	-11427
鰍	-11428
φ	-11429
掷	-11430
矯	-11431
釉	-11432
綺	-11433
緋	-11434
薨	-11435
詛	-11436
钝	-11437
だ	-11438
螂	-11439
俩	-11440
槭	-11441
衬	-11442
я	-11443
忻	-11444
皿	-11445
禿	-11446
醣	-11447
囑	-11448
帘	-11449
幂	-11450
訝	-11451
賃	-11452
エ	-11453
拙	-11454
璜	-11455
讳	-11456
诈	-11457
跤	-11458
ن	-11459
婁	-11460
逍	-11461
靳	-11462
咤	-11463
昨	-11464
癮	-11465
佟	-11466
嫉	-11467
孀	-11468
樽	-11469
駭	-11470
奘	-11471
桩	-11472
殯	-11473
膺	-11474
鎂	-11475
韬	-11476
颐	-11477
曬	-11478
沱	-11479
匝	-11480
捏	-11481
潍	-11482
蝽	-11483
で	-11484
兖	-11485
婭	-11486
嶄	-11487
砾	-11488
ミ	-11489
榨	-11490
渚	-11491
眺	-11492
裤	-11493
肘	-11494
宸	-11495
楨	-11496
璇	-11497
羰	-11498
轅	-11499
碁	-11500
頤	-11501
鴿	-11502
鸽	-11503
グ	-11504
擂	-11505
沌	-11506
茫	-11507
麝	-11508
妳	-11509
曳	-11510
諺	-11511
钮	-11512
鮭	-11513
岚	-11514
貂	-11515
堕	-11516
剎	-11517
惰	-11518
扼	-11519
蜱	-11520
榔	-11521
歪	-11522
綢	-11523
雏	-11524
黯	-11525
倘	-11526
煜	-11527
眶	-11528
奄	-11529
晝	-11530
篩	-11531
餵	-11532
^	-11533
悶	-11534
斂	-11535
馏	-11536
馴	-11537
鼩	-11538
巍	-11539
炙	-11540
瑄	-11541
莺	-11542
蛟	-11543
詭	-11544
鍛	-11545
筛	-11546
诃	-11547
赚	-11548
鄙	-11549
偃	-11550
嘱	-11551
懶	-11552
熄	-11553
頰	-11554
兗	-11555
惕	-11556
昵	-11557
炔	-11558
隴	-11559
鸠	-11560
巽	-11561
帧	-11562
鄱	-11563
チ	-11564
迺	-11565
坳	-11566
嫂	-11567
磋	-11568
鬣	-11569
θ	-11570
コ	-11571
叻	-11572
摊	-11573
牒	-11574
绞	-11575
鞑	-11576
黴	-11577
桦	-11578
氙	-11579
翹	-11580
魮	-11581
叮	-11582
怜	-11583
氓	-11584
涧	-11585
絮	-11586
綸	-11587
蒴	-11588
谅	-11589
鈺	-11590
铉	-11591
鵰	-11592
夔	-11593
嬴	-11594
怠	-11595
戛	-11596
菅	-11597
捞	-11598
秤	-11599
卞	-11600
殴	-11601
昶	-11602
沥	-11603
っ	-11604
劈	-11605
叭	-11606
蝉	-11607
麴	-11608
嗅	-11609
宕	-11610
尻	-11611
撇	-11612
脖	-11613
蛺	-11614
嶋	-11615
璐	-11616
诠	-11617
鞠	-11618
ʁ	-11619
デ	-11620
旷	-11621
秧	-11622
笋	-11623
腋	-11624
蝸	-11625
鎳	-11626
ر	-11627
筲	-11628
锻	-11629
ы	-11630
佃	-11631
鹛	-11632
ハ	-11633
槓	-11634
瀝	-11635
蘑	-11636
酌	-11637
乂	-11638
亢	-11639
孛	-11640
搁	-11641
昕	-11642
烽	-11643
璞	-11644
羹	-11645
藜	-11646
鍍	-11647
ê	-11648
憎	-11649
汛	-11650
炀	-11651
笈	-11652
伎	-11653
凑	-11654
哮	-11655
唔	-11656
颍	-11657
龛	-11658
ي	-11659
拇	-11660
掙	-11661
撓	-11662
檸	-11663
涿	-11664
羯	-11665
谎	-11666
铬	-11667
パ	-11668
丐	-11669
吒	-11670
晒	-11671
洒	-11672
賂	-11673
劭	-11674
啄	-11675
癱	-11676
ч	-11677
懈	-11678
絞	-11679
颅	-11680
サ	-11681
歙	-11682
蝎	-11683
骄	-11684
ë	-11685
佗	-11686
蠍	-11687
诰	-11688
邺	-11689
雳	-11690
焘	-11691
篠	-11692
簾	-11693
鳄	-11694
η	-11695
け	-11696
穫	-11697
豈	-11698
鄴	-11699
淦	-11700
綬	-11701
荼	-11702
蠶	-11703
醯	-11704
鲷	-11705
咐	-11706
晷	-11707
揽	-11708
浣	-11709
ī	-11710
滔	-11711
莹	-11712
郢	-11713
鳌	-11714
わ	-11715
揉	-11716
曇	-11717
瞰	-11718
郴	-11719
镁	-11720
☆	-11721
彷	-11722
璟	-11723
赂	-11724
鈎	-11725
馥	-11726
慷	-11727
旌	-11728
熏	-11729
瓮	-11730
荚	-11731
蝗	-11732
蝨	-11733
з	-11734
乖	-11735
儂	-11736
挨	-11737
熬	-11738
稼	-11739
缚	-11740
銓	-11741
驴	-11742
鮃	-11743
鹦	-11744
ウ	-11745
巔	-11746
徘	-11747
桨	-11748
榈	-11749
漱	-11750
瓯	-11751
聿	-11752
闕	-11753
誡	-11754
辗	-11755
ь	-11756
プ	-11757
尬	-11758
睞	-11759
羈	-11760
鋅	-11761
鑾	-11762
š	-11763
淖	-11764
祉	-11765
荠	-11766
躬	-11767
鸞	-11768
テ	-11769
佘	-11770
呤	-11771
檜	-11772
滁	-11773
玺	-11774
踝	-11775
镰	-11776
ニ	-11777
ャ	-11778
屎	-11779
徊	-11780
櫚	-11781
酗	-11782
寥	-11783
挠	-11784
窺	-11785
衮	-11786
韃	-11787
僭	-11788
槌	-11789
熾	-11790
覃	-11791
査	-11792
睾	-11793
遐	-11794
醮	-11795
躯	-11796
餡	-11797
呀	-11798
娠	-11799
梢	-11800
澧	-11801
耽	-11802
謗	-11803
贻	-11804
轍	-11805
钵	-11806
バ	-11807
姥	-11808
柩	-11809
烛	-11810
甯	-11811
皱	-11812
窪	-11813
邳	-11814
钛	-11815
韧	-11816
驹	-11817
驯	-11818
و	-11819
冼	-11820
凋	-11821
嚮	-11822
婺	-11823
滦	-11824
甩	-11825
瘓	-11826
踞	-11827
麽	-11828
凳	-11829
妲	-11830
澡	-11831
灸	-11832
羁	-11833
葺	-11834
蔔	-11835
鈦	-11836
鞅	-11837
鹘	-11838
م	-11839
ガ	-11840
喆	-11841
晕	-11842
歳	-11843
玟	-11844
蟠	-11845
鏽	-11846
鹊	-11847
□	-11848
錨	-11849
よ	-11850
兮	-11851
薈	-11852
镀	-11853
桢	-11854
洵	-11855
祜	-11856
稟	-11857
鄺	-11858
鎚	-11859
髻	-11860
鱨	-11861
鵑	-11862
咕	-11863
惶	-11864
锰	-11865
唾	-11866
捻	-11867
灿	-11868
犍	-11869
罔	-11870
娇	-11871
癖	-11872
睢	-11873
苇	-11874
骷	-11875
ナ	-11876
唆	-11877
棧	-11878
泻	-11879
瘫	-11880
涪	-11881
窒	-11882
蕪	-11883
ɛ	-11884
ひ	-11885
崧	-11886
愍	-11887
摹	-11888
碌	-11889
訣	-11890
铵	-11891
驸	-11892
鉉	-11893
飆	-11894
懇	-11895
柠	-11896
瘾	-11897
骰	-11898
翘	-11899
闾	-11900
佼	-11901
俏	-11902
絃	-11903
鳃	-11904
ß	-11905
ム	-11906
佥	-11907
嘌	-11908
恼	-11909
撾	-11910
栾	-11911
歹	-11912
珉	-11913
ñ	-11914
ィ	-11915
疣	-11916
竄	-11917
蓓	-11918
釗	-11919
飪	-11920
ょ	-11921
嗓	-11922
嬉	-11923
浒	-11924
筵	-11925
薊	-11926
喂	-11927
怯	-11928
攘	-11929
槿	-11930
瓚	-11931
粽	-11932
脷	-11933
愷	-11934
旻	-11935
螈	-11936
饷	-11937
傢	-11938
叩	-11939
嘧	-11940
娩	-11941
孽	-11942
拢	-11943
泓	-11944
煒	-11945
窘	-11946
粲	-11947
莪	-11948
蝰	-11949
铲	-11950
鹭	-11951
屁	-11952
惇	-11953
湍	-11954
羨	-11955
鼐	-11956
弛	-11957
疵	-11958
籬	-11959
咲	-11960
柚	-11961
栎	-11962
楹	-11963
滘	-11964
燊	-11965
绶	-11966
蔻	-11967
攪	-11968
杵	-11969
浇	-11970
瑁	-11971
筱	-11972
ブ	-11973
婕	-11974
岂	-11975
忱	-11976
炱	-11977
痊	-11978
绢	-11979
镐	-11980
堃	-11981
扒	-11982
缕	-11983
鹵	-11984
ろ	-11985
曠	-11986
滸	-11987
琨	-11988
筏	-11989
紓	-11990
谒	-11991
儼	-11992
叟	-11993
寞	-11994
抖	-11995
瘧	-11996
蕈	-11997
誥	-11998
贮	-11999
鮡	-12000
纶	-12001
膩	-12002
锚	-12003
鰂	-12004
え	-12005
皺	-12006
せ	-12007
珮	-12008
琢	-12009
葦	-12010
諦	-12011
鴞	-12012
č	-12013
枉	-12014
炽	-12015
珲	-12016
罂	-12017
逕	-12018
酐	-12019
涩	-12020
溼	-12021
琬	-12022
畲	-12023
诫	-12024
亳	-12025
撮	-12026
洱	-12027
貯	-12028
⁄	-12029
岌	-12030
恬	-12031
榛	-12032
荨	-12033
虱	-12034
顫	-12035
撿	-12036
獾	-12037
玖	-12038
鹉	-12039
渎	-12040
睽	-12041
糸	-12042
絹	-12043
谬	-12044
靚	-12045
厕	-12046
巅	-12047
璉	-12048
瞎	-12049
聾	-12050
肄	-12051
蚓	-12052
蛭	-12053
诅	-12054
髒	-12055
幺	-12056
碾	-12057
蜓	-12058
俑	-12059
俳	-12060
戳	-12061
狡	-12062
琐	-12063
箔	-12064
镖	-12065
鮠	-12066
ø	-12067
嬅	-12068
檯	-12069
珞	-12070
賑	-12071
楣	-12072
泮	-12073
脩	-12074
赁	-12075
黍	-12076
ζ	-12077
堺	-12078
恃	-12079
抉	-12080
摯	-12081
痪	-12082
茸	-12083
菠	-12084
螳	-12085
ب	-12086
涟	-12087
荻	-12088
釧	-12089
鸢	-12090
ē	-12091
ダ	-12092
ビ	-12093
噁	-12094
箏	-12095
梟	-12096
砚	-12097
筷	-12098
薔	-12099
韜	-12100
鱺	-12101
æ	-12102
ゅ	-12103
嘔	-12104
懦	-12105
澍	-12106
猝	-12107
疽	-12108
筍	-12109
粱	-12110
鯙	-12111
ェ	-12112
メ	-12113
娼	-12114
瑣	-12115
讞	-12116
輟	-12117
ō	-12118
俚	-12119
漩	-12120
燧	-12121
粪	-12122
ū	-12123
―	-12124
繕	-12125
謁	-12126
赈	-12127
轭	-12128
钴	-12129
ュ	-12130
妤	-12131
灝	-12132
煦	-12133
聳	-12134
谤	-12135
醴	-12136
鉑	-12137
å	-12138
婪	-12139
崴	-12140
棗	-12141
箴	-12142
貽	-12143
閑	-12144
淅	-12145
珅	-12146
穢	-12147
肱	-12148
蜒	-12149
め	-12150
侷	-12151
焙	-12152
羔	-12153
蚂	-12154
呵	-12155
桁	-12156
琊	-12157
畠	-12158
蜻	-12159
褫	-12160
邂	-12161
阡	-12162
霓	-12163
龕	-12164
啞	-12165
榭	-12166
胄	-12167
豌	-12168
鮫	-12169
啼	-12170
喧	-12171
弔	-12172
檄	-12173
疚	-12174
緞	-12175
肴	-12176
蛹	-12177
逅	-12178
拮	-12179
挣	-12180
瘡	-12181
釁	-12182
闷	-12183
靺	-12184
饪	-12185
≤	-12186
垢	-12187
癲	-12188
睐	-12189
窖	-12190
誹	-12191
鏟	-12192
戡	-12193
搅	-12194
氐	-12195
氾	-12196
洄	-12197
浔	-12198
烙	-12199
羥	-12200
荥	-12201
蜈	-12202
賬	-12203
鉻	-12204
鸥	-12205
鸾	-12206
モ	-12207
嚼	-12208
搗	-12209
碇	-12210
糜	-12211
頡	-12212
餾	-12213
х	-12214
俐	-12215
嗽	-12216
脇	-12217
膦	-12218
覲	-12219
谔	-12220
鹫	-12221
掏	-12222
栱	-12223
苋	-12224
謚	-12225
闇	-12226
颓	-12227
骁	-12228
î	-12229
涇	-12230
腱	-12231
蚣	-12232
贱	-12233
蹲	-12234
瞒	-12235
矗	-12236
紊	-12237
腻	-12238
鞨	-12239
勖	-12240
吩	-12241
嘩	-12242
媲	-12243
漾	-12244
鎬	-12245
锑	-12246
壠	-12247
奬	-12248
弁	-12249
杓	-12250
沭	-12251
瀆	-12252
祗	-12253
銃	-12254
吶	-12255
塹	-12256
夯	-12257
珈	-12258
軛	-12259
頷	-12260
驃	-12261
鬃	-12262
彧	-12263
彿	-12264
橇	-12265
纥	-12266
菀	-12267
韭	-12268
柝	-12269
湟	-12270
漓	-12271
腈	-12272
镕	-12273
頹	-12274
魷	-12275
鳖	-12276
»	-12277
ã	-12278
垛	-12279
柘	-12280
湮	-12281
爹	-12282
疤	-12283
簷	-12284
袒	-12285
轼	-12286
餚	-12287
鲱	-12288
烴	-12289
癫	-12290
矫	-12291
羣	-12292
茴	-12293
蠡	-12294
袞	-12295
鏞	-12296
铂	-12297
冪	-12298
挚	-12299
漪	-12300
痰	-12301
蝮	-12302
躋	-12303
ц	-12304
儸	-12305
峒	-12306
榻	-12307
脛	-12308
遽	-12309
靛	-12310
鸫	-12311
ㄧ	-12312
匕	-12313
巒	-12314
耸	-12315
萸	-12316
鄢	-12317
锺	-12318
雒	-12319
鱲	-12320
鳗	-12321
鼴	-12322
د	-12323
帚	-12324
焯	-12325
玳	-12326
珥	-12327
盂	-12328
舫	-12329
蜍	-12330
訛	-12331
娑	-12332
捣	-12333
揣	-12334
沔	-12335
邛	-12336
匐	-12337
掺	-12338
辻	-12339
闍	-12340
馀	-12341
庑	-12342
悌	-12343
慄	-12344
挟	-12345
斟	-12346
歆	-12347
歎	-12348
瓘	-12349
痢	-12350
詣	-12351
宥	-12352
菏	-12353
蜿	-12354
谿	-12355
υ	-12356
噩	-12357
拗	-12358
栢	-12359
譏	-12360
貳	-12361
赉	-12362
逞	-12363
餌	-12364
鯡	-12365
佯	-12366
勺	-12367
囪	-12368
殡	-12369
滌	-12370
澹	-12371
煬	-12372
疟	-12373
眩	-12374
ł	-12375
匮	-12376
瑯	-12377
癡	-12378
锣	-12379
鯽	-12380
鵲	-12381
ズ	-12382
涤	-12383
矾	-12384
絆	-12385
邾	-12386
郤	-12387
颌	-12388
髦	-12389
呕	-12390
帷	-12391
稔	-12392
螃	-12393
驢	-12394
ш	-12395
ツ	-12396
俟	-12397
痘	-12398
萤	-12399
觐	-12400
讶	-12401
軾	-12402
鏗	-12403
钯	-12404
驍	-12405
鲫	-12406
鸮	-12407
匍	-12408
咱	-12409
昙	-12410
繭	-12411
蠔	-12412
辍	-12413
铨	-12414
齧	-12415
●	-12416
咯	-12417
戦	-12418
棻	-12419
痺	-12420
繇	-12421
蕲	-12422
辕	-12423
郗	-12424
鉗	-12425
鳶	-12426
嫦	-12427
缽	-12428
蚺	-12429
褻	-12430
醍	-12431
驤	-12432
佰	-12433
嫖	-12434
岙	-12435
錳	-12436
鑣	-12437
髏	-12438
«	-12439
匱	-12440
掾	-12441
昴	-12442
潇	-12443
璘	-12444
阯	-12445
霑	-12446
鵙	-12447
ゆ	-12448
儁	-12449
拚	-12450
觅	-12451
鵜	-12452
垩	-12453
懒	-12454
栃	-12455
胭	-12456
蒯	-12457
諏	-12458
诽	-12459
恂	-12460
摒	-12461
瘠	-12462
睫	-12463
筝	-12464
糠	-12465
羡	-12466
裨	-12467
诡	-12468
醃	-12469
醐	-12470
阗	-12471
ŋ	-12472
甕	-12473
菟	-12474
賁	-12475
僞	-12476
嚨	-12477
绮	-12478
膾	-12479
蝌	-12480
込	-12481
齦	-12482
咄	-12483
橐	-12484
濑	-12485
煲	-12486
瑠	-12487
痹	-12488
稗	-12489
钗	-12490
铯	-12491
驊	-12492
ど	-12493
剋	-12494
剷	-12495
嗚	-12496
崭	-12497
弒	-12498
敍	-12499
杲	-12500
珙	-12501
瑗	-12502
缙	-12503
腭	-12504
贓	-12505
鰲	-12506
ć	-12507
娣	-12508
徳	-12509
湳	-12510
璀	-12511
絳	-12512
罄	-12513
蚪	-12514
ś	-12515
س	-12516
嚕	-12517
寛	-12518
忿	-12519
懺	-12520
涸	-12521
緹	-12522
銮	-12523
钰	-12524
ा	-12525
恳	-12526
揀	-12527
盏	-12528
莢	-12529
釷	-12530
钨	-12531
­	-12532
哑	-12533
啉	-12534
孰	-12535
帑	-12536
扛	-12537
澗	-12538
猖	-12539
鲀	-12540
嵋	-12541
暐	-12542
珩	-12543
簪	-12544
萩	-12545
闫	-12546
鱔	-12547
ɔ	-12548
勅	-12549
尷	-12550
晁	-12551
癇	-12552
皎	-12553
盯	-12554
譙	-12555
赓	-12556
馅	-12557
ノ	-12558
櫟	-12559
瑭	-12560
碲	-12561
谛	-12562
谯	-12563
蹇	-12564
邈	-12565
颉	-12566
鲈	-12567
ご	-12568
ぶ	-12569
幔	-12570
汜	-12571
涝	-12572
褪	-12573
霾	-12574
颊	-12575
龢	-12576
⋯	-12577
奭	-12578
擷	-12579
桧	-12580
榘	-12581
榷	-12582
珣	-12583
瓢	-12584
箍	-12585
翦	-12586
誨	-12587
诣	-12588
诲	-12589
魴	-12590
鯤	-12591
鱧	-12592
ば	-12593
囤	-12594
恿	-12595
渺	-12596
犛	-12597
琇	-12598
艏	-12599
訖	-12600
谚	-12601
豺	-12602
鎗	-12603
ワ	-12604
漬	-12605
痒	-12606
瞩	-12607
耘	-12608
芩	-12609
蹦	-12610
镉	-12611
闐	-12612
颚	-12613
鴕	-12614
爨	-12615
獺	-12616
笏	-12617
鈹	-12618
駙	-12619
ず	-12620
呋	-12621
尕	-12622
摻	-12623
晞	-12624
桀	-12625
炜	-12626
箬	-12627
茗	-12628
藕	-12629
藨	-12630
衅	-12631
辮	-12632
邃	-12633
俺	-12634
儋	-12635
嵊	-12636
掸	-12637
栩	-12638
珏	-12639
硤	-12640
粿	-12641
蛻	-12642
蜆	-12643
螞	-12644
閭	-12645
そ	-12646
ョ	-12647
攣	-12648
畈	-12649
痫	-12650
釵	-12651
鋤	-12652
锷	-12653
屹	-12654
嵇	-12655
憫	-12656
涕	-12657
熒	-12658
謫	-12659
趴	-12660
逛	-12661
閹	-12662
魟	-12663
嵯	-12664
様	-12665
煊	-12666
燾	-12667
盱	-12668
腌	-12669
鹳	-12670
ˋ	-12671
ά	-12672
э	-12673
亟	-12674
憬	-12675
挹	-12676
玮	-12677
贲	-12678
跻	-12679
轧	-12680
郃	-12681
郧	-12682
馱	-12683
哗	-12684
弑	-12685
欒	-12686
湃	-12687
禰	-12688
锟	-12689
隈	-12690
ı	-12691
ع	-12692
ゃ	-12693
唁	-12694
恽	-12695
撻	-12696
瀰	-12697
癢	-12698
秽	-12699
谘	-12700
姍	-12701
疮	-12702
缎	-12703
鄔	-12704
錮	-12705
钏	-12706
顗	-12707
髯	-12708
्	-12709
む	-12710
庠	-12711
濛	-12712
爍	-12713
獠	-12714
砥	-12715
砦	-12716
紜	-12717
苳	-12718
鸳	-12719
ж	-12720
喱	-12721
囉	-12722
癬	-12723
綵	-12724
镛	-12725
驷	-12726
骥	-12727
鯧	-12728
∈	-12729
哼	-12730
嫣	-12731
昀	-12732
桉	-12733
楝	-12734
槎	-12735
氈	-12736
涓	-12737
甌	-12738
讒	-12739
钡	-12740
偈	-12741
毎	-12742
盞	-12743
聋	-12744
胪	-12745
葶	-12746
藐	-12747
鎢	-12748
钼	-12749
鯖	-12750
鳕	-12751
勗	-12752
峠	-12753
氘	-12754
汨	-12755
燎	-12756
猕	-12757
璨	-12758
紇	-12759
脯	-12760
蹼	-12761
轶	-12762
骡	-12763
★	-12764
俨	-12765
啮	-12766
彊	-12767
旃	-12768
澆	-12769
疃	-12770
瘍	-12771
縉	-12772
蜷	-12773
踵	-12774
銨	-12775
阆	-12776
驥	-12777
́	-12778
峴	-12779
徭	-12780
忏	-12781
曖	-12782
歿	-12783
璿	-12784
瓏	-12785
萘	-12786
邇	-12787
鈷	-12788
이	-12789
ァ	-12790
佤	-12791
妞	-12792
憧	-12793
浬	-12794
燙	-12795
翩	-12796
菈	-12797
蜑	-12798
鄯	-12799
颤	-12800
ふ	-12801
凜	-12802
孖	-12803
潁	-12804
犢	-12805
眙	-12806
耒	-12807
蒨	-12808
蚩	-12809
詬	-12810
讹	-12811
躄	-12812
骠	-12813
χ	-12814
刈	-12815
嘶	-12816
戸	-12817
梶	-12818
漣	-12819
瀟	-12820
赟	-12821
輒	-12822
邬	-12823
钚	-12824
铠	-12825
雹	-12826
骅	-12827
麋	-12828
ˈ	-12829
セ	-12830
揪	-12831
縊	-12832
縻	-12833
蒾	-12834
邠	-12835
郓	-12836
銖	-12837
钒	-12838
陟	-12839
鯔	-12840
囂	-12841
専	-12842
愫	-12843
慑	-12844
殃	-12845
漯	-12846
烨	-12847
玠	-12848
臚	-12849
芪	-12850
辊	-12851
鉞	-12852
鶇	-12853
楸	-12854
燁	-12855
璠	-12856
腮	-12857
辙	-12858
郯	-12859
鄲	-12860
骊	-12861
ί	-12862
ت	-12863
∞	-12864
岘	-12865
岫	-12866
昉	-12867
脲	-12868
蜚	-12869
饵	-12870
鼱	-12871
≥	-12872
捩	-12873
滂	-12874
瑀	-12875
疱	-12876
窜	-12877
纓	-12878
脐	-12879
蚶	-12880
銹	-12881
鐳	-12882
鱉	-12883
鹬	-12884
þ	-12885
侑	-12886
儷	-12887
噹	-12888
滷	-12889
燬	-12890
獐	-12891
県	-12892
跖	-12893
醌	-12894
鰺	-12895
ه	-12896
嚐	-12897
坵	-12898
墉	-12899
惺	-12900
椽	-12901
氖	-12902
氡	-12903
濡	-12904
碓	-12905
竑	-12906
薙	-12907
蛞	-12908
遶	-12909
鳉	-12910
ほ	-12911
ケ	-12912
俶	-12913
咆	-12914
壑	-12915
弭	-12916
恙	-12917
暠	-12918
曷	-12919
猗	-12920
砵	-12921
绯	-12922
蝓	-12923
蠣	-12924
豊	-12925
赃	-12926
馭	-12927
鮈	-12928
鸯	-12929
倻	-12930
嘅	-12931
圜	-12932
搓	-12933
梆	-12934
禀	-12935
缨	-12936
鄚	-12937
陲	-12938
飙	-12939
鶘	-12940
ゲ	-12941
孪	-12942
灏	-12943
烁	-12944
瞪	-12945
碚	-12946
膿	-12947
臆	-12948
蛄	-12949
軼	-12950
錒	-12951
铊	-12952
鹟	-12953
ی	-12954
冑	-12955
凄	-12956
埭	-12957
曄	-12958
杼	-12959
枷	-12960
橈	-12961
殮	-12962
潯	-12963
焜	-12964
狒	-12965
疍	-12966
絶	-12967
綝	-12968
驪	-12969
乩	-12970
剽	-12971
喵	-12972
嗪	-12973
囓	-12974
栉	-12975
簋	-12976
荪	-12977
醞	-12978
銫	-12979
鞮	-12980
哄	-12981
挛	-12982
椋	-12983
槲	-12984
猥	-12985
獗	-12986
祟	-12987
笹	-12988
缢	-12989
菝	-12990
赭	-12991
镌	-12992
骇	-12993
ソ	-12994
ネ	-12995
喹	-12996
墘	-12997
宓	-12998
恍	-12999
歴	-13000
煇	-13001
燉	-13002
碣	-13003
窥	-13004
箇	-13005
綻	-13006
蜢	-13007
褂	-13008
詰	-13009
諳	-13010
錡	-13011
鎔	-13012
鶲	-13013
đ	-13014
ф	-13015
傈	-13016
坨	-13017
嶠	-13018
幀	-13019
朐	-13020
潦	-13021
灞	-13022
炊	-13023
牯	-13024
猾	-13025
痞	-13026
羿	-13027
翱	-13028
蹂	-13029
鉬	-13030
雋	-13031
鴦	-13032
黒	-13033
า	-13034
་	-13035
ボ	-13036
塬	-13037
愔	-13038
柃	-13039
稹	-13040
蜃	-13041
诀	-13042
軫	-13043
钍	-13044
铮	-13045
阖	-13046
`	-13047
ò	-13048
ح	-13049
恣	-13050
涞	-13051
澂	-13052
訢	-13053
鏘	-13054
鷸	-13055
僥	-13056
僳	-13057
垭	-13058
姫	-13059
憚	-13060
搔	-13061
敎	-13062
殇	-13063
毡	-13064
滎	-13065
燼	-13066
琚	-13067
謇	-13068
蹊	-13069
锄	-13070
阇	-13071
騫	-13072
骧	-13073
َ	-13074
厮	-13075
嗆	-13076
憨	-13077
揖	-13078
槻	-13079
淝	-13080
砀	-13081
禛	-13082
穰	-13083
芎	-13084
荞	-13085
讥	-13086
贅	-13087
鈈	-13088
錠	-13089
鍺	-13090
鱒	-13091
ό	-13092
ザ	-13093
尴	-13094
擘	-13095
朦	-13096
槛	-13097
沆	-13098
泠	-13099
涎	-13100
痙	-13101
睪	-13102
耙	-13103
苄	-13104
鎘	-13105
顒	-13106
鮄	-13107
®	-13108
ž	-13109
ˊ	-13110
ぎ	-13111
び	-13112
掳	-13113
楂	-13114
殤	-13115
琏	-13116
甾	-13117
縷	-13118
藁	-13119
邽	-13120
亘	-13121
佞	-13122
坯	-13123
捡	-13124
瓒	-13125
砜	-13126
菖	-13127
葜	-13128
郜	-13129
钳	-13130
і	-13131
र	-13132
ね	-13133
呐	-13134
塭	-13135
娴	-13136
嶷	-13137
毬	-13138
紂	-13139
荟	-13140
萜	-13141
藔	-13142
裟	-13143
訇	-13144
閤	-13145
亵	-13146
伉	-13147
吝	-13148
垓	-13149
懾	-13150
攒	-13151
瀬	-13152
痉	-13153
睇	-13154
筐	-13155
荖	-13156
閨	-13157
ă	-13158
卍	-13159
峦	-13160
崮	-13161
嶇	-13162
忤	-13163
惋	-13164
揄	-13165
晗	-13166
玷	-13167
瘀	-13168
睜	-13169
秣	-13170
篝	-13171
銥	-13172
铢	-13173
隗	-13174
鱘	-13175
鳐	-13176
ş	-13177
吲	-13178
啜	-13179
夙	-13180
杷	-13181
沢	-13182
濺	-13183
篙	-13184
篱	-13185
絢	-13186
罡	-13187
艉	-13188
虬	-13189
袈	-13190
鉚	-13191
铋	-13192
鬬	-13193
ψ	-13194
ヤ	-13195
傉	-13196
傕	-13197
哌	-13198
坷	-13199
墀	-13200
悯	-13201
戾	-13202
氚	-13203
氪	-13204
綦	-13205
芍	-13206
覬	-13207
謔	-13208
遹	-13209
閎	-13210
隽	-13211
霏	-13212
鳢	-13213
ξ	-13214
ヒ	-13215
冏	-13216
勣	-13217
嘟	-13218
枇	-13219
楫	-13220
獼	-13221
窿	-13222
繃	-13223
蟆	-13224
跗	-13225
迤	-13226
阈	-13227
鮪	-13228
ː	-13229
ゴ	-13230
ポ	-13231
姒	-13232
愕	-13233
扉	-13234
芾	-13235
苴	-13236
蓑	-13237
蠹	-13238
袤	-13239
詼	-13240
軋	-13241
锭	-13242
髅	-13243
י	-13244
㹴	-13245
佶	-13246
哚	-13247
沓	-13248
簫	-13249
菓	-13250
蓀	-13251
蝟	-13252
蹠	-13253
銼	-13254
餃	-13255
ï	-13256
ð	-13257
ぐ	-13258
僮	-13259
厩	-13260
啃	-13261
崽	-13262
惣	-13263
敝	-13264
汎	-13265
烫	-13266
箐	-13267
缬	-13268
輋	-13269
顼	-13270
傚	-13271
増	-13272
怛	-13273
樋	-13274
淌	-13275
璩	-13276
礽	-13277
绊	-13278
舔	-13279
貘	-13280
贰	-13281
跛	-13282
邝	-13283
銣	-13284
闺	-13285
骈	-13286
ホ	-13287
嘿	-13288
樫	-13289
淩	-13290
溟	-13291
炅	-13292
祛	-13293
綑	-13294
罌	-13295
茧	-13296
蔺	-13297
蛸	-13298
蟑	-13299
诩	-13300
蹴	-13301
鉢	-13302
錕	-13303
鯓	-13304
↔	-13305
墻	-13306
捶	-13307
櫥	-13308
焗	-13309
瘴	-13310
砧	-13311
硯	-13312
膑	-13313
菴	-13314
蟀	-13315
豉	-13316
関	-13317
隰	-13318
ʃ	-13319
囍	-13320
垠	-13321
壅	-13322
枱	-13323
獴	-13324
玑	-13325
瘩	-13326
眈	-13327
舂	-13328
覦	-13329
詡	-13330
鈮	-13331
鉍	-13332
铣	-13333
闓	-13334
馒	-13335
ق	-13336
刨	-13337
嬤	-13338
崂	-13339
揶	-13340
爻	-13341
笺	-13342
繙	-13343
臍	-13344
苎	-13345
苾	-13346
蠱	-13347
軻	-13348
霁	-13349
ف	-13350
‖	-13351
嚣	-13352
囱	-13353
塱	-13354
枭	-13355
歩	-13356
疙	-13357
绫	-13358
袱	-13359
辄	-13360
辎	-13361
镧	-13362
駄	-13363
麂	-13364
̇	-13365
ร	-13366
ざ	-13367
刎	-13368
喫	-13369
廝	-13370
拴	-13371
拽	-13372
撣	-13373
晾	-13374
椴	-13375
楯	-13376
榊	-13377
殓	-13378
毌	-13379
渍	-13380
溱	-13381
溲	-13382
矜	-13383
胛	-13384
蔘	-13385
蛎	-13386
蟋	-13387
褓	-13388
諤	-13389
锆	-13390
阑	-13391
顔	-13392
鱚	-13393
ю	-13394
げ	-13395
仡	-13396
儕	-13397
冴	-13398
噻	-13399
嚎	-13400
孿	-13401
岀	-13402
巻	-13403
徠	-13404
発	-13405
皝	-13406
竅	-13407
繽	-13408
纘	-13409
舛	-13410
菰	-13411
蔵	-13412
蚯	-13413
蛀	-13414
邰	-13415
酝	-13416
锶	-13417
駢	-13418
喔	-13419
堑	-13420
憊	-13421
晔	-13422
櫓	-13423
猬	-13424
珑	-13425
璣	-13426
疋	-13427
肼	-13428
芈	-13429
苜	-13430
荳	-13431
蚵	-13432
鲑	-13433
ý	-13434
ギ	-13435
佢	-13436
倬	-13437
慫	-13438
掐	-13439
汊	-13440
瀘	-13441
疝	-13442
蓣	-13443
蓿	-13444
轸	-13445
鄜	-13446
鈽	-13447
飭	-13448
驮	-13449
鰧	-13450
리	-13451
û	-13452
亶	-13453
哔	-13454
廩	-13455
旼	-13456
橱	-13457
濯	-13458
瓩	-13459
茁	-13460
葩	-13461
诟	-13462
蹶	-13463
铰	-13464
顥	-13465
鯪	-13466
鰾	-13467
龈	-13468
䲗	-13469
佺	-13470
咩	-13471
咫	-13472
奐	-13473
嬸	-13474
榎	-13475
榫	-13476
溅	-13477
爰	-13478
碶	-13479
磴	-13480
膊	-13481
萁	-13482
诋	-13483
赡	-13484
蹺	-13485
軔	-13486
銬	-13487
鋂	-13488
鎏	-13489
钜	-13490
呱	-13491
哦	-13492
囿	-13493
媾	-13494
寔	-13495
徇	-13496
洹	-13497
湜	-13498
焓	-13499
笞	-13500
粑	-13501
脓	-13502
萇	-13503
藹	-13504
谌	-13505
郅	-13506
鎵	-13507
鵟	-13508
ě	-13509
ו	-13510
寐	-13511
嵬	-13512
慤	-13513
炖	-13514
犒	-13515
禕	-13516
糅	-13517
绚	-13518
舘	-13519
逋	-13520
郫	-13521
阉	-13522
隷	-13523
鴛	-13524
†	-13525
ピ	-13526
劵	-13527
咁	-13528
嗇	-13529
嚙	-13530
廍	-13531
惘	-13532
愨	-13533
朮	-13534
洶	-13535
淒	-13536
狨	-13537
玘	-13538
琺	-13539
瞧	-13540
蒞	-13541
蒽	-13542
褥	-13543
詒	-13544
譁	-13545
轆	-13546
錚	-13547
น	-13548
噓	-13549
栒	-13550
渙	-13551
犰	-13552
狳	-13553
瓠	-13554
皙	-13555
磕	-13556
箫	-13557
苫	-13558
荽	-13559
谪	-13560
酆	-13561
陉	-13562
鮎	-13563
黟	-13564
ù	-13565
ń	-13566
◎	-13567
ベ	-13568
嵙	-13569
棨	-13570
泫	-13571
睁	-13572
苈	-13573
莅	-13574
藪	-13575
蠑	-13576
讧	-13577
輓	-13578
鉈	-13579
鍀	-13580
钺	-13581
闌	-13582
驭	-13583
鶻	-13584
ج	-13585
へ	-13586
嘢	-13587
媧	-13588
孳	-13589
弢	-13590
暄	-13591
洺	-13592
烬	-13593
簕	-13594
腑	-13595
蜕	-13596
謐	-13597
贍	-13598
辫	-13599
鋇	-13600
録	-13601
鍔	-13602
铿	-13603
饗	-13604
骞	-13605
鹑	-13606
唄	-13607
墬	-13608
拭	-13609
牘	-13610
紘	-13611
蜊	-13612
觴	-13613
辇	-13614
釔	-13615
馗	-13616
驒	-13617
न	-13618
囧	-13619
垅	-13620
嵴	-13621
幗	-13622
拣	-13623
晩	-13624
楽	-13625
榖	-13626
濘	-13627
牦	-13628
痲	-13629
穂	-13630
葭	-13631
蛊	-13632
赘	-13633
鉭	-13634
颢	-13635
鲢	-13636
黝	-13637
ì	-13638
έ	-13639
ъ	-13640
ة	-13641
ṣ	-13642
ペ	-13643
孃	-13644
屌	-13645
昺	-13646
暘	-13647
枸	-13648
涣	-13649
璁	-13650
稃	-13651
绀	-13652
脣	-13653
荸	-13654
袂	-13655
踊	-13656
躉	-13657
逖	-13658
镂	-13659
閡	-13660
闔	-13661
靓	-13662
饺	-13663
대	-13664
¥	-13665
ą	-13666
̃	-13667
ḥ	-13668
乜	-13669
凪	-13670
刍	-13671
圪	-13672
幪	-13673
懊	-13674
捺	-13675
榧	-13676
泷	-13677
溆	-13678
稈	-13679
纣	-13680
茯	-13681
藿	-13682
蟎	-13683
蠵	-13684
訕	-13685
郦	-13686
惫	-13687
慟	-13688
搐	-13689
淬	-13690
熠	-13691
牴	-13692
砻	-13693
簸	-13694
芻	-13695
蘸	-13696
蟄	-13697
诒	-13698
輜	-13699
鎰	-13700
鱀	-13701
麿	-13702
黼	-13703
ि	-13704
ṭ	-13705
ㄨ	-13706
倜	-13707
倣	-13708
凛	-13709
剁	-13710
嗝	-13711
孑	-13712
岖	-13713
徕	-13714
慚	-13715
拈	-13716
攫	-13717
淠	-13718
濉	-13719
瓌	-13720
睑	-13721
蓁	-13722
蛏	-13723
諍	-13724
谗	-13725
饅	-13726
M	-13727
ك	-13728
剡	-13729
嗟	-13730
尪	-13731
廨	-13732
惲	-13733
棂	-13734
樾	-13735
燻	-13736
牂	-13737
磬	-13738
苌	-13739
苕	-13740
讖	-13741
豨	-13742
踴	-13743
鏵	-13744
镭	-13745
飚	-13746
黻	-13747
T	-13748
ɕ	-13749
ʔ	-13750
榉	-13751
澶	-13752
疡	-13753
眨	-13754
砭	-13755
磾	-13756
箋	-13757
绾	-13758
羸	-13759
菘	-13760
詆	-13761
贽	-13762
鋯	-13763
鏐	-13764
鑭	-13765
镠	-13766
阚	-13767
饕	-13768
驩	-13769
ش	-13770
ก	-13771
伕	-13772
侂	-13773
呦	-13774
嚏	-13775
坻	-13776
嬛	-13777
瀅	-13778
芊	-13779
襖	-13780
觊	-13781
觎	-13782
郛	-13783
郷	-13784
酢	-13785
銦	-13786
钤	-13787
锢	-13788
闿	-13789
雎	-13790
靄	-13791
頫	-13792
鯷	-13793
¬	-13794
佾	-13795
嗲	-13796
垸	-13797
悸	-13798
惮	-13799
柞	-13800
沣	-13801
獭	-13802
甑	-13803
耜	-13804
膈	-13805
螭	-13806
鍬	-13807
铐	-13808
锴	-13809
霈	-13810
頊	-13811
鲇	-13812
ˇ	-13813
ר	-13814
म	-13815
冇	-13816
呜	-13817
搪	-13818
槙	-13819
炘	-13820
牍	-13821
狛	-13822
砹	-13823
笆	-13824
笪	-13825
紺	-13826
莨	-13827
蘅	-13828
讫	-13829
诙	-13830
輦	-13831
迩	-13832
釩	-13833
鏖	-13834
铍	-13835
髖	-13836
鶉	-13837
亙	-13838
仃	-13839
兢	-13840
凈	-13841
唧	-13842
喋	-13843
嗩	-13844
嗶	-13845
嘈	-13846
廪	-13847
怂	-13848
扦	-13849
昐	-13850
毽	-13851
汹	-13852
滏	-13853
濞	-13854
畹	-13855
眞	-13856
碛	-13857
祎	-13858
秆	-13859
稙	-13860
纫	-13861
胧	-13862
脍	-13863
舎	-13864
輅	-13865
邙	-13866
顳	-13867
鶚	-13868
ṇ	-13869
ヴ	-13870
ㄚ	-13871
倔	-13872
勰	-13873
呷	-13874
嘘	-13875
埴	-13876
嶂	-13877
枞	-13878
狽	-13879
糰	-13880
芗	-13881
蒺	-13882
蓖	-13883
諶	-13884
讣	-13885
賡	-13886
轲	-13887
錇	-13888
镳	-13889
騏	-13890
鸲	-13891
김	-13892
͡	-13893
ِ	-13894
ั	-13895
เ	-13896
俁	-13897
効	-13898
呻	-13899
嘏	-13900
噗	-13901
坌	-13902
姉	-13903
崃	-13904
廸	-13905
枳	-13906
桤	-13907
泚	-13908
淼	-13909
疸	-13910
痤	-13911
胳	-13912
酞	-13913
饉	-13914
魘	-13915
鸝	-13916
鹀	-13917
鼯	-13918
다	-13919
ư	-13920
ה	-13921
■	-13922
丶	-13923
仞	-13924
呸	-13925
噱	-13926
峤	-13927
捅	-13928
柊	-13929
柽	-13930
焱	-13931
玥	-13932
珽	-13933
肮	-13934
訌	-13935
酣	-13936
鉄	-13937
銑	-13938
鍇	-13939
鍰	-13940
鍶	-13941
铆	-13942
锗	-13943
隣	-13944
颛	-13945
鰹	-13946
鲹	-13947
鸕	-13948
鹞	-13949
ή	-13950
べ	-13951
劏	-13952
坭	-13953
垌	-13954
娲	-13955
屐	-13956
巂	-13957
廡	-13958
暧	-13959
沩	-13960
燿	-13961
瑈	-13962
緲	-13963
翥	-13964
蚋	-13965
诂	-13966
蹬	-13967
锕	-13968
鬨	-13969
지	-13970
ง	-13971
ย	-13972
仝	-13973
俎	-13974
哋	-13975
壆	-13976
嶝	-13977
徨	-13978
掰	-13979
泯	-13980
洸	-13981
浐	-13982
湣	-13983
溏	-13984
煚	-13985
琯	-13986
秸	-13987
緘	-13988
翳	-13989
荏	-13990
莠	-13991
趺	-13992
酈	-13993
铳	-13994
铼	-13995
骯	-13996
髹	-13997
鬲	-13998
鮗	-13999
鲆	-14000
鳟	-14001
鸛	-14002
鸵	-14003
龑	-14004
哏	-14005
啰	-14006
圏	-14007
塽	-14008
対	-14009
撬	-14010
楙	-14011
燄	-14012
璈	-14013
癥	-14014
祆	-14015
祔	-14016
籁	-14017
罟	-14018
胝	-14019
舢	-14020
衹	-14021
訃	-14022
谑	-14023
鉸	-14024
鑀	-14025
锵	-14026
饬	-14027
鲃	-14028
鼹	-14029
아	-14030
क	-14031
்	-14032
づ	-14033
俣	-14034
劢	-14035
嚥	-14036
枥	-14037
樨	-14038
涮	-14039
湫	-14040
濰	-14041
炁	-14042
痣	-14043
矇	-14044
绽	-14045
蔼	-14046
蕎	-14047
蛆	-14048
蛉	-14049
襦	-14050
躪	-14051
鄄	-14052
鄖	-14053
鋦	-14054
铈	-14055
鞣	-14056
餮	-14057
鱟	-14058
鸪	-14059
ز	-14060
≈	-14061
ユ	-14062
伝	-14063
埂	-14064
埸	-14065
塩	-14066
姣	-14067
尙	-14068
怙	-14069
濊	-14070
濶	-14071
筊	-14072
綉	-14073
绷	-14074
腩	-14075
虻	-14076
裱	-14077
诘	-14078
贄	-14079
邡	-14080
鈿	-14081
鋆	-14082
钌	-14083
铛	-14084
镞	-14085
鬟	-14086
鯒	-14087
鱥	-14088
黥	-14089
정	-14090
한	-14091
ğ	-14092
ύ	-14093
स	-14094
อ	-14095
∶	-14096
仟	-14097
勲	-14098
哎	-14099
噝	-14100
圮	-14101
婧	-14102
巯	-14103
擧	-14104
朧	-14105
梣	-14106
瀞	-14107
痔	-14108
祓	-14109
窈	-14110
縝	-14111
纭	-14112
胯	-14113
芡	-14114
莴	-14115
蔴	-14116
藺	-14117
袴	-14118
裒	-14119
蹋	-14120
郾	-14121
鈀	-14122
霽	-14123
颯	-14124
鬘	-14125
鳔	-14126
鳝	-14127
鹗	-14128
가	-14129
ɪ	-14130
א	-14131
ㄇ	-14132
侥	-14133
咙	-14134
嗡	-14135
崆	-14136
恵	-14137
満	-14138
犊	-14139
磧	-14140
粧	-14141
缭	-14142
肟	-14143
胫	-14144
葳	-14145
谧	-14146
鋌	-14147
錸	-14148
髂	-14149
라	-14150
ა	-14151
≠	-14152
ぼ	-14153
䴉	-14154
咭	-14155
嚈	-14156
埡	-14157
渟	-14158
炆	-14159
珺	-14160
睺	-14161
祢	-14162
箓	-14163
簃	-14164
芫	-14165
蛰	-14166
赳	-14167
逹	-14168
鉏	-14169
銪	-14170
髑	-14171
鱵	-14172
鱿	-14173
鳎	-14174
鷂	-14175
鹧	-14176
사	-14177
ל	-14178
ม	-14179
ṃ	-14180
々	-14181
吮	-14182
咗	-14183
奂	-14184
姝	-14185
峁	-14186
廆	-14187
拏	-14188
櫸	-14189
灃	-14190
炕	-14191
煨	-14192
瑷	-14193
癭	-14194
盥	-14195
睬	-14196
砺	-14197
硏	-14198
笳	-14199
篦	-14200
缇	-14201
缗	-14202
翀	-14203
臾	-14204
辺	-14205
迢	-14206
郇	-14207
鄆	-14208
鈸	-14209
鉲	-14210
镓	-14211
閂	-14212
鲟	-14213
鶓	-14214
鹌	-14215
œ	-14216
ى	-14217
ะ	-14218
ㄐ	-14219
俪	-14220
円	-14221
劊	-14222
啖	-14223
圀	-14224
実	-14225
峄	-14226
恫	-14227
挞	-14228
昰	-14229
晸	-14230
煖	-14231
猁	-14232
猞	-14233
葯	-14234
薌	-14235
蚱	-14236
褔	-14237
鄣	-14238
鑛	-14239
铪	-14240
閲	-14241
鳀	-14242
鸻	-14243
ש	-14244
ط	-14245
∥	-14246
〖	-14247
〗	-14248
ゼ	-14249
凫	-14250
劻	-14251
媯	-14252
廄	-14253
椁	-14254
殁	-14255
氬	-14256
浈	-14257
潺	-14258
獒	-14259
玆	-14260
硐	-14261
窰	-14262
箝	-14263
翕	-14264
耨	-14265
胍	-14266
躏	-14267
郿	-14268
銻	-14269
鑊	-14270
阂	-14271
阊	-14272
颞	-14273
鬩	-14274
鰩	-14275
鲽	-14276
도	-14277
원	-14278
劄	-14279
卬	-14280
唃	-14281
啥	-14282
啲	-14283
噌	-14284
噠	-14285
団	-14286
圉	-14287
妫	-14288
姗	-14289
惚	-14290
戕	-14291
柒	-14292
栻	-14293
泱	-14294
熨	-14295
獁	-14296
瞼	-14297
礪	-14298
縈	-14299
缵	-14300
茌	-14301
荩	-14302
萣	-14303
蒔	-14304
蕤	-14305
蝾	-14306
蠊	-14307
袄	-14308
訐	-14309
貊	-14310
鐙	-14311
閼	-14312
顓	-14313
顴	-14314
기	-14315
에	-14316
מ	-14317
त	-14318
ว	-14319
ォ	-14320
卹	-14321
吱	-14322
咧	-14323
啪	-14324
噲	-14325
懵	-14326
戔	-14327
摭	-14328
暎	-14329
樗	-14330
獬	-14331
皰	-14332
総	-14333
薮	-14334
螨	-14335
隹	-14336
頼	-14337
鬻	-14338
鲂	-14339
ɑ	-14340
щ	-14341
ُ	-14342
ْ	-14343
ท	-14344
廕	-14345
憍	-14346
戢	-14347
浯	-14348
澚	-14349
畬	-14350
糍	-14351
綰	-14352
繚	-14353
纍	-14354
苧	-14355
蟜	-14356
諲	-14357
贇	-14358
鈇	-14359
銶	-14360
钫	-14361
雑	-14362
雩	-14363
鲳	-14364
鶿	-14365
鹄	-14366
प	-14367
ी	-14368
ส	-14369
≡	-14370
儆	-14371
嘜	-14372
嫚	-14373
嵘	-14374
悝	-14375
惭	-14376
殞	-14377
氩	-14378
滉	-14379
牻	-14380
琿	-14381
碴	-14382
礬	-14383
笄	-14384
篾	-14385
缄	-14386
胼	-14387
荛	-14388
莿	-14389
蜇	-14390
覧	-14391
谶	-14392
跸	-14393
逑	-14394
郕	-14395
郞	-14396
阕	-14397
霎	-14398
韫	-14399
鵪	-14400
ż	-14401
ल	-14402
両	-14403
佇	-14404
唬	-14405
啾	-14406
噜	-14407
圹	-14408
売	-14409
峥	-14410
嶙	-14411
揹	-14412
枹	-14413
桫	-14414
槊	-14415
汭	-14416
畯	-14417
瞥	-14418
祧	-14419
窍	-14420
竦	-14421
籐	-14422
薏	-14423
誾	-14424
豸	-14425
貉	-14426
鐺	-14427
钽	-14428
铌	-14429
闱	-14430
騾	-14431
鴯	-14432
鵠	-14433
鹩	-14434
F	-14435
ř	-14436
♥	-14437
叁	-14438
唭	-14439
嗤	-14440
宍	-14441
烜	-14442
狎	-14443
秭	-14444
竈	-14445
箸	-14446
胴	-14447
腆	-14448
舐	-14449
芃	-14450
菑	-14451
萵	-14452
薷	-14453
蛔	-14454
螄	-14455
襁	-14456
賚	-14457
鋨	-14458
鏑	-14459
鐲	-14460
钷	-14461
铑	-14462
雫	-14463
馍	-14464
ę	-14465
พ	-14466
ἀ	-14467
ヨ	-14468
ㄝ	-14469
ㄩ	-14470
伋	-14471
俬	-14472
嘹	-14473
埵	-14474
嬋	-14475
庹	-14476
恸	-14477
捫	-14478
橿	-14479
滓	-14480
烺	-14481
玕	-14482
畋	-14483
疥	-14484
瞌	-14485
硖	-14486
磔	-14487
禩	-14488
緱	-14489
肓	-14490
茔	-14491
菽	-14492
裾	-14493
詧	-14494
豢	-14495
邗	-14496
釙	-14497
釤	-14498
驄	-14499
鮰	-14500
鳙	-14501
黧	-14502
õ	-14503
ơ	-14504
ǎ	-14505
خ	-14506
ิ	-14507
ぬ	-14508
咚	-14509
噢	-14510
堉	-14511
崐	-14512
嵗	-14513
庥	-14514
撩	-14515
槤	-14516
渌	-14517
熜	-14518
犨	-14519
狍	-14520
瘁	-14521
盅	-14522
礴	-14523
筮	-14524
臬	-14525
茀	-14526
蛳	-14527
衽	-14528
覡	-14529
赧	-14530
郏	-14531
鄠	-14532
闼	-14533
饌	-14534
鸬	-14535
鹮	-14536
黠	-14537
인	-14538
§	-14539
य	-14540
⇒	-14541
∧	-14542
匏	-14543
嚷	-14544
埒	-14545
寳	-14546
摑	-14547
旂	-14548
滹	-14549
焖	-14550
燏	-14551
猊	-14552
碭	-14553
絀	-14554
舨	-14555
蘄	-14556
蚝	-14557
衊	-14558
觚	-14559
詁	-14560
諴	-14561
謾	-14562
讴	-14563
谙	-14564
豳	-14565
辋	-14566
邴	-14567
酊	-14568
鋹	-14569
钹	-14570
锜	-14571
镒	-14572
闳	-14573
隠	-14574
韁	-14575
颙	-14576
飴	-14577
髪	-14578
鬢	-14579
鹚	-14580
수	-14581
ё	-14582
ص	-14583
व	-14584
่	-14585
╱	-14586
〞	-14587
ㄕ	-14588
偲	-14589
匄	-14590
啬	-14591
垚	-14592
峩	-14593
帯	-14594
徬	-14595
忞	-14596
忡	-14597
悽	-14598
斫	-14599
暌	-14600
澪	-14601
狁	-14602
璥	-14603
眸	-14604
窠	-14605
竜	-14606
粕	-14607
紬	-14608
縁	-14609
繖	-14610
纾	-14611
缜	-14612
罈	-14613
罘	-14614
腴	-14615
薜	-14616
螣	-14617
酩	-14618
銲	-14619
鋐	-14620
餞	-14621
饯	-14622
騭	-14623
髡	-14624
鮀	-14625
鱯	-14626
鲮	-14627
鴝	-14628
鹈	-14629
고	-14630
나	-14631
어	-14632
ָ	-14633
द	-14634
ヘ	-14635
偁	-14636
卽	-14637
嗔	-14638
嚟	-14639
囷	-14640
埈	-14641
嬗	-14642
悫	-14643
昪	-14644
栝	-14645
犄	-14646
犷	-14647
狈	-14648
琍	-14649
瑱	-14650
痂	-14651
砒	-14652
籙	-14653
籟	-14654
粄	-14655
荤	-14656
菪	-14657
蕗	-14658
蚴	-14659
謄	-14660
赊	-14661
遄	-14662
韞	-14663
韪	-14664
頦	-14665
駅	-14666
騁	-14667
鲉	-14668
ţ	-14669
ʻ	-14670
ա	-14671
乗	-14672
佻	-14673
倌	-14674
勷	-14675
噏	-14676
崢	-14677
嶲	-14678
廞	-14679
徂	-14680
旄	-14681
旸	-14682
柢	-14683
熲	-14684
燴	-14685
珐	-14686
珦	-14687
甡	-14688
甪	-14689
畀	-14690
癩	-14691
砰	-14692
硃	-14693
絛	-14694
腧	-14695
臏	-14696
茭	-14697
菉	-14698
螅	-14699
觞	-14700
諄	-14701
踹	-14702
逄	-14703
鏜	-14704
鏤	-14705
铟	-14706
铷	-14707
閾	-14708
颺	-14709
骶	-14710
鹎	-14711
서	-14712
성	-14713
하	-14714
÷	-14715
ƒ	-14716
ǣ	-14717
ד	-14718
أ	-14719
ạ	-14720
▪	-14721
♭	-14722
ぞ	-14723
ㄥ	-14724
䓬	-14725
俅	-14726
僊	-14727
冨	-14728
冽	-14729
哽	-14730
喰	-14731
妣	-14732
孱	-14733
屻	-14734
彫	-14735
愆	-14736
搵	-14737
擀	-14738
朊	-14739
栿	-14740
椤	-14741
橹	-14742
烩	-14743
犸	-14744
瞽	-14745
禳	-14746
篪	-14747
簍	-14748
粳	-14749
聃	-14750
莧	-14751
蓆	-14752
虺	-14753
螫	-14754
衾	-14755
譞	-14756
豕	-14757
遒	-14758
鍥	-14759
鍼	-14760
鐫	-14761
鐿	-14762
钇	-14763
閬	-14764
闥	-14765
駟	-14766
髭	-14767
鲎	-14768
齶	-14769
요	-14770
의	-14771
ɣ	-14772
ʨ	-14773
ן	-14774
↑	-14775
〝	-14776
俥	-14777
値	-14778
刽	-14779
卟	-14780
吖	-14781
咋	-14782
哒	-14783
哷	-14784
喳	-14785
帙	-14786
広	-14787
弇	-14788
忐	-14789
忑	-14790
拧	-14791
栲	-14792
樛	-14793
欉	-14794
気	-14795
灤	-14796
燹	-14797
牝	-14798
稲	-14799
窕	-14800
纔	-14801
纛	-14802
罨	-14803
羕	-14804
胂	-14805
芨	-14806
茆	-14807
藦	-14808
褸	-14809
鈁	-14810
镗	-14811
镫	-14812
闩	-14813
髙	-14814
鮒	-14815
경	-14816
문	-14817
미	-14818
스	-14819
ј	-14820
ב	-14821
ض	-14822
ี	-14823
ი	-14824
♪	-14825
♯	-14826
ㄆ	-14827
䱛	-14828
丼	-14829
僰	-14830
叨	-14831
哙	-14832
圯	-14833
垟	-14834
壙	-14835
娓	-14836
屜	-14837
幷	-14838
廻	-14839
徼	-14840
怆	-14841
曽	-14842
柰	-14843
桕	-14844
淯	-14845
炤	-14846
瘙	-14847
禔	-14848
籓	-14849
絵	-14850
绂	-14851
罽	-14852
萦	-14853
蔹	-14854
誊	-14855
迸	-14856
逯	-14857
鍚	-14858
鑠	-14859
飒	-14860
駡	-14861
髀	-14862
鲲	-14863
鷯	-14864
로	-14865
장	-14866
ő	-14867
े	-14868
া	-14869
ả	-14870
∀	-14871
△	-14872
ㄠ	-14873
䲁	-14874
垵	-14875
姵	-14876
崞	-14877
巿	-14878
悴	-14879
憙	-14880
揍	-14881
斓	-14882
汧	-14883
洎	-14884
浞	-14885
淙	-14886
牀	-14887
甙	-14888
畦	-14889
畷	-14890
砮	-14891
磘	-14892
禑	-14893
笕	-14894
紱	-14895
蕰	-14896
虯	-14897
蚬	-14898
遨	-14899
銠	-14900
錞	-14901
鏊	-14902
锉	-14903
鞦	-14904
韆	-14905
骜	-14906
魣	-14907
鼷	-14908
국	-14909
보	-14910
선	-14911
ʂ	-14912
ְ	-14913
ּ	-14914
ु	-14915
ễ	-14916
仵	-14917
仼	-14918
咔	-14919
囗	-14920
坩	-14921
埝	-14922
崤	-14923
嶸	-14924
彘	-14925
怦	-14926
挈	-14927
捱	-14928
掄	-14929
晳	-14930
暾	-14931
曩	-14932
杳	-14933
枏	-14934
楮	-14935
浠	-14936
淸	-14937
渑	-14938
燐	-14939
玎	-14940
琤	-14941
琹	-14942
瑢	-14943
璆	-14944
璦	-14945
癆	-14946
瞋	-14947
箦	-14948
紉	-14949
翬	-14950
葷	-14951
蒟	-14952
薫	-14953
蘧	-14954
袓	-14955
詝	-14956
迳	-14957
鈰	-14958
鍘	-14959
鎓	-14960
钪	-14961
钬	-14962
闘	-14963
騄	-14964
鲧	-14965
鲵	-14966
鳊	-14967
鹨	-14968
자	-14969
ә	-14970
ぜ	-14971
ㄉ	-14972
ㄓ	-14973
ㄜ	-14974
ㄟ	-14975
傥	-14976
児	-14977
勦	-14978
唉	-14979
夤	-14980
寀	-14981
懌	-14982
戇	-14983
捌	-14984
旒	-14985
梉	-14986
