<pad>	0
<unk>	0
[CLS]	0
[SEP]	0
[MASK]	0
(	0
)	0
”	0
-	0
.	0
–	0
£	0
€	0
▁,	-0
▁的	-1
▁。	-2
▁年	-3
▁1	-4
▁、	-5
▁一	-6
▁在	-7
▁是	-8
▁中	-9
▁人	-10
▁2	-11
▁有	-12
▁大	-13
▁和	-14
▁為	-15
▁以	-16
▁月	-17
▁日	-18
▁了	-19
▁国	-20
▁20	-21
▁为	-22
▁19	-23
▁地	-24
▁成	-25
▁國	-26
▁不	-27
▁於	-28
▁上	-29
▁公	-30
▁行	-31
▁出	-32
▁他	-33
▁之	-34
▁部	-35
▁斯	-36
▁其	-37
▁名	-38
▁主	-39
▁生	-40
▁分	-41
▁作	-42
▁下	-43
▁:	-44
▁于	-45
▁用	-46
▁方	-47
▁到	-48
▁而	-49
▁及	-50
▁第	-51
▁西	-52
▁》	-53
▁《	-54
▁家	-55
▁時	-56
▁後	-57
▁法	-58
▁由	-59
▁位	-60
▁被	-61
▁市	-62
▁民	-63
▁本	-64
▁学	-65
▁个	-66
▁同	-67
▁會	-68
▁多	-69
▁可	-70
▁南	-71
▁政	-72
▁子	-73
▁3	-74
▁·	-75
▁自	-76
▁里	-77
▁」	-78
▁「	-79
▁文	-80
▁任	-81
▁特	-82
▁最	-83
▁等	-84
▁與	-85
▁新	-86
▁德	-87
▁北	-88
▁代	-89
▁也	-90
▁加	-91
▁高	-92
▁200	-93
▁所	-94
▁前	-95
▁海	-96
▁學	-97
▁后	-98
▁因	-99
▁利	-100
▁個	-101
▁此	-102
▁三	-103
▁“	-104
▁要	-105
▁物	-106
▁得	-107
▁平	-108
▁道	-109
▁克	-110
▁201	-111
▁建	-112
▁面	-113
▁美	-114
▁教	-115
▁小	-116
▁度	-117
▁山	-118
▁时	-119
▁立	-120
▁至	-121
▁能	-122
▁事	-123
▁入	-124
▁尔	-125
▁路	-126
▁理	-127
▁世	-128
▁發	-129
▁区	-130
▁拉	-131
▁会	-132
▁二	-133
▁外	-134
▁天	-135
▁但	-136
▁合	-137
▁定	-138
▁4	-139
▁化	-140
▁工	-141
▁口	-142
▁表	-143
▁期	-144
▁使	-145
▁球	-146
▁全	-147
▁台	-148
▁性	-149
▁次	-150
▁十	-151
▁5	-152
▁科	-153
▁;	-154
▁通	-155
▁州	-156
▁者	-157
▁式	-158
▁都	-159
▁重	-160
▁共	-161
▁力	-162
▁"	-163
▁來	-164
▁軍	-165
▁區	-166
▁並	-167
▁发	-168
▁安	-169
▁士	-170
▁原	-171
▁6	-172
▁布	-173
▁相	-174
▁王	-175
▁比	-176
▁城	-177
▁院	-178
▁省	-179
▁長	-180
▁军	-181
▁站	-182
▁對	-183
▁这	-184
▁s	-185
▁明	-186
▁動	-187
▁目	-188
▁水	-189
▁基	-190
▁這	-191
▁系	-192
▁金	-193
▁司	-194
▁正	-195
▁英	-196
▁星	-197
▁開	-198
▁如	-199
▁长	-200
▁府	-201
▁c	-202
▁或	-203
▁7	-204
▁与	-205
▁治	-206
▁制	-207
▁格	-208
▁元	-209
▁港	-210
00	-211
▁a	-212
▁現	-213
▁四	-214
▁起	-215
▁爾	-216
▁電	-217
▁常	-218
▁8	-219
▁巴	-220
▁对	-221
▁經	-222
▁尼	-223
▁米	-224
▁量	-225
▁列	-226
▁提	-227
▁員	-228
▁影	-229
▁當	-230
▁首	-231
▁改	-232
▁女	-233
▁来	-234
▁阿	-235
▁然	-236
▁間	-237
▁镇	-238
▁就	-239
▁戰	-240
▁過	-241
▁9	-242
▁進	-243
▁并	-244
▁亞	-245
▁心	-246
▁接	-247
▁東	-248
▁林	-249
▁體	-250
▁东	-251
er	-252
▁向	-253
▁演	-254
▁开	-255
▁意	-256
▁界	-257
▁機	-258
▁m	-259
▁t	-260
▁將	-261
▁始	-262
▁賽	-263
▁10	-264
▁內	-265
▁車	-266
▁河	-267
▁动	-268
▁程	-269
▁受	-270
▁色	-271
▁場	-272
▁型	-273
▁包	-274
▁总	-275
▁指	-276
▁曾	-277
▁形	-278
▁交	-279
▁保	-280
▁手	-281
▁香	-282
▁已	-283
▁些	-284
▁委	-285
▁机	-286
▁流	-287
▁亚	-288
▁18	-289
▁b	-290
in	-291
▁12	-292
▁内	-293
▁直	-294
▁音	-295
▁员	-296
or	-297
▁稱	-298
▁管	-299
▁太	-300
▁经	-301
an	-302
▁隊	-303
▁种	-304
▁集	-305
▁史	-306
▁f	-307
▁过	-308
▁199	-309
▁馬	-310
▁空	-311
▁卡	-312
▁業	-313
▁身	-314
▁校	-315
▁进	-316
▁種	-317
▁现	-318
▁更	-319
▁县	-320
▁五	-321
▁字	-322
▁品	-323
▁線	-324
▁江	-325
▁车	-326
on	-327
▁兩	-328
▁古	-329
▁朝	-330
▁电	-331
▁展	-332
▁示	-333
▁設	-334
▁灣	-335
▁社	-336
▁各	-337
▁洲	-338
▁间	-339
▁數	-340
▁著	-341
▁反	-342
▁持	-343
▁马	-344
▁业	-345
▁该	-346
▁11	-347
▁命	-348
▁体	-349
▁p	-350
▁回	-351
▁h	-352
▁官	-353
▁京	-354
▁光	-355
▁属	-356
▁将	-357
▁活	-358
▁取	-359
▁造	-360
▁战	-361
▁達	-362
▁少	-363
▁d	-364
▁只	-365
▁族	-366
▁清	-367
▁又	-368
▁信	-369
▁約	-370
▁神	-371
▁選	-372
▁石	-373
▁数	-374
▁夫	-375
▁支	-376
▁当	-377
▁称	-378
▁解	-379
▁非	-380
▁近	-381
▁聯	-382
▁情	-383
▁它	-384
▁设	-385
▁局	-386
▁普	-387
la	-388
▁號	-389
▁罗	-390
▁則	-391
▁總	-392
▁件	-393
▁運	-394
▁曲	-395
▁/	-396
▁放	-397
▁統	-398
▁研	-399
▁即	-400
▁關	-401
▁角	-402
▁該	-403
▁羅	-404
▁華	-405
▁商	-406
▁波	-407
▁武	-408
▁無	-409
▁版	-410
▁們	-411
▁队	-412
▁先	-413
en	-414
▁片	-415
▁計	-416
▁联	-417
▁括	-418
▁收	-419
▁村	-420
▁两	-421
▁器	-422
▁白	-423
▁去	-424
▁樂	-425
▁李	-426
▁果	-427
▁未	-428
▁她	-429
▁语	-430
▁伊	-431
▁組	-432
▁198	-433
▁产	-434
▁再	-435
▁根	-436
▁每	-437
▁屬	-438
▁场	-439
▁知	-440
▁运	-441
▁往	-442
▁初	-443
▁蘭	-444
▁亦	-445
▁密	-446
▁线	-447
▁座	-448
▁視	-449
▁引	-450
▁且	-451
▁語	-452
▁达	-453
▁华	-454
▁今	-455
ar	-456
▁派	-457
▁兵	-458
▁足	-459
▁统	-460
▁福	-461
▁從	-462
▁级	-463
▁議	-464
▁完	-465
▁縣	-466
▁究	-467
▁n	-468
▁从	-469
▁r	-470
▁g	-471
▁帝	-472
▁六	-473
▁歌	-474
▁域	-475
▁花	-476
▁组	-477
▁们	-478
▁除	-479
▁務	-480
▁打	-481
▁很	-482
▁宗	-483
▁赛	-484
▁15	-485
▁實	-486
▁島	-487
▁居	-488
▁关	-489
▁產	-490
▁言	-491
▁說	-492
▁令	-493
▁義	-494
▁广	-495
▁服	-496
▁門	-497
▁團	-498
▁結	-499
▁段	-500
▁号	-501
▁威	-502
▁兰	-503
▁類	-504
▁育	-505
▁季	-506
▁功	-507
▁塔	-508
▁另	-509
▁播	-510
▁八	-511
▁客	-512
▁书	-513
▁土	-514
▁存	-515
▁速	-516
▁參	-517
▁死	-518
▁傳	-519
▁置	-520
▁修	-521
▁计	-522
▁率	-523
▁l	-524
▁推	-525
▁好	-526
▁超	-527
▁约	-528
▁16	-529
▁認	-530
▁周	-531
▁单	-532
▁希	-533
▁宣	-534
▁实	-535
▁處	-536
▁源	-537
▁具	-538
▁我	-539
▁17	-540
▁九	-541
▁投	-542
▁供	-543
▁書	-544
▁班	-545
▁i	-546
▁雷	-547
▁例	-548
▁街	-549
▁求	-550
▁变	-551
▁攻	-552
▁皇	-553
▁龍	-554
▁湖	-555
▁维	-556
▁獲	-557
▁單	-558
▁吉	-559
▁查	-560
▁航	-561
▁印	-562
▁积	-563
▁火	-564
▁故	-565
▁乡	-566
▁田	-567
▁己	-568
▁案	-569
▁沙	-570
▁青	-571
▁廣	-572
▁哈	-573
▁那	-574
▁务	-575
▁勒	-576
▁图	-577
▁伯	-578
es	-579
▁應	-580
▁助	-581
▁男	-582
▁早	-583
▁增	-584
▁博	-585
▁还	-586
▁張	-587
▁洛	-588
▁別	-589
▁資	-590
▁份	-591
▁舉	-592
▁整	-593
▁母	-594
▁194	-595
▁辖	-596
▁瓦	-597
▁义	-598
▁半	-599
▁擊	-600
▁百	-601
at	-602
▁0	-603
▁模	-604
▁容	-605
▁党	-606
▁群	-607
▁臺	-608
▁技	-609
▁铁	-610
▁说	-611
▁維	-612
▁197	-613
▁帶	-614
▁万	-615
▁越	-616
▁w	-617
▁變	-618
▁父	-619
▁致	-620
▁议	-621
▁均	-622
▁失	-623
▁萬	-624
▁點	-625
▁導	-626
▁師	-627
▁易	-628
▁参	-629
al	-630
▁專	-631
▁黨	-632
▁副	-633
▁川	-634
▁食	-635
▁領	-636
▁七	-637
▁境	-638
▁黑	-639
▁门	-640
▁堂	-641
▁紀	-642
▁需	-643
ic	-644
▁处	-645
▁传	-646
▁结	-647
▁級	-648
▁射	-649
▁选	-650
▁195	-651
▁告	-652
▁登	-653
▁14	-654
▁連	-655
▁深	-656
▁沒	-657
▁类	-658
▁劇	-659
▁塞	-660
▁应	-661
▁限	-662
▁才	-663
▁领	-664
▁頭	-665
▁權	-666
▁仍	-667
▁木	-668
▁游	-669
▁升	-670
▁13	-671
▁e	-672
▁條	-673
▁无	-674
▁苏	-675
▁室	-676
▁何	-677
▁便	-678
▁節	-679
▁排	-680
▁步	-681
▁老	-682
▁牙	-683
▁导	-684
▁風	-685
▁奥	-686
▁象	-687
▁团	-688
▁魚	-689
▁央	-690
▁点	-691
▁真	-692
▁落	-693
▁製	-694
▁氏	-695
▁196	-696
▁施	-697
▁盟	-698
▁像	-699
▁考	-700
▁際	-701
▁乐	-702
▁想	-703
▁論	-704
▁報	-705
▁鐵	-706
▁甲	-707
▁決	-708
▁轉	-709
▁畫	-710
▁氣	-711
▁o	-712
▁席	-713
▁for	-714
▁感	-715
▁配	-716
▁把	-717
▁据	-718
▁防	-719
▁標	-720
▁k	-721
▁低	-722
▁病	-723
▁纳	-724
▁哥	-725
▁洋	-726
▁還	-727
▁—	-728
▁托	-729
▁底	-730
▁阳	-731
▁律	-732
▁留	-733
▁森	-734
▁效	-735
▁住	-736
▁认	-737
▁離	-738
▁蒙	-739
▁素	-740
▁历	-741
▁料	-742
▁佛	-743
▁师	-744
▁获	-745
▁術	-746
▁埃	-747
▁止	-748
mu	-749
▁_	-750
▁冠	-751
▁千	-752
▁泰	-753
▁志	-754
▁视	-755
is	-756
▁记	-757
▁奇	-758
▁息	-759
▁據	-760
▁奧	-761
▁术	-762
▁較	-763
▁強	-764
▁z	-765
▁景	-766
▁康	-767
▁纪	-768
▁看	-769
▁降	-770
▁姆	-771
▁曼	-772
▁革	-773
▁193	-774
▁j	-775
▁恩	-776
▁算	-777
▁圖	-778
▁典	-779
▁迪	-780
▁觀	-781
▁报	-782
▁承	-783
▁移	-784
▁藏	-785
▁職	-786
▁愛	-787
▁創	-788
▁消	-789
▁批	-790
▁警	-791
▁唱	-792
▁續	-793
▁思	-794
▁控	-795
▁张	-796
▁着	-797
▁念	-798
▁察	-799
▁見	-800
▁则	-801
le	-802
▁親	-803
▁許	-804
▁汉	-805
▁做	-806
▁30	-807
▁带	-808
▁遊	-809
▁記	-810
▁精	-811
▁質	-812
▁2009	-813
▁授	-814
▁草	-815
mula	-816
▁索	-817
▁守	-818
▁友	-819
▁21	-820
▁专	-821
▁納	-822
▁陸	-823
▁formula	-824
▁獎	-825
▁论	-826
▁票	-827
▁俄	-828
it	-829
▁裝	-830
▁标	-831
000	-832
▁岛	-833
▁極	-834
▁題	-835
▁瑞	-836
▁风	-837
▁督	-838
▁般	-839
▁依	-840
▁别	-841
▁述	-842
▁没	-843
▁望	-844
▁照	-845
▁转	-846
▁附	-847
▁际	-848
▁圣	-849
▁权	-850
▁祖	-851
▁歷	-852
▁毛	-853
▁調	-854
▁抗	-855
▁植	-856
▁退	-857
▁v	-858
he	-859
▁值	-860
▁爭	-861
▁澳	-862
▁章	-863
▁陆	-864
▁条	-865
▁夏	-866
▁錄	-867
▁富	-868
▁封	-869
▁候	-870
▁2011	-871
▁歐	-872
▁职	-873
▁園	-874
▁唐	-875
▁房	-876
▁辦	-877
▁編	-878
▁永	-879
▁終	-880
▁办	-881
▁复	-882
▁網	-883
▁停	-884
▁25	-885
▁丹	-886
▁决	-887
▁资	-888
▁牌	-889
▁營	-890
▁丁	-891
▁构	-892
▁隨	-893
▁給	-894
▁左	-895
▁蘇	-896
▁破	-897
▁节	-898
▁含	-899
▁積	-900
▁2010	-901
▁快	-902
▁拿	-903
▁戲	-904
▁陳	-905
▁莱	-906
▁气	-907
el	-908
▁聖	-909
▁問	-910
un	-911
▁寺	-912
▁似	-913
▁必	-914
▁萨	-915
▁黃	-916
▁突	-917
▁隆	-918
▁邦	-919
▁坦	-920
▁堡	-921
▁協	-922
▁飛	-923
ro	-924
▁旅	-925
▁192	-926
▁船	-927
▁击	-928
am	-929
▁樣	-930
▁尚	-931
▁头	-932
▁核	-933
▁岸	-934
▁离	-935
▁龙	-936
▁调	-937
▁興	-938
▁争	-939
▁眾	-940
▁皮	-941
▁擔	-942
▁項	-943
▁梅	-944
▁漢	-945
▁济	-946
▁久	-947
▁架	-948
▁店	-949
▁划	-950
▁注	-951
▁准	-952
st	-953
▁蒂	-954
▁co	-955
▁2012	-956
▁朗	-957
▁莫	-958
▁强	-959
▁2008	-960
▁延	-961
▁zh	-962
▁举	-963
▁油	-964
▁兒	-965
▁備	-966
▁创	-967
▁占	-968
▁右	-969
▁規	-970
▁野	-971
▁质	-972
▁郡	-973
▁藝	-974
▁剧	-975
▁環	-976
▁層	-977
▁连	-978
▁走	-979
▁黄	-980
il	-981
▁规	-982
▁亡	-983
▁衛	-984
▁弟	-985
▁構	-986
▁给	-987
▁春	-988
▁售	-989
▁编	-990
▁股	-991
▁随	-992
▁护	-993
▁网	-994
▁短	-995
▁繼	-996
▁負	-997
▁}	-998
▁熱	-999
▁{	-1000
▁雄	-1001
▁鲁	-1002
▁讓	-1003
▁嘉	-1004
▁切	-1005
▁判	-1006
▁館	-1007
▁佳	-1008
▁2013	-1009
▁倫	-1010
▁試	-1011
▁装	-1012
▁22	-1013
▁策	-1014
▁协	-1015
▁筑	-1016
et	-1017
▁役	-1018
▁遭	-1019
ion	-1020
ac	-1021
▁许	-1022
▁艾	-1023
▁邊	-1024
▁圍	-1025
▁问	-1026
▁逐	-1027
▁样	-1028
▁乘	-1029
▁题	-1030
ur	-1031
▁端	-1032
▁宁	-1033
▁劃	-1034
▁旗	-1035
▁序	-1036
▁松	-1037
▁費	-1038
▁獨	-1039
▁寫	-1040
▁距	-1041
▁弗	-1042
▁護	-1043
▁聲	-1044
▁24	-1045
▁責	-1046
▁拔	-1047
▁雙	-1048
▁陽	-1049
▁鎮	-1050
▁摩	-1051
▁欧	-1052
▁紅	-1053
▁宋	-1054
▁若	-1055
▁酒	-1056
▁23	-1057
▁191	-1058
▁敗	-1059
▁亲	-1060
▁殺	-1061
▁響	-1062
▁送	-1063
▁园	-1064
▁伦	-1065
▁菲	-1066
▁2007	-1067
▁輯	-1068
▁观	-1069
us	-1070
▁束	-1071
▁诺	-1072
▁担	-1073
▁銀	-1074
▁末	-1075
▁卫	-1076
▁證	-1077
▁2006	-1078
▁甚	-1079
▁評	-1080
▁雅	-1081
▁干	-1082
▁赫	-1083
▁红	-1084
▁营	-1085
▁尾	-1086
▁微	-1087
▁2014	-1088
▁晚	-1089
▁署	-1090
▁终	-1091
▁耶	-1092
▁勝	-1093
▁良	-1094
▁馆	-1095
▁!	-1096
▁略	-1097
▁準	-1098
▁兴	-1099
▁樓	-1100
▁胡	-1101
▁秀	-1102
▁项	-1103
▁津	-1104
▁醫	-1105
▁差	-1106
▁彈	-1107
▁戏	-1108
▁范	-1109
▁边	-1110
▁裡	-1111
▁頓	-1112
▁薩	-1113
▁兼	-1114
▁狀	-1115
▁免	-1116
▁见	-1117
▁婚	-1118
▁帕	-1119
▁血	-1120
▁庭	-1121
▁善	-1122
▁濟	-1123
▁籍	-1124
▁较	-1125
▁雖	-1126
▁假	-1127
▁卻	-1128
▁臣	-1129
as	-1130
▁散	-1131
▁款	-1132
▁采	-1133
▁桥	-1134
▁the	-1135
▁復	-1136
▁峰	-1137
▁备	-1138
▁续	-1139
▁库	-1140
▁話	-1141
▁顯	-1142
▁暴	-1143
▁歲	-1144
▁28	-1145
▁什	-1146
▁予	-1147
▁諾	-1148
▁測	-1149
▁贝	-1150
▁艦	-1151
▁织	-1152
▁奖	-1153
▁詞	-1154
▁拍	-1155
▁写	-1156
▁围	-1157
▁2005	-1158
▁喜	-1159
▁征	-1160
▁儿	-1161
▁26	-1162
▁杜	-1163
▁农	-1164
▁朱	-1165
▁环	-1166
re	-1167
▁背	-1168
▁仁	-1169
▁31	-1170
▁盛	-1171
▁追	-1172
▁热	-1173
▁酸	-1174
▁云	-1175
▁載	-1176
ing	-1177
▁採	-1178
▁证	-1179
▁st	-1180
▁害	-1181
▁双	-1182
▁廷	-1183
▁烈	-1184
▁企	-1185
▁爆	-1186
▁玉	-1187
▁互	-1188
▁織	-1189
▁沿	-1190
▁板	-1191
▁劉	-1192
▁2001	-1193
▁習	-1194
▁魯	-1195
▁幾	-1196
▁牛	-1197
▁27	-1198
▁几	-1199
▁独	-1200
▁谷	-1201
▁援	-1202
▁继	-1203
▁层	-1204
▁鄉	-1205
▁屆	-1206
▁態	-1207
▁遠	-1208
▁介	-1209
ol	-1210
▁爱	-1211
▁医	-1212
▁罪	-1213
▁黎	-1214
▁君	-1215
▁僅	-1216
▁媒	-1217
▁昌	-1218
▁救	-1219
▁舞	-1220
▁众	-1221
▁屋	-1222
▁勢	-1223
▁請	-1224
▁余	-1225
ch	-1226
▁试	-1227
▁價	-1228
▁預	-1229
▁2000	-1230
▁滿	-1231
▁x	-1232
▁執	-1233
▁陈	-1234
▁荷	-1235
▁画	-1236
▁溫	-1237
▁韓	-1238
▁评	-1239
▁透	-1240
▁材	-1241
▁沃	-1242
▁艺	-1243
▁槍	-1244
▁录	-1245
▁宮	-1246
▁响	-1247
▁確	-1248
ed	-1249
▁刘	-1250
▁係	-1251
▁坡	-1252
▁巨	-1253
▁秘	-1254
▁智	-1255
▁楼	-1256
▁簡	-1257
▁飞	-1258
▁>	-1259
▁届	-1260
▁叶	-1261
ent	-1262
▁2015	-1263
▁按	-1264
▁溪	-1265
▁址	-1266
▁益	-1267
▁徒	-1268
▁仅	-1269
▁声	-1270
▁某	-1271
▁途	-1272
▁冰	-1273
▁佈	-1274
▁敦	-1275
▁29	-1276
▁费	-1277
▁培	-1278
▁戶	-1279
▁梁	-1280
▁映	-1281
▁极	-1282
▁撤	-1283
▁in	-1284
▁禁	-1285
▁<	-1286
▁拜	-1287
▁替	-1288
▁貝	-1289
ow	-1290
▁禮	-1291
▁轄	-1292
▁童	-1293
▁殿	-1294
▁混	-1295
▁尺	-1296
▁探	-1297
▁2004	-1298
▁翰	-1299
▁温	-1300
▁萊	-1301
▁夜	-1302
▁聞	-1303
▁郎	-1304
▁50	-1305
▁描	-1306
▁難	-1307
▁讀	-1308
▁築	-1309
▁壓	-1310
ig	-1311
▁骨	-1312
id	-1313
▁an	-1314
▁吸	-1315
▁刻	-1316
▁跟	-1317
▁岁	-1318
▁眼	-1319
▁符	-1320
▁赤	-1321
▁话	-1322
▁杀	-1323
▁u	-1324
▁刺	-1325
▁刊	-1326
▁顿	-1327
▁擁	-1328
▁寶	-1329
▁玩	-1330
▁固	-1331
▁毒	-1332
▁爵	-1333
▁皆	-1334
▁乌	-1335
▁私	-1336
▁000	-1337
ad	-1338
▁耳	-1339
▁斷	-1340
▁遇	-1341
▁橋	-1342
▁否	-1343
▁唯	-1344
▁确	-1345
▁葉	-1346
▁岩	-1347
▁雲	-1348
▁逃	-1349
▁ch	-1350
▁訊	-1351
▁農	-1352
▁找	-1353
▁麗	-1354
▁充	-1355
▁休	-1356
▁穆	-1357
▁奉	-1358
▁返	-1359
▁宇	-1360
▁傷	-1361
▁100	-1362
▁幕	-1363
▁細	-1364
▁洪	-1365
▁雪	-1366
▁'	-1367
▁激	-1368
▁佔	-1369
▁異	-1370
▁状	-1371
▁缺	-1372
▁你	-1373
▁監	-1374
▁霍	-1375
▁乎	-1376
▁巡	-1377
▁操	-1378
▁況	-1379
▁旋	-1380
▁190	-1381
os	-1382
▁40	-1383
▁犯	-1384
▁庆	-1385
▁词	-1386
▁庄	-1387
▁远	-1388
▁br	-1389
▁召	-1390
▁验	-1391
▁範	-1392
▁聚	-1393
▁of	-1394
▁刑	-1395
▁練	-1396
▁優	-1397
▁户	-1398
▁满	-1399
▁午	-1400
▁識	-1401
▁須	-1402
▁穿	-1403
▁魔	-1404
▁迫	-1405
▁漫	-1406
▁鰭	-1407
▁廠	-1408
▁輕	-1409
▁雨	-1410
▁斗	-1411
▁姓	-1412
▁露	-1413
▁坐	-1414
▁靈	-1415
▁絕	-1416
▁陵	-1417
▁翻	-1418
▁輪	-1419
▁佩	-1420
▁餘	-1421
▁麥	-1422
▁捕	-1423
▁2016	-1424
▁测	-1425
▁尤	-1426
▁显	-1427
▁羽	-1428
▁让	-1429
▁舊	-1430
▁忠	-1431
▁換	-1432
▁驗	-1433
▁兄	-1434
▁2003	-1435
▁=	-1436
▁y	-1437
▁嚴	-1438
▁责	-1439
▁鬥	-1440
▁待	-1441
▁陣	-1442
▁态	-1443
▁载	-1444
▁潮	-1445
▁抵	-1446
▁妻	-1447
▁侵	-1448
▁申	-1449
▁呼	-1450
▁靠	-1451
▁柏	-1452
▁秋	-1453
▁胞	-1454
▁湾	-1455
▁银	-1456
▁徐	-1457
▁庫	-1458
▁竹	-1459
▁价	-1460
▁遗	-1461
▁炸	-1462
▁攝	-1463
▁肯	-1464
▁汽	-1465
▁压	-1466
▁宫	-1467
▁负	-1468
▁篇	-1469
▁惠	-1470
ir	-1471
▁卷	-1472
iv	-1473
ut	-1474
▁側	-1475
▁茨	-1476
▁码	-1477
om	-1478
▁泉	-1479
▁娜	-1480
▁泛	-1481
▁临	-1482
▁甘	-1483
▁颗	-1484
▁绝	-1485
▁飾	-1486
50	-1487
▁浙	-1488
▁|	-1489
▁孔	-1490
▁翼	-1491
▁避	-1492
ot	-1493
▁细	-1494
▁戈	-1495
▁2002	-1496
▁炮	-1497
▁识	-1498
▁融	-1499
▁简	-1500
▁泽	-1501
▁习	-1502
▁董	-1503
▁歸	-1504
ia	-1505
▁韩	-1506
▁危	-1507
▁肉	-1508
▁桑	-1509
▁烏	-1510
▁吳	-1511
▁宝	-1512
▁胜	-1513
▁購	-1514
▁殖	-1515
▁败	-1516
▁芬	-1517
▁戴	-1518
▁急	-1519
▁辛	-1520
▁億	-1521
▁概	-1522
▁呈	-1523
▁疑	-1524
▁厂	-1525
▁默	-1526
▁畢	-1527
▁順	-1528
▁健	-1529
▁努	-1530
▁况	-1531
▁孫	-1532
im	-1533
▁丽	-1534
▁奪	-1535
▁套	-1536
▁孩	-1537
▁榮	-1538
▁慶	-1539
▁奏	-1540
▁秦	-1541
▁断	-1542
▁譯	-1543
▁叫	-1544
▁氧	-1545
▁啟	-1546
▁碼	-1547
▁階	-1548
▁週	-1549
▁乾	-1550
▁杨	-1551
▁卢	-1552
▁減	-1553
▁染	-1554
▁臨	-1555
▁雜	-1556
▁阻	-1557
▁虎	-1558
▁渡	-1559
▁佐	-1560
▁毕	-1561
▁漸	-1562
▁魏	-1563
▁2017	-1564
▁墨	-1565
▁归	-1566
▁珠	-1567
▁隔	-1568
▁衣	-1569
▁銷	-1570
▁井	-1571
▁难	-1572
▁葡	-1573
▁裁	-1574
▁樹	-1575
▁函	-1576
▁贵	-1577
▁宜	-1578
▁孙	-1579
▁輸	-1580
▁驻	-1581
▁杰	-1582
▁请	-1583
▁迎	-1584
▁冷	-1585
▁仙	-1586
▁析	-1587
▁震	-1588
▁味	-1589
▁换	-1590
▁棲	-1591
▁迷	-1592
▁圈	-1593
▁付	-1594
▁al	-1595
▁墓	-1596
▁弹	-1597
▁涉	-1598
▁御	-1599
▁]	-1600
▁亮	-1601
ag	-1602
▁哲	-1603
▁楊	-1604
▁严	-1605
▁傑	-1606
▁綱	-1607
▁舍	-1608
▁池	-1609
▁2018	-1610
▁廉	-1611
▁[	-1612
▁执	-1613
20	-1614
ec	-1615
▁詩	-1616
▁麻	-1617
▁俗	-1618
▁侧	-1619
▁han	-1620
▁險	-1621
▁徵	-1622
▁偏	-1623
▁暗	-1624
▁町	-1625
▁豐	-1626
▁洞	-1627
▁监	-1628
▁恐	-1629
▁招	-1630
▁訓	-1631
▁189	-1632
▁拥	-1633
▁势	-1634
▁榜	-1635
▁侯	-1636
▁厅	-1637
▁60	-1638
▁尊	-1639
▁瑪	-1640
um	-1641
▁硬	-1642
▁享	-1643
▁賓	-1644
▁闻	-1645
▁俱	-1646
ation	-1647
▁液	-1648
▁症	-1649
▁租	-1650
▁繁	-1651
▁辑	-1652
▁彩	-1653
▁毫	-1654
▁树	-1655
▁廳	-1656
▁圓	-1657
▁莉	-1658
▁轮	-1659
▁倒	-1660
em	-1661
▁豪	-1662
▁釋	-1663
▁楚	-1664
▁寧	-1665
▁藍	-1666
▁琴	-1667
▁藥	-1668
▁预	-1669
▁妹	-1670
▁掌	-1671
▁盃	-1672
▁麦	-1673
▁昂	-1674
▁鐘	-1675
▁財	-1676
▁夠	-1677
▁逝	-1678
▁扎	-1679
od	-1680
▁借	-1681
▁礼	-1682
▁齐	-1683
▁崇	-1684
▁销	-1685
▁鲜	-1686
▁紐	-1687
▁曹	-1688
▁捷	-1689
▁吴	-1690
▁舰	-1691
▁補	-1692
▁徽	-1693
▁遷	-1694
▁冬	-1695
▁浦	-1696
▁诗	-1697
▁药	-1698
▁1999	-1699
▁昭	-1700
▁養	-1701
▁腦	-1702
▁淡	-1703
▁截	-1704
▁柱	-1705
▁瑟	-1706
▁萄	-1707
▁旧	-1708
▁伍	-1709
▁匹	-1710
▁裂	-1711
▁適	-1712
▁1990	-1713
▁軟	-1714
▁鱼	-1715
▁幼	-1716
▁頂	-1717
▁输	-1718
▁读	-1719
▁奈	-1720
▁儀	-1721
▁乃	-1722
▁盖	-1723
▁伐	-1724
▁乙	-1725
▁蓋	-1726
▁勞	-1727
▁迁	-1728
▁鼓	-1729
▁蛋	-1730
▁杂	-1731
▁频	-1732
▁估	-1733
▁零	-1734
▁簽	-1735
▁玛	-1736
▁1998	-1737
▁遺	-1738
▁优	-1739
▁振	-1740
▁顺	-1741
▁討	-1742
▁拒	-1743
▁輛	-1744
and	-1745
▁劳	-1746
▁患	-1747
▁晋	-1748
▁頻	-1749
▁併	-1750
▁鮮	-1751
▁弱	-1752
▁35	-1753
▁顶	-1754
▁菜	-1755
▁恢	-1756
▁邀	-1757
▁陶	-1758
▁藤	-1759
▁陷	-1760
▁晉	-1761
▁敵	-1762
▁郭	-1763
▁韦	-1764
ra	-1765
▁鄭	-1766
▁?	-1767
▁虽	-1768
▁灵	-1769
▁异	-1770
▁粉	-1771
▁轨	-1772
▁兹	-1773
▁困	-1774
▁却	-1775
▁亿	-1776
▁译	-1777
60	-1778
▁凱	-1779
▁货	-1780
▁貨	-1781
▁句	-1782
▁菌	-1783
▁貴	-1784
▁跨	-1785
▁80	-1786
▁覺	-1787
▁1997	-1788
▁浪	-1789
▁丰	-1790
▁檢	-1791
▁尽	-1792
▁牧	-1793
ter	-1794
▁輻	-1795
▁歡	-1796
▁滑	-1797
▁審	-1798
▁la	-1799
▁莎	-1800
▁偶	-1801
▁宿	-1802
▁旁	-1803
▁32	-1804
▁誌	-1805
▁冲	-1806
▁de	-1807
▁熙	-1808
▁障	-1809
▁汗	-1810
▁駐	-1811
▁糖	-1812
▁訪	-1813
op	-1814
ay	-1815
oc	-1816
▁競	-1817
▁錦	-1818
▁徑	-1819
▁塘	-1820
▁殊	-1821
▁蔡	-1822
▁衡	-1823
10	-1824
19	-1825
▁遍	-1826
▁188	-1827
▁紫	-1828
▁擴	-1829
▁阶	-1830
▁茶	-1831
ul	-1832
▁柯	-1833
▁1980	-1834
▁伤	-1835
▁衝	-1836
▁勇	-1837
▁亨	-1838
og	-1839
▁軌	-1840
▁鳥	-1841
▁扩	-1842
▁燃	-1843
▁丘	-1844
▁宅	-1845
▁磁	-1846
▁幫	-1847
▁祭	-1848
▁财	-1849
▁答	-1850
▁签	-1851
▁纽	-1852
▁課	-1853
▁亂	-1854
▁澤	-1855
▁奴	-1856
▁昆	-1857
▁諸	-1858
▁挥	-1859
▁赵	-1860
▁疆	-1861
▁70	-1862
▁灰	-1863
▁币	-1864
▁庙	-1865
▁滅	-1866
▁沈	-1867
▁搭	-1868
▁脈	-1869
▁盤	-1870
▁彼	-1871
▁络	-1872
▁33	-1873
▁+	-1874
▁講	-1875
▁棒	-1876
ce	-1877
▁揮	-1878
▁敏	-1879
▁絲	-1880
▁促	-1881
▁养	-1882
▁幅	-1883
▁允	-1884
▁鏡	-1885
▁覆	-1886
▁杯	-1887
▁綠	-1888
▁鄰	-1889
▁額	-1890
▁珍	-1891
▁凯	-1892
▁幸	-1893
ap	-1894
▁伴	-1895
▁訴	-1896
▁and	-1897
▁2019	-1898
▁谢	-1899
▁赴	-1900
▁訂	-1901
▁械	-1902
▁綫	-1903
▁療	-1904
▁拆	-1905
▁荣	-1906
▁讲	-1907
▁恒	-1908
▁检	-1909
▁跑	-1910
▁审	-1911
▁仔	-1912
▁葬	-1913
▁茲	-1914
▁幻	-1915
▁績	-1916
▁90	-1917
▁晶	-1918
▁慈	-1919
▁祥	-1920
▁顧	-1921
ers	-1922
▁厚	-1923
▁练	-1924
▁1996	-1925
40	-1926
▁擇	-1927
▁诸	-1928
▁软	-1929
▁餐	-1930
▁500	-1931
▁re	-1932
▁45	-1933
▁獻	-1934
▁倍	-1935
▁sa	-1936
▁裔	-1937
▁葛	-1938
▁187	-1939
▁幣	-1940
▁堅	-1941
▁遂	-1942
▁敬	-1943
▁减	-1944
▁廟	-1945
▁齊	-1946
▁剛	-1947
▁聽	-1948
▁複	-1949
▁宽	-1950
▁孟	-1951
▁轻	-1952
▁匈	-1953
▁孝	-1954
▁折	-1955
▁箭	-1956
▁熟	-1957
▁碑	-1958
▁释	-1959
▁惡	-1960
▁寬	-1961
▁苦	-1962
▁『	-1963
▁賣	-1964
▁柴	-1965
▁遣	-1966
▁沉	-1967
▁钟	-1968
▁』	-1969
▁燕	-1970
48	-1971
▁謝	-1972
▁埔	-1973
▁襲	-1974
▁桃	-1975
▁叛	-1976
▁緯	-1977
▁姐	-1978
▁乔	-1979
ie	-1980
▁°	-1981
▁慢	-1982
▁尖	-1983
▁願	-1984
▁騎	-1985
▁齒	-1986
▁桂	-1987
30	-1988
▁绕	-1989
▁疾	-1990
▁阵	-1991
▁1995	-1992
▁憲	-1993
▁1994	-1994
▁粒	-1995
▁盧	-1996
▁脂	-1997
▁侍	-1998
▁橫	-1999
▁柳	-2000
▁牠	-2001
▁00	-2002
▁献	-2003
▁懷	-2004
▁ar	-2005
▁誤	-2006
▁启	-2007
▁廢	-2008
▁喬	-2009
▁辽	-2010
▁迅	-2011
▁够	-2012
▁螺	-2013
▁挑	-2014
▁么	-2015
▁渐	-2016
80	-2017
th	-2018
▁蛇	-2019
▁凡	-2020
ip	-2021
▁枚	-2022
▁棋	-2023
▁1993	-2024
▁伏	-2025
▁摄	-2026
▁仰	-2027
▁買	-2028
▁刀	-2029
▁36	-2030
▁须	-2031
▁恆	-2032
▁com	-2033
▁敌	-2034
▁談	-2035
▁访	-2036
▁伸	-2037
▁圆	-2038
▁朋	-2039
▁瓜	-2040
▁1992	-2041
▁吃	-2042
▁补	-2043
▁险	-2044
av	-2045
▁撒	-2046
▁额	-2047
ard	-2048
▁tw	-2049
▁尋	-2050
▁〉	-2051
▁〈	-2052
▁枪	-2053
▁彭	-2054
▁跳	-2055
▁慕	-2056
▁貢	-2057
▁腳	-2058
ind	-2059
▁雕	-2060
▁壁	-2061
▁艘	-2062
▁賞	-2063
▁1991	-2064
▁錢	-2065
▁損	-2066
▁妮	-2067
▁涅	-2068
▁hans	-2069
▁宪	-2070
▁37	-2071
▁适	-2072
▁擎	-2073
▁緣	-2074
▁汇	-2075
▁劍	-2076
▁q	-2077
▁186	-2078
▁仪	-2079
▁宾	-2080
▁緒	-2081
▁钱	-2082
▁训	-2083
▁臘	-2084
▁旺	-2085
▁縮	-2086
▁頒	-2087
▁础	-2088
ub	-2089
▁hk	-2090
▁掉	-2091
ov	-2092
12	-2093
▁鬼	-2094
▁潘	-2095
▁谋	-2096
▁th	-2097
▁棄	-2098
▁辆	-2099
▁贡	-2100
▁夺	-2101
▁购	-2102
▁帮	-2103
▁1949	-2104
▁乱	-2105
▁un	-2106
▁芳	-2107
▁韋	-2108
▁羊	-2109
▁艇	-2110
▁罕	-2111
▁郑	-2112
▁駛	-2113
▁番	-2114
▁38	-2115
▁撞	-2116
▁勤	-2117
▁1970	-2118
▁岡	-2119
▁趣	-2120
▁毀	-2121
▁芝	-2122
▁輔	-2123
▁鼠	-2124
▁1950	-2125
▁涯	-2126
▁藉	-2127
▁隶	-2128
▁脫	-2129
▁乳	-2130
▁梯	-2131
▁泊	-2132
▁34	-2133
▁累	-2134
▁拓	-2135
▁夢	-2136
▁繪	-2137
▁莊	-2138
▁幹	-2139
▁琳	-2140
▁赞	-2141
▁熊	-2142
▁col	-2143
▁趙	-2144
▁泥	-2145
est	-2146
▁藩	-2147
ab	-2148
ct	-2149
▁痛	-2150
11	-2151
▁毁	-2152
▁炎	-2153
▁腹	-2154
▁屯	-2155
▁浮	-2156
▁咸	-2157
▁锡	-2158
▁300	-2159
▁1989	-2160
▁針	-2161
▁鹿	-2162
▁废	-2163
▁豆	-2164
▁斑	-2165
▁隧	-2166
▁le	-2167
▁te	-2168
ak	-2169
▁玄	-2170
▁sh	-2171
▁绍	-2172
▁麼	-2173
▁杉	-2174
ine	-2175
▁陰	-2176
▁壞	-2177
▁賴	-2178
▁怀	-2179
▁詹	-2180
▁隸	-2181
▁怪	-2182
▁hd	-2183
▁緊	-2184
▁块	-2185
▁腊	-2186
ud	-2187
▁～	-2188
ill	-2189
▁1960	-2190
25	-2191
▁袁	-2192
▁喀	-2193
▁觉	-2194
▁爲	-2195
ist	-2196
▁1988	-2197
▁1945	-2198
▁仲	-2199
▁秒	-2200
▁灭	-2201
▁卓	-2202
▁陕	-2203
▁径	-2204
▁sp	-2205
▁隻	-2206
▁袭	-2207
▁屏	-2208
▁39	-2209
▁杭	-2210
▁to	-2211
ik	-2212
▁顆	-2213
▁坑	-2214
▁择	-2215
▁mar	-2216
▁慧	-2217
▁玻	-2218
▁謀	-2219
▁滨	-2220
ang	-2221
▁錯	-2222
▁乏	-2223
▁筆	-2224
▁贏	-2225
▁溶	-2226
▁蟲	-2227
▁厄	-2228
▁旦	-2229
▁插	-2230
▁晨	-2231
▁塑	-2232
▁畔	-2233
▁缩	-2234
▁盡	-2235
▁墙	-2236
▁矿	-2237
▁靖	-2238
▁宙	-2239
▁崎	-2240
▁暫	-2241
▁轴	-2242
▁绿	-2243
▁衰	-2244
70	-2245
▁寄	-2246
▁戒	-2247
▁蔣	-2248
▁损	-2249
▁妃	-2250
▁坚	-2251
ba	-2252
21	-2253
▁紹	-2254
▁剂	-2255
▁搜	-2256
▁洗	-2257
▁é	-2258
▁笑	-2259
▁坎	-2260
▁貿	-2261
if	-2262
▁饰	-2263
▁圳	-2264
ess	-2265
▁鳳	-2266
▁巧	-2267
▁戀	-2268
▁檔	-2269
▁讨	-2270
▁盘	-2271
▁55	-2272
▁ne	-2273
▁祝	-2274
▁穩	-2275
▁凌	-2276
▁壽	-2277
▁岳	-2278
▁on	-2279
▁俊	-2280
▁脱	-2281
▁碳	-2282
▁甸	-2283
15	-2284
▁is	-2285
▁亭	-2286
▁礎	-2287
▁箱	-2288
▁循	-2289
▁坊	-2290
▁揚	-2291
▁1986	-2292
▁1985	-2293
ob	-2294
▁宏	-2295
▁觸	-2296
▁骑	-2297
▁疏	-2298
▁1984	-2299
▁袖	-2300
▁鯉	-2301
▁盾	-2302
▁栽	-2303
▁辭	-2304
und	-2305
▁閣	-2306
▁塊	-2307
▁僧	-2308
▁顾	-2309
na	-2310
▁撰	-2311
▁pro	-2312
▁枝	-2313
▁185	-2314
▁郊	-2315
▁焦	-2316
▁1987	-2317
▁偉	-2318
▁既	-2319
▁扮	-2320
▁叔	-2321
▁刚	-2322
▁邨	-2323
ell	-2324
▁欢	-2325
▁tr	-2326
ph	-2327
▁愿	-2328
▁鋼	-2329
16	-2330
▁弘	-2331
▁仿	-2332
▁卿	-2333
▁灌	-2334
▁锦	-2335
▁紙	-2336
▁蓝	-2337
▁谈	-2338
▁扬	-2339
▁輝	-2340
▁邻	-2341
▁岭	-2342
▁竞	-2343
▁48	-2344
▁虫	-2345
▁脑	-2346
▁吕	-2347
▁听	-2348
▁买	-2349
▁茂	-2350
▁驅	-2351
▁譽	-2352
▁诉	-2353
▁契	-2354
▁曆	-2355
▁贸	-2356
▁针	-2357
▁絡	-2358
ows	-2359
▁凤	-2360
▁疗	-2361
▁am	-2362
18	-2363
▁42	-2364
▁舒	-2365
ice	-2366
▁盐	-2367
▁镜	-2368
▁廈	-2369
▁欲	-2370
▁匯	-2371
▁翁	-2372
▁拳	-2373
▁荒	-2374
▁1982	-2375
▁夷	-2376
▁砲	-2377
▁措	-2378
▁霸	-2379
▁純	-2380
▁娛	-2381
▁裕	-2382
▁靜	-2383
▁潛	-2384
▁勃	-2385
▁75	-2386
▁券	-2387
▁43	-2388
▁耀	-2389
ok	-2390
▁浩	-2391
13	-2392
▁遜	-2393
▁65	-2394
▁迴	-2395
▁床	-2396
▁尉	-2397
▁串	-2398
▁填	-2399
▁割	-2400
▁wind	-2401
▁閉	-2402
▁钢	-2403
▁横	-2404
▁1983	-2405
▁淮	-2406
▁赖	-2407
▁擬	-2408
▁剩	-2409
▁顏	-2410
▁46	-2411
up	-2412
▁紧	-2413
▁綜	-2414
90	-2415
▁订	-2416
▁捐	-2417
47	-2418
ack	-2419
▁婦	-2420
▁丝	-2421
▁沟	-2422
▁覽	-2423
▁嶼	-2424
ver	-2425
ian	-2426
▁at	-2427
▁嶺	-2428
▁阴	-2429
▁坏	-2430
▁燒	-2431
▁鸟	-2432
▁誉	-2433
▁苗	-2434
45	-2435
▁丈	-2436
▁崔	-2437
▁衍	-2438
bo	-2439
▁犹	-2440
▁隱	-2441
▁泳	-2442
▁獸	-2443
▁銅	-2444
▁怒	-2445
17	-2446
▁冊	-2447
▁壇	-2448
▁歧	-2449
▁肥	-2450
23	-2451
▁厘	-2452
▁错	-2453
▁琉	-2454
▁垂	-2455
ou	-2456
▁污	-2457
▁湘	-2458
▁as	-2459
▁47	-2460
▁傅	-2461
▁1979	-2462
▁湯	-2463
▁蓮	-2464
▁邮	-2465
▁燈	-2466
all	-2467
▁搬	-2468
▁铜	-2469
▁or	-2470
▁400	-2471
▁賢	-2472
42	-2473
▁脉	-2474
▁窗	-2475
▁廊	-2476
▁windows	-2477
▁卜	-2478
▁齡	-2479
▁珊	-2480
▁斜	-2481
▁災	-2482
▁迈	-2483
▁膜	-2484
▁儒	-2485
▁獵	-2486
▁综	-2487
▁儘	-2488
▁恶	-2489
▁肃	-2490
▁耗	-2491
▁en	-2492
▁寿	-2493
▁1978	-2494
▁錫	-2495
▁駕	-2496
te	-2497
▁握	-2498
▁寒	-2499
▁薄	-2500
▁逆	-2501
▁狄	-2502
▁ap	-2503
▁欣	-2504
io	-2505
▁课	-2506
▁ii	-2507
▁悉	-2508
ue	-2509
▁妇	-2510
▁呂	-2511
▁孤	-2512
▁煤	-2513
▁旨	-2514
▁con	-2515
14	-2516
▁猪	-2517
▁册	-2518
▁ma	-2519
▁胎	-2520
▁獄	-2521
▁稳	-2522
▁殘	-2523
▁虛	-2524
▁逊	-2525
ive	-2526
▁鋒	-2527
▁抽	-2528
37	-2529
22	-2530
▁逢	-2531
▁壤	-2532
▁阁	-2533
35	-2534
▁误	-2535
▁粗	-2536
▁49	-2537
▁%	-2538
▁180	-2539
▁寨	-2540
▁150	-2541
▁蛛	-2542
ge	-2543
▁貌	-2544
▁聘	-2545
▁1981	-2546
▁迹	-2547
▁弃	-2548
▁粹	-2549
▁鼻	-2550
ity	-2551
▁陀	-2552
▁濱	-2553
oh	-2554
sp	-2555
▁冒	-2556
▁笼	-2557
▁吐	-2558
igh	-2559
▁静	-2560
▁be	-2561
▁剑	-2562
▁吾	-2563
▁憶	-2564
▁猶	-2565
▁缘	-2566
▁坪	-2567
▁倉	-2568
▁笔	-2569
▁狂	-2570
▁稿	-2571
▁狗	-2572
▁柔	-2573
▁翠	-2574
▁俘	-2575
▁go	-2576
▁税	-2577
26	-2578
▁辞	-2579
▁键	-2580
▁纸	-2581
▁婆	-2582
▁蝶	-2583
ert	-2584
▁叙	-2585
▁闭	-2586
▁58	-2587
art	-2588
▁譜	-2589
▁1958	-2590
46	-2591
75	-2592
▁se	-2593
▁挪	-2594
▁忍	-2595
▁揭	-2596
▁賀	-2597
▁違	-2598
▁潜	-2599
▁貫	-2600
36	-2601
▁謂	-2602
▁阮	-2603
▁璃	-2604
▁紋	-2605
28	-2606
▁矩	-2607
▁1946	-2608
▁疫	-2609
▁稍	-2610
▁驱	-2611
▁扶	-2612
▁籌	-2613
▁翌	-2614
▁娘	-2615
▁辅	-2616
▁胸	-2617
▁拟	-2618
▁邓	-2619
▁56	-2620
▁鹽	-2621
▁─	-2622
▁酶	-2623
▁&	-2624
27	-2625
ant	-2626
▁菊	-2627
▁稅	-2628
▁姬	-2629
ich	-2630
▁憑	-2631
▁贊	-2632
▁硫	-2633
▁魂	-2634
▁汪	-2635
▁64	-2636
▁慮	-2637
▁潭	-2638
▁狼	-2639
▁苑	-2640
bs	-2641
▁礦	-2642
▁彰	-2643
▁赢	-2644
38	-2645
▁泡	-2646
▁遵	-2647
▁殼	-2648
▁fr	-2649
▁雀	-2650
▁卵	-2651
▁刷	-2652
▁鍵	-2653
▁丙	-2654
▁惟	-2655
▁绩	-2656
▁棘	-2657
▁储	-2658
▁颱	-2659
▁ph	-2660
▁堆	-2661
▁弦	-2662
▁峡	-2663
24	-2664
▁歇	-2665
▁軸	-2666
▁驚	-2667
▁兆	-2668
▁碎	-2669
▁pr	-2670
29	-2671
▁寻	-2672
▁郵	-2673
▁44	-2674
▁奔	-2675
▁牵	-2676
ong	-2677
▁绪	-2678
▁添	-2679
▁鄧	-2680
ib	-2681
▁淘	-2682
▁吏	-2683
▁1930	-2684
▁恰	-2685
▁ex	-2686
▁1940	-2687
▁腐	-2688
▁狱	-2689
▁曰	-2690
▁纵	-2691
▁1948	-2692
▁癌	-2693
▁跡	-2694
▁阪	-2695
33	-2696
▁脊	-2697
▁註	-2698
▁姻	-2699
▁粵	-2700
▁押	-2701
▁sc	-2702
▁猛	-2703
▁1000	-2704
▁档	-2705
▁屈	-2706
▁ad	-2707
▁偷	-2708
▁姚	-2709
▁詳	-2710
▁120	-2711
▁cn	-2712
▁览	-2713
▁碟	-2714
▁1937	-2715
▁嘴	-2716
▁鯰	-2717
▁1956	-2718
▁劑	-2719
▁傾	-2720
▁繞	-2721
▁堪	-2722
▁1975	-2723
▁纯	-2724
▁蕨	-2725
▁紛	-2726
▁岗	-2727
▁1947	-2728
▁仇	-2729
▁飲	-2730
▁貓	-2731
95	-2732
▁夕	-2733
▁誕	-2734
▁誠	-2735
▁叉	-2736
▁勳	-2737
▁轟	-2738
▁醇	-2739
▁蒸	-2740
uc	-2741
▁芒	-2742
▁蕭	-2743
▁獅	-2744
98	-2745
▁籃	-2746
▁裏	-2747
▁涵	-2748
▁逼	-2749
▁牆	-2750
▁縱	-2751
▁残	-2752
▁拼	-2753
▁奶	-2754
▁76	-2755
▁矛	-2756
▁辰	-2757
▁灾	-2758
▁贾	-2759
ate	-2760
▁烟	-2761
▁儲	-2762
ort	-2763
78	-2764
▁扁	-2765
▁绘	-2766
▁隋	-2767
▁冯	-2768
▁卒	-2769
▁鎖	-2770
▁68	-2771
▁寸	-2772
76	-2773
▁頁	-2774
▁屠	-2775
▁1941	-2776
▁jr	-2777
▁bo	-2778
▁1973	-2779
▁祀	-2780
▁逮	-2781
39	-2782
▁劫	-2783
ry	-2784
▁1952	-2785
▁嫁	-2786
▁→	-2787
▁敢	-2788
▁1920	-2789
lay	-2790
ey	-2791
▁触	-2792
▁600	-2793
▁66	-2794
▁卑	-2795
▁掘	-2796
▁煙	-2797
ord	-2798
▁1955	-2799
▁肌	-2800
▁奎	-2801
▁ac	-2802
▁讷	-2803
▁隐	-2804
▁醒	-2805
▁1972	-2806
▁峽	-2807
▁斤	-2808
▁800	-2809
▁1966	-2810
▁娃	-2811
▁礁	-2812
▁緩	-2813
▁伽	-2814
▁氯	-2815
▁嫌	-2816
▁薛	-2817
▁忙	-2818
▁怖	-2819
34	-2820
▁凝	-2821
▁迦	-2822
▁磨	-2823
▁汤	-2824
▁蒋	-2825
▁1976	-2826
▁卖	-2827
▁雍	-2828
▁85	-2829
▁1968	-2830
▁嗣	-2831
ign	-2832
▁偵	-2833
32	-2834
▁虚	-2835
▁犬	-2836
▁梦	-2837
▁颜	-2838
▁袋	-2839
▁悲	-2840
96	-2841
bc	-2842
▁烧	-2843
▁伟	-2844
▁so	-2845
▁1977	-2846
▁髮	-2847
▁肖	-2848
▁1974	-2849
▁抑	-2850
▁1954	-2851
▁妙	-2852
▁鼎	-2853
▁株	-2854
▁篮	-2855
▁虑	-2856
▁1969	-2857
▁忽	-2858
▁沖	-2859
▁nba	-2860
▁栖	-2861
ens	-2862
44	-2863
▁95	-2864
▁勋	-2865
▁掛	-2866
▁厦	-2867
▁膠	-2868
▁cd	-2869
▁1965	-2870
▁1959	-2871
▁銜	-2872
▁颁	-2873
▁盆	-2874
▁88	-2875
▁汰	-2876
▁盜	-2877
▁稻	-2878
▁罰	-2879
▁蟹	-2880
▁1938	-2881
▁竟	-2882
▁躍	-2883
ft	-2884
▁吨	-2885
▁雌	-2886
▁抱	-2887
▁cent	-2888
▁暂	-2889
▁1939	-2890
▁脚	-2891
▁吹	-2892
▁1944	-2893
▁灯	-2894
▁毅	-2895
99	-2896
▁丸	-2897
▁祿	-2898
▁襄	-2899
▁擾	-2900
▁怕	-2901
▁1971	-2902
▁’	-2903
▁龜	-2904
▁讯	-2905
▁1942	-2906
ast	-2907
▁氢	-2908
▁衔	-2909
▁幽	-2910
▁me	-2911
▁麟	-2912
▁1964	-2913
▁湿	-2914
▁缓	-2915
▁砂	-2916
▁拖	-2917
▁鄂	-2918
▁1967	-2919
▁豫	-2920
▁翔	-2921
31	-2922
▁1957	-2923
▁57	-2924
▁斐	-2925
ff	-2926
▁贈	-2927
▁勵	-2928
▁巢	-2929
▁宰	-2930
▁涌	-2931
▁id	-2932
▁圭	-2933
▁茵	-2934
▁~	-2935
▁姊	-2936
▁崩	-2937
ain	-2938
▁41	-2939
▁丛	-2940
▁貞	-2941
▁萧	-2942
▁賈	-2943
▁碧	-2944
▁op	-2945
▁詢	-2946
▁敘	-2947
end	-2948
▁茅	-2949
▁辨	-2950
▁噶	-2951
▁旬	-2952
▁蜂	-2953
86	-2954
▁抚	-2955
▁54	-2956
▁倡	-2957
▁馮	-2958
▁剪	-2959
▁媽	-2960
▁甫	-2961
▁腔	-2962
▁鴻	-2963
man	-2964
one	-2965
▁腺	-2966
▁囊	-2967
▁谱	-2968
▁筹	-2969
▁淺	-2970
▁邪	-2971
▁・	-2972
▁恭	-2973
▁邑	-2974
▁1936	-2975
▁祠	-2976
▁ng	-2977
ect	-2978
▁濃	-2979
▁漠	-2980
▁漁	-2981
▁託	-2982
▁鱸	-2983
▁1961	-2984
▁硕	-2985
▁龄	-2986
▁滾	-2987
▁ed	-2988
▁姜	-2989
▁锋	-2990
ly	-2991
▁1963	-2992
85	-2993
▁埋	-2994
▁吞	-2995
97	-2996
▁暖	-2997
▁壘	-2998
▁晓	-2999
▁喇	-3000
▁孕	-3001
▁we	-3002
ix	-3003
▁谓	-3004
▁hr	-3005
▁虹	-3006
▁雞	-3007
▁尹	-3008
▁氨	-3009
▁1953	-3010
▁胶	-3011
▁魁	-3012
▁彌	-3013
▁冈	-3014
▁莲	-3015
▁溝	-3016
▁朴	-3017
▁1935	-3018
▁1943	-3019
▁160	-3020
▁邁	-3021
▁寓	-3022
▁珀	-3023
▁喪	-3024
▁挂	-3025
▁滕	-3026
92	-3027
▁×	-3028
▁蹈	-3029
▁51	-3030
▁舟	-3031
ace	-3032
▁蓬	-3033
qu	-3034
▁咖	-3035
▁坛	-3036
▁俠	-3037
ps	-3038
▁扣	-3039
▁吻	-3040
▁1962	-3041
▁坝	-3042
▁脅	-3043
▁苯	-3044
▁愈	-3045
65	-3046
▁伙	-3047
▁噴	-3048
▁hant	-3049
▁抓	-3050
▁汀	-3051
▁耐	-3052
▁挖	-3053
▁胺	-3054
▁椎	-3055
▁飯	-3056
▁52	-3057
▁礙	-3058
ah	-3059
▁he	-3060
▁搖	-3061
int	-3062
▁巫	-3063
41	-3064
▁陪	-3065
▁壮	-3066
▁贯	-3067
▁it	-3068
▁仓	-3069
ss	-3070
▁披	-3071
▁耕	-3072
▁催	-3073
▁碩	-3074
▁mo	-3075
▁稀	-3076
▁薇	-3077
▁舌	-3078
▁斥	-3079
▁矮	-3080
▁1951	-3081
ug	-3082
▁慣	-3083
▁撫	-3084
▁瓶	-3085
▁齿	-3086
▁削	-3087
ore	-3088
▁掠	-3089
▁廖	-3090
unt	-3091
ust	-3092
ux	-3093
▁讚	-3094
43	-3095
49	-3096
▁卸	-3097
▁龐	-3098
▁桓	-3099
▁藻	-3100
ight	-3101
▁滩	-3102
▁违	-3103
▁吧	-3104
▁烯	-3105
▁详	-3106
▁鍾	-3107
▁渠	-3108
▁蒲	-3109
▁鸡	-3110
▁78	-3111
ire	-3112
▁铺	-3113
▁邱	-3114
▁纹	-3115
▁1927	-3116
▁閱	-3117
▁蜀	-3118
▁崖	-3119
▁唇	-3120
▁姑	-3121
▁屍	-3122
▁棉	-3123
1900	-3124
▁葵	-3125
▁擅	-3126
iz	-3127
▁庶	-3128
▁募	-3129
▁徹	-3130
▁粮	-3131
▁賜	-3132
▁链	-3133
▁dv	-3134
ond	-3135
▁sao	-3136
pe	-3137
▁帽	-3138
▁sch	-3139
ock	-3140
▁cod	-3141
▁汝	-3142
▁gr	-3143
▁禾	-3144
93	-3145
▁‘	-3146
▁薪	-3147
▁褐	-3148
ith	-3149
▁溯	-3150
▁潔	-3151
▁1928	-3152
▁筒	-3153
▁inter	-3154
▁贤	-3155
▁豹	-3156
ma	-3157
▁1933	-3158
▁昇	-3159
▁暨	-3160
▁曉	-3161
▁wh	-3162
▁蜜	-3163
▁鷹	-3164
▁啡	-3165
ne	-3166
▁札	-3167
68	-3168
▁亥	-3169
▁弓	-3170
▁尿	-3171
▁閩	-3172
▁700	-3173
▁忘	-3174
▁car	-3175
▁sm	-3176
▁梨	-3177
▁磷	-3178
▁77	-3179
▁貼	-3180
▁1931	-3181
62	-3182
▁懸	-3183
▁酷	-3184
▁摧	-3185
▁67	-3186
▁ge	-3187
▁鲍	-3188
ick	-3189
▁1932	-3190
▁mac	-3191
▁梵	-3192
▁帥	-3193
67	-3194
ern	-3195
▁缅	-3196
▁鑑	-3197
▁穴	-3198
▁丞	-3199
▁麵	-3200
▁惜	-3201
▁踏	-3202
▁肺	-3203
▁坂	-3204
▁邵	-3205
▁1934	-3206
▁拘	-3207
▁纷	-3208
▁cl	-3209
94	-3210
▁sy	-3211
▁悬	-3212
▁琪	-3213
▁ist	-3214
▁彻	-3215
▁杆	-3216
▁漏	-3217
▁甜	-3218
▁巷	-3219
▁趕	-3220
▁lin	-3221
▁tv	-3222
▁蕾	-3223
▁宴	-3224
▁拱	-3225
▁翅	-3226
sh	-3227
▁怡	-3228
▁润	-3229
▁53	-3230
ii	-3231
▁掩	-3232
▁ro	-3233
▁沪	-3234
▁緬	-3235
▁页	-3236
▁腾	-3237
▁110	-3238
▁蹤	-3239
ber	-3240
▁冕	-3241
▁淑	-3242
▁睡	-3243
▁bl	-3244
▁奠	-3245
▁肢	-3246
▁碰	-3247
xt	-3248
▁嘗	-3249
▁禦	-3250
91	-3251
▁宛	-3252
▁仕	-3253
66	-3254
▁棕	-3255
▁鉴	-3256
▁el	-3257
▁98	-3258
▁joh	-3259
▁販	-3260
▁堤	-3261
ies	-3262
▁枢	-3263
▁澄	-3264
yle	-3265
▁柄	-3266
▁爪	-3267
▁par	-3268
▁ak	-3269
▁誓	-3270
▁倾	-3271
▁励	-3272
▁哪	-3273
▁菩	-3274
▁逸	-3275
▁钦	-3276
▁诚	-3277
son	-3278
▁istat	-3279
▁框	-3280
▁赏	-3281
▁慎	-3282
▁玲	-3283
▁毗	-3284
▁丑	-3285
▁1929	-3286
▁遞	-3287
▁ht	-3288
▁dvd	-3289
▁疊	-3290
▁鳴	-3291
▁臂	-3292
▁遲	-3293
▁呎	-3294
▁178	-3295
▁桌	-3296
▁驾	-3297
▁蹟	-3298
ial	-3299
▁gam	-3300
▁帅	-3301
▁赐	-3302
▁驶	-3303
ont	-3304
▁霞	-3305
▁腿	-3306
ath	-3307
se	-3308
▁遼	-3309
▁饮	-3310
▁銘	-3311
▁姿	-3312
▁猎	-3313
▁140	-3314
▁1912	-3315
▁豬	-3316
▁丧	-3317
▁递	-3318
64	-3319
▁逻	-3320
▁贺	-3321
▁禄	-3322
▁禪	-3323
▁窄	-3324
▁腓	-3325
▁頗	-3326
▁冀	-3327
▁恋	-3328
ogle	-3329
ina	-3330
▁淨	-3331
▁弄	-3332
▁cr	-3333
▁雇	-3334
▁潤	-3335
▁烷	-3336
ier	-3337
▁帆	-3338
▁寮	-3339
▁google	-3340
▁娶	-3341
▁辉	-3342
▁鐸	-3343
▁兔	-3344
▁腰	-3345
▁韻	-3346
▁恨	-3347
▁桐	-3348
56	-3349
▁阔	-3350
72	-3351
▁栗	-3352
▁72	-3353
ment	-3354
▁肩	-3355
▁us	-3356
▁搶	-3357
▁yo	-3358
▁new	-3359
▁悠	-3360
▁ー	-3361
▁1925	-3362
▁play	-3363
ory	-3364
▁center	-3365
▁man	-3366
ai	-3367
▁辯	-3368
▁猜	-3369
▁瘤	-3370
▁蝠	-3371
73	-3372
▁扭	-3373
▁忆	-3374
74	-3375
▁抄	-3376
▁my	-3377
▁欽	-3378
▁wor	-3379
▁跃	-3380
▁‧	-3381
79	-3382
55	-3383
▁貧	-3384
ure	-3385
▁辟	-3386
▁罚	-3387
▁250	-3388
▁朵	-3389
▁赠	-3390
▁130	-3391
iss	-3392
▁趨	-3393
▁壳	-3394
▁嫩	-3395
▁爬	-3396
▁繩	-3397
71	-3398
▁裸	-3399
▁惊	-3400
▁殷	-3401
▁沼	-3402
▁盈	-3403
▁胁	-3404
▁1918	-3405
▁臟	-3406
▁170	-3407
▁back	-3408
ld	-3409
▁滋	-3410
▁dr	-3411
▁style	-3412
▁壯	-3413
▁庇	-3414
▁忌	-3415
▁逾	-3416
▁牲	-3417
▁99	-3418
▁飓	-3419
▁肝	-3420
▁禧	-3421
▁囚	-3422
▁蜥	-3423
▁糧	-3424
▁吊	-3425
61	-3426
▁纲	-3427
▁妖	-3428
▁炭	-3429
▁浸	-3430
▁α	-3431
▁繫	-3432
▁庸	-3433
▁罷	-3434
▁磯	-3435
▁荃	-3436
▁贞	-3437
69	-3438
▁厥	-3439
▁1913	-3440
ung	-3441
58	-3442
▁63	-3443
▁1919	-3444
▁av	-3445
▁锁	-3446
▁鯨	-3447
▁劣	-3448
▁勸	-3449
▁掃	-3450
ide	-3451
az	-3452
▁慰	-3453
▁閃	-3454
▁62	-3455
▁*	-3456
▁1924	-3457
▁1926	-3458
▁鈴	-3459
▁诞	-3460
▁贫	-3461
53	-3462
▁兽	-3463
▁铸	-3464
▁john	-3465
▁comp	-3466
▁阅	-3467
co	-3468
▁弥	-3469
▁旱	-3470
▁а	-3471
▁勁	-3472
round	-3473
▁哀	-3474
▁埠	-3475
▁ip	-3476
▁瑚	-3477
▁鱗	-3478
▁bd	-3479
▁彥	-3480
ational	-3481
▁扇	-3482
▁59	-3483
▁闊	-3484
▁1922	-3485
▁蓄	-3486
▁駁	-3487
▁亩	-3488
mm	-3489
▁搞	-3490
▁浓	-3491
▁盗	-3492
63	-3493
▁sil	-3494
▁怎	-3495
▁趁	-3496
au	-3497
▁の	-3498
▁喷	-3499
age	-3500
▁codice	-3501
▁秩	-3502
▁診	-3503
▁賦	-3504
▁氟	-3505
▁橡	-3506
▁辩	-3507
▁砖	-3508
▁跋	-3509
▁凰	-3510
▁qu	-3511
▁樞	-3512
cl	-3513
▁ン	-3514
▁濕	-3515
▁霧	-3516
▁扰	-3517
▁61	-3518
▁祈	-3519
▁焚	-3520
▁ho	-3521
▁臀	-3522
so	-3523
▁柬	-3524
▁椅	-3525
▁槽	-3526
▁氫	-3527
▁灘	-3528
▁庞	-3529
▁債	-3530
▁償	-3531
▁瓷	-3532
77	-3533
lar	-3534
▁庚	-3535
▁昔	-3536
ans	-3537
52	-3538
▁1914	-3539
▁噸	-3540
▁跌	-3541
51	-3542
▁薦	-3543
ish	-3544
▁鱷	-3545
▁肅	-3546
▁赶	-3547
ke	-3548
ton	-3549
▁诏	-3550
▁擦	-3551
▁轰	-3552
span	-3553
▁牽	-3554
▁嵌	-3555
▁遮	-3556
▁蕃	-3557
▁colspan	-3558
▁赋	-3559
▁闽	-3560
▁3000	-3561
▁瑜	-3562
▁1911	-3563
▁欠	-3564
▁芙	-3565
▁ngc	-3566
59	-3567
▁dna	-3568
▁鮑	-3569
▁1917	-3570
▁猫	-3571
57	-3572
▁$	-3573
▁攜	-3574
▁ser	-3575
▁夸	-3576
▁酮	-3577
▁屿	-3578
▁仑	-3579
▁po	-3580
▁km	-3581
▁挺	-3582
▁猴	-3583
▁肇	-3584
▁ag	-3585
▁寇	-3586
ary	-3587
▁艙	-3588
▁о	-3589
▁1923	-3590
88	-3591
▁偽	-3592
▁凭	-3593
▁缸	-3594
▁彦	-3595
▁晴	-3596
▁em	-3597
ground	-3598
▁涂	-3599
▁禅	-3600
▁74	-3601
▁祐	-3602
▁align	-3603
▁怨	-3604
▁哺	-3605
▁汶	-3606
▁氮	-3607
▁er	-3608
▁擺	-3609
54	-3610
▁狹	-3611
▁娱	-3612
▁頸	-3613
▁履	-3614
▁慘	-3615
▁净	-3616
▁眠	-3617
▁mus	-3618
▁芭	-3619
▁询	-3620
▁鸿	-3621
▁鞋	-3622
▁ste	-3623
▁棟	-3624
▁漂	-3625
▁鶴	-3626
▁碱	-3627
▁mv	-3628
▁贴	-3629
ile	-3630
▁1921	-3631
▁郁	-3632
▁fo	-3633
▁伪	-3634
▁鑽	-3635
▁欄	-3636
aw	-3637
▁喻	-3638
▁悟	-3639
▁69	-3640
▁踢	-3641
▁捉	-3642
▁狐	-3643
▁眉	-3644
▁斬	-3645
▁嘛	-3646
▁background	-3647
▁攀	-3648
pl	-3649
▁lov	-3650
▁桿	-3651
▁no	-3652
▁昏	-3653
▁琼	-3654
▁栏	-3655
ach	-3656
▁徙	-3657
ass	-3658
▁璋	-3659
▁喝	-3660
ium	-3661
▁尸	-3662
▁夥	-3663
▁狮	-3664
▁軒	-3665
▁颇	-3666
▁炳	-3667
▁net	-3668
▁color	-3669
▁浅	-3670
▁pa	-3671
land	-3672
83	-3673
▁摇	-3674
▁麓	-3675
▁彎	-3676
lat	-3677
▁穗	-3678
anc	-3679
▁sup	-3680
▁pc	-3681
▁妥	-3682
▁譚	-3683
▁ab	-3684
▁渔	-3685
▁粤	-3686
▁bar	-3687
▁佑	-3688
▁睛	-3689
▁賊	-3690
▁踪	-3691
▁73	-3692
▁厢	-3693
ann	-3694
▁蘋	-3695
iel	-3696
▁廂	-3697
▁撥	-3698
▁鹰	-3699
▁坤	-3700
▁pe	-3701
▁喉	-3702
▁僚	-3703
▁抢	-3704
▁窮	-3705
▁1900	-3706
▁彗	-3707
▁ps	-3708
▁爸	-3709
▁醉	-3710
82	-3711
▁匣	-3712
▁text	-3713
▁侨	-3714
▁糕	-3715
▁齋	-3716
▁淳	-3717
▁帖	-3718
▁鞍	-3719
▁绥	-3720
▁饭	-3721
▁寵	-3722
▁歉	-3723
▁迟	-3724
ite	-3725
▁惯	-3726
▁棚	-3727
87	-3728
▁mic	-3729
▁櫻	-3730
▁菱	-3731
ank	-3732
▁崗	-3733
▁躲	-3734
▁邏	-3735
amp	-3736
▁1910	-3737
▁胆	-3738
▁戊	-3739
▁匪	-3740
▁荐	-3741
▁酯	-3742
▁87	-3743
▁尝	-3744
▁諮	-3745
▁mc	-3746
▁per	-3747
▁臉	-3748
▁pl	-3749
▁漆	-3750
▁и	-3751
▁梭	-3752
89	-3753
▁畜	-3754
are	-3755
ae	-3756
me	-3757
▁旭	-3758
▁淵	-3759
▁涼	-3760
▁穌	-3761
▁勘	-3762
▁矢	-3763
▁86	-3764
▁辱	-3765
84	-3766
▁椒	-3767
▁盒	-3768
▁2020	-3769
▁戚	-3770
▁茄	-3771
▁洁	-3772
▁熔	-3773
▁鴨	-3774
ivers	-3775
▁岐	-3776
▁900	-3777
▁劝	-3778
▁71	-3779
▁帳	-3780
▁鬆	-3781
81	-3782
▁#	-3783
▁詔	-3784
▁榴	-3785
▁騰	-3786
▁凉	-3787
▁聰	-3788
▁咒	-3789
▁勾	-3790
ica	-3791
▁82	-3792
▁os	-3793
▁摔	-3794
▁咀	-3795
▁秉	-3796
ence	-3797
▁碍	-3798
▁戌	-3799
▁賭	-3800
ical	-3801
▁盲	-3802
▁96	-3803
▁罩	-3804
▁cp	-3805
▁silver	-3806
▁霖	-3807
▁81	-3808
▁罢	-3809
▁鹤	-3810
old	-3811
▁im	-3812
▁蛙	-3813
ts	-3814
▁糊	-3815
▁煌	-3816
▁謙	-3817
▁now	-3818
▁101	-3819
▁瓊	-3820
▁鏈	-3821
▁閘	-3822
▁爐	-3823
▁鯛	-3824
ley	-3825
▁all	-3826
▁牟	-3827
▁纤	-3828
▁庵	-3829
▁欺	-3830
▁will	-3831
▁滚	-3832
▁韶	-3833
de	-3834
per	-3835
▁met	-3836
▁痕	-3837
▁mod	-3838
▁夾	-3839
▁陝	-3840
ime	-3841
ky	-3842
▁燥	-3843
▁竣	-3844
▁虞	-3845
ction	-3846
▁笛	-3847
▁79	-3848
▁漳	-3849
▁瞄	-3850
▁虐	-3851
▁棠	-3852
▁澎	-3853
▁奮	-3854
▁幢	-3855
for	-3856
▁浴	-3857
▁趋	-3858
ta	-3859
▁廿	-3860
▁intern	-3861
▁拯	-3862
▁腸	-3863
▁塌	-3864
▁荆	-3865
▁83	-3866
▁斌	-3867
▁携	-3868
▁爺	-3869
5%	-3870
▁蛤	-3871
▁遙	-3872
▁奸	-3873
▁匠	-3874
▁阜	-3875
▁84	-3876
▁侶	-3877
▁es	-3878
▁垣	-3879
▁瑙	-3880
▁貪	-3881
▁哭	-3882
▁塗	-3883
▁憤	-3884
▁cor	-3885
iam	-3886
▁胃	-3887
▁á	-3888
ool	-3889
▁蝦	-3890
▁瓣	-3891
iki	-3892
▁穷	-3893
▁linux	-3894
▁嬰	-3895
▁1915	-3896
▁畏	-3897
▁92	-3898
own	-3899
▁1905	-3900
▁1916	-3901
tv	-3902
▁僑	-3903
pr	-3904
▁gen	-3905
▁gre	-3906
▁潰	-3907
▁侠	-3908
act	-3909
ube	-3910
▁捲	-3911
▁纖	-3912
use	-3913
ve	-3914
▁矶	-3915
▁扫	-3916
▁擋	-3917
▁膚	-3918
▁誘	-3919
▁鎊	-3920
▁い	-3921
▁膨	-3922
ere	-3923
▁憂	-3924
ml	-3925
ance	-3926
▁黛	-3927
▁fl	-3928
▁螢	-3929
▁崙	-3930
▁焰	-3931
▁稣	-3932
▁朔	-3933
▁駿	-3934
▁剿	-3935
▁汁	-3936
▁jo	-3937
▁酋	-3938
ys	-3939
▁you	-3940
▁噪	-3941
▁fre	-3942
▁凸	-3943
▁弧	-3944
▁鋪	-3945
▁摘	-3946
▁悼	-3947
▁誰	-3948
▁辣	-3949
▁ic	-3950
▁rob	-3951
▁ua	-3952
▁铭	-3953
km	-3954
va	-3955
▁杏	-3956
▁1500	-3957
▁窟	-3958
▁翡	-3959
les	-3960
▁5000	-3961
▁凹	-3962
▁狭	-3963
▁黏	-3964
▁夹	-3965
▁偿	-3966
tp	-3967
▁gu	-3968
mb	-3969
▁楠	-3970
▁粘	-3971
▁97	-3972
▁mag	-3973
▁禹	-3974
▁辐	-3975
▁韵	-3976
▁love	-3977
▁鸣	-3978
▁乞	-3979
▁债	-3980
▁閒	-3981
▁min	-3982
▁暢	-3983
▁硝	-3984
▁輩	-3985
▁芽	-3986
▁count	-3987
▁赦	-3988
▁銳	-3989
▁е	-3990
▁荊	-3991
▁1906	-3992
▁頜	-3993
▁1909	-3994
▁橙	-3995
▁univers	-3996
▁冥	-3997
▁塵	-3998
ale	-3999
ome	-4000
▁牢	-4001
▁med	-4002
▁滇	-4003
▁06	-4004
ash	-4005
▁one	-4006
▁拋	-4007
▁樑	-4008
gr	-4009
▁卧	-4010
▁戎	-4011
▁dav	-4012
ise	-4013
▁湛	-4014
ase	-4015
▁1907	-4016
▁宦	-4017
▁炼	-4018
▁闸	-4019
▁ep	-4020
▁彬	-4021
▁橘	-4022
▁air	-4023
ga	-4024
▁叠	-4025
we	-4026
▁瑰	-4027
▁诊	-4028
station	-4029
▁惑	-4030
▁纂	-4031
▁肆	-4032
att	-4033
▁膽	-4034
▁懼	-4035
▁酬	-4036
▁傘	-4037
▁餅	-4038
▁gro	-4039
▁勉	-4040
▁int	-4041
▁mon	-4042
▁寂	-4043
▁玫	-4044
▁world	-4045
▁do	-4046
▁畿	-4047
▁脏	-4048
▁89	-4049
▁懂	-4050
▁酰	-4051
▁93	-4052
▁棍	-4053
▁迄	-4054
▁har	-4055
▁н	-4056
▁涛	-4057
▁寅	-4058
▁狸	-4059
▁瀑	-4060
▁纬	-4061
▁05	-4062
▁孜	-4063
▁蹄	-4064
▁char	-4065
ild	-4066
▁micro	-4067
▁煮	-4068
▁09	-4069
hel	-4070
▁冶	-4071
▁蔽	-4072
▁諡	-4073
▁91	-4074
▁磅	-4075
▁橄	-4076
▁繳	-4077
▁360	-4078
▁β	-4079
▁渊	-4080
▁酵	-4081
uth	-4082
▁寡	-4083
▁′	-4084
▁堵	-4085
▁摆	-4086
▁赣	-4087
▁gl	-4088
▁汕	-4089
▁泌	-4090
book	-4091
▁1908	-4092
▁惨	-4093
▁裴	-4094
▁cla	-4095
▁叢	-4096
▁nh	-4097
▁鵝	-4098
▁su	-4099
▁playstation	-4100
▁邸	-4101
▁鱂	-4102
ict	-4103
▁с	-4104
▁喊	-4105
▁懿	-4106
▁侦	-4107
▁榆	-4108
▁bro	-4109
▁氛	-4110
▁匿	-4111
▁奋	-4112
▁1904	-4113
▁簧	-4114
▁隙	-4115
▁ms	-4116
▁res	-4117
▁伺	-4118
▁頃	-4119
▁鳞	-4120
▁櫃	-4121
▁ut	-4122
▁iii	-4123
▁des	-4124
ower	-4125
▁】	-4126
▁茎	-4127
▁誼	-4128
▁105	-4129
▁孚	-4130
▁峻	-4131
▁鞭	-4132
ee	-4133
▁【	-4134
▁沛	-4135
enn	-4136
▁滴	-4137
▁稽	-4138
ck	-4139
▁顷	-4140
ri	-4141
▁350	-4142
▁侄	-4143
▁俞	-4144
lex	-4145
▁詠	-4146
▁鹃	-4147
▁肪	-4148
▁94	-4149
eng	-4150
▁臭	-4151
ose	-4152
▁app	-4153
▁奕	-4154
urn	-4155
▁荔	-4156
▁騙	-4157
▁her	-4158
▁欖	-4159
ala	-4160
▁仗	-4161
▁垃	-4162
▁斋	-4163
▁sn	-4164
▁荡	-4165
ame	-4166
▁扑	-4167
▁彙	-4168
▁can	-4169
▁倪	-4170
▁07	-4171
▁live	-4172
▁筋	-4173
▁akb	-4174
▁劾	-4175
ins	-4176
ork	-4177
▁彪	-4178
▁蝕	-4179
rom	-4180
▁р	-4181
▁撲	-4182
▁訟	-4183
ara	-4184
cc	-4185
▁碘	-4186
▁禽	-4187
ony	-4188
▁粟	-4189
▁裹	-4190
▁school	-4191
▁圾	-4192
▁雁	-4193
▁妓	-4194
▁芦	-4195
ms	-4196
▁舱	-4197
▁衙	-4198
itt	-4199
▁1895	-4200
▁ent	-4201
ade	-4202
▁1898	-4203
▁屢	-4204
▁綁	-4205
▁芯	-4206
▁鮋	-4207
▁chr	-4208
▁泄	-4209
stem	-4210
▁婉	-4211
▁傲	-4212
▁牡	-4213
▁苹	-4214
▁ん	-4215
▁娅	-4216
▁肠	-4217
▁鑼	-4218
▁闪	-4219
▁烤	-4220
▁1903	-4221
▁殉	-4222
▁墜	-4223
▁墟	-4224
▁墩	-4225
ics	-4226
▁mm	-4227
▁pet	-4228
▁岑	-4229
ult	-4230
6%	-4231
▁蓉	-4232
▁謠	-4233
▁壬	-4234
▁暑	-4235
▁皖	-4236
2%	-4237
▁僱	-4238
af	-4239
▁凶	-4240
▁with	-4241
▁趾	-4242
▁苔	-4243
▁煉	-4244
▁谭	-4245
▁web	-4246
▁彝	-4247
▁绵	-4248
der	-4249
▁1902	-4250
▁super	-4251
▁颠	-4252
▁豚	-4253
▁钻	-4254
▁塚	-4255
▁糾	-4256
3%	-4257
▁頌	-4258
▁悅	-4259
▁曝	-4260
ana	-4261
▁践	-4262
▁08	-4263
▁ü	-4264
▁拨	-4265
▁淹	-4266
▁硅	-4267
▁籤	-4268
▁諧	-4269
▁騷	-4270
ster	-4271
▁rec	-4272
▁嫡	-4273
▁鸦	-4274
▁呢	-4275
▁禍	-4276
▁賠	-4277
olog	-4278
uk	-4279
▁渦	-4280
▁狩	-4281
▁樟	-4282
▁蝙	-4283
▁lo	-4284
1%	-4285
▁垒	-4286
▁1901	-4287
▁萍	-4288
▁by	-4289
ward	-4290
4%	-4291
▁舜	-4292
be	-4293
▁弊	-4294
ho	-4295
▁ty	-4296
▁纺	-4297
ca	-4298
▁倭	-4299
▁啦	-4300
▁嘎	-4301
▁貸	-4302
▁竭	-4303
▁茹	-4304
▁栋	-4305
▁諷	-4306
▁檀	-4307
▁歼	-4308
▁炉	-4309
▁擠	-4310
▁鵬	-4311
▁拾	-4312
▁顛	-4313
▁che	-4314
▁桶	-4315
▁谊	-4316
▁谥	-4317
7%	-4318
▁et	-4319
▁剌	-4320
▁溃	-4321
▁狙	-4322
▁穎	-4323
▁懲	-4324
▁梓	-4325
orn	-4326
▁fe	-4327
ual	-4328
▁刪	-4329
▁吋	-4330
▁哇	-4331
▁爽	-4332
▁悔	-4333
ille	-4334
▁jav	-4335
8%	-4336
▁啤	-4337
▁鴉	-4338
▁li	-4339
▁system	-4340
▁star	-4341
▁墅	-4342
▁4000	-4343
hz	-4344
▁釣	-4345
oth	-4346
▁喚	-4347
▁闲	-4348
▁104	-4349
▁墾	-4350
▁羌	-4351
▁衷	-4352
▁nor	-4353
▁窑	-4354
▁谦	-4355
▁т	-4356
▁郝	-4357
▁鰻	-4358
▁je	-4359
▁咬	-4360
▁籠	-4361
▁膀	-4362
▁毓	-4363
▁稚	-4364
▁蔓	-4365
▁薯	-4366
▁饶	-4367
oci	-4368
yn	-4369
▁01	-4370
▁sur	-4371
▁魅	-4372
▁隕	-4373
pt	-4374
▁淚	-4375
asa	-4376
▁舖	-4377
▁蔭	-4378
▁bla	-4379
▁dis	-4380
▁砍	-4381
ata	-4382
dp	-4383
▁music	-4384
▁う	-4385
▁沫	-4386
▁淀	-4387
▁愚	-4388
▁锐	-4389
ron	-4390
▁乒	-4391
▁哩	-4392
▁磚	-4393
▁淋	-4394
▁樸	-4395
▁挽	-4396
▁檐	-4397
da	-4398
▁ass	-4399
▁face	-4400
▁鹏	-4401
▁í	-4402
▁ib	-4403
▁愉	-4404
▁舅	-4405
▁萌	-4406
▁犁	-4407
▁鸭	-4408
▁pol	-4409
ha	-4410
▁剖	-4411
▁締	-4412
▁耿	-4413
▁莖	-4414
▁渤	-4415
▁禎	-4416
▁蘿	-4417
▁af	-4418
▁茜	-4419
▁莞	-4420
▁凍	-4421
▁聊	-4422
▁腎	-4423
▁骸	-4424
▁ev	-4425
▁壹	-4426
▁str	-4427
▁咨	-4428
▁霜	-4429
lo	-4430
▁厭	-4431
▁嵩	-4432
▁ver	-4433
▁淫	-4434
▁鬚	-4435
▁犀	-4436
9%	-4437
▁渭	-4438
▁炒	-4439
▁肿	-4440
ds	-4441
▁癸	-4442
▁籲	-4443
▁濫	-4444
ien	-4445
▁淆	-4446
▁罐	-4447
▁仆	-4448
▁僕	-4449
▁ss	-4450
pm	-4451
soft	-4452
▁缝	-4453
▁谐	-4454
▁108	-4455
▁敷	-4456
▁苷	-4457
▁顱	-4458
▁mark	-4459
br	-4460
▁砌	-4461
▁蔚	-4462
▁釜	-4463
▁cont	-4464
▁颶	-4465
box	-4466
▁沁	-4467
▁william	-4468
ode	-4469
▁125	-4470
▁county	-4471
▁綿	-4472
▁div	-4473
▁jam	-4474
ls	-4475
▁し	-4476
▁iv	-4477
▁蘆	-4478
mer	-4479
▁梗	-4480
▁谁	-4481
▁俯	-4482
▁漿	-4483
▁胚	-4484
ius	-4485
▁扳	-4486
▁棱	-4487
▁high	-4488
▁stud	-4489
pa	-4490
▁mat	-4491
▁滤	-4492
▁脹	-4493
▁膏	-4494
ane	-4495
ler	-4496
▁103	-4497
▁喙	-4498
▁擒	-4499
▁迭	-4500
▁兇	-4501
▁婴	-4502
▁弯	-4503
▁弼	-4504
▁贷	-4505
▁sw	-4506
▁colle	-4507
▁愤	-4508
▁鹅	-4509
▁saint	-4510
ax	-4511
▁1200	-4512
▁ā	-4513
▁窩	-4514
▁诱	-4515
▁04	-4516
▁脆	-4517
▁醛	-4518
▁謹	-4519
▁闖	-4520
▁腫	-4521
▁卦	-4522
▁钠	-4523
▁矣	-4524
▁ra	-4525
▁102	-4526
▁off	-4527
▁val	-4528
▁猩	-4529
▁庐	-4530
▁廚	-4531
▁浏	-4532
▁琦	-4533
▁崛	-4534
cr	-4535
▁删	-4536
▁蕊	-4537
▁del	-4538
▁袍	-4539
ited	-4540
▁烹	-4541
▁瞬	-4542
▁縫	-4543
▁part	-4544
▁厲	-4545
▁輿	-4546
▁鑄	-4547
▁в	-4548
▁晰	-4549
▁臥	-4550
▁遥	-4551
▁堯	-4552
▁斩	-4553
▁貶	-4554
▁骚	-4555
▁di	-4556
▁yout	-4557
▁蔬	-4558
▁蜘	-4559
▁ö	-4560
▁抬	-4561
▁樊	-4562
▁碗	-4563
▁罹	-4564
ood	-4565
▁ele	-4566
oss	-4567
▁岱	-4568
▁溥	-4569
▁祇	-4570
illa	-4571
▁纠	-4572
▁220	-4573
▁榕	-4574
▁02	-4575
▁up	-4576
▁畅	-4577
vel	-4578
▁瘋	-4579
▁黔	-4580
▁war	-4581
▁ス	-4582
▁壩	-4583
▁疲	-4584
▁蝴	-4585
▁1890	-4586
▁gn	-4587
ement	-4588
▁tvb	-4589
▁international	-4590
▁挫	-4591
▁蒿	-4592
▁iso	-4593
▁university	-4594
▁伞	-4595
ald	-4596
▁к	-4597
▁坞	-4598
▁尧	-4599
ett	-4600
▁膝	-4601
ner	-4602
▁濾	-4603
▁蕉	-4604
▁ó	-4605
uch	-4606
▁颈	-4607
▁杖	-4608
▁篤	-4609
▁dc	-4610
▁廓	-4611
▁钩	-4612
▁mr	-4613
▁115	-4614
▁匡	-4615
▁塢	-4616
▁甄	-4617
urg	-4618
▁106	-4619
▁tra	-4620
▁妾	-4621
icon	-4622
▁nowiki	-4623
▁泗	-4624
▁猿	-4625
ott	-4626
▁1896	-4627
▁1899	-4628
▁祁	-4629
▁哨	-4630
ink	-4631
▁胤	-4632
▁game	-4633
▁剥	-4634
▁瀨	-4635
▁撐	-4636
▁敖	-4637
▁馳	-4638
▁è	-4639
▁ec	-4640
▁youtube	-4641
▁睿	-4642
▁錐	-4643
iro	-4644
▁敲	-4645
▁107	-4646
▁1897	-4647
▁厝	-4648
▁穀	-4649
▁facebook	-4650
▁虜	-4651
▁髓	-4652
▁擲	-4653
▁肋	-4654
▁ind	-4655
▁鹼	-4656
▁ir	-4657
▁饼	-4658
▁嚇	-4659
▁鑲	-4660
▁鬱	-4661
▁111	-4662
▁10%	-4663
▁娥	-4664
ject	-4665
▁microsoft	-4666
yl	-4667
▁傍	-4668
▁莽	-4669
ike	-4670
ition	-4671
ene	-4672
▁gir	-4673
▁説	-4674
▁ds	-4675
▁峙	-4676
▁裙	-4677
▁擢	-4678
▁橢	-4679
▁疇	-4680
▁踐	-4681
▁鸚	-4682
able	-4683
▁50%	-4684
▁cap	-4685
▁吁	-4686
▁飼	-4687
▁sd	-4688
▁240	-4689
▁肤	-4690
▁ca	-4691
▁art	-4692
▁※	-4693
▁眷	-4694
▁紳	-4695
▁阎	-4696
oph	-4697
▁ter	-4698
▁inst	-4699
▁david	-4700
▁hy	-4701
▁bbc	-4702
▁1860	-4703
▁匾	-4704
▁辜	-4705
▁か	-4706
▁溉	-4707
▁da	-4708
▁忧	-4709
▁贿	-4710
gb	-4711
▁ル	-4712
▁戟	-4713
▁ref	-4714
▁イ	-4715
▁du	-4716
▁堰	-4717
▁梧	-4718
▁1889	-4719
▁聂	-4720
ude	-4721
ream	-4722
▁geor	-4723
01	-4724
▁爛	-4725
▁敕	-4726
▁瀕	-4727
▁鬧	-4728
ake	-4729
▁褒	-4730
▁鯊	-4731
▁cy	-4732
▁mk	-4733
▁勿	-4734
▁宠	-4735
▁晤	-4736
▁楷	-4737
▁陇	-4738
▁龟	-4739
ings	-4740
▁丟	-4741
▁耆	-4742
▁潟	-4743
▁缴	-4744
▁铝	-4745
▁sec	-4746
▁た	-4747
▁磡	-4748
▁窝	-4749
▁邢	-4750
tr	-4751
▁宵	-4752
▁罵	-4753
▁萼	-4754
▁墳	-4755
▁羚	-4756
▁act	-4757
▁red	-4758
▁湧	-4759
▁鍋	-4760
▁巩	-4761
▁祺	-4762
uro	-4763
▁瘦	-4764
▁抛	-4765
ear	-4766
▁cm	-4767
▁mor	-4768
▁孢	-4769
▁450	-4770
work	-4771
▁绑	-4772
▁攔	-4773
▁舶	-4774
▁惹	-4775
▁浆	-4776
▁渣	-4777
▁琅	-4778
eth	-4779
▁109	-4780
▁沂	-4781
▁瑶	-4782
▁pre	-4783
▁盔	-4784
▁lim	-4785
▁倖	-4786
▁阀	-4787
▁雯	-4788
▁肚	-4789
▁铃	-4790
▁闢	-4791
▁妈	-4792
▁л	-4793
▁聪	-4794
▁驳	-4795
▁1800	-4796
▁抹	-4797
▁蒼	-4798
▁肾	-4799
▁are	-4800
▁漲	-4801
▁侏	-4802
▁贬	-4803
ute	-4804
port	-4805
▁ta	-4806
ino	-4807
▁cro	-4808
▁濁	-4809
▁煩	-4810
▁dd	-4811
▁巾	-4812
▁沧	-4813
▁eng	-4814
▁wal	-4815
▁robert	-4816
▁媛	-4817
▁峨	-4818
▁瞭	-4819
▁飽	-4820
let	-4821
▁comm	-4822
▁渝	-4823
▁μ	-4824
▁冤	-4825
▁mp	-4826
▁汐	-4827
▁瀏	-4828
▁1880	-4829
du	-4830
▁暹	-4831
▁苻	-4832
▁乓	-4833
▁岬	-4834
▁疼	-4835
▁膛	-4836
▁03	-4837
▁ke	-4838
▁sk	-4839
▁tech	-4840
▁溢	-4841
▁128	-4842
▁虏	-4843
ico	-4844
ons	-4845
▁1894	-4846
▁open	-4847
▁舆	-4848
▁鋁	-4849
ero	-4850
▁刃	-4851
▁蚀	-4852
▁邯	-4853
era	-4854
▁渴	-4855
▁颂	-4856
▁芹	-4857
▁菇	-4858
▁•	-4859
▁脸	-4860
▁bu	-4861
▁ce	-4862
▁team	-4863
▁挝	-4864
▁赔	-4865
any	-4866
▁嗎	-4867
▁涡	-4868
▁睦	-4869
▁屡	-4870
▁驟	-4871
sa	-4872
▁苍	-4873
▁麒	-4874
▁bas	-4875
▁奢	-4876
▁汾	-4877
▁諜	-4878
▁焊	-4879
▁fa	-4880
▁sim	-4881
▁http	-4882
▁绒	-4883
▁醬	-4884
▁1871	-4885
▁paul	-4886
▁虔	-4887
▁鞏	-4888
roid	-4889
▁not	-4890
▁christ	-4891
▁堀	-4892
▁婷	-4893
▁枯	-4894
▁錶	-4895
▁nhk	-4896
▁傭	-4897
ark	-4898
las	-4899
▁贼	-4900
▁颖	-4901
▁ang	-4902
▁闆	-4903
▁噬	-4904
cm	-4905
▁芜	-4906
▁锥	-4907
▁vis	-4908
ave	-4909
▁don	-4910
▁醜	-4911
▁掀	-4912
▁枫	-4913
▁280	-4914
▁蠻	-4915
▁酿	-4916
▁group	-4917
▁贪	-4918
▁锅	-4919
▁閥	-4920
▁city	-4921
▁淞	-4922
▁詮	-4923
po	-4924
▁ア	-4925
▁118	-4926
ek	-4927
▁腕	-4928
▁cc	-4929
▁230	-4930
▁power	-4931
▁national	-4932
sc	-4933
▁ラ	-4934
que	-4935
▁婿	-4936
▁賄	-4937
▁鰓	-4938
▁112	-4939
▁棣	-4940
▁蚌	-4941
ena	-4942
▁堊	-4943
▁讽	-4944
▁钓	-4945
▁113	-4946
▁卯	-4947
▁泵	-4948
▁犧	-4949
▁胖	-4950
▁倚	-4951
▁岔	-4952
▁丕	-4953
▁啊	-4954
▁max	-4955
▁淪	-4956
▁210	-4957
▁僵	-4958
▁厉	-4959
▁吟	-4960
▁您	-4961
▁苞	-4962
▁辈	-4963
▁1885	-4964
▁1600	-4965
▁幌	-4966
▁忒	-4967
▁笠	-4968
▁賺	-4969
▁ef	-4970
▁kh	-4971
▁棺	-4972
▁纏	-4973
▁匙	-4974
▁羞	-4975
▁ts	-4976
▁java	-4977
▁摸	-4978
ael	-4979
▁mich	-4980
▁剝	-4981
▁槟	-4982
▁紮	-4983
▁ig	-4984
▁rich	-4985
▁鰕	-4986
▁骼	-4987
▁gra	-4988
oo	-4989
▁reg	-4990
▁釀	-4991
▁饱	-4992
▁amer	-4993
mp	-4994
▁pat	-4995
▁1870	-4996
▁馨	-4997
oll	-4998
▁day	-4999
▁6000	-5000
ife	-5001
ism	-5002
▁win	-5003
▁糟	-5004
ese	-5005
way	-5006
▁洽	-5007
▁sl	-5008
▁鈞	-5009
▁鉛	-5010
▁駒	-5011
▁tom	-5012
▁棵	-5013
▁璧	-5014
▁trans	-5015
▁紡	-5016
▁慌	-5017
osh	-5018
▁xbox	-5019
▁磺	-5020
▁饒	-5021
▁rad	-5022
by	-5023
ox	-5024
▁20%	-5025
▁と	-5026
▁稜	-5027
▁胀	-5028
▁na	-5029
▁mer	-5030
▁pop	-5031
▁兀	-5032
▁挡	-5033
▁濤	-5034
▁cal	-5035
▁梳	-5036
▁緻	-5037
▁塾	-5038
▁詐	-5039
osa	-5040
▁枕	-5041
▁135	-5042
▁155	-5043
ram	-5044
▁alex	-5045
▁糙	-5046
▁虧	-5047
▁骗	-5048
▁瑾	-5049
▁綽	-5050
▁榄	-5051
▁萃	-5052
▁out	-5053
▁top	-5054
▁褲	-5055
ior	-5056
▁ber	-5057
▁斧	-5058
▁禱	-5059
▁諭	-5060
▁釐	-5061
▁霆	-5062
▁fc	-5063
05	-5064
ital	-5065
▁android	-5066
▁祯	-5067
▁簿	-5068
▁嘲	-5069
▁捨	-5070
▁氰	-5071
▁紗	-5072
▁菁	-5073
▁謎	-5074
▁账	-5075
▁雾	-5076
ari	-5077
▁艮	-5078
▁铅	-5079
enc	-5080
▁霉	-5081
▁ا	-5082
▁牺	-5083
▁盪	-5084
▁cs	-5085
ham	-5086
▁ba	-5087
▁竺	-5088
▁緝	-5089
▁陡	-5090
▁魨	-5091
▁纜	-5092
▁ww	-5093
▁慾	-5094
▁撑	-5095
▁焉	-5096
▁蚤	-5097
ka	-5098
ya	-5099
▁捧	-5100
▁rna	-5101
▁1886	-5102
▁墮	-5103
▁恪	-5104
▁蟾	-5105
▁鋸	-5106
▁隍	-5107
▁30%	-5108
▁晃	-5109
▁溜	-5110
▁瞻	-5111
▁fin	-5112
▁lib	-5113
▁孵	-5114
▁幟	-5115
▁抒	-5116
ied	-5117
za	-5118
▁饥	-5119
iver	-5120
▁116	-5121
▁ク	-5122
▁浑	-5123
▁蔗	-5124
▁衫	-5125
▁钾	-5126
▁讼	-5127
▁114	-5128
▁park	-5129
▁涨	-5130
▁竊	-5131
▁闵	-5132
▁ur	-5133
go	-5134
ric	-5135
▁117	-5136
▁james	-5137
▁rock	-5138
++	-5139
▁惩	-5140
▁攤	-5141
▁祸	-5142
▁鵡	-5143
▁廁	-5144
▁90%	-5145
▁fla	-5146
pg	-5147
▁帐	-5148
▁il	-5149
▁苣	-5150
▁襪	-5151
▁1884	-5152
▁リ	-5153
▁搏	-5154
ull	-5155
▁ト	-5156
▁钧	-5157
▁kn	-5158
▁sar	-5159
▁sol	-5160
▁悦	-5161
▁芥	-5162
▁荀	-5163
▁谣	-5164
▁哉	-5165
▁坠	-5166
ield	-5167
▁750	-5168
▁〔	-5169
▁〕	-5170
▁埼	-5171
▁沽	-5172
▁蛮	-5173
▁阐	-5174
▁260	-5175
▁sam	-5176
▁な	-5177
▁磐	-5178
▁绳	-5179
▁1861	-5180
▁д	-5181
▁嗜	-5182
▁芸	-5183
oug	-5184
▁cpu	-5185
▁thom	-5186
▁谨	-5187
▁琛	-5188
▁藓	-5189
▁抨	-5190
▁ha	-5191
▁big	-5192
▁姦	-5193
▁ol	-5194
ki	-5195
▁滯	-5196
ven	-5197
▁蛾	-5198
ral	-5199
phone	-5200
▁誅	-5201
▁烃	-5202
▁熹	-5203
▁sal	-5204
▁帛	-5205
▁惧	-5206
to	-5207
▁兜	-5208
▁sun	-5209
ology	-5210
▁that	-5211
▁睹	-5212
▁1887	-5213
▁侣	-5214
▁撕	-5215
▁123	-5216
▁from	-5217
▁沸	-5218
▁滲	-5219
▁80%	-5220
▁2500	-5221
▁king	-5222
▁vir	-5223
▁time	-5224
▁1850	-5225
fl	-5226
▁ä	-5227
▁浚	-5228
▁茱	-5229
▁镶	-5230
▁org	-5231
▁pla	-5232
▁mont	-5233
▁丢	-5234
▁佣	-5235
▁暱	-5236
▁vi	-5237
▁show	-5238
▁滙	-5239
▁ibm	-5240
▁1892	-5241
▁sing	-5242
bl	-5243
▁に	-5244
▁憾	-5245
line	-5246
▁gdp	-5247
▁320	-5248
▁俾	-5249
▁晏	-5250
▁菸	-5251
ution	-5252
▁楓	-5253
▁靶	-5254
▁utc	-5255
▁尘	-5256
▁摺	-5257
▁煽	-5258
▁vol	-5259
▁bill	-5260
▁劲	-5261
▁戍	-5262
▁綏	-5263
berg	-5264
▁1893	-5265
▁techn	-5266
▁帜	-5267
▁san	-5268
fa	-5269
▁alb	-5270
▁祂	-5271
▁蔷	-5272
▁譴	-5273
▁bre	-5274
▁1862	-5275
▁1888	-5276
▁壟	-5277
▁溴	-5278
▁瀛	-5279
▁厌	-5280
▁皓	-5281
▁綴	-5282
03	-5283
▁り	-5284
▁偕	-5285
▁挤	-5286
▁穹	-5287
▁艰	-5288
▁class	-5289
▁炬	-5290
▁鲸	-5291
▁she	-5292
04	-5293
mun	-5294
dy	-5295
▁咪	-5296
▁妝	-5297
▁矽	-5298
▁禺	-5299
▁窦	-5300
ubl	-5301
▁vo	-5302
▁懋	-5303
▁鲤	-5304
▁dj	-5305
▁cat	-5306
▁michael	-5307
▁る	-5308
▁煞	-5309
▁蟬	-5310
▁fir	-5311
▁jap	-5312
▁艱	-5313
rol	-5314
▁arm	-5315
▁谴	-5316
▁龚	-5317
200	-5318
▁湊	-5319
iff	-5320
▁澀	-5321
▁畴	-5322
▁酉	-5323
▁oh	-5324
▁games	-5325
▁蕩	-5326
▁kar	-5327
undam	-5328
▁癒	-5329
▁霹	-5330
ini	-5331
▁栓	-5332
▁缪	-5333
▁mg	-5334
▁唤	-5335
▁篡	-5336
▁绣	-5337
uck	-5338
▁煥	-5339
▁隅	-5340
▁mi	-5341
▁雛	-5342
▁121	-5343
▁1868	-5344
▁酚	-5345
▁釘	-5346
▁鍊	-5347
▁sg	-5348
▁ben	-5349
▁箕	-5350
▁衞	-5351
▁122	-5352
▁mart	-5353
▁intel	-5354
▁缀	-5355
▁129	-5356
▁bet	-5357
▁tre	-5358
▁γ	-5359
▁瑤	-5360
▁1848	-5361
▁π	-5362
▁蚊	-5363
▁1876	-5364
ertain	-5365
▁洩	-5366
▁jun	-5367
▁−	-5368
▁泾	-5369
inc	-5370
▁lt	-5371
▁550	-5372
▁谍	-5373
02	-5374
▁娄	-5375
▁蘚	-5376
rit	-5377
▁hen	-5378
06	-5379
▁爷	-5380
▁翟	-5381
▁boy	-5382
▁堇	-5383
▁誦	-5384
▁record	-5385
100	-5386
▁650	-5387
▁type	-5388
▁oricon	-5389
▁妄	-5390
▁1883	-5391
▁皂	-5392
▁祕	-5393
▁铎	-5394
form	-5395
ication	-5396
▁妨	-5397
▁祚	-5398
▁邹	-5399
▁镑	-5400
▁殲	-5401
▁贖	-5402
▁gener	-5403
▁iphone	-5404
▁м	-5405
▁ま	-5406
▁豎	-5407
▁逗	-5408
▁鄒	-5409
▁钙	-5410
▁ve	-5411
▁ios	-5412
▁black	-5413
ange	-5414
▁敞	-5415
▁曙	-5416
▁贩	-5417
▁闹	-5418
▁1864	-5419
▁jack	-5420
▁缮	-5421
▁黜	-5422
▁college	-5423
▁椭	-5424
▁艷	-5425
▁荫	-5426
▁譬	-5427
▁轩	-5428
▁127	-5429
▁der	-5430
▁inc	-5431
▁蘊	-5432
▁鑒	-5433
▁薰	-5434
▁乍	-5435
ator	-5436
▁270	-5437
▁70%	-5438
▁曜	-5439
▁閻	-5440
▁ok	-5441
▁峭	-5442
▁dan	-5443
▁mil	-5444
▁竖	-5445
▁119	-5446
▁media	-5447
▁冻	-5448
▁bel	-5449
▁wii	-5450
▁arch	-5451
▁serv	-5452
ep	-5453
▁滥	-5454
our	-5455
▁atp	-5456
▁屑	-5457
▁硼	-5458
▁鈔	-5459
▁bi	-5460
▁bm	-5461
▁hot	-5462
▁les	-5463
08	-5464
▁澜	-5465
▁瘟	-5466
▁sky	-5467
▁unix	-5468
▁傀	-5469
▁俸	-5470
▁慨	-5471
▁瑛	-5472
▁sub	-5473
▁楞	-5474
▁nat	-5475
▁euro	-5476
▁羟	-5477
▁舷	-5478
▁蕴	-5479
▁fm	-5480
▁126	-5481
▁坟	-5482
▁暮	-5483
▁濠	-5484
▁臧	-5485
▁鈾	-5486
▁gundam	-5487
bi	-5488
fs	-5489
▁崑	-5490
▁氦	-5491
▁ul	-5492
▁133	-5493
▁award	-5494
▁烂	-5495
▁鑫	-5496
▁麾	-5497
▁1877	-5498
▁port	-5499
▁aut	-5500
▁rom	-5501
▁entertain	-5502
fc	-5503
▁骤	-5504
▁fire	-5505
▁く	-5506
▁靴	-5507
ety	-5508
▁177	-5509
▁fil	-5510
uss	-5511
▁est	-5512
▁tour	-5513
▁祷	-5514
ano	-5515
por	-5516
▁145	-5517
▁ga	-5518
▁1879	-5519
▁entertainment	-5520
▁彤	-5521
▁稠	-5522
▁羲	-5523
ita	-5524
▁ju	-5525
▁produ	-5526
▁巳	-5527
▁灶	-5528
▁繹	-5529
ipt	-5530
net	-5531
ris	-5532
▁dem	-5533
▁儡	-5534
▁赌	-5535
▁ant	-5536
▁best	-5537
▁捍	-5538
▁lang	-5539
cd	-5540
▁き	-5541
▁刹	-5542
▁峪	-5543
▁萝	-5544
min	-5545
▁1874	-5546
▁club	-5547
▁鈕	-5548
▁1840	-5549
▁charles	-5550
▁靡	-5551
▁鹹	-5552
▁1865	-5553
▁japan	-5554
▁芋	-5555
▁dire	-5556
▁wat	-5557
ada	-5558
▁nt	-5559
▁env	-5560
itter	-5561
▁嬪	-5562
▁燦	-5563
▁肽	-5564
▁虾	-5565
▁144	-5566
▁associ	-5567
▁george	-5568
▁吡	-5569
▁驰	-5570
▁1872	-5571
▁1891	-5572
▁7000	-5573
▁richard	-5574
▁吵	-5575
▁夭	-5576
▁渾	-5577
▁煎	-5578
che	-5579
▁cre	-5580
07	-5581
wn	-5582
▁疯	-5583
▁house	-5584
▁〜	-5585
▁淇	-5586
▁葫	-5587
▁蟻	-5588
▁諫	-5589
urt	-5590
▁1863	-5591
▁land	-5592
▁樱	-5593
▁笃	-5594
▁謬	-5595
▁闡	-5596
▁λ	-5597
▁缔	-5598
▁40%	-5599
▁mid	-5600
▁娟	-5601
▁拦	-5602
▁莓	-5603
▁谕	-5604
yth	-5605
▁175	-5606
▁鲨	-5607
▁1875	-5608
▁σ	-5609
▁さ	-5610
▁胥	-5611
▁轎	-5612
▁rh	-5613
ican	-5614
▁may	-5615
▁gt	-5616
▁1867	-5617
▁spec	-5618
▁壺	-5619
▁昊	-5620
▁汞	-5621
▁霄	-5622
▁165	-5623
▁ast	-5624
▁dist	-5625
▁埗	-5626
lin	-5627
▁lu	-5628
ensis	-5629
▁dream	-5630
▁у	-5631
▁渥	-5632
ump	-5633
▁斡	-5634
▁pal	-5635
▁1882	-5636
its	-5637
▁end	-5638
▁wil	-5639
▁miss	-5640
▁枣	-5641
▁笨	-5642
▁www	-5643
▁work	-5644
▁盎	-5645
▁124	-5646
▁phil	-5647
▁west	-5648
▁垦	-5649
ista	-5650
▁737	-5651
▁\	-5652
▁ッ	-5653
▁伶	-5654
▁恕	-5655
▁卤	-5656
▁沐	-5657
▁砸	-5658
▁簇	-5659
ily	-5660
▁5%	-5661
▁van	-5662
▁life	-5663
▁は	-5664
erson	-5665
▁apple	-5666
▁芮	-5667
▁amd	-5668
▁樺	-5669
▁皋	-5670
▁钥	-5671
▁隘	-5672
▁rev	-5673
▁sir	-5674
press	-5675
▁1869	-5676
▁δ	-5677
▁柜	-5678
▁篷	-5679
▁酪	-5680
▁胰	-5681
▁佬	-5682
▁1866	-5683
▁掣	-5684
▁郸	-5685
▁si	-5686
▁bus	-5687
▁匀	-5688
▁苟	-5689
ora	-5690
ors	-5691
▁stre	-5692
▁kg	-5693
▁1881	-5694
▁侮	-5695
▁潼	-5696
▁聶	-5697
▁豁	-5698
▁cv	-5699
sd	-5700
▁が	-5701
▁淄	-5702
▁ko	-5703
ella	-5704
▁1873	-5705
▁刮	-5706
▁溺	-5707
ford	-5708
▁137	-5709
▁嘯	-5710
▁垄	-5711
▁烦	-5712
▁鉤	-5713
▁咽	-5714
▁瑩	-5715
▁誇	-5716
▁鶯	-5717
▁rem	-5718
ville	-5719
▁濒	-5720
ions	-5721
▁鈉	-5722
▁60%	-5723
▁luc	-5724
▁醚	-5725
ery	-5726
ugh	-5727
▁156	-5728
▁747	-5729
▁靼	-5730
▁138	-5731
▁led	-5732
▁ram	-5733
▁tim	-5734
ula	-5735
▁first	-5736
▁陋	-5737
▁was	-5738
▁gold	-5739
▁sport	-5740
ij	-5741
▁椰	-5742
▁腥	-5743
▁滬	-5744
▁莆	-5745
ateg	-5746
▁叱	-5747
▁奚	-5748
▁泣	-5749
▁諒	-5750
▁蒜	-5751
▁1878	-5752
▁1400	-5753
▁こ	-5754
wan	-5755
▁adv	-5756
▁mel	-5757
ze	-5758
▁沦	-5759
▁炯	-5760
▁竇	-5761
▁繡	-5762
▁grand	-5763
▁direct	-5764
▁炫	-5765
▁証	-5766
▁諱	-5767
▁餓	-5768
ren	-5769
▁office	-5770
▁扔	-5771
▁project	-5772
▁ω	-5773
▁ら	-5774
▁hel	-5775
▁free	-5776
▁嶽	-5777
▁鈣	-5778
ware	-5779
▁fam	-5780
▁ger	-5781
▁冉	-5782
▁沮	-5783
▁only	-5784
▁薹	-5785
▁hol	-5786
▁8000	-5787
ws	-5788
▁壕	-5789
▁憩	-5790
▁顎	-5791
app	-5792
▁滞	-5793
▁绸	-5794
▁鎌	-5795
▁ka	-5796
▁kr	-5797
▁132	-5798
▁泪	-5799
▁膳	-5800
▁萎	-5801
▁蠟	-5802
101	-5803
ated	-5804
▁ε	-5805
▁叹	-5806
▁衢	-5807
▁鞘	-5808
▁abc	-5809
▁100%	-5810
▁1300	-5811
▁吗	-5812
▁窃	-5813
▁limited	-5814
ql	-5815
▁謊	-5816
▁if	-5817
▁html	-5818
▁thomas	-5819
▁醋	-5820
▁鉅	-5821
▁頑	-5822
▁驿	-5823
▁inf	-5824
▁log	-5825
▁妍	-5826
▁拷	-5827
▁槐	-5828
▁sr	-5829
▁cam	-5830
▁gar	-5831
ision	-5832
▁road	-5833
▁厨	-5834
▁蜡	-5835
cess	-5836
▁205	-5837
ci	-5838
▁艳	-5839
▁ann	-5840
▁幡	-5841
▁覓	-5842
▁â	-5843
▁peter	-5844
▁嘆	-5845
▁巖	-5846
▁萱	-5847
▁ob	-5848
▁kbs	-5849
▁jose	-5850
▁敛	-5851
▁隼	-5852
▁飄	-5853
▁dec	-5854
▁mad	-5855
▁鼬	-5856
▁mem	-5857
▁form	-5858
▁sony	-5859
ander	-5860
▁166	-5861
▁company	-5862
▁曦	-5863
▁this	-5864
▁ç	-5865
▁み	-5866
▁漕	-5867
▁肛	-5868
▁south	-5869
▁寝	-5870
▁晟	-5871
▁舵	-5872
▁ear	-5873
▁line	-5874
▁north	-5875
▁哆	-5876
▁垫	-5877
▁驼	-5878
bn	-5879
▁兌	-5880
▁擱	-5881
▁晖	-5882
▁pan	-5883
▁china	-5884
▁咎	-5885
▁昧	-5886
▁毯	-5887
▁阱	-5888
▁陛	-5889
▁dom	-5890
▁甬	-5891
ste	-5892
▁wid	-5893
▁hall	-5894
▁twitter	-5895
▁剃	-5896
▁莒	-5897
▁鑰	-5898
▁unic	-5899
▁悖	-5900
▁臼	-5901
▁诛	-5902
▁pi	-5903
ular	-5904
▁sum	-5905
▁侖	-5906
▁柑	-5907
▁毘	-5908
▁洼	-5909
com	-5910
▁wr	-5911
ates	-5912
cript	-5913
▁庾	-5914
▁疹	-5915
▁繆	-5916
ous	-5917
vin	-5918
▁シ	-5919
▁american	-5920
▁悄	-5921
▁惱	-5922
▁渗	-5923
▁pd	-5924
09	-5925
▁斃	-5926
▁淤	-5927
▁渲	-5928
▁绰	-5929
ester	-5930
▁ever	-5931
▁扯	-5932
▁鄞	-5933
▁鰈	-5934
vid	-5935
▁tc	-5936
▁long	-5937
▁僖	-5938
▁檬	-5939
▁纱	-5940
▁п	-5941
▁タ	-5942
▁恤	-5943
itch	-5944
▁146	-5945
▁380	-5946
▁mob	-5947
▁mtv	-5948
▁て	-5949
▁垮	-5950
▁fer	-5951
▁←	-5952
▁呆	-5953
▁墊	-5954
▁篆	-5955
ets	-5956
ura	-5957
▁aa	-5958
▁1830	-5959
▁侗	-5960
▁倩	-5961
▁廬	-5962
▁戮	-5963
001	-5964
▁franc	-5965
▁湄	-5966
▁琶	-5967
▁136	-5968
▁330	-5969
dr	-5970
▁佚	-5971
▁卉	-5972
▁苛	-5973
▁1853	-5974
▁1859	-5975
▁chem	-5976
▁over	-5977
▁お	-5978
▁姨	-5979
▁瞿	-5980
▁駝	-5981
▁roy	-5982
▁camp	-5983
▁chin	-5984
▁沾	-5985
▁衆	-5986
urus	-5987
▁134	-5988
▁ジ	-5989
▁汲	-5990
▁琵	-5991
▁笙	-5992
▁裘	-5993
▁fi	-5994
clude	-5995
▁汴	-5996
▁聆	-5997
ger	-5998
▁1857	-5999
▁records	-6000
▁愁	-6001
▁214	-6002
▁bab	-6003
▁ray	-6004
▁sci	-6005
▁sig	-6006
▁弈	-6007
▁楔	-6008
▁絨	-6009
▁131	-6010
▁mov	-6011
▁悍	-6012
▁拐	-6013
▁朽	-6014
▁槳	-6015
▁齣	-6016
▁ltd	-6017
▁nov	-6018
▁殆	-6019
▁畝	-6020
sm	-6021
ker	-6022
mus	-6023
▁139	-6024
▁mbc	-6025
ama	-6026
idge	-6027
▁dig	-6028
▁葱	-6029
▁駱	-6030
▁鳍	-6031
sch	-6032
▁寰	-6033
▁汙	-6034
eration	-6035
▁潑	-6036
▁臻	-6037
ble	-6038
iew	-6039
▁154	-6040
▁lou	-6041
▁andre	-6042
▁instit	-6043
▁ل	-6044
▁嫔	-6045
▁毙	-6046
▁綾	-6047
▁跪	-6048
▁mb	-6049
▁1841	-6050
▁good	-6051
wa	-6052
▁倆	-6053
▁磊	-6054
▁xp	-6055
▁420	-6056
▁dos	-6057
▁gnu	-6058
▁batt	-6059
▁傻	-6060
▁燮	-6061
▁稷	-6062
▁1858	-6063
▁nasa	-6064
▁association	-6065
ko	-6066
▁揆	-6067
▁灼	-6068
▁盼	-6069
▁蒐	-6070
▁蜴	-6071
unes	-6072
0%	-6073
no	-6074
▁勻	-6075
▁焕	-6076
▁绅	-6077
▁飘	-6078
▁骆	-6079
▁15%	-6080
▁168	-6081
▁沅	-6082
▁蕙	-6083
▁陂	-6084
bor	-6085
▁law	-6086
▁tro	-6087
▁152	-6088
▁ext	-6089
▁镍	-6090
▁internet	-6091
▁啸	-6092
▁诵	-6093
▁锌	-6094
▁lis	-6095
pp	-6096
▁兑	-6097
▁恥	-6098
▁驕	-6099
▁埕	-6100
▁珂	-6101
▁翊	-6102
▁饲	-6103
ani	-6104
▁td	-6105
▁jon	-6106
▁1700	-6107
▁嬌	-6108
▁滄	-6109
▁ο	-6110
▁绎	-6111
els	-6112
▁kong	-6113
▁great	-6114
▁unicode	-6115
ex	-6116
▁啶	-6117
▁媚	-6118
▁竿	-6119
▁褚	-6120
▁雉	-6121
ents	-6122
▁street	-6123
▁ロ	-6124
▁撼	-6125
ball	-6126
▁256	-6127
▁圩	-6128
▁蚜	-6129
▁霰	-6130
▁骏	-6131
ush	-6132
▁pp	-6133
▁850	-6134
▁mir	-6135
▁1854	-6136
▁壶	-6137
▁羧	-6138
▁陌	-6139
▁soci	-6140
▁蜗	-6141
▁鈍	-6142
▁vict	-6143
▁凿	-6144
▁攬	-6145
▁苓	-6146
▁遏	-6147
▁桔	-6148
urs	-6149
▁bb	-6150
mann	-6151
▁mot	-6152
▁tar	-6153
▁tem	-6154
▁1100	-6155
▁1851	-6156
▁ν	-6157
▁産	-6158
▁飢	-6159
▁sbs	-6160
▁糯	-6161
▁酱	-6162
gin	-6163
▁tai	-6164
▁ち	-6165
▁杞	-6166
erv	-6167
ason	-6168
▁340	-6169
▁def	-6170
▁doc	-6171
▁ham	-6172
▁tor	-6173
▁categ	-6174
▁studio	-6175
▁攸	-6176
▁閔	-6177
▁ova	-6178
▁202	-6179
▁あ	-6180
▁侬	-6181
▁235	-6182
▁301	-6183
▁enviro	-6184
▁±	-6185
▁ú	-6186
▁潞	-6187
▁甥	-6188
▁褶	-6189
led	-6190
▁濮	-6191
▁茛	-6192
▁訥	-6193
▁贛	-6194
▁211	-6195
ja	-6196
ny	-6197
▁25%	-6198
▁370	-6199
▁von	-6200
▁1856	-6201
▁town	-6202
▁マ	-6203
▁鳩	-6204
ague	-6205
▁jul	-6206
▁hong	-6207
▁丫	-6208
▁栅	-6209
itz	-6210
▁1%	-6211
▁gp	-6212
▁cct	-6213
▁樵	-6214
▁胱	-6215
▁魄	-6216
▁dl	-6217
▁ly	-6218
▁147	-6219
▁203	-6220
▁mal	-6221
zz	-6222
▁侃	-6223
▁谏	-6224
olf	-6225
▁153	-6226
▁hell	-6227
▁news	-6228
▁soft	-6229
▁坍	-6230
▁脾	-6231
ough	-6232
▁148	-6233
▁カ	-6234
▁澱	-6235
▁閏	-6236
▁ah	-6237
▁au	-6238
▁ll	-6239
▁151	-6240
▁island	-6241
idae	-6242
▁bal	-6243
▁squ	-6244
▁1847	-6245
▁卅	-6246
▁畸	-6247
▁fun	-6248
▁pag	-6249
▁elect	-6250
▁category	-6251
▁捆	-6252
▁泼	-6253
▁hum	-6254
▁1852	-6255
▁喃	-6256
▁檳	-6257
▁跆	-6258
▁key	-6259
ative	-6260
▁post	-6261
▁秃	-6262
fer	-6263
ila	-6264
ling	-6265
▁just	-6266
▁publ	-6267
▁г	-6268
▁嵐	-6269
▁暉	-6270
▁浜	-6271
▁缆	-6272
▁hs	-6273
▁480	-6274
▁home	-6275
▁圃	-6276
▁烘	-6277
▁珪	-6278
▁network	-6279
my	-6280
▁杠	-6281
▁躁	-6282
▁bay	-6283
▁hal	-6284
▁ret	-6285
ua	-6286
▁gb	-6287
▁lee	-6288
▁east	-6289
▁妆	-6290
▁皈	-6291
▁葆	-6292
▁鑿	-6293
▁401	-6294
▁river	-6295
ucn	-6296
burg	-6297
▁far	-6298
▁椿	-6299
▁耦	-6300
▁饿	-6301
▁158	-6302
▁1844	-6303
▁mill	-6304
ui	-6305
▁吓	-6306
▁擄	-6307
▁锯	-6308
ody	-6309
▁lar	-6310
▁弋	-6311
▁洮	-6312
▁琰	-6313
▁缠	-6314
▁ry	-6315
▁218	-6316
▁iucn	-6317
▁侈	-6318
▁甦	-6319
▁1855	-6320
▁blue	-6321
▁girls	-6322
▁餉	-6323
ney	-6324
▁sv	-6325
ally	-6326
▁but	-6327
▁song	-6328
▁ρ	-6329
▁○	-6330
▁弩	-6331
▁柵	-6332
▁鉀	-6333
▁鐮	-6334
▁gi	-6335
ache	-6336
▁妒	-6337
▁锤	-6338
▁鬍	-6339
ury	-6340
▁й	-6341
▁孺	-6342
▁踩	-6343
▁龔	-6344
▁om	-6345
▁green	-6346
▁叡	-6347
▁嫻	-6348
▁蔑	-6349
▁141	-6350
▁虢	-6351
▁誣	-6352
▁锂	-6353
▁鰨	-6354
▁鳚	-6355
▁henry	-6356
▁亏	-6357
▁窯	-6358
▁趟	-6359
▁215	-6360
▁1815	-6361
include	-6362
mo	-6363
▁嘻	-6364
▁拌	-6365
▁浊	-6366
▁143	-6367
▁167	-6368
▁how	-6369
▁champ	-6370
▁峯	-6371
ips	-6372
▁430	-6373
▁1812	-6374
▁vide	-6375
▁桅	-6376
▁砷	-6377
▁蟒	-6378
red	-6379
ific	-6380
▁206	-6381
▁221	-6382
▁rpg	-6383
wood	-6384
▁176	-6385
▁毋	-6386
▁濂	-6387
als	-6388
▁ny	-6389
▁142	-6390
▁bor	-6391
▁1846	-6392
▁pres	-6393
pc	-6394
▁@	-6395
▁谟	-6396
▁db	-6397
▁who	-6398
ru	-6399
▁唸	-6400
▁蚁	-6401
▁鷲	-6402
ther	-6403
▁1849	-6404
▁僉	-6405
▁啓	-6406
▁遁	-6407
▁173	-6408
▁tal	-6409
▁hist	-6410
▁sant	-6411
▁媳	-6412
▁撃	-6413
▁籽	-6414
▁謨	-6415
▁mt	-6416
▁208	-6417
▁225	-6418
▁cle	-6419
▁soc	-6420
▁progr	-6421
▁ə	-6422
▁壢	-6423
▁芷	-6424
▁ai	-6425
▁204	-6426
▁frank	-6427
ns	-6428
▁τ	-6429
▁莘	-6430
▁闯	-6431
ats	-6432
▁az	-6433
▁159	-6434
▁mak	-6435
▁var	-6436
▁ι	-6437
▁瑋	-6438
asc	-6439
▁410	-6440
▁cra	-6441
▁inv	-6442
▁leg	-6443
▁white	-6444
▁儉	-6445
▁163	-6446
▁jean	-6447
▁stand	-6448
ih	-6449
▁瀾	-6450
▁蠕	-6451
▁靂	-6452
ipp	-6453
ira	-6454
▁api	-6455
▁die	-6456
▁ros	-6457
▁band	-6458
▁online	-6459
xy	-6460
▁〇	-6461
▁喘	-6462
▁鏢	-6463
rop	-6464
▁md	-6465
▁tur	-6466
▁server	-6467
▁殭	-6468
▁缉	-6469
res	-6470
ison	-6471
▁310	-6472
▁bob	-6473
▁ign	-6474
▁sat	-6475
▁cast	-6476
▁刁	-6477
▁匆	-6478
▁咏	-6479
▁袜	-6480
ota	-6481
rich	-6482
▁que	-6483
ather	-6484
▁bank	-6485
▁width	-6486
▁蔥	-6487
▁铀	-6488
▁陨	-6489
201	-6490
ops	-6491
▁core	-6492
▁joseph	-6493
li	-6494
▁ς	-6495
▁轿	-6496
▁162	-6497
▁tbs	-6498
▁xml	-6499
▁じ	-6500
▁澈	-6501
▁燭	-6502
▁cf	-6503
▁dar	-6504
▁nbc	-6505
▁girl	-6506
▁real	-6507
▁濬	-6508
rpm	-6509
▁238	-6510
▁usb	-6511
▁hill	-6512
▁general	-6513
▁б	-6514
▁冢	-6515
▁闰	-6516
ift	-6517
obe	-6518
▁state	-6519
▁鮨	-6520
urch	-6521
▁290	-6522
field	-6523
▁expl	-6524
▁fran	-6525
gy	-6526
▁俭	-6527
▁泸	-6528
▁畑	-6529
▁縛	-6530
▁襟	-6531
unc	-6532
▁engine	-6533
▁itunes	-6534
▁毆	-6535
▁茉	-6536
▁裳	-6537
▁mu	-6538
▁syn	-6539
▁1820	-6540
si	-6541
▁勐	-6542
▁筠	-6543
▁钞	-6544
▁ot	-6545
▁spr	-6546
▁栈	-6547
▁槃	-6548
▁舺	-6549
▁艋	-6550
▁薑	-6551
well	-6552
▁吼	-6553
▁赎	-6554
501	-6555
▁207	-6556
▁cross	-6557
xx	-6558
▁倦	-6559
▁圻	-6560
▁蓼	-6561
▁ice	-6562
▁ド	-6563
▁拂	-6564
▁粥	-6565
▁邕	-6566
▁陞	-6567
▁馈	-6568
ocal	-6569
▁灑	-6570
▁狠	-6571
▁瞳	-6572
▁001	-6573
▁num	-6574
▁1843	-6575
▁year	-6576
▁も	-6577
▁傣	-6578
▁樁	-6579
▁痴	-6580
▁韌	-6581
▁骂	-6582
500	-6583
ima	-6584
▁1789	-6585
ope	-6586
▁tu	-6587
ning	-6588
▁157	-6589
▁209	-6590
▁carl	-6591
▁prof	-6592
▁light	-6593
▁à	-6594
▁瀋	-6595
▁蠅	-6596
▁鋰	-6597
▁149	-6598
▁164	-6599
▁フ	-6600
▁瑕	-6601
▁遴	-6602
▁1842	-6603
▁litt	-6604
▁distr	-6605
▁battle	-6606
▁commun	-6607
▁崁	-6608
▁檻	-6609
▁氹	-6610
▁迥	-6611
ars	-6612
atic	-6613
▁bon	-6614
▁vii	-6615
ional	-6616
▁晦	-6617
▁襯	-6618
▁驛	-6619
ios	-6620
▁182	-6621
▁nav	-6622
▁two	-6623
▁1814	-6624
▁掖	-6625
▁琥	-6626
▁212	-6627
▁cons	-6628
▁united	-6629
▁ô	-6630
▁仄	-6631
▁岷	-6632
▁碉	-6633
▁鱈	-6634
301	-6635
▁216	-6636
▁僻	-6637
▁挾	-6638
▁dm	-6639
ival	-6640
▁name	-6641
▁league	-6642
oy	-6643
▁瀚	-6644
▁bur	-6645
azine	-6646
▁オ	-6647
▁姪	-6648
▁耻	-6649
▁蚕	-6650
den	-6651
▁1795	-6652
▁峇	-6653
▁斛	-6654
▁ct	-6655
▁冗	-6656
▁埤	-6657
▁愧	-6658
▁暈	-6659
▁柿	-6660
▁瀧	-6661
▁軀	-6662
▁钉	-6663
▁饋	-6664
▁1845	-6665
ington	-6666
▁mount	-6667
▁video	-6668
▁visual	-6669
▁society	-6670
ty	-6671
▁‰	-6672
▁を	-6673
▁昼	-6674
▁檗	-6675
ids	-6676
▁911	-6677
▁god	-6678
▁jac	-6679
▁isbn	-6680
▁レ	-6681
▁朕	-6682
▁琮	-6683
▁躺	-6684
ette	-6685
▁rep	-6686
▁anim	-6687
▁book	-6688
▁撈	-6689
▁潢	-6690
▁瀉	-6691
▁蝇	-6692
▁蠢	-6693
▁谜	-6694
▁鎧	-6695
ule	-6696
▁cur	-6697
earch	-6698
▁れ	-6699
▁勛	-6700
▁吠	-6701
▁硒	-6702
▁豔	-6703
pha	-6704
▁10000	-6705
▁child	-6706
▁鳅	-6707
▁men	-6708
▁way	-6709
▁vista	-6710
▁martin	-6711
▁production	-6712
▁阙	-6713
▁鷺	-6714
gen	-6715
▁dh	-6716
edia	-6717
▁222	-6718
▁dep	-6719
▁young	-6720
▁research	-6721
▁溧	-6722
▁饑	-6723
iana	-6724
▁601	-6725
▁ceo	-6726
▁has	-6727
▁poly	-6728
cy	-6729
tl	-6730
▁鷗	-6731
ird	-6732
▁xx	-6733
▁crh	-6734
▁dev	-6735
▁mobile	-6736
▁恺	-6737
▁檎	-6738
▁錘	-6739
▁171	-6740
▁cas	-6741
▁gal	-6742
▁1792	-6743
▁night	-6744
▁magazine	-6745
▁妊	-6746
▁瞞	-6747
▁輾	-6748
▁cg	-6749
raph	-6750
▁hor	-6751
▁aust	-6752
lation	-6753
▁つ	-6754
▁洙	-6755
▁鱇	-6756
une	-6757
▁172	-6758
▁sel	-6759
▁heart	-6760
iy	-6761
▁璽	-6762
▁耍	-6763
▁fu	-6764
▁169	-6765
▁181	-6766
▁184	-6767
▁223	-6768
▁disc	-6769
▁や	-6770
▁剔	-6771
▁唑	-6772
▁寢	-6773
▁悚	-6774
▁迂	-6775
isc	-6776
▁small	-6777
▁攏	-6778
▁绛	-6779
▁逵	-6780
▁酥	-6781
▁昱	-6782
▁糞	-6783
▁翎	-6784
▁螯	-6785
▁顽	-6786
ape	-6787
▁pv	-6788
▁640	-6789
▁bit	-6790
▁pass	-6791
▁radio	-6792
ni	-6793
▁キ	-6794
▁礫	-6795
▁蓟	-6796
601	-6797
▁217	-6798
▁440	-6799
▁720	-6800
▁熵	-6801
▁訶	-6802
▁钊	-6803
▁锈	-6804
▁hu	-6805
▁610	-6806
▁cho	-6807
▁pac	-6808
▁sin	-6809
▁1776	-6810
▁mult	-6811
▁暇	-6812
▁猷	-6813
▁矚	-6814
▁诬	-6815
▁box	-6816
▁cbs	-6817
▁your	-6818
▁婢	-6819
▁鮟	-6820
amm	-6821
▁cry	-6822
▁model	-6823
▁咳	-6824
▁扈	-6825
▁櫛	-6826
▁荧	-6827
peg	-6828
▁pm	-6829
▁179	-6830
▁75%	-6831
▁777	-6832
▁cha	-6833
▁institute	-6834
▁κ	-6835
▁す	-6836
▁憐	-6837
▁枋	-6838
▁賤	-6839
▁鰍	-6840
bit	-6841
▁foot	-6842
▁mary	-6843
▁louis	-6844
▁manag	-6845
▁little	-6846
▁φ	-6847
▁掷	-6848
▁矯	-6849
▁釉	-6850
701	-6851
801	-6852
▁228	-6853
▁rub	-6854
▁run	-6855
▁綺	-6856
▁緋	-6857
▁薨	-6858
▁詛	-6859
▁钝	-6860
och	-6861
▁rd	-6862
▁ub	-6863
▁183	-6864
▁jump	-6865
▁だ	-6866
▁螂	-6867
▁ti	-6868
▁mit	-6869
▁son	-6870
vidia	-6871
▁cctv	-6872
▁smith	-6873
▁nvidia	-6874
fe	-6875
▁俩	-6876
▁槭	-6877
▁衬	-6878
oid	-6879
▁255	-6880
▁3500	-6881
▁tele	-6882
▁я	-6883
▁忻	-6884
▁皿	-6885
▁禿	-6886
▁醣	-6887
force	-6888
ks	-6889
▁囑	-6890
▁帘	-6891
▁幂	-6892
▁訝	-6893
▁賃	-6894
ree	-6895
▁under	-6896
▁エ	-6897
off	-6898
agon	-6899
▁460	-6900
▁mur	-6901
▁metac	-6902
▁victor	-6903
▁拙	-6904
▁璜	-6905
▁讳	-6906
▁诈	-6907
▁跤	-6908
ola	-6909
▁365	-6910
▁htc	-6911
▁let	-6912
▁flash	-6913
▁ن	-6914
▁婁	-6915
▁逍	-6916
▁kw	-6917
▁cir	-6918
▁jan	-6919
▁service	-6920
▁咤	-6921
▁昨	-6922
▁癮	-6923
ister	-6924
▁code	-6925
▁store	-6926
▁嫉	-6927
▁孀	-6928
▁樽	-6929
▁靳	-6930
▁駭	-6931
▁219	-6932
ection	-6933
▁junior	-6934
▁佟	-6935
▁奘	-6936
▁桩	-6937
▁殯	-6938
▁膺	-6939
▁鎂	-6940
▁韬	-6941
▁颐	-6942
▁ae	-6943
▁325	-6944
▁wwe	-6945
▁eric	-6946
ization	-6947
▁曬	-6948
▁沱	-6949
▁275	-6950
▁560	-6951
▁bea	-6952
▁nad	-6953
▁sql	-6954
velop	-6955
▁匝	-6956
▁捏	-6957
▁潍	-6958
▁蝽	-6959
▁non	-6960
▁scott	-6961
zy	-6962
▁で	-6963
▁兖	-6964
▁婭	-6965
▁嶄	-6966
▁砾	-6967
board	-6968
▁1838	-6969
▁ミ	-6970
▁榨	-6971
▁渚	-6972
▁眺	-6973
▁裤	-6974
901	-6975
▁fn	-6976
ient	-6977
annel	-6978
▁1821	-6979
▁1832	-6980
▁肘	-6981
ures	-6982
▁dor	-6983
pi	-6984
▁宸	-6985
▁楨	-6986
▁璇	-6987
▁羰	-6988
▁轅	-6989
aga	-6990
ida	-6991
▁mas	-6992
▁rap	-6993
▁sem	-6994
▁1793	-6995
▁point	-6996
▁碁	-6997
▁頤	-6998
▁鴿	-6999
▁鸽	-7000
ato	-7001
eter	-7002
▁moz	-7003
▁corpor	-7004
▁bh	-7005
▁rs	-7006
▁low	-7007
▁1801	-7008
▁1836	-7009
▁グ	-7010
▁擂	-7011
▁沌	-7012
▁茫	-7013
▁麝	-7014
gbt	-7015
adem	-7016
▁jim	-7017
▁sound	-7018
▁explor	-7019
▁master	-7020
fr	-7021
▁妳	-7022
▁曳	-7023
▁諺	-7024
▁鮭	-7025
401	-7026
gar	-7027
ost	-7028
▁gm	-7029
▁ki	-7030
▁1839	-7031
▁貂	-7032
▁ml	-7033
▁161	-7034
▁apg	-7035
▁aug	-7036
▁word	-7037
▁堕	-7038
▁钮	-7039
acy	-7040
▁265	-7041
ender	-7042
▁1810	-7043
▁bern	-7044
▁剎	-7045
▁惰	-7046
▁扼	-7047
▁蜱	-7048
▁ns	-7049
▁sand	-7050
▁榔	-7051
▁歪	-7052
▁綢	-7053
▁雏	-7054
▁黯	-7055
lad	-7056
▁cu	-7057
▁gh	-7058
cast	-7059
cher	-7060
▁233	-7061
▁den	-7062
▁nam	-7063
▁mach	-7064
▁edward	-7065
mi	-7066
▁倘	-7067
▁岚	-7068
▁眶	-7069
win	-7070
ense	-7071
ural	-7072
▁213	-7073
▁540	-7074
ritic	-7075
▁1837	-7076
▁plus	-7077
▁chinese	-7078
▁metacritic	-7079
gs	-7080
▁奄	-7081
▁晝	-7082
▁煜	-7083
▁篩	-7084
▁餵	-7085
ely	-7086
▁308	-7087
▁att	-7088
▁mos	-7089
ocket	-7090
▁^	-7091
▁悶	-7092
▁斂	-7093
▁馏	-7094
out	-7095
▁psp	-7096
▁tak	-7097
▁1806	-7098
▁plan	-7099
▁brown	-7100
▁royal	-7101
▁church	-7102
▁station	-7103
▁馴	-7104
▁鼩	-7105
asy	-7106
eck	-7107
▁sen	-7108
▁control	-7109
▁express	-7110
▁special	-7111
▁巍	-7112
▁炙	-7113
▁瑄	-7114
▁莺	-7115
▁詭	-7116
▁鍛	-7117
hell	-7118
▁501	-7119
▁95%	-7120
▁arr	-7121
▁ins	-7122
▁pent	-7123
▁union	-7124
▁筛	-7125
▁蛟	-7126
▁诃	-7127
▁赚	-7128
▁鄙	-7129
▁530	-7130
▁set	-7131
▁develop	-7132
▁コ	-7133
▁偃	-7134
▁嘱	-7135
▁懶	-7136
▁熄	-7137
▁頰	-7138
▁aw	-7139
▁bc	-7140
▁hom	-7141
▁iee	-7142
ility	-7143
▁const	-7144
▁兗	-7145
▁惕	-7146
▁昵	-7147
▁炔	-7148
▁隴	-7149
▁鸠	-7150
col	-7151
▁2%	-7152
▁229	-7153
▁618	-7154
ji	-7155
▁巽	-7156
▁帧	-7157
▁鄱	-7158
▁fed	-7159
▁1790	-7160
▁ieee	-7161
▁technology	-7162
▁チ	-7163
▁迺	-7164
▁234	-7165
▁hon	-7166
▁kir	-7167
▁lam	-7168
▁brit	-7169
▁party	-7170
▁taiwan	-7171
▁坳	-7172
▁嫂	-7173
▁磋	-7174
▁鬣	-7175
▁nm	-7176
bert	-7177
▁239	-7178
▁950	-7179
▁bad	-7180
▁asia	-7181
▁glob	-7182
olution	-7183
▁sports	-7184
▁θ	-7185
▁叻	-7186
▁摊	-7187
▁牒	-7188
▁绞	-7189
▁鞑	-7190
▁黴	-7191
300	-7192
ces	-7193
cus	-7194
tps	-7195
▁802	-7196
▁氙	-7197
▁翹	-7198
▁魮	-7199
380	-7200
ohc	-7201
ret	-7202
▁lg	-7203
▁311	-7204
▁1825	-7205
▁next	-7206
ations	-7207
▁comic	-7208
▁叮	-7209
▁怜	-7210
▁桦	-7211
▁氓	-7212
▁涧	-7213
▁絮	-7214
▁綸	-7215
▁蒴	-7216
▁谅	-7217
▁鈺	-7218
▁铉	-7219
▁鵰	-7220
orm	-7221
▁liv	-7222
▁1824	-7223
▁steph	-7224
▁夔	-7225
▁嬴	-7226
▁怠	-7227
▁戛	-7228
▁菅	-7229
ona	-7230
▁dt	-7231
▁moon	-7232
▁捞	-7233
▁秤	-7234
▁arc	-7235
▁1835	-7236
▁9000	-7237
▁clar	-7238
▁mess	-7239
▁pier	-7240
▁journ	-7241
▁卞	-7242
▁殴	-7243
▁angel	-7244
▁science	-7245
▁昶	-7246
▁沥	-7247
▁fal	-7248
▁ven	-7249
▁conc	-7250
▁っ	-7251
▁劈	-7252
▁叭	-7253
▁蝉	-7254
▁麴	-7255
▁vl	-7256
▁512	-7257
▁his	-7258
▁maj	-7259
▁data	-7260
▁hard	-7261
▁mini	-7262
▁嗅	-7263
▁宕	-7264
▁尻	-7265
▁撇	-7266
▁脖	-7267
▁蛺	-7268
lam	-7269
oto	-7270
▁ax	-7271
▁174	-7272
▁224	-7273
▁305	-7274
▁bbs	-7275
▁spe	-7276
▁1644	-7277
▁https	-7278
▁嶋	-7279
▁诠	-7280
hed	-7281
ious	-7282
▁ara	-7283
▁fest	-7284
▁prot	-7285
▁ʁ	-7286
▁ハ	-7287
▁旷	-7288
▁璐	-7289
▁秧	-7290
▁笋	-7291
▁腋	-7292
▁蝸	-7293
▁鎳	-7294
▁鞠	-7295
▁3%	-7296
▁470	-7297
▁ر	-7298
▁デ	-7299
▁筲	-7300
▁锻	-7301
fox	-7302
ote	-7303
▁rt	-7304
ices	-7305
star	-7306
▁245	-7307
▁249	-7308
▁580	-7309
▁1796	-7310
▁1822	-7311
▁1831	-7312
▁channel	-7313
▁ы	-7314
▁佃	-7315
▁鹛	-7316
hem	-7317
▁pt	-7318
▁ze	-7319
▁620	-7320
▁like	-7321
▁build	-7322
▁槓	-7323
▁瀝	-7324
▁蘑	-7325
▁酌	-7326
▁ri	-7327
2000	-7328
over	-7329
▁gab	-7330
▁jer	-7331
▁peop	-7332
▁space	-7333
uz	-7334
ym	-7335
▁乂	-7336
▁亢	-7337
▁孛	-7338
▁搁	-7339
▁昕	-7340
▁烽	-7341
▁羹	-7342
ize	-7343
mhz	-7344
ple	-7345
▁232	-7346
▁gov	-7347
▁pap	-7348
▁vers	-7349
▁pagasa	-7350
▁璞	-7351
▁藜	-7352
▁鍍	-7353
lor	-7354
▁nd	-7355
raft	-7356
▁390	-7357
▁uss	-7358
▁1813	-7359
▁have	-7360
▁after	-7361
▁maria	-7362
▁onlyinclude	-7363
▁ê	-7364
▁憎	-7365
▁汛	-7366
▁炀	-7367
▁笈	-7368
esh	-7369
max	-7370
wor	-7371
elle	-7372
ston	-7373
▁262	-7374
▁701	-7375
▁ker	-7376
▁down	-7377
▁ipod	-7378
▁lord	-7379
▁comput	-7380
▁伎	-7381
▁凑	-7382
▁哮	-7383
▁唔	-7384
▁颍	-7385
▁龛	-7386
ater	-7387
ider	-7388
▁dark	-7389
▁langu	-7390
jo	-7391
▁ي	-7392
▁拇	-7393
▁掙	-7394
▁撓	-7395
▁檸	-7396
▁涿	-7397
▁羯	-7398
▁谎	-7399
▁铬	-7400
stein	-7401
▁inde	-7402
▁lady	-7403
▁europe	-7404
▁second	-7405
▁丐	-7406
▁吒	-7407
▁晒	-7408
▁洒	-7409
▁賂	-7410
▁wa	-7411
▁cup	-7412
▁card	-7413
fo	-7414
▁パ	-7415
▁劭	-7416
▁啄	-7417
▁癱	-7418
aya	-7419
▁520	-7420
▁dam	-7421
▁georg	-7422
▁ч	-7423
▁サ	-7424
▁懈	-7425
▁絞	-7426
▁颅	-7427
▁226	-7428
▁deb	-7429
▁2100	-7430
▁mozilla	-7431
▁christian	-7432
▁corporation	-7433
▁歙	-7434
▁蝎	-7435
▁骄	-7436
ran	-7437
rick	-7438
▁had	-7439
iness	-7440
▁1791	-7441
▁1807	-7442
▁cell	-7443
▁lamb	-7444
▁design	-7445
pn	-7446
▁ë	-7447
▁佗	-7448
▁蠍	-7449
▁诰	-7450
▁邺	-7451
▁雳	-7452
▁od	-7453
vent	-7454
▁254	-7455
▁level	-7456
▁explorer	-7457
▁焘	-7458
▁篠	-7459
▁簾	-7460
▁鳄	-7461
gan	-7462
▁ni	-7463
▁py	-7464
arch	-7465
inal	-7466
▁323	-7467
▁1775	-7468
▁η	-7469
▁け	-7470
▁穫	-7471
▁豈	-7472
▁鄴	-7473
▁wi	-7474
▁wo	-7475
ship	-7476
▁237	-7477
▁251	-7478
▁510	-7479
▁dol	-7480
▁fox	-7481
▁ing	-7482
▁som	-7483
▁1816	-7484
▁right	-7485
▁綬	-7486
▁荼	-7487
▁蠶	-7488
▁醯	-7489
▁鲷	-7490
▁eb	-7491
▁246	-7492
sport	-7493
▁1794	-7494
▁1834	-7495
▁muse	-7496
▁found	-7497
▁francis	-7498
▁咐	-7499
▁晷	-7500
▁淦	-7501
▁1828	-7502
▁firefox	-7503
▁揽	-7504
▁浣	-7505
ito	-7506
pro	-7507
ume	-7508
▁252	-7509
other	-7510
▁1788	-7511
▁adam	-7512
▁last	-7513
▁more	-7514
▁york	-7515
▁enter	-7516
▁phone	-7517
▁inform	-7518
▁ī	-7519
▁郢	-7520
▁鳌	-7521
ray	-7522
ible	-7523
▁alf	-7524
▁bey	-7525
▁rog	-7526
▁what	-7527
▁digital	-7528
vi	-7529
▁わ	-7530
▁揉	-7531
▁曇	-7532
▁瞰	-7533
▁郴	-7534
▁镁	-7535
▁ey	-7536
▁va	-7537
▁yu	-7538
▁227	-7539
▁303	-7540
▁alt	-7541
▁equ	-7542
▁mol	-7543
aster	-7544
▁1833	-7545
ograph	-7546
▁again	-7547
▁☆	-7548
▁彷	-7549
▁滔	-7550
▁璟	-7551
▁莹	-7552
▁赂	-7553
▁鈎	-7554
▁馥	-7555
cle	-7556
kin	-7557
▁qq	-7558
▁map	-7559
▁ult	-7560
▁software	-7561
▁慷	-7562
ness	-7563
▁621	-7564
▁680	-7565
▁978	-7566
▁ash	-7567
▁aud	-7568
▁arts	-7569
▁matt	-7570
▁adobe	-7571
▁touch	-7572
▁旌	-7573
▁熏	-7574
▁瓮	-7575
▁荚	-7576
▁蝗	-7577
▁蝨	-7578
▁pk	-7579
▁268	-7580
▁pin	-7581
cs	-7582
▁з	-7583
▁乖	-7584
▁儂	-7585
▁挨	-7586
▁熬	-7587
▁稼	-7588
▁缚	-7589
▁銓	-7590
▁驴	-7591
▁鮃	-7592
▁鹦	-7593
▁bf	-7594
aker	-7595
▁266	-7596
▁307	-7597
▁cit	-7598
▁1780	-7599
▁1829	-7600
▁prem	-7601
▁rail	-7602
▁champion	-7603
nt	-7604
▁ウ	-7605
▁巔	-7606
▁徘	-7607
▁桨	-7608
▁榈	-7609
▁漱	-7610
▁瓯	-7611
▁闕	-7612
ique	-7613
▁ace	-7614
▁cnn	-7615
▁2300	-7616
▁force	-7617
▁聿	-7618
▁誡	-7619
▁辗	-7620
iga	-7621
▁cb	-7622
▁304	-7623
▁gala	-7624
▁rain	-7625
▁operation	-7626
▁ь	-7627
▁尬	-7628
▁睞	-7629
▁羈	-7630
▁鋅	-7631
▁鑾	-7632
bus	-7633
ader	-7634
down	-7635
▁277	-7636
▁425	-7637
▁630	-7638
▁960	-7639
▁asc	-7640
▁tan	-7641
▁1823	-7642
▁hello	-7643
▁square	-7644
je	-7645
▁š	-7646
▁テ	-7647
▁プ	-7648
▁淖	-7649
▁祉	-7650
▁荠	-7651
▁躬	-7652
▁鸞	-7653
cel	-7654
get	-7655
▁vs	-7656
esis	-7657
▁241	-7658
▁767	-7659
▁call	-7660
▁counc	-7661
▁佘	-7662
▁呤	-7663
▁檜	-7664
▁滁	-7665
▁玺	-7666
▁踝	-7667
▁pu	-7668
ency	-7669
onom	-7670
▁ren	-7671
▁1799	-7672
▁pala	-7673
▁football	-7674
▁ニ	-7675
▁ャ	-7676
▁屎	-7677
▁徊	-7678
▁櫚	-7679
▁酗	-7680
▁镰	-7681
▁1826	-7682
▁hold	-7683
▁寥	-7684
▁挠	-7685
▁窺	-7686
▁衮	-7687
▁韃	-7688
ipe	-7689
▁ru	-7690
▁tg	-7691
▁285	-7692
▁asp	-7693
▁council	-7694
▁僭	-7695
▁槌	-7696
▁熾	-7697
400	-7698
▁295	-7699
▁kde	-7700
▁1809	-7701
▁beat	-7702
▁princ	-7703
▁alexander	-7704
▁査	-7705
▁睾	-7706
▁醮	-7707
▁288	-7708
▁338	-7709
▁780	-7710
▁901	-7711
▁chi	-7712
▁cook	-7713
▁prim	-7714
▁global	-7715
ao	-7716
▁覃	-7717
▁躯	-7718
▁遐	-7719
▁餡	-7720
car	-7721
rey	-7722
row	-7723
▁242	-7724
▁318	-7725
▁cin	-7726
▁emu	-7727
▁lum	-7728
▁old	-7729
▁1804	-7730
▁happ	-7731
▁lond	-7732
▁呀	-7733
▁娠	-7734
▁梢	-7735
▁澧	-7736
▁耽	-7737
key	-7738
▁ft	-7739
▁jt	-7740
▁um	-7741
▁312	-7742
▁315	-7743
▁fri	-7744
▁rod	-7745
▁yah	-7746
▁plat	-7747
▁sign	-7748
▁academ	-7749
▁謗	-7750
▁轍	-7751
▁钵	-7752
rad	-7753
uel	-7754
zer	-7755
▁660	-7756
▁php	-7757
▁tam	-7758
▁1798	-7759
▁fant	-7760
▁frame	-7761
▁fried	-7762
oe	-7763
▁姥	-7764
▁柩	-7765
▁烛	-7766
▁甯	-7767
▁皱	-7768
▁窪	-7769
▁贻	-7770
▁邳	-7771
▁钛	-7772
▁韧	-7773
omb	-7774
▁arg	-7775
▁ath	-7776
▁tel	-7777
▁film	-7778
▁驯	-7779
▁驹	-7780
igo	-7781
▁sb	-7782
atus	-7783
▁253	-7784
▁gps	-7785
▁ske	-7786
▁lake	-7787
▁sund	-7788
▁district	-7789
zo	-7790
▁و	-7791
▁バ	-7792
▁冼	-7793
▁凋	-7794
▁嚮	-7795
▁婺	-7796
▁滦	-7797
▁甩	-7798
▁瘓	-7799
▁踞	-7800
▁麽	-7801
osp	-7802
▁bg	-7803
▁801	-7804
▁gun	-7805
▁kon	-7806
▁fair	-7807
▁gard	-7808
▁daniel	-7809
▁public	-7810
▁凳	-7811
▁妲	-7812
▁澡	-7813
▁灸	-7814
▁羁	-7815
▁葺	-7816
▁蔔	-7817
▁鈦	-7818
▁鞅	-7819
▁鹘	-7820
ika	-7821
▁np	-7822
▁243	-7823
▁244	-7824
▁exp	-7825
ython	-7826
▁jeff	-7827
kg	-7828
▁م	-7829
▁喆	-7830
▁晕	-7831
▁歳	-7832
▁玟	-7833
▁蟠	-7834
▁鏽	-7835
▁鹊	-7836
▁ff	-7837
▁sf	-7838
ters	-7839
▁273	-7840
▁306	-7841
▁rat	-7842
▁1808	-7843
▁1819	-7844
▁alpha	-7845
▁andrew	-7846
▁august	-7847
▁summer	-7848
kh	-7849
▁□	-7850
▁錨	-7851
▁og	-7852
face	-7853
▁4500	-7854
▁beta	-7855
▁people	-7856
▁よ	-7857
▁兮	-7858
▁薈	-7859
▁镀	-7860
uld	-7861
▁bs	-7862
rome	-7863
▁emi	-7864
▁ken	-7865
▁1802	-7866
▁fact	-7867
▁sche	-7868
▁wood	-7869
ascript	-7870
▁桢	-7871
▁洵	-7872
▁稟	-7873
▁鄺	-7874
▁鎚	-7875
▁髻	-7876
▁鱨	-7877
▁鵑	-7878
▁271	-7879
▁276	-7880
▁570	-7881
▁757	-7882
▁eff	-7883
▁mun	-7884
▁mvp	-7885
▁ple	-7886
▁block	-7887
▁centre	-7888
▁咕	-7889
▁惶	-7890
▁祜	-7891
▁锰	-7892
▁gd	-7893
▁fly	-7894
▁final	-7895
▁children	-7896
▁唾	-7897
▁捻	-7898
▁犍	-7899
▁罔	-7900
mon	-7901
▁tt	-7902
▁670	-7903
▁gpl	-7904
▁hit	-7905
▁mig	-7906
▁stad	-7907
▁basic	-7908
▁train	-7909
▁ガ	-7910
▁娇	-7911
▁癖	-7912
▁睢	-7913
▁苇	-7914
▁骷	-7915
olk	-7916
▁eg	-7917
tern	-7918
▁286	-7919
▁333	-7920
▁bud	-7921
▁2022	-7922
▁ipad	-7923
▁lgbt	-7924
▁social	-7925
▁ナ	-7926
▁唆	-7927
▁棧	-7928
▁泻	-7929
▁灿	-7930
▁瘫	-7931
▁fif	-7932
▁pen	-7933
▁1818	-7934
▁prop	-7935
▁virt	-7936
▁front	-7937
▁water	-7938
nd	-7939
▁涪	-7940
▁窒	-7941
▁蕪	-7942
nes	-7943
oma	-7944
iter	-7945
▁007	-7946
▁324	-7947
iller	-7948
▁orig	-7949
▁chris	-7950
▁friend	-7951
kt	-7952
▁ɛ	-7953
▁ひ	-7954
▁崧	-7955
▁愍	-7956
▁摹	-7957
▁碌	-7958
▁訣	-7959
▁铵	-7960
▁驸	-7961
▁bt	-7962
▁231	-7963
▁248	-7964
▁415	-7965
▁astro	-7966
▁javascript	-7967
hp	-7968
▁鉉	-7969
▁飆	-7970
▁ku	-7971
▁nc	-7972
aven	-7973
heim	-7974
▁258	-7975
▁296	-7976
▁bug	-7977
▁pay	-7978
▁wom	-7979
▁pack	-7980
▁tvbs	-7981
▁which	-7982
▁懇	-7983
▁柠	-7984
▁瘾	-7985
▁骰	-7986
▁ld	-7987
▁bir	-7988
▁1783	-7989
▁2200	-7990
▁london	-7991
▁geforce	-7992
▁翘	-7993
▁闾	-7994
ili	-7995
▁kl	-7996
anth	-7997
▁236	-7998
▁742	-7999
▁1817	-8000
▁base	-8001
▁head	-8002
▁tran	-8003
▁journal	-8004
▁佼	-8005
▁俏	-8006
▁絃	-8007
▁鳃	-8008
ami	-8009
▁hi	-8010
▁257	-8011
▁264	-8012
▁357	-8013
▁hop	-8014
▁ide	-8015
▁por	-8016
▁ß	-8017
▁ム	-8018
▁佥	-8019
▁嘌	-8020
▁恼	-8021
▁撾	-8022
▁歹	-8023
iii	-8024
uble	-8025
untu	-8026
▁830	-8027
▁ban	-8028
▁fut	-8029
▁2600	-8030
▁vocal	-8031
yt	-8032
▁ñ	-8033
▁ィ	-8034
▁珉	-8035
▁疣	-8036
▁竄	-8037
▁釗	-8038
▁飪	-8039
ots	-8040
ros	-8041
▁690	-8042
▁tcp	-8043
▁1803	-8044
▁dest	-8045
▁russ	-8046
▁wild	-8047
▁earth	-8048
▁ょ	-8049
▁嗓	-8050
▁嬉	-8051
▁栾	-8052
▁浒	-8053
▁筵	-8054
▁薊	-8055
rie	-8056
tor	-8057
▁hp	-8058
▁cop	-8059
▁mom	-8060
▁swe	-8061
▁1787	-8062
▁albert	-8063
▁awards	-8064
▁喂	-8065
▁怯	-8066
▁攘	-8067
▁槿	-8068
▁瓚	-8069
▁粽	-8070
▁脷	-8071
▁蓓	-8072
eta	-8073
▁ie	-8074
▁ja	-8075
ines	-8076
▁279	-8077
▁334	-8078
▁386	-8079
▁710	-8080
▁our	-8081
▁rac	-8082
▁leon	-8083
▁villa	-8084
▁central	-8085
▁愷	-8086
▁螈	-8087
▁饷	-8088
bar	-8089
▁269	-8090
▁335	-8091
▁490	-8092
▁aaa	-8093
ident	-8094
▁1661	-8095
▁1811	-8096
▁2021	-8097
▁baby	-8098
▁傢	-8099
▁叩	-8100
▁嘧	-8101
▁娩	-8102
▁孽	-8103
▁拢	-8104
▁旻	-8105
▁泓	-8106
▁煒	-8107
▁窘	-8108
▁粲	-8109
▁莪	-8110
▁蝰	-8111
▁铲	-8112
▁鹭	-8113
▁vh	-8114
▁247	-8115
▁328	-8116
▁525	-8117
▁fel	-8118
▁nar	-8119
▁pdf	-8120
▁sor	-8121
inger	-8122
▁1827	-8123
▁hand	-8124
▁market	-8125
▁python	-8126
▁屁	-8127
▁惇	-8128
▁湍	-8129
▁羨	-8130
▁鼐	-8131
cho	-8132
ias	-8133
ova	-8134
▁fx	-8135
▁ye	-8136
mond	-8137
▁730	-8138
▁mah	-8139
▁meg	-8140
▁1805	-8141
▁human	-8142
▁program	-8143
▁弛	-8144
▁疵	-8145
▁籬	-8146
ati	-8147
bon	-8148
men	-8149
▁314	-8150
▁348	-8151
▁say	-8152
▁viv	-8153
▁1777	-8154
▁咲	-8155
▁柚	-8156
▁栎	-8157
▁楹	-8158
▁滘	-8159
▁绶	-8160
▁蔻	-8161
don	-8162
less	-8163
▁263	-8164
▁309	-8165
▁355	-8166
▁758	-8167
▁903	-8168
▁blu	-8169
▁get	-8170
▁well	-8171
▁攪	-8172
▁杵	-8173
▁浇	-8174
▁瑁	-8175
▁筱	-8176
320	-8177
con	-8178
val	-8179
▁meth	-8180
▁婕	-8181
▁岂	-8182
▁炱	-8183
▁燊	-8184
▁痊	-8185
▁绢	-8186
▁镐	-8187
str	-8188
▁pg	-8189
▁ron	-8190
▁sla	-8191
▁1750	-8192
▁gall	-8193
▁family	-8194
▁development	-8195
▁堃	-8196
▁忱	-8197
▁扒	-8198
▁缕	-8199
▁鹵	-8200
▁kd	-8201
▁uc	-8202
▁299	-8203
▁302	-8204
▁313	-8205
▁880	-8206
▁bat	-8207
▁lat	-8208
▁psy	-8209
▁1770	-8210
▁fort	-8211
▁stra	-8212
▁dance	-8213
▁place	-8214
▁festival	-8215
sl	-8216
▁ろ	-8217
▁曠	-8218
▁滸	-8219
▁筏	-8220
▁紓	-8221
▁谒	-8222
iko	-8223
una	-8224
▁589	-8225
▁820	-8226
▁2400	-8227
▁shar	-8228
▁sour	-8229
▁information	-8230
▁ブ	-8231
▁儼	-8232
▁叟	-8233
▁寞	-8234
▁抖	-8235
▁琨	-8236
▁瘧	-8237
▁蕈	-8238
▁誥	-8239
▁贮	-8240
▁鮡	-8241
▁rf	-8242
▁590	-8243
▁aim	-8244
▁pos	-8245
▁sts	-8246
▁anth	-8247
▁bell	-8248
▁mike	-8249
▁process	-8250
ti	-8251
▁纶	-8252
▁膩	-8253
▁锚	-8254
▁鰂	-8255
ado	-8256
bsd	-8257
▁ea	-8258
▁nu	-8259
play	-8260
▁281	-8261
▁1645	-8262
▁1648	-8263
▁steve	-8264
▁edition	-8265
▁え	-8266
▁皺	-8267
▁581	-8268
▁85%	-8269
▁dat	-8270
▁kat	-8271
▁sus	-8272
▁arth	-8273
▁chan	-8274
▁educ	-8275
▁court	-8276
▁refer	-8277
▁beyond	-8278
ng	-8279
nm	-8280
▁せ	-8281
▁珮	-8282
▁葦	-8283
▁諦	-8284
▁鴞	-8285
aro	-8286
bra	-8287
iger	-8288
▁298	-8289
▁860	-8290
▁980	-8291
▁ten	-8292
▁fall	-8293
▁soul	-8294
▁test	-8295
kb	-8296
▁琢	-8297
▁ia	-8298
▁rc	-8299
▁cab	-8300
▁hat	-8301
▁alan	-8302
▁appl	-8303
▁drive	-8304
▁secret	-8305
▁č	-8306
▁枉	-8307
▁珲	-8308
▁罂	-8309
▁逕	-8310
▁酐	-8311
her	-8312
▁412	-8313
▁760	-8314
▁conn	-8315
▁spir	-8316
▁virgin	-8317
▁management	-8318
ef	-8319
▁涩	-8320
▁溼	-8321
▁炽	-8322
▁琬	-8323
▁畲	-8324
▁诫	-8325
alth	-8326
ince	-8327
itan	-8328
▁267	-8329
▁319	-8330
▁din	-8331
▁joe	-8332
▁perf	-8333
▁anton	-8334
▁language	-8335
yd	-8336
▁亳	-8337
▁撮	-8338
▁貯	-8339
ago	-8340
ria	-8341
sen	-8342
anda	-8343
▁272	-8344
▁326	-8345
▁327	-8346
▁brt	-8347
▁raw	-8348
▁und	-8349
▁1582	-8350
▁1650	-8351
▁lind	-8352
▁seed	-8353
▁round	-8354
osaurus	-8355
▁岌	-8356
▁恬	-8357
▁榛	-8358
▁荨	-8359
▁虱	-8360
▁顫	-8361
ken	-8362
umb	-8363
▁4%	-8364
▁rb	-8365
amin	-8366
▁293	-8367
▁kan	-8368
▁tex	-8369
▁1640	-8370
▁organ	-8371
▁govern	-8372
▁billboard	-8373
▁撿	-8374
▁洱	-8375
▁獾	-8376
▁玖	-8377
▁鹉	-8378
isa	-8379
pan	-8380
erty	-8381
▁317	-8382
▁385	-8383
▁413	-8384
▁bag	-8385
▁ghz	-8386
▁1368	-8387
▁press	-8388
▁yahoo	-8389
▁渎	-8390
▁睽	-8391
▁糸	-8392
▁絹	-8393
▁谬	-8394
▁靚	-8395
cha	-8396
▁pur	-8397
▁stan	-8398
▁they	-8399
▁museum	-8400
▁series	-8401
▁business	-8402
▁厕	-8403
▁巅	-8404
▁璉	-8405
▁瞎	-8406
▁聾	-8407
▁肄	-8408
▁蚓	-8409
▁蛭	-8410
▁诅	-8411
▁髒	-8412
nam	-8413
ole	-8414
uct	-8415
▁dy	-8416
▁rx	-8417
▁278	-8418
▁405	-8419
▁417	-8420
▁bul	-8421
▁sav	-8422
▁1760	-8423
▁1784	-8424
vision	-8425
▁opera	-8426
▁steam	-8427
▁幺	-8428
▁碾	-8429
▁蜓	-8430
erm	-8431
▁407	-8432
▁iec	-8433
▁rfc	-8434
▁gang	-8435
▁kiss	-8436
▁smart	-8437
▁philip	-8438
sk	-8439
▁俑	-8440
▁俳	-8441
▁戳	-8442
▁狡	-8443
▁琐	-8444
▁箔	-8445
▁镖	-8446
▁鮠	-8447
▁uh	-8448
cept	-8449
▁294	-8450
▁375	-8451
▁dohc	-8452
▁four	-8453
▁mass	-8454
▁wond	-8455
▁ø	-8456
▁嬅	-8457
▁檯	-8458
▁珞	-8459
▁賑	-8460
lab	-8461
▁ay	-8462
▁329	-8463
▁607	-8464
▁707	-8465
▁810	-8466
▁985	-8467
▁1636	-8468
▁left	-8469
▁single	-8470
▁systems	-8471
▁泮	-8472
▁脩	-8473
▁赁	-8474
▁黍	-8475
▁vr	-8476
mail	-8477
ques	-8478
▁366	-8479
▁bsd	-8480
▁fbi	-8481
▁nex	-8482
▁ton	-8483
ering	-8484
▁1642	-8485
▁1683	-8486
▁1786	-8487
▁list	-8488
ission	-8489
▁brand	-8490
of	-8491
▁ζ	-8492
▁堺	-8493
▁恃	-8494
▁抉	-8495
▁摯	-8496
▁楣	-8497
▁痪	-8498
▁茸	-8499
▁菠	-8500
▁螳	-8501
ves	-8502
▁6%	-8503
▁8%	-8504
itte	-8505
▁416	-8506
▁787	-8507
▁hay	-8508
▁pas	-8509
▁chap	-8510
▁know	-8511
▁true	-8512
▁zero	-8513
▁history	-8514
uv	-8515
▁ب	-8516
▁涟	-8517
▁荻	-8518
▁釧	-8519
▁鸢	-8520
lie	-8521
▁cw	-8522
anga	-8523
▁284	-8524
▁770	-8525
▁lor	-8526
▁mhz	-8527
▁sho	-8528
▁tay	-8529
▁1797	-8530
▁ring	-8531
▁samu	-8532
▁sars	-8533
▁ē	-8534
▁噁	-8535
▁箏	-8536
aka	-8537
utc	-8538
▁′′	-8539
▁322	-8540
▁acc	-8541
▁dur	-8542
▁ess	-8543
▁fle	-8544
▁libr	-8545
▁link	-8546
▁merc	-8547
▁ビ	-8548
▁梟	-8549
▁砚	-8550
▁筷	-8551
▁薔	-8552
▁韜	-8553
▁鱺	-8554
par	-8555
▁xm	-8556
iple	-8557
▁274	-8558
▁282	-8559
▁414	-8560
▁1774	-8561
▁1779	-8562
▁shell	-8563
hr	-8564
▁æ	-8565
▁ゅ	-8566
▁嘔	-8567
▁懦	-8568
▁猝	-8569
▁疽	-8570
▁筍	-8571
▁粱	-8572
▁鯙	-8573
240	-8574
600	-8575
eri	-8576
vis	-8577
▁465	-8578
▁930	-8579
▁gil	-8580
▁los	-8581
▁fore	-8582
▁read	-8583
▁austral	-8584
▁stephen	-8585
▁mountain	-8586
▁williams	-8587
▁ェ	-8588
▁ダ	-8589
▁メ	-8590
▁娼	-8591
▁澍	-8592
▁瑣	-8593
▁讞	-8594
▁輟	-8595
▁hx	-8596
▁ky	-8597
chen	-8598
▁359	-8599
▁421	-8600
▁kim	-8601
▁saf	-8602
▁2800	-8603
action	-8604
▁object	-8605
▁pentium	-8606
▁ō	-8607
▁俚	-8608
▁漩	-8609
▁燧	-8610
▁粪	-8611
ban	-8612
oli	-8613
▁lv	-8614
lish	-8615
▁289	-8616
▁321	-8617
▁343	-8618
▁448	-8619
▁611	-8620
▁740	-8621
▁dra	-8622
▁ern	-8623
▁mix	-8624
▁see	-8625
▁1646	-8626
▁boss	-8627
▁fifa	-8628
▁main	-8629
▁mpeg	-8630
▁econom	-8631
▁sunday	-8632
▁profess	-8633
▁ū	-8634
▁―	-8635
▁繕	-8636
▁謁	-8637
▁赈	-8638
▁轭	-8639
▁钴	-8640
awa	-8641
han	-8642
ustr	-8643
▁259	-8644
▁345	-8645
▁fac	-8646
▁gla	-8647
▁mba	-8648
▁sha	-8649
ector	-8650
house	-8651
▁ball	-8652
▁queen	-8653
▁ュ	-8654
▁妤	-8655
▁灝	-8656
▁煦	-8657
▁聳	-8658
▁谤	-8659
▁醴	-8660
▁鉑	-8661
oud	-8662
▁mx	-8663
▁485	-8664
▁hbo	-8665
▁sea	-8666
▁1781	-8667
▁pont	-8668
▁action	-8669
gi	-8670
▁å	-8671
▁婪	-8672
▁棗	-8673
▁貽	-8674
▁閑	-8675
▁7%	-8676
lect	-8677
▁291	-8678
▁331	-8679
▁346	-8680
▁505	-8681
▁eva	-8682
▁scr	-8683
athan	-8684
▁hotel	-8685
▁there	-8686
▁ubuntu	-8687
▁function	-8688
db	-8689
gn	-8690
▁淅	-8691
▁珅	-8692
▁穢	-8693
▁箴	-8694
▁肱	-8695
▁蜒	-8696
esc	-8697
war	-8698
▁316	-8699
▁336	-8700
▁419	-8701
▁528	-8702
▁edge	-8703
▁phys	-8704
▁take	-8705
change	-8706
▁simon	-8707
▁story	-8708
▁johann	-8709
▁め	-8710
▁侷	-8711
▁崴	-8712
▁焙	-8713
▁羔	-8714
▁蚂	-8715
iny	-8716
▁uk	-8717
▁403	-8718
▁442	-8719
▁1080	-8720
▁virtual	-8721
▁呵	-8722
▁桁	-8723
▁琊	-8724
▁畠	-8725
▁蜻	-8726
▁褫	-8727
▁邂	-8728
▁阡	-8729
▁霓	-8730
▁龕	-8731
caa	-8732
ror	-8733
uri	-8734
▁gw	-8735
▁12%	-8736
▁261	-8737
▁870	-8738
▁bec	-8739
▁inn	-8740
▁nfl	-8741
▁marie	-8742
▁speed	-8743
▁works	-8744
▁啞	-8745
▁榭	-8746
▁胄	-8747
▁豌	-8748
▁鮫	-8749
mar	-8750
▁atl	-8751
▁civ	-8752
▁ipv	-8753
▁broad	-8754
issement	-8755
▁academy	-8756
cp	-8757
▁啼	-8758
▁喧	-8759
▁弔	-8760
▁檄	-8761
▁疚	-8762
▁緞	-8763
▁肴	-8764
▁蛹	-8765
▁逅	-8766
330	-8767
▁356	-8768
▁921	-8769
▁lab	-8770
▁mmc	-8771
▁nik	-8772
▁ped	-8773
▁std	-8774
▁1662	-8775
▁1778	-8776
▁cham	-8777
▁cult	-8778
▁jess	-8779
▁side	-8780
▁wolf	-8781
▁arthur	-8782
▁dragon	-8783
▁socket	-8784
ications	-8785
▁america	-8786
gu	-8787
▁拮	-8788
▁挣	-8789
▁瘡	-8790
▁釁	-8791
▁闷	-8792
▁靺	-8793
▁饪	-8794
chi	-8795
▁727	-8796
▁bmw	-8797
▁ddr	-8798
▁jos	-8799
▁collection	-8800
vo	-8801
▁≤	-8802
▁垢	-8803
▁癲	-8804
▁睐	-8805
▁窖	-8806
▁誹	-8807
▁鏟	-8808
sson	-8809
▁292	-8810
▁384	-8811
▁625	-8812
▁fan	-8813
atory	-8814
▁1680	-8815
▁1723	-8816
▁1763	-8817
▁1782	-8818
▁cole	-8819
▁rade	-8820
▁beaut	-8821
▁arrond	-8822
▁computer	-8823
▁戡	-8824
▁搅	-8825
▁氐	-8826
▁氾	-8827
▁洄	-8828
▁浔	-8829
▁烙	-8830
▁羥	-8831
▁荥	-8832
▁蜈	-8833
▁賬	-8834
▁鉻	-8835
▁鸥	-8836
▁鸾	-8837
ful	-8838
▁427	-8839
▁619	-8840
▁css	-8841
▁pow	-8842
▁1570	-8843
▁mand	-8844
▁phot	-8845
▁モ	-8846
▁嚼	-8847
▁搗	-8848
▁碇	-8849
▁頡	-8850
▁餾	-8851
elli	-8852
▁339	-8853
▁35%	-8854
▁515	-8855
▁627	-8856
▁pci	-8857
▁pot	-8858
agram	-8859
▁laur	-8860
▁15000	-8861
▁number	-8862
▁pierre	-8863
▁arrondissement	-8864
mg	-8865
▁х	-8866
▁俐	-8867
▁嗽	-8868
▁糜	-8869
▁脇	-8870
▁膦	-8871
▁覲	-8872
▁谔	-8873
▁鹫	-8874
pot	-8875
▁287	-8876
▁297	-8877
▁583	-8878
▁840	-8879
▁dal	-8880
▁hiv	-8881
▁ill	-8882
▁jay	-8883
▁lew	-8884
▁rot	-8885
▁tun	-8886
▁wta	-8887
▁1667	-8888
▁conf	-8889
▁flor	-8890
▁ncaa	-8891
▁voice	-8892
▁source	-8893
▁掏	-8894
▁栱	-8895
▁苋	-8896
▁謚	-8897
▁闇	-8898
▁颓	-8899
▁骁	-8900
anna	-8901
▁342	-8902
▁352	-8903
▁502	-8904
▁617	-8905
▁705	-8906
▁abo	-8907
▁cer	-8908
▁dim	-8909
▁dead	-8910
▁ross	-8911
▁stat	-8912
▁unit	-8913
▁carol	-8914
▁track	-8915
▁apache	-8916
▁bridge	-8917
▁jackson	-8918
do	-8919
▁î	-8920
▁涇	-8921
▁腱	-8922
▁蚣	-8923
▁贱	-8924
▁蹲	-8925
▁920	-8926
▁aven	-8927
▁nick	-8928
▁radeon	-8929
▁johnson	-8930
dm	-8931
uf	-8932
▁瞒	-8933
▁矗	-8934
▁紊	-8935
▁腻	-8936
▁鞨	-8937
iti	-8938
▁js	-8939
itor	-8940
▁344	-8941
▁358	-8942
▁622	-8943
▁970	-8944
▁999	-8945
▁ale	-8946
▁dog	-8947
▁tas	-8948
ument	-8949
▁1592	-8950
▁times	-8951
▁common	-8952
▁theory	-8953
▁勖	-8954
▁吩	-8955
▁嘩	-8956
▁媲	-8957
▁漾	-8958
▁鎬	-8959
▁锑	-8960
alk	-8961
ema	-8962
esa	-8963
oon	-8964
utt	-8965
icle	-8966
▁cel	-8967
▁gon	-8968
▁kin	-8969
▁las	-8970
▁pra	-8971
▁1620	-8972
▁1755	-8973
▁file	-8974
▁turn	-8975
▁zone	-8976
▁壠	-8977
▁奬	-8978
▁弁	-8979
▁杓	-8980
▁沭	-8981
▁瀆	-8982
▁祗	-8983
▁銃	-8984
rent	-8985
▁402	-8986
▁404	-8987
▁411	-8988
▁639	-8989
▁940	-8990
▁imp	-8991
▁reb	-8992
▁sta	-8993
▁tod	-8994
▁via	-8995
▁wel	-8996
▁1598	-8997
▁1772	-8998
▁mind	-8999
▁stage	-9000
▁start	-9001
▁double	-9002
hi	-9003
▁吶	-9004
▁塹	-9005
▁夯	-9006
▁珈	-9007
▁軛	-9008
▁頷	-9009
▁驃	-9010
▁鬃	-9011
ocr	-9012
▁kc	-9013
iano	-9014
▁337	-9015
▁354	-9016
▁418	-9017
▁445	-9018
▁ati	-9019
▁caf	-9020
▁rel	-9021
anced	-9022
▁1628	-9023
▁where	-9024
▁patrick	-9025
▁standard	-9026
▁framework	-9027
▁foundation	-9028
▁彧	-9029
▁彿	-9030
▁橇	-9031
▁纥	-9032
▁菀	-9033
▁韭	-9034
lis	-9035
▁lc	-9036
ulat	-9037
▁626	-9038
ities	-9039
▁anal	-9040
▁math	-9041
▁order	-9042
▁柝	-9043
▁湟	-9044
▁漓	-9045
▁腈	-9046
▁頹	-9047
▁魷	-9048
▁鳖	-9049
▁aj	-9050
▁mh	-9051
▁rr	-9052
ania	-9053
bour	-9054
head	-9055
▁535	-9056
▁bes	-9057
▁bin	-9058
▁cad	-9059
▁yes	-9060
▁ascii	-9061
▁major	-9062
▁never	-9063
▁table	-9064
▁golden	-9065
▁education	-9066
yp	-9067
▁»	-9068
▁ã	-9069
▁垛	-9070
▁柘	-9071
▁湮	-9072
▁爹	-9073
▁疤	-9074
▁簷	-9075
▁袒	-9076
▁轼	-9077
▁镕	-9078
▁餚	-9079
▁鲱	-9080
800	-9081
▁447	-9082
▁45%	-9083
▁add	-9084
▁gor	-9085
prise	-9086
unter	-9087
▁1637	-9088
▁2700	-9089
▁kenn	-9090
▁break	-9091
▁access	-9092
▁person	-9093
▁烴	-9094
▁癫	-9095
▁矫	-9096
▁羣	-9097
▁茴	-9098
▁蠡	-9099
▁袞	-9100
▁鏞	-9101
▁铂	-9102
acs	-9103
uce	-9104
▁546	-9105
▁555	-9106
▁1590	-9107
▁1724	-9108
▁qual	-9109
▁toky	-9110
▁week	-9111
enberg	-9112
▁album	-9113
▁graph	-9114
▁prince	-9115
▁walter	-9116
▁european	-9117
▁冪	-9118
▁挚	-9119
▁漪	-9120
▁痰	-9121
▁蝮	-9122
▁躋	-9123
lan	-9124
▁383	-9125
▁533	-9126
▁605	-9127
▁lie	-9128
▁tab	-9129
▁1727	-9130
▁hero	-9131
▁mode	-9132
▁prom	-9133
▁rose	-9134
▁chang	-9135
▁field	-9136
▁samuel	-9137
▁british	-9138
▁capital	-9139
▁ц	-9140
▁儸	-9141
▁峒	-9142
▁榻	-9143
▁脛	-9144
▁遽	-9145
▁靛	-9146
▁鸫	-9147
ril	-9148
▁ox	-9149
▁rn	-9150
ogue	-9151
▁395	-9152
▁398	-9153
▁428	-9154
▁eth	-9155
▁got	-9156
▁nas	-9157
▁opt	-9158
▁chen	-9159
▁ㄧ	-9160
▁匕	-9161
▁巒	-9162
▁耸	-9163
▁萸	-9164
▁鄢	-9165
▁锺	-9166
▁鱲	-9167
▁鳗	-9168
▁鼴	-9169
din	-9170
▁qs	-9171
ches	-9172
▁351	-9173
▁548	-9174
▁bac	-9175
ating	-9176
ember	-9177
▁1580	-9178
▁full	-9179
▁jones	-9180
▁electron	-9181
df	-9182
▁د	-9183
▁帚	-9184
▁玳	-9185
▁珥	-9186
▁盂	-9187
▁舫	-9188
▁蜍	-9189
▁訛	-9190
▁雒	-9191
reme	-9192
▁615	-9193
▁kal	-9194
▁mik	-9195
ellow	-9196
▁1736	-9197
▁lost	-9198
▁rand	-9199
▁happy	-9200
▁three	-9201
▁player	-9202
▁states	-9203
▁services	-9204
▁娑	-9205
▁捣	-9206
▁揣	-9207
▁沔	-9208
▁焯	-9209
▁邛	-9210
dom	-9211
▁tf	-9212
chan	-9213
▁353	-9214
▁545	-9215
▁910	-9216
▁fab	-9217
iment	-9218
▁1568	-9219
▁1785	-9220
▁3200	-9221
▁were	-9222
▁friedrich	-9223
▁instagram	-9224
▁匐	-9225
▁掺	-9226
▁辻	-9227
▁闍	-9228
▁馀	-9229
iers	-9230
▁614	-9231
▁abs	-9232
▁its	-9233
▁1457	-9234
▁doug	-9235
▁fish	-9236
▁greg	-9237
▁karl	-9238
▁wall	-9239
▁blood	-9240
▁shine	-9241
▁stone	-9242
▁pacific	-9243
▁building	-9244
▁庑	-9245
▁悌	-9246
▁慄	-9247
▁挟	-9248
▁斟	-9249
▁歆	-9250
▁歎	-9251
▁瓘	-9252
▁痢	-9253
▁詣	-9254
lah	-9255
▁df	-9256
▁613	-9257
▁bou	-9258
▁lte	-9259
▁msn	-9260
▁nec	-9261
▁pun	-9262
light	-9263
▁1478	-9264
▁1745	-9265
▁feat	-9266
▁imax	-9267
▁some	-9268
▁tony	-9269
▁library	-9270
▁stadium	-9271
▁宥	-9272
▁菏	-9273
▁蜿	-9274
▁谿	-9275
ete	-9276
ief	-9277
▁lr	-9278
▁tl	-9279
▁atr	-9280
▁lot	-9281
▁nac	-9282
▁sac	-9283
▁magn	-9284
▁parad	-9285
▁robin	-9286
▁seven	-9287
kw	-9288
uy	-9289
▁υ	-9290
▁噩	-9291
▁拗	-9292
▁栢	-9293
▁譏	-9294
▁貳	-9295
▁赉	-9296
▁逞	-9297
▁餌	-9298
▁鯡	-9299
erg	-9300
lon	-9301
▁ls	-9302
helm	-9303
kins	-9304
▁518	-9305
▁523	-9306
▁655	-9307
▁abb	-9308
▁fat	-9309
▁jet	-9310
▁mcc	-9311
▁six	-9312
▁1622	-9313
▁1720	-9314
▁1730	-9315
▁amaz	-9316
▁every	-9317
▁eleven	-9318
yr	-9319
▁佯	-9320
▁勺	-9321
▁囪	-9322
▁殡	-9323
▁滌	-9324
▁澹	-9325
▁煬	-9326
▁疟	-9327
▁眩	-9328
▁vv	-9329
ants	-9330
▁361	-9331
▁363	-9332
▁368	-9333
▁409	-9334
▁sid	-9335
▁1550	-9336
▁1623	-9337
▁days	-9338
▁diff	-9339
▁make	-9340
▁most	-9341
▁pers	-9342
▁wiki	-9343
▁santa	-9344
▁ł	-9345
▁匮	-9346
▁瑯	-9347
▁癡	-9348
▁锣	-9349
▁鯽	-9350
▁鵲	-9351
dle	-9352
ois	-9353
ols	-9354
iant	-9355
istr	-9356
ites	-9357
vers	-9358
▁dun	-9359
▁sas	-9360
▁1625	-9361
▁burn	-9362
▁cour	-9363
iction	-9364
▁20000	-9365
▁portable	-9366
▁涤	-9367
▁矾	-9368
▁絆	-9369
▁邾	-9370
▁郤	-9371
▁颌	-9372
▁髦	-9373
olo	-9374
yer	-9375
ynam	-9376
▁529	-9377
▁576	-9378
▁65%	-9379
enger	-9380
▁2030	-9381
▁cand	-9382
▁memor	-9383
▁ville	-9384
▁galaxy	-9385
▁wilson	-9386
__	-9387
ev	-9388
▁ズ	-9389
▁呕	-9390
▁帷	-9391
▁稔	-9392
▁螃	-9393
▁驢	-9394
109	-9395
rix	-9396
▁466	-9397
▁575	-9398
▁596	-9399
▁715	-9400
▁796	-9401
▁moh	-9402
▁nmb	-9403
▁ted	-9404
ences	-9405
▁1560	-9406
▁1573	-9407
▁auth	-9408
▁boys	-9409
▁nord	-9410
▁avenue	-9411
▁harris	-9412
▁invest	-9413
▁english	-9414
di	-9415
▁ш	-9416
▁ツ	-9417
▁俟	-9418
▁痘	-9419
▁萤	-9420
▁觐	-9421
▁讶	-9422
▁軾	-9423
▁鏗	-9424
▁钯	-9425
▁驍	-9426
▁鲫	-9427
▁鸮	-9428
ges	-9429
isk	-9430
▁ck	-9431
▁kt	-9432
ucle	-9433
▁283	-9434
▁369	-9435
▁396	-9436
▁598	-9437
▁790	-9438
▁98%	-9439
▁him	-9440
▁hkt	-9441
▁nicon	-9442
▁paris	-9443
▁spring	-9444
▁匍	-9445
▁咱	-9446
▁昙	-9447
▁繭	-9448
▁蠔	-9449
▁辍	-9450
▁齧	-9451
uma	-9452
▁ci	-9453
▁pf	-9454
▁tm	-9455
▁ya	-9456
ench	-9457
icus	-9458
▁378	-9459
▁388	-9460
▁408	-9461
▁432	-9462
▁gem	-9463
▁kam	-9464
bourg	-9465
opher	-9466
▁1735	-9467
▁1740	-9468
▁1759	-9469
▁acid	-9470
▁deut	-9471
▁mnet	-9472
▁stop	-9473
active	-9474
▁tokyo	-9475
ification	-9476
gl	-9477
▁●	-9478
▁咯	-9479
▁戦	-9480
▁棻	-9481
▁痺	-9482
▁繇	-9483
▁蕲	-9484
▁辕	-9485
▁郗	-9486
▁鉗	-9487
▁鳶	-9488
har	-9489
▁gc	-9490
▁ix	-9491
▁lp	-9492
ogen	-9493
▁406	-9494
▁455	-9495
▁495	-9496
▁aur	-9497
▁bow	-9498
▁pse	-9499
usion	-9500
▁brad	-9501
▁lisp	-9502
▁ruby	-9503
▁magic	-9504
▁嫦	-9505
▁缽	-9506
▁蚺	-9507
▁褻	-9508
▁醍	-9509
▁铨	-9510
▁驤	-9511
day	-9512
oda	-9513
ersh	-9514
▁347	-9515
▁374	-9516
▁387	-9517
▁51%	-9518
▁519	-9519
▁daw	-9520
▁ner	-9521
▁sap	-9522
▁sug	-9523
▁1660	-9524
▁1757	-9525
▁cher	-9526
▁here	-9527
▁chart	-9528
▁kevin	-9529
▁佰	-9530
▁嫖	-9531
▁岙	-9532
▁錳	-9533
▁鑣	-9534
▁髏	-9535
erb	-9536
het	-9537
oke	-9538
▁pb	-9539
▁rp	-9540
▁371	-9541
▁628	-9542
▁hey	-9543
▁jar	-9544
ittee	-9545
▁1643	-9546
▁5500	-9547
▁metal	-9548
▁report	-9549
▁advance	-9550
▁niconico	-9551
▁transport	-9552
▁«	-9553
▁匱	-9554
▁掾	-9555
▁昴	-9556
▁潇	-9557
▁璘	-9558
▁阯	-9559
▁霑	-9560
▁鵙	-9561
aki	-9562
ige	-9563
▁nr	-9564
ando	-9565
▁379	-9566
▁436	-9567
▁547	-9568
▁616	-9569
▁rca	-9570
▁tot	-9571
▁1618	-9572
▁1634	-9573
▁1649	-9574
▁1688	-9575
▁1748	-9576
▁1768	-9577
▁priv	-9578
▁sail	-9579
▁tower	-9580
▁taylor	-9581
▁ゆ	-9582
▁儁	-9583
▁拚	-9584
▁觅	-9585
▁鵜	-9586
700	-9587
▁tb	-9588
eral	-9589
▁451	-9590
▁612	-9591
▁99%	-9592
▁aff	-9593
▁ala	-9594
▁hip	-9595
▁yam	-9596
▁1651	-9597
▁1658	-9598
▁cosp	-9599
▁lewis	-9600
▁solar	-9601
▁machine	-9602
▁垩	-9603
▁懒	-9604
▁栃	-9605
▁胭	-9606
▁蒯	-9607
▁諏	-9608
▁诽	-9609
med	-9610
mph	-9611
▁oc	-9612
asia	-9613
▁372	-9614
▁636	-9615
▁718	-9616
▁907	-9617
▁haw	-9618
▁kle	-9619
▁oct	-9620
▁1616	-9621
▁1626	-9622
▁6500	-9623
▁anna	-9624
▁kill	-9625
▁nico	-9626
intosh	-9627
▁infin	-9628
▁their	-9629
▁republ	-9630
▁alexand	-9631
▁division	-9632
▁rg	-9633
agar	-9634
ardo	-9635
▁433	-9636
▁536	-9637
▁645	-9638
▁jud	-9639
works	-9640
worth	-9641
▁1475	-9642
▁1609	-9643
▁cant	-9644
▁contin	-9645
▁freder	-9646
▁恂	-9647
▁摒	-9648
▁瘠	-9649
▁睫	-9650
▁筝	-9651
▁糠	-9652
▁羡	-9653
▁裨	-9654
▁诡	-9655
▁醃	-9656
▁醐	-9657
▁阗	-9658
elf	-9659
iva	-9660
vey	-9661
▁332	-9662
▁377	-9663
▁399	-9664
▁446	-9665
▁511	-9666
▁527	-9667
▁667	-9668
▁675	-9669
▁hyd	-9670
▁iss	-9671
▁pad	-9672
▁pil	-9673
▁rab	-9674
▁tri	-9675
▁1630	-9676
▁1647	-9677
▁carr	-9678
▁mars	-9679
▁about	-9680
▁effect	-9681
▁health	-9682
▁michel	-9683
dc	-9684
zi	-9685
▁ŋ	-9686
▁甕	-9687
▁菟	-9688
▁賁	-9689
leg	-9690
omo	-9691
▁vt	-9692
ages	-9693
iner	-9694
stic	-9695
▁513	-9696
▁nig	-9697
▁1369	-9698
▁1771	-9699
▁gear	-9700
ological	-9701
▁wilhelm	-9702
▁enterprise	-9703
▁僞	-9704
▁嚨	-9705
▁绮	-9706
▁膾	-9707
▁蝌	-9708
▁込	-9709
▁齦	-9710
ali	-9711
nie	-9712
oni	-9713
ides	-9714
ione	-9715
▁475	-9716
▁499	-9717
▁506	-9718
▁532	-9719
▁648	-9720
▁amb	-9721
▁tnt	-9722
abeth	-9723
ified	-9724
▁1469	-9725
▁1621	-9726
▁1664	-9727
▁1773	-9728
▁five	-9729
▁walk	-9730
▁wing	-9731
▁depart	-9732
▁complex	-9733
bb	-9734
▁咄	-9735
▁橐	-9736
▁濑	-9737
▁煲	-9738
▁瑠	-9739
▁痹	-9740
▁稗	-9741
▁钗	-9742
▁铯	-9743
▁驊	-9744
imo	-9745
uit	-9746
zen	-9747
▁ee	-9748
▁eu	-9749
▁fs	-9750
elly	-9751
▁18%	-9752
▁341	-9753
▁538	-9754
▁578	-9755
▁986	-9756
▁fis	-9757
▁mys	-9758
▁soh	-9759
iance	-9760
rough	-9761
▁1624	-9762
▁1733	-9763
▁1756	-9764
▁1769	-9765
▁anti	-9766
▁espn	-9767
▁hosp	-9768
▁marc	-9769
▁nich	-9770
▁offic	-9771
▁pseud	-9772
▁termin	-9773
▁cosplay	-9774
▁directx	-9775
▁section	-9776
cf	-9777
zh	-9778
▁ど	-9779
▁剋	-9780
▁剷	-9781
▁嗚	-9782
▁崭	-9783
▁弒	-9784
▁敍	-9785
▁杲	-9786
▁珙	-9787
▁瑗	-9788
▁缙	-9789
▁腭	-9790
▁贓	-9791
▁鰲	-9792
ece	-9793
wer	-9794
▁gs	-9795
▁367	-9796
▁508	-9797
▁537	-9798
▁556	-9799
▁735	-9800
▁925	-9801
▁1610	-9802
▁1652	-9803
▁1725	-9804
▁1762	-9805
▁area	-9806
▁mrna	-9807
▁pict	-9808
▁sher	-9809
▁brian	-9810
▁roger	-9811
▁valley	-9812
▁wonder	-9813
▁committee	-9814
▁ć	-9815
▁娣	-9816
▁徳	-9817
▁湳	-9818
▁璀	-9819
▁絳	-9820
▁罄	-9821
▁蚪	-9822
nel	-9823
▁gy	-9824
ipal	-9825
view	-9826
▁364	-9827
▁55%	-9828
▁cba	-9829
▁enc	-9830
▁kit	-9831
▁lan	-9832
▁vcd	-9833
▁1260	-9834
▁1619	-9835
▁1627	-9836
▁1765	-9837
▁gene	-9838
▁hart	-9839
▁shop	-9840
▁solo	-9841
▁index	-9842
▁ultra	-9843
▁ś	-9844
▁س	-9845
▁嚕	-9846
▁寛	-9847
▁忿	-9848
▁懺	-9849
▁涸	-9850
▁緹	-9851
▁銮	-9852
ype	-9853
▁xi	-9854
▁486	-9855
▁aer	-9856
▁sud	-9857
▁1466	-9858
▁eliz	-9859
▁shad	-9860
▁when	-9861
▁other	-9862
▁future	-9863
▁mathem	-9864
▁method	-9865
▁vocaloid	-9866
▁ा	-9867
▁恳	-9868
▁揀	-9869
▁盏	-9870
▁莢	-9871
▁釷	-9872
▁钨	-9873
▁钰	-9874
apt	-9875
▁9%	-9876
▁qt	-9877
illy	-9878
ways	-9879
▁422	-9880
▁443	-9881
▁476	-9882
▁633	-9883
▁635	-9884
▁762	-9885
▁973	-9886
ments	-9887
▁1615	-9888
▁1761	-9889
▁auto	-9890
▁food	-9891
▁perl	-9892
▁ryan	-9893
▁secur	-9894
▁women	-9895
▁garden	-9896
▁airport	-9897
▁version	-9898
▁gamespot	-9899
ht	-9900
▁­	-9901
▁哑	-9902
▁啉	-9903
▁孰	-9904
▁帑	-9905
▁扛	-9906
▁澗	-9907
▁猖	-9908
▁鲀	-9909
▁cx	-9910
▁hm	-9911
▁33%	-9912
▁389	-9913
▁435	-9914
▁534	-9915
▁552	-9916
▁553	-9917
▁629	-9918
▁717	-9919
▁990	-9920
▁bot	-9921
▁fda	-9922
▁1370	-9923
▁7500	-9924
▁deep	-9925
▁kids	-9926
▁gamec	-9927
▁formation	-9928
▁嵋	-9929
▁簪	-9930
▁萩	-9931
▁鱔	-9932
ove	-9933
▁dx	-9934
bach	-9935
ipei	-9936
oper	-9937
phal	-9938
▁349	-9939
▁454	-9940
▁468	-9941
▁514	-9942
▁623	-9943
▁alg	-9944
▁jag	-9945
▁kid	-9946
▁lcd	-9947
▁mes	-9948
▁mut	-9949
▁vel	-9950
anger	-9951
▁1547	-9952
▁1631	-9953
▁3600	-9954
▁comb	-9955
▁fast	-9956
▁chrome	-9957
wc	-9958
▁ɔ	-9959
▁勅	-9960
▁尷	-9961
▁晁	-9962
▁暐	-9963
▁珩	-9964
▁癇	-9965
▁皎	-9966
▁盯	-9967
▁譙	-9968
▁赓	-9969
▁闫	-9970
▁馅	-9971
ogo	-9972
pur	-9973
etta	-9974
▁524	-9975
▁637	-9976
▁716	-9977
▁825	-9978
▁fro	-9979
▁gas	-9980
▁joy	-9981
▁rol	-9982
▁1583	-9983
▁2025	-9984
▁fern	-9985
▁made	-9986
▁symb	-9987
▁motor	-9988
▁ノ	-9989
▁櫟	-9990
▁瑭	-9991
▁碲	-9992
▁谛	-9993
▁谯	-9994
▁蹇	-9995
▁邈	-9996
▁颉	-9997
▁鲈	-9998
350	-9999
umi	-10000
back	-10001
▁453	-10002
▁503	-10003
▁516	-10004
▁597	-10005
▁798	-10006
▁962	-10007
itect	-10008
▁1250	-10009
▁1450	-10010
▁1571	-10011
▁1584	-10012
▁1684	-10013
▁1728	-10014
▁1753	-10015
▁also	-10016
▁gate	-10017
▁inte	-10018
▁tell	-10019
▁allen	-10020
▁clark	-10021
▁harry	-10022
▁artist	-10023
▁taipei	-10024
▁studios	-10025
▁ご	-10026
▁ぶ	-10027
▁幔	-10028
▁汜	-10029
▁涝	-10030
▁褪	-10031
▁霾	-10032
▁颊	-10033
▁龢	-10034
eno	-10035
gam	-10036
ils	-10037
▁dp	-10038
ande	-10039
atre	-10040
▁393	-10041
▁542	-10042
▁606	-10043
▁634	-10044
▁713	-10045
▁918	-10046
▁dia	-10047
▁kap	-10048
▁usa	-10049
▁1585	-10050
▁1722	-10051
▁fami	-10052
▁gord	-10053
▁mail	-10054
▁quad	-10055
▁dynam	-10056
▁jason	-10057
▁mission	-10058
▁⋯	-10059
▁奭	-10060
▁擷	-10061
▁桧	-10062
▁榘	-10063
▁榷	-10064
▁珣	-10065
▁瓢	-10066
▁箍	-10067
▁翦	-10068
▁誨	-10069
▁诣	-10070
▁诲	-10071
▁魴	-10072
▁鯤	-10073
▁鱧	-10074
acle	-10075
aver	-10076
engl	-10077
etty	-10078
olic	-10079
pson	-10080
▁381	-10081
▁517	-10082
▁642	-10083
▁did	-10084
▁esc	-10085
▁mis	-10086
▁pak	-10087
▁tag	-10088
▁tap	-10089
uster	-10090
▁1577	-10091
▁1655	-10092
▁1659	-10093
▁gary	-10094
▁gnome	-10095
▁jacob	-10096
▁active	-10097
▁alfred	-10098
▁ば	-10099
▁囤	-10100
▁恿	-10101
▁渺	-10102
▁犛	-10103
▁艏	-10104
▁訖	-10105
▁谚	-10106
▁豺	-10107
▁鎗	-10108
▁cz	-10109
▁382	-10110
▁397	-10111
▁424	-10112
▁551	-10113
▁755	-10114
▁890	-10115
▁age	-10116
▁1454	-10117
▁1685	-10118
▁1707	-10119
▁anne	-10120
▁cath	-10121
▁into	-10122
▁bruce	-10123
▁death	-10124
▁concert	-10125
▁architect	-10126
▁macintosh	-10127
rd	-10128
▁ワ	-10129
▁漬	-10130
▁琇	-10131
▁痒	-10132
▁瞩	-10133
▁耘	-10134
▁芩	-10135
▁蹦	-10136
▁镉	-10137
▁闐	-10138
▁颚	-10139
▁鴕	-10140
tex	-10141
host	-10142
igan	-10143
inus	-10144
ives	-10145
time	-10146
▁423	-10147
▁526	-10148
▁554	-10149
▁684	-10150
▁698	-10151
▁712	-10152
▁aqu	-10153
▁hab	-10154
▁lyn	-10155
space	-10156
▁1521	-10157
▁1553	-10158
▁1601	-10159
▁1701	-10160
▁1713	-10161
▁1767	-10162
▁bang	-10163
▁pasc	-10164
▁very	-10165
▁view	-10166
▁wave	-10167
ential	-10168
▁12000	-10169
▁board	-10170
▁struct	-10171
▁fantasy	-10172
▁gamecube	-10173
▁holdings	-10174
nh	-10175
wh	-10176
▁爨	-10177
▁獺	-10178
▁笏	-10179
▁鈹	-10180
▁駙	-10181
110	-10182
25%	-10183
75%	-10184
ify	-10185
rid	-10186
▁nf	-10187
mark	-10188
▁539	-10189
▁647	-10190
▁668	-10191
▁abd	-10192
▁ali	-10193
▁bol	-10194
▁dip	-10195
▁hxd	-10196
▁kom	-10197
▁obs	-10198
ollow	-10199
▁1604	-10200
▁1638	-10201
▁1689	-10202
▁ital	-10203
▁mytv	-10204
▁autom	-10205
▁modern	-10206
▁anthony	-10207
▁hospital	-10208
▁mathemat	-10209
▁universal	-10210
wd	-10211
▁ず	-10212
▁呋	-10213
▁尕	-10214
▁摻	-10215
▁晞	-10216
▁桀	-10217
▁箬	-10218
▁茗	-10219
▁藕	-10220
▁藨	-10221
▁衅	-10222
▁辮	-10223
▁邃	-10224
emb	-10225
fan	-10226
▁kb	-10227
stal	-10228
▁426	-10229
▁544	-10230
▁682	-10231
▁721	-10232
▁876	-10233
▁936	-10234
▁det	-10235
▁gsm	-10236
▁nan	-10237
▁vit	-10238
▁1565	-10239
▁1569	-10240
▁1575	-10241
▁1586	-10242
▁1758	-10243
▁barb	-10244
▁come	-10245
▁kind	-10246
▁mort	-10247
▁poem	-10248
▁sega	-10249
▁nucle	-10250
▁俺	-10251
▁儋	-10252
▁嵊	-10253
▁掸	-10254
▁栩	-10255
▁炜	-10256
▁硤	-10257
▁粿	-10258
▁蛻	-10259
▁蜆	-10260
▁螞	-10261
▁閭	-10262
tran	-10263
▁439	-10264
▁cis	-10265
▁hyp	-10266
▁kee	-10267
▁pic	-10268
▁1603	-10269
▁1629	-10270
▁1670	-10271
▁1766	-10272
▁fred	-10273
▁palm	-10274
▁than	-10275
▁movie	-10276
▁product	-10277
▁そ	-10278
▁ョ	-10279
▁攣	-10280
▁珏	-10281
▁畈	-10282
▁痫	-10283
▁釵	-10284
▁鋤	-10285
▁锷	-10286
cat	-10287
hen	-10288
oro	-10289
eman	-10290
ergy	-10291
▁362	-10292
▁373	-10293
▁457	-10294
▁599	-10295
▁638	-10296
▁ccd	-10297
▁cia	-10298
▁dir	-10299
▁sex	-10300
▁1050	-10301
▁1715	-10302
▁rick	-10303
▁talk	-10304
▁teau	-10305
▁sweet	-10306
▁wester	-10307
▁屹	-10308
▁嵇	-10309
▁憫	-10310
▁涕	-10311
▁熒	-10312
▁謫	-10313
▁趴	-10314
▁逛	-10315
▁閹	-10316
▁魟	-10317
uki	-10318
ccff	-10319
iron	-10320
▁392	-10321
▁394	-10322
▁681	-10323
▁711	-10324
▁emp	-10325
▁pia	-10326
▁rud	-10327
▁zip	-10328
angel	-10329
ennis	-10330
estra	-10331
▁1572	-10332
▁2023	-10333
▁bart	-10334
▁cycl	-10335
▁pink	-10336
▁stor	-10337
▁davis	-10338
▁hyper	-10339
▁howard	-10340
▁sailor	-10341
▁嵯	-10342
▁様	-10343
▁煊	-10344
▁燾	-10345
▁盱	-10346
▁腌	-10347
▁鹳	-10348
yan	-10349
▁ou	-10350
alis	-10351
ello	-10352
rian	-10353
▁438	-10354
▁456	-10355
▁472	-10356
▁494	-10357
▁646	-10358
▁725	-10359
▁927	-10360
▁933	-10361
▁oly	-10362
▁put	-10363
▁ric	-10364
▁sak	-10365
▁wik	-10366
▁1714	-10367
▁1764	-10368
▁body	-10369
▁gran	-10370
▁jane	-10371
▁lock	-10372
▁marsh	-10373
▁attack	-10374
▁ccccff	-10375
▁planet	-10376
▁government	-10377
ea	-10378
▁ˋ	-10379
▁ά	-10380
▁э	-10381
▁亟	-10382
▁憬	-10383
▁挹	-10384
▁玮	-10385
▁贲	-10386
▁跻	-10387
▁轧	-10388
▁郃	-10389
▁郧	-10390
▁馱	-10391
113	-10392
▁kv	-10393
▁xt	-10394
inae	-10395
sche	-10396
▁14%	-10397
▁458	-10398
▁522	-10399
▁719	-10400
▁751	-10401
▁905	-10402
▁975	-10403
▁any	-10404
▁bah	-10405
▁loc	-10406
▁rib	-10407
▁tit	-10408
▁1517	-10409
▁1738	-10410
▁blog	-10411
▁kent	-10412
▁page	-10413
▁roll	-10414
▁wong	-10415
▁yosh	-10416
▁lucas	-10417
▁march	-10418
▁democr	-10419
▁opengl	-10420
▁orient	-10421
▁switch	-10422
▁哗	-10423
▁弑	-10424
▁欒	-10425
▁湃	-10426
▁禰	-10427
▁锟	-10428
▁隈	-10429
99%	-10430
azz	-10431
▁mn	-10432
endo	-10433
enny	-10434
pend	-10435
▁434	-10436
▁444	-10437
▁464	-10438
▁676	-10439
▁689	-10440
▁722	-10441
▁745	-10442
▁805	-10443
craft	-10444
scape	-10445
▁1578	-10446
▁1632	-10447
▁1729	-10448
▁1737	-10449
▁lear	-10450
▁rank	-10451
▁xiii	-10452
▁ı	-10453
▁ع	-10454
▁ゃ	-10455
▁唁	-10456
▁恽	-10457
▁撻	-10458
▁瀰	-10459
▁癢	-10460
▁秽	-10461
▁谘	-10462
air	-10463
▁dk	-10464
reis	-10465
▁050	-10466
▁13%	-10467
▁509	-10468
▁562	-10469
▁568	-10470
▁775	-10471
▁846	-10472
▁dns	-10473
▁sdk	-10474
count	-10475
▁1460	-10476
▁1567	-10477
▁lisa	-10478
▁mega	-10479
▁exchange	-10480
▁engineering	-10481
rt	-10482
▁姍	-10483
▁疮	-10484
▁缎	-10485
▁鄔	-10486
▁錮	-10487
▁钏	-10488
▁顗	-10489
▁髯	-10490
340	-10491
mal	-10492
omy	-10493
▁ez	-10494
1000	-10495
atch	-10496
ming	-10497
▁493	-10498
▁531	-10499
▁541	-10500
▁565	-10501
▁585	-10502
▁685	-10503
▁863	-10504
▁926	-10505
▁mam	-10506
▁npc	-10507
▁ria	-10508
▁1453	-10509
▁1635	-10510
▁1665	-10511
▁1681	-10512
▁1747	-10513
▁cart	-10514
▁dave	-10515
▁iron	-10516
▁vita	-10517
▁storm	-10518
ference	-10519
▁miller	-10520
▁classic	-10521
hd	-10522
py	-10523
▁्	-10524
▁む	-10525
▁庠	-10526
▁濛	-10527
▁爍	-10528
▁獠	-10529
▁砥	-10530
▁砦	-10531
▁紜	-10532
▁苳	-10533
▁鸳	-10534
ales	-10535
▁489	-10536
▁496	-10537
▁521	-10538
▁938	-10539
▁945	-10540
▁bun	-10541
▁hud	-10542
▁lev	-10543
▁oce	-10544
▁vic	-10545
ature	-10546
▁1371	-10547
▁1525	-10548
▁1605	-10549
▁1679	-10550
▁1734	-10551
▁cube	-10552
▁note	-10553
bridge	-10554
▁alice	-10555
▁medic	-10556
▁stars	-10557
▁archive	-10558
▁surface	-10559
lr	-10560
▁ж	-10561
▁喱	-10562
▁囉	-10563
▁癬	-10564
▁綵	-10565
▁驷	-10566
▁鯧	-10567
116	-10568
fel	-10569
iae	-10570
iet	-10571
▁fd	-10572
▁vp	-10573
agne	-10574
esco	-10575
hard	-10576
▁11%	-10577
▁484	-10578
▁563	-10579
▁603	-10580
▁624	-10581
▁731	-10582
▁815	-10583
▁ble	-10584
▁eos	-10585
▁ful	-10586
▁oem	-10587
▁1150	-10588
▁1613	-10589
▁1654	-10590
▁1710	-10591
▁ling	-10592
▁peace	-10593
▁relat	-10594
▁short	-10595
▁treat	-10596
▁industr	-10597
▁christopher	-10598
▁∈	-10599
▁哼	-10600
▁嫣	-10601
▁昀	-10602
▁桉	-10603
▁楝	-10604
▁槎	-10605
▁氈	-10606
▁涓	-10607
▁甌	-10608
▁讒	-10609
▁钡	-10610
02%	-10611
ads	-10612
enz	-10613
lav	-10614
mas	-10615
mes	-10616
agen	-10617
bury	-10618
▁604	-10619
▁651	-10620
▁gay	-10621
▁hms	-10622
▁iup	-10623
imate	-10624
▁1024	-10625
▁1751	-10626
▁cosm	-10627
▁khan	-10628
▁look	-10629
▁need	-10630
▁turbo	-10631
▁debian	-10632
▁histor	-10633
np	-10634
▁偈	-10635
▁毎	-10636
▁盞	-10637
▁聋	-10638
▁胪	-10639
▁葶	-10640
▁藐	-10641
▁鎢	-10642
▁钼	-10643
▁鯖	-10644
▁鳕	-10645
▁ek	-10646
▁ow	-10647
itar	-10648
▁488	-10649
▁826	-10650
▁996	-10651
▁bom	-10652
▁edu	-10653
▁jas	-10654
▁neo	-10655
▁vhs	-10656
▁1526	-10657
▁1556	-10658
▁3300	-10659
▁cdma	-10660
▁juan	-10661
▁maur	-10662
▁orch	-10663
▁rest	-10664
▁smap	-10665
▁25000	-10666
▁pascal	-10667
▁medical	-10668
▁anderson	-10669
▁勗	-10670
▁峠	-10671
▁氘	-10672
▁汨	-10673
▁燎	-10674
▁猕	-10675
▁璨	-10676
▁紇	-10677
▁脯	-10678
▁蹼	-10679
▁轶	-10680
▁镛	-10681
▁骡	-10682
▁骥	-10683
mad	-10684
uda	-10685
ved	-10686
▁bp	-10687
▁kk	-10688
▁nl	-10689
ilog	-10690
iser	-10691
▁479	-10692
▁567	-10693
▁756	-10694
▁818	-10695
▁865	-10696
▁atm	-10697
▁eug	-10698
▁gpu	-10699
▁gui	-10700
acter	-10701
▁1130	-10702
▁1350	-10703
▁1726	-10704
▁atom	-10705
▁avex	-10706
▁cost	-10707
▁diam	-10708
ension	-10709
▁lambda	-10710
▁triple	-10711
▁friends	-10712
▁commission	-10713
▁interactive	-10714
bw	-10715
▁★	-10716
▁啮	-10717
▁彊	-10718
▁旃	-10719
▁澆	-10720
▁疃	-10721
▁瘍	-10722
▁縉	-10723
▁蜷	-10724
▁踵	-10725
▁銨	-10726
▁阆	-10727
▁驥	-10728
01%	-10729
oul	-10730
▁pw	-10731
▁429	-10732
▁507	-10733
▁558	-10734
▁695	-10735
▁738	-10736
▁768	-10737
▁kor	-10738
▁lun	-10739
▁nak	-10740
▁ncc	-10741
▁1540	-10742
▁1721	-10743
▁beau	-10744
▁brun	-10745
▁path	-10746
▁tang	-10747
▁ther	-10748
▁twins	-10749
▁intell	-10750
▁theatre	-10751
▁victoria	-10752
▁virginia	-10753
dn	-10754
oi	-10755
▁́	-10756
▁俨	-10757
▁峴	-10758
▁徭	-10759
▁忏	-10760
▁曖	-10761
▁歿	-10762
▁璿	-10763
▁瓏	-10764
▁萘	-10765
▁邇	-10766
▁鈷	-10767
▁이	-10768
190	-10769
▁ej	-10770
ners	-10771
ross	-10772
▁504	-10773
▁632	-10774
▁643	-10775
▁658	-10776
▁678	-10777
▁748	-10778
▁838	-10779
▁929	-10780
▁amp	-10781
▁nic	-10782
▁obe	-10783
antic	-10784
thers	-10785
▁1593	-10786
▁1639	-10787
▁1718	-10788
▁bios	-10789
▁dual	-10790
▁sent	-10791
▁calif	-10792
▁opens	-10793
▁plaza	-10794
▁think	-10795
▁return	-10796
▁singap	-10797
▁western	-10798
▁advanced	-10799
▁messenger	-10800
▁generation	-10801
kn	-10802
▁ァ	-10803
▁佤	-10804
▁妞	-10805
▁憧	-10806
▁浬	-10807
▁燙	-10808
▁翩	-10809
▁菈	-10810
▁蜑	-10811
▁鄯	-10812
▁颤	-10813
125	-10814
cht	-10815
elo	-10816
orf	-10817
rot	-10818
ues	-10819
inte	-10820
odon	-10821
▁586	-10822
▁609	-10823
▁813	-10824
▁845	-10825
▁897	-10826
▁898	-10827
▁951	-10828
▁976	-10829
▁fem	-10830
▁lud	-10831
▁nok	-10832
▁rim	-10833
▁tet	-10834
▁1559	-10835
▁1611	-10836
▁1672	-10837
▁1697	-10838
▁army	-10839
▁capt	-10840
▁feel	-10841
▁living	-10842
▁ふ	-10843
▁凜	-10844
▁孖	-10845
▁潁	-10846
▁犢	-10847
▁眙	-10848
▁耒	-10849
▁蒨	-10850
▁蚩	-10851
▁詬	-10852
▁讹	-10853
▁躄	-10854
▁骠	-10855
hew	-10856
▁jp	-10857
▁nk	-10858
iday	-10859
ones	-10860
▁17%	-10861
▁557	-10862
▁688	-10863
▁697	-10864
▁816	-10865
▁835	-10866
▁914	-10867
▁chu	-10868
▁exc	-10869
▁gaz	-10870
▁jyp	-10871
▁nom	-10872
▁ral	-10873
▁vor	-10874
▁1472	-10875
▁1524	-10876
▁1607	-10877
▁1614	-10878
▁1653	-10879
▁1657	-10880
▁1673	-10881
▁1717	-10882
▁hein	-10883
▁past	-10884
▁sequ	-10885
▁delta	-10886
▁olymp	-10887
▁canada	-10888
▁johnny	-10889
▁χ	-10890
▁刈	-10891
▁嘶	-10892
▁戸	-10893
▁梶	-10894
▁漣	-10895
▁瀟	-10896
▁赟	-10897
▁輒	-10898
▁邬	-10899
▁钚	-10900
▁雹	-10901
▁骅	-10902
▁麋	-10903
106	-10904
fly	-10905
▁oz	-10906
ains	-10907
aria	-10908
ians	-10909
otte	-10910
▁391	-10911
▁763	-10912
▁847	-10913
▁hav	-10914
▁itv	-10915
▁row	-10916
▁rue	-10917
▁sul	-10918
▁thr	-10919
otion	-10920
▁1752	-10921
▁andr	-10922
▁ange	-10923
▁demo	-10924
▁grad	-10925
▁kara	-10926
▁logo	-10927
▁mond	-10928
▁saab	-10929
▁wash	-10930
▁against	-10931
▁californ	-10932
▁dreamcast	-10933
▁ˈ	-10934
▁セ	-10935
▁揪	-10936
▁縊	-10937
▁縻	-10938
▁蒾	-10939
▁邠	-10940
▁郓	-10941
▁銖	-10942
▁钒	-10943
▁铠	-10944
▁陟	-10945
▁鯔	-10946
102	-10947
105	-10948
aco	-10949
bre	-10950
gon	-10951
ifi	-10952
pla	-10953
▁hc	-10954
▁ks	-10955
▁xe	-10956
▁xy	-10957
ancy	-10958
bers	-10959
▁452	-10960
▁561	-10961
▁736	-10962
▁778	-10963
▁823	-10964
▁829	-10965
▁912	-10966
▁guy	-10967
▁hem	-10968
▁irt	-10969
▁leo	-10970
▁lic	-10971
▁ost	-10972
ienne	-10973
inder	-10974
▁1280	-10975
▁1669	-10976
▁1682	-10977
▁1732	-10978
▁1741	-10979
▁1754	-10980
▁benj	-10981
▁burg	-10982
▁dash	-10983
▁lion	-10984
▁oper	-10985
▁self	-10986
▁shir	-10987
▁vent	-10988
▁prote	-10989
▁energy	-10990
▁integr	-10991
▁review	-10992
▁security	-10993
▁囂	-10994
▁専	-10995
▁愫	-10996
▁慑	-10997
▁殃	-10998
▁漯	-10999
▁烨	-11000
▁玠	-11001
▁臚	-11002
▁芪	-11003
▁辊	-11004
▁鉞	-11005
▁鶇	-11006
rin	-11007
▁cj	-11008
▁vb	-11009
▁vf	-11010
▁wc	-11011
gate	-11012
osph	-11013
ules	-11014
wick	-11015
▁487	-11016
▁49%	-11017
▁588	-11018
▁704	-11019
▁919	-11020
▁935	-11021
▁amx	-11022
▁ian	-11023
▁kab	-11024
▁shu	-11025
▁1435	-11026
▁1641	-11027
▁1690	-11028
▁1709	-11029
▁andy	-11030
▁bomb	-11031
▁hack	-11032
▁lanc	-11033
▁rele	-11034
▁snow	-11035
▁begin	-11036
▁money	-11037
▁munic	-11038
▁thund	-11039
ruction	-11040
▁carlos	-11041
▁forever	-11042
gh	-11043
▁楸	-11044
▁燁	-11045
▁璠	-11046
▁腮	-11047
▁辙	-11048
▁郯	-11049
▁鄲	-11050
▁骊	-11051
121	-11052
gie	-11053
▁1⁄	-11054
▁mw	-11055
▁sq	-11056
▁xf	-11057
bang	-11058
iful	-11059
stra	-11060
▁431	-11061
▁478	-11062
▁482	-11063
▁582	-11064
▁644	-11065
▁652	-11066
▁691	-11067
▁726	-11068
▁824	-11069
▁828	-11070
▁arn	-11071
▁cut	-11072
▁1589	-11073
▁1595	-11074
▁1719	-11075
▁1742	-11076
▁1744	-11077
▁1749	-11078
▁cass	-11079
▁coll	-11080
▁midi	-11081
▁vinc	-11082
▁whit	-11083
office	-11084
▁arena	-11085
▁baron	-11086
▁being	-11087
▁civil	-11088
▁mater	-11089
▁quest	-11090
▁quick	-11091
▁roman	-11092
▁gordon	-11093
▁original	-11094
▁noinclude	-11095
▁television	-11096
▁ί	-11097
▁ت	-11098
▁∞	-11099
▁岘	-11100
▁岫	-11101
▁昉	-11102
▁脲	-11103
▁蜚	-11104
▁饵	-11105
▁鼱	-11106
arc	-11107
▁rm	-11108
▁wu	-11109
ente	-11110
▁441	-11111
▁461	-11112
▁477	-11113
▁571	-11114
▁573	-11115
▁577	-11116
▁587	-11117
▁602	-11118
▁708	-11119
▁759	-11120
▁888	-11121
▁902	-11122
▁937	-11123
▁979	-11124
▁997	-11125
▁998	-11126
▁beh	-11127
▁bos	-11128
▁hur	-11129
▁pit	-11130
▁pul	-11131
▁ras	-11132
▁vvv	-11133
eland	-11134
ental	-11135
▁1430	-11136
▁1499	-11137
▁1562	-11138
▁1599	-11139
▁1687	-11140
▁3166	-11141
▁dick	-11142
▁grow	-11143
▁must	-11144
▁based	-11145
▁canon	-11146
▁exile	-11147
▁imper	-11148
chester	-11149
▁wright	-11150
▁command	-11151
▁douglas	-11152
▁republic	-11153
▁≥	-11154
▁捩	-11155
▁滂	-11156
▁瑀	-11157
▁疱	-11158
▁窜	-11159
▁纓	-11160
▁脐	-11161
▁蚶	-11162
▁銹	-11163
▁鐳	-11164
▁鱉	-11165
▁鹬	-11166
11%	-11167
imp	-11168
kit	-11169
oux	-11170
▁mf	-11171
▁wm	-11172
anny	-11173
tech	-11174
▁821	-11175
▁875	-11176
▁908	-11177
▁965	-11178
▁aba	-11179
▁das	-11180
▁flo	-11181
▁toy	-11182
ening	-11183
ilton	-11184
▁1520	-11185
▁1523	-11186
▁1576	-11187
▁1633	-11188
▁1676	-11189
▁font	-11190
▁thor	-11191
▁trin	-11192
▁admin	-11193
▁ghost	-11194
▁polit	-11195
▁valve	-11196
▁author	-11197
▁memory	-11198
atherine	-11199
▁freebsd	-11200
▁benjamin	-11201
▁independ	-11202
▁countdown	-11203
▁elizabeth	-11204
▁evolution	-11205
▁singapore	-11206
▁department	-11207
▁championship	-11208
lu	-11209
▁þ	-11210
▁侑	-11211
▁儷	-11212
▁噹	-11213
▁滷	-11214
▁燬	-11215
▁獐	-11216
▁県	-11217
▁跖	-11218
▁醌	-11219
▁鰺	-11220
122	-11221
310	-11222
alo	-11223
edy	-11224
mur	-11225
ori	-11226
▁lm	-11227
▁nb	-11228
▁nn	-11229
▁px	-11230
ende	-11231
haus	-11232
uber	-11233
wart	-11234
▁16%	-11235
▁641	-11236
▁649	-11237
▁746	-11238
▁878	-11239
▁923	-11240
▁967	-11241
▁993	-11242
▁ans	-11243
▁cav	-11244
▁isa	-11245
▁ois	-11246
aceae	-11247
▁1588	-11248
▁1668	-11249
▁1705	-11250
▁8500	-11251
▁case	-11252
▁coco	-11253
▁pain	-11254
▁then	-11255
▁wise	-11256
▁iupac	-11257
▁labor	-11258
▁moore	-11259
▁texas	-11260
▁trust	-11261
▁commer	-11262
▁knight	-11263
▁russell	-11264
▁community	-11265
vc	-11266
vs	-11267
▁ه	-11268
▁嚐	-11269
▁坵	-11270
▁墉	-11271
▁惺	-11272
▁椽	-11273
▁氖	-11274
▁氡	-11275
▁濡	-11276
▁碓	-11277
▁竑	-11278
▁薙	-11279
▁蛞	-11280
▁遶	-11281
▁鳉	-11282
14%	-11283
cin	-11284
icy	-11285
olis	-11286
onic	-11287
ysis	-11288
▁376	-11289
▁498	-11290
▁733	-11291
▁761	-11292
▁alc	-11293
▁apm	-11294
▁cos	-11295
▁lil	-11296
▁pip	-11297
▁pix	-11298
▁sad	-11299
▁tea	-11300
world	-11301
▁1530	-11302
▁1608	-11303
▁2050	-11304
▁been	-11305
▁bord	-11306
▁fate	-11307
▁resp	-11308
▁trib	-11309
▁catal	-11310
▁freed	-11311
▁image	-11312
▁reich	-11313
▁watch	-11314
lection	-11315
▁premier	-11316
▁village	-11317
▁francisco	-11318
▁ほ	-11319
▁ケ	-11320
▁俶	-11321
▁咆	-11322
▁壑	-11323
▁弭	-11324
▁恙	-11325
▁暠	-11326
▁曷	-11327
▁猗	-11328
▁砵	-11329
▁绯	-11330
▁蝓	-11331
▁蠣	-11332
▁豊	-11333
▁赃	-11334
▁馭	-11335
▁鮈	-11336
▁鸯	-11337
126	-11338
arm	-11339
gas	-11340
jan	-11341
met	-11342
uka	-11343
▁dz	-11344
▁ik	-11345
ifer	-11346
▁004	-11347
▁437	-11348
▁549	-11349
▁595	-11350
▁776	-11351
▁811	-11352
▁969	-11353
▁bil	-11354
▁hir	-11355
▁imm	-11356
▁kur	-11357
▁nob	-11358
asure	-11359
▁1492	-11360
▁1546	-11361
▁1564	-11362
▁lead	-11363
▁mall	-11364
▁tolk	-11365
▁beach	-11366
▁charl	-11367
▁jimmy	-11368
▁metro	-11369
▁tourn	-11370
▁morris	-11371
▁mother	-11372
▁window	-11373
▁netscape	-11374
▁frederick	-11375
▁倻	-11376
▁嘅	-11377
▁圜	-11378
▁搓	-11379
▁梆	-11380
▁禀	-11381
▁缨	-11382
▁鄚	-11383
▁陲	-11384
▁飙	-11385
▁鶘	-11386
15%	-11387
264	-11388
37%	-11389
67%	-11390
▁eh	-11391
▁io	-11392
▁tp	-11393
▁za	-11394
bell	-11395
▁474	-11396
▁481	-11397
▁497	-11398
▁683	-11399
▁702	-11400
▁765	-11401
▁exe	-11402
▁kil	-11403
▁psv	-11404
▁url	-11405
▁whe	-11406
ament	-11407
berry	-11408
istry	-11409
▁1464	-11410
▁barr	-11411
▁brook	-11412
▁exper	-11413
▁franz	-11414
▁match	-11415
▁psych	-11416
ography	-11417
▁antonio	-11418
▁california	-11419
▁conference	-11420
▁revolution	-11421
hu	-11422
iq	-11423
▁ゲ	-11424
▁孪	-11425
▁灏	-11426
▁烁	-11427
▁瞪	-11428
▁碚	-11429
▁膿	-11430
▁臆	-11431
▁蛄	-11432
▁軼	-11433
▁錒	-11434
▁铊	-11435
▁鹟	-11436
104	-11437
dit	-11438
iac	-11439
kir	-11440
▁bj	-11441
▁kp	-11442
ards	-11443
ashi	-11444
▁471	-11445
▁574	-11446
▁666	-11447
▁669	-11448
▁692	-11449
▁842	-11450
▁848	-11451
▁995	-11452
▁esp	-11453
▁fit	-11454
▁sie	-11455
▁tax	-11456
▁1011	-11457
▁1180	-11458
▁1574	-11459
▁1612	-11460
▁1746	-11461
▁bass	-11462
▁gaga	-11463
iation	-11464
▁asian	-11465
▁middle	-11466
▁orange	-11467
▁studies	-11468
▁southern	-11469
▁ی	-11470
▁冑	-11471
▁凄	-11472
▁埭	-11473
▁曄	-11474
▁杼	-11475
▁枷	-11476
▁橈	-11477
▁殮	-11478
▁潯	-11479
▁焜	-11480
▁狒	-11481
▁疍	-11482
▁絶	-11483
▁綝	-11484
▁驪	-11485
107	-11486
emy	-11487
gio	-11488
iah	-11489
inn	-11490
oom	-11491
ulo	-11492
zzo	-11493
▁sj	-11494
▁uv	-11495
oker	-11496
oshi	-11497
stad	-11498
town	-11499
▁469	-11500
▁659	-11501
▁817	-11502
▁955	-11503
▁afi	-11504
▁sit	-11505
▁syl	-11506
ische	-11507
music	-11508
▁1127	-11509
▁1542	-11510
▁1579	-11511
▁1675	-11512
▁berg	-11513
▁bing	-11514
▁circ	-11515
▁crit	-11516
▁dear	-11517
▁imag	-11518
▁root	-11519
▁scar	-11520
▁tree	-11521
ything	-11522
▁urban	-11523
▁perfect	-11524
▁electric	-11525
▁president	-11526
aa	-11527
bu	-11528
dh	-11529
▁乩	-11530
▁剽	-11531
▁喵	-11532
▁嗪	-11533
▁囓	-11534
▁栉	-11535
▁簋	-11536
▁醞	-11537
▁銫	-11538
▁鞮	-11539
33%	-11540
96%	-11541
aph	-11542
▁fb	-11543
lard	-11544
odes	-11545
▁593	-11546
▁661	-11547
▁714	-11548
▁729	-11549
▁741	-11550
▁786	-11551
▁874	-11552
▁904	-11553
▁948	-11554
▁968	-11555
▁982	-11556
▁bak	-11557
▁dre	-11558
▁dut	-11559
▁hob	-11560
▁lip	-11561
▁neg	-11562
▁ufo	-11563
▁1125	-11564
▁1276	-11565
▁1527	-11566
▁1536	-11567
▁1666	-11568
▁1678	-11569
▁3700	-11570
▁3800	-11571
▁bert	-11572
▁ferr	-11573
▁heat	-11574
▁hide	-11575
▁hugh	-11576
▁jpeg	-11577
▁ster	-11578
▁them	-11579
▁30000	-11580
▁honey	-11581
▁smile	-11582
▁spect	-11583
ination	-11584
▁change	-11585
▁nature	-11586
▁search	-11587
▁winter	-11588
▁support	-11589
▁tolkien	-11590
ye	-11591
▁ソ	-11592
▁哄	-11593
▁挛	-11594
▁椋	-11595
▁槲	-11596
▁猥	-11597
▁獗	-11598
▁祟	-11599
▁笹	-11600
▁缢	-11601
▁菝	-11602
▁赭	-11603
▁镌	-11604
▁骇	-11605
05%	-11606
13%	-11607
uba	-11608
▁yg	-11609
onia	-11610
othy	-11611
riel	-11612
▁467	-11613
▁492	-11614
▁559	-11615
▁572	-11616
▁728	-11617
▁781	-11618
▁785	-11619
▁881	-11620
▁lod	-11621
▁plc	-11622
▁vip	-11623
▁xen	-11624
ising	-11625
stone	-11626
▁1278	-11627
▁1587	-11628
▁1692	-11629
▁buff	-11630
▁sens	-11631
▁terr	-11632
▁viii	-11633
▁activ	-11634
▁henri	-11635
▁plant	-11636
▁sarah	-11637
▁score	-11638
▁total	-11639
▁castle	-11640
▁yoshiki	-11641
▁ネ	-11642
▁喹	-11643
▁墘	-11644
▁宓	-11645
▁恍	-11646
▁歴	-11647
▁煇	-11648
▁燉	-11649
▁碣	-11650
▁窥	-11651
▁箇	-11652
▁綻	-11653
▁蜢	-11654
▁褂	-11655
▁詰	-11656
▁諳	-11657
▁錡	-11658
▁鎔	-11659
▁鶲	-11660
03%	-11661
52%	-11662
bes	-11663
mat	-11664
ono	-11665
vet	-11666
▁ud	-11667
olla	-11668
▁491	-11669
▁686	-11670
▁744	-11671
▁808	-11672
▁exo	-11673
▁ges	-11674
▁ibn	-11675
▁rex	-11676
itude	-11677
▁1230	-11678
▁1451	-11679
▁1731	-11680
▁chic	-11681
▁flow	-11682
▁ford	-11683
▁pear	-11684
▁step	-11685
▁minor	-11686
▁skype	-11687
▁amazon	-11688
▁differ	-11689
▁medium	-11690
▁bernard	-11691
▁matthew	-11692
▁administr	-11693
▁references	-11694
ju	-11695
▁đ	-11696
▁ф	-11697
▁傈	-11698
▁坨	-11699
▁嶠	-11700
▁幀	-11701
▁朐	-11702
▁潦	-11703
▁灞	-11704
▁炊	-11705
▁牯	-11706
▁猾	-11707
▁痞	-11708
▁羿	-11709
▁翱	-11710
▁蹂	-11711
▁鉬	-11712
▁雋	-11713
▁鴦	-11714
▁黒	-11715
103	-11716
abe	-11717
hal	-11718
ido	-11719
▁jd	-11720
fort	-11721
ized	-11722
oria	-11723
pent	-11724
▁543	-11725
▁584	-11726
▁662	-11727
▁839	-11728
▁nin	-11729
▁nit	-11730
▁ntt	-11731
▁psr	-11732
▁use	-11733
umont	-11734
▁1440	-11735
▁1442	-11736
▁1519	-11737
▁1534	-11738
▁1545	-11739
▁1555	-11740
▁1563	-11741
▁1699	-11742
▁dean	-11743
▁horn	-11744
▁room	-11745
▁want	-11746
▁piece	-11747
▁sigma	-11748
▁years	-11749
▁beautiful	-11750
rh	-11751
tz	-11752
▁་	-11753
▁ボ	-11754
▁塬	-11755
▁愔	-11756
▁柃	-11757
▁稹	-11758
▁蜃	-11759
▁诀	-11760
▁軫	-11761
▁钍	-11762
▁铮	-11763
▁阖	-11764
08%	-11765
93%	-11766
fri	-11767
▁579	-11768
▁696	-11769
▁699	-11770
▁833	-11771
▁882	-11772
▁dod	-11773
▁dsm	-11774
▁oak	-11775
▁stu	-11776
▁tow	-11777
▁vin	-11778
point	-11779
▁1420	-11780
▁1522	-11781
▁1561	-11782
▁1674	-11783
▁1698	-11784
▁1702	-11785
▁cert	-11786
▁morn	-11787
▁local	-11788
▁nokia	-11789
▁spirit	-11790
▁country	-11791
▁destiny	-11792
▁primary	-11793
▁through	-11794
▁alliance	-11795
▁`	-11796
▁ò	-11797
▁ح	-11798
▁恣	-11799
▁涞	-11800
▁澂	-11801
▁荪	-11802
▁訢	-11803
▁鏘	-11804
▁鷸	-11805
32%	-11806
40%	-11807
95%	-11808
adi	-11809
bow	-11810
die	-11811
iph	-11812
log	-11813
phy	-11814
uts	-11815
▁hz	-11816
▁sz	-11817
▁ws	-11818
isch	-11819
mont	-11820
▁483	-11821
▁657	-11822
▁803	-11823
▁855	-11824
▁866	-11825
▁885	-11826
▁922	-11827
▁dll	-11828
▁haz	-11829
▁rin	-11830
▁tru	-11831
▁utf	-11832
istic	-11833
itive	-11834
lines	-11835
overy	-11836
▁1001	-11837
▁1066	-11838
▁1220	-11839
▁1275	-11840
▁1380	-11841
▁fund	-11842
▁hope	-11843
▁shah	-11844
▁legend	-11845
▁scheme	-11846
▁walker	-11847
▁jacques	-11848
▁transform	-11849
oa	-11850
▁僥	-11851
▁僳	-11852
▁垭	-11853
▁姫	-11854
▁憚	-11855
▁搔	-11856
▁敎	-11857
▁殇	-11858
▁毡	-11859
▁滎	-11860
▁燼	-11861
▁琚	-11862
▁謇	-11863
▁蹊	-11864
▁锄	-11865
▁阇	-11866
▁騫	-11867
▁骧	-11868
203	-11869
85%	-11870
ten	-11871
uto	-11872
▁ji	-11873
oche	-11874
ythm	-11875
▁22%	-11876
▁679	-11877
▁723	-11878
▁732	-11879
▁807	-11880
▁822	-11881
▁836	-11882
▁886	-11883
▁895	-11884
▁896	-11885
▁928	-11886
▁acg	-11887
▁aps	-11888
▁dsp	-11889
▁fur	-11890
▁hub	-11891
▁lux	-11892
▁occ	-11893
▁ran	-11894
▁wir	-11895
color	-11896
rence	-11897
▁1376	-11898
▁1529	-11899
▁1602	-11900
▁1656	-11901
▁1704	-11902
▁1739	-11903
▁cash	-11904
▁chun	-11905
▁mile	-11906
▁null	-11907
▁ward	-11908
▁audio	-11909
▁excel	-11910
▁kelly	-11911
ability	-11912
▁grande	-11913
▁vision	-11914
▁display	-11915
▁premium	-11916
▁َ	-11917
▁厮	-11918
▁嗆	-11919
▁憨	-11920
▁揖	-11921
▁槻	-11922
▁淝	-11923
▁砀	-11924
▁禛	-11925
▁穰	-11926
▁芎	-11927
▁荞	-11928
▁讥	-11929
▁贅	-11930
▁鈈	-11931
▁錠	-11932
▁鍺	-11933
▁鱒	-11934
04%	-11935
79%	-11936
eco	-11937
ede	-11938
iri	-11939
mum	-11940
▁hl	-11941
▁iu	-11942
▁lb	-11943
iber	-11944
lock	-11945
omer	-11946
▁566	-11947
▁656	-11948
▁663	-11949
▁809	-11950
▁812	-11951
▁887	-11952
▁939	-11953
▁947	-11954
▁cbe	-11955
▁kai	-11956
▁lex	-11957
▁lon	-11958
▁spy	-11959
▁vie	-11960
▁1277	-11961
▁1548	-11962
▁1606	-11963
▁1691	-11964
▁1703	-11965
▁host	-11966
▁nova	-11967
ession	-11968
▁billy	-11969
▁grace	-11970
▁liter	-11971
▁songs	-11972
▁heaven	-11973
▁police	-11974
▁select	-11975
▁convent	-11976
▁ό	-11977
▁尴	-11978
▁擘	-11979
▁朦	-11980
▁槛	-11981
▁沆	-11982
▁泠	-11983
▁涎	-11984
▁痙	-11985
▁睪	-11986
▁耙	-11987
▁苄	-11988
▁鎘	-11989
▁顒	-11990
▁鮄	-11991
07%	-11992
20%	-11993
45%	-11994
86%	-11995
ben	-11996
gre	-11997
▁fp	-11998
▁tz	-11999
▁vc	-12000
ador	-12001
ilis	-12002
ruct	-12003
▁23%	-12004
▁24%	-12005
▁449	-12006
▁459	-12007
▁592	-12008
▁608	-12009
▁687	-12010
▁864	-12011
▁bod	-12012
▁1135	-12013
▁1403	-12014
▁1412	-12015
▁1415	-12016
▁1508	-12017
▁1516	-12018
▁1541	-12019
▁1591	-12020
▁1711	-12021
▁1743	-12022
▁cond	-12023
▁easy	-12024
▁spin	-12025
▁drama	-12026
▁hydro	-12027
▁prime	-12028
▁youth	-12029
▁nation	-12030
▁norman	-12031
▁perfor	-12032
▁environ	-12033
▁powerpc	-12034
kv	-12035
px	-12036
▁®	-12037
▁ž	-12038
▁ˊ	-12039
▁ぎ	-12040
▁び	-12041
▁ザ	-12042
▁掳	-12043
▁楂	-12044
▁殤	-12045
▁甾	-12046
▁縷	-12047
▁藁	-12048
▁邽	-12049
00%	-12050
aku	-12051
▁uf	-12052
▁vm	-12053
brid	-12054
▁052	-12055
▁594	-12056
▁753	-12057
▁766	-12058
▁946	-12059
▁kad	-12060
▁nog	-12061
▁pav	-12062
▁rio	-12063
inton	-12064
▁1010	-12065
▁1225	-12066
▁1382	-12067
▁1385	-12068
▁1506	-12069
▁1509	-12070
▁1511	-12071
▁1535	-12072
▁1552	-12073
▁1581	-12074
▁1617	-12075
▁1696	-12076
▁brav	-12077
▁duke	-12078
▁eyes	-12079
▁jord	-12080
▁shin	-12081
▁wang	-12082
▁wars	-12083
▁ocean	-12084
▁phill	-12085
▁margar	-12086
▁gabriel	-12087
▁natural	-12088
▁princess	-12089
mw	-12090
▁า	-12091
▁亘	-12092
▁佞	-12093
▁坯	-12094
▁捡	-12095
▁瓒	-12096
▁砜	-12097
▁菖	-12098
▁葜	-12099
▁郜	-12100
▁钳	-12101
111	-12102
29%	-12103
aha	-12104
ams	-12105
bro	-12106
lev	-12107
put	-12108
rap	-12109
wig	-12110
chin	-12111
side	-12112
vert	-12113
▁473	-12114
▁806	-12115
▁843	-12116
▁868	-12117
▁924	-12118
▁bef	-12119
▁cec	-12120
▁jen	-12121
▁nap	-12122
▁tog	-12123
ether	-12124
illon	-12125
▁1067	-12126
▁1404	-12127
▁1533	-12128
▁1558	-12129
▁4800	-12130
▁echo	-12131
▁epic	-12132
▁less	-12133
▁appro	-12134
▁daily	-12135
ulation	-12136
▁donald	-12137
▁flight	-12138
▁france	-12139
▁another	-12140
▁morning	-12141
▁і	-12142
▁र	-12143
▁ね	-12144
▁呐	-12145
▁塭	-12146
▁娴	-12147
▁嶷	-12148
▁毬	-12149
▁琏	-12150
▁紂	-12151
▁荟	-12152
▁萜	-12153
▁藔	-12154
▁裟	-12155
▁訇	-12156
▁閤	-12157
115	-12158
48%	-12159
oko	-12160
rum	-12161
▁hg	-12162
alle	-12163
ists	-12164
osis	-12165
▁654	-12166
▁771	-12167
▁792	-12168
▁852	-12169
▁877	-12170
▁971	-12171
▁988	-12172
▁ips	-12173
▁lad	-12174
▁rid	-12175
▁tat	-12176
ittor	-12177
▁1170	-12178
▁1320	-12179
▁1510	-12180
▁1537	-12181
▁1566	-12182
▁1596	-12183
▁1695	-12184
▁boot	-12185
▁cool	-12186
▁kink	-12187
▁emule	-12188
▁gamer	-12189
▁tommy	-12190
▁follow	-12191
▁graham	-12192
▁diamond	-12193
▁distrib	-12194
▁technolog	-12195
eb	-12196
▁亵	-12197
▁吝	-12198
▁垓	-12199
▁懾	-12200
▁攒	-12201
▁瀬	-12202
▁痉	-12203
▁睇	-12204
▁筐	-12205
▁荖	-12206
▁閨	-12207
135	-12208
58%	-12209
92%	-12210
idi	-12211
lac	-12212
len	-12213
oca	-12214
uan	-12215
uer	-12216
yon	-12217
▁yf	-12218
0000	-12219
onda	-12220
▁569	-12221
▁703	-12222
▁743	-12223
▁814	-12224
▁827	-12225
▁862	-12226
▁934	-12227
▁961	-12228
▁972	-12229
▁981	-12230
▁ach	-12231
▁atv	-12232
▁fra	-12233
▁gym	-12234
▁ich	-12235
▁kol	-12236
▁kra	-12237
▁1716	-12238
▁born	-12239
▁bour	-12240
▁leop	-12241
▁raid	-12242
▁vvvf	-12243
▁wifi	-12244
▁beast	-12245
▁cloud	-12246
▁maker	-12247
▁animax	-12248
▁forest	-12249
▁proble	-12250
▁season	-12251
▁shinee	-12252
▁factory	-12253
▁myspace	-12254
▁perfume	-12255
▁memorial	-12256
▁electronic	-12257
rs	-12258
zj	-12259
▁ă	-12260
▁ヒ	-12261
▁伉	-12262
▁卍	-12263
▁峦	-12264
▁崮	-12265
▁嶇	-12266
▁忤	-12267
▁惋	-12268
▁揄	-12269
▁晗	-12270
▁玷	-12271
▁瘀	-12272
▁睜	-12273
▁秣	-12274
▁篝	-12275
▁銥	-12276
▁铢	-12277
▁鱘	-12278
▁鳐	-12279
123	-12280
17%	-12281
204	-12282
22%	-12283
50%	-12284
esp	-12285
ser	-12286
usa	-12287
▁fw	-12288
anni	-12289
ilia	-12290
lass	-12291
omet	-12292
uary	-12293
vens	-12294
▁002	-12295
▁752	-12296
▁754	-12297
▁883	-12298
▁915	-12299
▁97%	-12300
▁cum	-12301
▁mud	-12302
▁nag	-12303
▁1086	-12304
▁1392	-12305
▁1597	-12306
▁1712	-12307
▁dota	-12308
▁ifpi	-12309
▁kick	-12310
▁mong	-12311
▁ober	-12312
▁oliv	-12313
▁penn	-12314
▁coast	-12315
▁macos	-12316
▁multi	-12317
▁prize	-12318
▁element	-12319
▁intellig	-12320
▁lawrence	-12321
▁municipal	-12322
mc	-12323
▁ş	-12324
▁吲	-12325
▁啜	-12326
▁夙	-12327
▁杷	-12328
▁沢	-12329
▁濺	-12330
▁篙	-12331
▁篱	-12332
▁絢	-12333
▁罡	-12334
▁艉	-12335
▁虬	-12336
▁袈	-12337
▁鉚	-12338
▁铋	-12339
▁隗	-12340
▁鬬	-12341
23%	-12342
231	-12343
27%	-12344
30%	-12345
35%	-12346
61%	-12347
98%	-12348
999	-12349
rat	-12350
uen	-12351
▁bw	-12352
▁dg	-12353
▁nv	-12354
▁wy	-12355
ante	-12356
eder	-12357
izon	-12358
ulus	-12359
▁564	-12360
▁653	-12361
▁943	-12362
▁983	-12363
▁aks	-12364
▁bib	-12365
▁gig	-12366
▁lav	-12367
▁tin	-12368
▁wan	-12369
▁1030	-12370
▁1040	-12371
▁coff	-12372
▁gren	-12373
▁rows	-12374
▁books	-12375
▁creek	-12376
▁grant	-12377
▁montb	-12378
▁scien	-12379
▁shock	-12380
▁vogue	-12381
▁comple	-12382
▁factor	-12383
▁sainte	-12384
▁simple	-12385
▁travel	-12386
▁yellow	-12387
▁bgcolor	-12388
▁crystal	-12389
▁jonathan	-12390
wo	-12391
▁ψ	-12392
▁ヤ	-12393
▁傉	-12394
▁傕	-12395
▁哌	-12396
▁坷	-12397
▁墀	-12398
▁悯	-12399
▁戾	-12400
▁氚	-12401
▁氪	-12402
▁綦	-12403
▁芍	-12404
▁覬	-12405
▁謔	-12406
▁遹	-12407
▁閎	-12408
▁隽	-12409
▁霏	-12410
▁鳢	-12411
202	-12412
386	-12413
62%	-12414
84%	-12415
900	-12416
bis	-12417
mit	-12418
nik	-12419
▁nx	-12420
eron	-12421
▁724	-12422
▁916	-12423
▁dei	-12424
▁dlc	-12425
▁eag	-12426
▁hug	-12427
▁kun	-12428
▁pel	-12429
▁pon	-12430
▁tol	-12431
lands	-12432
osaur	-12433
▁1129	-12434
▁1234	-12435
▁1240	-12436
▁1388	-12437
▁1514	-12438
▁1557	-12439
▁4200	-12440
▁iata	-12441
▁josh	-12442
▁nint	-12443
▁phen	-12444
▁shel	-12445
▁trna	-12446
▁study	-12447
▁tiger	-12448
▁trade	-12449
▁hunter	-12450
▁mechan	-12451
▁observ	-12452
▁oliver	-12453
▁stream	-12454
▁movement	-12455
▁application	-12456
▁professional	-12457
▁ξ	-12458
▁冏	-12459
▁勣	-12460
▁嘟	-12461
▁枇	-12462
▁楫	-12463
▁獼	-12464
▁窿	-12465
▁繃	-12466
▁蟆	-12467
▁跗	-12468
▁迤	-12469
▁阈	-12470
▁鮪	-12471
207	-12472
24%	-12473
asi	-12474
iza	-12475
kar	-12476
▁tn	-12477
flix	-12478
▁784	-12479
▁819	-12480
▁913	-12481
▁ctv	-12482
▁duc	-12483
▁nel	-12484
▁ome	-12485
▁1070	-12486
▁1279	-12487
▁1480	-12488
▁1490	-12489
▁1515	-12490
▁bird	-12491
▁dram	-12492
▁giov	-12493
▁give	-12494
▁half	-12495
▁hend	-12496
▁hunt	-12497
▁otto	-12498
▁roth	-12499
▁bobby	-12500
▁ident	-12501
▁stock	-12502
ricular	-12503
▁agency	-12504
▁dennis	-12505
▁conserv	-12506
▁aircraft	-12507
▁brothers	-12508
▁economic	-12509
tc	-12510
▁ː	-12511
▁姒	-12512
▁愕	-12513
▁扉	-12514
▁芾	-12515
▁苴	-12516
▁蓑	-12517
▁蠹	-12518
▁袤	-12519
▁詼	-12520
▁軋	-12521
▁锭	-12522
▁髅	-12523
128	-12524
16%	-12525
28%	-12526
38%	-12527
39%	-12528
42%	-12529
57%	-12530
65%	-12531
68%	-12532
hol	-12533
isy	-12534
pal	-12535
ulf	-12536
▁hb	-12537
▁ug	-12538
anne	-12539
iven	-12540
more	-12541
ping	-12542
vais	-12543
▁003	-12544
▁463	-12545
▁797	-12546
▁831	-12547
▁957	-12548
▁987	-12549
▁atc	-12550
▁bed	-12551
▁ced	-12552
▁dag	-12553
▁ein	-12554
▁nes	-12555
▁pam	-12556
▁pir	-12557
▁rig	-12558
▁saw	-12559
▁won	-12560
▁1206	-12561
▁1236	-12562
▁1340	-12563
▁1470	-12564
▁1513	-12565
▁1663	-12566
▁clay	-12567
▁cord	-12568
▁earl	-12569
▁gent	-12570
▁canad	-12571
▁gmail	-12572
▁staff	-12573
▁these	-12574
▁value	-12575
▁advent	-12576
▁justice	-12577
▁rowspan	-12578
▁stewart	-12579
▁robinson	-12580
▁broadcast	-12581
▁universit	-12582
▁federation	-12583
▁environment	-12584
▁י	-12585
▁ポ	-12586
▁㹴	-12587
▁佶	-12588
▁哚	-12589
▁沓	-12590
▁簫	-12591
▁菓	-12592
▁蓀	-12593
▁蝟	-12594
▁蹠	-12595
▁銼	-12596
▁餃	-12597
117	-12598
18%	-12599
60%	-12600
71%	-12601
72%	-12602
82%	-12603
een	-12604
lim	-12605
upt	-12606
▁ov	-12607
▁xl	-12608
nell	-12609
▁739	-12610
▁769	-12611
▁799	-12612
▁ark	-12613
▁pga	-12614
▁1375	-12615
▁1390	-12616
▁1399	-12617
▁1402	-12618
▁1528	-12619
▁1532	-12620
▁1677	-12621
▁1686	-12622
▁1693	-12623
▁alph	-12624
▁bish	-12625
▁bust	-12626
▁cris	-12627
▁rate	-12628
▁soph	-12629
▁spot	-12630
▁viet	-12631
▁param	-12632
▁doctor	-12633
▁gallery	-12634
▁pictures	-12635
▁organization	-12636
▁technologies	-12637
▁ï	-12638
▁ð	-12639
▁ぐ	-12640
▁僮	-12641
▁厩	-12642
▁啃	-12643
▁崽	-12644
▁惣	-12645
▁敝	-12646
▁汎	-12647
▁烫	-12648
▁箐	-12649
▁缬	-12650
▁輋	-12651
▁顼	-12652
55%	-12653
63%	-12654
89%	-12655
ahl	-12656
rac	-12657
uru	-12658
▁lf	-12659
bank	-12660
urst	-12661
▁631	-12662
▁673	-12663
▁795	-12664
▁832	-12665
▁867	-12666
▁baz	-12667
▁bmg	-12668
▁bmp	-12669
▁cot	-12670
▁jes	-12671
▁lay	-12672
▁pau	-12673
▁seg	-12674
▁snh	-12675
▁tec	-12676
▁wwf	-12677
▁yak	-12678
kreis	-12679
opter	-12680
▁1138	-12681
▁1330	-12682
▁1381	-12683
▁1445	-12684
▁buck	-12685
▁idol	-12686
▁lane	-12687
▁mast	-12688
▁yang	-12689
▁chung	-12690
▁conso	-12691
▁faith	-12692
▁guard	-12693
▁nexus	-12694
▁still	-12695
▁thing	-12696
▁justin	-12697
▁rights	-12698
▁deutsch	-12699
▁macbook	-12700
▁netflix	-12701
▁private	-12702
▁solaris	-12703
▁material	-12704
▁thompson	-12705
▁australia	-12706
▁communications	-12707
▁ホ	-12708
▁傚	-12709
▁増	-12710
▁怛	-12711
▁樋	-12712
▁淌	-12713
▁璩	-12714
▁礽	-12715
▁绊	-12716
▁舔	-12717
▁貘	-12718
▁贰	-12719
▁跛	-12720
▁邝	-12721
▁銣	-12722
▁闺	-12723
▁骈	-12724
129	-12725
205	-12726
76%	-12727
etz	-12728
mod	-12729
oft	-12730
rus	-12731
ulu	-12732
▁lh	-12733
iola	-12734
▁1⁄2	-12735
▁21%	-12736
▁709	-12737
▁794	-12738
▁837	-12739
▁917	-12740
▁fig	-12741
▁gap	-12742
▁lem	-12743
▁ole	-12744
▁pom	-12745
▁rip	-12746
▁sed	-12747
eless	-12748
▁1060	-12749
▁1140	-12750
▁1554	-12751
▁1694	-12752
▁1706	-12753
▁exec	-12754
▁shaw	-12755
▁clear	-12756
▁pedro	-12757
▁quant	-12758
▁estate	-12759
▁flower	-12760
▁german	-12761
▁moment	-12762
▁oracle	-12763
▁monster	-12764
▁symbian	-12765
▁airlines	-12766
▁analysis	-12767
▁medicine	-12768
▁嘿	-12769
▁樫	-12770
▁淩	-12771
▁溟	-12772
▁	-12773
,	-12774
的	-12775
。	-12776
1	-12777
0	-12778
年	-12779
2	-12780
、	-12781
一	-12782
在	-12783
是	-12784
中	-12785
9	-12786
人	-12787
a	-12788
有	-12789
大	-12790
e	-12791
3	-12792
和	-12793
5	-12794
為	-12795
以	-12796
i	-12797
8	-12798
o	-12799
r	-12800
4	-12801
n	-12802
月	-12803
日	-12804
6	-12805
了	-12806
国	-12807
7	-12808
s	-12809
t	-12810
为	-12811
地	-12812
成	-12813
國	-12814
不	-12815
於	-12816
上	-12817
l	-12818
公	-12819
行	-12820
出	-12821
他	-12822
之	-12823
部	-12824
斯	-12825
其	-12826
c	-12827
名	-12828
主	-12829
生	-12830
分	-12831
作	-12832
下	-12833
:	-12834
m	-12835
于	-12836
用	-12837
方	-12838
到	-12839
而	-12840
及	-12841
第	-12842
西	-12843
》	-12844
《	-12845
家	-12846
時	-12847
後	-12848
d	-12849
h	-12850
法	-12851
由	-12852
位	-12853
被	-12854
市	-12855
民	-12856
本	-12857
学	-12858
个	-12859
同	-12860
會	-12861
多	-12862
可	-12863
南	-12864
u	-12865
政	-12866
子	-12867
·	-12868
自	-12869
里	-12870
」	-12871
「	-12872
文	-12873
任	-12874
特	-12875
最	-12876
等	-12877
與	-12878
新	-12879
德	-12880
北	-12881
代	-12882
也	-12883
加	-12884
高	-12885
所	-12886
前	-12887
海	-12888
學	-12889
后	-12890
因	-12891
利	-12892
個	-12893
此	-12894
三	-12895
p	-12896
“	-12897
要	-12898
物	-12899
得	-12900
平	-12901
道	-12902
克	-12903
建	-12904
面	-12905
美	-12906
教	-12907
小	-12908
度	-12909
山	-12910
时	-12911
立	-12912
b	-12913
至	-12914
g	-12915
能	-12916
事	-12917
入	-12918
尔	-12919
路	-12920
理	-12921
世	-12922
發	-12923
区	-12924
拉	-12925
会	-12926
二	-12927
外	-12928
天	-12929
但	-12930
合	-12931
定	-12932
化	-12933
工	-12934
口	-12935
表	-12936
期	-12937
使	-12938
球	-12939
全	-12940
台	-12941
性	-12942
次	-12943
十	-12944
科	-12945
;	-12946
通	-12947
州	-12948
f	-12949
者	-12950
式	-12951
都	-12952
重	-12953
共	-12954
力	-12955
"	-12956
來	-12957
軍	-12958
區	-12959
並	-12960
发	-12961
安	-12962
士	-12963
原	-12964
布	-12965
相	-12966
王	-12967
比	-12968
城	-12969
院	-12970
省	-12971
長	-12972
军	-12973
站	-12974
對	-12975
这	-12976
明	-12977
動	-12978
目	-12979
水	-12980
基	-12981
這	-12982
系	-12983
金	-12984
司	-12985
正	-12986
英	-12987
星	-12988
開	-12989
如	-12990
长	-12991
府	-12992
或	-12993
与	-12994
治	-12995
k	-12996
制	-12997
格	-12998
元	-12999
港	-13000
現	-13001
四	-13002
起	-13003
爾	-13004
電	-13005
常	-13006
巴	-13007
对	-13008
經	-13009
尼	-13010
米	-13011
y	-13012
量	-13013
列	-13014
提	-13015
員	-13016
影	-13017
當	-13018
首	-13019
改	-13020
女	-13021
来	-13022
阿	-13023
然	-13024
間	-13025
镇	-13026
就	-13027
戰	-13028
過	-13029
進	-13030
并	-13031
亞	-13032
v	-13033
心	-13034
接	-13035
東	-13036
林	-13037
體	-13038
东	-13039
向	-13040
演	-13041
开	-13042
意	-13043
界	-13044
機	-13045
將	-13046
始	-13047
賽	-13048
w	-13049
內	-13050
車	-13051
河	-13052
动	-13053
程	-13054
受	-13055
色	-13056
場	-13057
型	-13058
包	-13059
总	-13060
指	-13061
曾	-13062
形	-13063
交	-13064
保	-13065
手	-13066
香	-13067
已	-13068
些	-13069
委	-13070
机	-13071
流	-13072
亚	-13073
内	-13074
直	-13075
音	-13076
员	-13077
稱	-13078
管	-13079
太	-13080
经	-13081
隊	-13082
种	-13083
集	-13084
史	-13085
过	-13086
馬	-13087
空	-13088
卡	-13089
業	-13090
身	-13091
校	-13092
进	-13093
種	-13094
现	-13095
更	-13096
县	-13097
五	-13098
字	-13099
品	-13100
線	-13101
江	-13102
车	-13103
兩	-13104
古	-13105
朝	-13106
电	-13107
展	-13108
示	-13109
設	-13110
灣	-13111
社	-13112
各	-13113
洲	-13114
间	-13115
數	-13116
著	-13117
反	-13118
持	-13119
马	-13120
业	-13121
该	-13122
命	-13123
体	-13124
回	-13125
官	-13126
京	-13127
光	-13128
属	-13129
将	-13130
活	-13131
取	-13132
造	-13133
战	-13134
達	-13135
少	-13136
只	-13137
族	-13138
清	-13139
又	-13140
信	-13141
約	-13142
神	-13143
選	-13144
石	-13145
数	-13146
夫	-13147
支	-13148
当	-13149
称	-13150
解	-13151
非	-13152
近	-13153
聯	-13154
情	-13155
它	-13156
设	-13157
局	-13158
普	-13159
號	-13160
罗	-13161
則	-13162
總	-13163
件	-13164
運	-13165
曲	-13166
/	-13167
放	-13168
統	-13169
研	-13170
即	-13171
關	-13172
角	-13173
該	-13174
羅	-13175
華	-13176
商	-13177
波	-13178
武	-13179
無	-13180
版	-13181
們	-13182
队	-13183
先	-13184
片	-13185
計	-13186
联	-13187
括	-13188
收	-13189
村	-13190
两	-13191
器	-13192
白	-13193
去	-13194
樂	-13195
李	-13196
果	-13197
未	-13198
她	-13199
语	-13200
伊	-13201
組	-13202
产	-13203
再	-13204
根	-13205
每	-13206
屬	-13207
场	-13208
知	-13209
运	-13210
往	-13211
初	-13212
蘭	-13213
亦	-13214
密	-13215
线	-13216
座	-13217
視	-13218
引	-13219
且	-13220
語	-13221
达	-13222
华	-13223
今	-13224
派	-13225
兵	-13226
足	-13227
统	-13228
福	-13229
從	-13230
级	-13231
議	-13232
完	-13233
縣	-13234
究	-13235
从	-13236
z	-13237
六	-13238
帝	-13239
歌	-13240
域	-13241
花	-13242
组	-13243
们	-13244
除	-13245
務	-13246
打	-13247
很	-13248
宗	-13249
赛	-13250
實	-13251
島	-13252
居	-13253
关	-13254
產	-13255
言	-13256
說	-13257
令	-13258
義	-13259
广	-13260
服	-13261
門	-13262
團	-13263
結	-13264
段	-13265
号	-13266
威	-13267
兰	-13268
類	-13269
育	-13270
季	-13271
功	-13272
x	-13273
塔	-13274
另	-13275
播	-13276
八	-13277
客	-13278
书	-13279
土	-13280
存	-13281
速	-13282
參	-13283
死	-13284
傳	-13285
置	-13286
修	-13287
计	-13288
%	-13289
率	-13290
推	-13291
好	-13292
超	-13293
约	-13294
認	-13295
周	-13296
单	-13297
希	-13298
宣	-13299
实	-13300
處	-13301
源	-13302
具	-13303
我	-13304
九	-13305
投	-13306
供	-13307
書	-13308
班	-13309
雷	-13310
例	-13311
街	-13312
求	-13313
变	-13314
攻	-13315
皇	-13316
龍	-13317
湖	-13318
维	-13319
獲	-13320
單	-13321
吉	-13322
查	-13323
航	-13324
印	-13325
积	-13326
火	-13327
故	-13328
乡	-13329
田	-13330
己	-13331
案	-13332
沙	-13333
青	-13334
廣	-13335
哈	-13336
那	-13337
务	-13338
勒	-13339
图	-13340
伯	-13341
應	-13342
助	-13343
男	-13344
早	-13345
增	-13346
博	-13347
还	-13348
張	-13349
j	-13350
洛	-13351
別	-13352
資	-13353
份	-13354
舉	-13355
整	-13356
母	-13357
辖	-13358
瓦	-13359
义	-13360
半	-13361
擊	-13362
百	-13363
模	-13364
容	-13365
党	-13366
群	-13367
臺	-13368
技	-13369
铁	-13370
说	-13371
維	-13372
帶	-13373
万	-13374
越	-13375
變	-13376
父	-13377
致	-13378
议	-13379
均	-13380
失	-13381
萬	-13382
點	-13383
導	-13384
師	-13385
易	-13386
参	-13387
專	-13388
黨	-13389
副	-13390
川	-13391
食	-13392
領	-13393
七	-13394
境	-13395
黑	-13396
门	-13397
堂	-13398
紀	-13399
需	-13400
处	-13401
传	-13402
结	-13403
級	-13404
射	-13405
选	-13406
告	-13407
登	-13408
連	-13409
深	-13410
沒	-13411
类	-13412
劇	-13413
塞	-13414
应	-13415
限	-13416
才	-13417
领	-13418
頭	-13419
權	-13420
仍	-13421
木	-13422
游	-13423
升	-13424
條	-13425
无	-13426
苏	-13427
室	-13428
何	-13429
便	-13430
節	-13431
排	-13432
步	-13433
老	-13434
牙	-13435
导	-13436
風	-13437
奥	-13438
象	-13439
团	-13440
魚	-13441
央	-13442
点	-13443
真	-13444
落	-13445
製	-13446
氏	-13447
施	-13448
盟	-13449
像	-13450
考	-13451
際	-13452
乐	-13453
想	-13454
論	-13455
報	-13456
鐵	-13457
甲	-13458
決	-13459
轉	-13460
畫	-13461
氣	-13462
席	-13463
感	-13464
配	-13465
把	-13466
据	-13467
防	-13468
標	-13469
低	-13470
病	-13471
纳	-13472
哥	-13473
洋	-13474
還	-13475
—	-13476
托	-13477
底	-13478
阳	-13479
律	-13480
留	-13481
森	-13482
效	-13483
住	-13484
认	-13485
離	-13486
蒙	-13487
素	-13488
历	-13489
料	-13490
佛	-13491
_	-13492
师	-13493
获	-13494
術	-13495
埃	-13496
止	-13497
冠	-13498
千	-13499
泰	-13500
志	-13501
视	-13502
记	-13503
奇	-13504
息	-13505
據	-13506
奧	-13507
术	-13508
較	-13509
強	-13510
景	-13511
康	-13512
纪	-13513
看	-13514
降	-13515
姆	-13516
曼	-13517
革	-13518
恩	-13519
算	-13520
圖	-13521
典	-13522
迪	-13523
觀	-13524
报	-13525
承	-13526
移	-13527
藏	-13528
職	-13529
愛	-13530
創	-13531
消	-13532
批	-13533
警	-13534
唱	-13535
續	-13536
思	-13537
控	-13538
张	-13539
着	-13540
念	-13541
察	-13542
見	-13543
则	-13544
親	-13545
許	-13546
汉	-13547
做	-13548
带	-13549
遊	-13550
記	-13551
精	-13552
質	-13553
授	-13554
草	-13555
索	-13556
守	-13557
友	-13558
专	-13559
納	-13560
陸	-13561
獎	-13562
论	-13563
票	-13564
俄	-13565
裝	-13566
标	-13567
岛	-13568
極	-13569
題	-13570
瑞	-13571
风	-13572
督	-13573
般	-13574
依	-13575
别	-13576
述	-13577
没	-13578
望	-13579
照	-13580
转	-13581
附	-13582
际	-13583
圣	-13584
权	-13585
祖	-13586
歷	-13587
毛	-13588
調	-13589
抗	-13590
植	-13591
退	-13592
值	-13593
爭	-13594
澳	-13595
章	-13596
陆	-13597
条	-13598
夏	-13599
錄	-13600
富	-13601
封	-13602
候	-13603
歐	-13604
职	-13605
園	-13606
唐	-13607
房	-13608
辦	-13609
編	-13610
永	-13611
終	-13612
办	-13613
复	-13614
網	-13615
停	-13616
丹	-13617
决	-13618
资	-13619
牌	-13620
營	-13621
丁	-13622
构	-13623
隨	-13624
給	-13625
左	-13626
蘇	-13627
破	-13628
节	-13629
含	-13630
積	-13631
快	-13632
拿	-13633
戲	-13634
陳	-13635
莱	-13636
气	-13637
聖	-13638
問	-13639
寺	-13640
似	-13641
必	-13642
萨	-13643
黃	-13644
突	-13645
隆	-13646
邦	-13647
坦	-13648
堡	-13649
協	-13650
飛	-13651
旅	-13652
船	-13653
击	-13654
樣	-13655
尚	-13656
头	-13657
核	-13658
岸	-13659
离	-13660
龙	-13661
调	-13662
興	-13663
争	-13664
眾	-13665
皮	-13666
擔	-13667
項	-13668
梅	-13669
漢	-13670
济	-13671
久	-13672
架	-13673
店	-13674
划	-13675
注	-13676
准	-13677
蒂	-13678
朗	-13679
莫	-13680
强	-13681
延	-13682
举	-13683
油	-13684
兒	-13685
備	-13686
创	-13687
占	-13688
右	-13689
規	-13690
野	-13691
质	-13692
郡	-13693
藝	-13694
剧	-13695
環	-13696
層	-13697
连	-13698
走	-13699
黄	-13700
规	-13701
亡	-13702
衛	-13703
弟	-13704
構	-13705
给	-13706
春	-13707
售	-13708
编	-13709
股	-13710
随	-13711
护	-13712
网	-13713
短	-13714
繼	-13715
負	-13716
}	-13717
熱	-13718
{	-13719
雄	-13720
鲁	-13721
讓	-13722
嘉	-13723
切	-13724
判	-13725
館	-13726
佳	-13727
倫	-13728
試	-13729
装	-13730
策	-13731
协	-13732
筑	-13733
役	-13734
遭	-13735
许	-13736
艾	-13737
邊	-13738
圍	-13739
问	-13740
逐	-13741
样	-13742
乘	-13743
题	-13744
端	-13745
宁	-13746
劃	-13747
旗	-13748
序	-13749
松	-13750
費	-13751
獨	-13752
寫	-13753
距	-13754
弗	-13755
護	-13756
聲	-13757
責	-13758
拔	-13759
雙	-13760
陽	-13761
鎮	-13762
摩	-13763
欧	-13764
紅	-13765
宋	-13766
若	-13767
酒	-13768
敗	-13769
亲	-13770
殺	-13771
響	-13772
送	-13773
园	-13774
伦	-13775
菲	-13776
輯	-13777
观	-13778
束	-13779
诺	-13780
担	-13781
銀	-13782
末	-13783
卫	-13784
證	-13785
甚	-13786
評	-13787
雅	-13788
干	-13789
赫	-13790
红	-13791
营	-13792
尾	-13793
微	-13794
晚	-13795
署	-13796
终	-13797
耶	-13798
勝	-13799
良	-13800
馆	-13801
!	-13802
略	-13803
準	-13804
兴	-13805
樓	-13806
胡	-13807
秀	-13808
项	-13809
津	-13810
醫	-13811
差	-13812
彈	-13813
戏	-13814
范	-13815
边	-13816
裡	-13817
頓	-13818
薩	-13819
兼	-13820
狀	-13821
免	-13822
见	-13823
婚	-13824
帕	-13825
血	-13826
庭	-13827
善	-13828
濟	-13829
籍	-13830
较	-13831
雖	-13832
假	-13833
卻	-13834
臣	-13835
散	-13836
款	-13837
采	-13838
桥	-13839
復	-13840
峰	-13841
备	-13842
续	-13843
库	-13844
話	-13845
顯	-13846
暴	-13847
歲	-13848
什	-13849
予	-13850
諾	-13851
測	-13852
贝	-13853
艦	-13854
织	-13855
奖	-13856
詞	-13857
拍	-13858
写	-13859
围	-13860
喜	-13861
征	-13862
儿	-13863
杜	-13864
农	-13865
朱	-13866
环	-13867
背	-13868
仁	-13869
盛	-13870
追	-13871
热	-13872
酸	-13873
云	-13874
載	-13875
採	-13876
证	-13877
害	-13878
双	-13879
廷	-13880
烈	-13881
企	-13882
爆	-13883
玉	-13884
互	-13885
織	-13886
沿	-13887
板	-13888
劉	-13889
習	-13890
魯	-13891
幾	-13892
牛	-13893
几	-13894
独	-13895
谷	-13896
援	-13897
继	-13898
层	-13899
鄉	-13900
屆	-13901
態	-13902
遠	-13903
介	-13904
爱	-13905
医	-13906
罪	-13907
黎	-13908
君	-13909
僅	-13910
媒	-13911
昌	-13912
救	-13913
舞	-13914
众	-13915
屋	-13916
勢	-13917
請	-13918
余	-13919
试	-13920
價	-13921
預	-13922
滿	-13923
執	-13924
陈	-13925
荷	-13926
画	-13927
溫	-13928
韓	-13929
评	-13930
透	-13931
材	-13932
沃	-13933
艺	-13934
槍	-13935
录	-13936
宮	-13937
响	-13938
確	-13939
刘	-13940
係	-13941
坡	-13942
巨	-13943
秘	-13944
智	-13945
楼	-13946
簡	-13947
飞	-13948
>	-13949
届	-13950
叶	-13951
按	-13952
溪	-13953
址	-13954
益	-13955
徒	-13956
仅	-13957
声	-13958
某	-13959
途	-13960
冰	-13961
佈	-13962
敦	-13963
费	-13964
培	-13965
戶	-13966
梁	-13967
映	-13968
极	-13969
撤	-13970
禁	-13971
<	-13972
拜	-13973
替	-13974
貝	-13975
禮	-13976
轄	-13977
童	-13978
殿	-13979
混	-13980
尺	-13981
探	-13982
翰	-13983
温	-13984
萊	-13985
夜	-13986
聞	-13987
郎	-13988
描	-13989
難	-13990
讀	-13991
築	-13992
壓	-13993
骨	-13994
吸	-13995
刻	-13996
跟	-13997
岁	-13998
眼	-13999
符	-14000
赤	-14001
话	-14002
杀	-14003
刺	-14004
刊	-14005
顿	-14006
擁	-14007
寶	-14008
玩	-14009
固	-14010
毒	-14011
爵	-14012
皆	-14013
乌	-14014
私	-14015
耳	-14016
斷	-14017
遇	-14018
橋	-14019
否	-14020
唯	-14021
确	-14022
q	-14023
葉	-14024
岩	-14025
雲	-14026
逃	-14027
訊	-14028
農	-14029
找	-14030
麗	-14031
充	-14032
休	-14033
穆	-14034
奉	-14035
返	-14036
宇	-14037
傷	-14038
幕	-14039
細	-14040
洪	-14041
雪	-14042
'	-14043
激	-14044
佔	-14045
異	-14046
状	-14047
缺	-14048
你	-14049
監	-14050
霍	-14051
乎	-14052
巡	-14053
操	-14054
況	-14055
旋	-14056
犯	-14057
庆	-14058
词	-14059
庄	-14060
远	-14061
召	-14062
验	-14063
範	-14064
聚	-14065
刑	-14066
練	-14067
優	-14068
户	-14069
满	-14070
午	-14071
識	-14072
須	-14073
穿	-14074
魔	-14075
迫	-14076
漫	-14077
鰭	-14078
廠	-14079
輕	-14080
雨	-14081
斗	-14082
姓	-14083
露	-14084
坐	-14085
靈	-14086
絕	-14087
陵	-14088
翻	-14089
輪	-14090
佩	-14091
餘	-14092
麥	-14093
捕	-14094
测	-14095
尤	-14096
显	-14097
羽	-14098
让	-14099
舊	-14100
忠	-14101
換	-14102
驗	-14103
兄	-14104
=	-14105
嚴	-14106
责	-14107
鬥	-14108
待	-14109
陣	-14110
态	-14111
载	-14112
潮	-14113
抵	-14114
妻	-14115
侵	-14116
申	-14117
呼	-14118
靠	-14119
柏	-14120
秋	-14121
胞	-14122
湾	-14123
银	-14124
徐	-14125
庫	-14126
竹	-14127
价	-14128
遗	-14129
炸	-14130
攝	-14131
肯	-14132
汽	-14133
压	-14134
宫	-14135
负	-14136
篇	-14137
惠	-14138
卷	-14139
側	-14140
茨	-14141
码	-14142
泉	-14143
娜	-14144
泛	-14145
临	-14146
甘	-14147
颗	-14148
绝	-14149
飾	-14150
浙	-14151
|	-14152
孔	-14153
翼	-14154
避	-14155
细	-14156
戈	-14157
炮	-14158
识	-14159
融	-14160
简	-14161
泽	-14162
习	-14163
董	-14164
歸	-14165
韩	-14166
危	-14167
肉	-14168
桑	-14169
烏	-14170
吳	-14171
宝	-14172
胜	-14173
購	-14174
殖	-14175
败	-14176
芬	-14177
戴	-14178
急	-14179
辛	-14180
億	-14181
概	-14182
呈	-14183
疑	-14184
厂	-14185
默	-14186
畢	-14187
順	-14188
健	-14189
努	-14190
况	-14191
孫	-14192
丽	-14193
奪	-14194
套	-14195
孩	-14196
榮	-14197
慶	-14198
奏	-14199
秦	-14200
断	-14201
譯	-14202
叫	-14203
氧	-14204
啟	-14205
碼	-14206
階	-14207
週	-14208
乾	-14209
杨	-14210
卢	-14211
減	-14212
染	-14213
臨	-14214
雜	-14215
阻	-14216
虎	-14217
渡	-14218
佐	-14219
毕	-14220
漸	-14221
魏	-14222
墨	-14223
归	-14224
珠	-14225
隔	-14226
衣	-14227
銷	-14228
井	-14229
难	-14230
葡	-14231
裁	-14232
樹	-14233
函	-14234
贵	-14235
宜	-14236
孙	-14237
輸	-14238
驻	-14239
杰	-14240
请	-14241
迎	-14242
冷	-14243
仙	-14244
析	-14245
震	-14246
味	-14247
换	-14248
棲	-14249
迷	-14250
圈	-14251
付	-14252
墓	-14253
弹	-14254
涉	-14255
御	-14256
]	-14257
亮	-14258
哲	-14259
楊	-14260
严	-14261
傑	-14262
綱	-14263
舍	-14264
池	-14265
廉	-14266
[	-14267
执	-14268
詩	-14269
麻	-14270
俗	-14271
侧	-14272
險	-14273
徵	-14274
偏	-14275
暗	-14276
町	-14277
豐	-14278
洞	-14279
监	-14280
恐	-14281
招	-14282
訓	-14283
拥	-14284
势	-14285
榜	-14286
侯	-14287
厅	-14288
尊	-14289
瑪	-14290
硬	-14291
享	-14292
賓	-14293
闻	-14294
俱	-14295
液	-14296
症	-14297
租	-14298
繁	-14299
辑	-14300
彩	-14301
毫	-14302
树	-14303
廳	-14304
圓	-14305
莉	-14306
轮	-14307
倒	-14308
豪	-14309
釋	-14310
楚	-14311
寧	-14312
藍	-14313
琴	-14314
藥	-14315
预	-14316
妹	-14317
掌	-14318
盃	-14319
麦	-14320
昂	-14321
鐘	-14322
財	-14323
夠	-14324
逝	-14325
扎	-14326
借	-14327
礼	-14328
齐	-14329
崇	-14330
销	-14331
鲜	-14332
紐	-14333
曹	-14334
捷	-14335
吴	-14336
舰	-14337
補	-14338
+	-14339
徽	-14340
遷	-14341
冬	-14342
浦	-14343
诗	-14344
药	-14345
昭	-14346
養	-14347
腦	-14348
淡	-14349
截	-14350
柱	-14351
瑟	-14352
萄	-14353
旧	-14354
伍	-14355
匹	-14356
裂	-14357
適	-14358
軟	-14359
鱼	-14360
幼	-14361
頂	-14362
输	-14363
读	-14364
奈	-14365
儀	-14366
乃	-14367
盖	-14368
伐	-14369
乙	-14370
蓋	-14371
勞	-14372
迁	-14373
鼓	-14374
蛋	-14375
杂	-14376
频	-14377
估	-14378
零	-14379
簽	-14380
玛	-14381
遺	-14382
优	-14383
振	-14384
顺	-14385
討	-14386
拒	-14387
輛	-14388
劳	-14389
患	-14390
晋	-14391
頻	-14392
併	-14393
鮮	-14394
弱	-14395
顶	-14396
菜	-14397
恢	-14398
邀	-14399
陶	-14400
藤	-14401
陷	-14402
晉	-14403
敵	-14404
郭	-14405
韦	-14406
鄭	-14407
?	-14408
虽	-14409
灵	-14410
异	-14411
粉	-14412
轨	-14413
兹	-14414
困	-14415
却	-14416
亿	-14417
译	-14418
凱	-14419
货	-14420
貨	-14421
句	-14422
菌	-14423
貴	-14424
跨	-14425
覺	-14426
浪	-14427
丰	-14428
檢	-14429
尽	-14430
牧	-14431
輻	-14432
歡	-14433
滑	-14434
審	-14435
莎	-14436
偶	-14437
宿	-14438
旁	-14439
誌	-14440
冲	-14441
熙	-14442
障	-14443
汗	-14444
駐	-14445
糖	-14446
訪	-14447
競	-14448
錦	-14449
徑	-14450
塘	-14451
殊	-14452
蔡	-14453
衡	-14454
遍	-14455
紫	-14456
擴	-14457
阶	-14458
茶	-14459
柯	-14460
伤	-14461
衝	-14462
勇	-14463
亨	-14464
軌	-14465
鳥	-14466
扩	-14467
燃	-14468
丘	-14469
宅	-14470
磁	-14471
幫	-14472
祭	-14473
财	-14474
答	-14475
签	-14476
纽	-14477
課	-14478
亂	-14479
澤	-14480
奴	-14481
昆	-14482
諸	-14483
挥	-14484
赵	-14485
疆	-14486
灰	-14487
币	-14488
庙	-14489
滅	-14490
沈	-14491
搭	-14492
脈	-14493
盤	-14494
彼	-14495
络	-14496
講	-14497
棒	-14498
揮	-14499
敏	-14500
絲	-14501
促	-14502
养	-14503
幅	-14504
允	-14505
鏡	-14506
覆	-14507
杯	-14508
綠	-14509
鄰	-14510
額	-14511
珍	-14512
凯	-14513
幸	-14514
伴	-14515
訴	-14516
谢	-14517
赴	-14518
訂	-14519
械	-14520
綫	-14521
療	-14522
拆	-14523
荣	-14524
讲	-14525
恒	-14526
检	-14527
跑	-14528
审	-14529
仔	-14530
葬	-14531
茲	-14532
幻	-14533
績	-14534
晶	-14535
慈	-14536
祥	-14537
顧	-14538
厚	-14539
练	-14540
擇	-14541
诸	-14542
软	-14543
餐	-14544
獻	-14545
倍	-14546
裔	-14547
葛	-14548
幣	-14549
堅	-14550
遂	-14551
敬	-14552
减	-14553
廟	-14554
齊	-14555
剛	-14556
聽	-14557
複	-14558
宽	-14559
孟	-14560
轻	-14561
匈	-14562
孝	-14563
折	-14564
箭	-14565
熟	-14566
碑	-14567
释	-14568
惡	-14569
寬	-14570
苦	-14571
『	-14572
賣	-14573
柴	-14574
遣	-14575
沉	-14576
钟	-14577
』	-14578
燕	-14579
謝	-14580
埔	-14581
襲	-14582
桃	-14583
叛	-14584
緯	-14585
姐	-14586
乔	-14587
°	-14588
慢	-14589
尖	-14590
願	-14591
騎	-14592
齒	-14593
桂	-14594
绕	-14595
疾	-14596
阵	-14597
憲	-14598
粒	-14599
盧	-14600
脂	-14601
侍	-14602
橫	-14603
柳	-14604
牠	-14605
献	-14606
懷	-14607
誤	-14608
启	-14609
廢	-14610
喬	-14611
辽	-14612
迅	-14613
够	-14614
螺	-14615
挑	-14616
么	-14617
渐	-14618
蛇	-14619
凡	-14620
枚	-14621
棋	-14622
伏	-14623
摄	-14624
仰	-14625
買	-14626
刀	-14627
须	-14628
恆	-14629
敌	-14630
談	-14631
访	-14632
伸	-14633
圆	-14634
朋	-14635
瓜	-14636
吃	-14637
补	-14638
险	-14639
撒	-14640
额	-14641
尋	-14642
〉	-14643
〈	-14644
枪	-14645
彭	-14646
跳	-14647
慕	-14648
貢	-14649
腳	-14650
雕	-14651
壁	-14652
艘	-14653
賞	-14654
錢	-14655
損	-14656
妮	-14657
涅	-14658
宪	-14659
适	-14660
擎	-14661
緣	-14662
汇	-14663
劍	-14664
仪	-14665
宾	-14666
緒	-14667
钱	-14668
训	-14669
臘	-14670
旺	-14671
縮	-14672
頒	-14673
础	-14674
掉	-14675
鬼	-14676
潘	-14677
谋	-14678
棄	-14679
辆	-14680
贡	-14681
夺	-14682
购	-14683
帮	-14684
乱	-14685
芳	-14686
韋	-14687
羊	-14688
艇	-14689
罕	-14690
郑	-14691
駛	-14692
番	-14693
撞	-14694
勤	-14695
岡	-14696
趣	-14697
毀	-14698
芝	-14699
輔	-14700
鼠	-14701
涯	-14702
藉	-14703
隶	-14704
脫	-14705
乳	-14706
梯	-14707
泊	-14708
累	-14709
拓	-14710
夢	-14711
繪	-14712
莊	-14713
幹	-14714
琳	-14715
赞	-14716
熊	-14717
趙	-14718
泥	-14719
藩	-14720
痛	-14721
毁	-14722
炎	-14723
腹	-14724
屯	-14725
浮	-14726
咸	-14727
锡	-14728
針	-14729
鹿	-14730
废	-14731
豆	-14732
斑	-14733
隧	-14734
玄	-14735
绍	-14736
麼	-14737
杉	-14738
陰	-14739
壞	-14740
賴	-14741
怀	-14742
詹	-14743
隸	-14744
怪	-14745
緊	-14746
块	-14747
腊	-14748
～	-14749
袁	-14750
喀	-14751
觉	-14752
爲	-14753
仲	-14754
秒	-14755
灭	-14756
卓	-14757
陕	-14758
径	-14759
隻	-14760
袭	-14761
屏	-14762
杭	-14763
顆	-14764
坑	-14765
择	-14766
慧	-14767
玻	-14768
謀	-14769
滨	-14770
錯	-14771
乏	-14772
筆	-14773
贏	-14774
溶	-14775
蟲	-14776
厄	-14777
旦	-14778
插	-14779
晨	-14780
塑	-14781
畔	-14782
缩	-14783
盡	-14784
墙	-14785
矿	-14786
靖	-14787
宙	-14788
崎	-14789
暫	-14790
轴	-14791
绿	-14792
衰	-14793
寄	-14794
戒	-14795
蔣	-14796
损	-14797
妃	-14798
坚	-14799
紹	-14800
剂	-14801
搜	-14802
洗	-14803
é	-14804
笑	-14805
坎	-14806
貿	-14807
饰	-14808
圳	-14809
鳳	-14810
巧	-14811
戀	-14812
檔	-14813
讨	-14814
盘	-14815
祝	-14816
穩	-14817
凌	-14818
壽	-14819
岳	-14820
俊	-14821
脱	-14822
碳	-14823
甸	-14824
亭	-14825
礎	-14826
箱	-14827
循	-14828
坊	-14829
揚	-14830
宏	-14831
觸	-14832
骑	-14833
疏	-14834
袖	-14835
鯉	-14836
盾	-14837
栽	-14838
辭	-14839
閣	-14840
塊	-14841
僧	-14842
顾	-14843
撰	-14844
枝	-14845
郊	-14846
焦	-14847
偉	-14848
既	-14849
扮	-14850
叔	-14851
刚	-14852
邨	-14853
欢	-14854
愿	-14855
鋼	-14856
弘	-14857
仿	-14858
卿	-14859
灌	-14860
锦	-14861
紙	-14862
蓝	-14863
谈	-14864
扬	-14865
輝	-14866
邻	-14867
岭	-14868
竞	-14869
虫	-14870
脑	-14871
吕	-14872
听	-14873
买	-14874
茂	-14875
驅	-14876
譽	-14877
诉	-14878
契	-14879
曆	-14880
贸	-14881
针	-14882
絡	-14883
凤	-14884
疗	-14885
舒	-14886
盐	-14887
镜	-14888
廈	-14889
欲	-14890
匯	-14891
翁	-14892
拳	-14893
荒	-14894
夷	-14895
砲	-14896
措	-14897
霸	-14898
純	-14899
娛	-14900
裕	-14901
靜	-14902
潛	-14903
勃	-14904
券	-14905
耀	-14906
浩	-14907
遜	-14908
迴	-14909
床	-14910
尉	-14911
串	-14912
填	-14913
割	-14914
閉	-14915
钢	-14916
横	-14917
淮	-14918
赖	-14919
擬	-14920
剩	-14921
顏	-14922
紧	-14923
綜	-14924
订	-14925
捐	-14926
婦	-14927
丝	-14928
沟	-14929
覽	-14930
嶼	-14931
嶺	-14932
阴	-14933
坏	-14934
燒	-14935
鸟	-14936
誉	-14937
苗	-14938
丈	-14939
崔	-14940
衍	-14941
犹	-14942
隱	-14943
泳	-14944
獸	-14945
銅	-14946
怒	-14947
冊	-14948
壇	-14949
歧	-14950
肥	-14951
厘	-14952
错	-14953
琉	-14954
垂	-14955
污	-14956
湘	-14957
傅	-14958
湯	-14959
蓮	-14960
邮	-14961
燈	-14962
搬	-14963
铜	-14964
賢	-14965
脉	-14966
窗	-14967
廊	-14968
卜	-14969
齡	-14970
珊	-14971
斜	-14972
災	-14973
迈	-14974
膜	-14975
儒	-14976
獵	-14977
综	-14978
儘	-14979
恶	-14980
肃	-14981
耗	-14982
寿	-14983
錫	-14984
駕	-14985
握	-14986
寒	-14987
薄	-14988
逆	-14989
狄	-14990
欣	-14991
课	-14992
悉	-14993
妇	-14994
呂	-14995
孤	-14996
煤	-14997
旨	-14998
猪	-14999
册	-15000
胎	-15001
獄	-15002
稳	-15003
殘	-15004
虛	-15005
逊	-15006
鋒	-15007
抽	-15008
逢	-15009
壤	-15010
阁	-15011
误	-15012
粗	-15013
寨	-15014
蛛	-15015
貌	-15016
聘	-15017
迹	-15018
弃	-15019
粹	-15020
鼻	-15021
陀	-15022
濱	-15023
冒	-15024
笼	-15025
吐	-15026
静	-15027
剑	-15028
吾	-15029
憶	-15030
猶	-15031
缘	-15032
坪	-15033
倉	-15034
笔	-15035
狂	-15036
稿	-15037
狗	-15038
柔	-15039
翠	-15040
俘	-15041
税	-15042
辞	-15043
键	-15044
纸	-15045
婆	-15046
蝶	-15047
叙	-15048
闭	-15049
譜	-15050
挪	-15051
忍	-15052
揭	-15053
賀	-15054
違	-15055
潜	-15056
貫	-15057
謂	-15058
阮	-15059
璃	-15060
紋	-15061
矩	-15062
疫	-15063
稍	-15064
驱	-15065
扶	-15066
籌	-15067
翌	-15068
娘	-15069
辅	-15070
胸	-15071
拟	-15072
邓	-15073
&	-15074
鹽	-15075
─	-15076
酶	-15077
菊	-15078
稅	-15079
姬	-15080
憑	-15081
贊	-15082
硫	-15083
魂	-15084
汪	-15085
慮	-15086
潭	-15087
狼	-15088
苑	-15089
礦	-15090
彰	-15091
赢	-15092
泡	-15093
遵	-15094
殼	-15095
雀	-15096
卵	-15097
刷	-15098
鍵	-15099
丙	-15100
惟	-15101
绩	-15102
棘	-15103
储	-15104
颱	-15105
堆	-15106
弦	-15107
峡	-15108
歇	-15109
軸	-15110
驚	-15111
兆	-15112
碎	-15113
寻	-15114
郵	-15115
奔	-15116
牵	-15117
绪	-15118
添	-15119
鄧	-15120
淘	-15121
吏	-15122
恰	-15123
腐	-15124
狱	-15125
曰	-15126
纵	-15127
癌	-15128
跡	-15129
阪	-15130
脊	-15131
註	-15132
姻	-15133
粵	-15134
押	-15135
猛	-15136
档	-15137
屈	-15138
偷	-15139
姚	-15140
詳	-15141
览	-15142
碟	-15143
嘴	-15144
鯰	-15145
劑	-15146
傾	-15147
繞	-15148
堪	-15149
纯	-15150
蕨	-15151
紛	-15152
岗	-15153
仇	-15154
飲	-15155
貓	-15156
夕	-15157
誕	-15158
誠	-15159
叉	-15160
勳	-15161
轟	-15162
醇	-15163
蒸	-15164
芒	-15165
蕭	-15166
獅	-15167
籃	-15168
裏	-15169
涵	-15170
逼	-15171
牆	-15172
縱	-15173
残	-15174
拼	-15175
奶	-15176
矛	-15177
辰	-15178
灾	-15179
贾	-15180
烟	-15181
儲	-15182
扁	-15183
绘	-15184
隋	-15185
冯	-15186
卒	-15187
鎖	-15188
寸	-15189
頁	-15190
屠	-15191
祀	-15192
逮	-15193
劫	-15194
嫁	-15195
→	-15196
敢	-15197
触	-15198
卑	-15199
掘	-15200
煙	-15201
肌	-15202
奎	-15203
讷	-15204
隐	-15205
醒	-15206
峽	-15207
斤	-15208
娃	-15209
礁	-15210
緩	-15211
伽	-15212
氯	-15213
嫌	-15214
薛	-15215
忙	-15216
怖	-15217
凝	-15218
迦	-15219
磨	-15220
汤	-15221
蒋	-15222
卖	-15223
雍	-15224
嗣	-15225
偵	-15226
虚	-15227
犬	-15228
梦	-15229
颜	-15230
袋	-15231
悲	-15232
烧	-15233
伟	-15234
髮	-15235
肖	-15236
抑	-15237
妙	-15238
鼎	-15239
株	-15240
篮	-15241
虑	-15242
忽	-15243
沖	-15244
栖	-15245
勋	-15246
掛	-15247
厦	-15248
膠	-15249
銜	-15250
颁	-15251
盆	-15252
汰	-15253
盜	-15254
稻	-15255
罰	-15256
蟹	-15257
竟	-15258
躍	-15259
吨	-15260
雌	-15261
抱	-15262
暂	-15263
脚	-15264
吹	-15265
灯	-15266
毅	-15267
丸	-15268
祿	-15269
襄	-15270
擾	-15271
怕	-15272
’	-15273
龜	-15274
讯	-15275
氢	-15276
衔	-15277
幽	-15278
麟	-15279
湿	-15280
缓	-15281
砂	-15282
拖	-15283
鄂	-15284
豫	-15285
翔	-15286
斐	-15287
贈	-15288
勵	-15289
巢	-15290
宰	-15291
涌	-15292
圭	-15293
茵	-15294
~	-15295
姊	-15296
崩	-15297
丛	-15298
貞	-15299
萧	-15300
賈	-15301
碧	-15302
詢	-15303
敘	-15304
茅	-15305
辨	-15306
噶	-15307
旬	-15308
蜂	-15309
抚	-15310
倡	-15311
馮	-15312
剪	-15313
媽	-15314
甫	-15315
腔	-15316
鴻	-15317
腺	-15318
囊	-15319
谱	-15320
筹	-15321
淺	-15322
邪	-15323
・	-15324
恭	-15325
邑	-15326
祠	-15327
濃	-15328
漠	-15329
漁	-15330
託	-15331
鱸	-15332
硕	-15333
龄	-15334
滾	-15335
姜	-15336
锋	-15337
埋	-15338
吞	-15339
暖	-15340
壘	-15341
晓	-15342
喇	-15343
孕	-15344
谓	-15345
虹	-15346
雞	-15347
尹	-15348
氨	-15349
胶	-15350
魁	-15351
彌	-15352
冈	-15353
莲	-15354
溝	-15355
朴	-15356
邁	-15357
寓	-15358
珀	-15359
喪	-15360
挂	-15361
滕	-15362
×	-15363
蹈	-15364
舟	-15365
蓬	-15366
咖	-15367
坛	-15368
俠	-15369
扣	-15370
吻	-15371
坝	-15372
脅	-15373
苯	-15374
愈	-15375
伙	-15376
噴	-15377
抓	-15378
汀	-15379
耐	-15380
挖	-15381
胺	-15382
椎	-15383
飯	-15384
礙	-15385
搖	-15386
巫	-15387
陪	-15388
壮	-15389
贯	-15390
仓	-15391
披	-15392
耕	-15393
催	-15394
碩	-15395
稀	-15396
薇	-15397
舌	-15398
斥	-15399
矮	-15400
慣	-15401
撫	-15402
瓶	-15403
齿	-15404
削	-15405
掠	-15406
廖	-15407
讚	-15408
卸	-15409
龐	-15410
桓	-15411
藻	-15412
滩	-15413
违	-15414
吧	-15415
烯	-15416
详	-15417
鍾	-15418
渠	-15419
蒲	-15420
鸡	-15421
铺	-15422
邱	-15423
纹	-15424
閱	-15425
蜀	-15426
崖	-15427
唇	-15428
姑	-15429
屍	-15430
棉	-15431
葵	-15432
擅	-15433
庶	-15434
募	-15435
徹	-15436
粮	-15437
賜	-15438
链	-15439
帽	-15440
汝	-15441
禾	-15442
‘	-15443
薪	-15444
褐	-15445
溯	-15446
潔	-15447
筒	-15448
贤	-15449
豹	-15450
昇	-15451
暨	-15452
曉	-15453
蜜	-15454
鷹	-15455
啡	-15456
札	-15457
亥	-15458
弓	-15459
尿	-15460
閩	-15461
忘	-15462
梨	-15463
磷	-15464
貼	-15465
懸	-15466
酷	-15467
摧	-15468
鲍	-15469
梵	-15470
帥	-15471
缅	-15472
鑑	-15473
穴	-15474
丞	-15475
麵	-15476
惜	-15477
踏	-15478
肺	-15479
坂	-15480
邵	-15481
拘	-15482
纷	-15483
悬	-15484
琪	-15485
彻	-15486
杆	-15487
漏	-15488
甜	-15489
巷	-15490
趕	-15491
蕾	-15492
宴	-15493
拱	-15494
翅	-15495
怡	-15496
润	-15497
掩	-15498
沪	-15499
緬	-15500
页	-15501
腾	-15502
蹤	-15503
冕	-15504
淑	-15505
睡	-15506
奠	-15507
肢	-15508
碰	-15509
嘗	-15510
禦	-15511
宛	-15512
仕	-15513
棕	-15514
鉴	-15515
販	-15516
堤	-15517
枢	-15518
澄	-15519
柄	-15520
爪	-15521
誓	-15522
倾	-15523
励	-15524
哪	-15525
菩	-15526
逸	-15527
钦	-15528
诚	-15529
框	-15530
赏	-15531
慎	-15532
玲	-15533
毗	-15534
丑	-15535
遞	-15536
疊	-15537
鳴	-15538
臂	-15539
遲	-15540
呎	-15541
桌	-15542
驾	-15543
蹟	-15544
帅	-15545
赐	-15546
驶	-15547
霞	-15548
腿	-15549
遼	-15550
饮	-15551
銘	-15552
姿	-15553
猎	-15554
豬	-15555
丧	-15556
递	-15557
逻	-15558
贺	-15559
禄	-15560
禪	-15561
窄	-15562
腓	-15563
頗	-15564
冀	-15565
恋	-15566
淨	-15567
弄	-15568
雇	-15569
潤	-15570
烷	-15571
帆	-15572
寮	-15573
娶	-15574
辉	-15575
鐸	-15576
兔	-15577
腰	-15578
韻	-15579
恨	-15580
桐	-15581
阔	-15582
栗	-15583
肩	-15584
搶	-15585
悠	-15586
ー	-15587
辯	-15588
C	-15589
猜	-15590
瘤	-15591
蝠	-15592
扭	-15593
忆	-15594
抄	-15595
欽	-15596
跃	-15597
‧	-15598
貧	-15599
辟	-15600
罚	-15601
朵	-15602
赠	-15603
趨	-15604
壳	-15605
嫩	-15606
爬	-15607
繩	-15608
裸	-15609
惊	-15610
殷	-15611
沼	-15612
盈	-15613
胁	-15614
臟	-15615
滋	-15616
壯	-15617
庇	-15618
忌	-15619
逾	-15620
牲	-15621
飓	-15622
肝	-15623
禧	-15624
囚	-15625
蜥	-15626
糧	-15627
吊	-15628
纲	-15629
妖	-15630
炭	-15631
浸	-15632
α	-15633
繫	-15634
庸	-15635
罷	-15636
磯	-15637
荃	-15638
贞	-15639
厥	-15640
锁	-15641
鯨	-15642
劣	-15643
勸	-15644
掃	-15645
慰	-15646
閃	-15647
*	-15648
鈴	-15649
诞	-15650
贫	-15651
兽	-15652
铸	-15653
阅	-15654
弥	-15655
旱	-15656
а	-15657
勁	-15658
哀	-15659
埠	-15660
瑚	-15661
鱗	-15662
彥	-15663
扇	-15664
闊	-15665
蓄	-15666
駁	-15667
亩	-15668
搞	-15669
浓	-15670
盗	-15671
怎	-15672
趁	-15673
の	-15674
喷	-15675
秩	-15676
診	-15677
賦	-15678
氟	-15679
橡	-15680
辩	-15681
砖	-15682
跋	-15683
凰	-15684
樞	-15685
ン	-15686
濕	-15687
霧	-15688
扰	-15689
祈	-15690
焚	-15691
臀	-15692
柬	-15693
椅	-15694
槽	-15695
氫	-15696
灘	-15697
庞	-15698
債	-15699
償	-15700
瓷	-15701
庚	-15702
昔	-15703
噸	-15704
跌	-15705
薦	-15706
鱷	-15707
肅	-15708
赶	-15709
诏	-15710
擦	-15711
轰	-15712
牽	-15713
嵌	-15714
遮	-15715
蕃	-15716
赋	-15717
闽	-15718
瑜	-15719
欠	-15720
芙	-15721
鮑	-15722
猫	-15723
$	-15724
攜	-15725
夸	-15726
酮	-15727
屿	-15728
仑	-15729
挺	-15730
猴	-15731
肇	-15732
寇	-15733
艙	-15734
о	-15735
偽	-15736
凭	-15737
缸	-15738
彦	-15739
晴	-15740
涂	-15741
禅	-15742
祐	-15743
怨	-15744
哺	-15745
汶	-15746
氮	-15747
擺	-15748
狹	-15749
娱	-15750
頸	-15751
履	-15752
慘	-15753
净	-15754
眠	-15755
芭	-15756
询	-15757
鸿	-15758
鞋	-15759
棟	-15760
漂	-15761
鶴	-15762
碱	-15763
贴	-15764
郁	-15765
伪	-15766
鑽	-15767
欄	-15768
喻	-15769
悟	-15770
踢	-15771
捉	-15772
狐	-15773
眉	-15774
斬	-15775
嘛	-15776
攀	-15777
#	-15778
桿	-15779
昏	-15780
琼	-15781
栏	-15782
徙	-15783
璋	-15784
喝	-15785
尸	-15786
夥	-15787
狮	-15788
軒	-15789
颇	-15790
炳	-15791
浅	-15792
摇	-15793
麓	-15794
彎	-15795
穗	-15796
妥	-15797
譚	-15798
渔	-15799
粤	-15800
佑	-15801
睛	-15802
賊	-15803
踪	-15804
厢	-15805
蘋	-15806
廂	-15807
撥	-15808
鹰	-15809
坤	-15810
喉	-15811
僚	-15812
抢	-15813
窮	-15814
彗	-15815
爸	-15816
醉	-15817
匣	-15818
侨	-15819
糕	-15820
齋	-15821
淳	-15822
帖	-15823
鞍	-15824
绥	-15825
饭	-15826
寵	-15827
歉	-15828
迟	-15829
惯	-15830
棚	-15831
櫻	-15832
菱	-15833
崗	-15834
躲	-15835
邏	-15836
胆	-15837
戊	-15838
匪	-15839
荐	-15840
酯	-15841
尝	-15842
諮	-15843
臉	-15844
漆	-15845
и	-15846
梭	-15847
畜	-15848
旭	-15849
淵	-15850
涼	-15851
穌	-15852
勘	-15853
矢	-15854
辱	-15855
椒	-15856
盒	-15857
戚	-15858
茄	-15859
洁	-15860
熔	-15861
鴨	-15862
岐	-15863
劝	-15864
帳	-15865
鬆	-15866
詔	-15867
榴	-15868
騰	-15869
凉	-15870
聰	-15871
咒	-15872
勾	-15873
摔	-15874
咀	-15875
秉	-15876
碍	-15877
戌	-15878
賭	-15879
盲	-15880
罩	-15881
霖	-15882
罢	-15883
鹤	-15884
蛙	-15885
糊	-15886
煌	-15887
謙	-15888
瓊	-15889
鏈	-15890
閘	-15891
爐	-15892
鯛	-15893
牟	-15894
纤	-15895
庵	-15896
欺	-15897
滚	-15898
韶	-15899
痕	-15900
夾	-15901
陝	-15902
燥	-15903
竣	-15904
虞	-15905
笛	-15906
漳	-15907
瞄	-15908
虐	-15909
棠	-15910
′	-15911
澎	-15912
奮	-15913
幢	-15914
浴	-15915
趋	-15916
廿	-15917
拯	-15918
腸	-15919
塌	-15920
荆	-15921
斌	-15922
携	-15923
爺	-15924
蛤	-15925
遙	-15926
奸	-15927
匠	-15928
阜	-15929
侶	-15930
垣	-15931
瑙	-15932
貪	-15933
哭	-15934
塗	-15935
憤	-15936
胃	-15937
á	-15938
蝦	-15939
瓣	-15940
穷	-15941
嬰	-15942
畏	-15943
僑	-15944
潰	-15945
侠	-15946
捲	-15947
纖	-15948
矶	-15949
扫	-15950
擋	-15951
膚	-15952
誘	-15953
鎊	-15954
い	-15955
膨	-15956
憂	-15957
黛	-15958
螢	-15959
崙	-15960
焰	-15961
稣	-15962
朔	-15963
駿	-15964
剿	-15965
汁	-15966
酋	-15967
噪	-15968
凸	-15969
弧	-15970
鋪	-15971
摘	-15972
悼	-15973
誰	-15974
辣	-15975
铭	-15976
杏	-15977
窟	-15978
翡	-15979
凹	-15980
狭	-15981
黏	-15982
夹	-15983
偿	-15984
楠	-15985
粘	-15986
禹	-15987
辐	-15988
韵	-15989
鸣	-15990
乞	-15991
债	-15992
閒	-15993
暢	-15994
硝	-15995
輩	-15996
芽	-15997
赦	-15998
銳	-15999
е	-16000
荊	-16001
頜	-16002
橙	-16003
冥	-16004
塵	-16005
牢	-16006
滇	-16007
拋	-16008
樑	-16009
卧	-16010
戎	-16011
湛	-16012
宦	-16013
炼	-16014
闸	-16015
彬	-16016
橘	-16017
叠	-16018
瑰	-16019
诊	-16020
惑	-16021
纂	-16022
肆	-16023
膽	-16024
懼	-16025
酬	-16026
傘	-16027
餅	-16028
勉	-16029
寂	-16030
玫	-16031
畿	-16032
脏	-16033
懂	-16034
酰	-16035
棍	-16036
迄	-16037
н	-16038
涛	-16039
寅	-16040
狸	-16041
瀑	-16042
纬	-16043
孜	-16044
蹄	-16045
煮	-16046
冶	-16047
蔽	-16048
諡	-16049
磅	-16050
橄	-16051
繳	-16052
β	-16053
渊	-16054
酵	-16055
寡	-16056
堵	-16057
摆	-16058
赣	-16059
汕	-16060
泌	-16061
惨	-16062
裴	-16063
叢	-16064
鵝	-16065
邸	-16066
鱂	-16067
с	-16068
喊	-16069
懿	-16070
侦	-16071
榆	-16072
氛	-16073
匿	-16074
奋	-16075
簧	-16076
隙	-16077
伺	-16078
頃	-16079
鳞	-16080
櫃	-16081
】	-16082
茎	-16083
誼	-16084
孚	-16085
峻	-16086
鞭	-16087
【	-16088
沛	-16089
滴	-16090
稽	-16091
顷	-16092
侄	-16093
俞	-16094
詠	-16095
鹃	-16096
肪	-16097
臭	-16098
奕	-16099
荔	-16100
騙	-16101
欖	-16102
仗	-16103
垃	-16104
斋	-16105
荡	-16106
扑	-16107
彙	-16108
倪	-16109
筋	-16110
劾	-16111
彪	-16112
蝕	-16113
р	-16114
撲	-16115
訟	-16116
碘	-16117
禽	-16118
粟	-16119
裹	-16120
圾	-16121
雁	-16122
妓	-16123
芦	-16124
舱	-16125
衙	-16126
屢	-16127
綁	-16128
芯	-16129
鮋	-16130
泄	-16131
婉	-16132
傲	-16133
牡	-16134
苹	-16135
ん	-16136
娅	-16137
肠	-16138
鑼	-16139
闪	-16140
烤	-16141
殉	-16142
墜	-16143
墟	-16144
墩	-16145
岑	-16146
蓉	-16147
謠	-16148
壬	-16149
暑	-16150
皖	-16151
僱	-16152
凶	-16153
趾	-16154
苔	-16155
煉	-16156
谭	-16157
彝	-16158
绵	-16159
颠	-16160
豚	-16161
钻	-16162
塚	-16163
糾	-16164
頌	-16165
悅	-16166
曝	-16167
践	-16168
ü	-16169
拨	-16170
淹	-16171
硅	-16172
籤	-16173
諧	-16174
騷	-16175
嫡	-16176
鸦	-16177
呢	-16178
禍	-16179
賠	-16180
渦	-16181
狩	-16182
樟	-16183
蝙	-16184
垒	-16185
萍	-16186
舜	-16187
弊	-16188
纺	-16189
倭	-16190
啦	-16191
嘎	-16192
貸	-16193
竭	-16194
茹	-16195
栋	-16196
諷	-16197
檀	-16198
歼	-16199
炉	-16200
擠	-16201
鵬	-16202
拾	-16203
顛	-16204
桶	-16205
谊	-16206
谥	-16207
剌	-16208
溃	-16209
狙	-16210
穎	-16211
懲	-16212
梓	-16213
刪	-16214
吋	-16215
哇	-16216
爽	-16217
悔	-16218
啤	-16219
鴉	-16220
墅	-16221
釣	-16222
喚	-16223
闲	-16224
墾	-16225
羌	-16226
衷	-16227
窑	-16228
谦	-16229
т	-16230
郝	-16231
鰻	-16232
咬	-16233
籠	-16234
膀	-16235
毓	-16236
稚	-16237
蔓	-16238
薯	-16239
饶	-16240
魅	-16241
隕	-16242
淚	-16243
舖	-16244
蔭	-16245
砍	-16246
う	-16247
沫	-16248
淀	-16249
愚	-16250
锐	-16251
乒	-16252
哩	-16253
磚	-16254
淋	-16255
樸	-16256
挽	-16257
檐	-16258
鹏	-16259
í	-16260
愉	-16261
舅	-16262
萌	-16263
犁	-16264
鸭	-16265
剖	-16266
締	-16267
耿	-16268
莖	-16269
渤	-16270
禎	-16271
蘿	-16272
茜	-16273
莞	-16274
凍	-16275
聊	-16276
腎	-16277
骸	-16278
壹	-16279
咨	-16280
霜	-16281
厭	-16282
嵩	-16283
淫	-16284
鬚	-16285
犀	-16286
渭	-16287
炒	-16288
肿	-16289
癸	-16290
籲	-16291
濫	-16292
淆	-16293
罐	-16294
仆	-16295
僕	-16296
缝	-16297
谐	-16298
敷	-16299
苷	-16300
顱	-16301
砌	-16302
蔚	-16303
釜	-16304
颶	-16305
沁	-16306
綿	-16307
し	-16308
蘆	-16309
梗	-16310
谁	-16311
俯	-16312
漿	-16313
胚	-16314
扳	-16315
棱	-16316
滤	-16317
脹	-16318
膏	-16319
喙	-16320
擒	-16321
迭	-16322
兇	-16323
婴	-16324
弯	-16325
弼	-16326
贷	-16327
愤	-16328
鹅	-16329
ā	-16330
窩	-16331
诱	-16332
脆	-16333
醛	-16334
謹	-16335
闖	-16336
腫	-16337
卦	-16338
钠	-16339
矣	-16340
猩	-16341
庐	-16342
廚	-16343
浏	-16344
琦	-16345
崛	-16346
删	-16347
蕊	-16348
袍	-16349
烹	-16350
瞬	-16351
縫	-16352
厲	-16353
輿	-16354
鑄	-16355
в	-16356
晰	-16357
臥	-16358
遥	-16359
堯	-16360
斩	-16361
貶	-16362
骚	-16363
蔬	-16364
蜘	-16365
ö	-16366
抬	-16367
樊	-16368
碗	-16369
罹	-16370
岱	-16371
溥	-16372
祇	-16373
纠	-16374
榕	-16375
畅	-16376
瘋	-16377
黔	-16378
ス	-16379
壩	-16380
疲	-16381
蝴	-16382
挫	-16383
蒿	-16384
伞	-16385
к	-16386
坞	-16387
尧	-16388
膝	-16389
濾	-16390
蕉	-16391
ó	-16392
颈	-16393
杖	-16394
篤	-16395
廓	-16396
钩	-16397
匡	-16398
塢	-16399
甄	-16400
妾	-16401
泗	-16402
猿	-16403
祁	-16404
哨	-16405
胤	-16406
剥	-16407
瀨	-16408
撐	-16409
敖	-16410
馳	-16411
è	-16412
睿	-16413
錐	-16414
敲	-16415
厝	-16416
穀	-16417
虜	-16418
髓	-16419
擲	-16420
肋	-16421
鹼	-16422
饼	-16423
嚇	-16424
鑲	-16425
鬱	-16426
娥	-16427
傍	-16428
莽	-16429
説	-16430
峙	-16431
裙	-16432
擢	-16433
橢	-16434
疇	-16435
踐	-16436
鸚	-16437
吁	-16438
飼	-16439
肤	-16440
※	-16441
眷	-16442
紳	-16443
阎	-16444
匾	-16445
辜	-16446
か	-16447
溉	-16448
忧	-16449
贿	-16450
ル	-16451
戟	-16452
イ	-16453
堰	-16454
梧	-16455
聂	-16456
爛	-16457
敕	-16458
瀕	-16459
鬧	-16460
褒	-16461
鯊	-16462
勿	-16463
宠	-16464
晤	-16465
楷	-16466
陇	-16467
龟	-16468
丟	-16469
耆	-16470
潟	-16471
缴	-16472
铝	-16473
た	-16474
磡	-16475
窝	-16476
邢	-16477
宵	-16478
罵	-16479
萼	-16480
墳	-16481
羚	-16482
湧	-16483
鍋	-16484
巩	-16485
祺	-16486
瘦	-16487
抛	-16488
孢	-16489
绑	-16490
攔	-16491
舶	-16492
惹	-16493
浆	-16494
渣	-16495
琅	-16496
沂	-16497
瑶	-16498
盔	-16499
倖	-16500
阀	-16501
雯	-16502
肚	-16503
铃	-16504
闢	-16505
妈	-16506
л	-16507
聪	-16508
驳	-16509
抹	-16510
蒼	-16511
肾	-16512
漲	-16513
侏	-16514
贬	-16515
濁	-16516
煩	-16517
巾	-16518
沧	-16519
媛	-16520
峨	-16521
瞭	-16522
飽	-16523
渝	-16524
μ	-16525
冤	-16526
汐	-16527
瀏	-16528
暹	-16529
苻	-16530
乓	-16531
岬	-16532
疼	-16533
膛	-16534
溢	-16535
虏	-16536
舆	-16537
鋁	-16538
刃	-16539
蚀	-16540
邯	-16541
渴	-16542
颂	-16543
芹	-16544
菇	-16545
•	-16546
脸	-16547
挝	-16548
赔	-16549
嗎	-16550
涡	-16551
睦	-16552
屡	-16553
驟	-16554
苍	-16555
麒	-16556
奢	-16557
汾	-16558
諜	-16559
焊	-16560
绒	-16561
醬	-16562
虔	-16563
鞏	-16564
堀	-16565
婷	-16566
枯	-16567
錶	-16568
傭	-16569
贼	-16570
颖	-16571
闆	-16572
噬	-16573
芜	-16574
锥	-16575
醜	-16576
掀	-16577
枫	-16578
蠻	-16579
酿	-16580
贪	-16581
锅	-16582
閥	-16583
淞	-16584
詮	-16585
ア	-16586
腕	-16587
ラ	-16588
婿	-16589
賄	-16590
鰓	-16591
棣	-16592
蚌	-16593
堊	-16594
讽	-16595
钓	-16596
卯	-16597
泵	-16598
犧	-16599
胖	-16600
倚	-16601
岔	-16602
丕	-16603
啊	-16604
淪	-16605
僵	-16606
厉	-16607
吟	-16608
您	-16609
苞	-16610
辈	-16611
幌	-16612
忒	-16613
笠	-16614
賺	-16615
棺	-16616
纏	-16617
匙	-16618
羞	-16619
摸	-16620
剝	-16621
槟	-16622
紮	-16623
鰕	-16624
骼	-16625
釀	-16626
饱	-16627
馨	-16628
糟	-16629
洽	-16630
鈞	-16631
鉛	-16632
駒	-16633
棵	-16634
璧	-16635
紡	-16636
慌	-16637
磺	-16638
饒	-16639
と	-16640
稜	-16641
胀	-16642
兀	-16643
挡	-16644
濤	-16645
梳	-16646
緻	-16647
塾	-16648
詐	-16649
枕	-16650
糙	-16651
虧	-16652
骗	-16653
瑾	-16654
綽	-16655
榄	-16656
萃	-16657
褲	-16658
斧	-16659
禱	-16660
諭	-16661
釐	-16662
霆	-16663
祯	-16664
簿	-16665
嘲	-16666
捨	-16667
氰	-16668
紗	-16669
菁	-16670
謎	-16671
账	-16672
雾	-16673
艮	-16674
铅	-16675
霉	-16676
ا	-16677
牺	-16678
盪	-16679
竺	-16680
緝	-16681
陡	-16682
魨	-16683
纜	-16684
慾	-16685
撑	-16686
焉	-16687
蚤	-16688
捧	-16689
墮	-16690
恪	-16691
蟾	-16692
鋸	-16693
隍	-16694
晃	-16695
溜	-16696
瞻	-16697
孵	-16698
幟	-16699
抒	-16700
饥	-16701
ク	-16702
浑	-16703
蔗	-16704
衫	-16705
钾	-16706
讼	-16707
涨	-16708
竊	-16709
闵	-16710
惩	-16711
攤	-16712
祸	-16713
鵡	-16714
廁	-16715
帐	-16716
苣	-16717
襪	-16718
リ	-16719
搏	-16720
ト	-16721
钧	-16722
悦	-16723
芥	-16724
荀	-16725
谣	-16726
哉	-16727
坠	-16728
〔	-16729
〕	-16730
埼	-16731
沽	-16732
蛮	-16733
阐	-16734
な	-16735
磐	-16736
绳	-16737
д	-16738
嗜	-16739
芸	-16740
谨	-16741
琛	-16742
藓	-16743
抨	-16744
姦	-16745
滯	-16746
蛾	-16747
誅	-16748
烃	-16749
熹	-16750
帛	-16751
惧	-16752
兜	-16753
睹	-16754
侣	-16755
撕	-16756
沸	-16757
滲	-16758
ä	-16759
浚	-16760
茱	-16761
镶	-16762
丢	-16763
佣	-16764
暱	-16765
滙	-16766
に	-16767
憾	-16768
俾	-16769
晏	-16770
菸	-16771
楓	-16772
靶	-16773
尘	-16774
摺	-16775
煽	-16776
劲	-16777
戍	-16778
綏	-16779
帜	-16780
祂	-16781
蔷	-16782
譴	-16783
壟	-16784
溴	-16785
瀛	-16786
厌	-16787
皓	-16788
綴	-16789
り	-16790
偕	-16791
挤	-16792
穹	-16793
艰	-16794
炬	-16795
鲸	-16796
咪	-16797
妝	-16798
矽	-16799
禺	-16800
窦	-16801
懋	-16802
鲤	-16803
る	-16804
煞	-16805
蟬	-16806
艱	-16807
谴	-16808
龚	-16809
湊	-16810
澀	-16811
畴	-16812
酉	-16813
蕩	-16814
癒	-16815
霹	-16816
栓	-16817
缪	-16818
唤	-16819
篡	-16820
绣	-16821
煥	-16822
隅	-16823
雛	-16824
酚	-16825
釘	-16826
鍊	-16827
箕	-16828
衞	-16829
缀	-16830
γ	-16831
瑤	-16832
π	-16833
蚊	-16834
洩	-16835
−	-16836
泾	-16837
谍	-16838
娄	-16839
蘚	-16840
爷	-16841
翟	-16842
堇	-16843
誦	-16844
妄	-16845
皂	-16846
祕	-16847
铎	-16848
妨	-16849
祚	-16850
邹	-16851
镑	-16852
殲	-16853
贖	-16854
м	-16855
ま	-16856
豎	-16857
逗	-16858
鄒	-16859
钙	-16860
敞	-16861
曙	-16862
贩	-16863
闹	-16864
缮	-16865
黜	-16866
椭	-16867
艷	-16868
荫	-16869
譬	-16870
轩	-16871
蘊	-16872
鑒	-16873
薰	-16874
乍	-16875
曜	-16876
閻	-16877
峭	-16878
竖	-16879
冻	-16880
滥	-16881
屑	-16882
硼	-16883
鈔	-16884
澜	-16885
瘟	-16886
傀	-16887
俸	-16888
慨	-16889
瑛	-16890
楞	-16891
羟	-16892
舷	-16893
蕴	-16894
坟	-16895
暮	-16896
濠	-16897
臧	-16898
鈾	-16899
崑	-16900
氦	-16901
烂	-16902
鑫	-16903
麾	-16904
骤	-16905
く	-16906
靴	-16907
祷	-16908
彤	-16909
稠	-16910
羲	-16911
巳	-16912
灶	-16913
繹	-16914
儡	-16915
赌	-16916
捍	-16917
き	-16918
刹	-16919
峪	-16920
萝	-16921
鈕	-16922
靡	-16923
鹹	-16924
芋	-16925
嬪	-16926
燦	-16927
肽	-16928
虾	-16929
吡	-16930
驰	-16931
吵	-16932
夭	-16933
渾	-16934
煎	-16935
疯	-16936
〜	-16937
淇	-16938
葫	-16939
蟻	-16940
諫	-16941
樱	-16942
笃	-16943
謬	-16944
闡	-16945
λ	-16946
缔	-16947
娟	-16948
拦	-16949
莓	-16950
谕	-16951
鲨	-16952
σ	-16953
さ	-16954
胥	-16955
轎	-16956
壺	-16957
昊	-16958
汞	-16959
霄	-16960
埗	-16961
у	-16962
渥	-16963
斡	-16964
枣	-16965
笨	-16966
盎	-16967
垦	-16968
\	-16969
ッ	-16970
伶	-16971
恕	-16972
卤	-16973
沐	-16974
砸	-16975
簇	-16976
は	-16977
芮	-16978
樺	-16979
皋	-16980
钥	-16981
隘	-16982
δ	-16983
柜	-16984
篷	-16985
酪	-16986
胰	-16987
佬	-16988
掣	-16989
郸	-16990
匀	-16991
苟	-16992
侮	-16993
潼	-16994
聶	-16995
豁	-16996
が	-16997
淄	-16998
刮	-16999
溺	-17000
嘯	-17001
垄	-17002
烦	-17003
鉤	-17004
咽	-17005
瑩	-17006
誇	-17007
鶯	-17008
濒	-17009
鈉	-17010
醚	-17011
靼	-17012
陋	-17013
椰	-17014
腥	-17015
滬	-17016
莆	-17017
叱	-17018
奚	-17019
泣	-17020
諒	-17021
蒜	-17022
こ	-17023
沦	-17024
炯	-17025
竇	-17026
繡	-17027
炫	-17028
証	-17029
諱	-17030
餓	-17031
扔	-17032
ω	-17033
ら	-17034
嶽	-17035
鈣	-17036
冉	-17037
沮	-17038
薹	-17039
壕	-17040
憩	-17041
顎	-17042
滞	-17043
绸	-17044
鎌	-17045
泪	-17046
膳	-17047
萎	-17048
蠟	-17049
ε	-17050
叹	-17051
衢	-17052
鞘	-17053
吗	-17054
窃	-17055
謊	-17056
醋	-17057
鉅	-17058
頑	-17059
驿	-17060
妍	-17061
拷	-17062
槐	-17063
厨	-17064
蜡	-17065
艳	-17066
幡	-17067
覓	-17068
â	-17069
嘆	-17070
巖	-17071
萱	-17072
敛	-17073
隼	-17074
飄	-17075
鼬	-17076
曦	-17077
ç	-17078
み	-17079
漕	-17080
肛	-17081
寝	-17082
晟	-17083
舵	-17084
哆	-17085
垫	-17086
驼	-17087
兌	-17088
擱	-17089
晖	-17090
咎	-17091
昧	-17092
毯	-17093
阱	-17094
陛	-17095
甬	-17096
剃	-17097
莒	-17098
鑰	-17099
悖	-17100
臼	-17101
诛	-17102
侖	-17103
柑	-17104
毘	-17105
洼	-17106
庾	-17107
疹	-17108
繆	-17109
シ	-17110
悄	-17111
惱	-17112
渗	-17113
斃	-17114
淤	-17115
渲	-17116
绰	-17117
扯	-17118
鄞	-17119
鰈	-17120
僖	-17121
檬	-17122
纱	-17123
п	-17124
タ	-17125
恤	-17126
て	-17127
垮	-17128
←	-17129
呆	-17130
墊	-17131
篆	-17132
侗	-17133
倩	-17134
廬	-17135
戮	-17136
湄	-17137
琶	-17138
佚	-17139
卉	-17140
苛	-17141
お	-17142
姨	-17143
瞿	-17144
駝	-17145
沾	-17146
衆	-17147
ジ	-17148
汲	-17149
琵	-17150
笙	-17151
裘	-17152
汴	-17153
聆	-17154
愁	-17155
弈	-17156
楔	-17157
絨	-17158
悍	-17159
拐	-17160
朽	-17161
槳	-17162
齣	-17163
殆	-17164
畝	-17165
葱	-17166
駱	-17167
鳍	-17168
寰	-17169
汙	-17170
潑	-17171
臻	-17172
ل	-17173
嫔	-17174
毙	-17175
綾	-17176
跪	-17177
倆	-17178
磊	-17179
傻	-17180
燮	-17181
稷	-17182
揆	-17183
灼	-17184
盼	-17185
蒐	-17186
蜴	-17187
勻	-17188
焕	-17189
绅	-17190
飘	-17191
骆	-17192
沅	-17193
蕙	-17194
陂	-17195
镍	-17196
啸	-17197
诵	-17198
锌	-17199
兑	-17200
恥	-17201
驕	-17202
埕	-17203
珂	-17204
翊	-17205
饲	-17206
嬌	-17207
滄	-17208
ο	-17209
绎	-17210
啶	-17211
媚	-17212
竿	-17213
褚	-17214
雉	-17215
ロ	-17216
撼	-17217
圩	-17218
蚜	-17219
霰	-17220
骏	-17221
壶	-17222
羧	-17223
陌	-17224
蜗	-17225
鈍	-17226
凿	-17227
攬	-17228
苓	-17229
遏	-17230
桔	-17231
ν	-17232
産	-17233
飢	-17234
糯	-17235
酱	-17236
ち	-17237
杞	-17238
攸	-17239
閔	-17240
あ	-17241
侬	-17242
±	-17243
ú	-17244
潞	-17245
甥	-17246
褶	-17247
濮	-17248
茛	-17249
訥	-17250
贛	-17251
マ	-17252
鳩	-17253
丫	-17254
栅	-17255
樵	-17256
胱	-17257
魄	-17258
侃	-17259
谏	-17260
坍	-17261
脾	-17262
カ	-17263
澱	-17264
閏	-17265
卅	-17266
畸	-17267
捆	-17268
泼	-17269
喃	-17270
檳	-17271
跆	-17272
秃	-17273
г	-17274
嵐	-17275
暉	-17276
浜	-17277
缆	-17278
圃	-17279
烘	-17280
珪	-17281
杠	-17282
躁	-17283
妆	-17284
皈	-17285
葆	-17286
鑿	-17287
椿	-17288
耦	-17289
饿	-17290
吓	-17291
擄	-17292
锯	-17293
弋	-17294
洮	-17295
琰	-17296
缠	-17297
侈	-17298
甦	-17299
餉	-17300
ρ	-17301
○	-17302
弩	-17303
柵	-17304
鉀	-17305
鐮	-17306
妒	-17307
锤	-17308
鬍	-17309
й	-17310
孺	-17311
踩	-17312
龔	-17313
叡	-17314
嫻	-17315
蔑	-17316
虢	-17317
誣	-17318
锂	-17319
鰨	-17320
鳚	-17321
亏	-17322
窯	-17323
趟	-17324
嘻	-17325
拌	-17326
浊	-17327
峯	-17328
桅	-17329
砷	-17330
蟒	-17331
毋	-17332
濂	-17333
@	-17334
谟	-17335
唸	-17336
蚁	-17337
鷲	-17338
僉	-17339
啓	-17340
遁	-17341
媳	-17342
撃	-17343
籽	-17344
謨	-17345
ə	-17346
壢	-17347
芷	-17348
τ	-17349
莘	-17350
闯	-17351
ι	-17352
瑋	-17353
儉	-17354
瀾	-17355
蠕	-17356
靂	-17357
〇	-17358
喘	-17359
鏢	-17360
殭	-17361
缉	-17362
刁	-17363
匆	-17364
咏	-17365
袜	-17366
蔥	-17367
铀	-17368
陨	-17369
ς	-17370
轿	-17371
じ	-17372
澈	-17373
燭	-17374
濬	-17375
б	-17376
冢	-17377
闰	-17378
鮨	-17379
俭	-17380
泸	-17381
畑	-17382
縛	-17383
襟	-17384
毆	-17385
茉	-17386
裳	-17387
勐	-17388
筠	-17389
钞	-17390
栈	-17391
槃	-17392
舺	-17393
艋	-17394
薑	-17395
吼	-17396
赎	-17397
倦	-17398
圻	-17399
蓼	-17400
ド	-17401
拂	-17402
粥	-17403
邕	-17404
陞	-17405
馈	-17406
灑	-17407
狠	-17408
瞳	-17409
も	-17410
傣	-17411
樁	-17412
痴	-17413
韌	-17414
骂	-17415
à	-17416
瀋	-17417
蠅	-17418
鋰	-17419
フ	-17420
瑕	-17421
遴	-17422
崁	-17423
檻	-17424
氹	-17425
迥	-17426
晦	-17427
襯	-17428
驛	-17429
掖	-17430
琥	-17431
ô	-17432
仄	-17433
岷	-17434
碉	-17435
鱈	-17436
僻	-17437
挾	-17438
瀚	-17439
オ	-17440
姪	-17441
耻	-17442
蚕	-17443
峇	-17444
斛	-17445
冗	-17446
埤	-17447
愧	-17448
暈	-17449
柿	-17450
瀧	-17451
軀	-17452
钉	-17453
饋	-17454
‰	-17455
を	-17456
昼	-17457
檗	-17458
レ	-17459
朕	-17460
琮	-17461
躺	-17462
撈	-17463
潢	-17464
瀉	-17465
蝇	-17466
蠢	-17467
谜	-17468
鎧	-17469
れ	-17470
勛	-17471
吠	-17472
硒	-17473
豔	-17474
鳅	-17475
阙	-17476
鷺	-17477
溧	-17478
饑	-17479
鷗	-17480
恺	-17481
檎	-17482
錘	-17483
妊	-17484
瞞	-17485
輾	-17486
つ	-17487
洙	-17488
鱇	-17489
璽	-17490
耍	-17491
や	-17492
剔	-17493
唑	-17494
寢	-17495
悚	-17496
迂	-17497
攏	-17498
绛	-17499
逵	-17500
酥	-17501
昱	-17502
糞	-17503
翎	-17504
螯	-17505
顽	-17506
キ	-17507
礫	-17508
蓟	-17509
熵	-17510
訶	-17511
钊	-17512
锈	-17513
暇	-17514
猷	-17515
矚	-17516
诬	-17517
婢	-17518
鮟	-17519
咳	-17520
扈	-17521
櫛	-17522
荧	-17523
κ	-17524
す	-17525
憐	-17526
枋	-17527
賤	-17528
鰍	-17529
φ	-17530
掷	-17531
矯	-17532
釉	-17533
綺	-17534
緋	-17535
薨	-17536
詛	-17537
钝	-17538
だ	-17539
螂	-17540
俩	-17541
槭	-17542
衬	-17543
я	-17544
忻	-17545
皿	-17546
禿	-17547
醣	-17548
囑	-17549
帘	-17550
幂	-17551
訝	-17552
賃	-17553
エ	-17554
拙	-17555
璜	-17556
讳	-17557
诈	-17558
跤	-17559
ن	-17560
婁	-17561
逍	-17562
咤	-17563
昨	-17564
癮	-17565
嫉	-17566
孀	-17567
樽	-17568
靳	-17569
駭	-17570
佟	-17571
奘	-17572
桩	-17573
殯	-17574
膺	-17575
鎂	-17576
韬	-17577
颐	-17578
曬	-17579
沱	-17580
匝	-17581
捏	-17582
潍	-17583
蝽	-17584
で	-17585
兖	-17586
婭	-17587
嶄	-17588
砾	-17589
ミ	-17590
榨	-17591
渚	-17592
眺	-17593
裤	-17594
肘	-17595
宸	-17596
楨	-17597
璇	-17598
羰	-17599
轅	-17600
碁	-17601
頤	-17602
鴿	-17603
鸽	-17604
グ	-17605
擂	-17606
沌	-17607
茫	-17608
麝	-17609
妳	-17610
曳	-17611
諺	-17612
鮭	-17613
貂	-17614
堕	-17615
钮	-17616
剎	-17617
惰	-17618
扼	-17619
蜱	-17620
榔	-17621
歪	-17622
綢	-17623
雏	-17624
黯	-17625
倘	-17626
岚	-17627
眶	-17628
奄	-17629
晝	-17630
煜	-17631
篩	-17632
餵	-17633
^	-17634
悶	-17635
斂	-17636
馏	-17637
馴	-17638
鼩	-17639
巍	-17640
炙	-17641
瑄	-17642
莺	-17643
詭	-17644
鍛	-17645
筛	-17646
蛟	-17647
诃	-17648
赚	-17649
鄙	-17650
コ	-17651
偃	-17652
嘱	-17653
懶	-17654
熄	-17655
頰	-17656
兗	-17657
惕	-17658
昵	-17659
炔	-17660
隴	-17661
鸠	-17662
巽	-17663
帧	-17664
鄱	-17665
チ	-17666
迺	-17667
坳	-17668
嫂	-17669
磋	-17670
鬣	-17671
θ	-17672
叻	-17673
摊	-17674
牒	-17675
绞	-17676
鞑	-17677
黴	-17678
氙	-17679
翹	-17680
魮	-17681
叮	-17682
怜	-17683
桦	-17684
氓	-17685
涧	-17686
絮	-17687
綸	-17688
蒴	-17689
谅	-17690
鈺	-17691
铉	-17692
鵰	-17693
夔	-17694
嬴	-17695
怠	-17696
戛	-17697
菅	-17698
捞	-17699
秤	-17700
卞	-17701
殴	-17702
昶	-17703
沥	-17704
っ	-17705
劈	-17706
叭	-17707
蝉	-17708
麴	-17709
嗅	-17710
宕	-17711
尻	-17712
撇	-17713
脖	-17714
蛺	-17715
嶋	-17716
诠	-17717
ʁ	-17718
ハ	-17719
旷	-17720
璐	-17721
秧	-17722
笋	-17723
腋	-17724
蝸	-17725
鎳	-17726
鞠	-17727
ر	-17728
デ	-17729
筲	-17730
锻	-17731
ы	-17732
佃	-17733
鹛	-17734
槓	-17735
瀝	-17736
蘑	-17737
酌	-17738
乂	-17739
亢	-17740
孛	-17741
搁	-17742
昕	-17743
烽	-17744
羹	-17745
璞	-17746
藜	-17747
鍍	-17748
ê	-17749
憎	-17750
汛	-17751
炀	-17752
笈	-17753
伎	-17754
凑	-17755
哮	-17756
唔	-17757
颍	-17758
龛	-17759
ي	-17760
拇	-17761
掙	-17762
撓	-17763
檸	-17764
涿	-17765
羯	-17766
谎	-17767
铬	-17768
丐	-17769
吒	-17770
晒	-17771
洒	-17772
賂	-17773
パ	-17774
劭	-17775
啄	-17776
癱	-17777
ч	-17778
サ	-17779
懈	-17780
絞	-17781
颅	-17782
歙	-17783
蝎	-17784
骄	-17785
ë	-17786
佗	-17787
蠍	-17788
诰	-17789
邺	-17790
雳	-17791
焘	-17792
篠	-17793
簾	-17794
鳄	-17795
η	-17796
け	-17797
穫	-17798
豈	-17799
鄴	-17800
綬	-17801
荼	-17802
蠶	-17803
醯	-17804
鲷	-17805
咐	-17806
晷	-17807
淦	-17808
揽	-17809
浣	-17810
ī	-17811
郢	-17812
鳌	-17813
わ	-17814
揉	-17815
曇	-17816
瞰	-17817
郴	-17818
镁	-17819
☆	-17820
彷	-17821
滔	-17822
璟	-17823
莹	-17824
赂	-17825
鈎	-17826
馥	-17827
慷	-17828
旌	-17829
熏	-17830
瓮	-17831
荚	-17832
蝗	-17833
蝨	-17834
з	-17835
乖	-17836
儂	-17837
挨	-17838
熬	-17839
稼	-17840
缚	-17841
銓	-17842
驴	-17843
鮃	-17844
鹦	-17845
ウ	-17846
巔	-17847
徘	-17848
桨	-17849
榈	-17850
漱	-17851
瓯	-17852
闕	-17853
聿	-17854
誡	-17855
辗	-17856
ь	-17857
尬	-17858
睞	-17859
羈	-17860
鋅	-17861
鑾	-17862
š	-17863
テ	-17864
プ	-17865
淖	-17866
祉	-17867
荠	-17868
躬	-17869
鸞	-17870
佘	-17871
呤	-17872
檜	-17873
滁	-17874
玺	-17875
踝	-17876
ニ	-17877
ャ	-17878
屎	-17879
徊	-17880
櫚	-17881
酗	-17882
镰	-17883
寥	-17884
挠	-17885
窺	-17886
衮	-17887
韃	-17888
僭	-17889
槌	-17890
熾	-17891
査	-17892
睾	-17893
醮	-17894
覃	-17895
躯	-17896
遐	-17897
餡	-17898
呀	-17899
娠	-17900
梢	-17901
澧	-17902
耽	-17903
謗	-17904
轍	-17905
钵	-17906
姥	-17907
柩	-17908
烛	-17909
甯	-17910
皱	-17911
窪	-17912
贻	-17913
邳	-17914
钛	-17915
韧	-17916
驯	-17917
驹	-17918
و	-17919
バ	-17920
冼	-17921
凋	-17922
嚮	-17923
婺	-17924
滦	-17925
甩	-17926
瘓	-17927
踞	-17928
麽	-17929
凳	-17930
妲	-17931
澡	-17932
灸	-17933
羁	-17934
葺	-17935
蔔	-17936
鈦	-17937
鞅	-17938
鹘	-17939
م	-17940
喆	-17941
晕	-17942
歳	-17943
玟	-17944
蟠	-17945
鏽	-17946
鹊	-17947
□	-17948
錨	-17949
よ	-17950
兮	-17951
薈	-17952
镀	-17953
桢	-17954
洵	-17955
稟	-17956
鄺	-17957
鎚	-17958
髻	-17959
鱨	-17960
鵑	-17961
咕	-17962
惶	-17963
祜	-17964
锰	-17965
唾	-17966
捻	-17967
犍	-17968
罔	-17969
ガ	-17970
娇	-17971
癖	-17972
睢	-17973
苇	-17974
骷	-17975
ナ	-17976
唆	-17977
棧	-17978
泻	-17979
灿	-17980
瘫	-17981
涪	-17982
窒	-17983
蕪	-17984
ɛ	-17985
ひ	-17986
崧	-17987
愍	-17988
摹	-17989
碌	-17990
訣	-17991
铵	-17992
驸	-17993
鉉	-17994
飆	-17995
懇	-17996
柠	-17997
瘾	-17998
骰	-17999
翘	-18000
闾	-18001
佼	-18002
俏	-18003
絃	-18004
鳃	-18005
ß	-18006
ム	-18007
佥	-18008
嘌	-18009
恼	-18010
撾	-18011
歹	-18012
ñ	-18013
ィ	-18014
珉	-18015
疣	-18016
竄	-18017
釗	-18018
飪	-18019
ょ	-18020
嗓	-18021
嬉	-18022
栾	-18023
浒	-18024
筵	-18025
薊	-18026
喂	-18027
怯	-18028
攘	-18029
槿	-18030
瓚	-18031
粽	-18032
脷	-18033
蓓	-18034
愷	-18035
螈	-18036
饷	-18037
傢	-18038
叩	-18039
嘧	-18040
娩	-18041
孽	-18042
拢	-18043
旻	-18044
泓	-18045
煒	-18046
窘	-18047
粲	-18048
莪	-18049
蝰	-18050
铲	-18051
鹭	-18052
屁	-18053
惇	-18054
湍	-18055
羨	-18056
鼐	-18057
弛	-18058
疵	-18059
籬	-18060
咲	-18061
柚	-18062
栎	-18063
楹	-18064
滘	-18065
绶	-18066
蔻	-18067
攪	-18068
杵	-18069
浇	-18070
瑁	-18071
筱	-18072
婕	-18073
岂	-18074
炱	-18075
燊	-18076
痊	-18077
绢	-18078
镐	-18079
堃	-18080
忱	-18081
扒	-18082
缕	-18083
鹵	-18084
ろ	-18085
曠	-18086
滸	-18087
筏	-18088
紓	-18089
谒	-18090
ブ	-18091
儼	-18092
叟	-18093
寞	-18094
抖	-18095
琨	-18096
瘧	-18097
蕈	-18098
誥	-18099
贮	-18100
鮡	-18101
纶	-18102
膩	-18103
锚	-18104
鰂	-18105
え	-18106
皺	-18107
せ	-18108
珮	-18109
葦	-18110
諦	-18111
鴞	-18112
琢	-18113
č	-18114
枉	-18115
珲	-18116
罂	-18117
逕	-18118
酐	-18119
涩	-18120
溼	-18121
炽	-18122
琬	-18123
畲	-18124
诫	-18125
亳	-18126
撮	-18127
貯	-18128
⁄	-18129
岌	-18130
恬	-18131
榛	-18132
荨	-18133
虱	-18134
顫	-18135
撿	-18136
洱	-18137
獾	-18138
玖	-18139
鹉	-18140
渎	-18141
睽	-18142
糸	-18143
絹	-18144
谬	-18145
靚	-18146
厕	-18147
巅	-18148
璉	-18149
瞎	-18150
聾	-18151
肄	-18152
蚓	-18153
蛭	-18154
诅	-18155
髒	-18156
幺	-18157
碾	-18158
蜓	-18159
俑	-18160
俳	-18161
戳	-18162
狡	-18163
琐	-18164
箔	-18165
镖	-18166
鮠	-18167
ø	-18168
嬅	-18169
檯	-18170
珞	-18171
賑	-18172
泮	-18173
脩	-18174
赁	-18175
黍	-18176
ζ	-18177
堺	-18178
恃	-18179
抉	-18180
摯	-18181
楣	-18182
痪	-18183
茸	-18184
菠	-18185
螳	-18186
ب	-18187
涟	-18188
荻	-18189
釧	-18190
鸢	-18191
ē	-18192
噁	-18193
箏	-18194
ビ	-18195
梟	-18196
砚	-18197
筷	-18198
薔	-18199
韜	-18200
鱺	-18201
æ	-18202
ゅ	-18203
嘔	-18204
懦	-18205
猝	-18206
疽	-18207
筍	-18208
粱	-18209
鯙	-18210
ェ	-18211
ダ	-18212
メ	-18213
娼	-18214
澍	-18215
瑣	-18216
讞	-18217
輟	-18218
ō	-18219
俚	-18220
漩	-18221
燧	-18222
粪	-18223
ū	-18224
―	-18225
繕	-18226
謁	-18227
赈	-18228
轭	-18229
钴	-18230
ュ	-18231
妤	-18232
灝	-18233
煦	-18234
聳	-18235
谤	-18236
醴	-18237
鉑	-18238
å	-18239
婪	-18240
棗	-18241
貽	-18242
閑	-18243
淅	-18244
珅	-18245
穢	-18246
箴	-18247
肱	-18248
蜒	-18249
め	-18250
侷	-18251
崴	-18252
焙	-18253
羔	-18254
蚂	-18255
呵	-18256
桁	-18257
琊	-18258
畠	-18259
蜻	-18260
褫	-18261
邂	-18262
阡	-18263
霓	-18264
龕	-18265
啞	-18266
榭	-18267
胄	-18268
豌	-18269
鮫	-18270
啼	-18271
喧	-18272
弔	-18273
檄	-18274
疚	-18275
緞	-18276
肴	-18277
蛹	-18278
逅	-18279
拮	-18280
挣	-18281
瘡	-18282
釁	-18283
闷	-18284
靺	-18285
饪	-18286
≤	-18287
垢	-18288
癲	-18289
睐	-18290
窖	-18291
誹	-18292
鏟	-18293
戡	-18294
搅	-18295
氐	-18296
氾	-18297
洄	-18298
浔	-18299
烙	-18300
羥	-18301
荥	-18302
蜈	-18303
賬	-18304
鉻	-18305
鸥	-18306
鸾	-18307
モ	-18308
嚼	-18309
搗	-18310
碇	-18311
頡	-18312
餾	-18313
х	-18314
俐	-18315
嗽	-18316
糜	-18317
脇	-18318
膦	-18319
覲	-18320
谔	-18321
鹫	-18322
掏	-18323
栱	-18324
苋	-18325
謚	-18326
闇	-18327
颓	-18328
骁	-18329
î	-18330
涇	-18331
腱	-18332
蚣	-18333
贱	-18334
蹲	-18335
瞒	-18336
矗	-18337
紊	-18338
腻	-18339
鞨	-18340
勖	-18341
吩	-18342
嘩	-18343
媲	-18344
漾	-18345
鎬	-18346
锑	-18347
壠	-18348
奬	-18349
弁	-18350
杓	-18351
沭	-18352
瀆	-18353
祗	-18354
銃	-18355
吶	-18356
塹	-18357
夯	-18358
珈	-18359
軛	-18360
頷	-18361
驃	-18362
鬃	-18363
彧	-18364
彿	-18365
橇	-18366
纥	-18367
菀	-18368
韭	-18369
柝	-18370
湟	-18371
漓	-18372
腈	-18373
頹	-18374
魷	-18375
鳖	-18376
»	-18377
ã	-18378
垛	-18379
柘	-18380
湮	-18381
爹	-18382
疤	-18383
簷	-18384
袒	-18385
轼	-18386
镕	-18387
餚	-18388
鲱	-18389
烴	-18390
癫	-18391
矫	-18392
羣	-18393
茴	-18394
蠡	-18395
袞	-18396
鏞	-18397
铂	-18398
冪	-18399
挚	-18400
漪	-18401
痰	-18402
蝮	-18403
躋	-18404
ц	-18405
儸	-18406
峒	-18407
榻	-18408
脛	-18409
遽	-18410
靛	-18411
鸫	-18412
ㄧ	-18413
匕	-18414
巒	-18415
耸	-18416
萸	-18417
鄢	-18418
锺	-18419
鱲	-18420
鳗	-18421
鼴	-18422
د	-18423
帚	-18424
玳	-18425
珥	-18426
盂	-18427
舫	-18428
蜍	-18429
訛	-18430
雒	-18431
娑	-18432
捣	-18433
揣	-18434
沔	-18435
焯	-18436
邛	-18437
匐	-18438
掺	-18439
辻	-18440
闍	-18441
馀	-18442
庑	-18443
悌	-18444
慄	-18445
挟	-18446
斟	-18447
歆	-18448
歎	-18449
瓘	-18450
痢	-18451
詣	-18452
宥	-18453
菏	-18454
蜿	-18455
谿	-18456
υ	-18457
噩	-18458
拗	-18459
栢	-18460
譏	-18461
貳	-18462
赉	-18463
逞	-18464
餌	-18465
鯡	-18466
佯	-18467
勺	-18468
囪	-18469
殡	-18470
滌	-18471
澹	-18472
煬	-18473
疟	-18474
眩	-18475
ł	-18476
匮	-18477
瑯	-18478
癡	-18479
锣	-18480
鯽	-18481
鵲	-18482
涤	-18483
矾	-18484
絆	-18485
邾	-18486
郤	-18487
颌	-18488
髦	-18489
ズ	-18490
呕	-18491
帷	-18492
稔	-18493
螃	-18494
驢	-18495
ш	-18496
ツ	-18497
俟	-18498
痘	-18499
萤	-18500
觐	-18501
讶	-18502
軾	-18503
鏗	-18504
钯	-18505
驍	-18506
鲫	-18507
鸮	-18508
匍	-18509
咱	-18510
昙	-18511
繭	-18512
蠔	-18513
辍	-18514
齧	-18515
●	-18516
咯	-18517
戦	-18518
棻	-18519
痺	-18520
繇	-18521
蕲	-18522
辕	-18523
郗	-18524
鉗	-18525
鳶	-18526
嫦	-18527
缽	-18528
蚺	-18529
褻	-18530
醍	-18531
铨	-18532
驤	-18533
佰	-18534
嫖	-18535
岙	-18536
錳	-18537
鑣	-18538
髏	-18539
«	-18540
匱	-18541
掾	-18542
昴	-18543
潇	-18544
璘	-18545
阯	-18546
霑	-18547
鵙	-18548
ゆ	-18549
儁	-18550
拚	-18551
觅	-18552
鵜	-18553
垩	-18554
懒	-18555
栃	-18556
胭	-18557
蒯	-18558
諏	-18559
诽	-18560
恂	-18561
摒	-18562
瘠	-18563
睫	-18564
筝	-18565
糠	-18566
羡	-18567
裨	-18568
诡	-18569
醃	-18570
醐	-18571
阗	-18572
ŋ	-18573
甕	-18574
菟	-18575
賁	-18576
僞	-18577
嚨	-18578
绮	-18579
膾	-18580
蝌	-18581
込	-18582
齦	-18583
咄	-18584
橐	-18585
濑	-18586
煲	-18587
瑠	-18588
痹	-18589
稗	-18590
钗	-18591
铯	-18592
驊	-18593
ど	-18594
剋	-18595
剷	-18596
嗚	-18597
崭	-18598
弒	-18599
敍	-18600
杲	-18601
珙	-18602
瑗	-18603
缙	-18604
腭	-18605
贓	-18606
鰲	-18607
ć	-18608
娣	-18609
徳	-18610
湳	-18611
璀	-18612
絳	-18613
罄	-18614
蚪	-18615
ś	-18616
س	-18617
嚕	-18618
寛	-18619
忿	-18620
懺	-18621
涸	-18622
緹	-18623
銮	-18624
ा	-18625
恳	-18626
揀	-18627
盏	-18628
莢	-18629
釷	-18630
钨	-18631
钰	-18632
­	-18633
哑	-18634
啉	-18635
孰	-18636
帑	-18637
扛	-18638
澗	-18639
猖	-18640
鲀	-18641
嵋	-18642
簪	-18643
萩	-18644
鱔	-18645
ɔ	-18646
勅	-18647
尷	-18648
晁	-18649
暐	-18650
珩	-18651
癇	-18652
皎	-18653
盯	-18654
譙	-18655
赓	-18656
闫	-18657
馅	-18658
ノ	-18659
櫟	-18660
瑭	-18661
碲	-18662
谛	-18663
谯	-18664
蹇	-18665
邈	-18666
颉	-18667
鲈	-18668
ご	-18669
ぶ	-18670
幔	-18671
汜	-18672
涝	-18673
褪	-18674
霾	-18675
颊	-18676
龢	-18677
⋯	-18678
奭	-18679
擷	-18680
桧	-18681
榘	-18682
榷	-18683
珣	-18684
瓢	-18685
箍	-18686
翦	-18687
誨	-18688
诣	-18689
诲	-18690
魴	-18691
鯤	-18692
鱧	-18693
ば	-18694
囤	-18695
恿	-18696
渺	-18697
犛	-18698
艏	-18699
訖	-18700
谚	-18701
豺	-18702
鎗	-18703
ワ	-18704
漬	-18705
琇	-18706
痒	-18707
瞩	-18708
耘	-18709
芩	-18710
蹦	-18711
镉	-18712
闐	-18713
颚	-18714
鴕	-18715
爨	-18716
獺	-18717
笏	-18718
鈹	-18719
駙	-18720
ず	-18721
呋	-18722
尕	-18723
摻	-18724
晞	-18725
桀	-18726
箬	-18727
茗	-18728
藕	-18729
藨	-18730
衅	-18731
辮	-18732
邃	-18733
俺	-18734
儋	-18735
嵊	-18736
掸	-18737
栩	-18738
炜	-18739
硤	-18740
粿	-18741
蛻	-18742
蜆	-18743
螞	-18744
閭	-18745
そ	-18746
ョ	-18747
攣	-18748
珏	-18749
畈	-18750
痫	-18751
釵	-18752
鋤	-18753
锷	-18754
屹	-18755
嵇	-18756
憫	-18757
涕	-18758
熒	-18759
謫	-18760
趴	-18761
逛	-18762
閹	-18763
魟	-18764
嵯	-18765
様	-18766
煊	-18767
燾	-18768
盱	-18769
腌	-18770
鹳	-18771
ˋ	-18772
ά	-18773
э	-18774
亟	-18775
憬	-18776
挹	-18777
玮	-18778
贲	-18779
跻	-18780
轧	-18781
郃	-18782
郧	-18783
馱	-18784
哗	-18785
弑	-18786
欒	-18787
湃	-18788
禰	-18789
锟	-18790
隈	-18791
ı	-18792
ع	-18793
ゃ	-18794
唁	-18795
恽	-18796
撻	-18797
瀰	-18798
癢	-18799
秽	-18800
谘	-18801
姍	-18802
疮	-18803
缎	-18804
鄔	-18805
錮	-18806
钏	-18807
顗	-18808
髯	-18809
्	-18810
む	-18811
庠	-18812
濛	-18813
爍	-18814
獠	-18815
砥	-18816
砦	-18817
紜	-18818
苳	-18819
鸳	-18820
ж	-18821
喱	-18822
囉	-18823
癬	-18824
綵	-18825
驷	-18826
鯧	-18827
∈	-18828
哼	-18829
嫣	-18830
昀	-18831
桉	-18832
楝	-18833
槎	-18834
氈	-18835
涓	-18836
甌	-18837
讒	-18838
钡	-18839
偈	-18840
毎	-18841
盞	-18842
聋	-18843
胪	-18844
葶	-18845
藐	-18846
鎢	-18847
钼	-18848
鯖	-18849
鳕	-18850
勗	-18851
峠	-18852
氘	-18853
汨	-18854
燎	-18855
猕	-18856
璨	-18857
紇	-18858
脯	-18859
蹼	-18860
轶	-18861
镛	-18862
骡	-18863
骥	-18864
★	-18865
啮	-18866
彊	-18867
旃	-18868
澆	-18869
疃	-18870
瘍	-18871
縉	-18872
蜷	-18873
踵	-18874
銨	-18875
阆	-18876
驥	-18877
́	-18878
俨	-18879
峴	-18880
徭	-18881
忏	-18882
曖	-18883
歿	-18884
璿	-18885
瓏	-18886
萘	-18887
邇	-18888
鈷	-18889
이	-18890
ァ	-18891
佤	-18892
妞	-18893
憧	-18894
浬	-18895
燙	-18896
翩	-18897
菈	-18898
蜑	-18899
鄯	-18900
颤	-18901
ふ	-18902
凜	-18903
孖	-18904
潁	-18905
犢	-18906
眙	-18907
耒	-18908
蒨	-18909
蚩	-18910
詬	-18911
讹	-18912
躄	-18913
骠	-18914
χ	-18915
刈	-18916
嘶	-18917
戸	-18918
梶	-18919
漣	-18920
瀟	-18921
赟	-18922
輒	-18923
邬	-18924
钚	-18925
雹	-18926
骅	-18927
麋	-18928
ˈ	-18929
セ	-18930
揪	-18931
縊	-18932
縻	-18933
蒾	-18934
邠	-18935
郓	-18936
銖	-18937
钒	-18938
铠	-18939
陟	-18940
鯔	-18941
囂	-18942
専	-18943
愫	-18944
慑	-18945
殃	-18946
漯	-18947
烨	-18948
玠	-18949
臚	-18950
芪	-18951
辊	-18952
鉞	-18953
鶇	-18954
楸	-18955
燁	-18956
璠	-18957
腮	-18958
辙	-18959
郯	-18960
鄲	-18961
骊	-18962
ί	-18963
ت	-18964
∞	-18965
岘	-18966
岫	-18967
昉	-18968
脲	-18969
蜚	-18970
饵	-18971
鼱	-18972
≥	-18973
捩	-18974
滂	-18975
瑀	-18976
疱	-18977
窜	-18978
纓	-18979
脐	-18980
蚶	-18981
銹	-18982
鐳	-18983
鱉	-18984
鹬	-18985
þ	-18986
侑	-18987
儷	-18988
噹	-18989
滷	-18990
燬	-18991
獐	-18992
県	-18993
跖	-18994
醌	-18995
鰺	-18996
ه	-18997
嚐	-18998
坵	-18999
墉	-19000
惺	-19001
椽	-19002
氖	-19003
氡	-19004
濡	-19005
碓	-19006
竑	-19007
薙	-19008
蛞	-19009
遶	-19010
鳉	-19011
ほ	-19012
ケ	-19013
俶	-19014
咆	-19015
壑	-19016
弭	-19017
恙	-19018
暠	-19019
曷	-19020
猗	-19021
砵	-19022
绯	-19023
蝓	-19024
蠣	-19025
豊	-19026
赃	-19027
馭	-19028
鮈	-19029
鸯	-19030
倻	-19031
嘅	-19032
圜	-19033
搓	-19034
梆	-19035
禀	-19036
缨	-19037
鄚	-19038
陲	-19039
飙	-19040
鶘	-19041
ゲ	-19042
孪	-19043
灏	-19044
烁	-19045
瞪	-19046
碚	-19047
膿	-19048
臆	-19049
蛄	-19050
軼	-19051
錒	-19052
铊	-19053
鹟	-19054
ی	-19055
冑	-19056
凄	-19057
埭	-19058
曄	-19059
杼	-19060
枷	-19061
橈	-19062
殮	-19063
潯	-19064
焜	-19065
狒	-19066
疍	-19067
絶	-19068
綝	-19069
驪	-19070
乩	-19071
剽	-19072
喵	-19073
嗪	-19074
囓	-19075
栉	-19076
簋	-19077
醞	-19078
銫	-19079
鞮	-19080
ソ	-19081
哄	-19082
挛	-19083
椋	-19084
槲	-19085
猥	-19086
獗	-19087
祟	-19088
笹	-19089
缢	-19090
菝	-19091
赭	-19092
镌	-19093
骇	-19094
ネ	-19095
喹	-19096
墘	-19097
宓	-19098
恍	-19099
歴	-19100
煇	-19101
燉	-19102
碣	-19103
窥	-19104
箇	-19105
綻	-19106
蜢	-19107
褂	-19108
詰	-19109
諳	-19110
錡	-19111
鎔	-19112
鶲	-19113
đ	-19114
ф	-19115
傈	-19116
坨	-19117
嶠	-19118
幀	-19119
朐	-19120
潦	-19121
灞	-19122
炊	-19123
牯	-19124
猾	-19125
痞	-19126
羿	-19127
翱	-19128
蹂	-19129
鉬	-19130
雋	-19131
鴦	-19132
黒	-19133
า	-19134
་	-19135
ボ	-19136
塬	-19137
愔	-19138
柃	-19139
稹	-19140
蜃	-19141
诀	-19142
軫	-19143
钍	-19144
铮	-19145
阖	-19146
`	-19147
ò	-19148
ح	-19149
恣	-19150
涞	-19151
澂	-19152
荪	-19153
訢	-19154
鏘	-19155
鷸	-19156
僥	-19157
僳	-19158
垭	-19159
姫	-19160
憚	-19161
搔	-19162
敎	-19163
殇	-19164
毡	-19165
滎	-19166
燼	-19167
琚	-19168
謇	-19169
蹊	-19170
锄	-19171
阇	-19172
騫	-19173
骧	-19174
َ	-19175
厮	-19176
嗆	-19177
憨	-19178
揖	-19179
槻	-19180
淝	-19181
砀	-19182
禛	-19183
穰	-19184
芎	-19185
荞	-19186
讥	-19187
贅	-19188
鈈	-19189
錠	-19190
鍺	-19191
鱒	-19192
ό	-19193
尴	-19194
擘	-19195
朦	-19196
槛	-19197
沆	-19198
泠	-19199
涎	-19200
痙	-19201
睪	-19202
耙	-19203
苄	-19204
鎘	-19205
顒	-19206
鮄	-19207
®	-19208
ž	-19209
ˊ	-19210
ぎ	-19211
び	-19212
ザ	-19213
掳	-19214
楂	-19215
殤	-19216
甾	-19217
縷	-19218
藁	-19219
邽	-19220
亘	-19221
佞	-19222
坯	-19223
捡	-19224
瓒	-19225
砜	-19226
菖	-19227
葜	-19228
郜	-19229
钳	-19230
і	-19231
र	-19232
ね	-19233
呐	-19234
塭	-19235
娴	-19236
嶷	-19237
毬	-19238
琏	-19239
紂	-19240
荟	-19241
萜	-19242
藔	-19243
裟	-19244
訇	-19245
閤	-19246
亵	-19247
吝	-19248
垓	-19249
懾	-19250
攒	-19251
瀬	-19252
痉	-19253
睇	-19254
筐	-19255
荖	-19256
閨	-19257
ă	-19258
ヒ	-19259
伉	-19260
卍	-19261
峦	-19262
崮	-19263
嶇	-19264
忤	-19265
惋	-19266
揄	-19267
晗	-19268
玷	-19269
瘀	-19270
睜	-19271
秣	-19272
篝	-19273
銥	-19274
铢	-19275
鱘	-19276
鳐	-19277
ş	-19278
吲	-19279
啜	-19280
夙	-19281
杷	-19282
沢	-19283
濺	-19284
篙	-19285
篱	-19286
絢	-19287
罡	-19288
艉	-19289
虬	-19290
袈	-19291
鉚	-19292
铋	-19293
隗	-19294
鬬	-19295
ψ	-19296
ヤ	-19297
傉	-19298
傕	-19299
哌	-19300
坷	-19301
墀	-19302
悯	-19303
戾	-19304
氚	-19305
氪	-19306
綦	-19307
芍	-19308
覬	-19309
謔	-19310
遹	-19311
閎	-19312
隽	-19313
霏	-19314
鳢	-19315
ξ	-19316
冏	-19317
勣	-19318
嘟	-19319
枇	-19320
楫	-19321
獼	-19322
窿	-19323
繃	-19324
蟆	-19325
跗	-19326
迤	-19327
阈	-19328
鮪	-19329
ː	-19330
姒	-19331
愕	-19332
扉	-19333
芾	-19334
苴	-19335
蓑	-19336
蠹	-19337
袤	-19338
詼	-19339
軋	-19340
锭	-19341
髅	-19342
י	-19343
ポ	-19344
㹴	-19345
佶	-19346
哚	-19347
沓	-19348
簫	-19349
菓	-19350
蓀	-19351
蝟	-19352
蹠	-19353
銼	-19354
餃	-19355
ï	-19356
ð	-19357
ぐ	-19358
僮	-19359
厩	-19360
啃	-19361
崽	-19362
惣	-19363
敝	-19364
汎	-19365
烫	-19366
箐	-19367
缬	-19368
輋	-19369
顼	-19370
ホ	-19371
傚	-19372
増	-19373
怛	-19374
樋	-19375
淌	-19376
璩	-19377
礽	-19378
绊	-19379
舔	-19380
貘	-19381
贰	-19382
跛	-19383
邝	-19384
銣	-19385
闺	-19386
骈	-19387
嘿	-19388
樫	-19389
淩	-19390
溟	-19391
炅	-19392
祛	-19393
綑	-19394
罌	-19395
茧	-19396
蛸	-19397
蟑	-19398
诩	-19399
蹴	-19400
鉢	-19401
錕	-19402
鯓	-19403
↔	-19404
ゴ	-19405
墻	-19406
捶	-19407
櫥	-19408
焗	-19409
瘴	-19410
砧	-19411
硯	-19412
膑	-19413
菴	-19414
蔺	-19415
蟀	-19416
豉	-19417
関	-19418
隰	-19419
ʃ	-19420
囍	-19421
垠	-19422
壅	-19423
枱	-19424
獴	-19425
玑	-19426
瘩	-19427
眈	-19428
舂	-19429
覦	-19430
詡	-19431
鈮	-19432
鉍	-19433
铣	-19434
闓	-19435
馒	-19436
ق	-19437
刨	-19438
嬤	-19439
崂	-19440
揶	-19441
爻	-19442
笺	-19443
繙	-19444
臍	-19445
苎	-19446
苾	-19447
蠱	-19448
軻	-19449
ف	-19450
‖	-19451
嚣	-19452
囱	-19453
塱	-19454
枭	-19455
歩	-19456
疙	-19457
绫	-19458
袱	-19459
辄	-19460
辎	-19461
镧	-19462
霁	-19463
駄	-19464
麂	-19465
̇	-19466
ร	-19467
ざ	-19468
刎	-19469
喫	-19470
廝	-19471
拴	-19472
拽	-19473
撣	-19474
晾	-19475
椴	-19476
楯	-19477
榊	-19478
殓	-19479
毌	-19480
渍	-19481
溱	-19482
溲	-19483
矜	-19484
胛	-19485
蔘	-19486
蛎	-19487
蟋	-19488
褓	-19489
諤	-19490
锆	-19491
阑	-19492
顔	-19493
鱚	-19494
ю	-19495
げ	-19496
儕	-19497
冴	-19498
噻	-19499
嚎	-19500
孿	-19501
岀	-19502
巻	-19503
徠	-19504
発	-19505
皝	-19506
竅	-19507
繽	-19508
纘	-19509
舛	-19510
菰	-19511
蔵	-19512
蚯	-19513
蛀	-19514
邰	-19515
酝	-19516
锶	-19517
駢	-19518
仡	-19519
喔	-19520
堑	-19521
憊	-19522
晔	-19523
櫓	-19524
猬	-19525
珑	-19526
璣	-19527
疋	-19528
肼	-19529
芈	-19530
苜	-19531
荳	-19532
蚵	-19533
鲑	-19534
ý	-19535
佢	-19536
倬	-19537
慫	-19538
掐	-19539
汊	-19540
瀘	-19541
疝	-19542
蓣	-19543
蓿	-19544
轸	-19545
鄜	-19546
鈽	-19547
飭	-19548
驮	-19549
鰧	-19550
리	-19551
û	-19552
ギ	-19553
亶	-19554
哔	-19555
廩	-19556
旼	-19557
橱	-19558
濯	-19559
瓩	-19560
茁	-19561
葩	-19562
诟	-19563
蹶	-19564
铰	-19565
顥	-19566
鯪	-19567
鰾	-19568
龈	-19569
䲗	-19570
佺	-19571
咩	-19572
咫	-19573
奐	-19574
嬸	-19575
榎	-19576
榫	-19577
溅	-19578
爰	-19579
碶	-19580
磴	-19581
膊	-19582
萁	-19583
诋	-19584
赡	-19585
蹺	-19586
軔	-19587
銬	-19588
鋂	-19589
鎏	-19590
呱	-19591
哦	-19592
囿	-19593
媾	-19594
寔	-19595
徇	-19596
洹	-19597
湜	-19598
焓	-19599
笞	-19600
粑	-19601
脓	-19602
萇	-19603
藹	-19604
郅	-19605
鎵	-19606
鵟	-19607
ě	-19608
ו	-19609
寐	-19610
嵬	-19611
慤	-19612
炖	-19613
犒	-19614
禕	-19615
糅	-19616
绚	-19617
舘	-19618
谌	-19619
逋	-19620
郫	-19621
钜	-19622
阉	-19623
隷	-19624
鴛	-19625
†	-19626
劵	-19627
咁	-19628
嗇	-19629
嚙	-19630
廍	-19631
惘	-19632
愨	-19633
朮	-19634
洶	-19635
淒	-19636
狨	-19637
玘	-19638
琺	-19639
瞧	-19640
蒞	-19641
蒽	-19642
褥	-19643
詒	-19644
譁	-19645
轆	-19646
錚	-19647
น	-19648
噓	-19649
栒	-19650
渙	-19651
犰	-19652
狳	-19653
瓠	-19654
皙	-19655
磕	-19656
箫	-19657
苫	-19658
荽	-19659
谪	-19660
酆	-19661
陉	-19662
鮎	-19663
黟	-19664
ù	-19665
ń	-19666
◎	-19667
ピ	-19668
嵙	-19669
棨	-19670
泫	-19671
睁	-19672
苈	-19673
莅	-19674
藪	-19675
蠑	-19676
讧	-19677
輓	-19678
鉈	-19679
鍀	-19680
钺	-19681
闌	-19682
驭	-19683
鶻	-19684
ج	-19685
へ	-19686
ベ	-19687
嘢	-19688
媧	-19689
孳	-19690
弢	-19691
暄	-19692
洺	-19693
烬	-19694
簕	-19695
腑	-19696
蜕	-19697
謐	-19698
贍	-19699
辫	-19700
鋇	-19701
録	-19702
鍔	-19703
铿	-19704
饗	-19705
骞	-19706
鹑	-19707
唄	-19708
墬	-19709
拭	-19710
牘	-19711
紘	-19712
蜊	-19713
觴	-19714
辇	-19715
釔	-19716
馗	-19717
驒	-19718
न	-19719
囧	-19720
垅	-19721
嵴	-19722
幗	-19723
拣	-19724
晩	-19725
楽	-19726
榖	-19727
濘	-19728
牦	-19729
痲	-19730
穂	-19731
葭	-19732
蛊	-19733
赘	-19734
鉭	-19735
颢	-19736
鲢	-19737
黝	-19738
ì	-19739
έ	-19740
ъ	-19741
ة	-19742
ṣ	-19743
ペ	-19744
孃	-19745
屌	-19746
昺	-19747
暘	-19748
枸	-19749
涣	-19750
璁	-19751
稃	-19752
绀	-19753
脣	-19754
荸	-19755
袂	-19756
踊	-19757
躉	-19758
逖	-19759
镂	-19760
閡	-19761
闔	-19762
靓	-19763
饺	-19764
대	-19765
¥	-19766
ą	-19767
̃	-19768
ḥ	-19769
乜	-19770
凪	-19771
刍	-19772
圪	-19773
幪	-19774
懊	-19775
捺	-19776
榧	-19777
泷	-19778
溆	-19779
稈	-19780
纣	-19781
茯	-19782
藿	-19783
蟎	-19784
蠵	-19785
訕	-19786
郦	-19787
惫	-19788
慟	-19789
搐	-19790
淬	-19791
熠	-19792
牴	-19793
砻	-19794
簸	-19795
芻	-19796
蘸	-19797
蟄	-19798
诒	-19799
輜	-19800
鎰	-19801
鱀	-19802
麿	-19803
黼	-19804
ि	-19805
ṭ	-19806
ㄨ	-19807
倜	-19808
倣	-19809
凛	-19810
剁	-19811
嗝	-19812
孑	-19813
岖	-19814
徕	-19815
慚	-19816
拈	-19817
攫	-19818
淠	-19819
濉	-19820
瓌	-19821
睑	-19822
蓁	-19823
蛏	-19824
諍	-19825
谗	-19826
饅	-19827
M	-19828
ك	-19829
剡	-19830
嗟	-19831
尪	-19832
廨	-19833
惲	-19834
棂	-19835
樾	-19836
燻	-19837
牂	-19838
磬	-19839
苌	-19840
苕	-19841
讖	-19842
豨	-19843
踴	-19844
鏵	-19845
镭	-19846
黻	-19847
T	-19848
ɕ	-19849
ʔ	-19850
榉	-19851
澶	-19852
疡	-19853
眨	-19854
砭	-19855
磾	-19856
箋	-19857
绾	-19858
羸	-19859
菘	-19860
詆	-19861
贽	-19862
鋯	-19863
鏐	-19864
鑭	-19865
镠	-19866
阚	-19867
飚	-19868
饕	-19869
驩	-19870
ش	-19871
ก	-19872
伕	-19873
侂	-19874
呦	-19875
嚏	-19876
坻	-19877
嬛	-19878
瀅	-19879
芊	-19880
襖	-19881
觊	-19882
觎	-19883
郛	-19884
郷	-19885
酢	-19886
銦	-19887
钤	-19888
锢	-19889
闿	-19890
雎	-19891
靄	-19892
頫	-19893
鯷	-19894
¬	-19895
佾	-19896
嗲	-19897
垸	-19898
悸	-19899
惮	-19900
柞	-19901
沣	-19902
獭	-19903
甑	-19904
耜	-19905
膈	-19906
螭	-19907
鍬	-19908
铐	-19909
锴	-19910
霈	-19911
頊	-19912
鲇	-19913
ˇ	-19914
ר	-19915
म	-19916
冇	-19917
呜	-19918
搪	-19919
槙	-19920
炘	-19921
牍	-19922
狛	-19923
砹	-19924
笆	-19925
笪	-19926
紺	-19927
莨	-19928
蘅	-19929
讫	-19930
诙	-19931
輦	-19932
迩	-19933
釩	-19934
鏖	-19935
铍	-19936
髖	-19937
鶉	-19938
亙	-19939
仃	-19940
兢	-19941
凈	-19942
唧	-19943
喋	-19944
嗩	-19945
嗶	-19946
嘈	-19947
廪	-19948
怂	-19949
扦	-19950
昐	-19951
毽	-19952
汹	-19953
滏	-19954
濞	-19955
畹	-19956
眞	-19957
碛	-19958
祎	-19959
秆	-19960
稙	-19961
纫	-19962
胧	-19963
脍	-19964
舎	-19965
輅	-19966
邙	-19967
顳	-19968
鶚	-19969
ṇ	-19970
ヴ	-19971
ㄚ	-19972
倔	-19973
勰	-19974
呷	-19975
嘘	-19976
埴	-19977
嶂	-19978
枞	-19979
狽	-19980
糰	-19981
芗	-19982
蒺	-19983
蓖	-19984
諶	-19985
讣	-19986
