<pad>	0
<unk>	0
[CLS]	0
[SEP]	0
[MASK]	0
(	0
)	0
”	0
-	0
.	0
–	0
£	0
€	0
▁⿰	-0
▁⿱	-1
cd	-2
cdp	-3
▁⿰⿱	-4
▁,	-5
▁⿸	-6
▁⿱⿱	-7
88	-8
勹丶	-9
▁⿺	-10
▁。	-11
▁⿻	-12
⿱⿱	-13
▁⿱⿰	-14
▁⿵	-15
一八	-16
▁⿴	-17
▁⿹	-18
一口	-19
▁⿳	-20
▁年	-21
一龰	-22
▁1	-23
885	-24
▁、	-25
▁⿰⿱⿱	-26
土寸	-27
▁一	-28
89	-29
一厶	-30
⿱⿰	-31
目八	-32
口口	-33
口丨	-34
⿱⿴	-35
66	-36
二丨	-37
日一	-38
十口	-39
▁⿱⿻	-40
▁人	-41
丁口	-42
▁2	-43
866	-44
𠘧又	-45
人一	-46
亠口	-47
𠂇月	-48
▁⿱⿱⿱	-49
一人	-50
一厶土	-51
一廾	-52
ca	-53
▁⿰⿸	-54
人人	-55
夂口	-56
⿱⿻	-57
⿰⿱	-58
口一	-59
𠁣𠃛	-60
亠丷	-61
戊𠃌	-62
cac	-63
禾口	-64
一止	-65
▁為	-66
丿𠃌	-67
▁以	-68
龷八	-69
bb	-70
一丁	-71
乛亅	-72
亠土	-73
▁月	-74
甲一	-75
▁日	-76
㐅乂	-77
耂日	-78
乀丿	-79
囗玉	-80
▁20	-81
▁为	-82
▁19	-83
⺌日	-84
囗⺌日	-85
二厶	-86
丿丿	-87
▁⿱⿳	-88
土也	-89
⿹⿻	-90
bbf	-91
八厶	-92
凵丨	-93
八刀	-94
冂口	-95
一兀	-96
人丶	-97
幺幺	-98
▁⿲	-99
厶口	-100
⺌冖	-101
人⺀	-102
8665	-103
⺊一	-104
▁⿷	-105
凵丨凵	-106
人一口	-107
立口	-108
▁⿵⿰	-109
▁⿸⿸	-110
一大	-111
弓丨	-112
䒑土	-113
丷干	-114
⺊口	-115
土厶	-116
亻也	-117
▁⿱⿰⿱	-118
𠂊冫	-119
⺌冖口	-120
䒑自	-121
亠口小	-122
8661	-123
立口阝	-124
𠂉大	-125
cb	-126
一八斤	-127
丨丨	-128
目儿	-129
日十	-130
▁⿺⿱	-131
夕口	-132
乚丿	-133
𠂉母	-134
耳又	-135
止匕	-136
▁⿰⿳	-137
⿳⿰	-138
弓丨丿	-139
▁生	-140
立日	-141
896	-142
▁⿵⿵	-143
亻乍	-144
▁⿶	-145
冂一口	-146
夕夕	-147
一厶土刂	-148
彐一八	-149
口止	-150
一卜	-151
▁:	-152
丿士	-153
▁于	-154
土龰	-155
力口	-156
小丿	-157
亠父	-158
▁⿳𭕄	-159
⿱⿳	-160
▁及	-161
宀豕	-162
且一	-163
龶月	-164
bc	-165
儿口	-166
宀八	-167
▁》	-168
▁《	-169
立朩	-170
𠂊小	-171
幺夂	-172
▁⿱⿶	-173
月刂	-174
▁由	-175
冖子	-176
亻立	-177
木木	-178
衤皮	-179
亠巾	-180
冫欠	-181
▁民	-182
▁本	-183
丿丨	-184
人丨	-185
囗大	-186
且一八	-187
口儿	-188
一止攵	-189
▁⿶⿳⿰	-190
干丷	-191
一心	-192
▁子	-193
⺆冫	-194
彐冖	-195
▁3	-196
𠂊田	-197
▁·	-198
十罒	-199
千口	-200
十罒一心	-201
由八	-202
▁自	-203
甲一一	-204
冖車	-205
丿尸	-206
亻弋	-207
丿糸	-208
▁」	-209
▁「	-210
亠乂	-211
䒑业	-212
禾刂	-213
立朩斤	-214
▁⿱⿶⿱⿰	-215
白小	-216
廴聿	-217
𠂇巾	-218
宀㠯	-219
▁也	-220
宀女	-221
匕匕	-222
▁200	-223
丿尸斤	-224
子攵	-225
𠃋丿	-226
𠃋丿人	-227
𠂆一口	-228
匚㐅	-229
㐅乂子	-230
bd	-231
cc	-232
井一八	-233
𠂆又	-234
日乚	-235
覀女	-236
廿又	-237
一二	-238
▁“	-239
日一寸	-240
77	-241
十口儿	-242
人丶龴	-243
▁201	-244
弋工	-245
士口	-246
䒑土大	-247
木目	-248
歹刂	-249
耂子攵	-250
亻寸	-251
▁小	-252
土口	-253
▁山	-254
日寸	-255
▁⿰⿰	-256
⿵⿵	-257
亠丷一	-258
爫冖	-259
口八	-260
冂卄	-261
884	-262
▁事	-263
▁入	-264
王里	-265
▁⿰⿻	-266
▁世	-267
扌立	-268
口王	-269
▁二	-270
夕卜	-271
尢丶	-272
人王	-273
▁4	-274
日月	-275
▁工	-276
▁口	-277
龶𧘇	-278
コ一	-279
冖巾	-280
一八月	-281
亻吏	-282
王求	-283
𠂊田灬	-284
忄生	-285
▁十	-286
▁5	-287
禾斗	-288
冂刂	-289
牛冂刂	-290
▁;	-291
一口田	-292
𠂒儿	-293
▁州	-294
勹巳	-295
丷八	-296
女攵	-297
耂日阝	-298
▁重	-299
一巛	-300
一巛工	-301
十又	-302
立十	-303
▁⿰⿹	-304
▁"	-305
冖车	-306
𠂊冫寸	-307
刀口	-308
𠂒口	-309
一厶儿	-310
▁发	-311
▁⿹⿶	-312
囗口	-313
一由八	-314
▁士	-315
幺幺丱	-316
人一朩	-317
一土	-318
土土	-319
糸言	-320
糸言糸	-321
▁6	-322
▁比	-323
习习	-324
小丿目	-325
匕日	-326
五口	-327
▁⿰⿱⿰	-328
日生	-329
辶文	-330
䒑土寸	-331
尸匕	-332
▁s	-333
爫冖又	-334
重力	-335
▁目	-336
一八土	-337
▁⿲㇇	-338
辶言	-339
女口	-340
王丷	-341
又寸	-342
卩又	-343
𠁣𠃛日	-344
艹央	-345
亻丨	-346
口木	-347
▁长	-348
⿵⿰	-349
⿵⿱	-350
䒑土我	-351
幺幺人	-352
宀八工	-353
口丂	-354
曲豆	-355
龷八巳	-356
肀一	-357
丿冂口	-358
⿻⿻	-359
儿丨	-360
日大	-361
▁⿱⿲	-362
立日心	-363
⺌冖口田	-364
00	-365
▁7	-366
▁a	-367
亠丷厂	-368
囗儿	-369
▁⿱⿰⿴	-370
犬灬	-371
𠂊冫犬灬	-372
土龰巳	-373
⺌冖口巾	-374
⿹⿶	-375
▁巴	-376
日一里	-377
一廾刂	-378
入入	-379
▁米	-380
冎口	-381
85	-382
ス工	-383
戈十	-384
亠口小彡	-385
𠂊巴	-386
一冉	-387
𠂇又	-388
禾女	-389
⿱⿱⿱	-390
米大	-391
肀一一	-392
己攵	-393
▁女	-394
夂⺀	-395
▁来	-396
大丶	-397
口贝	-398
甲一戈	-399
⿳⿱	-400
▁9	-401
辶隹	-402
立女	-403
日十月	-404
▁8	-405
▁心	-406
夂力	-407
▁東	-408
丿冂	-409
丷豕	-410
▁东	-411
er	-412
▁⿵⿱	-413
目八刂	-414
木丶	-415
儿土	-416
▁c	-417
禾日	-418
釆田	-419
一巾	-420
土儿土	-421
▁m	-422
白水	-423
▁t	-424
隹又	-425
▁10	-426
cbb	-427
冂入	-428
▁車	-429
𠂇口	-430
𠂉丶	-431
二厶力	-432
口心	-433
丷口心	-434
方攵	-435
乂丶	-436
一廾刂土	-437
丿囗	-438
勹虫	-439
力八	-440
一廾彡	-441
▁手	-442
𫝀口	-443
宀丰	-444
冂人	-445
丿夫	-446
▁已	-447
龷由八	-448
𫝀口㐄	-449
止匕二	-450
门日	-451
口口隹	-452
木几	-453
勹口	-454
一业	-455
凵㐅	-456
in	-457
⿱⿲	-458
⿱⿰⿴	-459
▁12	-460
⺌兀	-461
▁⿱⿴	-462
亠几	-463
ee	-464
or	-465
爫冉	-466
氏丶	-467
火火	-468
尹口	-469
十口攵	-470
丿大	-471
辶寸	-472
禾中	-473
丶艮	-474
▁b	-475
隹木	-476
亠丷冖巾	-477
且厶	-478
▁史	-479
▁f	-480
▁199	-481
宀丰口	-482
卌一	-483
𠂉卌一	-484
虍几	-485
氵工	-486
上卜	-487
䒑未	-488
宀匕	-489
戊一	-490
辶井	-491
▁身	-492
王见	-493
禾重	-494
日乂	-495
一𫝀	-496
宀子	-497
an	-498
口力	-499
▁车	-500
十豆	-501
on	-502
八口	-503
糸言糸弓	-504
宀示	-505
⿰⿳	-506
人彡	-507
▁示	-508
礻土	-509
丿十	-510
氵州	-511
⺌月	-512
𠂉大口	-513
丷夫	-514
夕寸	-515
几丶	-516
巳巳	-517
▁11	-518
癶豆	-519
ce	-520
口卩	-521
刀丿	-522
亻本	-523
▁p	-524
▁h	-525
⺌彐	-526
𠂇工	-527
䒑业日	-528
尸禹	-529
虍豕	-530
止𣥂	-531
𠂉丶皿	-532
ea	-533
日夂	-534
𠂉日夂	-535
刀牛	-536
丿囗夂	-537
十口月	-538
田一	-539
⺊口戈	-540
土羊	-541
▁⿱⿵⿱	-542
丘八	-543
覀示	-544
幺木	-545
幺白	-546
幺白幺木	-547
▁d	-548
弋一止	-549
一厶月	-550
コ一亅	-551
𠂉子	-552
龷日	-553
▁又	-554
亻言	-555
礻申	-556
米女攵	-557
𠂉十	-558
丆口	-559
罒夕	-560
亠幺	-561
二人	-562
亠口冖	-563
凵㐅禸	-564
▁非	-565
氵皮	-566
辶斤	-567
⿱⿴⿱	-568
戊一口	-569
夂朩	-570
一白	-571
丿囗夂心	-572
𠃌口	-573
口龰	-574
丿冂米大	-575
𠂉卌一灬	-576
人匕	-577
la	-578
bf	-579
土儿土丸	-580
亠丷日	-581
亻牛	-582
▁/	-583
▁曲	-584
▁角	-585
二阝	-586
刀二阝	-587
厶厶	-588
心夂	-589
阝人	-590
立月	-591
人人龰	-592
冖儿	-593
歹匕	-594
日木	-595
▁18	-596
𠁣𠃛柬	-597
口口犬	-598
▁片	-599
言十	-600
日日	-601
𠂊田一	-602
宀必	-603
丩攵	-604
▁⿳⿰	-605
▁⿳⿱	-606
一口𧘇	-607
▁白	-608
⿸⿴	-609
尸一口	-610
木寸	-611
女也	-612
▁未	-613
木子	-614
亻尹	-615
en	-616
▁⿱⿱⿰	-617
8964	-618
爫木	-619
木艮	-620
肀一一田一	-621
八夂	-622
土𠃓	-623
且一小	-624
中一	-625
日罒	-626
日罒又	-627
宀必山	-628
衤刀	-629
乚丿十	-630
纟戋	-631
辶大	-632
甫寸	-633
立日儿	-634
▁且	-635
亠八	-636
贝刂	-637
▁⿰⿱⿹	-638
纟及	-639
身寸	-640
冖儿木	-641
▁⿰⿱⿴	-642
▁n	-643
宀八九	-644
▁r	-645
▁g	-646
丁口欠	-647
丨丿	-648
二丨凵	-649
丷三	-650
纟且	-651
口虫	-652
亻门	-653
井一八贝	-654
土口𧘇	-655
彳艮	-656
扌丁	-657
▁15	-658
山而	-659
bcb	-660
宀谷	-661
火火冖	-662
士衣	-663
厶厶人彡	-664
厂生	-665
4⿱	-666
▁言	-667
刀丿心	-668
▁⿰⿷	-669
𠂊厂	-670
▁广	-671
戊一女	-672
白王	-673
丷八十	-674
甘木	-675
勹口攵	-676
⿱⿹	-677
夕㐄	-678
犬頁	-679
米犬頁	-680
禾子	-681
亻隹	-682
工力	-683
囗丨	-684
丿口	-685
口丿口	-686
bea	-687
▁八	-688
⿱⿸	-689
又土	-690
▁书	-691
▁土	-692
▁⿺⿻	-693
辶束	-694
雨田	-695
讠十	-696
夂彡	-697
艹禺	-698
口十	-699
▁⿱⿻⿱	-700
▁l	-701
▁⿱⿶⿳⿰	-702
扌隹	-703
女子	-704
8960	-705
𠃌丨	-706
丿七	-707
丿虫	-708
井一冉	-709
ar	-710
宀头	-711
夂几	-712
▁我	-713
▁⿱⿱⿻	-714
田力	-715
又又	-716
▁九	-717
雨而	-718
山一	-719
束攵	-720
▁i	-721
肀一一日	-722
肀口	-723
勹冫	-724
辶車	-725
一氺	-726
一氺丶	-727
▁16	-728
口夫	-729
纟隹	-730
工攵	-731
人丶龴頁	-732
▁⿱⿹	-733
車凵	-734
八人	-735
⿰⿱⿱	-736
一内	-737
▁乡	-738
▁己	-739
宀女木	-740
▁田	-741
扌斤	-742
革力	-743
且力	-744
▁17	-745
亻白	-746
亻隹心	-747
辶不	-748
上小	-749
厶大	-750
白丿十	-751
丿𠃌刂	-752
厶大彡	-753
▁母	-754
士口冖	-755
▁194	-756
𠘧又手	-757
▁瓦	-758
▁0	-759
一尢	-760
尹口羊	-761
士心	-762
一厶土攵	-763
勹厶	-764
夂丰	-765
▁⿱⿺	-766
土龰戉	-767
▁w	-768
八乂	-769
糸言糸攵	-770
es	-771
丿廾	-772
⿺⿱	-773
⺌冖口土	-774
上小又	-775
▁⿱⿵	-776
禾乃	-777
扌丸	-778
䒑自寸	-779
刀田	-780
彑氺	-781
夂卜	-782
⺌冖口黑	-783
▁198	-784
▁⿱⿰⿱⿱	-785
𠂉也	-786
一口田刂	-787
▁川	-788
▁⿻㇀	-789
▁门	-790
人㔾	-791
龷八氺	-792
乛头	-793
匚儿	-794
亻专	-795
▁195	-796
亻更	-797
士𠃜	-798
▁14	-799
田心	-800
勹又	-801
耂丂	-802
耂匕	-803
⿱𭕄	-804
井一八土	-805
虍豕刂	-806
一自	-807
人丶龴页	-808
阝艮	-809
豆頁	-810
▁才	-811
▁197	-812
亻乃	-813
▁木	-814
一𧘇	-815
井一𧘇	-816
▁13	-817
▁⿱⿰⿻	-818
彐心	-819
扌非	-820
▁⿲⿱	-821
巳寸	-822
▁牙	-823
囗丨𧰨	-824
囗才	-825
㐅朩	-826
⺊口灬	-827
▁央	-828
一自夂	-829
牛冂刂衣	-830
▁氏	-831
冖一	-832
亻象	-833
▁乐	-834
戊一口心	-835
日月皿	-836
木目心	-837
土土寸	-838
儿言	-839
ti	-840
木示	-841
亠口子	-842
一丨	-843
一曲	-844
一曲日	-845
▁甲	-846
氵夬	-847
▁⿳⿱⿻	-848
▁o	-849
几㐅	-850
气米	-851
▁e	-852
廿巾	-853
▁for	-854
冖一豕	-855
立里	-856
▁⿱⿵⿵	-857
丰阝	-858
酉己	-859
爿戈	-860
𠂉一	-861
扌巴	-862
厂力	-863
爿戈臣	-864
▁k	-865
丷酉	-866
丿二丨	-867
刀丫	-868
阝方	-869
纟内	-870
al	-871
氵羊	-872
▁—	-873
自心	-874
阝日	-875
彳聿	-876
亠父攵	-877
凵㐅禸隹	-878
讠人	-879
龶糸	-880
米斗	-881
犭犬	-882
亻弗	-883
𠂇工月	-884
亠口冖丁	-885
𡗗氺	-886
广隶	-887
mu	-888
▁止	-889
▁_	-890
一兀寸	-891
夂㐄	-892
口耳	-893
礻见	-894
讠己	-895
▁196	-896
釆大	-897
丿冂釆大	-898
⿸⿱	-899
cbd	-900
▁z	-901
纟己	-902
厶虫	-903
龵目	-904
女母	-905
厶八夂	-906
▁革	-907
▁193	-908
▁j	-909
囗大心	-910
冂儿	-911
䒑山	-912
目廾	-913
艹冖	-914
辶由	-915
▁承	-916
冂一	-917
弓长	-918
尸一口刂	-919
扌比	-920
勹口攵言	-921
卅冖巾	-922
宀寸	-923
is	-924
羊目	-925
丨丨比	-926
辶艮	-927
氵又	-928
▁30	-929
言己	-930
比白	-931
▁2009	-932
斤斤	-933
力力	-934
十冖	-935
mula	-936
十冖糸	-937
口又	-938
氵隹	-939
辶车	-940
▁formula	-941
▁专	-942
▁21	-943
彐氺	-944
le	-945
𠂊冫寸犬	-946
亻我	-947
禾禾	-948
禾禾止	-949
000	-950
口又一	-951
8⿷	-952
爿士衣	-953
一龰頁	-954
上小又目	-955
尸口	-956
𠃊人	-957
▁⿱⿳𭕄	-958
𠃊米	-959
口力刂	-960
𠂇厶	-961
亻衣	-962
亡月	-963
亡月王	-964
车专	-965
刀口灬	-966
爫一	-967
二乚	-968
阝示	-969
木又	-970
礻且	-971
口龶	-972
艹田	-973
白巾	-974
⿰⿹	-975
𠂊田灬禾	-976
⿱⿵⿱	-977
▁v	-978
⿺⿸	-979
𠂇又丶	-980
de	-981
▁2011	-982
口口欠	-983
䒑亡	-984
户方	-985
立十力	-986
▁永	-987
七刀	-988
𠘧口	-989
▁25	-990
日比	-991
▁丹	-992
冫夬	-993
冫欠贝	-994
𠂇火	-995
冂二	-996
⺆冫攵	-997
he	-998
一亅	-999
忄夬	-1000
▁2010	-1001
石皮	-1002
冖方	-1003
亠丷冖方	-1004
人一口手	-1005
艹来	-1006
夂丶	-1007
虍豆	-1008
虍豆戈	-1009
𠂉一乁	-1010
耳口王	-1011
谷卩	-1012
un	-1013
阝東	-1014
亻以	-1015
𠁣𠃛口	-1016
白方攵	-1017
心丿	-1018
一生	-1019
46	-1020
ro	-1021
臼儿	-1022
宀八犬	-1023
コ又	-1024
女又	-1025
口木土	-1026
中一贝	-1027
丷夫㔾	-1028
丿大口	-1029
▁飛	-1030
▁192	-1031
it	-1032
⺄十	-1033
𠂊亅	-1034
一丂	-1035
世木	-1036
䒑土永	-1037
里予	-1038
⿱⿺	-1039
▁头	-1040
厂干	-1041
▁⿻⿺	-1042
尢丶丿	-1043
𡗗日	-1044
▁皮	-1045
戈戈	-1046
罒乑	-1047
工頁	-1048
▁久	-1049
力口木	-1050
冫隹	-1051
戈刂	-1052
▁co	-1053
▁2012	-1054
コ一女	-1055
▁2008	-1056
el	-1057
▁zh	-1058
氵由	-1059
人㔾刂	-1060
us	-1061
冂丶	-1062
十贝	-1063
尹口阝	-1064
at	-1065
ic	-1066
十口刂	-1067
夫见	-1068
土八夂	-1069
龴疋	-1070
亠𠃊	-1071
几攵	-1072
山一几攵	-1073
隹口	-1074
扌户	-1075
勹缶	-1076
㐅㐅	-1077
十豆口	-1078
il	-1079
勹灬	-1080
𠂉大豆	-1081
⿸⿸	-1082
𠂊田一日	-1083
土儿土丸灬	-1084
▁}	-1085
耳阝	-1086
▁{	-1087
二丨刂	-1088
𠂇厶隹	-1089
宀丁	-1090
𠂉乙	-1091
▁2013	-1092
丬士衣	-1093
▁22	-1094
口寸	-1095
竹朿	-1096
人氺	-1097
艹乂	-1098
门口	-1099
木羊	-1100
宀八方	-1101
辶豕	-1102
一龰页	-1103
ur	-1104
广予	-1105
▁⿰⿳⿱⿻	-1106
肀一一田一刂	-1107
屯頁	-1108
口止巨	-1109
𠘧又耳	-1110
隹隹又	-1111
氏日	-1112
5⿱	-1113
䒑口	-1114
羊䒑口	-1115
木木手	-1116
匚㐅欠	-1117
87	-1118
宀木	-1119
氵酉	-1120
▁24	-1121
幺幺灬	-1122
am	-1123
冖𧘇	-1124
▁191	-1125
▁23	-1126
王王	-1127
口口木	-1128
目八攵	-1129
丿皿	-1130
艹非	-1131
▁2007	-1132
又见	-1133
▁⿱⿸	-1134
▁束	-1135
▁末	-1136
金艮	-1137
𠃌丨一	-1138
羊工	-1139
▁2006	-1140
尸毛	-1141
亠丷厂生	-1142
▁干	-1143
牙隹	-1144
丿之	-1145
⿸⿱⿱	-1146
st	-1147
纟工	-1148
𠂊彐心	-1149
▁2014	-1150
丬夕	-1151
丷夫力	-1152
▁⿰⿵	-1153
冖隹	-1154
幺大	-1155
▁!	-1156
氵隹十	-1157
夫夫	-1158
氵㔾	-1159
弓冫	-1160
工页	-1161
彡頁	-1162
▁⿱⿰⿷	-1163
氵聿	-1164
又戈	-1165
辶力	-1166
𠘧又酉	-1167
囗人	-1168
人人十	-1169
衤里	-1170
車斤	-1171
夫夫日	-1172
乛耳	-1173
乛耳攵	-1174
丰丰	-1175
冂㐅	-1176
▁见	-1177
巾白	-1178
彐冖巾	-1179
爫子	-1180
爿犬	-1181
et	-1182
口虫隹	-1183
䒑八	-1184
䒑八皿	-1185
▁臣	-1186
士示	-1187
广车	-1188
戊一𣥂	-1189
一厶月攵	-1190
士示欠	-1191
⿰⿻	-1192
夂田	-1193
龶贝	-1194
ch	-1195
▁the	-1196
幺幺灬頁	-1197
895	-1198
▁⿹⿻	-1199
习习白	-1200
亻十	-1201
户口	-1202
▁贝	-1203
金刂	-1204
辶𠂤	-1205
乡隹	-1206
扌白	-1207
丬夕大	-1208
囗韦	-1209
▁2005	-1210
𠂉母攵	-1211
刀金刂	-1212
丿乚	-1213
口夫隹	-1214
米女	-1215
木土	-1216
王不	-1217
匕月	-1218
▁⿸⿱	-1219
𠂊贝	-1220
▁31	-1221
▁朱	-1222
日小	-1223
戊𠃌皿	-1224
亻二	-1225
扌丸灬	-1226
▁26	-1227
𠂉巾	-1228
戈十車	-1229
ing	-1230
𠂊田灬日	-1231
人止	-1232
歹刂灬	-1233
勹丿	-1234
几口	-1235
一乚丿	-1236
一乚丿兀	-1237
一彑	-1238
丷干丸	-1239
▁2001	-1240
王丶	-1241
▁几	-1242
囗人皿	-1243
▁28	-1244
⿰⿸	-1245
犭虫	-1246
▁牛	-1247
▁谷	-1248
▁st	-1249
刀丿丶	-1250
凵土	-1251
匕匕心	-1252
⿴⿱	-1253
亠口子攵	-1254
大口	-1255
𠃑大口	-1256
罒非	-1257
刀丿丶木	-1258
ol	-1259
▁27	-1260
日皿	-1261
⿱⿱⿻	-1262
求攵	-1263
文刂	-1264
土儿土丸力	-1265
一𣥂	-1266
▁2000	-1267
予頁	-1268
大丷	-1269
▁x	-1270
大丷日小	-1271
as	-1272
人人一	-1273
日业	-1274
tion	-1275
凵田	-1276
⿱⿻⿻	-1277
▁⿱⿰⿸	-1278
人人夂	-1279
木才	-1280
月犬	-1281
⿰⿱⿵	-1282
冂二月犬	-1283
艹乙	-1284
⿳⿻	-1285
冖又	-1286
コ一冖又	-1287
土皮	-1288
▁巨	-1289
禾必	-1290
阝东	-1291
▁>	-1292
尸由	-1293
𠂉大口日	-1294
▁飞	-1295
木木示	-1296
土止	-1297
▁2015	-1298
耂匕日	-1299
亻又	-1300
冫水	-1301
木木疋	-1302
子小	-1303
▁29	-1304
夫丷	-1305
弗贝	-1306
一丰	-1307
田皿	-1308
八大	-1309
冂八大	-1310
日央	-1311
木及	-1312
▁in	-1313
月月	-1314
广土	-1315
▁<	-1316
丷酉寸	-1317
ow	-1318
口口口	-1319
耳又乑	-1320
▁尺	-1321
▁2004	-1322
ir	-1323
山夕	-1324
df	-1325
▁50	-1326
𠁣𠃛耳	-1327
土土兀	-1328
几丶木	-1329
▁an	-1330
𠂊厂㔾	-1331
口及	-1332
冂二月犬土	-1333
𠃋丿人刂	-1334
口止艮	-1335
朿刂	-1336
爫罒	-1337
目艮	-1338
木斤	-1339
禾火	-1340
又隹	-1341
屯页	-1342
干刂	-1343
▁u	-1344
龶母	-1345
ac	-1346
王缶	-1347
日大巾	-1348
ig	-1349
雨彐	-1350
▁br	-1351
禾厶	-1352
冖几	-1353
不口	-1354
ed	-1355
▁000	-1356
𠂉疋	-1357
▁ch	-1358
▁耳	-1359
辶禺	-1360
木隹	-1361
▁⿰⿱⿺	-1362
幺幺斤	-1363
口隹	-1364
石角	-1365
亻木	-1366
山石	-1367
𩰋𩰊	-1368
辶兆	-1369
戈廾	-1370
丨又	-1371
臼丨又	-1372
ent	-1373
冂口攵	-1374
扌戈	-1375
白小彡	-1376
▁100	-1377
宀于	-1378
▁'	-1379
▁ca	-1380
田糸	-1381
丬犬	-1382
雨隹	-1383
十廾	-1384
缶夬	-1385
os	-1386
▁乎	-1387
辶巛	-1388
乛工	-1389
乛工一	-1390
士乛工一	-1391
▁190	-1392
艹两	-1393
▁40	-1394
宀且	-1395
犭㔾	-1396
厶又	-1397
爫龴	-1398
广大	-1399
▁of	-1400
車㔾	-1401
丶尸	-1402
广車	-1403
8977	-1404
艹重	-1405
宀八牙	-1406
木木鬼	-1407
彑𧰨	-1408
辶白	-1409
耳耳	-1410
夕㔾	-1411
▁斗	-1412
女生	-1413
刀巴	-1414
大隹	-1415
丰寸	-1416
扌甫	-1417
▁2016	-1418
勹臼	-1419
讠上	-1420
艹隹	-1421
艹隹臼	-1422
▁=	-1423
▁2003	-1424
囗㐅	-1425
▁y	-1426
中心	-1427
大丶心	-1428
戈十车	-1429
䒑夫	-1430
辶米	-1431
阝車	-1432
子皿	-1433
山隹	-1434
丿囗㐅	-1435
▁申	-1436
口乎	-1437
𠂒口非	-1438
木白	-1439
丷酉大	-1440
臣又	-1441
▁⿰⿳⿱	-1442
ia	-1443
𡗗禾	-1444
止月	-1445
钅艮	-1446
冂大	-1447
𠂊冂大	-1448
氵甫	-1449
子乚	-1450
十豆寸	-1451
土丶	-1452
氵气	-1453
⺊尸	-1454
火乍	-1455
id	-1456
土厶卩	-1457
om	-1458
又又木	-1459
果页	-1460
▁甘	-1461
丷夫氺	-1462
爫缶	-1463
▁|	-1464
止𣥂頁	-1465
纟田	-1466
▁2002	-1467
一丨虫	-1468
弋丿	-1469
𠃌冫	-1470
𠂤止	-1471
厂㔾	-1472
丿土	-1473
丿土攵	-1474
田月	-1475
ra	-1476
▁肉	-1477
日十韦	-1478
⿰⿵	-1479
车斤	-1480
贝攵	-1481
月生	-1482
宀玉	-1483
丰丰豆	-1484
勹日	-1485
㡀攵	-1486
▁厂	-1487
黑犬	-1488
亻戈	-1489
川頁	-1490
亠口冖豕	-1491
火火冖木	-1492
女又力	-1493
大镸	-1494
大隹寸	-1495
▁⿰⿺	-1496
禾女鬼	-1497
𠃊米斤	-1498
气羊	-1499
口丩	-1500
⿷⿱	-1501
户口攵	-1502
十目	-1503
比十	-1504
户隹	-1505
隹灬	-1506
氵九	-1507
勹甫	-1508
氵九木	-1509
人人木隹	-1510
习习隹	-1511
ot	-1512
阝且	-1513
丨丿彐	-1514
▁2017	-1515
黑土	-1516
王朱	-1517
亠𧘇	-1518
▁井	-1519
戈十衣	-1520
亡口	-1521
木𠃓	-1522
亻山	-1523
ut	-1524
口未	-1525
木灬	-1526
夕㐄木	-1527
▁al	-1528
日大土	-1529
▁]	-1530
⺌冖口手	-1531
亠口冖几	-1532
扌斤口	-1533
爫工	-1534
爫工彐心	-1535
𠂊田一羊	-1536
▁2018	-1537
▁[	-1538
氵也	-1539
im	-1540
20	-1541
亻谷	-1542
50	-1543
凵丨月	-1544
▁han	-1545
田丁	-1546
心皿	-1547
心皿丁	-1548
灬皿	-1549
肀一灬皿	-1550
言川	-1551
几丶心	-1552
扌丸力	-1553
厂丁	-1554
彡页	-1555
▁60	-1556
um	-1557
幺力	-1558
石更	-1559
门耳	-1560
土厶皿	-1561
𠂉母攵糸	-1562
禾且	-1563
一田	-1564
一田一	-1565
ec	-1566
亠口冖毛	-1567
山豆	-1568
予页	-1569
爫木彡	-1570
龶夂	-1571
𠂊田灬羊	-1572
止𣥂页	-1573
亠口子阝	-1574
丷酉大阝	-1575
十豆彡	-1576
火火冖力	-1577
女未	-1578
不皿	-1579
目八才	-1580
艹冖力	-1581
扌乚	-1582
em	-1583
礻乚	-1584
䒑土食	-1585
舟见	-1586
大巳	-1587
覀大巳	-1588
扌疌	-1589
大示	-1590
iv	-1591
糸攵	-1592
山一糸攵	-1593
衤甫	-1594
丨日	-1595
▁1999	-1596
亚日	-1597
戈十隹	-1598
王王必	-1599
囗木	-1600
亠口了	-1601
▁1990	-1602
車欠	-1603
亻五	-1604
歹刂衣	-1605
▁ma	-1606
䒑土皿	-1607
丁頁	-1608
▁乙	-1609
𠄎丿	-1610
九朩	-1611
辶千	-1612
疋虫	-1613
▁1998	-1614
〢又	-1615
二丨力	-1616
⿴⿰	-1617
川页	-1618
串心	-1619
言寸	-1620
丰刀	-1621
扌巨	-1622
耂子	-1623
ter	-1624
▁35	-1625
丁页	-1626
一日	-1627
厶厶一日	-1628
彐火	-1629
▁⿱⿰⿳	-1630
▁韦	-1631
日干	-1632
▁?	-1633
巳廾	-1634
山己	-1635
土丷	-1636
㇇⿱	-1637
车九	-1638
中一㠯	-1639
⿱⿰⿱	-1640
尺⺀	-1641
亻乙	-1642
爿士	-1643
oo	-1644
囗禾	-1645
尸示	-1646
尸示寸	-1647
乚丿贝	-1648
山豆几	-1649
▁80	-1650
▁1997	-1651
三丨	-1652
牛攵	-1653
口口隹欠	-1654
▁la	-1655
亻禺	-1656
ad	-1657
歺又	-1658
▁32	-1659
巳灬	-1660
𦣞巳灬	-1661
冫中	-1662
氵干	-1663
言方	-1664
𠂊田大	-1665
𠂉力	-1666
镸彡	-1667
亠口子丸	-1668
and	-1669
歹朱	-1670
10	-1671
19	-1672
▁sa	-1673
ul	-1674
止匕糸	-1675
人朩	-1676
艹人朩	-1677
▁1980	-1678
車九	-1679
扌广	-1680
𠂉一罒	-1681
▁丘	-1682
彳重	-1683
op	-1684
贝才	-1685
纟丑	-1686
厶又乚	-1687
ri	-1688
言果	-1689
▁70	-1690
弓土	-1691
丿巾	-1692
ation	-1693
厶儿	-1694
广由	-1695
戊一火	-1696
彳皮	-1697
▁+	-1698
▁33	-1699
乛水	-1700
▁36	-1701
乛水一	-1702
▁189	-1703
⿳⿳	-1704
歹匕廾	-1705
氵冘	-1706
艹罒	-1707
土龰㐅	-1708
𠘧又皿	-1709
木不	-1710
夕㐄阝	-1711
夂口頁	-1712
口月	-1713
工贝	-1714
山己几	-1715
臣又土	-1716
▁2019	-1717
言斥	-1718
土龰卜	-1719
▁and	-1720
th	-1721
冖木	-1722
一丨犬	-1723
宀申	-1724
言丁	-1725
讠井	-1726
▁de	-1727
扌斥	-1728
▁ar	-1729
亻子	-1730
艹见	-1731
幺𠃌	-1732
▁90	-1733
幺幺心	-1734
▁1996	-1735
纟东	-1736
40	-1737
日子	-1738
户隹頁	-1739
冂二目	-1740
口巴	-1741
十冖子	-1742
车欠	-1743
ers	-1744
礻羊	-1745
▁500	-1746
▁45	-1747
歺又食	-1748
▁⿺⿵	-1749
又丶	-1750
㡀攵巾	-1751
目儿丶	-1752
匕口	-1753
䒑山刂	-1754
匕口灬	-1755
ay	-1756
亠口子丸灬	-1757
丿厶	-1758
止匕木	-1759
▁『	-1760
钅中	-1761
土甫	-1762
▁』	-1763
▁°	-1764
女且	-1765
木兆	-1766
ag	-1767
爫臼	-1768
丶丶	-1769
丶丶丶	-1770
小大	-1771
白小頁	-1772
30	-1773
阝车	-1774
虫虫	-1775
▁1995	-1776
▁1994	-1777
米立	-1778
罒心	-1779
宀丰罒心	-1780
牛也	-1781
丷干犬	-1782
亻犬	-1783
▁00	-1784
工口寸	-1785
木卯	-1786
辶了	-1787
扌兆	-1788
凵丨欠	-1789
日土	-1790
▁1993	-1791
48	-1792
▁186	-1793
8959	-1794
oc	-1795
田一口	-1796
ie	-1797
大电	-1798
木攵	-1799
𠃌丿	-1800
千口攵	-1801
▁com	-1802
讠方	-1803
亻申	-1804
▁1992	-1805
▁187	-1806
▁瓜	-1807
衤卜	-1808
夂口页	-1809
▁tw	-1810
▁th	-1811
口止兆	-1812
日大㣺	-1813
▁188	-1814
一大阝	-1815
艹罒冖	-1816
立十土	-1817
土口隹	-1818
▁1991	-1819
丨丨一	-1820
80	-1821
▁hans	-1822
氵匚	-1823
人人刂	-1824
ind	-1825
▁q	-1826
勹口攵手	-1827
讠川	-1828
氵白	-1829
𠂒儿贝	-1830
钅戋	-1831
八刀頁	-1832
12	-1833
日王	-1834
▁hk	-1835
丿田	-1836
儿厶	-1837
ov	-1838
大寸	-1839
丰阝巾	-1840
廿木	-1841
▁1949	-1842
千口乚	-1843
车两	-1844
▁un	-1845
王文	-1846
▁37	-1847
臼工	-1848
冖儿干	-1849
艹方	-1850
▁1970	-1851
口龶力	-1852
灬史	-1853
▁1950	-1854
臼土	-1855
車甫	-1856
ba	-1857
艹之	-1858
爫子乚	-1859
▁re	-1860
一史	-1861
▁隶	-1862
人干	-1863
田田	-1864
扌石	-1865
革月	-1866
艹罒冖夕	-1867
▁sh	-1868
▁col	-1869
匕匕灬	-1870
十冖子力	-1871
11	-1872
王白	-1873
木木幺	-1874
冖见	-1875
凵乚	-1876
▁300	-1877
▁1989	-1878
▁豆	-1879
广发	-1880
ard	-1881
金十	-1882
王文王	-1883
▁185	-1884
▁to	-1885
木彡	-1886
na	-1887
丰刀大	-1888
木示隶	-1889
忄不	-1890
▁34	-1891
▁hd	-1892
土欠	-1893
臣又糸	-1894
ub	-1895
土夬	-1896
av	-1897
25	-1898
▁1960	-1899
冖牛	-1900
廿灬	-1901
▁1988	-1902
li	-1903
一火	-1904
▁1945	-1905
▁sp	-1906
谷欠	-1907
龙衣	-1908
亻中	-1909
▁39	-1910
旡旡	-1911
果頁	-1912
旡旡日	-1913
re	-1914
▁mar	-1915
王皮	-1916
戈𠂇	-1917
▁⿱⿴⿱	-1918
口一𧘇	-1919
di	-1920
ta	-1921
ine	-1922
丰丰彐心	-1923
ang	-1924
竹聿	-1925
千臼	-1926
〢又土	-1927
矛木	-1928
厂里	-1929
ph	-1930
凵丨月土	-1931
og	-1932
石广	-1933
车由	-1934
宀由	-1935
車斤日	-1936
女己	-1937
21	-1938
丿丨刂	-1939
工丂	-1940
土川	-1941
讠寸	-1942
舟皿	-1943
阝月	-1944
▁55	-1945
糸言糸心	-1946
弓厶	-1947
▁mo	-1948
60	-1949
▁on	-1950
▁⿳⿳	-1951
▁is	-1952
15	-1953
勹田	-1954
𠂉丶见	-1955
丘山	-1956
▁1985	-1957
▁1986	-1958
斤欠	-1959
土方	-1960
▁1984	-1961
𠂊田灬里	-1962
衤由	-1963
戈十木	-1964
土鬼	-1965
▁pro	-1966
▁38	-1967
厂㔾页	-1968
te	-1969
▁1987	-1970
亠父阝	-1971
ik	-1972
冂㐅刂	-1973
白小心	-1974
又欠	-1975
und	-1976
屯阝	-1977
亻方	-1978
▁ne	-1979
人丶龴阝	-1980
匕頁	-1981
ou	-1982
ion	-1983
扌𠃓	-1984
▁虫	-1985
⺊贝	-1986
口斤	-1987
钅十	-1988
ows	-1989
禾禾日	-1990
刀贝	-1991
讠斥	-1992
16	-1993
疒了	-1994
est	-1995
▁am	-1996
▁42	-1997
丿言	-1998
艹戊	-1999
ap	-2000
卜皿	-2001
土卜皿	-2002
犭言	-2003
犭言犬	-2004
ess	-2005
千口予	-2006
几又	-2007
▁1982	-2008
大弓	-2009
丷夫手	-2010
ss	-2011
忄隹	-2012
▁43	-2013
▁75	-2014
丷夫刀	-2015
13	-2016
衤谷	-2017
▁65	-2018
ver	-2019
广木	-2020
覀土	-2021
▁⿻⿱	-2022
口口丨	-2023
▁wind	-2024
宀丰口刂	-2025
𠁣𠃛才	-2026
▁1983	-2027
氵𠃓	-2028
⿶⿳⿰	-2029
〢又糸	-2030
47	-2031
匕刂	-2032
厂彡頁	-2033
虍业	-2034
讠丁	-2035
17	-2036
月巴	-2037
ccdp	-2038
▁47	-2039
ack	-2040
ip	-2041
犭火	-2042
彳氵	-2043
土不	-2044
up	-2045
勹米	-2046
巛果	-2047
一八言	-2048
876	-2049
45	-2050
▁丈	-2051
氵永	-2052
业䒑夫	-2053
卩丶	-2054
𠂎丶	-2055
女又心	-2056
ber	-2057
▁⿻⿵	-2058
23	-2059
田一口犬	-2060
sp	-2061
▁⿰⿱⿱⿱⿰	-2062
口口田一口犬	-2063
毌贝	-2064
白儿	-2065
ts	-2066
▁49	-2067
▁46	-2068
由阝	-2069
▁1979	-2070
目八女	-2071
▁or	-2072
▁400	-2073
月永	-2074
42	-2075
▁en	-2076
▁fr	-2077
▁windows	-2078
爫女	-2079
▁tr	-2080
▁卜	-2081
人一朩斗	-2082
辶万	-2083
釆心	-2084
王册	-2085
子瓜	-2086
亚心	-2087
巛火	-2088
▁肃	-2089
ell	-2090
耒毛	-2091
▁1978	-2092
土土卜	-2093
犭王	-2094
▁ro	-2095
37	-2096
井一八⺀	-2097
▁ap	-2098
虍心	-2099
▁ii	-2100
讠果	-2101
女彐	-2102
由丂	-2103
几木	-2104
18	-2105
▁con	-2106
ge	-2107
▁册	-2108
彐寸	-2109
扌由	-2110
22	-2111
35	-2112
▁⿰⿱⿻	-2113
▁le	-2114
米且	-2115
▁te	-2116
▁%	-2117
▁180	-2118
虫朱	-2119
▁150	-2120
井一八木	-2121
▁1981	-2122
一厶廾	-2123
14	-2124
口内	-2125
竹龙	-2126
𠂉大巨	-2127
igh	-2128
人一朩又	-2129
口土	-2130
束刂	-2131
90	-2132
竹毛	-2133
一刂	-2134
▁48	-2135
ity	-2136
ab	-2137
ak	-2138
日女	-2139
▁jo	-2140
纟氏	-2141
ica	-2142
▁at	-2143
氵皮女	-2144
门才	-2145
𠃊人欠	-2146
27	-2147
朿朿	-2148
▁1958	-2149
▁⿰⿸⿸	-2150
ue	-2151
非一	-2152
26	-2153
▁1946	-2154
扌夫	-2155
车甫	-2156
丷八月	-2157
习习立	-2158
扌以	-2159
ill	-2160
匚王	-2161
丶丶丶皿	-2162
36	-2163
od	-2164
女𦣞	-2165
▁64	-2166
丿𠃌攵	-2167
又阝	-2168
灬心	-2169
二厶鬼	-2170
ich	-2171
尸巾	-2172
ist	-2173
尸巾刂	-2174
日十彡	-2175
月贝	-2176
一大㣺	-2177
⿱⿱⿰	-2178
all	-2179
亠幺田	-2180
if	-2181
氵王	-2182
▁85	-2183
24	-2184
小隹	-2185
▁56	-2186
▁⿰⿴	-2187
▁ph	-2188
冖且	-2189
土隹	-2190
uc	-2191
33	-2192
▁44	-2193
29	-2194
ong	-2195
垂阝	-2196
口口山	-2197
大冖牛	-2198
匕页	-2199
▁57	-2200
車由	-2201
癶豆阝	-2202
▁1930	-2203
▁ex	-2204
▁1940	-2205
ey	-2206
▁66	-2207
亻寸肉	-2208
▁兆	-2209
犭讠	-2210
犭讠犬	-2211
▁1948	-2212
𠂊彐	-2213
ear	-2214
𠃜目	-2215
艹肅	-2216
▁1000	-2217
釆丂	-2218
丿囗釆丂	-2219
扌甲	-2220
▁120	-2221
言羊	-2222
木木石	-2223
止匕角	-2224
28	-2225
丷八牛	-2226
▁1937	-2227
▁cn	-2228
丿二丨刂	-2229
▁1956	-2230
𠂤十	-2231
女兆	-2232
纟屯	-2233
▁1975	-2234
▁so	-2235
▁1947	-2236
亻九	-2237
39	-2238
𠂊丶	-2239
乛水一灬	-2240
肀月	-2241
艹亡	-2242
車車	-2243
▁⿰⿸⿱⿱	-2244
月刂心	-2245
亠里	-2246
亠里𧘇	-2247
歹戋	-2248
女乃	-2249
⿹⿱	-2250
乛亅丿	-2251
宀火	-2252
ry	-2253
86	-2254
覀贝	-2255
▁par	-2256
▁寸	-2257
▁pr	-2258
▁頁	-2259
▁ac	-2260
▁ad	-2261
▁jr	-2262
▁1941	-2263
▁bo	-2264
▁1973	-2265
礻巳	-2266
辶隶	-2267
▁1952	-2268
木乚	-2269
土厶力	-2270
▁1920	-2271
角虫	-2272
氵欠	-2273
▁600	-2274
▁1955	-2275
lay	-2276
月几	-2277
讠内	-2278
ian	-2279
ma	-2280
厂万	-2281
丿丿心	-2282
▁1972	-2283
bo	-2284
49	-2285
▁800	-2286
▁1966	-2287
▁76	-2288
70	-2289
忄亡	-2290
⺊又	-2291
io	-2292
32	-2293
▁1976	-2294
ff	-2295
38	-2296
▁1968	-2297
▁犬	-2298
▁59	-2299
ps	-2300
34	-2301
一中	-2302
一中冖	-2303
enter	-2304
ve	-2305
ord	-2306
ign	-2307
▁gr	-2308
非心	-2309
木木夕	-2310
亻弋衣	-2311
▁1977	-2312
亠丷厂彡页	-2313
十廾贝	-2314
▁1954	-2315
▁1974	-2316
▁179	-2317
木朱	-2318
▁1969	-2319
▁nba	-2320
氵中	-2321
▁⿳⿻	-2322
sh	-2323
亻韦	-2324
ly	-2325
▁77	-2326
bs	-2327
▁95	-2328
牙阝	-2329
艹肃	-2330
又丶虫	-2331
八刀皿	-2332
man	-2333
▁1959	-2334
⿱⿵	-2335
▁1965	-2336
彳金	-2337
八刀页	-2338
口贝力	-2339
刀牛虫	-2340
▁1938	-2341
口屯	-2342
▁cd	-2343
44	-2344
止匕隹	-2345
氵欠皿	-2346
▁1939	-2347
言刂	-2348
车斤日	-2349
八口𧘇	-2350
口欠	-2351
火丁	-2352
▁1944	-2353
75	-2354
一丂阝	-2355
▁1971	-2356
忄白	-2357
ft	-2358
九丶	-2359
▁1942	-2360
⿹⿻⿱	-2361
ud	-2362
彳钅	-2363
▁1964	-2364
立𧰨	-2365
▁1967	-2366
31	-2367
▁88	-2368
予象	-2369
ty	-2370
▁58	-2371
▁1957	-2372
▁41	-2373
艹禺力	-2374
⿰⿰	-2375
非文	-2376
▁99	-2377
士冖	-2378
月刂刀	-2379
亻丨攵	-2380
艹矛	-2381
人一朩攵	-2382
王白石	-2383
one	-2384
▁op	-2385
十月	-2386
十月丶	-2387
41	-2388
▁1936	-2389
▁ng	-2390
覀木	-2391
ice	-2392
龷八㣺	-2393
▁1961	-2394
石页	-2395
▁1963	-2396
se	-2397
一大口	-2398
土里	-2399
田田土	-2400
▁69	-2401
冫欠口	-2402
乃子	-2403
▁1953	-2404
虫工	-2405
幺大隹	-2406
鬼斗	-2407
▁hr	-2408
田比	-2409
▁⿻⿻	-2410
コ一丿	-2411
㐅乂木	-2412
㐅乂木大	-2413
䒑土女	-2414
立十言	-2415
▁1935	-2416
▁160	-2417
▁1943	-2418
pe	-2419
木卜	-2420
qu	-2421
宀禺	-2422
门王	-2423
▁51	-2424
▁sc	-2425
43	-2426
tic	-2427
▁舟	-2428
扌口	-2429
▁1962	-2430
土贝	-2431
▁id	-2432
▁52	-2433
▁goo	-2434
艹本	-2435
力力月	-2436
亻火	-2437
▁hant	-2438
目隹	-2439
扌爪	-2440
而寸	-2441
氵丁	-2442
宀八乙	-2443
丬士	-2444
▁177	-2445
石頁	-2446
耒井	-2447
ate	-2448
斤丶	-2449
ug	-2450
▁1951	-2451
⺌月刂	-2452
一廾瓦	-2453
𠁣𠃛王	-2454
ive	-2455
ton	-2456
ne	-2457
扌皮	-2458
ux	-2459
氵巨	-2460
氵巨木	-2461
䒑土灬	-2462
▁me	-2463
▁wh	-2464
辶韦	-2465
▁as	-2466
讠羊	-2467
尸水	-2468
▁67	-2469
金重	-2470
▁1927	-2471
纟文	-2472
钅甫	-2473
宀八乍	-2474
65	-2475
1900	-2476
乀丿口	-2477
▁sch	-2478
▁dv	-2479
丘阝	-2480
日大力	-2481
▁sao	-2482
ant	-2483
ock	-2484
ore	-2485
▁68	-2486
丿木	-2487
ith	-2488
丰刀糸	-2489
▁cr	-2490
▁lin	-2491
氵女	-2492
▁se	-2493
▁1928	-2494
▁inter	-2495
水日	-2496
▁79	-2497
▁1933	-2498
▁ed	-2499
匚儿力	-2500
口非	-2501
▁54	-2502
ect	-2503
宀必虫	-2504
ens	-2505
〢又贝	-2506
gle	-2507
ace	-2508
𠁣𠃛虫	-2509
▁弓	-2510
▁700	-2511
亠田	-2512
亡心	-2513
▁sm	-2514
▁1931	-2515
禾刂木	-2516
丿糸心	-2517
hn	-2518
int	-2519
▁⿱⿰⿱⿴	-2520
end	-2521
▁1932	-2522
ga	-2523
lo	-2524
▁car	-2525
𠂤巾	-2526
▁it	-2527
▁1934	-2528
▁sy	-2529
且厶心	-2530
尸雨	-2531
木干	-2532
▁ist	-2533
千口甘	-2534
ond	-2535
▁53	-2536
士冖豆	-2537
ke	-2538
目目隹	-2539
mp	-2540
刀口阝	-2541
亻士	-2542
▁tv	-2543
▁页	-2544
▁97	-2545
▁110	-2546
son	-2547
▁dr	-2548
氵户	-2549
ix	-2550
目垂	-2551
tr	-2552
卩示	-2553
乃又	-2554
乃又皿	-2555
𠂉丶金	-2556
56	-2557
▁96	-2558
yle	-2559
ina	-2560
▁86	-2561
▁爪	-2562
▁pa	-2563
▁ak	-2564
户攵	-2565
ick	-2566
扌斤言	-2567
贝贝	-2568
▁we	-2569
ern	-2570
厂万力	-2571
钅欠	-2572
▁87	-2573
▁istat	-2574
99	-2575
▁1929	-2576
▁ra	-2577
ii	-2578
⺌冖口贝	-2579
亠丷厂彡	-2580
▁丑	-2581
不一	-2582
⺌贝	-2583
ld	-2584
▁dvd	-2585
83	-2586
自犬	-2587
ment	-2588
▁⿸⿱⿱	-2589
口尺	-2590
xt	-2591
立十月	-2592
▁us	-2593
▁ht	-2594
▁bl	-2595
丨丿巾	-2596
▁gam	-2597
饣欠	-2598
ort	-2599
ib	-2600
▁1912	-2601
▁yo	-2602
▁140	-2603
ight	-2604
冫欠女	-2605
82	-2606
月非	-2607
▁qu	-2608
王廾	-2609
皮頁	-2610
▁man	-2611
ook	-2612
▁google	-2613
力口贝	-2614
月力	-2615
金欠	-2616
耳又女	-2617
▁cl	-2618
▁89	-2619
户月	-2620
▁⿷⿱	-2621
忄艮	-2622
▁be	-2623
▁72	-2624
eam	-2625
▁new	-2626
▁⿱⿰⿰	-2627
亻丨攵心	-2628
▁1925	-2629
▁center	-2630
ory	-2631
84	-2632
▁ge	-2633
▁play	-2634
ah	-2635
口巾	-2636
▁wor	-2637
忄乙	-2638
81	-2639
95	-2640
▁my	-2641
扌丑	-2642
コ一人	-2643
▁250	-2644
讠刂	-2645
⿻⿱	-2646
▁no	-2647
▁130	-2648
匚一	-2649
爪巴	-2650
衤果	-2651
▁mon	-2652
▁1918	-2653
▁back	-2654
▁170	-2655
▁style	-2656
55	-2657
己心	-2658
广比	-2659
▁⿸⿸⿸	-2660
贝贝女	-2661
口口一	-2662
月干	-2663
牛生	-2664
𠘧又糸	-2665
iss	-2666
ance	-2667
▁63	-2668
ll	-2669
▁1913	-2670
▁1919	-2671
目大	-2672
▁62	-2673
竹目大	-2674
小丿力	-2675
𠁣𠃛人	-2676
口口隹力	-2677
▁1924	-2678
67	-2679
八刀贝	-2680
▁1926	-2681
尸示寸心	-2682
53	-2683
57	-2684
62	-2685
▁john	-2686
▁166	-2687
gro	-2688
亠口𧘇	-2689
丷田一口	-2690
▁ip	-2691
dice	-2692
▁bd	-2693
co	-2694
ure	-2695
一巛工力	-2696
mm	-2697
▁ho	-2698
厂彡	-2699
▁1922	-2700
ai	-2701
59	-2702
▁sil	-2703
冫欠皿	-2704
乍心	-2705
身弓	-2706
▁codice	-2707
▁po	-2708
气弗	-2709
▁61	-2710
立十讠	-2711
木象	-2712
石专	-2713
so	-2714
ris	-2715
ung	-2716
戊丶	-2717
匕禾	-2718
▁wil	-2719
丂戈	-2720
禾丂戈	-2721
▁comp	-2722
礻斤	-2723
𠘧又月	-2724
人目	-2725
冂一八	-2726
木木火	-2727
▁柬	-2728
▁mus	-2729
ational	-2730
广龙	-2731
51	-2732
▁1914	-2733
ans	-2734
52	-2735
tv	-2736
69	-2737
土龰干	-2738
iz	-2739
▁肅	-2740
冫欠瓦	-2741
span	-2742
甘欠	-2743
乀丿寸	-2744
▁colspan	-2745
幺冖牛	-2746
门虫	-2747
▁3000	-2748
▁1911	-2749
▁av	-2750
68	-2751
艹夫	-2752
ide	-2753
▁bar	-2754
▁ser	-2755
▁欠	-2756
▁ngc	-2757
▁1917	-2758
to	-2759
▁dna	-2760
64	-2761
八厶𧘇	-2762
58	-2763
▁er	-2764
▁km	-2765
▁1923	-2766
丿士几	-2767
缶工	-2768
亻為	-2769
ground	-2770
户攵聿	-2771
▁align	-2772
ire	-2773
▁⿱⿱⿲	-2774
口甫	-2775
氵文	-2776
ence	-2777
夕㔾心	-2778
79	-2779
me	-2780
▁el	-2781
land	-2782
目民	-2783
艹巴	-2784
▁1921	-2785
▁74	-2786
一巛工頁	-2787
亻为	-2788
ary	-2789
𠂇月阝	-2790
54	-2791
76	-2792
木東	-2793
犭瓜	-2794
▁mv	-2795
▁background	-2796
age	-2797
㐅乂木大手	-2798
止龰	-2799
▁lov	-2800
米丂	-2801
▁can	-2802
▁coun	-2803
▁mac	-2804
▁bb	-2805
92	-2806
▁pl	-2807
▁color	-2808
▁尸	-2809
隹乃	-2810
車干	-2811
皮页	-2812
▁net	-2813
氵戋	-2814
ial	-2815
▁78	-2816
78	-2817
▁sup	-2818
ier	-2819
art	-2820
▁73	-2821
丿囗米丂	-2822
匚非	-2823
艮土	-2824
72	-2825
▁⿵⿱⿱	-2826
丰丰彐	-2827
▁1900	-2828
98	-2829
for	-2830
73	-2831
eat	-2832
⿱⿻⿱	-2833
71	-2834
匚甲	-2835
▁do	-2836
▁ps	-2837
▁per	-2838
父巴	-2839
土申	-2840
een	-2841
丿二丨小	-2842
cl	-2843
ank	-2844
辶尺	-2845
▁text	-2846
▁1910	-2847
63	-2848
▁戊	-2849
▁es	-2850
61	-2851
ley	-2852
lar	-2853
ha	-2854
爿一	-2855
片爿一	-2856
厶牛	-2857
▁71	-2858
且一八頁	-2859
人一口皿	-2860
▁2020	-2861
九日	-2862
▁mic	-2863
va	-2864
ite	-2865
74	-2866
ky	-2867
又力	-2868
▁900	-2869
ivers	-2870
▁fo	-2871
▁cp	-2872
且一八页	-2873
八丂	-2874
▁os	-2875
per	-2876
93	-2877
口口几	-2878
▁81	-2879
▁82	-2880
亡目	-2881
口且	-2882
▁silver	-2883
▁pc	-2884
▁98	-2885
ust	-2886
▁app	-2887
▁cor	-2888
ass	-2889
▁101	-2890
96	-2891
ster	-2892
94	-2893
ies	-2894
▁now	-2895
目夂	-2896
冂人目夂	-2897
纟千	-2898
97	-2899
𠁣𠃛甲	-2900
les	-2901
一八欠	-2902
疒艮	-2903
ath	-2904
𠁣𠃛月	-2905
竹由	-2906
▁met	-2907
氵谷	-2908
▁廿	-2909
5%	-2910
▁83	-2911
⺌冖口木	-2912
ead	-2913
▁intern	-2914
大隹田	-2915
ile	-2916
iel	-2917
▁84	-2918
女干	-2919
▁str	-2920
匚斤	-2921
▁ag	-2922
人一朩土	-2923
ann	-2924
▁gen	-2925
91	-2926
▁em	-2927
▁92	-2928
▁linux	-2929
01	-2930
宀八力	-2931
iki	-2932
▁1915	-2933
ml	-2934
▁1905	-2935
ok	-2936
▁1916	-2937
own	-2938
▁gu	-2939
立十瓜	-2940
tp	-2941
are	-2942
old	-2943
石几	-2944
言隹	-2945
ins	-2946
ish	-2947
use	-2948
ool	-2949
扌彐	-2950
▁her	-2951
tive	-2952
亻弋黑	-2953
𠂊田一禾	-2954
一自戈	-2955
ys	-2956
▁you	-2957
ube	-2958
火火冖虫	-2959
氵十	-2960
巛果刂	-2961
▁ua	-2962
木口	-2963
弓瓜	-2964
▁li	-2965
▁su	-2966
疋月	-2967
金甫	-2968
▁gro	-2969
立十束	-2970
km	-2971
▁1500	-2972
▁5000	-2973
be	-2974
▁ep	-2975
▁ba	-2976
▁ga	-2977
冫欠心	-2978
ara	-2979
▁love	-2980
ome	-2981
▁ta	-2982
▁min	-2983
▁禹	-2984
艹牙	-2985
非車	-2986
▁1909	-2987
人一口頁	-2988
▁1906	-2989
▁ste	-2990
▁univers	-2991
门木	-2992
▁he	-2993
丨丨比土	-2994
▁one	-2995
宀牛	-2996
尢力	-2997
犬廾	-2998
艹犬廾	-2999
臣卜	-3000
▁med	-3001
王攵	-3002
ood	-3003
▁dav	-3004
tor	-3005
火东	-3006
▁1907	-3007
门甲	-3008
▁air	-3009
ck	-3010
▁06	-3011
▁all	-3012
竹目大糸	-3013
宀臣	-3014
▁char	-3015
station	-3016
镸聿	-3017
木木彡	-3018
王鬼	-3019
户犬	-3020
酉州	-3021
口一心	-3022
▁93	-3023
▁go	-3024
覀米	-3025
▁da	-3026
▁har	-3027
幺幺田	-3028
▁world	-3029
▁09	-3030
▁res	-3031
uth	-3032
犭里	-3033
纟韦	-3034
丿米	-3035
▁cla	-3036
耂日灬	-3037
▁micro	-3038
gr	-3039
▁91	-3040
八丂皿	-3041
▁05	-3042
mb	-3043
ana	-3044
丆且	-3045
氵山	-3046
氵必	-3047
ho	-3048
▁1908	-3049
丿米丨	-3050
▁360	-3051
ms	-3052
ico	-3053
▁playstation	-3054
pa	-3055
氏丶阝	-3056
▁bro	-3057
▁1904	-3058
dr	-3059
大田	-3060
非衣	-3061
▁fl	-3062
▁ms	-3063
▁iii	-3064
ower	-3065
▁des	-3066
▁nh	-3067
▁ha	-3068
▁sw	-3069
▁tim	-3070
▁ab	-3071
▁105	-3072
▁tra	-3073
lex	-3074
▁mat	-3075
▁350	-3076
ls	-3077
▁pe	-3078
月方	-3079
da	-3080
▁94	-3081
bert	-3082
言永	-3083
lec	-3084
▁⿺⿸	-3085
▁live	-3086
enn	-3087
亻丈	-3088
urn	-3089
扌卜	-3090
冖果	-3091
文而	-3092
ose	-3093
彑冖果	-3094
tc	-3095
土立	-3096
ork	-3097
eng	-3098
ere	-3099
▁akb	-3100
𠃋丿人力	-3101
虍几彡	-3102
pl	-3103
▁07	-3104
▁school	-3105
ony	-3106
亠果	-3107
亠果𧘇	-3108
土及	-3109
ds	-3110
book	-3111
▁1895	-3112
艹户	-3113
ium	-3114
ki	-3115
▁1898	-3116
ka	-3117
艹心	-3118
▁vis	-3119
𠂊田灬由	-3120
stem	-3121
▁dis	-3122
氵世	-3123
牛土	-3124
月𠃓	-3125
门人	-3126
▁1903	-3127
女亚	-3128
rom	-3129
▁lo	-3130
6%	-3131
⿱⿵⿵	-3132
▁fa	-3133
丷豕土	-3134
士冖一	-3135
▁bas	-3136
▁with	-3137
月豕	-3138
▁super	-3139
▁1902	-3140
2%	-3141
口电	-3142
▁du	-3143
火柬	-3144
口止止	-3145
▁mm	-3146
3%	-3147
▁nor	-3148
ame	-3149
ven	-3150
口止戋	-3151
扌发	-3152
八厶頁	-3153
▁ea	-3154
mer	-3155
udi	-3156
olog	-3157
厶厶土	-3158
▁by	-3159
▁1901	-3160
▁face	-3161
pt	-3162
▁sn	-3163
4%	-3164
米糸	-3165
sa	-3166
der	-3167
ale	-3168
纟方	-3169
▁ty	-3170
㡀攵廾	-3171
▁na	-3172
米糸廾	-3173
歹千	-3174
羊乚	-3175
▁cc	-3176
▁ver	-3177
火户	-3178
ward	-3179
▁star	-3180
▁08	-3181
▁di	-3182
▁mc	-3183
木东	-3184
7%	-3185
匕禾頁	-3186
8%	-3187
犭且	-3188
丿土攵心	-3189
▁jav	-3190
tu	-3191
iti	-3192
丿丿丶	-3193
hz	-3194
▁⿰⿻⿵	-3195
丨丨一刂	-3196
里予土	-3197
▁system	-3198
ical	-3199
▁web	-3200
▁4000	-3201
▁bla	-3202
▁⿰⿱⿳	-3203
▁je	-3204
豸艮土	-3205
ata	-3206
中𧘇	-3207
oth	-3208
亠中𧘇	-3209
⿰⿳⿱	-3210
宀八缶	-3211
▁104	-3212
▁sur	-3213
禾隹	-3214
匚巾	-3215
liam	-3216
▁pet	-3217
▁ww	-3218
▁gra	-3219
▁int	-3220
鬼未	-3221
itt	-3222
▁01	-3223
石欠	-3224
禺心	-3225
千口甫	-3226
丘丿	-3227
氵末	-3228
▁ass	-3229
▁music	-3230
eal	-3231
口里	-3232
yn	-3233
▁che	-3234
eed	-3235
▁mor	-3236
禾刂牛	-3237
anc	-3238
▁ic	-3239
立口刂	-3240
▁pol	-3241
▁⿰⿱⿰⿱	-3242
pr	-3243
▁af	-3244
巛田	-3245
dp	-3246
ash	-3247
耳卯	-3248
cal	-3249
臣又月	-3250
耳火	-3251
▁sec	-3252
冫東	-3253
9%	-3254
月中	-3255
vel	-3256
ille	-3257
asa	-3258
soft	-3259
▁pla	-3260
ont	-3261
pm	-3262
tain	-3263
冂卄頁	-3264
亻卜	-3265
ker	-3266
艹甘	-3267
讠隹	-3268
▁ib	-3269
甫方攵	-3270
田皿頁	-3271
box	-3272
▁county	-3273
▁ka	-3274
▁jam	-3275
氵心	-3276
▁div	-3277
▁william	-3278
▁iv	-3279
▁103	-3280
br	-3281
▁high	-3282
冂口月	-3283
▁125	-3284
𠂊冫寸水	-3285
木更	-3286
▁val	-3287
1%	-3288
亻弋贝	-3289
▁rec	-3290
▁bu	-3291
▁vo	-3292
一白弓	-3293
凵㐅儿	-3294
▁1200	-3295
▁102	-3296
▁108	-3297
▁up	-3298
▁mark	-3299
钅内	-3300
▁ss	-3301
▁off	-3302
月重	-3303
▁04	-3304
广户	-3305
册刂	-3306
amp	-3307
eet	-3308
ner	-3309
氵文刂	-3310
▁del	-3311
▁mag	-3312
ited	-3313
亠口了灬	-3314
臣人	-3315
▁saint	-3316
月女	-3317
ler	-3318
ane	-3319
▁iso	-3320
▁dc	-3321
▁war	-3322
▁yout	-3323
心心	-3324
彐一八車	-3325
ae	-3326
纟丩	-3327
歺又米	-3328
▁ス	-3329
申𠃓	-3330
礻氏	-3331
▁1890	-3332
亻弋山	-3333
疒皮	-3334
▁tvb	-3335
▁02	-3336
▁university	-3337
▁international	-3338
▁gn	-3339
丷十	-3340
illa	-3341
▁ec	-3342
月土	-3343
▁ir	-3344
▁106	-3345
丶丶丶匕	-3346
木丈	-3347
ula	-3348
ス工页	-3349
▁1899	-3350
▁nowiki	-3351
覀土瓦	-3352
▁⿰⿹⿶	-3353
▁1896	-3354
urg	-3355
▁115	-3356
礻阝	-3357
虍力	-3358
▁220	-3359
▁game	-3360
幺月	-3361
幺月乚	-3362
彐氺刂	-3363
▁⿱⿻⿻	-3364
iro	-3365
ise	-3366
za	-3367
灬也	-3368
▁cb	-3369
▁mr	-3370
▁1897	-3371
▁youtube	-3372
icon	-3373
▁107	-3374
⺌冖口牙	-3375
▁111	-3376
▁facebook	-3377
▁⿳⿲	-3378
⿰⿱⿶	-3379
士冖一禾	-3380
丶丶丶匕彡	-3381
金隹	-3382
▁ter	-3383
木冖	-3384
木缶	-3385
木缶木冖	-3386
▁10%	-3387
▁microsoft	-3388
oss	-3389
未攵	-3390
▁⿸⿱⿰	-3391
ya	-3392
▁wal	-3393
▁gir	-3394
go	-3395
▁im	-3396
▁ev	-3397
口于	-3398
女我	-3399
月夫	-3400
丷夫目	-3401
▁50%	-3402
▁et	-3403
▁david	-3404
fer	-3405
uro	-3406
▁hy	-3407
▁1860	-3408
tin	-3409
▁cy	-3410
▁bbc	-3411
▁open	-3412
ham	-3413
口木𧘇	-3414
▁109	-3415
▁240	-3416
▁lim	-3417
▁1889	-3418
▁enter	-3419
日十戈	-3420
▁geor	-3421
ble	-3422
gb	-3423
ena	-3424
宀龙	-3425
ings	-3426
阝龙	-3427
山我	-3428
王厶	-3429
▁bea	-3430
ks	-3431
⿰⿱⿰	-3432
火頁	-3433
▁lu	-3434
oph	-3435
▁ds	-3436
fa	-3437
▁mk	-3438
𠂇口心	-3439
▁ber	-3440
九力	-3441
work	-3442
一廾阝	-3443
▁450	-3444
era	-3445
丬夕水	-3446
▁she	-3447
tions	-3448
▁san	-3449
𠂇火皿	-3450
氵斤	-3451
舟白	-3452
ons	-3453
▁1800	-3454
lin	-3455
扌末	-3456
uch	-3457
ement	-3458
雨文	-3459
▁cro	-3460
〢又月	-3461
▁mp	-3462
亻朱	-3463
che	-3464
po	-3465
ute	-3466
▁gl	-3467
▁巾	-3468
▁03	-3469
ude	-3470
▁comm	-3471
▁cm	-3472
▁cent	-3473
▁eng	-3474
way	-3475
▁ce	-3476
▁1880	-3477
丘丶	-3478
日隹	-3479
▁soc	-3480
山甲	-3481
ero	-3482
▁tech	-3483
05	-3484
氵夕	-3485
▁1894	-3486
▁sim	-3487
彐一八车	-3488
甘阝	-3489
▁red	-3490
饣虫	-3491
ino	-3492
门柬	-3493
八厶页	-3494
艹斤	-3495
门文	-3496
▁team	-3497
eth	-3498
ike	-3499
tis	-3500
▁win	-3501
orn	-3502
自木	-3503
▁http	-3504
▁1871	-3505
里儿土	-3506
𠂊冫寸酉	-3507
▁fla	-3508
▁ins	-3509
▁paul	-3510
夂卜口	-3511
虍文	-3512
几丶革	-3513
roid	-3514
▁nhk	-3515
弋心	-3516
▁don	-3517
dy	-3518
口比	-3519
▁128	-3520
car	-3521
钅隹	-3522
enti	-3523
ene	-3524
▁power	-3525
iet	-3526
匕禾页	-3527
糸言糸虫	-3528
▁group	-3529
酉鬼	-3530
▁city	-3531
mo	-3532
羊丑	-3533
石水	-3534
las	-3535
▁112	-3536
wa	-3537
▁national	-3538
▁sd	-3539
▁280	-3540
▁java	-3541
虫丰	-3542
▁not	-3543
my	-3544
▁113	-3545
▁mil	-3546
▁max	-3547
木隶	-3548
𠂎卩	-3549
▁1885	-3550
▁mich	-3551
非车	-3552
𠂊小心	-3553
▁1600	-3554
ius	-3555
osa	-3556
▁230	-3557
any	-3558
▁mer	-3559
竹立	-3560
▁sol	-3561
erica	-3562
att	-3563
▁ef	-3564
ze	-3565
▁rich	-3566
▁ts	-3567
一龰匕	-3568
彑氺刂	-3569
𠘧又石	-3570
▁210	-3571
木乚糸	-3572
▁ke	-3573
八刀山	-3574
▁1870	-3575
▁day	-3576
▁6000	-3577
cm	-3578
▁mod	-3579
▁118	-3580
▁tom	-3581
木果	-3582
▁ig	-3583
▁reg	-3584
▁trans	-3585
td	-3586
▁xbox	-3587
que	-3588
line	-3589
立十玉	-3590
一儿	-3591
月长	-3592
▁20%	-3593
osh	-3594
▁studi	-3595
wn	-3596
▁pop	-3597
亠口子丸土	-3598
言乍	-3599
▁alex	-3600
ics	-3601
▁fin	-3602
虍隹	-3603
str	-3604
▁sun	-3605
fo	-3606
let	-3607
▁cs	-3608
ald	-3609
▁155	-3610
▁out	-3611
▁rna	-3612
▁top	-3613
uk	-3614
大十	-3615
木冘	-3616
▁135	-3617
▁ang	-3618
▁sam	-3619
未攵厂里	-3620
ital	-3621
▁rad	-3622
▁android	-3623
父斤	-3624
贝长	-3625
▁sk	-3626
▁america	-3627
fr	-3628
▁bet	-3629
ark	-3630
02	-3631
04	-3632
▁pat	-3633
𠂊田灬屯	-3634
ese	-3635
▁艮	-3636
▁fc	-3637
竹二	-3638
▁1886	-3639
▁cap	-3640
03	-3641
丿丿皿	-3642
谷欠心	-3643
iver	-3644
▁30%	-3645
ult	-3646
▁⿰⿰⿴	-3647
𠂇工月土	-3648
⿻⿵	-3649
饣几	-3650
扌予	-3651
钅甲	-3652
ael	-3653
▁ur	-3654
▁117	-3655
▁dir	-3656
▁colle	-3657
衤彡	-3658
▁sar	-3659
厂犬	-3660
ita	-3661
▁rock	-3662
▁james	-3663
++	-3664
一止心	-3665
pg	-3666
bl	-3667
no	-3668
巾长	-3669
冂人禸	-3670
▁90%	-3671
▁1884	-3672
▁ko	-3673
艹巨	-3674
ott	-3675
木矛木	-3676
phone	-3677
▁116	-3678
ual	-3679
阝人土	-3680
▁750	-3681
por	-3682
▁kh	-3683
▁114	-3684
ave	-3685
戈十口	-3686
▁1861	-3687
▁mi	-3688
▁cpu	-3689
▁sal	-3690
▁thom	-3691
女女	-3692
oug	-3693
ield	-3694
berg	-3695
虫我	-3696
言朱	-3697
06	-3698
▁cont	-3699
ject	-3700
コ儿	-3701
白コ儿	-3702
▁tri	-3703
十豆口灬	-3704
▁big	-3705
▁that	-3706
ology	-3707
hel	-3708
▁123	-3709
▁vir	-3710
▁1887	-3711
▁from	-3712
氵弗	-3713
duc	-3714
▁80%	-3715
▁vol	-3716
▁2500	-3717
▁king	-3718
ior	-3719
tiv	-3720
▁org	-3721
艹朱	-3722
▁sl	-3723
▁1850	-3724
▁time	-3725
▁ibm	-3726
▁1892	-3727
▁show	-3728
▁sing	-3729
匚隹	-3730
甲一阝	-3731
▁gdp	-3732
yl	-3733
▁320	-3734
▁fir	-3735
▁jun	-3736
▁utc	-3737
小土	-3738
▁1893	-3739
革巴	-3740
ife	-3741
▁260	-3742
止止	-3743
▁1862	-3744
日立	-3745
del	-3746
ien	-3747
宀八弓	-3748
▁ben	-3749
▁phil	-3750
礻也	-3751
▁122	-3752
▁1888	-3753
▁class	-3754
又艮	-3755
▁robert	-3756
08	-3757
pp	-3758
▁禺	-3759
石夕	-3760
▁kn	-3761
▁bus	-3762
▁kar	-3763
口米	-3764
ス工力	-3765
爿女	-3766
ini	-3767
▁ol	-3768
𠂊田一里	-3769
▁free	-3770
火巨	-3771
豆寸	-3772
vice	-3773
▁michael	-3774
攵灬	-3775
100	-3776
口夫艮	-3777
▁jap	-3778
𠂊彐攵灬	-3779
ama	-3780
▁dj	-3781
⿱⿰⿹	-3782
▁games	-3783
▁酉	-3784
▁129	-3785
▁intel	-3786
ism	-3787
mun	-3788
undam	-3789
port	-3790
▁mg	-3791
▁119	-3792
200	-3793
▁are	-3794
竹目大厶	-3795
阝禺	-3796
▁121	-3797
▁oh	-3798
ella	-3799
木矛木心	-3800
▁1868	-3801
ste	-3802
凵丨隹	-3803
min	-3804
▁hen	-3805
罒方	-3806
▁bill	-3807
金丁	-3808
金柬	-3809
by	-3810
虫文	-3811
ora	-3812
can	-3813
▁ve	-3814
▁1876	-3815
▁1848	-3816
𠁣𠃛木	-3817
▁sg	-3818
▁550	-3819
▁ind	-3820
▁dd	-3821
▁boy	-3822
07	-3823
父卩	-3824
ild	-3825
▁bi	-3826
▁1883	-3827
ict	-3828
▁650	-3829
▁lea	-3830
▁type	-3831
▁oricon	-3832
亡女	-3833
ari	-3834
▁record	-3835
bi	-3836
白七	-3837
礻乍	-3838
ull	-3839
▁iphone	-3840
礻必	-3841
禾几	-3842
辶豆	-3843
▁si	-3844
▁ios	-3845
▁black	-3846
fs	-3847
女方	-3848
臣又豆	-3849
▁gener	-3850
oll	-3851
ano	-3852
▁der	-3853
▁ref	-3854
▁1864	-3855
▁jack	-3856
▁college	-3857
凵丨阝	-3858
𠂉一罒金	-3859
▁techn	-3860
ink	-3861
ange	-3862
▁dan	-3863
▁media	-3864
cy	-3865
▁127	-3866
▁70%	-3867
▁les	-3868
▁park	-3869
▁乍	-3870
〢又立	-3871
zz	-3872
冫东	-3873
▁wii	-3874
▁ju	-3875
▁arch	-3876
form	-3877
▁hot	-3878
▁sky	-3879
▁1877	-3880
▁unix	-3881
𠂊彐阝	-3882
ther	-3883
iation	-3884
车干	-3885
▁atp	-3886
▁fm	-3887
火火冖玉	-3888
▁euro	-3889
ja	-3890
亻鬼	-3891
金由	-3892
▁ok	-3893
▁gundam	-3894
土文	-3895
▁133	-3896
▁fil	-3897
tainment	-3898
cen	-3899
▁126	-3900
▁270	-3901
▁dem	-3902
▁rom	-3903
木木毛	-3904
▁assoc	-3905
fc	-3906
日大日	-3907
fl	-3908
▁inc	-3909
▁tour	-3910
ump	-3911
▁aut	-3912
金金	-3913
▁1879	-3914
▁entertainment	-3915
▁巳	-3916
丹彡	-3917
火土	-3918
▁fe	-3919
▁⿻⿹	-3920
木木非	-3921
▁lang	-3922
▁bm	-3923
▁wr	-3924
uss	-3925
wan	-3926
㐅朩刂	-3927
▁1874	-3928
𠁣𠃛文	-3929
▁1840	-3930
▁chr	-3931
▁japan	-3932
▁charles	-3933
金丑	-3934
▁145	-3935
fe	-3936
艹于	-3937
▁1865	-3938
▁club	-3939
▁wat	-3940
itter	-3941
山谷	-3942
隹十	-3943
▁env	-3944
▁fire	-3945
▁george	-3946
▁144	-3947
▁1872	-3948
▁1891	-3949
▁award	-3950
一也	-3951
月刂灬	-3952
▁7000	-3953
▁richard	-3954
▁vi	-3955
▁sci	-3956
▁1863	-3957
▁best	-3958
▁house	-3959
𠂉大隹	-3960
▁40%	-3961
▁life	-3962
its	-3963
▁cat	-3964
▁nat	-3965
▁van	-3966
工水	-3967
cri	-3968
▁aa	-3969
▁rev	-3970
▁1875	-3971
言柬	-3972
▁bel	-3973
yth	-3974
▁1867	-3975
▁chris	-3976
rag	-3977
ram	-3978
▁pal	-3979
▁dream	-3980
▁175	-3981
▁737	-3982
▁acc	-3983
▁fri	-3984
▁pri	-3985
tit	-3986
▁124	-3987
▁1882	-3988
人斗	-3989
▁miss	-3990
▁spec	-3991
竹本	-3992
耒禺	-3993
▁mid	-3994
ase	-3995
ors	-3996
▁www	-3997
火页	-3998
▁ul	-3999
▁165	-4000
▁ja	-4001
朿⺀	-4002
氵木	-4003
ily	-4004
▁5%	-4005
erson	-4006
▁1866	-4007
ko	-4008
央皿	-4009
▁west	-4010
▁apple	-4011
一攵	-4012
艹内	-4013
▁amd	-4014
钅月	-4015
▁pan	-4016
▁sir	-4017
木巨	-4018
▁1869	-4019
▁dist	-4020
ws	-4021
net	-4022
ake	-4023
女口心	-4024
牛冂刂手	-4025
▁art	-4026
▁land	-4027
▁kg	-4028
▁rh	-4029
▁mel	-4030
▁cv	-4031
▁1881	-4032
vin	-4033
宀丰口谷	-4034
▁1873	-4035
▁⿰⿱⿱⿱	-4036
09	-4037
龙土	-4038
ger	-4039
千口刂	-4040
▁lou	-4041
▁747	-4042
▁office	-4043
口肅	-4044
▁gar	-4045
▁rem	-4046
▁sub	-4047
ensis	-4048
ville	-4049
示示	-4050
▁ger	-4051
▁imp	-4052
▁was	-4053
▁gt	-4054
▁137	-4055
▁60%	-4056
▁first	-4057
艹甫	-4058
金内	-4059
vis	-4060
▁156	-4061
人示	-4062
sd	-4063
▁1400	-4064
▁1878	-4065
氵立	-4066
eas	-4067
uck	-4068
▁hel	-4069
▁led	-4070
▁south	-4071
扌乃	-4072
unt	-4073
氵且	-4074
act	-4075
we	-4076
ware	-4077
▁132	-4078
▁end	-4079
▁fam	-4080
▁hol	-4081
▁only	-4082
▁8000	-4083
ett	-4084
一丂頁	-4085
▁produc	-4086
▁冉	-4087
禾儿	-4088
101	-4089
▁cha	-4090
氵目	-4091
eder	-4092
千口自心	-4093
▁100%	-4094
▁gold	-4095
▁1300	-4096
▁north	-4097
▁limited	-4098
▁html	-4099
ura	-4100
able	-4101
▁log	-4102
ql	-4103
金巨	-4104
ugh	-4105
▁thomas	-4106
一兀頁	-4107
▁205	-4108
▁service	-4109
木鬼	-4110
▁sr	-4111
▁peter	-4112
ous	-4113
▁road	-4114
▁138	-4115
▁kbs	-4116
▁american	-4117
▁cal	-4118
▁mem	-4119
ander	-4120
▁jose	-4121
▁sony	-4122
爫寸	-4123
田八夂	-4124
▁ram	-4125
teg	-4126
丿丿丶心	-4127
▁mont	-4128
▁company	-4129
ima	-4130
⿱⿻⿹	-4131
▁ear	-4132
▁this	-4133
月工	-4134
▁china	-4135
ery	-4136
clude	-4137
hc	-4138
rol	-4139
扌丸土	-4140
▁fer	-4141
press	-4142
urs	-4143
urt	-4144
▁form	-4145
比土	-4146
ple	-4147
▁long	-4148
阝井	-4149
▁ob	-4150
▁dom	-4151
▁twitter	-4152
日未	-4153
弓丨丿刂	-4154
讠朱	-4155
▁sum	-4156
▁tro	-4157
▁nt	-4158
木甘	-4159
王王巴	-4160
▁ever	-4161
▁hall	-4162
▁臼	-4163
▁tc	-4164
▁wa	-4165
口龶阝	-4166
▁ele	-4167
▁wid	-4168
扌止	-4169
▁lam	-4170
001	-4171
▁380	-4172
▁may	-4173
▁fi	-4174
ution	-4175
▁direct	-4176
▁gi	-4177
▁mtv	-4178
▁pub	-4179
▁1830	-4180
▁project	-4181
人彡戈	-4182
itch	-4183
▁139	-4184
earch	-4185
▁chin	-4186
ning	-4187
▁arm	-4188
丷干丸土	-4189
▁1853	-4190
▁1859	-4191
▁chem	-4192
▁131	-4193
▁abc	-4194
▁lee	-4195
▁roy	-4196
▁over	-4197
ua	-4198
丿皿乑	-4199
urus	-4200
▁134	-4201
▁330	-4202
▁camp	-4203
王王比	-4204
▁136	-4205
▁prin	-4206
bor	-4207
mus	-4208
vid	-4209
▁if	-4210
▁146	-4211
ada	-4212
ani	-4213
ert	-4214
▁kr	-4215
▁⿺⿱⿱	-4216
cation	-4217
▁records	-4218
氵及	-4219
求衣	-4220
ates	-4221
▁lis	-4222
▁sig	-4223
▁1857	-4224
▁will	-4225
禾火心	-4226
▁adv	-4227
▁mov	-4228
▁ltd	-4229
▁ray	-4230
▁mbc	-4231
竹生	-4232
亠田久	-4233
▁nov	-4234
木丂	-4235
led	-4236
角斗	-4237
▁est	-4238
石石	-4239
ator	-4240
▁dig	-4241
𠂊冫寸木	-4242
▁christ	-4243
idge	-4244
▁154	-4245
▁214	-4246
▁sea	-4247
0⿱	-4248
bn	-4249
pc	-4250
氵于	-4251
火言	-4252
𡗗臼	-4253
▁gnu	-4254
▁1841	-4255
0%	-4256
勹二	-4257
iew	-4258
mann	-4259
unes	-4260
▁420	-4261
▁dos	-4262
▁nasa	-4263
火又	-4264
ling	-4265
▁por	-4266
▁1858	-4267
束欠	-4268
艹鬼	-4269
囗口禾	-4270
纟申	-4271
ira	-4272
⿱⿱⿴⿱	-4273
丿囗㐅儿	-4274
火言火又	-4275
▁cons	-4276
阝皮	-4277
▁il	-4278
ball	-4279
▁15%	-4280
▁law	-4281
▁ann	-4282
▁ast	-4283
▁mob	-4284
▁ri	-4285
▁152	-4286
sch	-4287
▁internet	-4288
耳心	-4289
▁mal	-4290
▁var	-4291
icode	-4292
▁1700	-4293
▁xp	-4294
目八力	-4295
ob	-4296
▁bur	-4297
▁jon	-4298
▁kong	-4299
▁unicode	-4300
▁association	-4301
口肃	-4302
ents	-4303
▁tai	-4304
竹干	-4305
gin	-4306
ular	-4307
土于	-4308
虫牙	-4309
eep	-4310
▁bal	-4311
▁1854	-4312
ny	-4313
士冖业	-4314
▁211	-4315
▁squ	-4316
▁tor	-4317
onic	-4318
▁tar	-4319
金屯	-4320
ime	-4321
▁mb	-4322
▁256	-4323
▁1100	-4324
▁1851	-4325
▁elec	-4326
▁street	-4327
▁studio	-4328
ush	-4329
▁sbs	-4330
ui	-4331
▁tem	-4332
丬夕酉	-4333
▁340	-4334
▁ham	-4335
▁mul	-4336
▁categ	-4337
itz	-4338
▁301	-4339
▁ova	-4340
木己	-4341
▁202	-4342
ford	-4343
▁168	-4344
▁enviro	-4345
eek	-4346
▁147	-4347
▁151	-4348
艹艮	-4349
言内	-4350
▁vic	-4351
▁td	-4352
▁fun	-4353
▁von	-4354
▁1856	-4355
▁batt	-4356
▁town	-4357
han	-4358
▁370	-4359
▁jul	-4360
▁men	-4361
gy	-4362
木册	-4363
▁1%	-4364
丿丿刂	-4365
▁25%	-4366
▁hong	-4367
▁news	-4368
▁ly	-4369
▁203	-4370
▁1847	-4371
丷丨	-4372
白鬼	-4373
讠柬	-4374
als	-4375
▁153	-4376
▁235	-4377
▁lib	-4378
eak	-4379
土丹	-4380
ney	-4381
tif	-4382
app	-4383
▁ah	-4384
ester	-4385
▁island	-4386
川一	-4387
▁hs	-4388
▁pag	-4389
▁hell	-4390
▁pres	-4391
▁green	-4392
▁category	-4393
氵发	-4394
com	-4395
lic	-4396
▁cur	-4397
▁mas	-4398
▁1852	-4399
xy	-4400
ough	-4401
▁key	-4402
eau	-4403
rey	-4404
cript	-4405
▁great	-4406
弓米	-4407
弓米弓	-4408
𠘧又金	-4409
▁480	-4410
▁bor	-4411
▁def	-4412
▁hum	-4413
▁home	-4414
木工	-4415
tra	-4416
▁soft	-4417
▁network	-4418
囗甫	-4419
ach	-4420
▁gp	-4421
burg	-4422
▁bay	-4423
▁lar	-4424
gue	-4425
ota	-4426
▁rob	-4427
▁good	-4428
▁post	-4429
丬女	-4430
ucn	-4431
丷干臼	-4432
▁doc	-4433
▁far	-4434
▁inf	-4435
▁rep	-4436
▁⿱⿰⿻⿱	-4437
▁river	-4438
▁au	-4439
ated	-4440
▁148	-4441
▁401	-4442
▁bit	-4443
饣我	-4444
gen	-4445
▁act	-4446
▁bab	-4447
▁gb	-4448
▁850	-4449
▁hal	-4450
▁fran	-4451
ns	-4452
一乚	-4453
广里	-4454
氵兆	-4455
一乚丶	-4456
▁1844	-4457
▁iucn	-4458
▁song	-4459
ct	-4460
▁1855	-4461
▁ll	-4462
▁va	-4463
▁girls	-4464
ury	-4465
▁159	-4466
▁215	-4467
▁blue	-4468
更生	-4469
▁cra	-4470
▁1849	-4471
▁instit	-4472
钅垂	-4473
女又弓	-4474
▁141	-4475
▁but	-4476
▁mir	-4477
▁hear	-4478
sm	-4479
女户	-4480
金甲	-4481
▁ry	-4482
▁alb	-4483
▁spr	-4484
▁line	-4485
▁grand	-4486
ni	-4487
匕水	-4488
▁ai	-4489
▁pp	-4490
人目又	-4491
▁henry	-4492
▁ru	-4493
▁sv	-4494
cess	-4495
▁221	-4496
▁mad	-4497
▁1815	-4498
include	-4499
氵虫	-4500
钅里	-4501
lat	-4502
cade	-4503
wood	-4504
▁how	-4505
pha	-4506
▁om	-4507
▁430	-4508
▁1812	-4509
▁east	-4510
▁vide	-4511
石申	-4512
ets	-4513
▁167	-4514
▁176	-4515
▁ice	-4516
▁rpg	-4517
▁218	-4518
▁142	-4519
▁143	-4520
▁158	-4521
▁1846	-4522
iety	-4523
▁173	-4524
▁204	-4525
do	-4526
▁mu	-4527
▁ny	-4528
▁ti	-4529
tics	-4530
▁206	-4531
▁tal	-4532
tl	-4533
bal	-4534
erv	-4535
▁163	-4536
▁ros	-4537
▁162	-4538
▁who	-4539
▁champ	-4540
xx	-4541
米子	-4542
户攵口	-4543
▁sin	-4544
▁real	-4545
▁frank	-4546
艹止	-4547
ron	-4548
▁ki	-4549
立十木	-4550
▁410	-4551
▁dar	-4552
▁hist	-4553
▁progr	-4554
▁white	-4555
▁db	-4556
▁cas	-4557
▁jean	-4558
▁hor	-4559
▁online	-4560
500	-4561
den	-4562
ters	-4563
▁api	-4564
▁server	-4565
艮心	-4566
201	-4567
tian	-4568
▁gal	-4569
▁leg	-4570
▁pas	-4571
▁tur	-4572
▁disc	-4573
▁science	-4574
衤末	-4575
rop	-4576
▁178	-4577
▁310	-4578
▁die	-4579
▁pre	-4580
▁thr	-4581
▁width	-4582
厂人	-4583
钅由	-4584
▁bank	-4585
▁az	-4586
▁tbs	-4587
▁xml	-4588
口永	-4589
ces	-4590
▁nbc	-4591
▁ret	-4592
▁girl	-4593
rpm	-4594
▁ni	-4595
▁code	-4596
▁general	-4597
厶廾	-4598
▁149	-4599
▁225	-4600
▁bon	-4601
▁1789	-4602
▁stand	-4603
▁state	-4604
▁joseph	-4605
▁tu	-4606
▁usb	-4607
▁hill	-4608
火田	-4609
▁290	-4610
▁engine	-4611
▁itunes	-4612
艹末	-4613
idae	-4614
⺌冖口衣	-4615
▁cross	-4616
zine	-4617
▁run	-4618
▁sen	-4619
▁1820	-4620
木戋	-4621
舟甲	-4622
子皿力	-4623
▁208	-4624
▁oper	-4625
ope	-4626
▁238	-4627
▁band	-4628
▁ae	-4629
▁bc	-4630
𠘧又木	-4631
土斤	-4632
扌弗	-4633
oma	-4634
▁md	-4635
urch	-4636
ci	-4637
犭艮	-4638
丿廾土	-4639
▁001	-4640
▁cho	-4641
▁num	-4642
▁1843	-4643
▁maga	-4644
▁year	-4645
cher	-4646
well	-4647
▁209	-4648
jo	-4649
▁157	-4650
▁glo	-4651
ops	-4652
▁spor	-4653
▁martin	-4654
金里	-4655
▁182	-4656
▁vii	-4657
si	-4658
▁207	-4659
▁1842	-4660
▁core	-4661
rew	-4662
⿸⿸⿸	-4663
edia	-4664
▁164	-4665
▁carl	-4666
▁battle	-4667
乙水	-4668
▁nav	-4669
▁two	-4670
▁prof	-4671
az	-4672
lam	-4673
ody	-4674
rich	-4675
▁212	-4676
▁dep	-4677
▁name	-4678
▁commun	-4679
▁ia	-4680
▁syn	-4681
▁expl	-4682
ington	-4683
▁united	-4684
pi	-4685
山民	-4686
301	-4687
▁league	-4688
▁246	-4689
丨丨比灬	-4690
▁1814	-4691
一大虫	-4692
▁ign	-4693
▁angel	-4694
耳止	-4695
ddf	-4696
▁dm	-4697
▁hu	-4698
ison	-4699
▁222	-4700
钅丁	-4701
士口頁	-4702
iller	-4703
▁1845	-4704
▁litt	-4705
▁video	-4706
▁society	-4707
▁isbn	-4708
ference	-4709
▁visual	-4710
忄鬼	-4711
▁fu	-4712
▁169	-4713
▁911	-4714
▁sel	-4715
field	-4716
▁book	-4717
▁radio	-4718
口犬	-4719
ain	-4720
▁601	-4721
ral	-4722
ret	-4723
▁216	-4724
▁has	-4725
▁way	-4726
▁10000	-4727
▁vista	-4728
force	-4729
▁1795	-4730
▁research	-4731
ona	-4732
oto	-4733
▁171	-4734
▁young	-4735
犬犬	-4736
▁xx	-4737
▁172	-4738
▁181	-4739
▁223	-4740
▁crh	-4741
▁dec	-4742
▁poly	-4743
▁mobile	-4744
金垂	-4745
ids	-4746
▁ceo	-4747
▁rea	-4748
▁magazine	-4749
501	-4750
▁1792	-4751
▁cu	-4752
▁edu	-4753
氵朱	-4754
而女	-4755
ila	-4756
raph	-4757
▁jac	-4758
▁sha	-4759
tical	-4760
▁work	-4761
▁cg	-4762
㐅乂玉	-4763
▁small	-4764
忄束	-4765
辶于	-4766
酉禾	-4767
ird	-4768
▁pv	-4769
▁ze	-4770
一兀页	-4771
▁640	-4772
丿𠃌攵虫	-4773
▁pass	-4774
zy	-4775
ola	-4776
une	-4777
▁440	-4778
▁720	-4779
▁ado	-4780
𠂊田一刂	-4781
uce	-4782
▁266	-4783
▁277	-4784
▁610	-4785
▁let	-4786
宀一	-4787
▁sat	-4788
▁cry	-4789
▁1776	-4790
▁plan	-4791
▁your	-4792
▁manag	-4793
ji	-4794
omo	-4795
peg	-4796
▁pm	-4797
艹冖火	-4798
▁217	-4799
▁285	-4800
ction	-4801
▁institute	-4802
▁cf	-4803
▁460	-4804
▁75%	-4805
▁box	-4806
▁louis	-4807
▁little	-4808
木方	-4809
▁184	-4810
▁pra	-4811
钅屯	-4812
▁ns	-4813
丷酉犬	-4814
▁777	-4815
▁cbs	-4816
▁jump	-4817
▁mary	-4818
▁model	-4819
▁under	-4820
ric	-4821
▁219	-4822
▁htc	-4823
vidia	-4824
▁cctv	-4825
▁smith	-4826
▁space	-4827
▁nvidia	-4828
亻两	-4829
衤寸	-4830
gar	-4831
▁183	-4832
▁mur	-4833
▁sta	-4834
▁3500	-4835
▁foot	-4836
▁皿	-4837
言且	-4838
钅刂	-4839
▁luc	-4840
▁pac	-4841
▁part	-4842
▁yu	-4843
宀八巾	-4844
cast	-4845
star	-4846
dition	-4847
忄斤	-4848
▁228	-4849
▁255	-4850
▁inv	-4851
▁mit	-4852
ritic	-4853
言牙	-4854
olf	-4855
▁560	-4856
▁cir	-4857
▁non	-4858
ations	-4859
▁franc	-4860
▁victor	-4861
讠乍	-4862
讠韦	-4863
ato	-4864
eee	-4865
ida	-4866
▁flash	-4867
宀石	-4868
日乍	-4869
ded	-4870
our	-4871
board	-4872
▁metac	-4873
win	-4874
ship	-4875
▁365	-4876
▁god	-4877
▁jan	-4878
annel	-4879
▁port	-4880
▁night	-4881
▁junior	-4882
▁ut	-4883
爿士大	-4884
▁275	-4885
▁nad	-4886
▁wwe	-4887
▁anti	-4888
▁store	-4889
▁ub	-4890
亻隹月	-4891
▁325	-4892
▁dor	-4893
▁sql	-4894
velop	-4895
𦣞页	-4896
▁rs	-4897
▁wi	-4898
▁288	-4899
▁den	-4900
▁chil	-4901
石乐	-4902
lan	-4903
rie	-4904
▁aw	-4905
𠁣𠃛心	-4906
▁1832	-4907
▁mach	-4908
目兆	-4909
300	-4910
380	-4911
▁1821	-4912
har	-4913
人人攵	-4914
八厶儿	-4915
ette	-4916
▁1793	-4917
▁cast	-4918
▁union	-4919
月寸	-4920
eel	-4921
▁kw	-4922
ures	-4923
▁161	-4924
▁ara	-4925
▁sem	-4926
革斤	-4927
▁pi	-4928
一八石	-4929
▁moz	-4930
▁1838	-4931
▁1839	-4932
▁eric	-4933
▁light	-4934
▁corpor	-4935
bus	-4936
▁low	-4937
丿囗㐅比	-4938
▁1801	-4939
▁sports	-4940
gs	-4941
hr	-4942
釆由	-4943
𦣞頁	-4944
off	-4945
ten	-4946
▁jim	-4947
▁1836	-4948
▁explor	-4949
▁master	-4950
▁asia	-4951
▁program	-4952
mar	-4953
▁gm	-4954
▁540	-4955
▁apg	-4956
▁aug	-4957
▁cer	-4958
氵亡	-4959
▁fn	-4960
𠂇月土	-4961
▁1810	-4962
氵屯	-4963
cus	-4964
▁dl	-4965
▁sound	-4966
木丶刂	-4967
𠂊彐隹	-4968
▁1837	-4969
▁plus	-4970
▁edward	-4971
日文	-4972
钅丑	-4973
gbt	-4974
ural	-4975
▁asp	-4976
ocket	-4977
▁chinese	-4978
▁metacritic	-4979
ote	-4980
▁mos	-4981
▁sti	-4982
▁tak	-4983
𠂊⺀	-4984
▁ot	-4985
▁239	-4986
▁psp	-4987
▁1806	-4988
▁word	-4989
▁brown	-4990
▁royal	-4991
▁church	-4992
vo	-4993
灬川	-4994
46⿹	-4995
onom	-4996
▁265	-4997
▁308	-4998
▁inst	-4999
▁express	-5000
hi	-5001
矛攵	-5002
401	-5003
𠂊⺀火	-5004
ustr	-5005
▁501	-5006
nt	-5007
囗口阝	-5008
▁213	-5009
▁233	-5010
▁530	-5011
▁95%	-5012
▁hea	-5013
▁nam	-5014
ender	-5015
▁develop	-5016
▁special	-5017
▁station	-5018
▁コ	-5019
eck	-5020
人人頁	-5021
ision	-5022
▁1790	-5023
mi	-5024
火夬	-5025
▁ya	-5026
▁hon	-5027
▁bern	-5028
▁what	-5029
灬阝	-5030
acy	-5031
ami	-5032
cil	-5033
wor	-5034
▁2%	-5035
▁ml	-5036
▁229	-5037
▁ace	-5038
▁ieee	-5039
▁sand	-5040
▁technology	-5041
reg	-5042
▁nm	-5043
立十刀	-5044
釆田阝	-5045
ache	-5046
▁arr	-5047
▁party	-5048
▁taiwan	-5049
▁champion	-5050
vi	-5051
▁311	-5052
▁802	-5053
▁950	-5054
▁maria	-5055
▁philip	-5056
止自	-5057
黑攵	-5058
tps	-5059
巳八夂	-5060
▁kir	-5061
山一黑攵	-5062
▁data	-5063
止自巳八夂	-5064
气山	-5065
gan	-5066
▁234	-5067
▁249	-5068
𠂊田灬比	-5069
▁1824	-5070
▁1825	-5071
亡民	-5072
女口糸	-5073
ally	-5074
▁emp	-5075
▁steph	-5076
zo	-5077
金玉	-5078
▁hi	-5079
▁lg	-5080
厶口心	-5081
iter	-5082
▁his	-5083
▁moon	-5084
口丁	-5085
day	-5086
ito	-5087
▁pu	-5088
▁580	-5089
▁1835	-5090
▁9000	-5091
▁mess	-5092
▁mini	-5093
▁pier	-5094
▁comic	-5095
▁journ	-5096
je	-5097
bra	-5098
▁fes	-5099
▁rap	-5100
▁channel	-5101
res	-5102
▁wo	-5103
ider	-5104
▁heart	-5105
永日	-5106
▁bad	-5107
con	-5108
iga	-5109
tim	-5110
▁512	-5111
▁aga	-5112
▁fal	-5113
▁https	-5114
▁advance	-5115
ye	-5116
cat	-5117
▁ax	-5118
▁174	-5119
▁bbs	-5120
▁1644	-5121
▁just	-5122
尸九	-5123
日广	-5124
▁3%	-5125
▁305	-5126
▁ash	-5127
▁jer	-5128
▁liv	-5129
▁next	-5130
竹尹	-5131
max	-5132
艹冖玉	-5133
▁224	-5134
▁245	-5135
▁rel	-5136
ional	-5137
▁1822	-5138
▁1831	-5139
olution	-5140
lad	-5141
2000	-5142
▁620	-5143
▁lan	-5144
▁hard	-5145
亻田	-5146
禾央	-5147
bar	-5148
▁gov	-5149
ights	-5150
▁inde	-5151
▁peop	-5152
▁tele	-5153
▁electr	-5154
丿乀	-5155
fox	-5156
ift	-5157
mhz	-5158
▁maj	-5159
▁vers	-5160
▁pagasa	-5161
lor	-5162
▁232	-5163
▁dam	-5164
▁uss	-5165
▁1796	-5166
▁1813	-5167
▁have	-5168
▁onlyinclude	-5169
火𠃓	-5170
▁vs	-5171
▁390	-5172
▁701	-5173
▁chi	-5174
▁ven	-5175
▁ipod	-5176
▁after	-5177
▁comput	-5178
竹及	-5179
901	-5180
aga	-5181
over	-5182
▁262	-5183
▁pap	-5184
antas	-5185
stein	-5186
▁like	-5187
▁langu	-5188
uz	-5189
扌母	-5190
日斤	-5191
400	-5192
cho	-5193
匕水页	-5194
raft	-5195
▁mot	-5196
▁lord	-5197
▁francis	-5198
▁cup	-5199
▁set	-5200
ister	-5201
▁lady	-5202
▁second	-5203
els	-5204
esh	-5205
eter	-5206
time	-5207
▁520	-5208
▁618	-5209
▁pin	-5210
▁rub	-5211
▁down	-5212
ection	-5213
▁georg	-5214
46⿱	-5215
⺊尸页	-5216
elle	-5217
rick	-5218
▁cin	-5219
▁1807	-5220
▁2100	-5221
▁clar	-5222
▁prem	-5223
▁europe	-5224
▁mozilla	-5225
▁corporation	-5226
习习欠	-5227
刀口力	-5228
▁ker	-5229
▁ren	-5230
▁1791	-5231
▁cell	-5232
lection	-5233
▁design	-5234
业阝	-5235
801	-5236
ule	-5237
inal	-5238
▁323	-5239
▁385	-5240
亠口小頁	-5241
人一口龙	-5242
ility	-5243
ition	-5244
▁prot	-5245
▁level	-5246
▁explorer	-5247
pn	-5248
▁rd	-5249
▁251	-5250
▁beta	-5251
▁pala	-5252
▁distr	-5253
▁phone	-5254
二贝	-5255
lip	-5256
䒑未阝	-5257
▁510	-5258
▁fox	-5259
▁had	-5260
▁ing	-5261
▁dark	-5262
cha	-5263
▁bh	-5264
▁py	-5265
丰寸灬	-5266
儿丨皿	-5267
iness	-5268
▁1788	-5269
▁1834	-5270
氵金	-5271
cel	-5272
sta	-5273
ston	-5274
▁226	-5275
▁237	-5276
▁252	-5277
▁dol	-5278
▁1816	-5279
▁firefox	-5280
aya	-5281
orm	-5282
zer	-5283
▁227	-5284
▁bey	-5285
▁jas	-5286
other	-5287
▁york	-5288
cr	-5289
out	-5290
口王阝	-5291
囗口示	-5292
▁mol	-5293
▁1775	-5294
▁1794	-5295
▁1833	-5296
▁force	-5297
▁digital	-5298
cs	-5299
iff	-5300
木木阝	-5301
▁rog	-5302
▁adam	-5303
▁again	-5304
▁found	-5305
彳方	-5306
col	-5307
▁303	-5308
▁307	-5309
▁equ	-5310
▁last	-5311
ograph	-5312
▁software	-5313
cle	-5314
ros	-5315
val	-5316
▁qq	-5317
▁621	-5318
▁680	-5319
▁mun	-5320
▁tan	-5321
▁arts	-5322
▁adobe	-5323
𠂉生	-5324
cas	-5325
ume	-5326
▁bs	-5327
▁pk	-5328
八厶瓦	-5329
▁kon	-5330
▁1828	-5331
▁mode	-5332
▁touch	-5333
get	-5334
▁pen	-5335
▁see	-5336
丿𠃌攵灬	-5337
▁1780	-5338
▁1829	-5339
▁more	-5340
▁rail	-5341
▁production	-5342
一户	-5343
彳非	-5344
贝戋	-5345
ren	-5346
▁bf	-5347
▁nd	-5348
丬夕木	-5349
匚㐅瓦	-5350
▁470	-5351
▁960	-5352
▁cnn	-5353
▁deb	-5354
▁kin	-5355
▁2300	-5356
▁gran	-5357
eme	-5358
face	-5359
▁366	-5360
▁425	-5361
▁ban	-5362
糸言糸金	-5363
▁1823	-5364
▁conc	-5365
▁muse	-5366
▁hello	-5367
▁square	-5368
kin	-5369
▁mt	-5370
癶豆几	-5371
▁241	-5372
▁254	-5373
▁630	-5374
▁767	-5375
▁kde	-5376
肀二	-5377
601	-5378
ema	-5379
key	-5380
ness	-5381
▁vin	-5382
▁1799	-5383
hs	-5384
尸米	-5385
礻止	-5386
⿶⿱⿰	-5387
口止果	-5388
ious	-5389
▁346	-5390
▁son	-5391
▁build	-5392
▁point	-5393
▁football	-5394
木且	-5395
▁tg	-5396
▁242	-5397
▁304	-5398
▁1826	-5399
▁anim	-5400
▁beat	-5401
▁fair	-5402
▁council	-5403
▁alexander	-5404
▁um	-5405
▁vl	-5406
▁1809	-5407
▁hold	-5408
ication	-5409
▁global	-5410
▁christian	-5411
ado	-5412
nes	-5413
士口页	-5414
▁780	-5415
▁cle	-5416
▁tel	-5417
▁sche	-5418
▁scott	-5419
ves	-5420
𠂊小玉	-5421
▁268	-5422
▁emu	-5423
▁lum	-5424
▁1804	-5425
▁lond	-5426
▁acade	-5427
口牙	-5428
row	-5429
uel	-5430
▁ku	-5431
▁⿴⿱	-5432
▁901	-5433
▁gun	-5434
sport	-5435
▁happ	-5436
▁sign	-5437
▁gy	-5438
▁kl	-5439
▁np	-5440
▁315	-5441
▁tam	-5442
▁yah	-5443
ental	-5444
▁frame	-5445
ization	-5446
kg	-5447
kh	-5448
匚久	-5449
火虫	-5450
耳冘	-5451
不一阝	-5452
𠂊彐皮	-5453
ease	-5454
rome	-5455
▁295	-5456
▁exp	-5457
▁old	-5458
formation	-5459
一川	-5460
宀心	-5461
钅本	-5462
omb	-5463
rise	-5464
▁244	-5465
▁253	-5466
▁273	-5467
▁312	-5468
⿱⿶⿱⿰	-5469
▁film	-5470
▁bg	-5471
▁php	-5472
▁lake	-5473
▁prim	-5474
▁stra	-5475
▁summer	-5476
▁district	-5477
久火	-5478
革央	-5479
mon	-5480
▁289	-5481
▁318	-5482
▁338	-5483
ython	-5484
▁jeff	-5485
▁alpha	-5486
osp	-5487
戊一小	-5488
矛攵女	-5489
▁bat	-5490
▁1808	-5491
▁1819	-5492
▁call	-5493
▁andrew	-5494
▁daniel	-5495
▁people	-5496
金肅	-5497
una	-5498
▁ct	-5499
▁ff	-5500
▁sf	-5501
lish	-5502
▁243	-5503
▁287	-5504
▁306	-5505
▁670	-5506
▁801	-5507
▁ath	-5508
▁emi	-5509
▁4500	-5510
▁sund	-5511
ely	-5512
och	-5513
▁485	-5514
▁757	-5515
▁fac	-5516
▁gps	-5517
▁1798	-5518
▁1802	-5519
▁baby	-5520
▁read	-5521
▁childr	-5522
一由	-5523
ipe	-5524
▁fif	-5525
▁ken	-5526
▁mvp	-5527
▁drag	-5528
▁block	-5529
▁train	-5530
ascript	-5531
bit	-5532
▁dt	-5533
▁271	-5534
▁eff	-5535
▁ske	-5536
▁gala	-5537
▁final	-5538
▁queen	-5539
▁water	-5540
▁centre	-5541
▁children	-5542
▁333	-5543
▁589	-5544
▁bob	-5545
▁eli	-5546
▁fly	-5547
▁get	-5548
▁gpl	-5549
▁mig	-5550
龷由八阝	-5551
▁rain	-5552
db	-5553
口垂	-5554
▁rt	-5555
▁arg	-5556
▁cop	-5557
▁2022	-5558
▁ipad	-5559
▁public	-5560
uv	-5561
iana	-5562
▁007	-5563
▁276	-5564
▁stad	-5565
▁basic	-5566
▁fried	-5567
▁social	-5568
hp	-5569
the	-5570
▁nar	-5571
▁head	-5572
▁orig	-5573
▁wood	-5574
▁austr	-5575
毛毛	-5576
民攵	-5577
言夬	-5578
▁231	-5579
▁286	-5580
▁415	-5581
▁bud	-5582
▁kan	-5583
▁pdf	-5584
▁sca	-5585
▁sus	-5586
▁1818	-5587
igo	-5588
▁ld	-5589
民攵心	-5590
▁bir	-5591
▁pay	-5592
▁1817	-5593
▁pack	-5594
▁tvbs	-5595
▁astro	-5596
▁which	-5597
▁friend	-5598
▁javascript	-5599
uf	-5600
艹韦	-5601
uld	-5602
日大手	-5603
豸艮心	-5604
ions	-5605
tual	-5606
▁279	-5607
▁324	-5608
▁357	-5609
▁bug	-5610
▁hom	-5611
▁1783	-5612
▁2200	-5613
▁place	-5614
▁london	-5615
▁control	-5616
▁geforce	-5617
heim	-5618
▁247	-5619
▁269	-5620
▁742	-5621
▁sor	-5622
▁lgbt	-5623
▁tran	-5624
▁⿺⿱⿻⿻	-5625
▁journal	-5626
gi	-5627
火山	-5628
ova	-5629
▁jt	-5630
▁296	-5631
▁hop	-5632
▁ron	-5633
▁tex	-5634
▁wom	-5635
▁base	-5636
▁russ	-5637
▁stud	-5638
ats	-5639
▁gh	-5640
esis	-5641
untu	-5642
▁299	-5643
▁cook	-5644
▁leon	-5645
一夕	-5646
bel	-5647
tia	-5648
war	-5649
▁hp	-5650
uble	-5651
▁690	-5652
▁830	-5653
▁abb	-5654
▁tcp	-5655
inger	-5656
▁1787	-5657
▁1803	-5658
▁2600	-5659
▁chan	-5660
▁earth	-5661
▁festiv	-5662
nd	-5663
王民	-5664
sson	-5665
▁gil	-5666
𠂊田灬刂	-5667
▁awards	-5668
夂月	-5669
aka	-5670
ots	-5671
▁258	-5672
▁264	-5673
▁386	-5674
▁710	-5675
▁our	-5676
▁1827	-5677
▁dest	-5678
▁dance	-5679
▁central	-5680
iii	-5681
til	-5682
立十子	-5683
ific	-5684
ines	-5685
tica	-5686
▁aaa	-5687
▁fut	-5688
▁hit	-5689
▁1811	-5690
▁2021	-5691
▁stan	-5692
艹我	-5693
ast	-5694
her	-5695
▁pt	-5696
▁525	-5697
▁gard	-5698
▁fantas	-5699
▁python	-5700
尸比	-5701
扌龙	-5702
门心	-5703
uct	-5704
▁eg	-5705
▁fx	-5706
ides	-5707
▁257	-5708
▁263	-5709
▁327	-5710
▁730	-5711
▁pos	-5712
▁1661	-5713
▁1805	-5714
▁shar	-5715
▁human	-5716
弓也	-5717
atus	-5718
less	-5719
▁236	-5720
▁248	-5721
▁660	-5722
▁blu	-5723
▁sts	-5724
▁1777	-5725
▁villa	-5726
▁market	-5727
工口	-5728
木乐	-5729
木由	-5730
ode	-5731
anda	-5732
anga	-5733
▁309	-5734
▁335	-5735
▁903	-5736
▁cam	-5737
▁hat	-5738
▁viv	-5739
▁andr	-5740
▁well	-5741
320	-5742
▁ie	-5743
▁od	-5744
▁281	-5745
▁aim	-5746
▁sho	-5747
女疌	-5748
oud	-5749
▁eb	-5750
厶口火	-5751
mond	-5752
▁302	-5753
▁313	-5754
▁314	-5755
▁334	-5756
▁570	-5757
▁787	-5758
▁joh	-5759
▁psy	-5760
▁sla	-5761
▁card	-5762
▁family	-5763
▁development	-5764
扌八	-5765
uri	-5766
▁328	-5767
▁355	-5768
▁758	-5769
▁bre	-5770
▁fel	-5771
▁festival	-5772
ng	-5773
方土	-5774
isc	-5775
二丨心	-5776
方方土	-5777
ible	-5778
▁820	-5779
▁asc	-5780
▁dev	-5781
▁1750	-5782
▁2400	-5783
▁sour	-5784
▁information	-5785
▁rf	-5786
火火木	-5787
cent	-5788
play	-5789
▁590	-5790
▁som	-5791
𠂊田灬兆	-5792
ering	-5793
▁1770	-5794
▁voice	-5795
▁process	-5796
eta	-5797
pan	-5798
▁pg	-5799
▁joe	-5800
▁rat	-5801
▁1645	-5802
▁anth	-5803
▁steve	-5804
忄冘	-5805
扌斗	-5806
bsd	-5807
cer	-5808
iko	-5809
ran	-5810
凵丨皮	-5811
chen	-5812
▁581	-5813
▁arth	-5814
▁moun	-5815
▁france	-5816
kb	-5817
▁85%	-5818
▁860	-5819
▁980	-5820
▁mak	-5821
▁pea	-5822
▁fall	-5823
▁mike	-5824
▁soul	-5825
▁beyond	-5826
▁operation	-5827
▁dy	-5828
▁319	-5829
▁dra	-5830
▁und	-5831
▁shin	-5832
▁drive	-5833
▁opera	-5834
酉干	-5835
isa	-5836
▁rc	-5837
贝贝缶	-5838
▁412	-5839
▁att	-5840
▁bul	-5841
▁hip	-5842
▁1648	-5843
▁alan	-5844
▁conn	-5845
▁indi	-5846
▁spir	-5847
▁virgin	-5848
▁management	-5849
nm	-5850
ban	-5851
dle	-5852
▁ci	-5853
▁ye	-5854
刀丿止	-5855
▁317	-5856
▁417	-5857
▁760	-5858
▁dun	-5859
▁gla	-5860
▁nca	-5861
▁nex	-5862
▁ten	-5863
▁meth	-5864
▁anton	-5865
▁multi	-5866
▁secret	-5867
▁language	-5868
木王	-5869
▁kd	-5870
▁nu	-5871
▁vr	-5872
幺幺土	-5873
eath	-5874
▁272	-5875
▁293	-5876
▁bag	-5877
▁tol	-5878
table	-5879
▁1582	-5880
▁1650	-5881
▁perf	-5882
▁4%	-5883
日一頁	-5884
itor	-5885
▁din	-5886
▁ent	-5887
▁pie	-5888
▁1640	-5889
▁main	-5890
▁organ	-5891
osaurus	-5892
▁edition	-5893
▁billboard	-5894
▁education	-5895
▁ay	-5896
人示田	-5897
alia	-5898
amin	-5899
▁267	-5900
▁413	-5901
▁brt	-5902
▁ghz	-5903
▁mass	-5904
▁press	-5905
▁shell	-5906
▁govern	-5907
山及	-5908
幺小	-5909
氵耳	-5910
men	-5911
ria	-5912
▁rac	-5913
▁they	-5914
▁yahoo	-5915
▁museum	-5916
▁series	-5917
▁business	-5918
讠且	-5919
ken	-5920
nam	-5921
sen	-5922
utc	-5923
▁rx	-5924
𠂉大聿	-5925
▁259	-5926
▁298	-5927
▁326	-5928
▁885	-5929
▁say	-5930
ealth	-5931
▁1760	-5932
▁bell	-5933
▁wild	-5934
ij	-5935
王久	-5936
aro	-5937
rad	-5938
ray	-5939
▁405	-5940
▁iec	-5941
▁raw	-5942
▁rfc	-5943
▁1784	-5944
▁chap	-5945
▁kiss	-5946
▁court	-5947
▁steam	-5948
ex	-5949
亻非	-5950
▁ee	-5951
chan	-5952
ques	-5953
▁329	-5954
▁375	-5955
▁490	-5956
▁978	-5957
▁985	-5958
▁cli	-5959
习习隹戈	-5960
▁1683	-5961
▁dohc	-5962
▁wond	-5963
▁every	-5964
par	-5965
▁ky	-5966
▁og	-5967
▁322	-5968
▁377	-5969
▁707	-5970
▁810	-5971
▁dat	-5972
▁nas	-5973
▁1636	-5974
▁systems	-5975
丿士贝	-5976
mail	-5977
▁407	-5978
▁607	-5979
▁fbi	-5980
▁scr	-5981
▁tab	-5982
▁1642	-5983
▁1786	-5984
▁beau	-5985
▁left	-5986
ission	-5987
▁single	-5988
des	-5989
eno	-5990
▁6%	-5991
▁8%	-5992
ches	-5993
▁294	-5994
▁gon	-5995
▁kit	-5996
▁meg	-5997
▁tit	-5998
丷干丸手	-5999
▁1368	-6000
▁know	-6001
▁true	-6002
▁zero	-6003
zi	-6004
扌夬	-6005
耳𠃊	-6006
umb	-6007
▁lor	-6008
▁mhz	-6009
▁tay	-6010
▁ton	-6011
▁ring	-6012
▁samu	-6013
▁penti	-6014
艹耳	-6015
金川	-6016
erm	-6017
𠂊口比	-6018
▁282	-6019
▁359	-6020
▁ess	-6021
▁pur	-6022
▁sars	-6023
▁history	-6024
dm	-6025
ili	-6026
zen	-6027
▁cw	-6028
ency	-6029
ites	-6030
▁278	-6031
▁284	-6032
▁416	-6033
▁bsd	-6034
▁dur	-6035
▁mah	-6036
ector	-6037
▁1779	-6038
▁cham	-6039
▁fore	-6040
▁liber	-6041
▁round	-6042
sk	-6043
疒且	-6044
600	-6045
bon	-6046
▁dh	-6047
ming	-6048
▁387	-6049
▁465	-6050
▁880	-6051
▁930	-6052
▁hay	-6053
▁los	-6054
▁tea	-6055
刀丿丶米	-6056
house	-6057
▁1774	-6058
▁four	-6059
▁link	-6060
▁seed	-6061
vision	-6062
▁stephen	-6063
fi	-6064
gn	-6065
sy	-6066
子子	-6067
石见	-6068
240	-6069
▁hx	-6070
▁uc	-6071
▁421	-6072
▁727	-6073
▁pun	-6074
▁1646	-6075
▁1797	-6076
▁2800	-6077
▁gang	-6078
▁libr	-6079
▁side	-6080
▁brand	-6081
▁pentium	-6082
olo	-6083
甲一斤	-6084
▁261	-6085
▁274	-6086
▁611	-6087
▁740	-6088
▁kim	-6089
▁mba	-6090
▁1781	-6091
▁fifa	-6092
▁mpeg	-6093
▁test	-6094
▁sunday	-6095
▁profess	-6096
5⿹	-6097
亻里	-6098
▁rb	-6099
▁291	-6100
▁321	-6101
▁arc	-6102
▁ext	-6103
▁mix	-6104
金白	-6105
red	-6106
uer	-6107
▁mx	-6108
▁331	-6109
▁336	-6110
▁343	-6111
▁345	-6112
▁870	-6113
▁eva	-6114
▁flo	-6115
▁hbo	-6116
▁saf	-6117
人人龰耳	-6118
lation	-6119
▁econom	-6120
女予	-6121
yes	-6122
▁lv	-6123
木木女	-6124
▁388	-6125
▁505	-6126
athan	-6127
▁hotel	-6128
▁ubuntu	-6129
王申	-6130
▁7%	-6131
▁uk	-6132
勹口灬	-6133
cape	-6134
iger	-6135
▁414	-6136
▁419	-6137
▁ball	-6138
▁edge	-6139
▁list	-6140
▁phys	-6141
▁some	-6142
▁johann	-6143
▁prince	-6144
▁williams	-6145
▁403	-6146
▁442	-6147
▁bou	-6148
▁ern	-6149
▁mik	-6150
▁1080	-6151
▁auto	-6152
▁count	-6153
▁simon	-6154
▁there	-6155
sl	-6156
白田	-6157
800	-6158
med	-6159
▁466	-6160
▁hero	-6161
▁take	-6162
change	-6163
▁broad	-6164
▁story	-6165
由月	-6166
ful	-6167
oli	-6168
pro	-6169
▁12%	-6170
▁316	-6171
▁339	-6172
▁civ	-6173
▁ipv	-6174
ities	-6175
▁audi	-6176
▁laur	-6177
ration	-6178
▁marie	-6179
▁works	-6180
▁dragon	-6181
▁academy	-6182
chi	-6183
oda	-6184
rix	-6185
wer	-6186
▁js	-6187
▁uh	-6188
▁xm	-6189
▁617	-6190
▁921	-6191
▁ari	-6192
▁bak	-6193
▁mis	-6194
▁mys	-6195
▁nik	-6196
ather	-6197
▁1662	-6198
▁jess	-6199
▁rade	-6200
▁shad	-6201
▁feder	-6202
▁arthur	-6203
▁socket	-6204
issement	-6205
▁virtual	-6206
oe	-6207
疒久	-6208
阝千	-6209
革末	-6210
ror	-6211
yer	-6212
▁nc	-6213
▁348	-6214
▁356	-6215
▁ati	-6216
▁bes	-6217
▁bmw	-6218
▁ddr	-6219
▁nfl	-6220
▁gall	-6221
▁speed	-6222
▁computer	-6223
▁292	-6224
▁625	-6225
▁jos	-6226
▁mmc	-6227
▁1570	-6228
▁1680	-6229
▁1723	-6230
▁1763	-6231
▁1782	-6232
▁lind	-6233
▁arrond	-6234
▁indust	-6235
kt	-6236
冖水	-6237
目来	-6238
言非	-6239
330	-6240
tern	-6241
▁619	-6242
▁css	-6243
▁gab	-6244
▁ill	-6245
▁sav	-6246
mg	-6247
oh	-6248
⿳𭕄	-6249
lie	-6250
ype	-6251
匚儿戈	-6252
▁342	-6253
▁35%	-6254
▁352	-6255
▁384	-6256
▁389	-6257
▁502	-6258
▁515	-6259
▁kal	-6260
▁tas	-6261
atory	-6262
▁15000	-6263
▁number	-6264
▁pierre	-6265
▁source	-6266
▁arrondissement	-6267
uy	-6268
工阝	-6269
▁gw	-6270
▁oc	-6271
木木米	-6272
▁297	-6273
▁583	-6274
▁639	-6275
▁840	-6276
▁970	-6277
▁alt	-6278
▁dal	-6279
▁hiv	-6280
▁wta	-6281
▁conf	-6282
▁flor	-6283
▁ncaa	-6284
▁appli	-6285
cep	-6286
don	-6287
ifi	-6288
uma	-6289
▁427	-6290
▁627	-6291
▁770	-6292
▁dim	-6293
▁las	-6294
▁pci	-6295
▁pon	-6296
▁std	-6297
▁aven	-6298
▁dead	-6299
▁gene	-6300
▁unit	-6301
▁times	-6302
▁track	-6303
▁apache	-6304
▁bridge	-6305
▁jackson	-6306
lab	-6307
pot	-6308
▁pd	-6309
禾几页	-6310
titu	-6311
▁705	-6312
▁920	-6313
▁bin	-6314
▁fan	-6315
▁jay	-6316
▁lew	-6317
▁1778	-6318
▁crea	-6319
▁sport	-6320
▁august	-6321
▁radeon	-6322
文糸	-6323
rib	-6324
▁622	-6325
▁999	-6326
▁dog	-6327
▁gor	-6328
▁mes	-6329
▁ped	-6330
▁tre	-6331
▁via	-6332
▁⿰⿱⿵	-6333
agram	-6334
▁1592	-6335
▁boss	-6336
▁nick	-6337
▁ross	-6338
▁common	-6339
▁johnson	-6340
▁reference	-6341
▁ft	-6342
elli	-6343
▁344	-6344
▁got	-6345
▁kat	-6346
▁pot	-6347
冂二目力	-6348
▁1620	-6349
▁1755	-6350
▁fort	-6351
▁phot	-6352
▁turn	-6353
▁right	-6354
▁double	-6355
▁theory	-6356
ox	-6357
ges	-6358
tran	-6359
▁402	-6360
▁411	-6361
▁940	-6362
▁abo	-6363
▁pow	-6364
▁rot	-6365
▁wel	-6366
𠂊冫寸大	-6367
▁file	-6368
▁stage	-6369
口頁	-6370
大力	-6371
ips	-6372
ols	-6373
車斤土	-6374
lion	-6375
▁354	-6376
▁404	-6377
▁445	-6378
▁cel	-6379
▁lot	-6380
▁sas	-6381
▁yes	-6382
▁1772	-6383
▁zone	-6384
▁standard	-6385
▁framework	-6386
▁collection	-6387
彳弗	-6388
alk	-6389
ias	-6390
lah	-6391
▁za	-6392
▁337	-6393
▁358	-6394
▁528	-6395
▁1667	-6396
▁anal	-6397
▁cult	-6398
▁ascii	-6399
▁order	-6400
▁foundation	-6401
木斥	-6402
▁rr	-6403
禾儿頁	-6404
rent	-6405
▁535	-6406
▁wan	-6407
ident	-6408
▁cole	-6409
▁kenn	-6410
ective	-6411
▁major	-6412
▁never	-6413
▁three	-6414
▁golden	-6415
▁person	-6416
▁patrick	-6417
kw	-6418
eri	-6419
kit	-6420
▁lc	-6421
bour	-6422
▁45%	-6423
▁533	-6424
▁555	-6425
▁626	-6426
▁tun	-6427
亠口小页	-6428
𠂊田一非	-6429
erial	-6430
▁1724	-6431
▁2700	-6432
▁anna	-6433
▁where	-6434
▁enterp	-6435
yp	-6436
木石	-6437
钅白	-6438
▁bt	-6439
▁546	-6440
▁its	-6441
itish	-6442
▁1590	-6443
▁1727	-6444
▁cour	-6445
▁mind	-6446
▁sant	-6447
▁toky	-6448
▁album	-6449
▁chang	-6450
▁graph	-6451
▁access	-6452
▁walter	-6453
▁european	-6454
yd	-6455
疒巴	-6456
扌丸手	-6457
loid	-6458
▁447	-6459
▁lie	-6460
▁1457	-6461
▁chen	-6462
▁hyper	-6463
▁samuel	-6464
▁british	-6465
▁capital	-6466
din	-6467
▁ox	-6468
ogue	-6469
vers	-6470
▁383	-6471
▁605	-6472
▁1637	-6473
▁1785	-6474
▁field	-6475
▁start	-6476
▁action	-6477
钅重	-6478
𭕄⿻	-6479
46⿷	-6480
acs	-6481
iny	-6482
▁fs	-6483
▁lr	-6484
▁qs	-6485
人人耳	-6486
tist	-6487
▁351	-6488
▁395	-6489
▁409	-6490
▁kor	-6491
▁map	-6492
糸言糸山	-6493
▁1580	-6494
▁hand	-6495
▁lost	-6496
▁smart	-6497
于皿	-6498
夂口隹	-6499
▁615	-6500
▁ori	-6501
ellow	-6502
▁1598	-6503
▁1628	-6504
▁1736	-6505
▁doug	-6506
▁math	-6507
▁rose	-6508
▁happy	-6509
▁jones	-6510
▁player	-6511
▁states	-6512
▁services	-6513
oop	-6514
ril	-6515
▁ls	-6516
imax	-6517
▁448	-6518
▁545	-6519
▁910	-6520
▁3200	-6521
▁greg	-6522
▁were	-6523
▁function	-6524
▁friedrich	-6525
▁instagram	-6526
王耳	-6527
舟方	-6528
辶十	-6529
bby	-6530
pur	-6531
▁xi	-6532
小丿女	-6533
ears	-6534
hema	-6535
▁353	-6536
▁361	-6537
▁mom	-6538
ument	-6539
▁fish	-6540
▁karl	-6541
▁plat	-6542
▁building	-6543
lon	-6544
▁df	-6545
匚儿斗	-6546
口夫欠	-6547
tier	-6548
▁369	-6549
▁398	-6550
▁428	-6551
▁613	-6552
▁abd	-6553
▁bra	-6554
▁eth	-6555
▁lte	-6556
▁msn	-6557
▁tap	-6558
▁1745	-6559
▁imax	-6560
▁mill	-6561
▁qual	-6562
▁rand	-6563
▁wall	-6564
▁seven	-6565
▁stone	-6566
▁library	-6567
▁stadium	-6568
mad	-6569
十罒心	-6570
幺大谷	-6571
立日欠	-6572
core	-6573
ects	-6574
lips	-6575
▁585	-6576
▁614	-6577
▁mcc	-6578
糸言糸木	-6579
▁robin	-6580
▁interac	-6581
▁pacific	-6582
hd	-6583
一虫	-6584
bro	-6585
roll	-6586
▁523	-6587
▁685	-6588
▁six	-6589
凵丨一虫	-6590
𠂊田灬非	-6591
▁1622	-6592
▁1720	-6593
▁1730	-6594
▁amaz	-6595
▁feat	-6596
▁make	-6597
▁mand	-6598
▁blood	-6599
▁metal	-6600
▁paris	-6601
▁santa	-6602
▁eleven	-6603
rd	-6604
亻羊	-6605
来贝	-6606
ali	-6607
ika	-6608
▁vv	-6609
fred	-6610
kins	-6611
▁fre	-6612
▁1550	-6613
▁1623	-6614
▁1759	-6615
▁days	-6616
▁tony	-6617
▁voca	-6618
▁wiki	-6619
ht	-6620
豸里	-6621
▁gs	-6622
▁655	-6623
bourg	-6624
▁1625	-6625
▁20000	-6626
朱阝	-6627
谷阝	-6628
hen	-6629
▁tf	-6630
镸彡毛	-6631
helm	-6632
odon	-6633
ynam	-6634
▁363	-6635
▁529	-6636
▁jet	-6637
▁kam	-6638
enger	-6639
▁2030	-6640
▁memor	-6641
▁ville	-6642
▁galaxy	-6643
__	-6644
巾隹	-6645
▁rn	-6646
▁sb	-6647
▁65%	-6648
▁715	-6649
▁abs	-6650
▁aur	-6651
▁nmb	-6652
▁1560	-6653
▁1573	-6654
▁auth	-6655
▁full	-6656
▁lead	-6657
▁pers	-6658
iction	-6659
▁avenue	-6660
▁harris	-6661
▁wilson	-6662
▁english	-6663
疒豆	-6664
讠牙	-6665
钅巴	-6666
109	-6667
uts	-6668
▁ck	-6669
口龶见	-6670
艹冖虫	-6671
tice	-6672
▁283	-6673
▁379	-6674
▁432	-6675
▁790	-6676
▁98%	-6677
▁jar	-6678
▁ted	-6679
ittee	-6680
▁1568	-6681
▁boys	-6682
▁burn	-6683
▁cali	-6684
▁nicon	-6685
▁spring	-6686
口自	-6687
dom	-6688
yan	-6689
▁ix	-6690
▁tl	-6691
bach	-6692
ench	-6693
▁418	-6694
▁hav	-6695
▁jus	-6696
▁ner	-6697
人一口页	-6698
light	-6699
opher	-6700
▁1735	-6701
▁1740	-6702
▁cher	-6703
▁fred	-6704
▁most	-6705
▁ruby	-6706
▁stop	-6707
▁rober	-6708
▁tokyo	-6709
▁albert	-6710
ief	-6711
ize	-6712
oni	-6713
▁kt	-6714
▁lp	-6715
未攵厂	-6716
𠂇巾阝	-6717
ando	-6718
▁406	-6719
▁ala	-6720
▁bow	-6721
▁fis	-6722
▁him	-6723
▁hkt	-6724
▁pse	-6725
▁vit	-6726
usion	-6727
▁1478	-6728
▁1757	-6729
▁acid	-6730
▁lisp	-6731
▁mnet	-6732
▁nord	-6733
▁⿰⿱𭕄⿻	-6734
虫冉	-6735
金甘	-6736
700	-6737
hed	-6738
mph	-6739
▁rp	-6740
八刀木	-6741
ding	-6742
lace	-6743
▁455	-6744
▁51%	-6745
▁519	-6746
▁527	-6747
▁ave	-6748
▁mam	-6749
▁rca	-6750
▁sug	-6751
▁1649	-6752
▁1688	-6753
▁here	-6754
▁made	-6755
土儿土丸𧘇	-6756
▁kevin	-6757
▁division	-6758
冂丨	-6759
uit	-6760
▁378	-6761
▁436	-6762
▁451	-6763
▁rod	-6764
▁1643	-6765
▁5500	-6766
▁nico	-6767
▁week	-6768
▁niconico	-6769
缶本	-6770
阝止	-6771
vey	-6772
▁gd	-6773
▁tm	-6774
ersh	-6775
ogen	-6776
▁332	-6777
▁347	-6778
▁371	-6779
▁408	-6780
▁495	-6781
▁548	-6782
▁atr	-6783
▁ell	-6784
▁hey	-6785
▁usa	-6786
▁1369	-6787
▁priv	-6788
▁sail	-6789
▁sher	-6790
▁tower	-6791
▁taylor	-6792
ological	-6793
▁portable	-6794
日卯	-6795
爫见	-6796
fan	-6797
tha	-6798
tie	-6799
▁nr	-6800
𠘧又心	-6801
▁368	-6802
▁396	-6803
▁399	-6804
▁446	-6805
▁488	-6806
▁547	-6807
▁612	-6808
▁99%	-6809
▁aff	-6810
▁bac	-6811
▁hyd	-6812
▁1634	-6813
▁1647	-6814
▁1651	-6815
▁cosp	-6816
▁gear	-6817
▁machine	-6818
亚土	-6819
讠非	-6820
𠂆万	-6821
bol	-6822
▁rg	-6823
▁433	-6824
▁489	-6825
▁907	-6826
▁cos	-6827
▁dia	-6828
▁yam	-6829
works	-6830
worth	-6831
▁1469	-6832
▁1616	-6833
▁1748	-6834
intosh	-6835
▁infin	-6836
▁lewis	-6837
▁repub	-6838
▁their	-6839
▁section	-6840
isk	-6841
月月刂	-6842
vent	-6843
▁374	-6844
▁645	-6845
▁hun	-6846
▁pil	-6847
▁1475	-6848
▁1609	-6849
▁1626	-6850
▁6500	-6851
▁extr	-6852
▁magn	-6853
▁contin	-6854
▁freder	-6855
nia	-6856
▁372	-6857
▁511	-6858
▁675	-6859
▁iss	-6860
▁nig	-6861
▁1630	-6862
▁1658	-6863
▁1768	-6864
▁about	-6865
▁magic	-6866
▁health	-6867
▁alexand	-6868
▁committee	-6869
py	-6870
目疌	-6871
utt	-6872
丿大山	-6873
乡隹瓦	-6874
rian	-6875
▁513	-6876
▁689	-6877
▁ant	-6878
▁fab	-6879
▁gem	-6880
火火冖火	-6881
▁1466	-6882
▁1756	-6883
▁prop	-6884
▁break	-6885
▁wilhelm	-6886
▁enterprise	-6887
wh	-6888
石木	-6889
辶入	-6890
cia	-6891
elf	-6892
nie	-6893
人人艮	-6894
▁487	-6895
▁499	-6896
▁518	-6897
▁532	-6898
▁556	-6899
▁586	-6900
▁667	-6901
▁wea	-6902
abeth	-6903
▁1621	-6904
▁1624	-6905
▁1769	-6906
▁1771	-6907
▁afri	-6908
▁five	-6909
▁walk	-6910
▁wing	-6911
▁depart	-6912
▁complex	-6913
esa	-6914
ost	-6915
口木火	-6916
agne	-6917
iano	-6918
▁341	-6919
▁367	-6920
▁506	-6921
▁537	-6922
▁587	-6923
▁616	-6924
▁ali	-6925
▁gas	-6926
▁tnt	-6927
▁tot	-6928
▁1618	-6929
▁1733	-6930
▁1773	-6931
▁area	-6932
▁espn	-6933
▁hosp	-6934
▁kill	-6935
▁mega	-6936
▁nich	-6937
▁perl	-6938
▁ultra	-6939
▁termin	-6940
▁cosplay	-6941
▁directx	-6942
wc	-6943
yo	-6944
aki	-6945
𠘧又缶	-6946
back	-6947
elly	-6948
ways	-6949
▁18%	-6950
▁475	-6951
▁633	-6952
▁735	-6953
▁925	-6954
▁aba	-6955
▁ale	-6956
▁1610	-6957
▁1652	-6958
▁1660	-6959
▁1725	-6960
▁1762	-6961
▁solo	-6962
亠丷厂生刂	-6963
▁chrome	-6964
▁valley	-6965
▁wonder	-6966
虫斗	-6967
gam	-6968
ages	-6969
▁55%	-6970
▁717	-6971
▁any	-6972
▁vcd	-6973
▁1260	-6974
▁1619	-6975
▁1664	-6976
▁1765	-6977
▁mart	-6978
▁mrna	-6979
▁brian	-6980
▁index	-6981
▁offic	-6982
▁other	-6983
▁roger	-6984
束力	-6985
lus	-6986
pon	-6987
▁pf	-6988
ater	-6989
view	-6990
▁486	-6991
▁536	-6992
▁553	-6993
▁628	-6994
▁636	-6995
▁986	-6996
▁fat	-6997
▁haw	-6998
▁nan	-6999
▁nec	-7000
▁rol	-7001
十口儿刂	-7002
▁1547	-7003
▁1577	-7004
▁1627	-7005
▁1761	-7006
▁mars	-7007
▁shop	-7008
▁stri	-7009
▁when	-7010
▁secur	-7011
▁mathema	-7012
▁vocaloid	-7013
5⿸	-7014
戋皿	-7015
扌柬	-7016
金土	-7017
701	-7018
cht	-7019
mal	-7020
nel	-7021
ogo	-7022
ove	-7023
tex	-7024
▁9%	-7025
ipal	-7026
▁349	-7027
▁364	-7028
▁477	-7029
▁539	-7030
▁635	-7031
▁762	-7032
▁973	-7033
▁cba	-7034
▁ccd	-7035
▁jag	-7036
▁lol	-7037
▁1615	-7038
▁deep	-7039
▁mount	-7040
▁future	-7041
▁garden	-7042
▁michel	-7043
▁version	-7044
▁gamespot	-7045
口亚	-7046
扌工	-7047
uda	-7048
▁cx	-7049
▁eu	-7050
女又巾	-7051
▁33%	-7052
▁422	-7053
▁443	-7054
▁524	-7055
▁552	-7056
▁629	-7057
▁990	-7058
▁bol	-7059
▁fda	-7060
▁pad	-7061
▁wol	-7062
𠂊田一屯	-7063
▁7500	-7064
▁kids	-7065
▁maur	-7066
▁front	-7067
▁women	-7068
▁method	-7069
▁formation	-7070
▁transport	-7071
束頁	-7072
▁dx	-7073
▁gc	-7074
八刀心	-7075
ipei	-7076
▁476	-7077
▁623	-7078
▁kid	-7079
▁nuc	-7080
▁sna	-7081
▁vel	-7082
anger	-7083
space	-7084
▁1370	-7085
▁1583	-7086
▁1631	-7087
▁1689	-7088
▁3600	-7089
▁fern	-7090
▁food	-7091
▁const	-7092
▁parti	-7093
▁pseud	-7094
▁championship	-7095
日兆	-7096
350	-7097
umi	-7098
▁tt	-7099
▁454	-7100
▁508	-7101
▁514	-7102
▁688	-7103
▁825	-7104
▁lcd	-7105
▁sud	-7106
コ一人贝	-7107
▁1659	-7108
▁1684	-7109
▁2025	-7110
▁alli	-7111
▁also	-7112
▁gate	-7113
▁gamec	-7114
▁motor	-7115
▁alfred	-7116
gl	-7117
目丁	-7118
gra	-7119
imo	-7120
▁qt	-7121
ione	-7122
▁435	-7123
▁534	-7124
▁577	-7125
▁588	-7126
▁634	-7127
▁637	-7128
▁647	-7129
▁962	-7130
▁blo	-7131
▁fro	-7132
▁kap	-7133
▁sex	-7134
▁tag	-7135
inder	-7136
ments	-7137
▁1250	-7138
▁1450	-7139
▁1571	-7140
▁1585	-7141
▁1753	-7142
enberg	-7143
▁harry	-7144
▁taipei	-7145
▁studios	-7146
氵巳	-7147
门三	-7148
aco	-7149
bin	-7150
uty	-7151
▁dp	-7152
▁kc	-7153
▁pb	-7154
冂卄禾	-7155
ania	-7156
host	-7157
phal	-7158
pson	-7159
reis	-7160
▁393	-7161
▁424	-7162
▁453	-7163
▁503	-7164
▁517	-7165
▁542	-7166
▁606	-7167
▁713	-7168
▁803	-7169
▁1584	-7170
▁1722	-7171
▁fami	-7172
▁mail	-7173
▁pict	-7174
▁ryan	-7175
▁symb	-7176
▁allen	-7177
▁clark	-7178
▁dynam	-7179
▁jason	-7180
▁archit	-7181
▁mission	-7182
▁mountain	-7183
110	-7184
lis	-7185
▁hm	-7186
覀示瓜	-7187
arch	-7188
down	-7189
▁382	-7190
▁397	-7191
▁439	-7192
▁468	-7193
▁551	-7194
▁642	-7195
▁718	-7196
▁bil	-7197
▁bot	-7198
▁inn	-7199
𠂊田灬方	-7200
ember	-7201
rough	-7202
struc	-7203
under	-7204
▁1569	-7205
▁gary	-7206
▁lear	-7207
▁prod	-7208
▁quad	-7209
▁tell	-7210
▁gnome	-7211
豸才	-7212
die	-7213
fel	-7214
夫丷页	-7215
acle	-7216
cell	-7217
etta	-7218
▁549	-7219
▁716	-7220
▁alg	-7221
▁cis	-7222
▁jud	-7223
未攵厂牛	-7224
▁1454	-7225
▁1553	-7226
▁1685	-7227
▁ener	-7228
▁into	-7229
▁note	-7230
▁alice	-7231
▁bruce	-7232
▁death	-7233
▁roman	-7234
▁active	-7235
▁report	-7236
▁macintosh	-7237
疒羊	-7238
cam	-7239
mas	-7240
ole	-7241
uff	-7242
一丂页	-7243
engl	-7244
stal	-7245
▁381	-7246
▁516	-7247
▁554	-7248
▁684	-7249
▁712	-7250
▁age	-7251
▁gri	-7252
▁pak	-7253
▁1521	-7254
▁1601	-7255
▁1701	-7256
▁1707	-7257
▁1713	-7258
▁1728	-7259
▁cath	-7260
▁gord	-7261
▁scot	-7262
▁sega	-7263
▁wave	-7264
▁struct	-7265
▁airport	-7266
▁fantasy	-7267
▁gamecube	-7268
▁holdings	-7269
gu	-7270
囗屯	-7271
大火	-7272
金皮	-7273
钅玉	-7274
𠂉丹	-7275
25%	-7276
oro	-7277
agar	-7278
▁423	-7279
▁544	-7280
▁668	-7281
▁755	-7282
▁927	-7283
▁aqu	-7284
▁cac	-7285
▁did	-7286
▁hxd	-7287
▁lyn	-7288
▁neo	-7289
▁obs	-7290
▁zip	-7291
ollow	-7292
▁1604	-7293
▁1766	-7294
▁1767	-7295
▁mytv	-7296
▁stor	-7297
▁very	-7298
▁view	-7299
▁12000	-7300
▁board	-7301
▁exper	-7302
▁modern	-7303
▁anthony	-7304
▁hospital	-7305
▁universal	-7306
hu	-7307
㐅刂	-7308
𠂉𠃓	-7309
hol	-7310
▁cz	-7311
立十糸	-7312
ense	-7313
igan	-7314
illy	-7315
▁373	-7316
▁426	-7317
▁538	-7318
▁646	-7319
▁682	-7320
▁721	-7321
▁cia	-7322
▁ful	-7323
▁gsm	-7324
▁que	-7325
▁⿰⿰⿱	-7326
𠂉大巨木	-7327
▁1565	-7328
▁1575	-7329
▁1586	-7330
▁bang	-7331
▁come	-7332
au	-7333
乃小	-7334
米果	-7335
gie	-7336
▁nf	-7337
丷夫己	-7338
▁457	-7339
▁det	-7340
▁kom	-7341
▁pia	-7342
▁sid	-7343
▁1603	-7344
▁1629	-7345
▁1638	-7346
▁1670	-7347
▁than	-7348
▁movie	-7349
▁planet	-7350
ku	-7351
王玉	-7352
ees	-7353
▁io	-7354
▁xe	-7355
ries	-7356
tech	-7357
▁362	-7358
▁472	-7359
▁576	-7360
▁648	-7361
▁681	-7362
▁amp	-7363
▁bun	-7364
▁mut	-7365
丨丨比阝	-7366
糸言糸手	-7367
aster	-7368
▁1050	-7369
▁1567	-7370
▁1655	-7371
▁1715	-7372
▁1758	-7373
▁poem	-7374
▁talk	-7375
ential	-7376
▁wester	-7377
▁surface	-7378
cf	-7379
hl	-7380
火韦	-7381
113	-7382
alo	-7383
phy	-7384
ved	-7385
▁mn	-7386
ccff	-7387
▁392	-7388
▁933	-7389
𠂊田灬工	-7390
ennis	-7391
▁1572	-7392
▁2023	-7393
▁fast	-7394
▁rick	-7395
▁davis	-7396
▁howard	-7397
▁sailor	-7398
bu	-7399
nh	-7400
目于	-7401
cci	-7402
ori	-7403
▁ou	-7404
䒑土水	-7405
尢丶山	-7406
inus	-7407
▁394	-7408
▁494	-7409
▁566	-7410
▁725	-7411
▁936	-7412
▁bos	-7413
▁oly	-7414
▁ria	-7415
estra	-7416
▁1679	-7417
▁1714	-7418
▁1764	-7419
▁body	-7420
▁jane	-7421
▁kara	-7422
▁lisa	-7423
▁lock	-7424
▁democ	-7425
▁marsh	-7426
▁table	-7427
▁attack	-7428
▁ccccff	-7429
▁government	-7430
王韦	-7431
门隹	-7432
ago	-7433
bat	-7434
ted	-7435
口寸灬	-7436
口贝阝	-7437
inae	-7438
iron	-7439
oper	-7440
▁14%	-7441
▁456	-7442
▁522	-7443
▁711	-7444
▁719	-7445
▁918	-7446
▁975	-7447
▁wik	-7448
▁⿱⿳⿳	-7449
人一口阝	-7450
craft	-7451
▁anne	-7452
▁blog	-7453
▁kent	-7454
▁page	-7455
▁palm	-7456
▁yosh	-7457
▁opengl	-7458
灬大	-7459
车乚	-7460
99%	-7461
bda	-7462
▁kv	-7463
▁vt	-7464
enny	-7465
haus	-7466
▁464	-7467
▁531	-7468
▁541	-7469
▁596	-7470
▁722	-7471
▁905	-7472
▁dns	-7473
▁1632	-7474
▁1729	-7475
▁rank	-7476
▁wolf	-7477
▁wong	-7478
▁lucas	-7479
▁turbo	-7480
▁switch	-7481
dc	-7482
iy	-7483
zh	-7484
业㡀	-7485
口言	-7486
民日	-7487
enz	-7488
tig	-7489
▁zo	-7490
hard	-7491
▁050	-7492
▁13%	-7493
▁444	-7494
▁509	-7495
▁526	-7496
▁751	-7497
▁805	-7498
▁fol	-7499
▁oce	-7500
▁sdk	-7501
▁1453	-7502
▁1460	-7503
▁1737	-7504
▁1738	-7505
▁barb	-7506
▁pink	-7507
▁scan	-7508
▁teau	-7509
▁trin	-7510
▁march	-7511
▁peace	-7512
▁princ	-7513
▁sweet	-7514
▁exchange	-7515
▁engineering	-7516
af	-7517
dd	-7518
钅川	-7519
cin	-7520
kia	-7521
mes	-7522
▁vp	-7523
镸彡冉	-7524
1000	-7525
ista	-7526
itar	-7527
mark	-7528
ones	-7529
▁429	-7530
▁458	-7531
▁493	-7532
▁562	-7533
▁745	-7534
▁lil	-7535
eatre	-7536
▁1517	-7537
▁1635	-7538
▁1681	-7539
▁1747	-7540
▁brad	-7541
▁vita	-7542
▁stars	-7543
▁miller	-7544
▁season	-7545
tz	-7546
广羊	-7547
340	-7548
75%	-7549
bes	-7550
gon	-7551
oco	-7552
▁ek	-7553
山豆頁	-7554
止匕石	-7555
atch	-7556
ique	-7557
▁434	-7558
▁438	-7559
▁479	-7560
▁496	-7561
▁521	-7562
▁686	-7563
▁731	-7564
▁766	-7565
▁863	-7566
▁945	-7567
▁joy	-7568
▁put	-7569
▁1525	-7570
▁1605	-7571
▁1734	-7572
▁cube	-7573
▁dave	-7574
▁khan	-7575
▁roll	-7576
▁xiii	-7577
▁delta	-7578
▁storm	-7579
▁archive	-7580
▁classic	-7581
ih	-7582
ade	-7583
▁dk	-7584
▁ue	-7585
ival	-7586
▁11%	-7587
▁484	-7588
▁565	-7589
▁568	-7590
▁598	-7591
▁624	-7592
▁796	-7593
▁815	-7594
▁846	-7595
▁cad	-7596
▁eos	-7597
▁ncc	-7598
▁oem	-7599
angel	-7600
▁1150	-7601
▁1371	-7602
▁1556	-7603
▁1613	-7604
▁1710	-7605
▁ling	-7606
▁christopher	-7607
钅贝	-7608
02%	-7609
bas	-7610
cad	-7611
口口瓦	-7612
口止八	-7613
日一毛	-7614
bell	-7615
gate	-7616
stra	-7617
▁563	-7618
▁575	-7619
▁597	-7620
▁603	-7621
▁604	-7622
▁877	-7623
▁890	-7624
▁926	-7625
▁cri	-7626
▁dip	-7627
▁gui	-7628
▁rud	-7629
▁1024	-7630
▁1665	-7631
▁1751	-7632
▁brun	-7633
▁hein	-7634
▁look	-7635
▁whit	-7636
▁debian	-7637
bw	-7638
vs	-7639
木柬	-7640
钅目	-7641
龙耳	-7642
iva	-7643
▁hc	-7644
▁ow	-7645
▁pw	-7646
宀八串	-7647
戈戈皿	-7648
bury	-7649
▁507	-7650
▁651	-7651
▁687	-7652
▁bom	-7653
▁gay	-7654
▁iup	-7655
▁npc	-7656
▁vhs	-7657
▁vor	-7658
thers	-7659
▁1526	-7660
▁1559	-7661
▁3300	-7662
▁cdma	-7663
▁demo	-7664
▁eliz	-7665
▁orch	-7666
▁smap	-7667
▁25000	-7668
▁pascal	-7669
▁anderson	-7670
of	-7671
oy	-7672
月甫	-7673
氵日	-7674
fly	-7675
lem	-7676
▁bp	-7677
▁ej	-7678
▁ez	-7679
▁kk	-7680
ande	-7681
endo	-7682
▁847	-7683
▁865	-7684
▁876	-7685
▁atm	-7686
▁bec	-7687
▁das	-7688
▁eug	-7689
▁hud	-7690
▁reb	-7691
▁sap	-7692
▁sul	-7693
acter	-7694
▁1130	-7695
▁1350	-7696
▁1639	-7697
▁1654	-7698
▁army	-7699
▁avex	-7700
▁cycl	-7701
▁gian	-7702
▁juan	-7703
▁stat	-7704
▁drama	-7705
▁lambda	-7706
▁friends	-7707
▁victoria	-7708
▁commission	-7709
▁interactive	-7710
np	-7711
01%	-7712
116	-7713
kar	-7714
rin	-7715
口止重	-7716
head	-7717
ross	-7718
▁567	-7719
▁768	-7720
▁826	-7721
▁ats	-7722
▁cit	-7723
▁gpu	-7724
▁hms	-7725
▁kil	-7726
▁leo	-7727
▁lev	-7728
▁pip	-7729
▁sac	-7730
▁1540	-7731
▁1657	-7732
▁1721	-7733
▁1726	-7734
▁atom	-7735
▁ther	-7736
▁henri	-7737
▁twins	-7738
▁theatre	-7739
▁virginia	-7740
必皿	-7741
bis	-7742
lev	-7743
ulo	-7744
▁kb	-7745
▁504	-7746
▁609	-7747
▁632	-7748
▁643	-7749
▁756	-7750
▁929	-7751
▁951	-7752
▁aer	-7753
▁boo	-7754
▁chu	-7755
▁nac	-7756
▁nak	-7757
▁obe	-7758
ating	-7759
eater	-7760
▁1593	-7761
▁1607	-7762
▁bios	-7763
▁caro	-7764
▁fact	-7765
▁nets	-7766
▁tang	-7767
▁plaza	-7768
▁return	-7769
▁singap	-7770
▁triple	-7771
▁medical	-7772
▁western	-7773
▁advanced	-7774
▁messenger	-7775
▁generation	-7776
忄千	-7777
氵里	-7778
met	-7779
omy	-7780
▁ks	-7781
日一页	-7782
ales	-7783
alis	-7784
oche	-7785
pend	-7786
ties	-7787
▁557	-7788
▁638	-7789
▁763	-7790
▁813	-7791
▁845	-7792
▁fem	-7793
▁wir	-7794
羊䒑口阝	-7795
▁1524	-7796
▁1578	-7797
▁1611	-7798
▁1672	-7799
▁1673	-7800
▁1687	-7801
▁diam	-7802
▁hart	-7803
▁metro	-7804
▁parad	-7805
▁living	-7806
wi	-7807
一未	-7808
亻瓦	-7809
女丑	-7810
106	-7811
125	-7812
zan	-7813
zar	-7814
▁xy	-7815
匕水頁	-7816
木木糸	-7817
𠃊目八	-7818
iday	-7819
ress	-7820
▁17%	-7821
▁599	-7822
▁746	-7823
▁835	-7824
▁dif	-7825
▁fig	-7826
▁jyp	-7827
▁lud	-7828
▁ral	-7829
▁1472	-7830
▁1599	-7831
▁1614	-7832
▁1653	-7833
▁1718	-7834
▁1741	-7835
▁logo	-7836
▁sequ	-7837
▁olymp	-7838
▁canada	-7839
▁invest	-7840
▁bernard	-7841
du	-7842
lu	-7843
一尸	-7844
一阝	-7845
钅不	-7846
102	-7847
121	-7848
arc	-7849
mbr	-7850
mur	-7851
ono	-7852
▁nk	-7853
▁vf	-7854
bird	-7855
ners	-7856
olic	-7857
▁391	-7858
▁816	-7859
▁919	-7860
▁979	-7861
▁alf	-7862
▁ges	-7863
▁ian	-7864
▁nom	-7865
▁ois	-7866
▁ras	-7867
▁row	-7868
▁rue	-7869
▁tet	-7870
弋一止贝	-7871
alian	-7872
iment	-7873
▁1499	-7874
▁1669	-7875
▁1717	-7876
▁1752	-7877
▁dual	-7878
▁maca	-7879
▁saab	-7880
▁artist	-7881
▁histor	-7882
▁johnny	-7883
▁against	-7884
▁califor	-7885
▁concert	-7886
▁dreamcast	-7887
ju	-7888
vc	-7889
丷田	-7890
金朱	-7891
dor	-7892
ils	-7893
zzo	-7894
一由心	-7895
丷田日	-7896
丿丿火	-7897
八刀阝	-7898
冖车阝	-7899
口口頁	-7900
inte	-7901
▁431	-7902
▁452	-7903
▁561	-7904
▁704	-7905
▁823	-7906
▁829	-7907
▁937	-7908
▁amb	-7909
▁guy	-7910
▁isa	-7911
▁itv	-7912
▁lab	-7913
▁rim	-7914
丨丨比米	-7915
ature	-7916
tdown	-7917
▁1280	-7918
▁1589	-7919
▁1732	-7920
▁benj	-7921
▁lion	-7922
▁path	-7923
▁scar	-7924
▁self	-7925
▁energy	-7926
▁matthe	-7927
▁review	-7928
ications	-7929
▁security	-7930
dh	-7931
dn	-7932
勹言	-7933
艹氏	-7934
金戉	-7935
gas	-7936
一由寸	-7937
ancy	-7938
body	-7939
ilog	-7940
lica	-7941
osph	-7942
otte	-7943
uber	-7944
ules	-7945
▁461	-7946
▁49%	-7947
▁558	-7948
▁677	-7949
▁824	-7950
▁902	-7951
▁912	-7952
▁914	-7953
▁935	-7954
▁amx	-7955
▁hur	-7956
▁irt	-7957
world	-7958
▁1435	-7959
▁1641	-7960
▁1682	-7961
▁1690	-7962
▁1697	-7963
▁1709	-7964
▁1749	-7965
▁1754	-7966
▁3166	-7967
▁bomb	-7968
▁burg	-7969
▁cass	-7970
▁dash	-7971
▁hack	-7972
▁snow	-7973
▁thor	-7974
▁wash	-7975
office	-7976
▁begin	-7977
▁moham	-7978
▁munic	-7979
▁short	-7980
vention	-7981
▁carlos	-7982
▁forever	-7983
oi	-7984
歹央	-7985
105	-7986
190	-7987
dal	-7988
ios	-7989
tes	-7990
ues	-7991
▁sq	-7992
火火阝	-7993
ophy	-7994
town	-7995
▁441	-7996
▁478	-7997
▁644	-7998
▁652	-7999
▁658	-8000
▁938	-8001
▁hab	-8002
▁ide	-8003
▁kle	-8004
▁ris	-8005
▁sak	-8006
▁1719	-8007
▁1742	-8008
▁1744	-8009
▁andy	-8010
▁midi	-8011
ension	-8012
▁arena	-8013
▁baron	-8014
▁being	-8015
▁civil	-8016
▁money	-8017
▁quick	-8018
▁think	-8019
▁gordon	-8020
▁thunder	-8021
▁original	-8022
▁noinclude	-8023
lr	-8024
rt	-8025
山由	-8026
文口	-8027
非虫	-8028
饣耳	-8029
eco	-8030
leg	-8031
oke	-8032
oux	-8033
▁cj	-8034
▁ik	-8035
▁rm	-8036
▁wu	-8037
olis	-8038
▁482	-8039
▁571	-8040
▁573	-8041
▁582	-8042
▁602	-8043
▁649	-8044
▁708	-8045
▁759	-8046
▁775	-8047
▁988	-8048
▁exo	-8049
▁hem	-8050
▁ica	-8051
▁toy	-8052
▁vvv	-8053
▁1430	-8054
▁1562	-8055
▁gram	-8056
▁grow	-8057
▁iron	-8058
▁ster	-8059
▁based	-8060
▁exile	-8061
chester	-8062
▁intell	-8063
▁douglas	-8064
▁conference	-8065
▁television	-8066
ru	-8067
山见	-8068
虫甘	-8069
𠃊目	-8070
11%	-8071
imp	-8072
▁mh	-8073
▁mw	-8074
▁nn	-8075
▁wm	-8076
wick	-8077
▁578	-8078
▁798	-8079
▁821	-8080
▁965	-8081
▁fra	-8082
▁lun	-8083
▁nin	-8084
berry	-8085
▁1520	-8086
▁1523	-8087
▁1588	-8088
▁1595	-8089
▁1633	-8090
▁been	-8091
▁berg	-8092
▁sola	-8093
▁admin	-8094
▁ghost	-8095
▁labor	-8096
▁medic	-8097
▁valve	-8098
▁author	-8099
▁memory	-8100
▁freebsd	-8101
▁benjamin	-8102
▁countdown	-8103
▁elizabeth	-8104
▁evolution	-8105
▁singapore	-8106
王禹	-8107
122	-8108
kir	-8109
oon	-8110
▁lm	-8111
▁px	-8112
▁vb	-8113
口止石	-8114
𠃊目小	-8115
bers	-8116
ente	-8117
itan	-8118
▁16%	-8119
▁641	-8120
▁691	-8121
▁733	-8122
▁748	-8123
▁875	-8124
▁908	-8125
▁923	-8126
▁obj	-8127
▁pul	-8128
▁tes	-8129
▁1579	-8130
▁1705	-8131
▁8500	-8132
▁case	-8133
▁coco	-8134
▁then	-8135
▁wise	-8136
▁iupac	-8137
▁moore	-8138
▁texas	-8139
▁commer	-8140
▁command	-8141
▁russell	-8142
▁community	-8143
yr	-8144
日方	-8145
气乃	-8146
石隹	-8147
14%	-8148
264	-8149
310	-8150
icy	-8151
jan	-8152
mic	-8153
▁jp	-8154
▁oz	-8155
覀示刂	-8156
bang	-8157
rial	-8158
▁676	-8159
▁702	-8160
▁736	-8161
▁761	-8162
▁839	-8163
▁884	-8164
▁arn	-8165
▁beh	-8166
▁pix	-8167
▁tin	-8168
▁use	-8169
▁1492	-8170
▁1587	-8171
▁1608	-8172
▁2050	-8173
▁fate	-8174
▁imag	-8175
▁kind	-8176
▁marc	-8177
▁canon	-8178
▁catal	-8179
▁reich	-8180
▁watch	-8181
▁proper	-8182
▁frances	-8183
▁leonard	-8184
▁premier	-8185
▁village	-8186
▁francisco	-8187
▁department	-8188
tt	-8189
纟非	-8190
900	-8191
kes	-8192
lav	-8193
tus	-8194
冂一谷	-8195
anch	-8196
hedr	-8197
ping	-8198
ysis	-8199
▁004	-8200
▁471	-8201
▁692	-8202
▁726	-8203
▁811	-8204
▁818	-8205
▁888	-8206
▁993	-8207
▁apm	-8208
▁hir	-8209
▁ost	-8210
▁pit	-8211
utsch	-8212
▁1127	-8213
▁1277	-8214
▁1530	-8215
▁1564	-8216
▁1576	-8217
▁1676	-8218
▁cris	-8219
▁kris	-8220
冂一谷又土	-8221
▁asian	-8222
▁freed	-8223
▁image	-8224
▁jimmy	-8225
▁tourn	-8226
▁morris	-8227
▁mother	-8228
▁window	-8229
▁netscape	-8230
▁republic	-8231
▁frederick	-8232
kn	-8233
土丘	-8234
弓耳	-8235
灬又	-8236
石本	-8237
阝垂	-8238
15%	-8239
37%	-8240
67%	-8241
adi	-8242
tio	-8243
▁dz	-8244
▁mf	-8245
▁nl	-8246
▁tp	-8247
䒑土心	-8248
日大阝	-8249
anth	-8250
icus	-8251
▁437	-8252
▁474	-8253
▁481	-8254
▁683	-8255
▁765	-8256
▁785	-8257
▁817	-8258
▁bee	-8259
▁imm	-8260
▁psv	-8261
▁rin	-8262
▁url	-8263
ament	-8264
istry	-8265
▁1464	-8266
▁1574	-8267
▁dick	-8268
▁mall	-8269
▁pear	-8270
▁tree	-8271
▁franz	-8272
▁match	-8273
▁antonio	-8274
▁california	-8275
火乐	-8276
126	-8277
edy	-8278
gio	-8279
kan	-8280
▁bj	-8281
kien	-8282
odes	-8283
oshi	-8284
▁376	-8285
▁469	-8286
▁666	-8287
▁669	-8288
▁842	-8289
▁939	-8290
▁969	-8291
▁sie	-8292
▁tax	-8293
lines	-8294
▁1011	-8295
▁1180	-8296
▁1546	-8297
▁1612	-8298
▁1656	-8299
▁1746	-8300
▁bass	-8301
▁coll	-8302
▁gaga	-8303
▁brook	-8304
▁trust	-8305
ography	-8306
▁middle	-8307
▁orange	-8308
▁wright	-8309
▁studies	-8310
▁southern	-8311
aw	-8312
gh	-8313
土隶	-8314
犭弗	-8315
107	-8316
emy	-8317
fri	-8318
iah	-8319
▁fd	-8320
▁ws	-8321
ashi	-8322
iser	-8323
stad	-8324
tric	-8325
▁497	-8326
▁498	-8327
▁741	-8328
▁904	-8329
▁add	-8330
▁afi	-8331
▁dll	-8332
▁exe	-8333
▁fit	-8334
music	-8335
order	-8336
tiful	-8337
▁1066	-8338
▁1527	-8339
▁1542	-8340
▁1675	-8341
▁1699	-8342
▁dear	-8343
▁inte	-8344
▁root	-8345
easure	-8346
ything	-8347
▁beach	-8348
▁chart	-8349
▁clear	-8350
▁initi	-8351
▁prote	-8352
▁psych	-8353
▁score	-8354
▁urban	-8355
▁search	-8356
▁independ	-8357
▁architect	-8358
oa	-8359
33%	-8360
96%	-8361
uto	-8362
▁fw	-8363
▁ji	-8364
▁uv	-8365
⺊口乚	-8366
agen	-8367
lass	-8368
onia	-8369
ving	-8370
wart	-8371
▁574	-8372
▁661	-8373
▁729	-8374
▁738	-8375
▁781	-8376
▁828	-8377
▁955	-8378
▁982	-8379
▁kur	-8380
▁ufo	-8381
stone	-8382
▁1125	-8383
▁1666	-8384
▁3700	-8385
▁3800	-8386
▁bing	-8387
▁fron	-8388
▁hugh	-8389
▁jpeg	-8390
▁pont	-8391
▁shah	-8392
▁vent	-8393
▁30000	-8394
▁activ	-8395
▁honey	-8396
▁spect	-8397
▁nature	-8398
▁winter	-8399
▁tolkien	-8400
▁electric	-8401
▁revolution	-8402
cp	-8403
木予	-8404
05%	-8405
13%	-8406
52%	-8407
ars	-8408
elo	-8409
emb	-8410
pin	-8411
▁aj	-8412
▁sj	-8413
lard	-8414
othy	-8415
▁467	-8416
▁492	-8417
▁559	-8418
▁572	-8419
▁659	-8420
▁749	-8421
▁874	-8422
▁881	-8423
▁ans	-8424
▁kai	-8425
▁lip	-8426
▁plc	-8427
▁syl	-8428
▁vip	-8429
凵丨凵示	-8430
ilton	-8431
rence	-8432
▁1668	-8433
▁1692	-8434
▁buff	-8435
▁matt	-8436
▁shir	-8437
▁viii	-8438
▁guide	-8439
▁montb	-8440
▁sarah	-8441
▁total	-8442
▁associ	-8443
▁change	-8444
▁yoshiki	-8445
▁administ	-8446
竹世	-8447
03%	-8448
103	-8449
104	-8450
▁kp	-8451
▁lt	-8452
▁wy	-8453
木木止	-8454
𠁣𠃛隹	-8455
omer	-8456
▁491	-8457
▁543	-8458
▁579	-8459
▁698	-8460
▁714	-8461
▁866	-8462
▁987	-8463
▁ibn	-8464
▁kol	-8465
▁rex	-8466
▁stu	-8467
▁1230	-8468
▁1451	-8469
▁1519	-8470
▁1536	-8471
▁1731	-8472
▁dean	-8473
▁flow	-8474
▁ford	-8475
▁hide	-8476
▁minor	-8477
▁skype	-8478
▁amazon	-8479
▁castle	-8480
▁medium	-8481
▁alliance	-8482
▁references	-8483
里灬	-8484
金目	-8485
203	-8486
air	-8487
hal	-8488
log	-8489
▁tb	-8490
▁wc	-8491
▁zu	-8492
习习廾	-8493
anny	-8494
▁662	-8495
▁679	-8496
▁744	-8497
▁808	-8498
▁833	-8499
▁897	-8500
▁996	-8501
▁nes	-8502
▁ntt	-8503
▁psr	-8504
▁sad	-8505
▁xen	-8506
umont	-8507
▁1440	-8508
▁1442	-8509
▁1534	-8510
▁1545	-8511
▁1555	-8512
▁1674	-8513
▁brav	-8514
▁circ	-8515
▁room	-8516
▁want	-8517
▁sigma	-8518
▁years	-8519
▁matthew	-8520
▁perfect	-8521
▁support	-8522
▁beautiful	-8523
火欠	-8524
竹艮	-8525
钅土	-8526
08%	-8527
cap	-8528
lix	-8529
▁yg	-8530
乀丿虫	-8531
竹艮皿	-8532
icen	-8533
ints	-8534
lock	-8535
type	-8536
▁657	-8537
▁786	-8538
▁838	-8539
▁882	-8540
▁dsm	-8541
▁esp	-8542
▁lod	-8543
▁oak	-8544
▁sis	-8545
▁sit	-8546
▁tow	-8547
▁1276	-8548
▁1420	-8549
▁1522	-8550
▁1561	-8551
▁1702	-8552
▁1739	-8553
▁sens	-8554
▁step	-8555
▁carol	-8556
▁charl	-8557
▁elect	-8558
▁nokia	-8559
▁piece	-8560
▁prime	-8561
▁grande	-8562
▁country	-8563
▁destiny	-8564
▁primary	-8565
▁through	-8566
氵来	-8567
言斤	-8568
讠夬	-8569
32%	-8570
40%	-8571
bow	-8572
ree	-8573
yon	-8574
▁hz	-8575
▁iu	-8576
▁jd	-8577
vens	-8578
▁483	-8579
▁593	-8580
▁886	-8581
▁887	-8582
▁922	-8583
▁976	-8584
▁997	-8585
▁tru	-8586
▁utf	-8587
overy	-8588
▁1275	-8589
▁1380	-8590
▁1563	-8591
▁1566	-8592
▁1678	-8593
▁aust	-8594
▁chun	-8595
▁hope	-8596
▁audio	-8597
▁excel	-8598
▁grace	-8599
▁smile	-8600
▁scheme	-8601
▁walker	-8602
▁jacques	-8603
▁roberts	-8604
土亚	-8605
女臣	-8606
85%	-8607
93%	-8608
ben	-8609
het	-8610
usa	-8611
▁vm	-8612
𠂇子攵	-8613
idea	-8614
ilis	-8615
riel	-8616
▁22%	-8617
▁584	-8618
▁723	-8619
▁822	-8620
▁827	-8621
▁895	-8622
▁947	-8623
▁acg	-8624
▁aps	-8625
▁dsp	-8626
▁kab	-8627
▁nit	-8628
▁tee	-8629
▁vie	-8630
井一八言	-8631
火火冖水	-8632
color	-8633
point	-8634
▁1001	-8635
▁1220	-8636
▁1385	-8637
▁1529	-8638
▁1602	-8639
▁1704	-8640
▁cash	-8641
▁spin	-8642
▁ward	-8643
▁kelly	-8644
▁selec	-8645
▁factor	-8646
▁legend	-8647
▁object	-8648
▁police	-8649
▁provin	-8650
▁vision	-8651
▁display	-8652
▁premium	-8653
rh	-8654
sc	-8655
wo	-8656
石𠃓	-8657
艹弓	-8658
金不	-8659
04%	-8660
95%	-8661
mum	-8662
▁eh	-8663
▁fb	-8664
▁fp	-8665
chin	-8666
ello	-8667
▁663	-8668
▁728	-8669
▁732	-8670
▁807	-8671
▁855	-8672
▁898	-8673
▁948	-8674
▁caf	-8675
▁fur	-8676
▁jen	-8677
▁oct	-8678
▁rip	-8679
▁spy	-8680
▁tac	-8681
▁wag	-8682
乛耳攵心	-8683
▁1541	-8684
▁1591	-8685
▁1617	-8686
▁1691	-8687
▁1703	-8688
▁iris	-8689
▁nova	-8690
▁billy	-8691
▁child	-8692
▁liter	-8693
▁songs	-8694
▁heaven	-8695
▁perfor	-8696
▁spirit	-8697
mw	-8698
wr	-8699
禺頁	-8700
耒巴	-8701
07%	-8702
20%	-8703
45%	-8704
79%	-8705
86%	-8706
iri	-8707
mit	-8708
ois	-8709
pal	-8710
冂口木	-8711
立十手	-8712
cept	-8713
osis	-8714
▁052	-8715
▁23%	-8716
▁24%	-8717
▁449	-8718
▁695	-8719
▁809	-8720
▁812	-8721
▁836	-8722
▁966	-8723
▁ana	-8724
▁ein	-8725
▁lex	-8726
▁nap	-8727
▁rio	-8728
𠂊田灬弗	-8729
dford	-8730
▁1135	-8731
▁1278	-8732
▁1403	-8733
▁1412	-8734
▁1415	-8735
▁1711	-8736
▁carr	-8737
▁easy	-8738
▁less	-8739
▁need	-8740
▁ober	-8741
▁gamer	-8742
▁hydro	-8743
▁youth	-8744
▁nation	-8745
▁norman	-8746
▁environ	-8747
ification	-8748
px	-8749
讠几	-8750
00%	-8751
115	-8752
iae	-8753
rot	-8754
var	-8755
▁xf	-8756
aker	-8757
iers	-8758
ifer	-8759
▁459	-8760
▁592	-8761
▁753	-8762
▁788	-8763
▁864	-8764
▁924	-8765
▁967	-8766
▁cab	-8767
▁kra	-8768
▁kun	-8769
▁occ	-8770
▁pav	-8771
▁tha	-8772
▁1010	-8773
▁1225	-8774
▁1382	-8775
▁1404	-8776
▁1506	-8777
▁1511	-8778
▁1516	-8779
▁1535	-8780
▁1552	-8781
▁1581	-8782
▁1606	-8783
▁1743	-8784
▁born	-8785
▁duke	-8786
▁echo	-8787
▁fund	-8788
▁race	-8789
▁wang	-8790
▁local	-8791
▁ocean	-8792
ulation	-8793
▁doctor	-8794
▁margar	-8795
▁morning	-8796
▁natural	-8797
▁princess	-8798
kv	-8799
二女	-8800
钅甘	-8801
esp	-8802
rid	-8803
uta	-8804
wig	-8805
▁uf	-8806
土土阝	-8807
𠂒口阝	-8808
▁473	-8809
▁569	-8810
▁656	-8811
▁752	-8812
▁789	-8813
▁843	-8814
▁896	-8815
▁946	-8816
▁961	-8817
▁ach	-8818
▁bef	-8819
▁cbe	-8820
▁fed	-8821
▁nog	-8822
ether	-8823
ienne	-8824
▁1399	-8825
▁1508	-8826
▁1509	-8827
▁1533	-8828
▁1537	-8829
▁4800	-8830
▁eyes	-8831
▁terr	-8832
▁daily	-8833
▁trade	-8834
▁donald	-8835
▁another	-8836
▁powerpc	-8837
▁produce	-8838
丿干	-8839
冂山	-8840
毛求	-8841
111	-8842
29%	-8843
48%	-8844
rov	-8845
▁hg	-8846
火火刂	-8847
0000	-8848
asia	-8849
ians	-8850
more	-8851
▁594	-8852
▁608	-8853
▁703	-8854
▁771	-8855
▁792	-8856
▁806	-8857
▁849	-8858
▁852	-8859
▁917	-8860
▁971	-8861
▁981	-8862
▁cut	-8863
▁gre	-8864
▁pam	-8865
▁rid	-8866
▁uni	-8867
▁1170	-8868
▁1279	-8869
▁1376	-8870
▁1510	-8871
▁1695	-8872
▁1696	-8873
▁1698	-8874
▁boot	-8875
▁even	-8876
▁host	-8877
▁macb	-8878
▁camer	-8879
▁emule	-8880
▁guard	-8881
▁tommy	-8882
▁effect	-8883
▁follow	-8884
▁graham	-8885
▁distrib	-8886
▁technolog	-8887
ev	-8888
189	-8889
58%	-8890
92%	-8891
lim	-8892
oul	-8893
小丿衣	-8894
扌丸𧘇	-8895
card	-8896
case	-8897
onda	-8898
▁654	-8899
▁697	-8900
▁743	-8901
▁848	-8902
▁862	-8903
▁943	-8904
▁972	-8905
▁983	-8906
▁atv	-8907
▁ich	-8908
▁ips	-8909
▁lat	-8910
▁len	-8911
gress	-8912
lands	-8913
▁1067	-8914
▁1320	-8915
▁1388	-8916
▁1558	-8917
▁1716	-8918
▁bour	-8919
▁cool	-8920
▁ifpi	-8921
▁leop	-8922
▁raid	-8923
▁rela	-8924
▁them	-8925
▁vvvf	-8926
▁wifi	-8927
▁maker	-8928
▁terra	-8929
▁animax	-8930
▁proble	-8931
▁shinee	-8932
▁diamond	-8933
▁factory	-8934
▁myspace	-8935
▁perfume	-8936
▁memorial	-8937
jn	-8938
禾末	-8939
金衣	-8940
钅朱	-8941
17%	-8942
22%	-8943
231	-8944
50%	-8945
61%	-8946
eda	-8947
ete	-8948
uru	-8949
▁hl	-8950
▁sz	-8951
▁vc	-8952
▁yf	-8953
anni	-8954
illi	-8955
toon	-8956
▁002	-8957
▁564	-8958
▁653	-8959
▁754	-8960
▁883	-8961
▁915	-8962
▁97%	-8963
▁995	-8964
▁bis	-8965
▁cum	-8966
▁dag	-8967
▁gym	-8968
▁nag	-8969
▁pel	-8970
▁sce	-8971
uster	-8972
▁1392	-8973
▁1712	-8974
▁dota	-8975
▁epic	-8976
▁jord	-8977
▁kick	-8978
▁mong	-8979
▁netf	-8980
▁null	-8981
▁oliv	-8982
▁penn	-8983
▁coast	-8984
▁macos	-8985
▁prize	-8986
▁still	-8987
▁tiger	-8988
▁partic	-8989
▁crystal	-8990
▁intellig	-8991
▁lawrence	-8992
▁municipal	-8993
几歹	-8994
木巴	-8995
氵尺	-8996
虫乚	-8997
钅必	-8998
123	-8999
23%	-9000
27%	-9001
30%	-9002
35%	-9003
62%	-9004
put	-9005
▁hb	-9006
▁nv	-9007
▁ud	-9008
anti	-9009
bank	-9010
east	-9011
eaux	-9012
ulus	-9013
▁017	-9014
▁724	-9015
▁814	-9016
▁aks	-9017
▁lac	-9018
eland	-9019
▁1030	-9020
▁1040	-9021
▁1086	-9022
▁1557	-9023
▁ange	-9024
▁coff	-9025
▁otto	-9026
▁rows	-9027
▁books	-9028
▁creek	-9029
▁monte	-9030
▁shock	-9031
▁vogue	-9032
▁comple	-9033
▁forest	-9034
▁sainte	-9035
▁simple	-9036
▁travel	-9037
▁yellow	-9038
▁bgcolor	-9039
▁element	-9040
▁jonathan	-9041
▁electronic	-9042
zj	-9043
气川	-9044
金卯	-9045
阝鬼	-9046
雨非	-9047
202	-9048
84%	-9049
98%	-9050
ati	-9051
far	-9052
lyn	-9053
▁dg	-9054
▁ei	-9055
▁nx	-9056
▁tz	-9057
力口衣	-9058
brid	-9059
omet	-9060
oria	-9061
ythm	-9062
▁739	-9063
▁878	-9064
▁913	-9065
▁934	-9066
▁aro	-9067
▁dlc	-9068
▁gig	-9069
▁hug	-9070
▁kad	-9071
▁vas	-9072
▁⿱⿳⿻	-9073
osaur	-9074
▁1129	-9075
▁1240	-9076
▁1514	-9077
▁1548	-9078
▁1677	-9079
▁4200	-9080
▁iata	-9081
▁pent	-9082
▁phen	-9083
▁scho	-9084
▁trna	-9085
▁viet	-9086
▁price	-9087
▁stein	-9088
▁study	-9089
▁hunter	-9090
▁mechan	-9091
▁oliver	-9092
▁stream	-9093
▁movement	-9094
▁application	-9095
▁professional	-9096
rs	-9097
木比	-9098
矛𧘇	-9099
車乚	-9100
207	-9101
24%	-9102
65%	-9103
72%	-9104
aku	-9105
ala	-9106
bur	-9107
ety	-9108
ido	-9109
oka	-9110
uki	-9111
enne	-9112
ting	-9113
▁784	-9114
▁819	-9115
▁832	-9116
▁957	-9117
▁ark	-9118
▁cct	-9119
▁ctv	-9120
▁ens	-9121
▁hag	-9122
▁nel	-9123
▁ome	-9124
▁1070	-9125
▁1206	-9126
▁1234	-9127
▁1480	-9128
▁1490	-9129
▁1513	-9130
▁1515	-9131
▁1549	-9132
▁1596	-9133
▁barr	-9134
▁giov	-9135
▁give	-9136
▁half	-9137
▁roth	-9138
▁soph	-9139
▁wars	-9140
ularia	-9141
▁plant	-9142
▁stock	-9143
ination	-9144
▁agency	-9145
▁dennis	-9146
▁german	-9147
▁observ	-9148
▁aircraft	-9149
▁brothers	-9150
▁economic	-9151
▁president	-9152
mc	-9153
wd	-9154
户非	-9155
艹且	-9156
16%	-9157
204	-9158
28%	-9159
38%	-9160
39%	-9161
42%	-9162
57%	-9163
82%	-9164
pus	-9165
ser	-9166
uis	-9167
wal	-9168
zza	-9169
▁bw	-9170
▁tn	-9171
亠矛𧘇	-9172
alle	-9173
bson	-9174
izon	-9175
olla	-9176
ount	-9177
vais	-9178
▁463	-9179
▁678	-9180
▁831	-9181
▁837	-9182
▁dod	-9183
▁riv	-9184
▁won	-9185
一中冖石	-9186
sters	-9187
▁1340	-9188
▁1470	-9189
▁bart	-9190
▁clay	-9191
▁josh	-9192
▁appro	-9193
▁canad	-9194
▁gmail	-9195
▁staff	-9196
▁these	-9197
▁value	-9198
▁device	-9199
▁flight	-9200
▁identi	-9201
▁justice	-9202
▁rowspan	-9203
▁pictures	-9204
▁robinson	-9205
▁environment	-9206
uh	-9207
艹果	-9208
18%	-9209
60%	-9210
68%	-9211
89%	-9212
dio	-9213
iza	-9214
mir	-9215
一八糸	-9216
rier	-9217
▁769	-9218
▁916	-9219
▁928	-9220
▁949	-9221
▁977	-9222
▁atc	-9223
▁hyp	-9224
▁jin	-9225
▁lon	-9226
▁mud	-9227
▁nts	-9228
▁pga	-9229
▁pir	-9230
▁rig	-9231
▁saw	-9232
▁tec	-9233
kreis	-9234
▁1139	-9235
▁1375	-9236
▁1390	-9237
▁1402	-9238
▁1532	-9239
▁1663	-9240
▁1686	-9241
▁ferr	-9242
▁heat	-9243
▁hend	-9244
▁hunt	-9245
▁merc	-9246
▁nint	-9247
▁quar	-9248
▁rate	-9249
▁cover	-9250
▁grant	-9251
▁param	-9252
▁integr	-9253
▁gallery	-9254
▁broadcast	-9255
▁technologies	-9256
大車	-9257
目目	-9258
竹肅	-9259
117	-9260
124	-9261
55%	-9262
71%	-9263
abe	-9264
ahl	-9265
ige	-9266
ulf	-9267
山大車	-9268
氵𠃓火	-9269
anna	-9270
aria	-9271
bber	-9272
king	-9273
ring	-9274
sten	-9275
▁003	-9276
▁631	-9277
▁671	-9278
▁709	-9279
▁868	-9280
▁bmg	-9281
▁bmp	-9282
▁jes	-9283
▁lem	-9284
▁lux	-9285
▁nic	-9286
▁snh	-9287
▁wwf	-9288
opter	-9289
▁1330	-9290
▁1381	-9291
▁1445	-9292
▁1693	-9293
▁alph	-9294
▁buck	-9295
▁idol	-9296
▁lane	-9297
▁mala	-9298
▁sent	-9299
▁user	-9300
▁yang	-9301
▁beast	-9302
▁faith	-9303
▁nexus	-9304
▁thing	-9305
▁justin	-9306
▁rights	-9307
▁deutsch	-9308
▁macbook	-9309
▁netflix	-9310
▁private	-9311
▁solaris	-9312
▁material	-9313
▁thompson	-9314
▁australia	-9315
▁universit	-9316
▁communications	-9317
女以	-9318
戊臣	-9319
王页	-9320
129	-9321
135	-9322
63%	-9323
87%	-9324
asi	-9325
det	-9326
erg	-9327
lag	-9328
uan	-9329
ulu	-9330
▁lf	-9331
▁oe	-9332
▁ug	-9333
口止皮	-9334
ards	-9335
dium	-9336
ilia	-9337
ized	-9338
lear	-9339
▁21%	-9340
▁673	-9341
▁699	-9342
▁764	-9343
▁783	-9344
▁968	-9345
▁989	-9346
▁gap	-9347
▁lay	-9348
▁mcd	-9349
▁tog	-9350
icago	-9351
▁1060	-9352
▁1140	-9353
▁1406	-9354
▁1528	-9355
▁1597	-9356
▁1694	-9357
▁bird	-9358
▁cosm	-9359
▁earl	-9360
▁exec	-9361
▁rosa	-9362
▁ship	-9363
action	-9364
▁chung	-9365
▁conso	-9366
▁pedro	-9367
▁estate	-9368
▁flower	-9369
▁moment	-9370
▁oracle	-9371
▁symbian	-9372
▁analysis	-9373
▁medicine	-9374
▁federation	-9375
口黑	-9376
山山	-9377
广阝	-9378
日火	-9379
白木	-9380
礻乃	-9381
艹虫	-9382
金本	-9383
128	-9384
150	-9385
19%	-9386
205	-9387
36%	-9388
53%	-9389
54%	-9390
64%	-9391
66%	-9392
73%	-9393
74%	-9394
76%	-9395
77%	-9396
999	-9397
aha	-9398
idi	-9399
kov	-9400
nik	-9401
omi	-9402
▁rv	-9403
目八缶	-9404
▁26%	-9405
▁706	-9406
▁794	-9407
▁909	-9408
▁932	-9409
▁998	-9410
▁bap	-9411
▁dei	-9412
▁eif	-9413
▁fia	-9414
▁jal	-9415
▁kay	-9416
▁lav	-9417
▁mey	-9418
▁ran	-9419
▁ree	-9420
▁seg	-9421
▁tgv	-9422
▁why	-9423
▁yak	-9424
丷八白木	-9425
𠂊田灬身	-9426
itary	-9427
ledge	-9428
uchus	-9429
▁1214	-9430
▁1236	-9431
▁1409	-9432
▁1487	-9433
▁1554	-9434
▁1706	-9435
▁2900	-9436
▁astr	-9437
▁jazz	-9438
▁nato	-9439
▁rest	-9440
▁sohc	-9441
▁vict	-9442
motion	-9443
▁bobby	-9444
▁crazy	-9445
▁fight	-9446
▁jacob	-9447
▁jerry	-9448
▁swing	-9449
▁utric	-9450
▁athlon	-9451
▁cinema	-9452
▁gangan	-9453
▁hybrid	-9454
▁legacy	-9455
▁origin	-9456
▁evangel	-9457
▁monster	-9458
▁stewart	-9459
▁airlines	-9460
▁campbell	-9461
▁greatest	-9462
▁christmas	-9463
▁washington	-9464
ew	-9465
扌垂	-9466
白匕	-9467
12%	-9468
21%	-9469
34%	-9470
56%	-9471
69%	-9472
97%	-9473
chy	-9474
pes	-9475
ski	-9476
code	-9477
nell	-9478
▁070	-9479
▁28%	-9480
▁462	-9481
▁891	-9482
▁956	-9483
▁acp	-9484
▁eye	-9485
▁ipa	-9486
▁rer	-9487
▁upd	-9488
▁wav	-9489
onica	-9490
▁1413	-9491
▁1502	-9492
▁1531	-9493
▁1539	-9494
▁1594	-9495
▁3400	-9496
▁coup	-9497
▁feel	-9498
▁nano	-9499
▁quin	-9500
▁⿰⿱⿱⿻	-9501
▁paper	-9502
▁advent	-9503
▁cooper	-9504
▁strate	-9505
▁without	-9506
▁platform	-9507
▁sciences	-9508
▁transform	-9509
▁productions	-9510
▁utricularia	-9511
hy	-9512
yt	-9513
二儿	-9514
土艮	-9515
目冘	-9516
金必	-9517
10%	-9518
360	-9519
41%	-9520
51%	-9521
imi	-9522
owa	-9523
▁gf	-9524
乡隹土	-9525
arts	-9526
onne	-9527
▁595	-9528
▁984	-9529
▁bod	-9530
▁hus	-9531
▁nds	-9532
▁nem	-9533
▁pom	-9534
▁rif	-9535
illon	-9536
iting	-9537
shire	-9538
▁1138	-9539
▁1421	-9540
▁1439	-9541
▁1493	-9542
▁1512	-9543
▁bent	-9544
▁fine	-9545
▁lons	-9546
▁ming	-9547
▁shot	-9548
▁soho	-9549
▁visa	-9550
▁xper	-9551
enburg	-9552
▁fleet	-9553
▁certif	-9554
▁marcus	-9555
titution	-9556
struction	-9557
▁creative	-9558
▁graphics	-9559
▁learning	-9560
▁nintendo	-9561
aa	-9562
pd	-9563
王几	-9564
竹戋	-9565
70%	-9566
78%	-9567
80%	-9568
88%	-9569
fun	-9570
hai	-9571
pos	-9572
▁qf	-9573
▁rw	-9574
▁vh	-9575
夫夫车	-9576
目八阝	-9577
iler	-9578
olia	-9579
▁44%	-9580
▁776	-9581
▁cfm	-9582
▁clo	-9583
▁kha	-9584
▁ktv	-9585
▁mee	-9586
▁rav	-9587
▁rus	-9588
▁sip	-9589
目目隹又	-9590
ishop	-9591
onkey	-9592
▁1252	-9593
▁1407	-9594
▁1504	-9595
▁1543	-9596
▁4300	-9597
▁5200	-9598
▁brit	-9599
▁joey	-9600
▁para	-9601
▁ping	-9602
▁rrna	-9603
▁salv	-9604
▁scri	-9605
▁used	-9606
▁18000	-9607
▁andre	-9608
▁malay	-9609
▁remix	-9610
▁smack	-9611
▁angela	-9612
▁before	-9613
▁french	-9614
▁ground	-9615
▁steven	-9616
▁chicago	-9617
▁ericsson	-9618
▁hamilton	-9619
艹必	-9620
47%	-9621
bab	-9622
cch	-9623
dez	-9624
rap	-9625
rus	-9626
zel	-9627
▁lb	-9628
▁rl	-9629
口口页	-9630
band	-9631
igne	-9632
life	-9633
peti	-9634
pher	-9635
tile	-9636
▁016	-9637
▁19%	-9638
▁851	-9639
▁859	-9640
▁ata	-9641
▁bam	-9642
▁dro	-9643
▁etc	-9644
▁gaz	-9645
▁jew	-9646
▁try	-9647
▁tum	-9648
▁xxx	-9649
丨丨比几	-9650
▁1116	-9651
▁1227	-9652
▁1394	-9653
▁1424	-9654
▁1494	-9655
▁1551	-9656
▁1671	-9657
▁1708	-9658
▁2024	-9659
▁3100	-9660
▁caen	-9661
▁figh	-9662
▁mort	-9663
▁plas	-9664
▁proc	-9665
▁prom	-9666
▁pure	-9667
▁repr	-9668
▁trax	-9669
▁trea	-9670
▁wish	-9671
▁belie	-9672
▁chief	-9673
▁cyber	-9674
▁extra	-9675
▁hills	-9676
▁holly	-9677
▁ralph	-9678
▁solid	-9679
▁fortran	-9680
▁gabriel	-9681
ek	-9682
▁毌	-9683
月甲	-9684
06%	-9685
46%	-9686
59%	-9687
pen	-9688
勹巳刂	-9689
虫虫皿	-9690
isch	-9691
last	-9692
orph	-9693
utes	-9694
▁010	-9695
▁051	-9696
▁060	-9697
▁672	-9698
▁779	-9699
▁782	-9700
▁834	-9701
▁aeg	-9702
▁bog	-9703
▁ces	-9704
▁cox	-9705
▁own	-9706
▁pep	-9707
▁pod	-9708
▁rou	-9709
▁sed	-9710
▁sou	-9711
eller	-9712
▁1265	-9713
▁1448	-9714
▁1465	-9715
▁1538	-9716
▁arab	-9717
▁bear	-9718
▁both	-9719
▁calc	-9720
▁clos	-9721
▁peri	-9722
▁surv	-9723
▁wasp	-9724
亠丷厂彡頁	-9725
▁atlan	-9726
▁berry	-9727
▁cambr	-9728
▁joint	-9729
▁later	-9730
▁terry	-9731
▁theod	-9732
▁empire	-9733
▁jordan	-9734
▁politi	-9735
▁include	-9736
▁princip	-9737
▁running	-9738
▁victory	-9739
▁margaret	-9740
▁northern	-9741
▁reaction	-9742
▁performan	-9743
▁australian	-9744
▁industrial	-9745
▁architecture	-9746
冫牙	-9747
干干	-9748
虫丘	-9749
09%	-9750
120	-9751
151	-9752
262	-9753
gel	-9754
iao	-9755
ici	-9756
▁dw	-9757
▁gg	-9758
▁nb	-9759
▁tk	-9760
aman	-9761
ango	-9762
feld	-9763
ists	-9764
link	-9765
load	-9766
orum	-9767
ween	-9768
▁32%	-9769
▁778	-9770
▁797	-9771
▁844	-9772
▁892	-9773
▁941	-9774
▁942	-9775
▁ced	-9776
▁ecc	-9777
▁emo	-9778
▁fuj	-9779
▁isp	-9780
▁rib	-9781
▁sli	-9782
▁ups	-9783
▁veh	-9784
糸言糸子	-9785
inter	-9786
liner	-9787
▁1190	-9788
▁1253	-9789
▁1495	-9790
▁carp	-9791
▁dawn	-9792
▁elle	-9793
▁horn	-9794
▁keep	-9795
▁mack	-9796
▁nerv	-9797
▁node	-9798
▁pick	-9799
▁teen	-9800
bourne	-9801
▁11000	-9802
▁april	-9803
▁basil	-9804
▁cctld	-9805
▁ernst	-9806
▁films	-9807
▁forum	-9808
▁mysql	-9809
▁oscar	-9810
▁sever	-9811
▁ultim	-9812
▁vocal	-9813
▁woman	-9814
▁canton	-9815
▁fusion	-9816
▁region	-9817
▁culture	-9818
▁kingdom	-9819
▁heinrich	-9820
▁character	-9821
▁everything	-9822
月井	-9823
艹目	-9824
艹豆	-9825
195	-9826
90%	-9827
ied	-9828
jet	-9829
pad	-9830
uil	-9831
▁ov	-9832
▁pn	-9833
▁wp	-9834
车斤土	-9835
atar	-9836
dies	-9837
tima	-9838
▁013	-9839
▁020	-9840
▁696	-9841
▁872	-9842
▁aar	-9843
▁amu	-9844
▁bah	-9845
▁ole	-9846
▁sab	-9847
eless	-9848
layer	-9849
▁1219	-9850
▁1246	-9851
▁1505	-9852
▁chal	-9853
▁gonz	-9854
▁gray	-9855
▁tool	-9856
▁atlas	-9857
▁baker	-9858
▁early	-9859
▁india	-9860
▁suite	-9861
▁today	-9862
▁myster	-9863
▁please	-9864
▁sevent	-9865
▁extreme	-9866
▁genesis	-9867
▁interface	-9868
▁smackdown	-9869
ef	-9870
▁疋	-9871
口人	-9872
王龙	-9873
疒山	-9874
250	-9875
26%	-9876
ffe	-9877
rah	-9878
▁bn	-9879
▁qr	-9880
厶口阝	-9881
____	-9882
iles	-9883
mund	-9884
side	-9885
▁040	-9886
▁080	-9887
▁43%	-9888
▁674	-9889
▁841	-9890
▁952	-9891
▁ade	-9892
▁ald	-9893
▁aux	-9894
▁fav	-9895
▁udp	-9896
人人龰心	-9897
owski	-9898
▁1142	-9899
▁1195	-9900
▁1204	-9901
▁1215	-9902
▁1216	-9903
▁1266	-9904
▁1356	-9905
▁1389	-9906
▁1476	-9907
▁1544	-9908
▁arms	-9909
▁care	-9910
▁nike	-9911
▁ntfs	-9912
▁requ	-9913
▁sanc	-9914
▁shel	-9915
▁adams	-9916
▁alter	-9917
▁brain	-9918
▁chand	-9919
▁della	-9920
▁karen	-9921
▁larry	-9922
▁suica	-9923
▁toulo	-9924
▁argent	-9925
▁differ	-9926
▁flying	-9927
▁safari	-9928
▁borough	-9929
▁conserv	-9930
▁training	-9931
▁convention	-9932
亻巨	-9933
瓦千	-9934
白巴	-9935
226	-9936
235	-9937
iac	-9938
uve	-9939
▁xl	-9940
cial	-9941
eman	-9942
fire	-9943
ichi	-9944
iden	-9945
▁38%	-9946
▁664	-9947
▁665	-9948
▁694	-9949
▁857	-9950
▁869	-9951
▁879	-9952
▁944	-9953
▁dbc	-9954
▁dio	-9955
▁ets	-9956
▁eve	-9957
▁jur	-9958
▁lap	-9959
▁ppm	-9960
▁sco	-9961
lipse	-9962
▁1042	-9963
▁1217	-9964
▁1295	-9965
▁1410	-9966
▁1428	-9967
▁cafe	-9968
▁cost	-9969
▁gaud	-9970
▁hash	-9971
▁jenn	-9972
▁lamb	-9973
▁mers	-9974
▁prix	-9975
▁scor	-9976
▁tong	-9977
▁chain	-9978
▁colon	-9979
▁domin	-9980
▁griff	-9981
▁johan	-9982
▁maxim	-9983
▁shift	-9984
▁sugar	-9985
▁symph	-9986
formula	-9987
itation	-9988
▁chiang	-9989
▁ernest	-9990
▁lamigo	-9991
▁morgan	-9992
▁vietnam	-9993
▁discovery	-9994
▁landkreis	-9995
▁promotion	-9996
▁organization	-9997
ax	-9998
vm	-9999
yu	-10000
口羊	-10001
127	-10002
134	-10003
83%	-10004
94%	-10005
ams	-10006
ced	-10007
hem	-10008
ket	-10009
uar	-10010
uin	-10011
uka	-10012
via	-10013
▁aq	-10014
1911	-10015
eror	-10016
iven	-10017
tium	-10018
wiki	-10019
▁053	-10020
▁42%	-10021
▁858	-10022
▁861	-10023
▁bib	-10024
▁cec	-10025
▁hub	-10026
▁pho	-10027
▁sse	-10028
ances	-10029
tains	-10030
▁1115	-10031
▁1121	-10032
▁1126	-10033
▁1137	-10034
▁1189	-10035
▁1285	-10036
▁1429	-10037
▁4700	-10038
▁aero	-10039
▁cmos	-10040
▁elli	-10041
▁font	-10042
▁rise	-10043
ession	-10044
roller	-10045
▁alber	-10046
▁autom	-10047
▁barry	-10048
▁evans	-10049
▁lumia	-10050
▁macro	-10051
▁synth	-10052
▁carter	-10053
▁choice	-10054
▁circle	-10055
▁hudson	-10056
▁letter	-10057
▁novell	-10058
▁philos	-10059
▁senior	-10060
▁xperia	-10061
▁bigbang	-10062
▁palazzo	-10063
▁raymond	-10064
▁stanley	-10065
▁beauvais	-10066
▁giovanni	-10067
口我	-10068
口瓜	-10069
米巴	-10070
175	-10071
43%	-10072
49%	-10073
oko	-10074
rat	-10075
▁kj	-10076
儿丨金	-10077
bras	-10078
icle	-10079
look	-10080
news	-10081
uary	-10082
▁41%	-10083
▁799	-10084
▁804	-10085
▁893	-10086
▁963	-10087
▁abu	-10088
▁fen	-10089
▁ple	-10090
▁tau	-10091
▁ttc	-10092
▁vik	-10093
一厶土阝	-10094
▁1085	-10095
▁1141	-10096
▁1211	-10097
▁1328	-10098
▁1377	-10099
▁1418	-10100
▁1433	-10101
▁benn	-10102
▁bull	-10103
▁gent	-10104
▁grey	-10105
▁icao	-10106
▁ivan	-10107
▁nand	-10108
▁sams	-10109
▁sang	-10110
▁vill	-10111
▁40000	-10112
▁chall	-10113
▁opens	-10114
▁sandy	-10115
▁beauty	-10116
▁financ	-10117
▁repres	-10118
▁resour	-10119
▁stefan	-10120
▁charlie	-10121
▁georges	-10122
▁kenneth	-10123
▁million	-10124
▁annivers	-10125
▁toulouse	-10126
▁orchestra	-10127
山鬼	-10128
火屯	-10129
辶甫	-10130
44%	-10131
ims	-10132
lap	-10133
oft	-10134
umo	-10135
▁ey	-10136
▁sx	-10137
士示隶	-10138
ceae	-10139
crip	-10140
each	-10141
irus	-10142
vest	-10143
▁854	-10144
▁899	-10145
▁959	-10146
▁agm	-10147
▁csm	-10148
▁dsi	-10149
▁dvb	-10150
▁eld	-10151
▁jak	-10152
▁kos	-10153
▁ngo	-10154
▁too	-10155
▁wes	-10156
▁woo	-10157
白丿十阝	-10158
ality	-10159
ovich	-10160
uther	-10161
▁1034	-10162
▁1221	-10163
▁1270	-10164
▁1374	-10165
▁1425	-10166
▁1438	-10167
▁1471	-10168
▁1498	-10169
▁1518	-10170
▁avbw	-10171
▁dell	-10172
▁flag	-10173
▁hdmi	-10174
▁idea	-10175
▁luis	-10176
▁mile	-10177
▁much	-10178
▁noth	-10179
▁sean	-10180
▁stem	-10181
▁abdul	-10182
▁blues	-10183
▁emacs	-10184
▁shang	-10185
▁swift	-10186
▁yours	-10187
▁knight	-10188
▁normal	-10189
▁protoc	-10190
▁ronald	-10191
▁continu	-10192
▁eclipse	-10193
▁freedom	-10194
▁liberty	-10195
▁manager	-10196
▁partners	-10197
▁professor	-10198
▁openoffice	-10199
口甘	-10200
爿未	-10201
王己	-10202
233	-10203
249	-10204
81%	-10205
mid	-10206
ppm	-10207
ras	-10208
rim	-10209
rup	-10210
uli	-10211
ador	-10212
anus	-10213
ffer	-10214
fish	-10215
ieux	-10216
issa	-10217
late	-10218
lich	-10219
utch	-10220
uten	-10221
▁591	-10222
▁793	-10223
▁856	-10224
▁aja	-10225
▁duc	-10226
▁gol	-10227
▁itu	-10228
▁jst	-10229
▁kel	-10230
▁pda	-10231
▁wrc	-10232
▁zen	-10233
▁zim	-10234
▁1099	-10235
▁1111	-10236
▁1213	-10237
▁1287	-10238
▁1387	-10239
▁1408	-10240
▁1455	-10241
▁1496	-10242
▁1507	-10243
▁4400	-10244
▁bott	-10245
▁ella	-10246
▁find	-10247
▁piet	-10248
▁resp	-10249
▁rush	-10250
ership	-10251
▁chuck	-10252
▁kinki	-10253
▁logic	-10254
▁perry	-10255
▁varia	-10256
torrent	-10257
▁marine	-10258
▁between	-10259
▁century	-10260
▁england	-10261
▁islands	-10262
▁cambridge	-10263
▁structure	-10264
▁anniversary	-10265
gp	-10266
犭九	-10267
竹肃	-10268
钅巨	-10269
136	-10270
460	-10271
etf	-10272
khz	-10273
nas	-10274
▁rk	-10275
▁tx	-10276
▁zf	-10277
一丂瓜	-10278
木斤白	-10279
ante	-10280
iola	-10281
ocus	-10282
opus	-10283
▁867	-10284
▁894	-10285
▁aac	-10286
▁dup	-10287
▁flu	-10288
▁gmb	-10289
▁hed	-10290
▁mca	-10291
▁mck	-10292
▁pid	-10293
▁rgb	-10294
▁sos	-10295
▁tvn	-10296
丰丰豆阝	-10297
ingen	-10298
▁1073	-10299
▁1185	-10300
▁1192	-10301
▁1209	-10302
▁1210	-10303
▁1241	-10304
▁1274	-10305
▁1449	-10306
▁cele	-10307
▁clin	-10308
▁ebay	-10309
▁epis	-10310
▁fell	-10311
▁gust	-10312
▁hang	-10313
▁kirk	-10314
▁must	-10315
▁nine	-10316
▁pret	-10317
▁viut	-10318
▁chrom	-10319
▁infor	-10320
▁shine	-10321
▁steel	-10322
▁coffee	-10323
▁motion	-10324
▁nathan	-10325
▁rhythm	-10326
▁temple	-10327
▁console	-10328
▁theater	-10329
▁animation	-10330
▁performance	-10331
vd	-10332
一又	-10333
人工	-10334
田疋	-10335
讠工	-10336
307	-10337
etz	-10338
ieu	-10339
isy	-10340
oca	-10341
sky	-10342
uen	-10343
▁hh	-10344
▁lz	-10345
▁ui	-10346
▁wn	-10347
▁xd	-10348
户攵木	-10349
ants	-10350
coln	-10351
idas	-10352
mour	-10353
shop	-10354
ying	-10355
▁012	-10356
▁030	-10357
▁734	-10358
▁992	-10359
▁amc	-10360
▁ate	-10361
▁bmt	-10362
▁cvt	-10363
▁dft	-10364
▁gtk	-10365
▁jis	-10366
▁maz	-10367
▁mpa	-10368
▁phi	-10369
▁psi	-10370
▁rum	-10371
▁sdn	-10372
▁tat	-10373
▁tir	-10374
▁tls	-10375
▁tok	-10376
十冖田疋	-10377
ength	-10378
oshop	-10379
▁1020	-10380
▁1113	-10381
▁1120	-10382
▁1122	-10383
▁1373	-10384
▁1391	-10385
▁away	-10386
▁flex	-10387
▁gree	-10388
▁lite	-10389
▁ratp	-10390
▁tank	-10391
▁twin	-10392
hedral	-10393
stream	-10394
▁artic	-10395
▁craig	-10396
▁keith	-10397
▁macau	-10398
▁titan	-10399
▁dreams	-10400
▁manuel	-10401
▁metrop	-10402
▁murray	-10403
▁pocket	-10404
▁provid	-10405
▁shadow	-10406
▁captain	-10407
▁lincoln	-10408
▁outlook	-10409
▁rainbow	-10410
▁stevens	-10411
▁tonight	-10412
▁congress	-10413
▁johannes	-10414
▁ultimate	-10415
▁charlotte	-10416
▁communication	-10417
钅戉	-10418
阝食	-10419
118	-10420
91%	-10421
gun	-10422
inc	-10423
nar	-10424
rac	-10425
▁iq	-10426
▁xt	-10427
凵丨又	-10428
幺幺子	-10429
立十纟	-10430
fort	-10431
imir	-10432
iner	-10433
itis	-10434
orus	-10435
tick	-10436
▁005	-10437
▁054	-10438
▁066	-10439
▁52%	-10440
▁795	-10441
▁853	-10442
▁958	-10443
▁amy	-10444
▁aub	-10445
▁duo	-10446
▁eco	-10447
▁elf	-10448
▁ftp	-10449
▁gav	-10450
▁hil	-10451
▁kee	-10452
▁mlb	-10453
▁sib	-10454
▁tpp	-10455
▁wei	-10456
cloud	-10457
istol	-10458
pping	-10459
▁1016	-10460
▁1019	-10461
▁1079	-10462
▁1160	-10463
▁1259	-10464
▁1271	-10465
▁1364	-10466
▁ansi	-10467
▁chas	-10468
▁chat	-10469
▁dial	-10470
▁emba	-10471
▁mond	-10472
▁peng	-10473
▁stay	-10474
utions	-10475
▁crown	-10476
▁gross	-10477
▁kings	-10478
▁laura	-10479
▁liner	-10480
▁oxford	-10481
▁strong	-10482
▁target	-10483
▁warren	-10484
▁concept	-10485
▁gaudens	-10486
▁georgia	-10487
▁samsung	-10488
▁canadian	-10489
▁military	-10490
▁paradise	-10491
▁rockstar	-10492
▁photoshop	-10493
▁investment	-10494
vy	-10495
豕豕	-10496
金乙	-10497
31%	-10498
jar	-10499
mel	-10500
orf	-10501
ppe	-10502
vet	-10503
乀丿月	-10504
aris	-10505
enge	-10506
gins	-10507
othe	-10508
roph	-10509
umer	-10510
▁34%	-10511
▁46%	-10512
▁693	-10513
▁931	-10514
▁dak	-10515
▁dot	-10516
▁dum	-10517
▁eso	-10518
▁gue	-10519
▁lok	-10520
▁sep	-10521
▁wer	-10522
ische	-10523
stadt	-10524
▁0001	-10525
▁1018	-10526
▁1037	-10527
▁1059	-10528
▁1166	-10529
▁1224	-10530
▁1333	-10531
▁1467	-10532
▁1485	-10533
▁bond	-10534
▁cnbc	-10535
▁igbt	-10536
▁luna	-10537
▁neil	-10538
▁omni	-10539
▁such	-10540
▁temp	-10541
▁beats	-10542
▁creat	-10543
▁intro	-10544
▁manga	-10545
▁claude	-10546
▁course	-10547
▁disney	-10548
▁panzer	-10549
▁simula	-10550
▁species	-10551
▁complete	-10552
▁frontier	-10553
▁together	-10554
▁represent	-10555
fm	-10556
扌东	-10557
牛毛	-10558
108	-10559
220	-10560
aly	-10561
dia	-10562
dit	-10563
enu	-10564
kel	-10565
oga	-10566
rio	-10567
▁ao	-10568
夫夫車	-10569
aldo	-10570
base	-10571
omon	-10572
onna	-10573
orpg	-10574
quin	-10575
▁025	-10576
▁47%	-10577
▁67%	-10578
▁889	-10579
▁aid	-10580
▁bai	-10581
▁cre	-10582
▁gad	-10583
▁gto	-10584
▁wto	-10585
丿𠃌攵贝	-10586
士冖一木	-10587
enson	-10588
▁1044	-10589
▁1049	-10590
▁1069	-10591
▁1128	-10592
▁1146	-10593
▁1147	-10594
▁1167	-10595
▁1182	-10596
▁1226	-10597
▁1256	-10598
▁1360	-10599
▁1366	-10600
▁1398	-10601
▁1405	-10602
▁4600	-10603
▁5800	-10604
▁adhd	-10605
▁citi	-10606
▁cord	-10607
▁duck	-10608
▁flat	-10609
▁holy	-10610
▁insp	-10611
▁mine	-10612
▁mono	-10613
▁near	-10614
▁past	-10615
▁spar	-10616
cephal	-10617
ternal	-10618
▁50000	-10619
▁corps	-10620
▁sense	-10621
▁always	-10622
▁democr	-10623
▁guitar	-10624
▁safety	-10625
▁stuart	-10626
▁chamber	-10627
▁competi	-10628
▁nuclear	-10629
▁publish	-10630
▁railway	-10631
▁scienti	-10632
▁trinity	-10633
▁vincent	-10634
▁document	-10635
▁province	-10636
土龙	-10637
纟甘	-10638
虍乎	-10639
虫皿	-10640
衤夬	-10641
140	-10642
dun	-10643
mod	-10644
phi	-10645
▁vk	-10646
彑𧰨土	-10647
anne	-10648
dale	-10649
enda	-10650
rell	-10651
▁873	-10652
▁954	-10653
▁dad	-10654
▁daw	-10655
▁fps	-10656
▁kop	-10657
▁llc	-10658
▁mcg	-10659
▁mev	-10660
▁mrs	-10661
▁pcr	-10662
▁pic	-10663
▁ssd	-10664
▁uri	-10665
▁vul	-10666
ample	-10667
ansas	-10668
ified	-10669
inary	-10670
▁1033	-10671
▁1103	-10672
▁1123	-10673
▁1155	-10674
▁1488	-10675
▁cald	-10676
▁gaon	-10677
▁gmbh	-10678
▁kath	-10679
▁ohio	-10680
▁vlad	-10681
▁wine	-10682
ipedia	-10683
▁datab	-10684
▁virus	-10685
ability	-10686
▁bishop	-10687
▁columb	-10688
▁domain	-10689
▁higher	-10690
▁linear	-10691
▁lollip	-10692
▁parker	-10693
▁foreign	-10694
▁hermann	-10695
▁jessica	-10696
▁cathedral	-10697
hm	-10698
mf	-10699
su	-10700
几止	-10701
氵龙	-10702
纟寸	-10703
言山	-10704
005	-10705
137	-10706
216	-10707
cop	-10708
gir	-10709
hat	-10710
loy	-10711
oly	-10712
rum	-10713
tar	-10714
uge	-10715
zip	-10716
丷夫言	-10717
人人且	-10718
dram	-10719
etch	-10720
ives	-10721
mbps	-10722
tius	-10723
urst	-10724
▁015	-10725
▁953	-10726
▁96%	-10727
▁964	-10728
▁974	-10729
▁994	-10730
▁csi	-10731
▁ddg	-10732
▁dee	-10733
▁fad	-10734
▁fsa	-10735
▁geo	-10736
▁gis	-10737
▁gtp	-10738
▁lag	-10739
▁nab	-10740
▁rag	-10741
▁raj	-10742
▁syd	-10743
▁vil	-10744
▁wow	-10745
illes	-10746
otype	-10747
unier	-10748
▁1002	-10749
▁1054	-10750
▁1101	-10751
▁1281	-10752
▁1283	-10753
▁1290	-10754
▁1351	-10755
▁1481	-10756
▁1482	-10757
▁1501	-10758
▁1503	-10759
▁beck	-10760
▁chip	-10761
▁dram	-10762
▁drum	-10763
▁grav	-10764
▁hous	-10765
▁ietf	-10766
▁mick	-10767
▁move	-10768
▁nana	-10769
▁rabb	-10770
▁rice	-10771
▁vick	-10772
▁alive	-10773
▁aster	-10774
▁azure	-10775
▁close	-10776
▁colum	-10777
▁licen	-10778
▁nancy	-10779
▁sunsh	-10780
▁third	-10781
▁wanna	-10782
▁assist	-10783
▁circus	-10784
▁docomo	-10785
▁mmorpg	-10786
▁update	-10787
▁vector	-10788
▁episode	-10789
▁maurice	-10790
▁message	-10791
▁showcase	-10792
▁authority	-10793
tb	-10794
匚口	-10795
龙石	-10796
197	-10797
238	-10798
aru	-10799
bbs	-10800
had	-10801
tek	-10802
zig	-10803
▁__	-10804
▁mj	-10805
▁pz	-10806
一八皮	-10807
冂丶阝	-10808
龶月见	-10809
cale	-10810
enet	-10811
esse	-10812
idos	-10813
lier	-10814
tron	-10815
wich	-10816
▁27%	-10817
▁31%	-10818
▁36%	-10819
▁72%	-10820
▁773	-10821
▁88%	-10822
▁bgm	-10823
▁cbc	-10824
▁cul	-10825
▁fai	-10826
▁hog	-10827
▁nos	-10828
▁oil	-10829
▁orb	-10830
▁pcm	-10831
▁phd	-10832
▁rup	-10833
▁sbl	-10834
▁suv	-10835
▁wit	-10836
▁yui	-10837
▁zam	-10838
丷干丸虫	-10839
istic	-10840
▁1095	-10841
▁1153	-10842
▁1169	-10843
▁1174	-10844
▁1218	-10845
▁1255	-10846
▁1258	-10847
▁1346	-10848
▁1357	-10849
▁1474	-10850
▁1477	-10851
▁aiko	-10852
▁bund	-10853
▁hung	-10854
▁isab	-10855
▁kamp	-10856
▁rule	-10857
▁sier	-10858
▁anime	-10859
▁belle	-10860
▁betty	-10861
▁birth	-10862
▁helen	-10863
▁lotus	-10864
▁lovel	-10865
▁range	-10866
▁sonic	-10867
▁stern	-10868
borough	-10869
▁bureau	-10870
▁filter	-10871
▁orient	-10872
▁phenom	-10873
▁rogers	-10874
▁signal	-10875
▁someth	-10876
▁african	-10877
▁eastern	-10878
▁herbert	-10879
▁sunrise	-10880
▁allmusic	-10881
▁progress	-10882
▁selection	-10883
▁independent	-10884
xa	-10885
yg	-10886
彳来	-10887
fic	-10888
hib	-10889
rik	-10890
sty	-10891
▁ih	-10892
▁iz	-10893
▁jb	-10894
几木刂	-10895
ardo	-10896
asis	-10897
flow	-10898
lash	-10899
mers	-10900
step	-10901
▁006	-10902
▁37%	-10903
▁774	-10904
▁906	-10905
▁92%	-10906
▁991	-10907
▁alo	-10908
▁aol	-10909
▁cub	-10910
▁dab	-10911
▁dub	-10912
▁frs	-10913
▁gcc	-10914
▁iau	-10915
▁kot	-10916
▁lep	-10917
▁rpm	-10918
▁tip	-10919
utive	-10920
water	-10921
▁1006	-10922
▁1008	-10923
▁1065	-10924
▁1072	-10925
▁1094	-10926
▁1131	-10927
▁1162	-10928
▁1365	-10929
▁1393	-10930
▁1468	-10931
▁1497	-10932
▁danc	-10933
▁enix	-10934
▁expo	-10935
▁kiha	-10936
▁lily	-10937
▁mans	-10938
▁meet	-10939
▁peak	-10940
▁task	-10941
▁cloud	-10942
▁eagle	-10943
▁shall	-10944
▁shoot	-10945
▁title	-10946
▁venus	-10947
▁viutv	-10948
▁would	-10949
▁africa	-10950
▁anders	-10951
▁assemb	-10952
▁centro	-10953
▁ludwig	-10954
▁survey	-10955
▁account	-10956
▁believe	-10957
▁disease	-10958
▁federal	-10959
▁fighter	-10960
▁release	-10961
▁franklin	-10962
▁infinite	-10963
▁shanghai	-10964
▁transfer	-10965
▁commander	-10966
▁financial	-10967
▁objective	-10968
艹长	-10969
165	-10970
206	-10971
ava	-10972
bed	-10973
bee	-10974
bot	-10975
boy	-10976
fin	-10977
ovi	-10978
uke	-10979
▁vy	-10980
▁xv	-10981
anes	-10982
arin	-10983
burn	-10984
city	-10985
html	-10986
ktop	-10987
olin	-10988
tors	-10989
ulin	-10990
wall	-10991
▁ads	-10992
▁aud	-10993
▁cie	-10994
▁drm	-10995
▁dry	-10996
▁ric	-10997
▁rie	-10998
▁sov	-10999
▁vre	-11000
▁wah	-11001
ields	-11002
▁1039	-11003
▁1048	-11004
▁1124	-11005
▁1175	-11006
▁1229	-11007
▁1284	-11008
▁1307	-11009
▁1329	-11010
▁1378	-11011
▁1386	-11012
▁1416	-11013
▁1436	-11014
▁1456	-11015
▁2029	-11016
▁5300	-11017
▁beca	-11018
▁dock	-11019
▁jaco	-11020
▁loop	-11021
▁same	-11022
▁tiff	-11023
▁wool	-11024
▁cycle	-11025
▁kanon	-11026
▁medal	-11027
▁photo	-11028
▁ready	-11029
▁sharp	-11030
▁squad	-11031
duction	-11032
▁andrea	-11033
▁better	-11034
▁campus	-11035
▁fellow	-11036
▁jeremy	-11037
▁turner	-11038
▁content	-11039
▁diction	-11040
▁schools	-11041
▁catholic	-11042
▁lollipop	-11043
▁students	-11044
▁sunshine	-11045
▁wikipedia	-11046
▁bittorrent	-11047
尢王	-11048
月羊	-11049
爿羊	-11050
疒𠃓	-11051
114	-11052
199	-11053
217	-11054
227	-11055
229	-11056
850	-11057
cos	-11058
dem	-11059
enc	-11060
gis	-11061
▁jh	-11062
▁ln	-11063
▁xb	-11064
▁zn	-11065
⿱⿳𭕄	-11066
业㡀甫	-11067
ecca	-11068
erse	-11069
olas	-11070
road	-11071
tish	-11072
udio	-11073
▁093	-11074
▁58%	-11075
▁62%	-11076
▁791	-11077
▁cgi	-11078
▁emm	-11079
▁era	-11080
▁etf	-11081
▁eur	-11082
▁foo	-11083
▁het	-11084
▁hoo	-11085
▁pig	-11086
▁spa	-11087
▁tul	-11088
▁vog	-11089
▁wiz	-11090
antin	-11091
mania	-11092
▁0000	-11093
▁1088	-11094
▁1143	-11095
▁1179	-11096
▁1212	-11097
▁1242	-11098
▁1372	-11099
▁1427	-11100
▁8859	-11101
▁ajax	-11102
▁dome	-11103
▁emer	-11104
▁fash	-11105
▁help	-11106
▁imdb	-11107
▁jtwc	-11108
▁late	-11109
▁luke	-11110
▁pand	-11111
▁rang	-11112
▁cheng	-11113
▁geoff	-11114
▁glory	-11115
▁layer	-11116
▁quest	-11117
▁sword	-11118
▁thumb	-11119
▁austin	-11120
▁cookie	-11121
▁ferdin	-11122
▁forces	-11123
▁racing	-11124
▁temper	-11125
▁busters	-11126
▁cookies	-11127
▁defense	-11128
▁fernando	-11129
▁products	-11130
▁protocol	-11131
▁straight	-11132
▁secondary	-11133
kk	-11134
且隹	-11135
亻夫	-11136
艹千	-11137
酉乍	-11138
138	-11139
158	-11140
208	-11141
224	-11142
770	-11143
bye	-11144
iev	-11145
lia	-11146
tab	-11147
tik	-11148
uso	-11149
▁fk	-11150
▁hf	-11151
▁oo	-11152
山己见	-11153
扌丸贝	-11154
月刂见	-11155
爫子阝	-11156
虍几食	-11157
abad	-11158
char	-11159
dell	-11160
gram	-11161
ivan	-11162
▁29%	-11163
▁86%	-11164
▁apu	-11165
▁cow	-11166
▁dop	-11167
▁esa	-11168
▁gif	-11169
▁hap	-11170
▁inj	-11171
▁neu	-11172
▁pau	-11173
▁pbs	-11174
▁rab	-11175
▁sey	-11176
▁ssl	-11177
▁sue	-11178
▁xii	-11179
ratic	-11180
▁1005	-11181
▁1118	-11182
▁1171	-11183
▁1235	-11184
▁1248	-11185
▁1437	-11186
▁2026	-11187
▁4100	-11188
▁cann	-11189
▁corp	-11190
▁crow	-11191
▁cust	-11192
▁dart	-11193
▁draw	-11194
▁lanc	-11195
▁mang	-11196
▁rein	-11197
▁salt	-11198
▁site	-11199
▁stro	-11200
▁thir	-11201
▁trig	-11202
script	-11203
▁colin	-11204
▁elena	-11205
▁quant	-11206
▁solar	-11207
▁carbon	-11208
▁claire	-11209
▁driver	-11210
▁encore	-11211
▁father	-11212
▁indian	-11213
▁models	-11214
▁nelson	-11215
▁palace	-11216
▁volume	-11217
▁winner	-11218
▁current	-11219
▁present	-11220
▁saunier	-11221
▁vehicle	-11222
▁nicholas	-11223
▁phillips	-11224
▁physical	-11225
兆頁	-11226
木乍	-11227
氵丰	-11228
王頁	-11229
耒㠯	-11230
𠂆一	-11231
119	-11232
131	-11233
143	-11234
213	-11235
aye	-11236
edo	-11237
emi	-11238
emp	-11239
lai	-11240
van	-11241
xin	-11242
ched	-11243
elin	-11244
erve	-11245
izer	-11246
ores	-11247
plus	-11248
talk	-11249
ucky	-11250
▁018	-11251
▁044	-11252
▁090	-11253
▁772	-11254
▁871	-11255
▁94%	-11256
▁aes	-11257
▁cru	-11258
▁dlp	-11259
▁esc	-11260
▁gli	-11261
▁ion	-11262
▁llo	-11263
▁nut	-11264
▁tig	-11265
▁tma	-11266
▁xiv	-11267
▁yan	-11268
囗⺌日瓦	-11269
gamer	-11270
▁1013	-11271
▁1057	-11272
▁1107	-11273
▁1109	-11274
▁1110	-11275
▁1161	-11276
▁1207	-11277
▁1294	-11278
▁1322	-11279
▁1417	-11280
▁1452	-11281
▁cold	-11282
▁guer	-11283
▁hits	-11284
▁homo	-11285
▁isle	-11286
▁marg	-11287
▁mean	-11288
▁nadh	-11289
▁poss	-11290
▁ques	-11291
▁seat	-11292
▁sist	-11293
▁size	-11294
▁sncf	-11295
▁tanh	-11296
▁trib	-11297
▁vern	-11298
▁16000	-11299
▁alexa	-11300
▁augus	-11301
▁bourg	-11302
▁cable	-11303
▁campa	-11304
▁crist	-11305
▁danny	-11306
▁minec	-11307
▁notes	-11308
▁omega	-11309
▁serge	-11310
▁snake	-11311
▁thank	-11312
▁truth	-11313
▁collec	-11314
▁contra	-11315
▁format	-11316
▁friday	-11317
▁import	-11318
▁langon	-11319
▁piazza	-11320
▁gregory	-11321
▁product	-11322
▁transit	-11323
▁atlantic	-11324
▁aviation	-11325
▁database	-11326
▁director	-11327
▁something	-11328
▁distribution	-11329
▁administration	-11330
一隹	-11331
犭白	-11332
竹巴	-11333
钅皮	-11334
𠂇冂	-11335
149	-11336
270	-11337
ged	-11338
lac	-11339
low	-11340
map	-11341
pet	-11342
rod	-11343
say	-11344
set	-11345
thy	-11346
▁fg	-11347
▁gj	-11348
▁kf	-11349
▁xc	-11350
▁yi	-11351
㐅乂土	-11352
ever	-11353
kell	-11354
wald	-11355
wave	-11356
wide	-11357
▁53%	-11358
▁56%	-11359
▁ada	-11360
▁alc	-11361
▁enh	-11362
▁fft	-11363
▁fle	-11364
▁gan	-11365
▁itf	-11366
▁kas	-11367
▁khz	-11368
▁muk	-11369
▁ord	-11370
▁peg	-11371
▁rug	-11372
▁sax	-11373
▁sof	-11374
丨丨比金	-11375
opsis	-11376
tives	-11377
▁1035	-11378
▁1056	-11379
▁1112	-11380
▁1119	-11381
▁1163	-11382
▁1223	-11383
▁1233	-11384
▁1238	-11385
▁1239	-11386
▁1264	-11387
▁1327	-11388
▁1486	-11389
▁2035	-11390
▁3900	-11391
▁gond	-11392
▁harm	-11393
▁hour	-11394
▁kern	-11395
▁maxi	-11396
▁punk	-11397
▁rome	-11398
▁tenn	-11399
▁wide	-11400
ermont	-11401
omatic	-11402
▁14000	-11403
▁agree	-11404
▁blast	-11405
▁cells	-11406
▁devil	-11407
▁going	-11408
▁klein	-11409
▁navig	-11410
▁nucle	-11411
▁relig	-11412
▁affair	-11413
▁around	-11414
▁conver	-11415
▁fisher	-11416
▁matrix	-11417
▁member	-11418
▁porter	-11419
▁select	-11420
▁barbara	-11421
▁indiana	-11422
▁campaign	-11423
▁electron	-11424
▁hollywood	-11425
▁controller	-11426
▁programming	-11427
hg	-11428
亡阝	-11429
亻丁	-11430
扌千	-11431
月龙	-11432
禾干	-11433
168	-11434
179	-11435
308	-11436
331	-11437
370	-11438
458	-11439
aci	-11440
lys	-11441
nic	-11442
sha	-11443
vor	-11444
▁bk	-11445
人人心	-11446
口耳戈	-11447
耳耳頁	-11448
hood	-11449
igny	-11450
illo	-11451
pler	-11452
udes	-11453
▁009	-11454
▁048	-11455
▁87%	-11456
▁ain	-11457
▁bio	-11458
▁eps	-11459
▁hin	-11460
▁lit	-11461
▁pfa	-11462
▁pok	-11463
▁smo	-11464
▁spl	-11465
▁thy	-11466
▁wap	-11467
lated	-11468
radio	-11469
▁1055	-11470
▁1075	-11471
▁1090	-11472
▁1134	-11473
▁1157	-11474
▁1159	-11475
▁1231	-11476
▁1251	-11477
▁1261	-11478
▁dhar	-11479
▁disk	-11480
▁emil	-11481
▁gaba	-11482
▁kung	-11483
▁many	-11484
▁momo	-11485
▁prec	-11486
▁rare	-11487
▁riaa	-11488
▁spot	-11489
▁succ	-11490
▁webs	-11491
tended	-11492
▁alone	-11493
▁besan	-11494
▁candy	-11495
▁check	-11496
▁edwin	-11497
▁ridge	-11498
▁sorry	-11499
▁adrian	-11500
▁butter	-11501
▁clarke	-11502
▁fedora	-11503
▁louise	-11504
▁miguel	-11505
▁nothing	-11506
▁working	-11507
▁chaumont	-11508
▁clermont	-11509
▁columbia	-11510
▁imperial	-11511
▁marshall	-11512
▁knowledge	-11513
▁secretary	-11514
八月	-11515
火斤	-11516
礻韦	-11517
艹乡	-11518
讠卜	-11519
002	-11520
215	-11521
450	-11522
730	-11523
chu	-11524
hon	-11525
omm	-11526
pat	-11527
pie	-11528
uti	-11529
▁nj	-11530
▁tj	-11531
▁wb	-11532
▁xo	-11533
ader	-11534
come	-11535
horn	-11536
iman	-11537
ishi	-11538
lain	-11539
pine	-11540
wski	-11541
▁ais	-11542
▁crj	-11543
▁fee	-11544
▁irc	-11545
▁jab	-11546
▁jor	-11547
▁jpg	-11548
▁lcc	-11549
▁liz	-11550
▁lsd	-11551
▁mbe	-11552
▁mim	-11553
▁sia	-11554
▁sop	-11555
▁ves	-11556
▁vid	-11557
eaker	-11558
icket	-11559
itive	-11560
ought	-11561
tique	-11562
▁1028	-11563
▁1032	-11564
▁1045	-11565
▁1047	-11566
▁1063	-11567
▁1076	-11568
▁1106	-11569
▁1132	-11570
▁1173	-11571
▁1177	-11572
▁1191	-11573
▁1208	-11574
▁1228	-11575
▁1254	-11576
▁1257	-11577
▁1367	-11578
▁1419	-11579
▁1431	-11580
▁1459	-11581
▁2040	-11582
▁5600	-11583
▁aver	-11584
▁benz	-11585
▁gimp	-11586
▁glen	-11587
▁june	-11588
▁loss	-11589
▁opus	-11590
▁pred	-11591
▁vice	-11592
▁13000	-11593
▁cliff	-11594
▁event	-11595
▁julie	-11596
▁libre	-11597
▁tyler	-11598
▁cather	-11599
▁newton	-11600
▁policy	-11601
▁statis	-11602
▁valent	-11603
▁borland	-11604
▁compact	-11605
▁desktop	-11606
▁fashion	-11607
▁philippe	-11608
▁showtime	-11609
▁universe	-11610
▁technical	-11611
丿手	-11612
口申	-11613
山来	-11614
廴由	-11615
008	-11616
130	-11617
321	-11618
323	-11619
dan	-11620
iam	-11621
rys	-11622
utz	-11623
▁ew	-11624
▁iw	-11625
▁uu	-11626
▁vu	-11627
▁wz	-11628
亠父力	-11629
八刀土	-11630
八厶心	-11631
born	-11632
eron	-11633
etti	-11634
gang	-11635
jang	-11636
ovan	-11637
▁39%	-11638
▁77%	-11639
▁atl	-11640
▁gec	-11641
▁ged	-11642
▁ghq	-11643
▁gin	-11644
▁hex	-11645
▁hid	-11646
▁lif	-11647
▁nir	-11648
▁pdp	-11649
▁sph	-11650
▁tib	-11651
▁tsh	-11652
annon	-11653
arian	-11654
ative	-11655
encer	-11656
etype	-11657
night	-11658
▁1046	-11659
▁1077	-11660
▁1078	-11661
▁1089	-11662
▁1165	-11663
▁1237	-11664
▁1262	-11665
▁1267	-11666
▁1313	-11667
▁1396	-11668
▁1414	-11669
▁6800	-11670
▁alco	-11671
▁alle	-11672
▁brew	-11673
▁bush	-11674
▁buzz	-11675
▁cern	-11676
▁clim	-11677
▁corn	-11678
▁crim	-11679
▁drop	-11680
▁drug	-11681
▁esta	-11682
▁fans	-11683
▁feed	-11684
▁fuck	-11685
▁reed	-11686
▁ultr	-11687
▁avbwu	-11688
▁cohen	-11689
▁falls	-11690
▁label	-11691
▁tears	-11692
▁witch	-11693
▁chance	-11694
▁hammer	-11695
▁jaguar	-11696
▁rachel	-11697
▁therap	-11698
▁verycd	-11699
▁webkit	-11700
▁lisieux	-11701
▁nations	-11702
▁oriental	-11703
▁regional	-11704
▁mountains	-11705
▁seventeen	-11706
▁broadcasting	-11707
gt	-11708
▁丶	-11709
王月	-11710
酉甘	-11711
钅卯	-11712
003	-11713
112	-11714
145	-11715
193	-11716
211	-11717
agn	-11718
apa	-11719
asv	-11720
bad	-11721
eni	-11722
gus	-11723
mac	-11724
nis	-11725
ovo	-11726
ply	-11727
▁qb	-11728
山而页	-11729
blue	-11730
esco	-11731
esto	-11732
olph	-11733
tida	-11734
▁056	-11735
▁57%	-11736
▁74%	-11737
▁83%	-11738
▁acm	-11739
▁amg	-11740
▁ask	-11741
▁auf	-11742
▁dre	-11743
▁eis	-11744
▁ela	-11745
▁fcc	-11746
▁gly	-11747
▁hst	-11748
▁pab	-11749
▁png	-11750
▁psa	-11751
▁tah	-11752
▁wed	-11753
▁wen	-11754
chell	-11755
drive	-11756
ected	-11757
track	-11758
▁1021	-11759
▁1081	-11760
▁1097	-11761
▁1098	-11762
▁1144	-11763
▁1148	-11764
▁1149	-11765
▁1308	-11766
▁1337	-11767
▁1345	-11768
▁1362	-11769
▁1447	-11770
▁1461	-11771
▁1483	-11772
▁2758	-11773
▁7200	-11774
▁9500	-11775
▁bone	-11776
▁boyz	-11777
▁cara	-11778
▁dere	-11779
▁inno	-11780
▁lich	-11781
▁male	-11782
▁nadp	-11783
▁orth	-11784
▁pete	-11785
▁push	-11786
▁risc	-11787
▁rodr	-11788
▁sala	-11789
▁sata	-11790
▁schl	-11791
▁sept	-11792
冂二月犬鬼	-11793
▁admir	-11794
▁bible	-11795
▁canal	-11796
▁chick	-11797
▁civic	-11798
▁glass	-11799
▁huang	-11800
▁joker	-11801
▁kitty	-11802
▁lucky	-11803
▁rifle	-11804
▁singh	-11805
▁susan	-11806
▁trent	-11807
▁warri	-11808
▁while	-11809
osuchus	-11810
▁combin	-11811
▁comics	-11812
▁coming	-11813
▁compos	-11814
▁destro	-11815
▁kindle	-11816
▁script	-11817
▁selina	-11818
▁toyota	-11819
atherine	-11820
▁chapter	-11821
▁jeffrey	-11822
▁equation	-11823
▁extended	-11824
▁infinity	-11825
▁terminus	-11826
▁catherine	-11827
▁executive	-11828
▁political	-11829
ep	-11830
口甲	-11831
日巨	-11832
氵为	-11833
言工	-11834
132	-11835
286	-11836
737	-11837
eto	-11838
mat	-11839
rel	-11840
sia	-11841
tel	-11842
alie	-11843
anie	-11844
ardi	-11845
enix	-11846
eria	-11847
gres	-11848
odus	-11849
omys	-11850
onta	-11851
ungs	-11852
▁011	-11853
▁82%	-11854
▁aig	-11855
▁bae	-11856
▁dic	-11857
▁gdi	-11858
▁gmt	-11859
▁hod	-11860
▁mri	-11861
▁nay	-11862
▁nfc	-11863
▁nhl	-11864
▁oss	-11865
▁shu	-11866
▁sic	-11867
▁tav	-11868
▁tcl	-11869
▁yun	-11870
anche	-11871
aries	-11872
cedes	-11873
ersch	-11874
mouth	-11875
ports	-11876
▁1108	-11877
▁1205	-11878
▁1247	-11879
▁1286	-11880
▁1314	-11881
▁1325	-11882
▁1443	-11883
▁1463	-11884
▁2150	-11885
▁6300	-11886
▁bron	-11887
▁cyan	-11888
▁ller	-11889
▁prac	-11890
▁shap	-11891
▁synd	-11892
▁tard	-11893
⺌冖口田刂	-11894
▁capit	-11895
▁disco	-11896
▁giuse	-11897
▁lance	-11898
▁latin	-11899
▁marqu	-11900
▁melon	-11901
▁phase	-11902
▁seine	-11903
▁spark	-11904
▁cornel	-11905
▁harvey	-11906
▁schema	-11907
▁sounds	-11908
▁treaty	-11909
▁brother	-11910
▁circuit	-11911
▁highway	-11912
▁holland	-11913
▁license	-11914
▁officer	-11915
▁quarter	-11916
▁caroline	-11917
▁lovelive	-11918
▁official	-11919
▁personal	-11920
▁property	-11921
▁katherine	-11922
▁laboratory	-11923
▁intelligence	-11924
gg	-11925
水水	-11926
氵民	-11927
虫内	-11928
钅来	-11929
157	-11930
230	-11931
255	-11932
257	-11933
hip	-11934
kas	-11935
mor	-11936
oku	-11937
raw	-11938
uku	-11939
▁dn	-11940
八刀手	-11941
尢丶彡	-11942
4000	-11943
ares	-11944
erie	-11945
icar	-11946
ilus	-11947
mani	-11948
▁008	-11949
▁61%	-11950
▁bry	-11951
▁gat	-11952
▁icd	-11953
▁imf	-11954
▁jia	-11955
▁lia	-11956
▁nip	-11957
▁ott	-11958
▁pcc	-11959
▁pvc	-11960
▁rss	-11961
▁shi	-11962
▁tep	-11963
▁zun	-11964
⿱⿶⿳⿰	-11965
cence	-11966
endar	-11967
iform	-11968
illac	-11969
itten	-11970
▁1004	-11971
▁1087	-11972
▁1102	-11973
▁1104	-11974
▁1156	-11975
▁1187	-11976
▁1291	-11977
▁1336	-11978
▁1348	-11979
▁1358	-11980
▁amph	-11981
▁anto	-11982
▁bath	-11983
▁cand	-11984
▁choc	-11985
▁diff	-11986
▁dong	-11987
▁each	-11988
▁elis	-11989
▁glad	-11990
▁goes	-11991
▁jtbc	-11992
▁meta	-11993
▁pump	-11994
▁shak	-11995
▁sogo	-11996
titude	-11997
utsche	-11998
▁athle	-11999
▁magne	-12000
▁marco	-12001
▁mario	-12002
▁month	-12003
▁naver	-12004
▁pride	-12005
▁quake	-12006
ception	-12007
▁depend	-12008
▁harold	-12009
▁julian	-12010
▁leslie	-12011
▁monkey	-12012
▁screen	-12013
▁alterna	-12014
▁coaster	-12015
▁counter	-12016
▁electro	-12017
▁gateway	-12018
▁goodbye	-12019
▁langres	-12020
▁mystery	-12021
▁protein	-12022
▁quantum	-12023
▁rebecca	-12024
▁springs	-12025
▁gamerank	-12026
▁sequence	-12027
▁truetype	-12028
▁democratic	-12029
▁mathematica	-12030
fy	-12031
mh	-12032
sw	-12033
口艮	-12034
文寸	-12035
舟山	-12036
言卜	-12037
133	-12038
162	-12039
225	-12040
239	-12041
263	-12042
305	-12043
666	-12044
cco	-12045
eli	-12046
jun	-12047
uga	-12048
口止夫	-12049
日巨火	-12050
cdma	-12051
hill	-12052
iper	-12053
laus	-12054
mont	-12055
ouri	-12056
till	-12057
▁035	-12058
▁039	-12059
▁065	-12060
▁63%	-12061
▁66%	-12062
▁78%	-12063
▁84%	-12064
▁epa	-12065
▁nod	-12066
▁ntv	-12067
▁pcb	-12068
▁rak	-12069
▁sag	-12070
▁wee	-12071
人一口刂	-12072
𠂊田一巴	-12073
itage	-12074
orrow	-12075
uffle	-12076
uring	-12077
▁1017	-12078
▁1031	-12079
▁1183	-12080
▁1194	-12081
▁1199	-12082
▁1201	-12083
▁1203	-12084
▁1379	-12085
▁1446	-12086
▁1462	-12087
▁1491	-12088
▁6600	-12089
▁apec	-12090
▁else	-12091
▁hoch	-12092
▁lucy	-12093
▁neut	-12094
▁sans	-12095
▁sara	-12096
▁shaw	-12097
▁sull	-12098
▁umts	-12099
▁aaron	-12100
▁agent	-12101
▁ching	-12102
▁coach	-12103
▁contr	-12104
▁diego	-12105
▁eddie	-12106
▁mccar	-12107
▁opent	-12108
▁route	-12109
▁xhtml	-12110
▁arcade	-12111
▁bright	-12112
▁foster	-12113
▁killer	-12114
▁points	-12115
▁saturn	-12116
▁stella	-12117
▁sydney	-12118
▁verdun	-12119
ographic	-12120
▁allstar	-12121
▁article	-12122
▁dynamic	-12123
▁haskell	-12124
▁student	-12125
▁thomson	-12126
▁verilog	-12127
▁remember	-12128
▁computing	-12129
▁dictionary	-12130
▁gamerankings	-12131
fb	-12132
万力	-12133
旡灬	-12134
虫且	-12135
衤氏	-12136
159	-12137
161	-12138
209	-12139
bla	-12140
bul	-12141
hof	-12142
ilt	-12143
jon	-12144
ucl	-12145
web	-12146
yah	-12147
zon	-12148
ames	-12149
anta	-12150
fare	-12151
ires	-12152
ived	-12153
rice	-12154
tify	-12155
▁019	-12156
▁022	-12157
▁cun	-12158
▁diy	-12159
▁git	-12160
▁jvc	-12161
▁roe	-12162
▁sbd	-12163
▁snp	-12164
▁ssh	-12165
▁ttl	-12166
火火冖糸	-12167
aceae	-12168
andro	-12169
erner	-12170
forge	-12171
▁1023	-12172
▁1025	-12173
▁1026	-12174
▁1083	-12175
▁1282	-12176
▁1303	-12177
▁1315	-12178
▁1331	-12179
▁1397	-12180
▁1458	-12181
▁6700	-12182
▁brig	-12183
▁craw	-12184
▁ecfa	-12185
▁emma	-12186
▁evil	-12187
▁fear	-12188
▁hass	-12189
▁iptv	-12190
▁kala	-12191
▁kate	-12192
▁kerr	-12193
▁lamp	-12194
▁larg	-12195
▁pang	-12196
▁prov	-12197
▁rena	-12198
▁riot	-12199
▁sult	-12200
▁trip	-12201
▁tung	-12202
▁uber	-12203
▁vall	-12204
▁wake	-12205
bridge	-12206
olitan	-12207
▁elite	-12208
▁giant	-12209
▁grass	-12210
▁horse	-12211
▁janet	-12212
▁laser	-12213
▁laugh	-12214
▁namco	-12215
▁quart	-12216
▁stack	-12217
▁boston	-12218
▁capcom	-12219
▁corner	-12220
▁falcon	-12221
▁julius	-12222
▁kirara	-12223
▁render	-12224
▁spider	-12225
▁transp	-12226
▁cartoon	-12227
▁collins	-12228
▁fischer	-12229
▁journey	-12230
▁package	-12231
▁passion	-12232
▁scholar	-12233
▁harrison	-12234
▁mercedes	-12235
▁mitchell	-12236
▁regiment	-12237
▁challenge	-12238
▁historical	-12239
▁tournament	-12240
▁observatory	-12241
aj	-12242
▁ユ	-12243
⿷⿺	-12244
口皿	-12245
土更	-12246
方阝	-12247
金田	-12248
钅了	-12249
180	-12250
303	-12251
470	-12252
508	-12253
cor	-12254
irs	-12255
kie	-12256
ogn	-12257
▁gx	-12258
▁lx	-12259
▁oy	-12260
▁xa	-12261
人彡食	-12262
勹冫金	-12263
覀土阝	-12264
𠂉口皿	-12265
anco	-12266
anto	-12267
apur	-12268
atan	-12269
call	-12270
chus	-12271
ener	-12272
enia	-12273
essa	-12274
iesa	-12275
inax	-12276
inda	-12277
ured	-12278
▁adi	-12279
▁emd	-12280
▁fas	-12281
▁ffe	-12282
▁gba	-12283
▁gtx	-12284
▁kaz	-12285
▁lig	-12286
▁ltp	-12287
▁ore	-12288
▁pps	-12289
▁rah	-12290
▁xsl	-12291
▁xtr	-12292
▁zap	-12293
▁zoo	-12294
andra	-12295
attan	-12296
brain	-12297
inois	-12298
lable	-12299
ookie	-12300
rique	-12301
▁1003	-12302
▁1052	-12303
▁1071	-12304
▁1092	-12305
▁1152	-12306
▁1154	-12307
▁1186	-12308
▁1299	-12309
▁1335	-12310
▁1347	-12311
▁1363	-12312
▁1411	-12313
▁1426	-12314
▁1441	-12315
▁1473	-12316
▁6400	-12317
▁beam	-12318
▁bean	-12319
▁bord	-12320
▁dian	-12321
▁dies	-12322
▁dipl	-12323
▁diva	-12324
▁fitz	-12325
▁fung	-12326
▁hook	-12327
▁isra	-12328
▁kang	-12329
▁kurt	-12330
▁mann	-12331
▁mons	-12332
▁mood	-12333
▁span	-12334
▁uniq	-12335
master	-12336
▁eidos	-12337
▁julia	-12338
▁lloyd	-12339
▁silva	-12340
▁therm	-12341
▁upper	-12342
▁wings	-12343
▁words	-12344
mission	-12345
▁fields	-12346
▁nogent	-12347
▁palmer	-12348
▁rabbit	-12349
▁strike	-12350
▁enhance	-12351
▁ireland	-12352
▁leopard	-12353
▁parliam	-12354
▁problem	-12355
▁profile	-12356
▁spencer	-12357
▁giuseppe	-12358
▁montbard	-12359
▁specific	-12360
▁syndrome	-12361
▁tomorrow	-12362
▁minecraft	-12363
▁nationale	-12364
▁protection	-12365
fx	-12366
nn	-12367
qi	-12368
亻千	-12369
土己	-12370
扌甘	-12371
艹欠	-12372
虫亡	-12373
金巴	-12374
156	-12375
169	-12376
170	-12377
256	-12378
407	-12379
ghz	-12380
ikh	-12381
lib	-12382
neo	-12383
unk	-12384
日女阝	-12385
重力灬	-12386
1200	-12387
baby	-12388
iant	-12389
ican	-12390
ingo	-12391
main	-12392
quar	-12393
room	-12394
tila	-12395
unch	-12396
▁038	-12397
▁085	-12398
▁68%	-12399
▁afc	-12400
▁agn	-12401
▁agp	-12402
▁ard	-12403
▁cbd	-12404
▁cot	-12405
▁cyp	-12406
▁gpa	-12407
▁ico	-12408
▁kok	-12409
▁ler	-12410
▁mex	-12411
▁nbl	-12412
▁nez	-12413
▁phy	-12414
▁uta	-12415
▁vib	-12416
angle	-12417
ensen	-12418
eston	-12419
icate	-12420
stock	-12421
▁1022	-12422
▁1038	-12423
▁1202	-12424
▁1273	-12425
▁1302	-12426
▁1339	-12427
▁1479	-12428
▁1484	-12429
▁2033	-12430
▁5700	-12431
▁amar	-12432
▁bald	-12433
▁bash	-12434
▁biow	-12435
▁cape	-12436
▁chak	-12437
▁cout	-12438
▁farm	-12439
▁gone	-12440
▁grim	-12441
▁isis	-12442
▁nice	-12443
▁phar	-12444
▁pico	-12445
▁pter	-12446
▁rout	-12447
▁saga	-12448
▁serv	-12449
▁stre	-12450
▁tune	-12451
willer	-12452
▁algor	-12453
▁atenu	-12454
▁bloom	-12455
▁bryan	-12456
▁chlor	-12457
▁derby	-12458
▁focus	-12459
▁gamma	-12460
▁honda	-12461
▁krist	-12462
▁posix	-12463
▁rules	-12464
▁sdram	-12465
▁sunny	-12466
▁toshi	-12467
▁treat	-12468
▁wells	-12469
▁chiesa	-12470
▁eugene	-12471
▁marion	-12472
▁melody	-12473
▁mirror	-12474
▁sierra	-12475
▁things	-12476
▁vmware	-12477
▁edonkey	-12478
▁example	-12479
▁olympic	-12480
▁quality	-12481
▁weather	-12482
▁wonders	-12483
▁critical	-12484
▁heritage	-12485
▁kentucky	-12486
▁missouri	-12487
▁postgres	-12488
▁eurogamer	-12489
▁lucasarts	-12490
▁programme	-12491
▁commercial	-12492
▁parliament	-12493
kl	-12494
亠臼	-12495
口龙	-12496
218	-12497
222	-12498
480	-12499
906	-12500
bia	-12501
edi	-12502
gic	-12503
iad	-12504
icz	-12505
omp	-12506
riz	-12507
vas	-12508
コ一心	-12509
亠臼𧘇	-12510
acty	-12511
amax	-12512
bble	-12513
cock	-12514
edit	-12515
elia	-12516
erat	-12517
fram	-12518
ibus	-12519
ieri	-12520
itus	-12521
uman	-12522
▁024	-12523
▁48%	-12524
▁54%	-12525
▁64%	-12526
▁bwv	-12527
▁cem	-12528
▁dea	-12529
▁dex	-12530
▁enc	-12531
▁gur	-12532
▁ipo	-12533
▁liu	-12534
▁mbs	-12535
▁msc	-12536
▁nah	-12537
▁nur	-12538
▁oxy	-12539
▁rhe	-12540
▁slo	-12541
▁sut	-12542
▁tis	-12543
▁xav	-12544
ening	-12545
iving	-12546
stand	-12547
▁1014	-12548
▁1027	-12549
▁1064	-12550
▁1136	-12551
▁1151	-12552
▁1158	-12553
▁1176	-12554
▁1196	-12555
▁1232	-12556
▁1297	-12557
▁1301	-12558
▁1338	-12559
▁1359	-12560
▁1422	-12561
▁1444	-12562
▁9600	-12563
▁aeon	-12564
▁bach	-12565
▁beth	-12566
▁dyna	-12567
▁jojo	-12568
▁mama	-12569
▁pool	-12570
▁temu	-12571
▁verb	-12572
ershot	-12573
idence	-12574
uation	-12575
▁35000	-12576
▁acfun	-12577
▁atari	-12578
▁cinem	-12579
▁error	-12580
▁honor	-12581
▁mason	-12582
▁piano	-12583
▁border	-12584
▁cheung	-12585
▁inside	-12586
▁monica	-12587
▁nikola	-12588
▁random	-12589
▁sultan	-12590
▁warner	-12591
▁bioware	-12592
▁kennedy	-12593
▁paralle	-12594
▁physics	-12595
▁russian	-12596
▁shuffle	-12597
▁cultural	-12598
▁industry	-12599
▁opentype	-12600
▁presents	-12601
▁register	-12602
▁terminal	-12603
▁postscript	-12604
fd	-12605
水皿	-12606
火文	-12607
金且	-12608
007	-12609
139	-12610
153	-12611
174	-12612
176	-12613
251	-12614
265	-12615
332	-12616
497	-12617
550	-12618
870	-12619
cem	-12620
fit	-12621
gom	-12622
igi	-12623
law	-12624
oid	-12625
qui	-12626
tml	-12627
▁gk	-12628
▁jj	-12629
土龰丩	-12630
acki	-12631
ento	-12632
gers	-12633
inga	-12634
lett	-12635
midt	-12636
onso	-12637
ound	-12638
phin	-12639
text	-12640
usta	-12641
vard	-12642
▁074	-12643
▁afl	-12644
▁coo	-12645
▁dou	-12646
▁eun	-12647
▁faa	-12648
▁fib	-12649
▁gel	-12650
▁htm	-12651
▁icc	-12652
▁isu	-12653
▁jup	-12654
▁lad	-12655
▁lga	-12656
▁mia	-12657
▁moo	-12658
▁pyr	-12659
▁sod	-12660
▁tub	-12661
▁tus	-12662
▁usp	-12663
▁voy	-12664
burgh	-12665
erous	-12666
ibili	-12667
ithub	-12668
itude	-12669
▁1009	-12670
▁1036	-12671
▁1068	-12672
▁1074	-12673
▁1114	-12674
▁1197	-12675
▁1263	-12676
▁1293	-12677
▁1296	-12678
▁1312	-12679
▁1324	-12680
▁1395	-12681
▁alto	-12682
▁bian	-12683
▁cort	-12684
▁dion	-12685
▁foss	-12686
▁hugo	-12687
▁icon	-12688
▁incl	-12689
▁lpga	-12690
▁mash	-12691
▁mate	-12692
▁mist	-12693
▁save	-12694
▁schw	-12695
▁sets	-12696
▁supr	-12697
ingham	-12698
saurus	-12699
tional	-12700
▁amber	-12701
▁amiga	-12702
▁analy	-12703
▁behav	-12704
▁blade	-12705
▁chess	-12706
▁eight	-12707
▁fever	-12708
▁innov	-12709
▁nigel	-12710
▁print	-12711
▁swiss	-12712
▁trick	-12713
▁arnold	-12714
▁berlin	-12715
▁berryz	-12716
▁butler	-12717
▁commod	-12718
▁excell	-12719
▁gibson	-12720
▁github	-12721
▁growth	-12722
▁hearts	-12723
▁maggie	-12724
▁matter	-12725
▁paypal	-12726
▁qualif	-12727
▁rivers	-12728
▁trance	-12729
▁watson	-12730
▁admiral	-12731
▁amazing	-12732
▁because	-12733
▁charter	-12734
▁evening	-12735
▁however	-12736
▁spirits	-12737
▁bilibili	-12738
▁deutsche	-12739
▁japanese	-12740
▁symphony	-12741
▁vladimir	-12742
▁agreement	-12743
▁francesco	-12744
▁interchange	-12745
ez	-12746
匕十	-12747
女朱	-12748
山卯	-12749
广鬼	-12750
臼人	-12751
辶刀	-12752
196	-12753
214	-12754
259	-12755
405	-12756
665	-12757
lal	-12758
lio	-12759
mos	-12760
nan	-12761
uya	-12762
▁jc	-12763
▁zi	-12764
习习中	-12765
勹日阝	-12766
女又手	-12767
扌丸虫	-12768
𠁣𠃛一	-12769
bern	-12770
mitt	-12771
ondo	-12772
ongo	-12773
pass	-12774
tiva	-12775
uche	-12776
uron	-12777
▁088	-12778
▁81%	-12779
▁aec	-12780
▁ars	-12781
▁bed	-12782
▁cdc	-12783
▁csl	-12784
▁dah	-12785
▁dix	-12786
▁egg	-12787
▁eta	-12788
▁exc	-12789
▁fay	-12790
▁gea	-12791
▁gim	-12792
▁ira	-12793
▁kub	-12794
▁mai	-12795
▁nou	-12796
▁rho	-12797
▁spo	-12798
▁sys	-12799
▁vga	-12800
▁yar	-12801
▁zar	-12802
acker	-12803
child	-12804
iling	-12805
lecom	-12806
shock	-12807
▁1053	-12808
▁1093	-12809
▁1145	-12810
▁1164	-12811
▁1249	-12812
▁1272	-12813
▁1288	-12814
▁1305	-12815
▁1353	-12816
▁1355	-12817
▁1384	-12818
▁5400	-12819
▁aacs	-12820
▁bahn	-12821
▁barn	-12822
▁chow	-12823
▁gddr	-12824
▁goto	-12825
▁kann	-12826
▁leaf	-12827
▁lest	-12828
▁lung	-12829
▁mint	-12830
▁once	-12831
▁pale	-12832
▁pant	-12833
▁ride	-12834
▁semi	-12835
▁skin	-12836
▁sram	-12837
▁subs	-12838
▁wiss	-12839
uments	-12840
▁atlus	-12841
▁avran	-12842
▁bella	-12843
▁cache	-12844
▁catch	-12845
▁clean	-12846
▁felix	-12847
▁flick	-12848
▁kappa	-12849
▁links	-12850
▁lower	-12851
▁meyer	-12852
▁muham	-12853
▁neuro	-12854
▁ouest	-12855
▁paint	-12856
▁pearl	-12857
▁petro	-12858
▁prism	-12859
▁prius	-12860
▁theor	-12861
▁unity	-12862
ibility	-12863
▁bleach	-12864
▁combat	-12865
▁editor	-12866
▁myself	-12867
▁olivia	-12868
▁period	-12869
▁reddit	-12870
▁shield	-12871
▁should	-12872
▁silent	-12873
▁talent	-12874
▁terror	-12875
▁numbers	-12876
▁openbsd	-12877
▁popular	-12878
▁reading	-12879
▁singles	-12880
▁welcome	-12881
▁wolfram	-12882
▁assembly	-12883
▁constant	-12884
▁informer	-12885
▁yourself	-12886
▁chemistry	-12887
▁economics	-12888
▁following	-12889
▁languages	-12890
▁wordpress	-12891
▁integrated	-12892
▁alternative	-12893
八方	-12894
148	-12895
160	-12896
188	-12897
228	-12898
304	-12899
416	-12900
457	-12901
503	-12902
777	-12903
def	-12904
ecy	-12905
isi	-12906
jin	-12907
lea	-12908
mut	-12909
phe	-12910
yte	-12911
zni	-12912
▁hn	-12913
▁ym	-12914
冖車阝	-12915
彐水皿	-12916
日十阝	-12917
3000	-12918
atra	-12919
hell	-12920
idad	-12921
itas	-12922
mart	-12923
oost	-12924
tery	-12925
west	-12926
▁029	-12927
▁067	-12928
▁aus	-12929
▁chs	-12930
▁dhl	-12931
▁dms	-12932
▁els	-12933
▁gee	-12934
▁ims	-12935
▁ket	-12936
▁loc	-12937
▁mao	-12938
▁mph	-12939
▁nee	-12940
▁nsa	-12941
▁pso	-12942
▁ptt	-12943
▁rst	-12944
▁sio	-12945
▁uhf	-12946
▁⿱⿴⿰	-12947
囗⺌日刂	-12948
cated	-12949
eline	-12950
encia	-12951
fried	-12952
graph	-12953
illus	-12954
istan	-12955
tista	-12956
tress	-12957
▁1012	-12958
▁1318	-12959
▁1334	-12960
▁1341	-12961
▁2027	-12962
▁adap	-12963
▁bene	-12964
▁carn	-12965
▁ciel	-12966
▁eden	-12967
▁enti	-12968
▁glay	-12969
▁hoff	-12970
▁maps	-12971
▁mosa	-12972
▁peer	-12973
▁rafa	-12974
▁tier	-12975
▁upon	-12976
▁wien	-12977
ampton	-12978
berger	-12979
elling	-12980
hausen	-12981
schild	-12982
urance	-12983
▁ahmad	-12984
▁blair	-12985
▁brave	-12986
▁daisy	-12987
▁favor	-12988
▁korea	-12989
▁levin	-12990
▁miles	-12991
▁petit	-12992
▁pilot	-12993
▁strat	-12994
▁traff	-12995
▁worms	-12996
▁wrest	-12997
▁adidas	-12998
▁barbus	-12999
▁gustav	-13000
▁lights	-13001
▁marina	-13002
▁marsan	-13003
▁peters	-13004
▁powers	-13005
▁usenet	-13006
▁within	-13007
▁bennett	-13008
▁gilbert	-13009
▁optical	-13010
▁reality	-13011
▁session	-13012
▁approach	-13013
▁governor	-13014
▁wireless	-13015
▁avranches	-13016
▁commodore	-13017
▁democracy	-13018
▁ferdinand	-13019
▁synthesis	-13020
▁worldwide	-13021
▁construction	-13022
eb	-13023
女為	-13024
宀𡗗	-13025
月瓜	-13026
虫乍	-13027
隹隹	-13028
237	-13029
261	-13030
280	-13031
319	-13032
406	-13033
asp	-13034
eem	-13035
emo	-13036
kor	-13037
lak	-13038
mia	-13039
ogy	-13040
rif	-13041
wen	-13042
▁jg	-13043
▁wg	-13044
又又页	-13045
𠃜目阝	-13046
1919	-13047
beat	-13048
cott	-13049
cycl	-13050
eads	-13051
eets	-13052
endy	-13053
ging	-13054
hold	-13055
ilon	-13056
ised	-13057
lake	-13058
mons	-13059
rica	-13060
stan	-13061
tial	-13062
tism	-13063
▁075	-13064
▁095	-13065
▁097	-13066
▁099	-13067
▁69%	-13068
▁91%	-13069
▁bmi	-13070
▁bye	-13071
▁due	-13072
▁ees	-13073
▁gos	-13074
▁gul	-13075
▁hof	-13076
▁jct	-13077
▁lai	-13078
▁mcm	-13079
▁mea	-13080
▁nil	-13081
▁piz	-13082
▁rae	-13083
▁rsa	-13084
▁sme	-13085
▁vim	-13086
丿𠃌攵犬	-13087
matic	-13088
teron	-13089
where	-13090
▁1181	-13091
▁1193	-13092
▁1198	-13093
▁1222	-13094
▁1243	-13095
▁1289	-13096
▁1292	-13097
▁1316	-13098
▁1383	-13099
▁aaaa	-13100
▁bret	-13101
▁brid	-13102
▁copy	-13103
▁dang	-13104
▁fame	-13105
▁glas	-13106
▁hern	-13107
▁imac	-13108
▁july	-13109
▁jung	-13110
▁mbps	-13111
▁nash	-13112
▁pard	-13113
▁sham	-13114
▁sind	-13115
▁sten	-13116
▁tail	-13117
▁term	-13118
▁tess	-13119
▁ting	-13120
anning	-13121
caster	-13122
▁allan	-13123
▁chong	-13124
▁denis	-13125
▁emily	-13126
▁fresh	-13127
▁gradu	-13128
▁heath	-13129
▁instr	-13130
▁irish	-13131
▁plane	-13132
▁prada	-13133
▁quint	-13134
▁scale	-13135
▁since	-13136
▁soldi	-13137
▁wales	-13138
▁wayne	-13139
▁weiss	-13140
▁ziers	-13141
▁bailey	-13142
▁boulev	-13143
▁cancer	-13144
▁delphi	-13145
▁demand	-13146
▁duncan	-13147
▁during	-13148
▁gainax	-13149
▁parado	-13150
▁plasma	-13151
▁quadro	-13152
▁regula	-13153
▁sistar	-13154
▁techno	-13155
▁vorbis	-13156
▁waters	-13157
▁chronic	-13158
▁musical	-13159
▁persona	-13160
▁phoenix	-13161
▁therapy	-13162
▁trouble	-13163
▁wallace	-13164
▁algorith	-13165
▁baseball	-13166
▁basilica	-13167
▁chandler	-13168
▁dynamics	-13169
▁fantasia	-13170
▁minister	-13171
▁sullivan	-13172
▁dualshock	-13173
▁extension	-13174
▁jefferson	-13175
▁connection	-13176
▁winchester	-13177
mt	-13178
vr	-13179
yk	-13180
七木	-13181
勹匕	-13182
口角	-13183
囗寸	-13184
女为	-13185
女册	-13186
氵央	-13187
言干	-13188
豕生	-13189
006	-13190
009	-13191
192	-13192
302	-13193
402	-13194
455	-13195
903	-13196
abi	-13197
bre	-13198
cmg	-13199
fet	-13200
fil	-13201
gia	-13202
los	-13203
ped	-13204
tax	-13205
▁hv	-13206
▁lh	-13207
▁yh	-13208
▁zz	-13209
匚王力	-13210
山而頁	-13211
氵七木	-13212
𠂆一㔾	-13213
agan	-13214
arte	-13215
athy	-13216
ault	-13217
baum	-13218
cens	-13219
mura	-13220
onex	-13221
orts	-13222
quet	-13223
rico	-13224
tres	-13225
wara	-13226
wire	-13227
ylie	-13228
▁034	-13229
▁068	-13230
▁089	-13231
▁aic	-13232
▁als	-13233
▁amr	-13234
▁dax	-13235
▁dhc	-13236
▁dit	-13237
▁eat	-13238
▁edi	-13239
▁eia	-13240
▁fus	-13241
▁gmp	-13242
▁hak	-13243
▁hmv	-13244
▁ioc	-13245
▁kak	-13246
▁lng	-13247
▁nsx	-13248
▁pes	-13249
▁qew	-13250
▁raz	-13251
▁rez	-13252
▁sau	-13253
▁siv	-13254
▁tie	-13255
▁tut	-13256
▁wai	-13257
口口隹頁	-13258
尸示寸火	-13259
arten	-13260
emble	-13261
guard	-13262
itzer	-13263
ogram	-13264
onald	-13265
▁1029	-13266
▁1178	-13267
▁1269	-13268
▁1349	-13269
▁2028	-13270
▁5100	-13271
▁8086	-13272
▁8700	-13273
▁aber	-13274
▁abra	-13275
▁anci	-13276
▁arag	-13277
▁boom	-13278
▁caus	-13279
▁chee	-13280
▁erik	-13281
▁frag	-13282
▁gior	-13283
▁hier	-13284
▁infl	-13285
▁iowa	-13286
▁jing	-13287
▁ligo	-13288
▁maya	-13289
▁polo	-13290
▁soci	-13291
▁wait	-13292
▁yard	-13293
bility	-13294
inique	-13295
▁blake	-13296
▁brach	-13297
▁carlo	-13298
▁could	-13299
▁ibook	-13300
▁known	-13301
▁large	-13302
▁porta	-13303
▁sebas	-13304
▁sleep	-13305
▁stard	-13306
▁trill	-13307
▁accord	-13308
▁camera	-13309
▁client	-13310
▁gerald	-13311
▁harmon	-13312
▁joshua	-13313
▁kansas	-13314
▁mosaic	-13315
▁reason	-13316
▁retrie	-13317
▁shader	-13318
▁sister	-13319
▁weekly	-13320
▁wizard	-13321
▁angeles	-13322
▁antoine	-13323
▁finance	-13324
▁illustr	-13325
▁rolling	-13326
▁astronom	-13327
▁muhammad	-13328
▁variable	-13329
▁workshop	-13330
▁adventure	-13331
▁boulevard	-13332
▁carpenter	-13333
▁powershot	-13334
▁quicktime	-13335
▁associates	-13336
▁translation	-13337
fu	-13338
hk	-13339
kr	-13340
▁隹	-13341
155	-13342
164	-13343
167	-13344
171	-13345
232	-13346
358	-13347
365	-13348
api	-13349
cro	-13350
esi	-13351
fax	-13352
mul	-13353
oti	-13354
uni	-13355
▁fy	-13356
▁hw	-13357
▁xs	-13358
田田糸	-13359
ared	-13360
care	-13361
dorf	-13362
enty	-13363
hall	-13364
igen	-13365
lean	-13366
ouch	-13367
wind	-13368
▁037	-13369
▁083	-13370
▁091	-13371
▁93%	-13372
▁atx	-13373
▁bsp	-13374
▁cid	-13375
▁cms	-13376
▁epr	-13377
▁fnc	-13378
▁koh	-13379
▁lop	-13380
▁ned	-13381
▁nun	-13382
▁oth	-13383
▁pch	-13384
▁sai	-13385
▁une	-13386
▁wrx	-13387
艹罒冖目	-13388
𠂊田一方	-13389
antom	-13390
asser	-13391
dress	-13392
empor	-13393
ilder	-13394
kirch	-13395
umann	-13396
▁1306	-13397
▁1310	-13398
▁1317	-13399
▁1323	-13400
▁ango	-13401
▁aria	-13402
▁auch	-13403
▁bagn	-13404
▁chia	-13405
▁chir	-13406
▁goal	-13407
▁goth	-13408
▁gplv	-13409
▁guin	-13410
▁json	-13411
▁mbit	-13412
▁milk	-13413
▁mips	-13414
▁modi	-13415
▁nest	-13416
▁ofdm	-13417
▁pern	-13418
▁rfid	-13419
▁sync	-13420
▁trim	-13421
▁uefi	-13422
▁wnba	-13423
▁xeon	-13424
asonic	-13425
friend	-13426
strong	-13427
▁abbey	-13428
▁adolf	-13429
▁ahmed	-13430
▁bound	-13431
▁bruno	-13432
▁buddh	-13433
▁clock	-13434
▁cocoa	-13435
▁elvis	-13436
▁false	-13437
▁frequ	-13438
▁globe	-13439
▁heter	-13440
▁josef	-13441
▁kkbox	-13442
▁meego	-13443
▁rosen	-13444
▁voith	-13445
▁wozni	-13446
▁bandai	-13447
▁canyon	-13448
▁chapel	-13449
▁crisis	-13450
▁jessie	-13451
▁making	-13452
▁played	-13453
▁result	-13454
▁senlis	-13455
▁sophie	-13456
▁troyes	-13457
▁wagner	-13458
▁allison	-13459
▁connect	-13460
▁grammar	-13461
▁mercury	-13462
▁monitor	-13463
▁opteron	-13464
▁paradox	-13465
▁publica	-13466
▁scandal	-13467
▁telecom	-13468
▁webster	-13469
▁chemical	-13470
▁colorado	-13471
▁illinois	-13472
▁michigan	-13473
▁november	-13474
▁pleasure	-13475
▁polytech	-13476
▁scottish	-13477
▁shopping	-13478
▁different	-13479
▁panasonic	-13480
▁solutions	-13481
▁wozniacki	-13482
▁wrestling	-13483
▁scientific	-13484
▁competition	-13485
▁thunderbird	-13486
金夫	-13487
金求	-13488
钅方	-13489
004	-13490
186	-13491
486	-13492
amo	-13493
bet	-13494
gal	-13495
iku	-13496
jah	-13497
joy	-13498
leh	-13499
roe	-13500
▁++	-13501
▁qi	-13502
丿皿卩	-13503
九朩隹	-13504
asse	-13505
chat	-13506
endi	-13507
idon	-13508
orre	-13509
rete	-13510
rock	-13511
ushi	-13512
vier	-13513
zone	-13514
▁043	-13515
▁058	-13516
▁anu	-13517
▁apt	-13518
▁avc	-13519
▁boe	-13520
▁crc	-13521
▁hut	-13522
▁iia	-13523
▁iis	-13524
▁kdl	-13525
▁lau	-13526
▁lid	-13527
▁lsa	-13528
▁nim	-13529
▁orn	-13530
▁ppp	-13531
▁pup	-13532
▁snk	-13533
▁sns	-13534
▁suz	-13535
▁tad	-13536
▁thi	-13537
▁tic	-13538
▁txt	-13539
▁unr	-13540
▁wet	-13541
丿冂米丂	-13542
人一朩田	-13543
ience	-13544
lette	-13545
▁1084	-13546
▁1096	-13547
▁1245	-13548
▁1326	-13549
▁2048	-13550
▁2250	-13551
▁4900	-13552
▁apps	-13553
▁aqua	-13554
▁avro	-13555
▁casa	-13556
▁dior	-13557
▁exit	-13558
▁folk	-13559
▁hiro	-13560
▁item	-13561
▁pled	-13562
▁porn	-13563
▁ruth	-13564
▁sexy	-13565
▁sina	-13566
▁spas	-13567
▁tale	-13568
▁thur	-13569
▁todd	-13570
▁tube	-13571
▁voip	-13572
etting	-13573
▁algol	-13574
▁bravo	-13575
▁cause	-13576
▁chase	-13577
▁derek	-13578
▁deter	-13579
▁facul	-13580
▁kitch	-13581
▁lands	-13582
▁natur	-13583
▁overs	-13584
▁robot	-13585
▁santi	-13586
▁xanga	-13587
issance	-13588
▁branch	-13589
▁compon	-13590
▁create	-13591
▁davies	-13592
▁edmund	-13593
▁female	-13594
▁genius	-13595
▁remote	-13596
▁rubber	-13597
▁santos	-13598
▁yamaha	-13599
ditional	-13600
▁alberto	-13601
▁biology	-13602
▁brandon	-13603
▁cluster	-13604
▁descrip	-13605
▁fiction	-13606
▁tenness	-13607
▁timothy	-13608
▁michelle	-13609
▁midnight	-13610
▁mohammad	-13611
▁nacional	-13612
▁networks	-13613
▁treasure	-13614
▁wolfgang	-13615
▁alexandra	-13616
▁classical	-13617
▁principal	-13618
▁operations	-13619
▁postgresql	-13620
▁publishing	-13621
▁constitution	-13622
cu	-13623
ei	-13624
lc	-13625
pb	-13626
口刀	-13627
囗コ	-13628
忄里	-13629
气亚	-13630
竹罒	-13631
辶求	-13632
152	-13633
166	-13634
404	-13635
509	-13636
aft	-13637
agh	-13638
ieh	-13639
lla	-13640
mud	-13641
rip	-13642
tec	-13643
top	-13644
udo	-13645
▁qa	-13646
▁rz	-13647
▁vx	-13648
宀八土	-13649
戊𠃌阝	-13650
扌斤虫	-13651
borg	-13652
clus	-13653
cont	-13654
eady	-13655
eech	-13656
etry	-13657
ithe	-13658
iton	-13659
latz	-13660
olds	-13661
tivo	-13662
▁014	-13663
▁059	-13664
▁073	-13665
▁aix	-13666
▁aph	-13667
▁baa	-13668
▁deg	-13669
▁dss	-13670
▁fix	-13671
▁gau	-13672
▁haz	-13673
▁ils	-13674
▁koi	-13675
▁ktm	-13676
▁mei	-13677
▁miz	-13678
▁sms	-13679
▁spe	-13680
▁tao	-13681
▁tod	-13682
▁umb	-13683
▁vio	-13684
▁vpn	-13685
court	-13686
eased	-13687
emont	-13688
frame	-13689
ished	-13690
style	-13691
ucker	-13692
vania	-13693
▁1007	-13694
▁1105	-13695
▁1133	-13696
▁1184	-13697
▁1268	-13698
▁1489	-13699
▁alge	-13700
▁bard	-13701
▁bend	-13702
▁bind	-13703
▁caps	-13704
▁clip	-13705
▁dale	-13706
▁doom	-13707
▁door	-13708
▁eman	-13709
▁khal	-13710
▁macd	-13711
▁mare	-13712
▁owen	-13713
▁pine	-13714
▁plug	-13715
▁raja	-13716
▁said	-13717
▁simi	-13718
▁symp	-13719
▁tara	-13720
㐅乂木大石	-13721
ctions	-13722
ensive	-13723
▁acous	-13724
▁advis	-13725
▁among	-13726
▁annie	-13727
▁arsen	-13728
▁bains	-13729
▁colla	-13730
▁diana	-13731
▁dutch	-13732
▁genie	-13733
▁inves	-13734
▁jamie	-13735
▁jesus	-13736
▁jewel	-13737
▁lover	-13738
▁manif	-13739
▁montr	-13740
▁ninja	-13741
▁noise	-13742
▁prima	-13743
▁slash	-13744
▁tales	-13745
▁tools	-13746
embourg	-13747
▁animal	-13748
▁cherry	-13749
▁darwin	-13750
▁harper	-13751
▁herman	-13752
▁hughes	-13753
▁indica	-13754
▁lauren	-13755
▁length	-13756
▁macrom	-13757
▁parish	-13758
▁powell	-13759
▁sprint	-13760
▁string	-13761
▁andreas	-13762
▁contain	-13763
▁emperor	-13764
▁forward	-13765
▁masters	-13766
▁maxwell	-13767
▁whitney	-13768
▁identity	-13769
▁institut	-13770
▁intermed	-13771
▁jennifer	-13772
▁relation	-13773
▁armstrong	-13774
▁directory	-13775
▁everybody	-13776
▁angelababy	-13777
▁expression	-13778
▁豸	-13779
土广	-13780
氵内	-13781
礻兆	-13782
立束	-13783
罒衣	-13784
门韦	-13785
144	-13786
182	-13787
184	-13788
223	-13789
306	-13790
309	-13791
364	-13792
505	-13793
855	-13794
anz	-13795
bir	-13796
cey	-13797
eus	-13798
lik	-13799
opo	-13800
pel	-13801
uca	-13802
xxx	-13803
yal	-13804
zzi	-13805
▁jk	-13806
▁lj	-13807
丶艮阝	-13808
𠁣𠃛言	-13809
2500	-13810
cene	-13811
enau	-13812
iate	-13813
isto	-13814
lang	-13815
oman	-13816
oner	-13817
pent	-13818
rail	-13819
rett	-13820
rium	-13821
▁026	-13822
▁069	-13823
▁73%	-13824
▁adp	-13825
▁bao	-13826
▁bpm	-13827
▁cvs	-13828
▁dha	-13829
▁ecu	-13830
▁hai	-13831
▁hig	-13832
▁idf	-13833
▁jsp	-13834
▁kum	-13835
▁lak	-13836
▁msv	-13837
▁nia	-13838
▁ptr	-13839
▁sah	-13840
▁scb	-13841
▁sek	-13842
▁sgi	-13843
▁sty	-13844
▁tyr	-13845
凵丨月木	-13846
ianus	-13847
iston	-13848
itain	-13849
izing	-13850
known	-13851
tranz	-13852
wagen	-13853
▁1058	-13854
▁1061	-13855
▁1342	-13856
▁1352	-13857
▁6200	-13858
▁aclu	-13859
▁axis	-13860
▁came	-13861
▁deal	-13862
▁eeee	-13863
▁flip	-13864
▁gift	-13865
▁gill	-13866
▁grac	-13867
▁gulf	-13868
▁hess	-13869
▁hila	-13870
▁init	-13871
▁liqu	-13872
▁loud	-13873
▁manh	-13874
▁mari	-13875
▁mund	-13876
▁navy	-13877
▁nega	-13878
▁neop	-13879
▁nina	-13880
▁omar	-13881
▁pain	-13882
▁safe	-13883
▁send	-13884
▁shan	-13885
▁slip	-13886
▁teng	-13887
▁trop	-13888
▁vamp	-13889
▁viol	-13890
▁wade	-13891
ements	-13892
kinson	-13893
schaft	-13894
▁apost	-13895
▁casey	-13896
▁heavy	-13897
▁leung	-13898
▁loren	-13899
▁neigh	-13900
▁noble	-13901
▁pitch	-13902
▁rapid	-13903
▁sales	-13904
▁sampa	-13905
▁stere	-13906
▁tetra	-13907
▁thorn	-13908
▁weber	-13909
▁angels	-13910
▁ashley	-13911
▁curtis	-13912
▁heroes	-13913
▁konami	-13914
▁ladies	-13915
▁lantis	-13916
▁lovely	-13917
▁pepper	-13918
▁rafael	-13919
▁reader	-13920
▁rising	-13921
▁tardis	-13922
▁xtreme	-13923
▁adtranz	-13924
▁airways	-13925
▁buffalo	-13926
▁burning	-13927
▁capitol	-13928
▁dorothy	-13929
▁endless	-13930
▁formosa	-13931
▁laurent	-13932
▁newtype	-13933
▁nicolas	-13934
▁roberto	-13935
▁malaysia	-13936
▁mohammed	-13937
▁smalltalk	-13938
▁tennessee	-13939
▁blackberry	-13940
▁rothschild	-13941
dl	-13942
jk	-13943
qa	-13944
qs	-13945
犭甲	-13946
金我	-13947
172	-13948
351	-13949
408	-13950
422	-13951
504	-13952
dam	-13953
eac	-13954
liz	-13955
nos	-13956
orh	-13957
tob	-13958
vil	-13959
yar	-13960
zin	-13961
▁hq	-13962
▁jf	-13963
▁pj	-13964
▁ql	-13965
▁wd	-13966
㡀攵目	-13967
千口氏	-13968
厶大三	-13969
0001	-13970
abil	-13971
atin	-13972
ayan	-13973
emon	-13974
enko	-13975
esty	-13976
gren	-13977
lian	-13978
otes	-13979
ovic	-13980
rill	-13981
uted	-13982
word	-13983
ylon	-13984
▁046	-13985
▁071	-13986
▁89%	-13987
▁amo	-13988
▁ams	-13989
▁cet	-13990
▁dfa	-13991
▁diz	-13992
▁eap	-13993
▁ech	-13994
▁gom	-13995
▁gut	-13996
▁hik	-13997
▁kev	-13998
▁kis	-13999
▁mcp	-14000
▁nmr	-14001
▁osp	-14002
▁roc	-14003
▁rpl	-14004
▁sae	-14005
▁vig	-14006
▁wak	-14007
▁zea	-14008
ignac	-14009
ignan	-14010
media	-14011
ornis	-14012
ticus	-14013
▁1311	-14014
▁1361	-14015
▁1401	-14016
▁1423	-14017
▁2047	-14018
▁3001	-14019
▁7300	-14020
▁alba	-14021
▁alma	-14022
▁alta	-14023
▁boat	-14024
▁cogn	-14025
▁cryp	-14026
▁dele	-14027
▁diet	-14028
▁edit	-14029
▁golf	-14030
▁grid	-14031
▁herz	-14032
▁hole	-14033
▁hsbc	-14034
▁jake	-14035
▁levi	-14036
▁lgpl	-14037
▁mira	-14038
▁nguy	-14039
▁ntsb	-14040
▁ntsc	-14041
▁pill	-14042
▁proj	-14043
▁reyn	-14044
▁role	-14045
▁swan	-14046
endorf	-14047
enoble	-14048
gomery	-14049
ousand	-14050
ricult	-14051
struct	-14052
tivity	-14053
uction	-14054
▁bomis	-14055
▁bones	-14056
▁britt	-14057
▁click	-14058
▁cream	-14059
▁crime	-14060
▁floor	-14061
▁hands	-14062
▁hanna	-14063
▁irene	-14064
▁joyce	-14065
▁liard	-14066
▁marty	-14067
▁molec	-14068
▁oasis	-14069
▁pyram	-14070
▁rotem	-14071
▁taste	-14072
▁trail	-14073
▁units	-14074
▁using	-14075
▁wheel	-14076
cations	-14077
isation	-14078
▁100000	-14079
▁behind	-14080
▁franco	-14081
▁marvel	-14082
▁reform	-14083
▁roland	-14084
▁rudolf	-14085
▁status	-14086
▁applied	-14087
▁baptist	-14088
▁betamax	-14089
▁falling	-14090
▁fellows	-14091
▁holiday	-14092
▁lambert	-14093
▁lieuten	-14094
▁players	-14095
▁rosetta	-14096
▁success	-14097
▁agricult	-14098
▁crawford	-14099
▁darkness	-14100
▁disorder	-14101
▁geoffrey	-14102
▁grenoble	-14103
▁parallel	-14104
▁resource	-14105
▁starship	-14106
▁thousand	-14107
▁cherbourg	-14108
▁experience	-14109
▁montgomery	-14110
▁soundtrack	-14111
▁centroliner	-14112
ao	-14113
bj	-14114
fz	-14115
pu	-14116
土垂	-14117
干阝	-14118
王干	-14119
田攵	-14120
金卜	-14121
金彡	-14122
191	-14123
236	-14124
273	-14125
352	-14126
428	-14127
660	-14128
802	-14129
ako	-14130
ffy	-14131
hop	-14132
inx	-14133
iry	-14134
len	-14135
loo	-14136
teo	-14137
tle	-14138
two	-14139
uba	-14140
xic	-14141
▁eo	-14142
▁eq	-14143
▁zd	-14144
丷夫豕	-14145
勹丿黑	-14146
艹冖土	-14147
ario	-14148
aser	-14149
bold	-14150
emen	-14151
fied	-14152
mine	-14153
noon	-14154
omen	-14155
rain	-14156
rows	-14157
ulum	-14158
walk	-14159
yang	-14160
▁061	-14161
▁abl	-14162
▁aek	-14163
▁ama	-14164
▁cav	-14165
▁coe	-14166
▁ctr	-14167
▁dow	-14168
▁ebs	-14169
▁efi	-14170
▁evo	-14171
▁fog	-14172
▁gag	-14173
▁hul	-14174
▁kow	-14175
▁lic	-14176
▁lut	-14177
▁mug	-14178
▁mvc	-14179
▁nis	-14180
▁nxt	-14181
▁och	-14182
▁osi	-14183
▁rov	-14184
▁svg	-14185
▁yen	-14186
▁yet	-14187
acula	-14188
anner	-14189
count	-14190
enade	-14191
entia	-14192
ifica	-14193
nagar	-14194
otten	-14195
recht	-14196
rical	-14197
▁1041	-14198
▁1168	-14199
▁1172	-14200
▁6100	-14201
▁8400	-14202
▁anat	-14203
▁brie	-14204
▁cock	-14205
▁cres	-14206
▁cruz	-14207
▁dens	-14208
▁fies	-14209
▁fold	-14210
▁gale	-14211
▁gand	-14212
▁ikon	-14213
▁jumo	-14214
▁koda	-14215
▁kwok	-14216
▁mead	-14217
▁nept	-14218
▁pour	-14219
▁puma	-14220
▁till	-14221
▁tiny	-14222
▁zepp	-14223
cyclop	-14224
▁amuse	-14225
▁array	-14226
▁bened	-14227
▁benny	-14228
▁bonus	-14229
▁carca	-14230
▁chaos	-14231
▁damon	-14232
▁decem	-14233
▁edgar	-14234
▁ellis	-14235
▁engel	-14236
▁glock	-14237
▁inner	-14238
▁manuf	-14239
▁mills	-14240
▁monde	-14241
▁moses	-14242
▁msnbc	-14243
▁nitro	-14244
▁outer	-14245
▁tempo	-14246
▁winfs	-14247
lington	-14248
▁amanda	-14249
▁broken	-14250
▁custom	-14251
▁decade	-14252
▁dollar	-14253
▁eeeeee	-14254
▁icloud	-14255
▁infant	-14256
▁israel	-14257
▁magnum	-14258
▁patter	-14259
▁pseudo	-14260
▁queens	-14261
▁resist	-14262
▁summit	-14263
▁travis	-14264
▁winamp	-14265
________	-14266
lication	-14267
▁algebra	-14268
▁bristol	-14269
▁britain	-14270
▁elliott	-14271
▁giorgio	-14272
▁horizon	-14273
▁shannon	-14274
▁supreme	-14275
▁tournon	-14276
▁acoustic	-14277
▁investig	-14278
▁strategy	-14279
▁veronica	-14280
▁happiness	-14281
▁elementary	-14282
▁industries	-14283
▁lieutenant	-14284
▁processing	-14285
▁mathematics	-14286
▁metropolitan	-14287
pf	-14288
rp	-14289
中皿	-14290
亻及	-14291
廿尺	-14292
艹弗	-14293
141	-14294
154	-14295
163	-14296
254	-14297
276	-14298
338	-14299
356	-14300
602	-14301
772	-14302
852	-14303
907	-14304
alt	-14305
bai	-14306
bak	-14307
cue	-14308
dec	-14309
eap	-14310
eux	-14311
fen	-14312
ipa	-14313
lov	-14314
prs	-14315
vie	-14316
▁ij	-14317
▁ux	-14318
夫丷阝	-14319
白匕旡	-14320
隹隹牛	-14321
1500	-14322
1917	-14323
2010	-14324
agon	-14325
bine	-14326
ccus	-14327
gest	-14328
girl	-14329
isse	-14330
ivid	-14331
lies	-14332
ogon	-14333
ollo	-14334
otti	-14335
pers	-14336
pool	-14337
reza	-14338
ynos	-14339
▁036	-14340
▁047	-14341
▁063	-14342
▁072	-14343
▁079	-14344
▁76%	-14345
▁atf	-14346
▁cfa	-14347
▁chc	-14348
▁cns	-14349
▁cog	-14350
▁crt	-14351
▁dud	-14352
▁iic	-14353
▁kry	-14354
▁laz	-14355
▁leh	-14356
▁ley	-14357
▁lik	-14358
▁lub	-14359
▁mta	-14360
▁oma	-14361
▁ska	-14362
▁slc	-14363
▁sri	-14364
▁ssg	-14365
▁tos	-14366
▁uns	-14367
▁vac	-14368
▁vos	-14369
人一口廾	-14370
chaft	-14371
iency	-14372
inkle	-14373
onder	-14374
oodle	-14375
orpha	-14376
otech	-14377
owitz	-14378
store	-14379
▁0600	-14380
▁1062	-14381
▁1091	-14382
▁1321	-14383
▁aman	-14384
▁bala	-14385
▁cars	-14386
▁fail	-14387
▁finn	-14388
▁fion	-14389
▁funk	-14390
▁hair	-14391
▁hipp	-14392
▁info	-14393
▁intr	-14394
▁lass	-14395
▁lect	-14396
▁madr	-14397
▁mant	-14398
▁ment	-14399
▁norm	-14400
▁pica	-14401
▁poli	-14402
▁quer	-14403
▁soap	-14404
▁suse	-14405
▁tart	-14406
▁vend	-14407
▁ware	-14408
▁whee	-14409
▁whip	-14410
▁yuen	-14411
▁zeta	-14412
▁zion	-14413
▁⿱⿱⿱⿱	-14414
engers	-14415
player	-14416
▁17000	-14417
▁bless	-14418
▁bring	-14419
▁chair	-14420
▁craft	-14421
▁demon	-14422
▁glenn	-14423
▁jenny	-14424
▁linda	-14425
▁naval	-14426
▁ordin	-14427
▁refer	-14428
▁saman	-14429
▁scope	-14430
▁separ	-14431
▁share	-14432
▁shirt	-14433
▁alexis	-14434
▁basket	-14435
▁binary	-14436
▁bottom	-14437
▁calvin	-14438
▁config	-14439
▁cortex	-14440
▁gaming	-14441
▁gloria	-14442
▁hotels	-14443
▁irving	-14444
▁leader	-14445
▁linked	-14446
▁module	-14447
▁nforce	-14448
▁pledis	-14449
▁pretty	-14450
▁schwar	-14451
▁scream	-14452
cephalus	-14453
▁ancient	-14454
▁artists	-14455
▁balance	-14456
▁bigorre	-14457
▁carrier	-14458
▁dancing	-14459
▁defence	-14460
▁faculty	-14461
▁impreza	-14462
▁initial	-14463
▁january	-14464
▁leopold	-14465
▁millenn	-14466
▁myradio	-14467
▁reserve	-14468
▁schmidt	-14469
▁stories	-14470
▁towards	-14471
▁traffic	-14472
▁unknown	-14473
▁carolina	-14474
▁enhanced	-14475
▁interest	-14476
▁largenti	-14477
▁magnetic	-14478
▁opensuse	-14479
▁triangle	-14480
▁automatic	-14481
▁powerbook	-14482
▁processor	-14483
▁manchester	-14484
▁philosophy	-14485
▁resolution	-14486
禺页	-14487
虫毛	-14488
酉丁	-14489
𠂉斤	-14490
258	-14491
333	-14492
429	-14493
456	-14494
475	-14495
905	-14496
eae	-14497
eah	-14498
hev	-14499
ilo	-14500
iso	-14501
oun	-14502
usu	-14503
▁bv	-14504
▁xu	-14505
▁zr	-14506
一内阝	-14507
aldi	-14508
arum	-14509
cope	-14510
erno	-14511
hart	-14512
icks	-14513
iong	-14514
oron	-14515
otto	-14516
thal	-14517
thus	-14518
thys	-14519
tree	-14520
uced	-14521
ueux	-14522
ulla	-14523
▁042	-14524
▁057	-14525
▁062	-14526
▁adj	-14527
▁adl	-14528
▁aik	-14529
▁arp	-14530
▁biz	-14531
▁ble	-14532
▁cfc	-14533
▁cmg	-14534
▁csp	-14535
▁ddt	-14536
▁ene	-14537
▁hes	-14538
▁ivy	-14539
▁lfa	-14540
▁lus	-14541
▁mtd	-14542
▁nen	-14543
▁ong	-14544
▁osm	-14545
▁ppc	-14546
▁rar	-14547
▁rox	-14548
▁ses	-14549
▁smb	-14550
▁	-14551
⿱	-14552
⿰	-14553
一	-14554
口	-14555
8	-14556
c	-14557
d	-14558
p	-14559
⿹	-14560
⿻	-14561
⿸	-14562
土	-14563
日	-14564
人	-14565
丿	-14566
八	-14567
丶	-14568
⿵	-14569
,	-14570
亻	-14571
⿳	-14572
勹	-14573
⿺	-14574
丨	-14575
白	-14576
⿴	-14577
亠	-14578
十	-14579
木	-14580
厶	-14581
1	-14582
氵	-14583
月	-14584
又	-14585
冂	-14586
。	-14587
5	-14588
宀	-14589
囗	-14590
寸	-14591
b	-14592
丷	-14593
幺	-14594
辶	-14595
6	-14596
e	-14597
a	-14598
冖	-14599
扌	-14600
禾	-14601
大	-14602
艹	-14603
二	-14604
立	-14605
儿	-14606
阝	-14607
9	-14608
目	-14609
刂	-14610
0	-14611
夂	-14612
f	-14613
龰	-14614
女	-14615
彳	-14616
䒑	-14617
匕	-14618
王	-14619
言	-14620
攵	-14621
丁	-14622
小	-14623
子	-14624
𠃌	-14625
止	-14626
𠂉	-14627
夕	-14628
力	-14629
心	-14630
田	-14631
巾	-14632
戈	-14633
𠂊	-14634
年	-14635
𠂇	-14636
工	-14637
7	-14638
2	-14639
、	-14640
广	-14641
⺌	-14642
隹	-14643
也	-14644
尸	-14645
冫	-14646
凵	-14647
斤	-14648
⿶	-14649
㐅	-14650
4	-14651
刀	-14652
乂	-14653
且	-14654
竹	-14655
弓	-14656
灬	-14657
罒	-14658
方	-14659
士	-14660
纟	-14661
讠	-14662
⺊	-14663
龷	-14664
牛	-14665
耳	-14666
廾	-14667
耂	-14668
𠘧	-14669
彐	-14670
亅	-14671
生	-14672
厂	-14673
戊	-14674
干	-14675
車	-14676
⿲	-14677
山	-14678
自	-14679
乚	-14680
卜	-14681
几	-14682
糸	-14683
由	-14684
龶	-14685
巳	-14686
米	-14687
乛	-14688
𠁣	-14689
𠃛	-14690
业	-14691
以	-14692
3	-14693
⿷	-14694
兀	-14695
朩	-14696
為	-14697
豕	-14698
甲	-14699
i	-14700
𠂆	-14701
⺀	-14702
爫	-14703
o	-14704
贝	-14705
匚	-14706
入	-14707
r	-14708
弋	-14709
车	-14710
n	-14711
彡	-14712
欠	-14713
玉	-14714
卩	-14715
示	-14716
乀	-14717
犬	-14718
为	-14719
s	-14720
t	-14721
龴	-14722
皮	-14723
母	-14724
礻	-14725
及	-14726
豆	-14727
火	-14728
井	-14729
虫	-14730
里	-14731
𭕄	-14732
忄	-14733
𧘇	-14734
衤	-14735
廿	-14736
重	-14737
頁	-14738
l	-14739
⺆	-14740
己	-14741
艮	-14742
夫	-14743
皿	-14744
雨	-14745
本	-14746
覀	-14747
乍	-14748
𠄌	-14749
石	-14750
羊	-14751
于	-14752
巴	-14753
:	-14754
丆	-14755
金	-14756
廴	-14757
m	-14758
𠂒	-14759
虍	-14760
钅	-14761
父	-14762
歹	-14763
文	-14764
比	-14765
聿	-14766
㇇	-14767
》	-14768
《	-14769
癶	-14770
习	-14771
h	-14772
门	-14773
民	-14774
丰	-14775
千	-14776
爿	-14777
u	-14778
曲	-14779
コ	-14780
州	-14781
氺	-14782
·	-14783
犭	-14784
㠯	-14785
」	-14786
「	-14787
见	-14788
斗	-14789
手	-14790
尢	-14791
丂	-14792
我	-14793
𠃋	-14794
世	-14795
页	-14796
冉	-14797
户	-14798
巛	-14799
“	-14800
中	-14801
非	-14802
求	-14803
g	-14804
卄	-14805
央	-14806
㐄	-14807
事	-14808
舟	-14809
𫝀	-14810
酉	-14811
衣	-14812
肀	-14813
未	-14814
角	-14815
𠃊	-14816
釆	-14817
吏	-14818
臣	-14819
氏	-14820
㔾	-14821
片	-14822
九	-14823
长	-14824
;	-14825
尹	-14826
发	-14827
身	-14828
"	-14829
上	-14830
束	-14831
丬	-14832
五	-14833
甫	-14834
丸	-14835
来	-14836
水	-14837
丱	-14838
東	-14839
臼	-14840
东	-14841
谷	-14842
内	-14843
才	-14844
k	-14845
头	-14846
夬	-14847
𡗗	-14848
不	-14849
黑	-14850
𣥂	-14851
ス	-14852
冎	-14853
y	-14854
而	-14855
申	-14856
疒	-14857
乡	-14858
专	-14859
v	-14860
史	-14861
革	-14862
w	-14863
乃	-14864
丘	-14865
已	-14866
必	-14867
亡	-14868
𠂤	-14869
川	-14870
予	-14871
𠃓	-14872
卌	-14873
柬	-14874
牙	-14875
气	-14876
禺	-14877
七	-14878
弗	-14879
彑	-14880
丩	-14881
禹	-14882
戋	-14883
缶	-14884
甘	-14885
禸	-14886
了	-14887
矛	-14888
疋	-14889
永	-14890
毌	-14891
乙	-14892
/	-14893
三	-14894
巨	-14895
屯	-14896
〢	-14897
𧰨	-14898
z	-14899
更	-14900
隶	-14901
朱	-14902
瓦	-14903
韦	-14904
x	-14905
书	-14906
龵	-14907
%	-14908
朿	-14909
兆	-14910
鬼	-14911
果	-14912
毛	-14913
j	-14914
𠃜	-14915
ユ	-14916
象	-14917
戉	-14918
乑	-14919
㇀	-14920
饣	-14921
乐	-14922
耒	-14923
丫	-14924
—	-14925
旡	-14926
_	-14927
承	-14928
卅	-14929
尺	-14930
丹	-14931
乎	-14932
之	-14933
乁	-14934
久	-14935
⺄	-14936
飛	-14937
丑	-14938
末	-14939
}	-14940
{	-14941
镸	-14942
斥	-14943
两	-14944
!	-14945
食	-14946
瓜	-14947
龙	-14948
𠃑	-14949
亚	-14950
肉	-14951
>	-14952
飞	-14953
<	-14954
q	-14955
𩰊	-14956
𩰋	-14957
㣺	-14958
'	-14959
豸	-14960
𦣞	-14961
=	-14962
|	-14963
㡀	-14964
𠂎	-14965
册	-14966
]	-14967
[	-14968
疌	-14969
+	-14970
冘	-14971
𠄎	-14972
串	-14973
?	-14974
卯	-14975
歺	-14976
肃	-14977
万	-14978
电	-14979
垂	-14980
爪	-14981
肅	-14982
『	-14983
』	-14984
°	-14985
丈	-14986
