<pad>	0
<unk>	0
[CLS]	0
[SEP]	0
[MASK]	0
(	0
)	0
”	0
-	0
.	0
–	0
£	0
€	0
▁⿰	-0
▁⿱	-1
cd	-2
cdp	-3
▁⿰⿱	-4
▁,	-5
▁⿸	-6
▁⿱⿱	-7
88	-8
勹丶	-9
▁⿺	-10
▁。	-11
▁⿻	-12
⿱⿱	-13
▁⿱⿰	-14
▁⿵	-15
一八	-16
▁⿴	-17
一口	-18
▁⿳	-19
▁⿹	-20
▁年	-21
▁1	-22
一龰	-23
885	-24
▁⿰⿱⿱	-25
▁、	-26
土寸	-27
▁一	-28
89	-29
一厶	-30
目八	-31
⿱⿰	-32
口口	-33
口丨	-34
⿱⿴	-35
二丨	-36
▁⿱⿻	-37
▁人	-38
十口	-39
日一	-40
66	-41
▁2	-42
丁口	-43
𠘧又	-44
亠口	-45
866	-46
人一	-47
▁⿱⿱⿱	-48
𠂇月	-49
一人	-50
一厶土	-51
一廾	-52
ca	-53
夂口	-54
⿰⿱	-55
人人	-56
▁⿰⿸	-57
口一	-58
𠁣𠃛	-59
⿱⿻	-60
亠丷	-61
戊𠃌	-62
cac	-63
禾口	-64
▁為	-65
丿𠃌	-66
一止	-67
龷八	-68
bb	-69
▁以	-70
一丁	-71
▁月	-72
㐅乂	-73
▁日	-74
▁20	-75
乛亅	-76
甲一	-77
亠土	-78
耂日	-79
乀丿	-80
囗玉	-81
二厶	-82
▁19	-83
⺌日	-84
囗⺌日	-85
▁⿱⿳	-86
▁为	-87
冂口	-88
八厶	-89
丿丿	-90
土也	-91
⿹⿻	-92
bbf	-93
凵丨	-94
一兀	-95
八刀	-96
厶口	-97
人⺀	-98
▁⿷	-99
人丶	-100
▁⿲	-101
⺌冖	-102
幺幺	-103
立口	-104
人一口	-105
⺊一	-106
凵丨凵	-107
8665	-108
䒑土	-109
弓丨	-110
▁⿸⿸	-111
丷干	-112
⺊口	-113
▁⿵⿰	-114
一大	-115
亻也	-116
立口阝	-117
一八斤	-118
䒑自	-119
土厶	-120
▁⿱⿰⿱	-121
𠂊冫	-122
⺌冖口	-123
亠口小	-124
𠂉大	-125
𠂉母	-126
bc	-127
丨丨	-128
8661	-129
日十	-130
夕口	-131
目儿	-132
▁⿺⿱	-133
弓丨丿	-134
耳又	-135
⿳⿰	-136
乚丿	-137
亻乍	-138
止匕	-139
896	-140
▁⿵⿵	-141
丿士	-142
▁生	-143
立日	-144
冂一口	-145
▁⿶	-146
口止	-147
▁⿰⿳	-148
彐一八	-149
一厶土刂	-150
力口	-151
夕夕	-152
▁于	-153
土龰	-154
一卜	-155
儿口	-156
⿱⿳	-157
▁:	-158
小丿	-159
亠父	-160
且一	-161
▁《	-162
▁》	-163
▁⿳𭕄	-164
宀豕	-165
cb	-166
宀八	-167
亻立	-168
龶月	-169
立朩	-170
▁及	-171
▁由	-172
月刂	-173
▁⿱⿶	-174
𠂊小	-175
木木	-176
幺夂	-177
冫欠	-178
冖子	-179
▁民	-180
衤皮	-181
干丷	-182
▁本	-183
亠巾	-184
口儿	-185
丿丨	-186
▁·	-187
囗大	-188
一心	-189
▁3	-190
甲一一	-191
▁⿶⿳⿰	-192
一止攵	-193
人丨	-194
十罒	-195
十罒一心	-196
由八	-197
▁子	-198
且一八	-199
▁201	-200
丿人	-201
𠃋丿人	-202
彐冖	-203
⺆冫	-204
▁自	-205
丿糸	-206
千口	-207
䒑业	-208
宀㠯	-209
禾刂	-210
𠂊田	-211
亠乂	-212
丿尸	-213
廴聿	-214
𠂇巾	-215
立朩斤	-216
冖車	-217
亻弋	-218
宀女	-219
▁」	-220
▁「	-221
井一八	-222
十口儿	-223
廿又	-224
cc	-225
▁⿱⿶⿱⿰	-226
白小	-227
▁也	-228
𠂆一口	-229
bd	-230
丿尸斤	-231
匕匕	-232
子攵	-233
𠂆又	-234
㐅乂子	-235
一二	-236
▁200	-237
日乚	-238
匚㐅	-239
日一寸	-240
䒑土大	-241
77	-242
歹刂	-243
弋工	-244
覀女	-245
▁“	-246
士口	-247
人丶龴	-248
土口	-249
亻寸	-250
爫冖	-251
▁事	-252
木目	-253
▁山	-254
日寸	-255
耂子攵	-256
⿵⿵	-257
亠丷一	-258
冂卄	-259
扌立	-260
▁⿰⿰	-261
▁⿰⿻	-262
▁入	-263
▁小	-264
▁口	-265
884	-266
口八	-267
▁世	-268
口王	-269
▁二	-270
王里	-271
▁4	-272
龶𧘇	-273
▁州	-274
▁工	-275
日月	-276
夕卜	-277
人王	-278
一八月	-279
冖巾	-280
冂刂	-281
牛冂刂	-282
尢丶	-283
コ一	-284
王求	-285
禾斗	-286
▁十	-287
亻吏	-288
▁5	-289
一口田	-290
▁;	-291
𠂒儿	-292
勹巳	-293
忄生	-294
𠂊田灬	-295
丷八	-296
冖车	-297
女攵	-298
十又	-299
一由八	-300
立十	-301
▁重	-302
▁⿰⿹	-303
耂日阝	-304
▁发	-305
一巛	-306
一巛工	-307
𠂒口	-308
尸匕	-309
𠂊冫寸	-310
囗口	-311
刀口	-312
一厶儿	-313
▁⿹⿶	-314
▁士	-315
▁"	-316
幺幺丱	-317
▁6	-318
人一朩	-319
土土	-320
▁比	-321
习习	-322
一八土	-323
▁s	-324
爫冖又	-325
小丿目	-326
糸言	-327
糸言糸	-328
一土	-329
▁米	-330
匕日	-331
⿵⿰	-332
重力	-333
▁目	-334
卩又	-335
艹央	-336
辶文	-337
口木	-338
⿵⿱	-339
▁⿲㇇	-340
王丷	-341
䒑土寸	-342
口丂	-343
▁⿰⿱⿰	-344
又寸	-345
五口	-346
丿冂口	-347
䒑土我	-348
𠁣𠃛日	-349
口贝	-350
辶言	-351
亻丨	-352
▁10	-353
▁长	-354
▁7	-355
日大	-356
女口	-357
亠丷厂	-358
宀八工	-359
⿻⿻	-360
肀一	-361
▁a	-362
▁⿱⿲	-363
𠂇又	-364
龷八巳	-365
⺌冖口田	-366
囗儿	-367
曲豆	-368
日生	-369
儿丨	-370
土龰巳	-371
幺幺人	-372
▁巴	-373
⿹⿶	-374
立日心	-375
亠口小彡	-376
禾女	-377
85	-378
▁⿱⿰⿴	-379
犬灬	-380
𠂊冫犬灬	-381
冎口	-382
ス工	-383
⺌冖口巾	-384
▁女	-385
己攵	-386
⿱⿱⿱	-387
▁東	-388
▁9	-389
戈十	-390
米大	-391
一廾刂	-392
入入	-393
一冉	-394
肀一一	-395
𠂊巴	-396
▁来	-397
日一里	-398
▁8	-399
⿳⿱	-400
丿冂	-401
夂⺀	-402
夂力	-403
辶隹	-404
大丶	-405
▁东	-406
▁心	-407
▁⿵⿱	-408
立女	-409
日十月	-410
▁t	-411
釆田	-412
木丶	-413
▁m	-414
一巾	-415
er	-416
隹又	-417
二厶力	-418
儿土	-419
𠂇口	-420
丷豕	-421
▁c	-422
白水	-423
土儿土	-424
甲一戈	-425
乂丶	-426
目八刂	-427
𠂉丶	-428
力八	-429
禾日	-430
00	-431
亠几	-432
▁手	-433
冂入	-434
宀丰	-435
𫝀口	-436
上卜	-437
▁車	-438
𫝀口㐄	-439
方攵	-440
勹虫	-441
冂人	-442
勹口	-443
丿大	-444
一廾彡	-445
木几	-446
门日	-447
一业	-448
in	-449
丿夫	-450
⿱⿰⿴	-451
▁12	-452
cbb	-453
▁已	-454
一廾刂土	-455
龷由八	-456
丿囗	-457
ee	-458
▁⿱⿴	-459
凵㐅	-460
⿱⿲	-461
口口隹	-462
止匕二	-463
氏丶	-464
宀丰口	-465
尹口	-466
⺌兀	-467
口心	-468
丷口心	-469
隹木	-470
火火	-471
▁b	-472
戊一	-473
or	-474
▁史	-475
辶寸	-476
十口攵	-477
辶井	-478
亠丷冖巾	-479
▁199	-480
二人	-481
▁车	-482
丿十	-483
爫冉	-484
且厶	-485
十豆	-486
丶艮	-487
▁f	-488
an	-489
虍几	-490
on	-491
一𫝀	-492
卌一	-493
𠂉卌一	-494
▁身	-495
宀子	-496
氵工	-497
人彡	-498
巳巳	-499
▁示	-500
口力	-501
礻土	-502
宀匕	-503
䒑未	-504
八口	-505
王见	-506
𠂉大口	-507
⿰⿳	-508
宀示	-509
日乂	-510
夕寸	-511
禾重	-512
虍豕	-513
禾中	-514
糸言糸弓	-515
▁11	-516
䒑业日	-517
覀示	-518
几丶	-519
⺌月	-520
ce	-521
▁⿱⿵⿱	-522
癶豆	-523
▁p	-524
丷夫	-525
亻本	-526
氵州	-527
𠂉丶皿	-528
𠂇工	-529
⺊口戈	-530
止𣥂	-531
口卩	-532
⺌彐	-533
刀丿	-534
田一	-535
幺木	-536
幺白	-537
幺白幺木	-538
ea	-539
𠂉子	-540
𠁣𠃛柬	-541
刀牛	-542
日夂	-543
𠂉日夂	-544
▁h	-545
土羊	-546
龷日	-547
丘八	-548
十口月	-549
丿囗夂	-550
罒夕	-551
𠃌口	-552
▁d	-553
一厶月	-554
𠂉十	-555
氵皮	-556
亻言	-557
亠口冖	-558
弋一止	-559
コ一亅	-560
且一小	-561
阝人	-562
▁非	-563
丿冂米大	-564
▁曲	-565
辶斤	-566
米女攵	-567
一白	-568
丆口	-569
礻申	-570
口龰	-571
凵㐅禸	-572
亠幺	-573
▁又	-574
▁⿰⿱⿴	-575
戊一口	-576
尸禹	-577
夂朩	-578
厶厶	-579
人匕	-580
土儿土丸	-581
宀必	-582
亠丷日	-583
⿱⿴⿱	-584
亻牛	-585
丿囗夂心	-586
二阝	-587
刀二阝	-588
bf	-589
女也	-590
▁角	-591
▁片	-592
la	-593
心夂	-594
冖儿	-595
亻尹	-596
▁18	-597
▁/	-598
𠂉卌一灬	-599
宀必山	-600
日日	-601
歹匕	-602
▁⿳⿱	-603
木寸	-604
人人龰	-605
丩攵	-606
口口犬	-607
言十	-608
土𠃓	-609
日木	-610
▁⿰⿱⿹	-611
▁未	-612
⿸⿴	-613
尸一口	-614
贝刂	-615
肀一一田一	-616
▁⿳⿰	-617
𠂊田一	-618
木艮	-619
日罒	-620
日罒又	-621
木子	-622
甫寸	-623
▁白	-624
丁口欠	-625
en	-626
立月	-627
井一八贝	-628
乚丿十	-629
▁⿱⿱⿰	-630
纟且	-631
纟戋	-632
爫木	-633
中一	-634
衤刀	-635
亠八	-636
一口𧘇	-637
8964	-638
宀八九	-639
▁15	-640
辶大	-641
八夂	-642
立日儿	-643
身寸	-644
冖儿木	-645
▁r	-646
▁且	-647
扌丁	-648
▁n	-649
二丨凵	-650
厶厶人彡	-651
丨丿	-652
纟及	-653
勹口攵	-654
▁g	-655
亻门	-656
丷三	-657
山而	-658
士衣	-659
戊一女	-660
4⿱	-661
禾子	-662
口虫	-663
bcb	-664
土口𧘇	-665
夕㐄	-666
▁书	-667
𠂊厂	-668
火火冖	-669
▁⿱⿶⿳⿰	-670
宀谷	-671
𠃌丨	-672
讠十	-673
刀丿心	-674
雨田	-675
甘木	-676
囗丨	-677
艹禺	-678
丿七	-679
丿虫	-680
彳艮	-681
▁广	-682
▁⿰⿷	-683
▁八	-684
丿口	-685
口丿口	-686
▁⿺⿻	-687
厂生	-688
亻隹	-689
▁土	-690
▁言	-691
丷八十	-692
夂彡	-693
辶束	-694
⿱⿹	-695
工力	-696
▁l	-697
8960	-698
bea	-699
勹冫	-700
白王	-701
扌隹	-702
田力	-703
又又	-704
又土	-705
ar	-706
女子	-707
▁⿱⿻⿱	-708
⿱⿸	-709
▁我	-710
夂几	-711
口十	-712
犬頁	-713
米犬頁	-714
▁16	-715
厶大	-716
宀头	-717
厶大彡	-718
▁i	-719
井一冉	-720
▁0	-721
▁瓦	-722
山一	-723
▁九	-724
一氺	-725
一氺丶	-726
八乂	-727
雨而	-728
宀女木	-729
辶車	-730
束攵	-731
▁⿱⿱⿻	-732
▁母	-733
纟隹	-734
亻白	-735
⿰⿱⿱	-736
▁⿱⿹	-737
一内	-738
▁17	-739
扌斤	-740
白丿十	-741
革力	-742
肀一一日	-743
▁田	-744
▁己	-745
八人	-746
且力	-747
人丶龴頁	-748
肀口	-749
士口冖	-750
一厶土攵	-751
丿𠃌刂	-752
口夫	-753
車凵	-754
辶不	-755
▁⿱⿺	-756
工攵	-757
▁194	-758
上小	-759
亻隹心	-760
一口田刂	-761
丿廾	-762
一尢	-763
勹厶	-764
夂丰	-765
䒑自寸	-766
▁w	-767
禾乃	-768
龷八氺	-769
⿺⿱	-770
es	-771
扌丸	-772
⺌冖口土	-773
夂卜	-774
𠘧又手	-775
彑氺	-776
人㔾	-777
士心	-778
刀田	-779
虍豕刂	-780
▁⿱⿵	-781
尹口羊	-782
上小又	-783
𠂉也	-784
土龰戉	-785
▁14	-786
木示	-787
▁⿻㇀	-788
▁198	-789
糸言糸攵	-790
⺊口灬	-791
乛头	-792
囗才	-793
▁门	-794
士𠃜	-795
人丶龴页	-796
⺌冖口黑	-797
▁195	-798
▁⿱⿰⿱⿱	-799
匚儿	-800
▁川	-801
▁⿱⿰⿻	-802
▁13	-803
一自	-804
几㐅	-805
巳寸	-806
扌非	-807
井一八土	-808
▁197	-809
⿱𭕄	-810
亻专	-811
犭犬	-812
▁氏	-813
耂匕	-814
廿巾	-815
牛冂刂衣	-816
阝艮	-817
耂丂	-818
▁央	-819
豆頁	-820
亻更	-821
㐅朩	-822
▁甲	-823
▁⿳⿱⿻	-824
儿言	-825
一𧘇	-826
井一𧘇	-827
田心	-828
一自夂	-829
亻象	-830
囗丨𧰨	-831
ti	-832
▁乐	-833
勹又	-834
亻乃	-835
▁⿲⿱	-836
▁乡	-837
彐心	-838
▁才	-839
日月皿	-840
戊一口心	-841
▁k	-842
𠂇又丶	-843
⿺⿸	-844
𠂉一	-845
立里	-846
丿二丨	-847
刀丫	-848
一丨	-849
▁o	-850
木目心	-851
勹口攵言	-852
一曲	-853
一曲日	-854
丰阝	-855
▁木	-856
冖一	-857
亠口子	-858
阝方	-859
土土寸	-860
讠人	-861
酉己	-862
氵夬	-863
▁牙	-864
▁⿱⿵⿵	-865
气米	-866
氵羊	-867
▁e	-868
口耳	-869
亠父攵	-870
▁止	-871
釆大	-872
丿冂釆大	-873
al	-874
丷酉	-875
女母	-876
亠口冖丁	-877
厂力	-878
礻见	-879
讠己	-880
纟内	-881
𡗗氺	-882
亻弗	-883
▁—	-884
冖一豕	-885
彳聿	-886
⿸⿱	-887
凵㐅禸隹	-888
扌巴	-889
𠂇工月	-890
纟己	-891
米斗	-892
一兀寸	-893
爿戈	-894
爿戈臣	-895
夂㐄	-896
艹冖	-897
囗大心	-898
自心	-899
广隶	-900
▁196	-901
冂一	-902
扌比	-903
▁193	-904
▁for	-905
龶糸	-906
▁30	-907
cbd	-908
冂儿	-909
▁j	-910
辶由	-911
尸一口刂	-912
龵目	-913
羊目	-914
厶虫	-915
比白	-916
is	-917
亻我	-918
阝日	-919
▁专	-920
十冖	-921
丨丨比	-922
䒑山	-923
十冖糸	-924
弓长	-925
▁承	-926
厶八夂	-927
▁革	-928
卅冖巾	-929
目廾	-930
宀寸	-931
彐氺	-932
礻且	-933
▁21	-934
⿰⿹	-935
▁z	-936
辶艮	-937
mu	-938
▁_	-939
▁⿱⿳𭕄	-940
阝示	-941
𠂊冫寸犬	-942
力力	-943
言己	-944
氵隹	-945
尸口	-946
le	-947
口力刂	-948
辶车	-949
白巾	-950
禾禾	-951
禾禾止	-952
氵又	-953
艹田	-954
上小又目	-955
七刀	-956
户方	-957
亻衣	-958
亡月	-959
𠂊田灬禾	-960
亡月王	-961
爿士衣	-962
木又	-963
刀口灬	-964
一龰頁	-965
he	-966
𠃊米	-967
8⿷	-968
𠘧口	-969
𠂇厶	-970
丿大口	-971
爫一	-972
冫夬	-973
冫欠贝	-974
▁v	-975
车专	-976
de	-977
斤斤	-978
二乚	-979
口龶	-980
𠃊人	-981
▁25	-982
䒑亡	-983
⿱⿵⿱	-984
▁2010	-985
日比	-986
▁2009	-987
mula	-988
立十力	-989
▁丹	-990
▁formula	-991
𠂉一乁	-992
冖方	-993
亠丷冖方	-994
冂二	-995
ro	-996
口又	-997
一亅	-998
⺆冫攵	-999
口木土	-1000
忄夬	-1001
▁永	-1002
𠂊亅	-1003
人一口手	-1004
阝東	-1005
口又一	-1006
un	-1007
▁192	-1008
口口欠	-1009
石皮	-1010
it	-1011
虍豆	-1012
虍豆戈	-1013
一生	-1014
耳口王	-1015
臼儿	-1016
白方攵	-1017
𠂇火	-1018
▁2011	-1019
𠁣𠃛口	-1020
宀八犬	-1021
艹来	-1022
人㔾刂	-1023
夂丶	-1024
亻以	-1025
尹口阝	-1026
世木	-1027
戈刂	-1028
▁皮	-1029
女又	-1030
丷夫㔾	-1031
夫见	-1032
心丿	-1033
中一贝	-1034
十口刂	-1035
罒乑	-1036
冫隹	-1037
谷卩	-1038
一丂	-1039
耳阝	-1040
里予	-1041
冂丶	-1042
工頁	-1043
el	-1044
000	-1045
㐅㐅	-1046
䒑土永	-1047
⺄十	-1048
𡗗日	-1049
コ又	-1050
⿱⿺	-1051
▁头	-1052
46	-1053
▁久	-1054
us	-1055
at	-1056
隹口	-1057
厂干	-1058
扌户	-1059
龴疋	-1060
丬士衣	-1061
ic	-1062
亠𠃊	-1063
▁co	-1064
力口木	-1065
宀八方	-1066
戈戈	-1067
▁2012	-1068
▁飛	-1069
几攵	-1070
山一几攵	-1071
⿸⿸	-1072
亠丷厂生	-1073
▁2013	-1074
コ一女	-1075
▁22	-1076
⿸⿱⿱	-1077
土儿土丸灬	-1078
▁⿻⿺	-1079
尢丶丿	-1080
二丨刂	-1081
十豆口	-1082
▁2016	-1083
勹缶	-1084
il	-1085
十贝	-1086
冖𧘇	-1087
土八夂	-1088
艹乂	-1089
𠂊田一日	-1090
氵由	-1091
5⿱	-1092
口寸	-1093
一龰页	-1094
▁2014	-1095
门口	-1096
df	-1097
▁zh	-1098
𠂇厶隹	-1099
𠃌丨一	-1100
宀丁	-1101
人氺	-1102
𠂉大豆	-1103
ur	-1104
▁2008	-1105
▁2015	-1106
▁24	-1107
隹隹又	-1108
竹朿	-1109
木羊	-1110
又戈	-1111
勹灬	-1112
工页	-1113
𠂉乙	-1114
屯頁	-1115
王王	-1116
䒑口	-1117
▁23	-1118
羊䒑口	-1119
𠘧又耳	-1120
巾白	-1121
广予	-1122
▁191	-1123
87	-1124
▁⿰⿳⿱⿻	-1125
肀一一田一刂	-1126
am	-1127
辶豕	-1128
氏日	-1129
王不	-1130
又见	-1131
丬夕	-1132
▁2001	-1133
木木手	-1134
广土	-1135
丿皿	-1136
口止巨	-1137
▁the	-1138
st	-1139
氵酉	-1140
▁}	-1141
艹非	-1142
▁{	-1143
亻十	-1144
▁⿱⿸	-1145
牙隹	-1146
宀木	-1147
幺大	-1148
▁束	-1149
匚㐅欠	-1150
辶力	-1151
龶贝	-1152
▁末	-1153
士示	-1154
氵㔾	-1155
士示欠	-1156
▁干	-1157
戊一𣥂	-1158
丷夫力	-1159
尸毛	-1160
▁⿰⿵	-1161
𠂊彐心	-1162
▁2007	-1163
目八攵	-1164
氵隹十	-1165
⿰⿻	-1166
▁2017	-1167
夂田	-1168
丿之	-1169
et	-1170
口口木	-1171
幺幺灬	-1172
人人十	-1173
纟工	-1174
弓冫	-1175
▁⿱⿰⿷	-1176
彐冖巾	-1177
▁!	-1178
囗人	-1179
𠘧又酉	-1180
𠂉巾	-1181
羊工	-1182
𠂊田灬日	-1183
夫夫	-1184
冖隹	-1185
冂㐅	-1186
丬夕大	-1187
扌白	-1188
▁见	-1189
彡頁	-1190
▁2006	-1191
乛耳	-1192
乛耳攵	-1193
夫夫日	-1194
日小	-1195
▁2018	-1196
户口	-1197
ch	-1198
氵聿	-1199
爫子	-1200
丰丰	-1201
金艮	-1202
䒑八	-1203
䒑八皿	-1204
衤里	-1205
車斤	-1206
辶𠂤	-1207
𠂊贝	-1208
囗韦	-1209
▁尺	-1210
广车	-1211
▁臣	-1212
▁26	-1213
丿乚	-1214
木土	-1215
习习白	-1216
▁100	-1217
爿犬	-1218
ing	-1219
金刂	-1220
口虫隹	-1221
一厶月攵	-1222
扌丸灬	-1223
大口	-1224
𠃑大口	-1225
▁朱	-1226
刀金刂	-1227
匕月	-1228
歹刂灬	-1229
▁⿹⿻	-1230
𠂉母攵	-1231
米女	-1232
▁⿸⿱	-1233
⿱⿱⿻	-1234
幺幺灬頁	-1235
895	-1236
犭虫	-1237
凵土	-1238
▁贝	-1239
勹丿	-1240
▁st	-1241
王丶	-1242
大丷	-1243
丷干丸	-1244
大丷日小	-1245
罒非	-1246
口夫隹	-1247
几口	-1248
▁27	-1249
亻二	-1250
人止	-1251
▁31	-1252
求攵	-1253
▁28	-1254
刀丿丶	-1255
乡隹	-1256
予頁	-1257
囗人皿	-1258
艹乙	-1259
戊𠃌皿	-1260
刀丿丶木	-1261
▁⿱⿰⿸	-1262
戈十車	-1263
▁2005	-1264
一彑	-1265
as	-1266
日央	-1267
舟见	-1268
tion	-1269
▁几	-1270
尸由	-1271
禾必	-1272
亠口子攵	-1273
▁谷	-1274
文刂	-1275
▁牛	-1276
田皿	-1277
日业	-1278
人人夂	-1279
一𣥂	-1280
ol	-1281
⿰⿸	-1282
凵田	-1283
土止	-1284
匕匕心	-1285
⿴⿱	-1286
▁in	-1287
▁飞	-1288
一乚丿	-1289
一乚丿兀	-1290
ow	-1291
▁x	-1292
木木示	-1293
𠂉大口日	-1294
日皿	-1295
月犬	-1296
⿰⿱⿵	-1297
冂二月犬	-1298
弗贝	-1299
▁29	-1300
耳又乑	-1301
木才	-1302
土皮	-1303
▁>	-1304
土儿土丸力	-1305
▁an	-1306
阝东	-1307
▁2000	-1308
亻又	-1309
辶巛	-1310
⿳⿻	-1311
口口口	-1312
冖又	-1313
コ一冖又	-1314
ed	-1315
一丰	-1316
𠂉疋	-1317
子小	-1318
▁巨	-1319
⿱⿻⿻	-1320
▁<	-1321
人人一	-1322
月月	-1323
几丶木	-1324
雨隹	-1325
木及	-1326
▁u	-1327
ra	-1328
丷酉寸	-1329
白小彡	-1330
▁190	-1331
山夕	-1332
八大	-1333
冂八大	-1334
丨又	-1335
臼丨又	-1336
土土兀	-1337
口止艮	-1338
夫丷	-1339
冂二月犬土	-1340
木木疋	-1341
▁50	-1342
ig	-1343
爫罒	-1344
广車	-1345
辶禺	-1346
冫水	-1347
屯页	-1348
𠂊厂㔾	-1349
𠃋丿人刂	-1350
朿刂	-1351
▁ch	-1352
口及	-1353
又隹	-1354
龶母	-1355
日大巾	-1356
宀于	-1357
ent	-1358
扌戈	-1359
亻木	-1360
田糸	-1361
目艮	-1362
𠁣𠃛耳	-1363
禾厶	-1364
禾火	-1365
雨彐	-1366
▁2019	-1367
▁y	-1368
▁ca	-1369
丶尸	-1370
干刂	-1371
王缶	-1372
木斤	-1373
犭㔾	-1374
冖几	-1375
宀且	-1376
石角	-1377
▁2004	-1378
ir	-1379
幺幺斤	-1380
▁⿰⿱⿺	-1381
不口	-1382
口隹	-1383
▁of	-1384
▁耳	-1385
辶兆	-1386
乛工	-1387
乛工一	-1388
士乛工一	-1389
▁斗	-1390
耂匕日	-1391
丬犬	-1392
os	-1393
耳耳	-1394
艹两	-1395
冂口攵	-1396
山石	-1397
丰寸	-1398
弋丿	-1399
戈廾	-1400
車㔾	-1401
木隹	-1402
夕㔾	-1403
扌甫	-1404
十廾	-1405
木木鬼	-1406
▁40	-1407
宀八牙	-1408
艹重	-1409
山隹	-1410
钅艮	-1411
缶夬	-1412
8977	-1413
𠂒口非	-1414
▁'	-1415
▁乎	-1416
艹隹	-1417
艹隹臼	-1418
𩰋𩰊	-1419
讠上	-1420
止月	-1421
▁br	-1422
▁000	-1423
大丶心	-1424
广大	-1425
▁|	-1426
中心	-1427
子皿	-1428
厶又	-1429
爫龴	-1430
辶白	-1431
䒑夫	-1432
ia	-1433
彑𧰨	-1434
又又木	-1435
十豆寸	-1436
𠃌冫	-1437
戈十车	-1438
臣又	-1439
阝車	-1440
口乎	-1441
辶米	-1442
勹臼	-1443
▁申	-1444
ac	-1445
id	-1446
女生	-1447
丷酉大	-1448
爫缶	-1449
▁2003	-1450
木白	-1451
刀巴	-1452
大隹	-1453
冂大	-1454
𠂊冂大	-1455
⺊尸	-1456
火乍	-1457
土丶	-1458
日十韦	-1459
om	-1460
⿰⿵	-1461
一丨虫	-1462
子乚	-1463
勹日	-1464
囗㐅	-1465
土厶卩	-1466
▁=	-1467
氵气	-1468
比十	-1469
氵甫	-1470
夕㐄木	-1471
纟田	-1472
𠂤止	-1473
月生	-1474
厂㔾	-1475
女又力	-1476
禾女鬼	-1477
▁⿰⿳⿱	-1478
止𣥂頁	-1479
𡗗禾	-1480
丿囗㐅	-1481
黑犬	-1482
20	-1483
▁甘	-1484
川頁	-1485
车斤	-1486
户隹	-1487
ut	-1488
▁厂	-1489
丿土	-1490
丿土攵	-1491
丷夫氺	-1492
予页	-1493
丰丰豆	-1494
贝攵	-1495
亡口	-1496
日大土	-1497
大镸	-1498
▁2002	-1499
ot	-1500
隹灬	-1501
亠𧘇	-1502
火火冖木	-1503
宀玉	-1504
▁⿰⿺	-1505
⿷⿱	-1506
𠃊米斤	-1507
木灬	-1508
亻戈	-1509
亠口冖豕	-1510
户口攵	-1511
▁肉	-1512
厂丁	-1513
习习隹	-1514
▁井	-1515
戈十衣	-1516
亠口冖毛	-1517
止𣥂页	-1518
氵九	-1519
㡀攵	-1520
氵九木	-1521
扌乚	-1522
木𠃓	-1523
丨丿彐	-1524
人人木隹	-1525
扌斤口	-1526
十目	-1527
黑土	-1528
大隹寸	-1529
ec	-1530
im	-1531
阝且	-1532
气羊	-1533
田月	-1534
王朱	-1535
氵也	-1536
口丩	-1537
▁35	-1538
▁al	-1539
几丶心	-1540
土厶皿	-1541
心皿	-1542
亠口冖几	-1543
心皿丁	-1544
门耳	-1545
彡页	-1546
勹甫	-1547
扌疌	-1548
山豆	-1549
口未	-1550
𠂊田一羊	-1551
灬皿	-1552
爫木彡	-1553
肀一灬皿	-1554
凵丨月	-1555
em	-1556
言川	-1557
戈十隹	-1558
um	-1559
十豆彡	-1560
火火冖力	-1561
亠口子阝	-1562
▁]	-1563
石更	-1564
亻山	-1565
⺌冖口手	-1566
艹冖力	-1567
丷酉大阝	-1568
▁60	-1569
亻五	-1570
▁[	-1571
爫工	-1572
爫工彐心	-1573
亻谷	-1574
丁頁	-1575
大示	-1576
扌丸力	-1577
丨日	-1578
龶夂	-1579
一田	-1580
一田一	-1581
王王必	-1582
幺力	-1583
䒑土食	-1584
田丁	-1585
▁han	-1586
果页	-1587
iv	-1588
礻乚	-1589
亚日	-1590
女未	-1591
𠂊田灬羊	-1592
▁ma	-1593
𠂉母攵糸	-1594
不皿	-1595
衤甫	-1596
糸攵	-1597
山一糸攵	-1598
目八才	-1599
禾且	-1600
▁乙	-1601
囗木	-1602
大巳	-1603
覀大巳	-1604
▁1990	-1605
言寸	-1606
〢又	-1607
▁⿺⿵	-1608
九朩	-1609
辶千	-1610
▁1999	-1611
oo	-1612
尺⺀	-1613
亠口了	-1614
耂子	-1615
ter	-1616
扌巨	-1617
二丨力	-1618
川页	-1619
中一㠯	-1620
䒑土皿	-1621
疋虫	-1622
𠄎丿	-1623
山豆几	-1624
山己	-1625
▁45	-1626
丿巾	-1627
尸示	-1628
尸示寸	-1629
车九	-1630
▁?	-1631
▁1998	-1632
丰刀	-1633
串心	-1634
巳廾	-1635
歹刂衣	-1636
亻乙	-1637
丁页	-1638
言方	-1639
木示隶	-1640
⿱⿰⿱	-1641
亻禺	-1642
彐火	-1643
▁韦	-1644
爿士	-1645
𠂉力	-1646
土丷	-1647
車欠	-1648
一日	-1649
厶厶一日	-1650
纟丑	-1651
日土	-1652
▁32	-1653
▁⿱⿰⿳	-1654
▁1997	-1655
囗禾	-1656
乚丿贝	-1657
ul	-1658
▁la	-1659
▁and	-1660
▁80	-1661
ad	-1662
日干	-1663
口口隹欠	-1664
歺又	-1665
𠂉一罒	-1666
⿴⿰	-1667
▁00	-1668
㇇⿱	-1669
op	-1670
宀申	-1671
夕㐄阝	-1672
冫中	-1673
土甫	-1674
彳皮	-1675
厶儿	-1676
牛攵	-1677
and	-1678
贝才	-1679
乛水	-1680
艹罒	-1681
乛水一	-1682
ri	-1683
車九	-1684
10	-1685
扌广	-1686
三丨	-1687
亠口子丸	-1688
▁丘	-1689
彳重	-1690
ation	-1691
冖木	-1692
亻子	-1693
土龰㐅	-1694
纟东	-1695
歹朱	-1696
立十土	-1697
弓土	-1698
50	-1699
扌斥	-1700
▁70	-1701
木兆	-1702
言果	-1703
▁189	-1704
山己几	-1705
木不	-1706
ay	-1707
▁36	-1708
歹匕廾	-1709
▁1980	-1710
▁+	-1711
𠂊田大	-1712
▁33	-1713
夂口頁	-1714
言丁	-1715
氵干	-1716
讠井	-1717
⿳⿳	-1718
40	-1719
巳灬	-1720
厶又乚	-1721
19	-1722
𦣞巳灬	-1723
▁ar	-1724
镸彡	-1725
艹人	-1726
艹人朩	-1727
氵冘	-1728
口月	-1729
th	-1730
一丨犬	-1731
冂二目	-1732
▁90	-1733
止匕糸	-1734
土龰卜	-1735
言斥	-1736
ers	-1737
工贝	-1738
口巴	-1739
▁1996	-1740
𠘧又皿	-1741
钅中	-1742
十冖子	-1743
日子	-1744
艹见	-1745
目儿丶	-1746
▁de	-1747
户隹頁	-1748
扌兆	-1749
幺幺心	-1750
臣又土	-1751
幺𠃌	-1752
▁1994	-1753
阝车	-1754
丿厶	-1755
讠方	-1756
▁sa	-1757
ie	-1758
爫臼	-1759
车欠	-1760
戊一火	-1761
歺又食	-1762
亻犬	-1763
ub	-1764
亠口子丸灬	-1765
又丶	-1766
䒑山刂	-1767
30	-1768
广由	-1769
48	-1770
▁500	-1771
白小頁	-1772
礻羊	-1773
▁1995	-1774
㡀攵巾	-1775
▁th	-1776
止匕木	-1777
口止兆	-1778
虫虫	-1779
ag	-1780
小大	-1781
工口寸	-1782
木卯	-1783
夂口页	-1784
oc	-1785
▁1993	-1786
亻申	-1787
衤卜	-1788
罒心	-1789
艹罒冖	-1790
宀丰罒心	-1791
一大阝	-1792
讠川	-1793
▁187	-1794
丷干犬	-1795
女且	-1796
千口攵	-1797
▁』	-1798
辶了	-1799
▁〉	-1800
ov	-1801
匕口	-1802
匕口灬	-1803
丶丶	-1804
丶丶丶	-1805
▁1992	-1806
大电	-1807
▁188	-1808
▁瓜	-1809
车两	-1810
𠃌丿	-1811
钅戋	-1812
▁com	-1813
▁sh	-1814
▁186	-1815
龙衣	-1816
▁tw	-1817
木攵	-1818
▁un	-1819
土口隹	-1820
日大㣺	-1821
▁to	-1822
80	-1823
ind	-1824
▁1991	-1825
臼工	-1826
一史	-1827
丨丨一	-1828
艹罒冖夕	-1829
車甫	-1830
田一口	-1831
▁re	-1832
口龶力	-1833
𠂒儿贝	-1834
革月	-1835
▁q	-1836
8959	-1837
氵白	-1838
米立	-1839
▁1950	-1840
▁1949	-1841
▁37	-1842
千口乚	-1843
八刀頁	-1844
▁1970	-1845
12	-1846
王白	-1847
丿田	-1848
儿厶	-1849
▁34	-1850
大寸	-1851
丰阝巾	-1852
▁隶	-1853
十冖子力	-1854
冖儿干	-1855
日王	-1856
ta	-1857
艹方	-1858
土欠	-1859
na	-1860
匕匕灬	-1861
▁hans	-1862
牛也	-1863
▁hk	-1864
▁sp	-1865
人人刂	-1866
冖见	-1867
di	-1868
爫子乚	-1869
氵匚	-1870
▁1989	-1871
金十	-1872
勹口攵手	-1873
弓厶	-1874
廿木	-1875
木彡	-1876
扌石	-1877
re	-1878
木木幺	-1879
凵乚	-1880
ba	-1881
▁1988	-1882
▁185	-1883
臼土	-1884
臣又糸	-1885
忄不	-1886
11	-1887
凵丨欠	-1888
人干	-1889
▁39	-1890
王文	-1891
田田	-1892
▁1945	-1893
艹之	-1894
ard	-1895
li	-1896
广发	-1897
土夬	-1898
▁mar	-1899
亻中	-1900
▁pro	-1901
ang	-1902
25	-1903
讠寸	-1904
千臼	-1905
丰刀大	-1906
𠂉丶见	-1907
▁col	-1908
▁on	-1909
土川	-1910
丰丰彐心	-1911
灬史	-1912
▁⿳⿳	-1913
▁300	-1914
og	-1915
廿灬	-1916
旡旡	-1917
旡旡日	-1918
21	-1919
矛木	-1920
車斤日	-1921
勹田	-1922
▁is	-1923
▁1960	-1924
⺊贝	-1925
糸言糸心	-1926
ine	-1927
石广	-1928
ph	-1929
戈𠂇	-1930
▁55	-1931
王文王	-1932
av	-1933
ik	-1934
王皮	-1935
禾禾日	-1936
〢又土	-1937
pp	-1938
▁豆	-1939
凵丨月土	-1940
疒了	-1941
竹聿	-1942
▁mo	-1943
▁1985	-1944
一火	-1945
▁38	-1946
又欠	-1947
土方	-1948
口斤	-1949
冖牛	-1950
扌𠃓	-1951
谷欠	-1952
▁1986	-1953
冂㐅刂	-1954
工丂	-1955
▁46	-1956
斤欠	-1957
讠斥	-1958
衤由	-1959
氵永	-1960
▁1987	-1961
15	-1962
▁1984	-1963
女己	-1964
ion	-1965
ows	-1966
▁42	-1967
口一𧘇	-1968
果頁	-1969
厂㔾页	-1970
舟皿	-1971
est	-1972
宀由	-1973
土不	-1974
ou	-1975
土鬼	-1976
车由	-1977
白小心	-1978
千口予	-1979
人丶龴阝	-1980
刀贝	-1981
丘山	-1982
ess	-1983
犭言	-1984
犭言犬	-1985
阝月	-1986
16	-1987
▁⿱⿴⿱	-1988
丿丨刂	-1989
▁⿻⿱	-1990
口口丨	-1991
▁as	-1992
▁1983	-1993
▁43	-1994
讠丁	-1995
广木	-1996
te	-1997
▁%	-1998
亠父阝	-1999
钅十	-2000
日十彡	-2001
艹戊	-2002
匕刂	-2003
〢又糸	-2004
▁1982	-2005
亻方	-2006
▁47	-2007
卜皿	-2008
土卜皿	-2009
▁ne	-2010
𠁣𠃛才	-2011
17	-2012
45	-2013
und	-2014
▁丈	-2015
▁75	-2016
一八言	-2017
业䒑夫	-2018
▁65	-2019
▁wind	-2020
▁am	-2021
厂里	-2022
▁hd	-2023
丷夫刀	-2024
丷夫手	-2025
ts	-2026
13	-2027
忄隹	-2028
彳氵	-2029
厂彡頁	-2030
▁or	-2031
大弓	-2032
衤谷	-2033
ber	-2034
宀丰口刂	-2035
𠂊田灬里	-2036
几又	-2037
60	-2038
▁49	-2039
月巴	-2040
47	-2041
匕頁	-2042
屯阝	-2043
氵𠃓	-2044
▁fr	-2045
▁con	-2046
ver	-2047
彐寸	-2048
扌由	-2049
35	-2050
毌贝	-2051
由丂	-2052
▁1978	-2053
ccdp	-2054
虍业	-2055
覀土	-2056
ly	-2057
亚心	-2058
⿶⿳⿰	-2059
up	-2060
▁ro	-2061
▁⿻⿵	-2062
犭王	-2063
▁windows	-2064
巛果	-2065
井一八木	-2066
丿言	-2067
ap	-2068
釆心	-2069
女又心	-2070
由阝	-2071
▁150	-2072
子瓜	-2073
▁虫	-2074
讠果	-2075
犭火	-2076
18	-2077
▁册	-2078
42	-2079
▁400	-2080
▁1979	-2081
白儿	-2082
876	-2083
▁卜	-2084
▁en	-2085
巛火	-2086
女彐	-2087
王册	-2088
37	-2089
虍心	-2090
人一朩斗	-2091
田一口犬	-2092
90	-2093
目八女	-2094
ge	-2095
▁52	-2096
辶万	-2097
▁ii	-2098
纟氏	-2099
igh	-2100
▁⿰⿱⿱⿱⿰	-2101
口口田一口犬	-2102
▁1981	-2103
门才	-2104
▁肃	-2105
一厶廾	-2106
土土卜	-2107
卩丶	-2108
口内	-2109
𠂎丶	-2110
月贝	-2111
▁le	-2112
▁48	-2113
14	-2114
ist	-2115
戈十木	-2116
▁jo	-2117
ip	-2118
耒毛	-2119
月永	-2120
ell	-2121
▁180	-2122
ity	-2123
爫女	-2124
▁⿰⿸⿸	-2125
ak	-2126
32	-2127
勹米	-2128
sp	-2129
▁1958	-2130
▁1946	-2131
ue	-2132
▁at	-2133
几木	-2134
束刂	-2135
▁tr	-2136
𠃊人欠	-2137
扌以	-2138
氵皮女	-2139
𠂉大巨	-2140
▁⿰⿱⿻	-2141
一刂	-2142
od	-2143
ab	-2144
宀火	-2145
ack	-2146
▁64	-2147
丿𠃌攵	-2148
人一朩又	-2149
口口山	-2150
米且	-2151
ich	-2152
井一八⺀	-2153
▁te	-2154
匚王	-2155
▁44	-2156
𠃜目	-2157
22	-2158
扌夫	-2159
竹毛	-2160
▁56	-2161
丷八月	-2162
非一	-2163
二厶鬼	-2164
▁寸	-2165
70	-2166
ey	-2167
习习立	-2168
歹戋	-2169
ica	-2170
uc	-2171
36	-2172
艹肅	-2173
日女	-2174
丶丶丶皿	-2175
if	-2176
▁1930	-2177
土隹	-2178
▁ex	-2179
礻巳	-2180
尸巾	-2181
▁66	-2182
尸巾刂	-2183
lay	-2184
ill	-2185
▁1948	-2186
口土	-2187
车甫	-2188
ong	-2189
▁1975	-2190
又阝	-2191
亠幺田	-2192
▁1940	-2193
ear	-2194
▁1920	-2195
24	-2196
▁85	-2197
女兆	-2198
氵王	-2199
33	-2200
一大㣺	-2201
▁1937	-2202
26	-2203
扌甲	-2204
女𦣞	-2205
匕页	-2206
車由	-2207
27	-2208
▁120	-2209
垂阝	-2210
⿱⿱⿰	-2211
辶隶	-2212
木木石	-2213
▁⿰⿸⿱⿱	-2214
𠂤十	-2215
▁1947	-2216
▁ph	-2217
厂万	-2218
癶豆阝	-2219
𠂊彐	-2220
▁pr	-2221
bo	-2222
𠂊丶	-2223
▁1976	-2224
▁1956	-2225
灬心	-2226
犭讠	-2227
犭讠犬	-2228
▁so	-2229
言羊	-2230
▁1000	-2231
乛水一灬	-2232
all	-2233
艹亡	-2234
ry	-2235
虫朱	-2236
▁ad	-2237
亻九	-2238
口贝力	-2239
▁57	-2240
▁⿰⿴	-2241
小隹	-2242
朿朿	-2243
34	-2244
亻寸肉	-2245
38	-2246
▁1972	-2247
▁par	-2248
ss	-2249
ma	-2250
冖且	-2251
彳钅	-2252
29	-2253
▁犬	-2254
▁1952	-2255
土厶力	-2256
39	-2257
ve	-2258
木乚	-2259
覀贝	-2260
▁cn	-2261
▁兆	-2262
角虫	-2263
艹肃	-2264
▁1941	-2265
竹龙	-2266
31	-2267
▁1955	-2268
▁1973	-2269
八刀页	-2270
⺊又	-2271
丷八牛	-2272
▁600	-2273
▁1966	-2274
丿丿心	-2275
亠丷厂彡页	-2276
非心	-2277
月刂心	-2278
车斤日	-2279
氵欠	-2280
86	-2281
丿二丨刂	-2282
纟屯	-2283
49	-2284
▁1968	-2285
ian	-2286
止匕角	-2287
▁76	-2288
大冖牛	-2289
⿹⿱	-2290
乛亅丿	-2291
▁59	-2292
人一朩攵	-2293
肀月	-2294
木木夕	-2295
▁1954	-2296
忄亡	-2297
io	-2298
▁bo	-2299
28	-2300
木朱	-2301
man	-2302
車車	-2303
▁gr	-2304
女乃	-2305
▁1977	-2306
釆丂	-2307
丿囗釆丂	-2308
ord	-2309
▁1974	-2310
月几	-2311
▁77	-2312
▁yo	-2313
⿹⿻⿱	-2314
亻韦	-2315
ff	-2316
▁95	-2317
▁1938	-2318
亻弋衣	-2319
▁1957	-2320
bs	-2321
忄白	-2322
火丁	-2323
八口𧘇	-2324
九丶	-2325
王白石	-2326
▁179	-2327
牙阝	-2328
▁1964	-2329
▁頁	-2330
enter	-2331
彳金	-2332
▁1959	-2333
▁1971	-2334
▁1965	-2335
▁ac	-2336
▁800	-2337
23	-2338
75	-2339
se	-2340
口欠	-2341
ft	-2342
十月	-2343
十月丶	-2344
▁nba	-2345
44	-2346
讠内	-2347
覀木	-2348
ign	-2349
sh	-2350
ice	-2351
▁1939	-2352
▁1953	-2353
氵欠皿	-2354
田田土	-2355
田比	-2356
冫欠口	-2357
▁1961	-2358
又丶虫	-2359
▁1967	-2360
一中	-2361
一中冖	-2362
▁1942	-2363
ud	-2364
▁cd	-2365
㐅乂木	-2366
亻丨攵	-2367
▁58	-2368
䒑土女	-2369
十廾贝	-2370
▁1944	-2371
非文	-2372
㐅乂木大	-2373
月刂刀	-2374
亠里	-2375
亠里𧘇	-2376
⿱⿵	-2377
▁jr	-2378
氵中	-2379
one	-2380
立𧰨	-2381
▁⿳⿻	-2382
石页	-2383
氵丁	-2384
▁41	-2385
龷八㣺	-2386
氵女	-2387
▁⿻⿻	-2388
コ一丿	-2389
木卜	-2390
▁88	-2391
一丂阝	-2392
▁69	-2393
▁99	-2394
▁1962	-2395
▁1936	-2396
▁丑	-2397
tic	-2398
扌爪	-2399
▁me	-2400
乃子	-2401
宀禺	-2402
虫工	-2403
▁1943	-2404
言刂	-2405
ate	-2406
土里	-2407
▁wh	-2408
▁1935	-2409
艹禺力	-2410
▁51	-2411
ug	-2412
ps	-2413
ive	-2414
▁sc	-2415
▁1951	-2416
⿰⿰	-2417
▁54	-2418
▁160	-2419
亻火	-2420
止匕隹	-2421
▁1963	-2422
士冖	-2423
▁1969	-2424
予象	-2425
ith	-2426
八刀皿	-2427
▁goo	-2428
门王	-2429
刀牛虫	-2430
耒井	-2431
鬼斗	-2432
▁tv	-2433
目隹	-2434
口屯	-2435
石頁	-2436
▁ng	-2437
qu	-2438
ix	-2439
▁1927	-2440
艹矛	-2441
匚儿力	-2442
▁sm	-2443
▁2020	-2444
辶韦	-2445
▁se	-2446
金重	-2447
一大口	-2448
ore	-2449
ace	-2450
ton	-2451
ne	-2452
▁op	-2453
ect	-2454
力力月	-2455
▁96	-2456
丰刀糸	-2457
幺大隹	-2458
ty	-2459
▁be	-2460
土贝	-2461
扌口	-2462
䒑土灬	-2463
日大力	-2464
▁it	-2465
⺌月刂	-2466
宀八乙	-2467
扌皮	-2468
ock	-2469
▁bl	-2470
宀必虫	-2471
41	-2472
丬士	-2473
亡心	-2474
纟文	-2475
▁cr	-2476
立十言	-2477
43	-2478
▁1933	-2479
ens	-2480
艹本	-2481
而寸	-2482
ah	-2483
▁sch	-2484
ux	-2485
▁1928	-2486
pe	-2487
▁舟	-2488
▁67	-2489
▁id	-2490
▁177	-2491
斤丶	-2492
▁1931	-2493
口非	-2494
水日	-2495
一廾瓦	-2496
▁dv	-2497
▁1932	-2498
〢又贝	-2499
▁ed	-2500
▁hant	-2501
▁页	-2502
▁79	-2503
65	-2504
▁97	-2505
▁play	-2506
尸水	-2507
讠羊	-2508
ant	-2509
▁68	-2510
厂万力	-2511
ga	-2512
▁sy	-2513
亻士	-2514
▁ap	-2515
eam	-2516
▁ra	-2517
▁car	-2518
▁pa	-2519
gle	-2520
▁53	-2521
且厶心	-2522
son	-2523
𠁣𠃛王	-2524
end	-2525
ib	-2526
丘阝	-2527
ook	-2528
𠂉丶金	-2529
▁lin	-2530
目目隹	-2531
巨木	-2532
氵巨木	-2533
ment	-2534
户攵	-2535
宀八乍	-2536
钅甫	-2537
▁dr	-2538
▁cl	-2539
▁1929	-2540
int	-2541
亠田	-2542
目垂	-2543
▁86	-2544
亠丷厂彡	-2545
▁ak	-2546
刀口阝	-2547
▁弓	-2548
コ一人	-2549
▁1934	-2550
▁us	-2551
尸雨	-2552
⺌贝	-2553
mp	-2554
▁inter	-2555
▁700	-2556
扌斤言	-2557
hn	-2558
千口甘	-2559
氵户	-2560
讠刂	-2561
乃又	-2562
乃又皿	-2563
ke	-2564
⺌冖口贝	-2565
▁89	-2566
ina	-2567
冫欠瓦	-2568
王廾	-2569
▁110	-2570
▁⿸⿱⿱	-2571
▁gam	-2572
禾刂木	-2573
自犬	-2574
ern	-2575
ond	-2576
82	-2577
钅欠	-2578
83	-2579
ight	-2580
▁dvd	-2581
丿糸心	-2582
▁72	-2583
▁⿱⿰⿱⿴	-2584
士冖豆	-2585
丿木	-2586
忄乙	-2587
▁1912	-2588
卩示	-2589
木干	-2590
ory	-2591
▁wor	-2592
▁1925	-2593
▁hr	-2594
乀丿口	-2595
▁mus	-2596
81	-2597
ick	-2598
匚一	-2599
冫欠女	-2600
▁man	-2601
▁no	-2602
金欠	-2603
56	-2604
▁we	-2605
力口贝	-2606
ll	-2607
mm	-2608
▁1918	-2609
ii	-2610
ld	-2611
▁ht	-2612
99	-2613
𠂤巾	-2614
62	-2615
▁140	-2616
▁爪	-2617
▁new	-2618
贝贝	-2619
口尺	-2620
ort	-2621
▁⿱⿰⿰	-2622
亻丨攵心	-2623
饣欠	-2624
丨丿巾	-2625
牛生	-2626
▁1919	-2627
▁柬	-2628
匕禾	-2629
不一	-2630
尸示寸心	-2631
立十月	-2632
▁87	-2633
丿士几	-2634
月干	-2635
▁ip	-2636
▁130	-2637
▁mv	-2638
iss	-2639
▁1922	-2640
忄艮	-2641
yle	-2642
▁my	-2643
▁1924	-2644
▁250	-2645
84	-2646
𠁣𠃛虫	-2647
𠘧又糸	-2648
月非	-2649
扌丑	-2650
ai	-2651
己心	-2652
ube	-2653
59	-2654
ance	-2655
八刀贝	-2656
ung	-2657
▁170	-2658
tv	-2659
57	-2660
月力	-2661
▁google	-2662
▁61	-2663
⿻⿱	-2664
耳又女	-2665
iz	-2666
▁62	-2667
51	-2668
小丿力	-2669
▁1926	-2670
lo	-2671
广比	-2672
礻斤	-2673
1900	-2674
▁mon	-2675
▁center	-2676
口巾	-2677
▁qu	-2678
皮頁	-2679
ck	-2680
乍心	-2681
目大	-2682
竹目大	-2683
ure	-2684
八厶𧘇	-2685
53	-2686
▁sao	-2687
xt	-2688
67	-2689
co	-2690
▁ho	-2691
厂彡	-2692
▁63	-2693
亠口𧘇	-2694
衤果	-2695
▁ser	-2696
▁john	-2697
▁⿸⿸⿸	-2698
立十讠	-2699
dice	-2700
贝贝女	-2701
so	-2702
▁lov	-2703
tr	-2704
冫欠皿	-2705
户月	-2706
氵文	-2707
人目	-2708
冂一八	-2709
▁codice	-2710
▁po	-2711
▁166	-2712
64	-2713
辶尺	-2714
52	-2715
ris	-2716
me	-2717
艹夫	-2718
▁1914	-2719
石专	-2720
▁3000	-2721
气弗	-2722
爪巴	-2723
▁1911	-2724
▁ge	-2725
𠁣𠃛人	-2726
戊丶	-2727
丷田一口	-2728
95	-2729
艹巴	-2730
▁bb	-2731
to	-2732
▁comp	-2733
𠂇月阝	-2734
▁⿷⿱	-2735
▁欠	-2736
口口隹力	-2737
▁⿱⿱⿲	-2738
丂戈	-2739
ans	-2740
禾丂戈	-2741
▁1913	-2742
▁1921	-2743
隹乃	-2744
一巛工力	-2745
68	-2746
▁dna	-2747
▁style	-2748
木木火	-2749
▁back	-2750
69	-2751
㐅乂木大手	-2752
54	-2753
ary	-2754
▁wil	-2755
▁1917	-2756
ide	-2757
▁av	-2758
een	-2759
身弓	-2760
▁ist	-2761
木東	-2762
cl	-2763
ial	-2764
户攵聿	-2765
土龰干	-2766
目民	-2767
幺冖牛	-2768
span	-2769
55	-2770
乀丿寸	-2771
▁bar	-2772
▁colspan	-2773
▁74	-2774
甘欠	-2775
亻为	-2776
𠂊田一禾	-2777
ier	-2778
门虫	-2779
▁app	-2780
土申	-2781
木象	-2782
▁can	-2783
▁met	-2784
round	-2785
▁yout	-2786
97	-2787
▁net	-2788
▁73	-2789
犭瓜	-2790
▁1923	-2791
口口一	-2792
夕㔾心	-2793
58	-2794
ence	-2795
▁1900	-2796
▁mac	-2797
▁er	-2798
▁82	-2799
广龙	-2800
▁per	-2801
age	-2802
父巴	-2803
▁肅	-2804
ies	-2805
亻為	-2806
▁尸	-2807
氵戋	-2808
eat	-2809
land	-2810
ire	-2811
▁istat	-2812
96	-2813
▁now	-2814
▁sil	-2815
車干	-2816
92	-2817
人一口皿	-2818
ank	-2819
ational	-2820
▁戊	-2821
目夂	-2822
冂人目夂	-2823
art	-2824
▁71	-2825
▁el	-2826
▁su	-2827
▁98	-2828
61	-2829
ley	-2830
ite	-2831
▁km	-2832
一巛工頁	-2833
口甫	-2834
72	-2835
lar	-2836
98	-2837
ha	-2838
缶工	-2839
匚非	-2840
▁pl	-2841
ok	-2842
76	-2843
▁es	-2844
▁101	-2845
▁78	-2846
一八欠	-2847
▁ngc	-2848
▁1909	-2849
疒艮	-2850
▁align	-2851
71	-2852
▁fo	-2853
止龰	-2854
▁bd	-2855
▁81	-2856
⿱⿻⿱	-2857
73	-2858
𠁣𠃛甲	-2859
▁1910	-2860
78	-2861
亡目	-2862
皮页	-2863
79	-2864
𠘧又月	-2865
又力	-2866
ish	-2867
▁ag	-2868
▁ga	-2869
station	-2870
▁em	-2871
匚甲	-2872
ann	-2873
▁cor	-2874
▁one	-2875
▁str	-2876
九日	-2877
63	-2878
93	-2879
人一朩土	-2880
▁1905	-2881
ground	-2882
匚斤	-2883
厶牛	-2884
ere	-2885
▁do	-2886
ivers	-2887
▁tra	-2888
ky	-2889
艮土	-2890
▁mic	-2891
▁coun	-2892
▁ha	-2893
▁900	-2894
ust	-2895
非衣	-2896
口口几	-2897
▁1915	-2898
▁mat	-2899
且一八頁	-2900
▁cp	-2901
米丂	-2902
▁os	-2903
74	-2904
石几	-2905
▁pc	-2906
▁sup	-2907
扌彐	-2908
▁youtube	-2909
▁playstation	-2910
sa	-2911
亻弋黑	-2912
91	-2913
are	-2914
iel	-2915
▁84	-2916
own	-2917
丿囗米丂	-2918
ins	-2919
iki	-2920
5%	-2921
▁background	-2922
tive	-2923
▁1916	-2924
▁love	-2925
ead	-2926
▁you	-2927
女干	-2928
立十束	-2929
les	-2930
94	-2931
ool	-2932
be	-2933
for	-2934
▁1500	-2935
▁color	-2936
▁ep	-2937
▁sn	-2938
▁ps	-2939
爿一	-2940
片爿一	-2941
ile	-2942
▁⿵⿱⿱	-2943
▁gro	-2944
▁1901	-2945
▁linux	-2946
ome	-2947
▁92	-2948
言隹	-2949
▁tim	-2950
va	-2951
𠁣𠃛月	-2952
ster	-2953
▁廿	-2954
八丂	-2955
▁1903	-2956
口且	-2957
ass	-2958
old	-2959
▁83	-2960
氵谷	-2961
use	-2962
丿二丨小	-2963
▁res	-2964
▁text	-2965
pt	-2966
一自戈	-2967
⺌冖口木	-2968
▁1907	-2969
▁06	-2970
冫欠心	-2971
ico	-2972
大隹田	-2973
▁1906	-2974
户犬	-2975
▁gu	-2976
dr	-2977
▁li	-2978
▁5000	-2979
▁he	-2980
且一八页	-2981
▁go	-2982
ood	-2983
竹由	-2984
纟千	-2985
金甫	-2986
▁gen	-2987
ms	-2988
弓瓜	-2989
▁ea	-2990
▁med	-2991
口一心	-2992
▁all	-2993
巛果刂	-2994
▁93	-2995
book	-2996
▁105	-2997
▁sw	-2998
ara	-2999
▁91	-3000
木木彡	-3001
立十瓜	-3002
▁1908	-3003
▁face	-3004
▁univers	-3005
纟韦	-3006
ho	-3007
丰丰彐	-3008
疋月	-3009
竹目大糸	-3010
门木	-3011
▁ab	-3012
▁bro	-3013
▁09	-3014
▁min	-3015
𠃋丿人力	-3016
▁05	-3017
宀八力	-3018
▁live	-3019
氵十	-3020
▁ta	-3021
▁with	-3022
▁intern	-3023
木口	-3024
▁ba	-3025
⿰⿳⿱	-3026
01	-3027
王鬼	-3028
非車	-3029
▁ste	-3030
女亚	-3031
tp	-3032
ml	-3033
氵山	-3034
犬廾	-3035
艹犬廾	-3036
▁da	-3037
宀牛	-3038
▁sec	-3039
氏丶阝	-3040
王攵	-3041
▁by	-3042
ys	-3043
火户	-3044
tc	-3045
▁nh	-3046
丿米	-3047
▁lo	-3048
udi	-3049
ram	-3050
火火冖虫	-3051
▁exp	-3052
▁micro	-3053
艹牙	-3054
ower	-3055
冂卄頁	-3056
▁world	-3057
镸聿	-3058
▁silver	-3059
tor	-3060
▁dav	-3061
冖果	-3062
丿米丨	-3063
彑冖果	-3064
丨丨比土	-3065
▁ty	-3066
匕禾頁	-3067
bert	-3068
▁iii	-3069
br	-3070
enn	-3071
宀臣	-3072
lec	-3073
八厶頁	-3074
▁har	-3075
▁super	-3076
氵必	-3077
lex	-3078
▁1904	-3079
da	-3080
rom	-3081
士冖一	-3082
耂日灬	-3083
▁cla	-3084
▁des	-3085
▁94	-3086
▁pe	-3087
▁bla	-3088
ka	-3089
ki	-3090
酉州	-3091
▁music	-3092
ks	-3093
ana	-3094
扌发	-3095
▁360	-3096
ath	-3097
▁mm	-3098
▁star	-3099
▁fl	-3100
▁char	-3101
幺幺田	-3102
木东	-3103
urn	-3104
▁akb	-3105
大田	-3106
月中	-3107
ose	-3108
▁禹	-3109
土立	-3110
▁air	-3111
丆且	-3112
ium	-3113
wor	-3114
▁⿰⿱⿳	-3115
覀米	-3116
km	-3117
▁07	-3118
人一口頁	-3119
臣卜	-3120
言永	-3121
尢力	-3122
stem	-3123
火东	-3124
火柬	-3125
▁di	-3126
文而	-3127
门人	-3128
鬼未	-3129
▁her	-3130
ls	-3131
土及	-3132
der	-3133
▁school	-3134
▁bas	-3135
ds	-3136
eng	-3137
▁08	-3138
里予土	-3139
gb	-3140
mer	-3141
口电	-3142
ward	-3143
▁1902	-3144
▁ms	-3145
丷豕土	-3146
▁fa	-3147
▁01	-3148
▁na	-3149
丘丿	-3150
uth	-3151
▁⿰⿻⿵	-3152
丨丨一刂	-3153
▁1895	-3154
亻丈	-3155
▁af	-3156
▁cc	-3157
八丂皿	-3158
yn	-3159
艹心	-3160
ony	-3161
▁dis	-3162
▁nor	-3163
▁ver	-3164
ame	-3165
禾隹	-3166
门甲	-3167
ale	-3168
▁350	-3169
⿱⿵⿵	-3170
anc	-3171
oth	-3172
ata	-3173
禾刂牛	-3174
▁104	-3175
耳火	-3176
▁ua	-3177
口止止	-3178
ler	-3179
宀八缶	-3180
iti	-3181
▁je	-3182
3%	-3183
4%	-3184
6%	-3185
ven	-3186
▁facebook	-3187
石欠	-3188
口止戋	-3189
olog	-3190
▁sur	-3191
犭里	-3192
vel	-3193
pa	-3194
氵世	-3195
丿丿丶	-3196
ude	-3197
▁che	-3198
▁system	-3199
月豕	-3200
cal	-3201
▁mc	-3202
per	-3203
▁⿺⿸	-3204
▁rec	-3205
虍几彡	-3206
一白弓	-3207
亠果	-3208
米糸	-3209
▁04	-3210
亠果𧘇	-3211
box	-3212
扌卜	-3213
米糸廾	-3214
▁4000	-3215
月𠃓	-3216
eed	-3217
tain	-3218
月方	-3219
歺又米	-3220
耳卯	-3221
立口刂	-3222
▁1898	-3223
7%	-3224
中𧘇	-3225
亠中𧘇	-3226
丿土攵心	-3227
eet	-3228
▁jav	-3229
▁106	-3230
dp	-3231
ual	-3232
▁102	-3233
月重	-3234
▁ka	-3235
▁gra	-3236
匚巾	-3237
钅内	-3238
艹户	-3239
亻卜	-3240
8%	-3241
冫東	-3242
▁pla	-3243
凵㐅儿	-3244
▁red	-3245
ical	-3246
▁ss	-3247
牛土	-3248
▁ス	-3249
羊乚	-3250
ash	-3251
liam	-3252
▁pet	-3253
ker	-3254
roid	-3255
▁gn	-3256
㡀攵廾	-3257
口木𧘇	-3258
甫方攵	-3259
▁vo	-3260
ya	-3261
犭且	-3262
臣人	-3263
厶厶土	-3264
▁125	-3265
虍力	-3266
禺心	-3267
▁ib	-3268
▁ic	-3269
女我	-3270
asa	-3271
ited	-3272
▁int	-3273
▁ter	-3274
▁pol	-3275
▁vis	-3276
▁dc	-3277
▁jam	-3278
2%	-3279
▁up	-3280
𠂊田灬由	-3281
纟方	-3282
千口甫	-3283
gn	-3284
歹千	-3285
amp	-3286
▁im	-3287
▁ww	-3288
▁bbc	-3289
册刂	-3290
eal	-3291
▁1890	-3292
9%	-3293
亻弋贝	-3294
▁not	-3295
soft	-3296
hz	-3297
氵文刂	-3298
▁ass	-3299
▁high	-3300
tle	-3301
▁ir	-3302
▁108	-3303
▁mor	-3304
士冖一禾	-3305
▁ref	-3306
巛田	-3307
月女	-3308
▁103	-3309
▁tvb	-3310
𠂊冫寸水	-3311
za	-3312
口里	-3313
▁del	-3314
臣又月	-3315
ille	-3316
1%	-3317
▁220	-3318
幺月	-3319
幺月乚	-3320
mb	-3321
▁lu	-3322
▁1896	-3323
▁02	-3324
𠂇火皿	-3325
▁prod	-3326
申𠃓	-3327
礻阝	-3328
▁hy	-3329
▁1200	-3330
▁web	-3331
彐一八車	-3332
▁cont	-3333
ane	-3334
▁wal	-3335
丘丶	-3336
ner	-3337
亠口了灬	-3338
彐氺刂	-3339
𠂇口心	-3340
ike	-3341
icon	-3342
▁android	-3343
疒皮	-3344
口于	-3345
纟丩	-3346
▁ev	-3347
▁115	-3348
▁div	-3349
▁game	-3350
▁nowiki	-3351
▁william	-3352
甘阝	-3353
覀土瓦	-3354
艹甘	-3355
ula	-3356
▁1899	-3357
lin	-3358
▁team	-3359
ise	-3360
mo	-3361
▁val	-3362
▁saint	-3363
木丈	-3364
礻氏	-3365
▁cb	-3366
▁iv	-3367
dy	-3368
氵斤	-3369
▁107	-3370
▁mark	-3371
▁bu	-3372
豸艮土	-3373
▁gir	-3374
宀龙	-3375
▁iso	-3376
饣虫	-3377
oph	-3378
illa	-3379
氵心	-3380
王厶	-3381
▁ce	-3382
▁mr	-3383
▁1897	-3384
九力	-3385
▁university	-3386
氵夕	-3387
▁240	-3388
ena	-3389
way	-3390
eth	-3391
▁cy	-3392
▁microsoft	-3393
▁off	-3394
▁show	-3395
▁san	-3396
ings	-3397
▁du	-3398
▁⿰⿱⿰⿱	-3399
▁studi	-3400
ble	-3401
扌末	-3402
亻弋山	-3403
广户	-3404
舟白	-3405
月土	-3406
▁enter	-3407
ult	-3408
▁ec	-3409
▁vi	-3410
03	-3411
▁war	-3412
讠隹	-3413
▁group	-3414
tions	-3415
𠂊小心	-3416
▁david	-3417
心心	-3418
ress	-3419
▁that	-3420
che	-3421
ham	-3422
05	-3423
▁bra	-3424
彐一八车	-3425
▁cent	-3426
▁111	-3427
go	-3428
pm	-3429
ont	-3430
▁she	-3431
▁1860	-3432
山我	-3433
ino	-3434
丶丶丶匕	-3435
丷十	-3436
火頁	-3437
门文	-3438
▁128	-3439
𠂎卩	-3440
▁10%	-3441
▁gp	-3442
冂口月	-3443
日隹	-3444
▁03	-3445
▁50%	-3446
ス工页	-3447
⺌冖口牙	-3448
▁1880	-3449
氵末	-3450
02	-3451
era	-3452
▁1889	-3453
田皿頁	-3454
▁112	-3455
▁ber	-3456
▁ind	-3457
ons	-3458
▁109	-3459
▁open	-3460
iro	-3461
▁135	-3462
▁sim	-3463
贝长	-3464
urg	-3465
▁⿳⿲	-3466
▁lim	-3467
⿰⿱⿶	-3468
▁max	-3469
丶丶丶匕彡	-3470
oss	-3471
⿰⿱⿰	-3472
阝龙	-3473
金隹	-3474
门柬	-3475
八厶页	-3476
里儿土	-3477
▁mk	-3478
丷夫目	-3479
ement	-3480
▁1600	-3481
▁international	-3482
未攵	-3483
▁⿸⿱⿰	-3484
木冖	-3485
木缶	-3486
ero	-3487
▁ke	-3488
木缶木冖	-3489
▁cm	-3490
ae	-3491
▁day	-3492
▁⿱⿻⿻	-3493
▁et	-3494
甲一阝	-3495
▁pop	-3496
匕禾页	-3497
虍文	-3498
tis	-3499
tiv	-3500
▁nhk	-3501
▁1800	-3502
竹立	-3503
ink	-3504
▁mich	-3505
一廾阝	-3506
▁paul	-3507
巾长	-3508
月夫	-3509
uro	-3510
▁mi	-3511
▁geor	-3512
ael	-3513
▁sam	-3514
▁black	-3515
▁ios	-3516
td	-3517
06	-3518
▁tech	-3519
灬也	-3520
▁⿰⿹⿶	-3521
car	-3522
cm	-3523
虫丰	-3524
▁eng	-3525
▁1894	-3526
wa	-3527
木乚糸	-3528
cy	-3529
木更	-3530
〢又月	-3531
▁comm	-3532
▁cs	-3533
▁was	-3534
▁巾	-3535
雨文	-3536
彑氺刂	-3537
▁fla	-3538
▁sk	-3539
𠘧又石	-3540
▁ds	-3541
▁sal	-3542
▁1870	-3543
▁power	-3544
▁114	-3545
▁450	-3546
▁mil	-3547
▁gl	-3548
一止心	-3549
ari	-3550
立十玉	-3551
inal	-3552
木果	-3553
orn	-3554
▁fc	-3555
▁sing	-3556
osh	-3557
▁113	-3558
ene	-3559
▁cro	-3560
▁6000	-3561
石水	-3562
▁118	-3563
▁20%	-3564
▁don	-3565
一龰匕	-3566
丬夕水	-3567
▁117	-3568
自木	-3569
▁ts	-3570
▁trans	-3571
uk	-3572
enti	-3573
▁soc	-3574
𠂊冫寸酉	-3575
▁http	-3576
亻朱	-3577
木矛木	-3578
羊丑	-3579
言乍	-3580
非车	-3581
一儿	-3582
▁122	-3583
ute	-3584
▁bea	-3585
uch	-3586
▁mp	-3587
▁city	-3588
▁sol	-3589
父斤	-3590
▁from	-3591
▁time	-3592
▁xbox	-3593
几丶革	-3594
fa	-3595
ject	-3596
▁bet	-3597
𠂇工月土	-3598
▁155	-3599
▁rad	-3600
▁1871	-3601
厂犬	-3602
iver	-3603
▁mer	-3604
▁280	-3605
▁top	-3606
phone	-3607
que	-3608
▁210	-3609
▁酉	-3610
衤彡	-3611
▁java	-3612
夂卜口	-3613
▁ang	-3614
▁1885	-3615
▁ins	-3616
月长	-3617
let	-3618
冂人禸	-3619
▁230	-3620
▁big	-3621
▁1886	-3622
▁rich	-3623
山甲	-3624
▁pat	-3625
▁reg	-3626
▁county	-3627
▁艮	-3628
itter	-3629
bl	-3630
▁jun	-3631
ze	-3632
日十戈	-3633
▁fir	-3634
钅月	-3635
日立	-3636
亠口子丸土	-3637
▁out	-3638
▁alex	-3639
fo	-3640
ini	-3641
▁dj	-3642
▁ko	-3643
钅隹	-3644
unt	-3645
▁116	-3646
▁mag	-3647
口比	-3648
ict	-3649
las	-3650
▁tom	-3651
▁utc	-3652
木矛木心	-3653
女女	-3654
八刀山	-3655
戈十口	-3656
ald	-3657
阝人土	-3658
▁1884	-3659
▁1893	-3660
▁145	-3661
▁dir	-3662
▁rep	-3663
▁rock	-3664
08	-3665
礻必	-3666
饣几	-3667
▁sl	-3668
ス工力	-3669
糸言糸虫	-3670
▁type	-3671
艹斤	-3672
酉鬼	-3673
▁kn	-3674
▁121	-3675
▁lif	-3676
竹二	-3677
▁sd	-3678
berg	-3679
▁bat	-3680
▁tri	-3681
⿻⿵	-3682
ita	-3683
oug	-3684
▁sun	-3685
04	-3686
口米	-3687
大十	-3688
攵灬	-3689
ark	-3690
cen	-3691
▁are	-3692
▁inc	-3693
𠂊彐攵灬	-3694
▁michael	-3695
str	-3696
tit	-3697
erica	-3698
▁cpu	-3699
mun	-3700
▁ur	-3701
lor	-3702
▁1888	-3703
po	-3704
父卩	-3705
▁produc	-3706
车干	-3707
▁king	-3708
my	-3709
▁ef	-3710
any	-3711
can	-3712
▁123	-3713
▁james	-3714
扌予	-3715
▁win	-3716
爿女	-3717
谷欠心	-3718
ther	-3719
ital	-3720
▁gdp	-3721
▁games	-3722
bi	-3723
弋心	-3724
礻也	-3725
礻乍	-3726
▁chr	-3727
ese	-3728
▁only	-3729
▁national	-3730
▁robert	-3731
by	-3732
工水	-3733
ior	-3734
▁bel	-3735
艹内	-3736
▁320	-3737
▁america	-3738
▁90%	-3739
▁org	-3740
pg	-3741
wn	-3742
木冘	-3743
▁fil	-3744
▁1850	-3745
▁80%	-3746
▁dan	-3747
虫我	-3748
金金	-3749
por	-3750
▁1861	-3751
火巨	-3752
line	-3753
▁phil	-3754
▁record	-3755
▁sar	-3756
▁wat	-3757
▁free	-3758
▁iphone	-3759
虍隹	-3760
osa	-3761
▁kh	-3762
宀八弓	-3763
十豆口灬	-3764
▁serv	-3765
▁mod	-3766
コ儿	-3767
白コ儿	-3768
▁144	-3769
▁260	-3770
▁1892	-3771
▁kar	-3772
未攵厂里	-3773
艹朱	-3774
ield	-3775
▁jack	-3776
07	-3777
ja	-3778
钅甲	-3779
▁1873	-3780
木隶	-3781
豆寸	-3782
ism	-3783
clude	-3784
▁2500	-3785
▁129	-3786
▁ibm	-3787
火火冖玉	-3788
▁thom	-3789
yl	-3790
ump	-3791
▁bi	-3792
ics	-3793
ott	-3794
凵丨阝	-3795
▁1876	-3796
▁1887	-3797
▁colle	-3798
itch	-3799
▁650	-3800
▁119	-3801
▁unix	-3802
ama	-3803
▁fm	-3804
▁1868	-3805
女方	-3806
fer	-3807
▁media	-3808
fc	-3809
氵弗	-3810
言朱	-3811
▁vol	-3812
ase	-3813
tra	-3814
▁132	-3815
▁van	-3816
▁best	-3817
▁spec	-3818
▁oricon	-3819
白七	-3820
work	-3821
▁end	-3822
hel	-3823
▁127	-3824
▁1840	-3825
wan	-3826
女口心	-3827
▁cat	-3828
▁vir	-3829
▁1881	-3830
口夫艮	-3831
ily	-3832
▁bm	-3833
▁mel	-3834
▁rna	-3835
▁class	-3836
oll	-3837
竹目大厶	-3838
又艮	-3839
石夕	-3840
阝禺	-3841
ild	-3842
net	-3843
▁1883	-3844
止止	-3845
革巴	-3846
▁aa	-3847
▁126	-3848
▁apple	-3849
▁1891	-3850
▁life	-3851
▁tour	-3852
xy	-3853
金丑	-3854
▁techn	-3855
▁twitter	-3856
⿱⿰⿹	-3857
▁hot	-3858
ology	-3859
虫文	-3860
ora	-3861
teg	-3862
▁137	-3863
▁30%	-3864
▁750	-3865
▁8000	-3866
ange	-3867
erson	-3868
耒禺	-3869
辶豆	-3870
tin	-3871
▁cap	-3872
▁1864	-3873
▁club	-3874
100	-3875
▁ul	-3876
▁hel	-3877
▁rev	-3878
▁arch	-3879
ull	-3880
臣又豆	-3881
▁jap	-3882
▁nat	-3883
fr	-3884
ave	-3885
▁fe	-3886
▁ol	-3887
▁550	-3888
▁⿰⿰⿴	-3889
亡女	-3890
金丁	-3891
ano	-3892
ko	-3893
▁ve	-3894
木木毛	-3895
▁152	-3896
▁ben	-3897
09	-3898
一也	-3899
ors	-3900
▁si	-3901
▁bus	-3902
竹本	-3903
del	-3904
𠁣𠃛文	-3905
▁lea	-3906
金柬	-3907
▁ja	-3908
𠁣𠃛木	-3909
丿丿皿	-3910
▁assoc	-3911
罒方	-3912
▁124	-3913
▁park	-3914
▁entertain	-3915
▁1879	-3916
央皿	-3917
ste	-3918
fe	-3919
▁rem	-3920
++	-3921
vin	-3922
▁1867	-3923
▁miss	-3924
itt	-3925
▁165	-3926
▁hen	-3927
▁1877	-3928
eration	-3929
▁ok	-3930
▁entertainment	-3931
▁mg	-3932
▁175	-3933
▁1865	-3934
▁first	-3935
fs	-3936
▁巳	-3937
冫东	-3938
▁1878	-3939
ugh	-3940
土文	-3941
▁dd	-3942
▁133	-3943
▁boy	-3944
▁road	-3945
▁wr	-3946
㐅朩刂	-3947
rol	-3948
▁mem	-3949
▁dream	-3950
小土	-3951
▁ger	-3952
▁1862	-3953
▁dist	-3954
▁fire	-3955
iew	-3956
艹甫	-3957
uss	-3958
▁gar	-3959
▁rom	-3960
▁1882	-3961
人斗	-3962
▁house	-3963
宀丰口谷	-3964
zz	-3965
ius	-3966
凵丨隹	-3967
▁sky	-3968
▁chris	-3969
its	-3970
▁dem	-3971
▁dra	-3972
▁1874	-3973
led	-3974
ery	-3975
▁⿻⿹	-3976
丿廾土	-3977
▁sub	-3978
▁1848	-3979
▁west	-3980
口肃	-3981
▁sg	-3982
▁40%	-3983
▁737	-3984
火土	-3985
gin	-3986
ien	-3987
〢又立	-3988
▁70%	-3989
▁pan	-3990
vo	-3991
禾几	-3992
▁py	-3993
▁award	-3994
ct	-3995
fl	-3996
iet	-3997
▁der	-3998
▁hol	-3999
▁kg	-4000
▁oh	-4001
▁studio	-4002
▁270	-4003
▁north	-4004
▁college	-4005
▁5%	-4006
▁60%	-4007
▁cal	-4008
▁pal	-4009
ution	-4010
▁bill	-4011
艹巨	-4012
iation	-4013
▁christ	-4014
日大日	-4015
▁154	-4016
▁les	-4017
▁1872	-4018
讠朱	-4019
▁lit	-4020
▁this	-4021
▁project	-4022
木巨	-4023
vis	-4024
▁gt	-4025
氵目	-4026
火页	-4027
▁sci	-4028
we	-4029
200	-4030
ira	-4031
▁if	-4032
千口刂	-4033
▁138	-4034
ua	-4035
▁nt	-4036
▁tem	-4037
▁good	-4038
cri	-4039
▁aut	-4040
𠂊田一里	-4041
▁1875	-4042
▁over	-4043
▁limited	-4044
ert	-4045
▁imp	-4046
ura	-4047
▁131	-4048
比土	-4049
ime	-4050
include	-4051
eas	-4052
ret	-4053
▁sr	-4054
ular	-4055
▁art	-4056
▁pub	-4057
▁richard	-4058
艹于	-4059
rop	-4060
▁street	-4061
min	-4062
▁fri	-4063
▁www	-4064
▁hall	-4065
▁japan	-4066
丹彡	-4067
匚隹	-4068
▁wa	-4069
田八夂	-4070
朿⺀	-4071
▁sum	-4072
ob	-4073
亻鬼	-4074
𠂊彐阝	-4075
▁1863	-4076
▁south	-4077
ui	-4078
隹十	-4079
丿丿丶心	-4080
▁bs	-4081
扌乃	-4082
氵立	-4083
龙土	-4084
ake	-4085
undam	-4086
▁7000	-4087
▁george	-4088
▁service	-4089
ws	-4090
人彡戈	-4091
▁147	-4092
▁arm	-4093
▁line	-4094
▁intel	-4095
no	-4096
ani	-4097
▁158	-4098
▁sir	-4099
▁euro	-4100
一攵	-4101
ella	-4102
▁wii	-4103
▁east	-4104
bn	-4105
言柬	-4106
⿱⿻⿹	-4107
月刂灬	-4108
▁fam	-4109
ritic	-4110
▁1300	-4111
▁gold	-4112
ents	-4113
idge	-4114
▁ltd	-4115
▁1400	-4116
▁乍	-4117
▁lee	-4118
▁mtv	-4119
丬夕酉	-4120
𠂉大隹	-4121
▁atp	-4122
▁nasa	-4123
▁unico	-4124
▁charles	-4125
form	-4126
▁153	-4127
▁china	-4128
𠂉一罒金	-4129
▁unicode	-4130
木木非	-4131
▁cha	-4132
▁mas	-4133
▁chem	-4134
釆由	-4135
eep	-4136
urs	-4137
▁ju	-4138
▁sig	-4139
ensis	-4140
▁kbs	-4141
ous	-4142
▁136	-4143
▁168	-4144
▁acc	-4145
▁ear	-4146
▁peter	-4147
求衣	-4148
▁⿰⿱⿱⿱	-4149
木甘	-4150
艹鬼	-4151
讠柬	-4152
eak	-4153
ger	-4154
▁rh	-4155
▁1700	-4156
▁禺	-4157
火言	-4158
▁lou	-4159
𠂊田灬屯	-4160
▁lang	-4161
氵发	-4162
mus	-4163
王王比	-4164
▁dom	-4165
▁mid	-4166
▁1869	-4167
▁est	-4168
▁log	-4169
ns	-4170
匕水	-4171
石石	-4172
▁100%	-4173
▁long	-4174
金由	-4175
阝井	-4176
▁156	-4177
▁205	-4178
▁bur	-4179
ci	-4180
示示	-4181
火言火	-4182
ling	-4183
ware	-4184
▁sin	-4185
▁land	-4186
扌止	-4187
ipp	-4188
▁pp	-4189
▁134	-4190
▁340	-4191
▁por	-4192
火言火又	-4193
▁1857	-4194
▁will	-4195
do	-4196
竹干	-4197
▁ah	-4198
▁cv	-4199
▁148	-4200
▁211	-4201
忄束	-4202
木鬼	-4203
囗口禾	-4204
ning	-4205
▁143	-4206
▁ever	-4207
▁gundam	-4208
gy	-4209
氵及	-4210
▁ob	-4211
▁ram	-4212
丬女	-4213
石申	-4214
eral	-4215
▁led	-4216
竹生	-4217
王王巴	-4218
▁139	-4219
ander	-4220
▁1100	-4221
▁news	-4222
0⿱	-4223
氵木	-4224
▁mov	-4225
丷干丸土	-4226
▁jose	-4227
▁metac	-4228
gen	-4229
ple	-4230
▁key	-4231
▁pres	-4232
口肅	-4233
山谷	-4234
ates	-4235
▁may	-4236
▁nov	-4237
▁records	-4238
人示	-4239
一丂頁	-4240
口龶阝	-4241
unes	-4242
itz	-4243
▁abc	-4244
月工	-4245
金内	-4246
ope	-4247
ball	-4248
▁but	-4249
▁lam	-4250
▁1859	-4251
▁direct	-4252
uck	-4253
▁lis	-4254
▁1854	-4255
ada	-4256
▁xp	-4257
▁mul	-4258
▁wid	-4259
▁sony	-4260
ury	-4261
▁sea	-4262
uce	-4263
able	-4264
▁inf	-4265
▁tur	-4266
▁home	-4267
▁metacritic	-4268
bor	-4269
▁kr	-4270
▁149	-4271
▁fer	-4272
▁men	-4273
▁ray	-4274
▁1853	-4275
▁form	-4276
▁html	-4277
▁臼	-4278
讠乍	-4279
ush	-4280
一兀頁	-4281
扌丸土	-4282
▁pri	-4283
爫寸	-4284
▁151	-4285
▁elec	-4286
cation	-4287
木己	-4288
金巨	-4289
丿皿乑	-4290
▁164	-4291
▁225	-4292
𠂊冫寸木	-4293
▁1866	-4294
▁thomas	-4295
土丹	-4296
士冖业	-4297
▁256	-4298
0%	-4299
pl	-4300
束欠	-4301
耳心	-4302
com	-4303
sch	-4304
▁dig	-4305
▁env	-4306
弓丨丿刂	-4307
女户	-4308
001	-4309
▁gi	-4310
▁380	-4311
▁330	-4312
▁amd	-4313
▁bit	-4314
▁mad	-4315
▁nav	-4316
▁office	-4317
▁company	-4318
口永	-4319
氵且	-4320
艹止	-4321
▁1858	-4322
▁ele	-4323
▁fi	-4324
orts	-4325
▁747	-4326
▁tai	-4327
earch	-4328
▁mont	-4329
▁25%	-4330
▁pre	-4331
▁roy	-4332
▁1856	-4333
木丂	-4334
lat	-4335
▁blue	-4336
土斤	-4337
▁167	-4338
▁207	-4339
▁hor	-4340
千口自心	-4341
▁jean	-4342
mi	-4343
▁冉	-4344
▁ly	-4345
▁ru	-4346
▁sbs	-4347
▁fran	-4348
▁real	-4349
日未	-4350
言内	-4351
▁159	-4352
▁202	-4353
▁fun	-4354
▁gnu	-4355
▁ham	-4356
hc	-4357
pc	-4358
sm	-4359
gon	-4360
▁mbc	-4361
▁green	-4362
act	-4363
ima	-4364
▁mu	-4365
女又弓	-4366
▁173	-4367
▁camp	-4368
▁hear	-4369
禾儿	-4370
▁215	-4371
▁mal	-4372
氵于	-4373
户攵口	-4374
urch	-4375
▁lib	-4376
▁categ	-4377
bal	-4378
▁ni	-4379
▁420	-4380
▁fin	-4381
▁tor	-4382
gr	-4383
▁tc	-4384
▁pas	-4385
▁tbs	-4386
▁au	-4387
▁il	-4388
▁mb	-4389
▁183	-4390
▁480	-4391
tif	-4392
亠田久	-4393
▁141	-4394
▁adv	-4395
▁cra	-4396
▁1830	-4397
ough	-4398
▁gal	-4399
𡗗臼	-4400
101	-4401
𠘧又金	-4402
▁who	-4403
▁bank	-4404
▁cons	-4405
▁young	-4406
弓米	-4407
弓米弓	-4408
▁203	-4409
▁cur	-4410
▁great	-4411
木册	-4412
丷干臼	-4413
▁bal	-4414
▁pra	-4415
ville	-4416
▁⿱⿰⿻⿱	-4417
日文	-4418
▁146	-4419
▁ign	-4420
▁mob	-4421
▁tal	-4422
牛冂刂手	-4423
▁chin	-4424
▁gala	-4425
▁year	-4426
eek	-4427
ota	-4428
mann	-4429
ones	-4430
▁162	-4431
▁235	-4432
▁girls	-4433
▁category	-4434
▁onlyinclude	-4435
木戋	-4436
阝皮	-4437
lic	-4438
▁301	-4439
▁api	-4440
▁squ	-4441
▁thr	-4442
▁prin	-4443
▁song	-4444
eau	-4445
gue	-4446
▁nbc	-4447
▁tro	-4448
▁⿺⿱⿱	-4449
▁1855	-4450
▁state	-4451
▁under	-4452
az	-4453
ji	-4454
▁ze	-4455
禾火心	-4456
▁vic	-4457
钅里	-4458
饣我	-4459
onic	-4460
▁163	-4461
▁bab	-4462
▁leg	-4463
▁soft	-4464
钅由	-4465
han	-4466
▁von	-4467
▁1847	-4468
▁inst	-4469
ten	-4470
▁ti	-4471
▁176	-4472
▁cbs	-4473
▁hal	-4474
▁var	-4475
▁1845	-4476
▁hell	-4477
▁name	-4478
▁american	-4479
ye	-4480
纟申	-4481
钅垂	-4482
ddf	-4483
ral	-4484
ated	-4485
▁hs	-4486
▁has	-4487
⿱⿱⿴⿱	-4488
丿囗㐅儿	-4489
▁prog	-4490
犬犬	-4491
ford	-4492
▁169	-4493
▁208	-4494
▁isbn	-4495
▁association	-4496
gbt	-4497
ded	-4498
tian	-4499
▁214	-4500
▁act	-4501
▁ceo	-4502
▁town	-4503
▁river	-4504
ql	-4505
勹二	-4506
角斗	-4507
vid	-4508
木丶刂	-4509
▁209	-4510
▁ast	-4511
cript	-4512
ester	-4513
艮心	-4514
艹末	-4515
ney	-4516
▁az	-4517
目八力	-4518
▁850	-4519
▁ann	-4520
▁1846	-4521
▁champ	-4522
▁itunes	-4523
▁cg	-4524
▁va	-4525
▁fes	-4526
▁glo	-4527
▁1843	-4528
▁hist	-4529
▁ai	-4530
▁white	-4531
ola	-4532
ron	-4533
urt	-4534
▁ry	-4535
▁142	-4536
▁204	-4537
▁far	-4538
▁how	-4539
▁girl	-4540
▁def	-4541
▁die	-4542
▁tar	-4543
▁157	-4544
▁212	-4545
▁stand	-4546
▁ice	-4547
▁1851	-4548
ator	-4549
burg	-4550
▁206	-4551
▁lar	-4552
▁ret	-4553
ction	-4554
▁1841	-4555
▁part	-4556
白鬼	-4557
金垂	-4558
ids	-4559
▁gb	-4560
cher	-4561
▁hum	-4562
▁cast	-4563
▁your	-4564
▁production	-4565
衤寸	-4566
ird	-4567
reg	-4568
八厶儿	-4569
▁217	-4570
▁law	-4571
▁hong	-4572
⿸⿸⿸	-4573
▁15%	-4574
▁dep	-4575
▁inv	-4576
▁rob	-4577
⺌冖口衣	-4578
▁disc	-4579
▁10000	-4580
▁instit	-4581
▁network	-4582
tt	-4583
star	-4584
▁370	-4585
▁alb	-4586
▁dos	-4587
▁ros	-4588
▁cctv	-4589
▁frank	-4590
▁width	-4591
▁internet	-4592
lam	-4593
▁xx	-4594
▁216	-4595
▁410	-4596
▁bor	-4597
▁band	-4598
▁radio	-4599
广里	-4600
den	-4601
▁ri	-4602
一大虫	-4603
zy	-4604
▁run	-4605
▁hill	-4606
▁kong	-4607
▁post	-4608
cs	-4609
▁172	-4610
▁178	-4611
▁iuc	-4612
▁usb	-4613
ett	-4614
rey	-4615
▁om	-4616
▁285	-4617
丨丨比灬	-4618
▁book	-4619
囗甫	-4620
金屯	-4621
▁310	-4622
▁ova	-4623
▁way	-4624
▁iucn	-4625
▁work	-4626
ny	-4627
▁ig	-4628
cade	-4629
wood	-4630
▁174	-4631
▁246	-4632
▁1852	-4633
▁island	-4634
木方	-4635
▁1%	-4636
丿丿刂	-4637
ship	-4638
urus	-4639
▁218	-4640
▁bon	-4641
▁vide	-4642
▁church	-4643
▁commun	-4644
▁server	-4645
pan	-4646
▁hu	-4647
▁ll	-4648
▁pv	-4649
▁td	-4650
▁161	-4651
▁182	-4652
▁space	-4653
口犬	-4654
𠂇月土	-4655
▁290	-4656
▁doc	-4657
厂人	-4658
日斤	-4659
止自	-4660
gan	-4661
ody	-4662
▁0%	-4663
▁rs	-4664
亻隹月	-4665
巳八夂	-4666
▁dar	-4667
▁vii	-4668
止自巳八夂	-4669
▁mol	-4670
▁jump	-4671
钅丁	-4672
lan	-4673
pha	-4674
丬夕木	-4675
▁223	-4676
▁ia	-4677
▁two	-4678
川一	-4679
▁yu	-4680
艹冖火	-4681
ural	-4682
▁171	-4683
▁221	-4684
▁277	-4685
rew	-4686
▁sv	-4687
子皿力	-4688
pper	-4689
▁184	-4690
▁cam	-4691
▁sen	-4692
▁sha	-4693
▁asia	-4694
▁dm	-4695
tics	-4696
▁430	-4697
▁cas	-4698
▁pag	-4699
board	-4700
▁1814	-4701
毛毛	-4702
而女	-4703
阝千	-4704
ric	-4705
▁pu	-4706
ters	-4707
▁sat	-4708
▁store	-4709
丷丨	-4710
钅刂	-4711
gaz	-4712
▁ki	-4713
▁ny	-4714
cast	-4715
▁let	-4716
▁mir	-4717
▁sem	-4718
▁1835	-4719
▁like	-4720
▁section	-4721
金甲	-4722
▁bay	-4723
▁num	-4724
艹艮	-4725
ona	-4726
edia	-4727
▁440	-4728
▁911	-4729
▁1812	-4730
▁code	-4731
丿乀	-4732
米子	-4733
黑攵	-4734
res	-4735
raph	-4736
▁226	-4737
山一黑攵	-4738
▁force	-4739
▁franc	-4740
▁united	-4741
ely	-4742
▁jan	-4743
▁sta	-4744
▁cross	-4745
钅丑	-4746
cil	-4747
une	-4748
▁set	-4749
▁syn	-4750
▁what	-4751
▁night	-4752
eel	-4753
▁001	-4754
▁ado	-4755
▁jul	-4756
▁sti	-4757
▁little	-4758
▁sports	-4759
oma	-4760
㐅乂玉	-4761
▁rpg	-4762
▁xml	-4763
▁1820	-4764
厶廾	-4765
500	-4766
▁sel	-4767
▁party	-4768
▁battle	-4769
氵虫	-4770
火田	-4771
耳止	-4772
ops	-4773
▁bc	-4774
▁rt	-4775
人目又	-4776
▁grand	-4777
▁henry	-4778
▁express	-4779
氵兆	-4780
氵朱	-4781
𠘧又木	-4782
▁228	-4783
▁aug	-4784
▁cir	-4785
▁cry	-4786
更生	-4787
▁vs	-4788
▁cho	-4789
▁jac	-4790
annel	-4791
▁1815	-4792
ington	-4793
pr	-4794
忄鬼	-4795
ida	-4796
▁222	-4797
▁365	-4798
▁1824	-4799
▁1844	-4800
▁martin	-4801
▁science	-4802
一乚	-4803
乙水	-4804
▁fn	-4805
一乚丶	-4806
丷酉犬	-4807
爿士大	-4808
▁224	-4809
▁238	-4810
▁god	-4811
▁maj	-4812
▁1849	-4813
日乍	-4814
木工	-4815
矛攵	-4816
igo	-4817
▁181	-4818
▁266	-4819
▁1832	-4820
▁joseph	-4821
▁junior	-4822
犭艮	-4823
off	-4824
rpm	-4825
▁950	-4826
▁edu	-4827
▁his	-4828
▁smith	-4829
扌弗	-4830
士口頁	-4831
▁carl	-4832
▁lgbt	-4833
▁mary	-4834
▁comic	-4835
▁engine	-4836
▁コ	-4837
言牙	-4838
rich	-4839
ures	-4840
jo	-4841
山民	-4842
女口糸	-4843
▁213	-4844
▁401	-4845
▁dec	-4846
ional	-4847
tival	-4848
▁1842	-4849
▁plan	-4850
▁magaz	-4851
ila	-4852
一兀页	-4853
idae	-4854
▁255	-4855
▁1789	-4856
301	-4857
eee	-4858
oto	-4859
▁md	-4860
▁501	-4861
▁ara	-4862
▁get	-4863
▁heart	-4864
▁corpor	-4865
▁ae	-4866
▁232	-4867
▁305	-4868
▁luc	-4869
▁mur	-4870
▁sand	-4871
▁station	-4872
cha	-4873
cess	-4874
▁box	-4875
▁tan	-4876
velop	-4877
▁magazine	-4878
hr	-4879
酉禾	-4880
▁219	-4881
▁239	-4882
▁fly	-4883
▁hom	-4884
▁mit	-4885
▁nam	-4886
▁video	-4887
石乐	-4888
艹我	-4889
day	-4890
▁ml	-4891
𠂊田一刂	-4892
field	-4893
ocket	-4894
tical	-4895
▁foot	-4896
▁steam	-4897
▁edward	-4898
▁enviro	-4899
▁taiwan	-4900
虫牙	-4901
201	-4902
tps	-4903
▁1831	-4904
dition	-4905
▁tu	-4906
人人攵	-4907
eder	-4908
▁325	-4909
▁hea	-4910
▁1795	-4911
▁after	-4912
▁angel	-4913
▁festival	-4914
zo	-4915
贝戋	-4916
ili	-4917
olf	-4918
▁db	-4919
▁tg	-4920
ison	-4921
▁251	-4922
▁rub	-4923
▁spr	-4924
▁anti	-4925
▁prof	-4926
▁prot	-4927
▁league	-4928
革斤	-4929
iga	-4930
▁aw	-4931
onom	-4932
▁den	-4933
▁rel	-4934
▁snh	-4935
▁mill	-4936
▁light	-4937
▁channel	-4938
xx	-4939
火𠃓	-4940
lad	-4941
mar	-4942
win	-4943
匚㐅瓦	-4944
▁265	-4945
▁720	-4946
▁777	-4947
▁dev	-4948
▁lan	-4949
▁1833	-4950
▁3500	-4951
▁just	-4952
▁moon	-4953
▁poly	-4954
▁sound	-4955
土于	-4956
言且	-4957
ach	-4958
cat	-4959
uld	-4960
匕水页	-4961
▁262	-4962
▁mos	-4963
宀一	-4964
rome	-4965
▁bbs	-4966
▁pier	-4967
▁place	-4968
▁mobile	-4969
▁victor	-4970
▁special	-4971
▁champion	-4972
亻两	-4973
一八石	-4974
囗口示	-4975
well	-4976
▁640	-4977
▁75%	-4978
▁bad	-4979
▁cer	-4980
▁1644	-4981
▁pass	-4982
▁https	-4983
▁develop	-4984
▁program	-4985
灬川	-4986
钅屯	-4987
our	-4988
rie	-4989
▁⿴⿱	-4990
口王阝	-4991
▁234	-4992
▁cin	-4993
▁esp	-4994
▁tak	-4995
▁muse	-4996
▁galaxy	-4997
讠韦	-4998
val	-4999
▁308	-5000
▁rea	-5001
▁francis	-5002
eri	-5003
▁lg	-5004
艹冖玉	-5005
▁236	-5006
▁dor	-5007
▁1837	-5008
▁1838	-5009
▁2021	-5010
▁word	-5011
▁online	-5012
忄斤	-5013
▁oc	-5014
▁wi	-5015
ache	-5016
▁ace	-5017
丿囗㐅比	-5018
si	-5019
eck	-5020
gar	-5021
▁pg	-5022
▁275	-5023
▁hbo	-5024
▁1821	-5025
▁beat	-5026
▁down	-5027
▁level	-5028
▁general	-5029
▁research	-5030
yp	-5031
aya	-5032
cus	-5033
▁560	-5034
▁jim	-5035
▁moz	-5036
▁1792	-5037
一由	-5038
ato	-5039
▁cu	-5040
▁film	-5041
▁ieee	-5042
▁mach	-5043
▁orig	-5044
▁louis	-5045
▁manag	-5046
▁maria	-5047
ng	-5048
▁kw	-5049
▁1828	-5050
▁port	-5051
hi	-5052
衤末	-5053
▁ns	-5054
▁sf	-5055
宀八巾	-5056
cent	-5057
iety	-5058
▁520	-5059
▁crh	-5060
▁core	-5061
业阝	-5062
cle	-5063
▁288	-5064
▁460	-5065
▁fox	-5066
▁pac	-5067
▁1836	-5068
▁more	-5069
kg	-5070
宀石	-5071
辶于	-5072
𠂊彐隹	-5073
▁229	-5074
▁540	-5075
▁610	-5076
▁tel	-5077
▁vin	-5078
▁1776	-5079
▁1793	-5080
▁happ	-5081
口丁	-5082
氵亡	-5083
con	-5084
▁227	-5085
▁307	-5086
▁311	-5087
▁have	-5088
▁found	-5089
▁multi	-5090
pi	-5091
▁530	-5092
▁1801	-5093
▁9000	-5094
▁plus	-5095
▁royal	-5096
▁global	-5097
380	-5098
ves	-5099
▁fu	-5100
lish	-5101
▁rog	-5102
人一口龙	-5103
日广	-5104
月寸	-5105
bus	-5106
▁252	-5107
▁htc	-5108
▁1825	-5109
▁which	-5110
⺀火	-5111
金里	-5112
har	-5113
lix	-5114
▁jt	-5115
▁ya	-5116
立十刀	-5117
𠂊⺀火	-5118
▁block	-5119
▁union	-5120
▁master	-5121
▁control	-5122
扌母	-5123
火夬	-5124
sta	-5125
▁ku	-5126
time	-5127
▁son	-5128
ision	-5129
▁1806	-5130
▁anim	-5131
▁pala	-5132
▁small	-5133
▁second	-5134
hd	-5135
▁皿	-5136
bel	-5137
kin	-5138
▁245	-5139
▁1810	-5140
▁2022	-5141
▁2400	-5142
▁adobe	-5143
▁society	-5144
舟甲	-5145
ote	-5146
▁fx	-5147
▁fal	-5148
ition	-5149
▁1791	-5150
▁last	-5151
▁mode	-5152
▁rain	-5153
▁journ	-5154
永日	-5155
400	-5156
key	-5157
▁cf	-5158
▁dl	-5159
ease	-5160
▁390	-5161
亠口小頁	-5162
ights	-5163
▁steph	-5164
▁visual	-5165
▁corporation	-5166
女疌	-5167
氵屯	-5168
lip	-5169
zer	-5170
习习欠	-5171
ider	-5172
▁uss	-5173
▁netf	-5174
▁stor	-5175
亡民	-5176
亻田	-5177
peg	-5178
▁wo	-5179
𠂊小玉	-5180
eter	-5181
▁low	-5182
▁non	-5183
▁pay	-5184
丿𠃌攵虫	-5185
▁1829	-5186
▁every	-5187
▁flash	-5188
▁model	-5189
▁vista	-5190
▁design	-5191
tl	-5192
𠂉生	-5193
501	-5194
bar	-5195
row	-5196
▁vr	-5197
ette	-5198
▁244	-5199
force	-5200
▁tele	-5201
▁council	-5202
▁institute	-5203
▁pm	-5204
▁qq	-5205
▁ut	-5206
face	-5207
ople	-5208
▁emp	-5209
ister	-5210
▁call	-5211
▁summer	-5212
二贝	-5213
目兆	-5214
金玉	-5215
300	-5216
max	-5217
ray	-5218
立十木	-5219
▁303	-5220
▁601	-5221
▁660	-5222
▁arr	-5223
▁hon	-5224
▁pap	-5225
▁ax	-5226
⺊尸页	-5227
rict	-5228
▁960	-5229
▁aus	-5230
▁gov	-5231
尸米	-5232
囗口阝	-5233
戊一小	-5234
▁249	-5235
▁338	-5236
▁701	-5237
▁ing	-5238
▁jer	-5239
▁wwe	-5240
龷由八阝	-5241
▁data	-5242
▁press	-5243
db	-5244
▁pi	-5245
𠁣𠃛心	-5246
▁ken	-5247
▁tam	-5248
▁bern	-5249
▁chil	-5250
▁ipad	-5251
ox	-5252
erv	-5253
▁ub	-5254
丰寸灬	-5255
▁241	-5256
▁357	-5257
▁618	-5258
▁apg	-5259
▁kir	-5260
▁viv	-5261
▁hard	-5262
▁lady	-5263
▁operation	-5264
cas	-5265
▁mt	-5266
▁315	-5267
▁1790	-5268
▁1839	-5269
▁matt	-5270
𦣞頁	-5271
fox	-5272
nes	-5273
over	-5274
▁242	-5275
▁580	-5276
▁dam	-5277
▁left	-5278
olution	-5279
gs	-5280
口牙	-5281
扌斗	-5282
▁3%	-5283
▁233	-5284
▁287	-5285
▁bil	-5286
▁old	-5287
ization	-5288
▁daniel	-5289
▁market	-5290
▁alexander	-5291
je	-5292
▁pd	-5293
刀口力	-5294
thon	-5295
▁231	-5296
▁271	-5297
▁273	-5298
▁306	-5299
▁680	-5300
▁fif	-5301
vidia	-5302
▁1645	-5303
▁1783	-5304
▁netflix	-5305
▁technology	-5306
ren	-5307
▁nm	-5308
▁802	-5309
▁mix	-5310
▁rap	-5311
ental	-5312
▁cell	-5313
▁final	-5314
▁hello	-5315
▁nvidia	-5316
ork	-5317
▁hi	-5318
port	-5319
▁258	-5320
▁ban	-5321
▁equ	-5322
▁fed	-5323
▁ren	-5324
𠂊田灬比	-5325
▁inde	-5326
▁prem	-5327
尸九	-5328
礻止	-5329
ami	-5330
ito	-5331
rad	-5332
uct	-5333
▁247	-5334
ender	-5335
▁1823	-5336
▁mini	-5337
▁stud	-5338
▁explor	-5339
401	-5340
▁2%	-5341
▁cw	-5342
▁263	-5343
▁335	-5344
▁385	-5345
▁510	-5346
▁mot	-5347
▁1834	-5348
▁conc	-5349
▁district	-5350
▁cnn	-5351
▁1822	-5352
▁link	-5353
▁main	-5354
▁social	-5355
▁mozilla	-5356
▁ff	-5357
rick	-5358
uble	-5359
▁243	-5360
▁767	-5361
▁801	-5362
▁aga	-5363
▁psy	-5364
▁2100	-5365
▁eric	-5366
lection	-5367
▁firefox	-5368
灬阝	-5369
omo	-5370
out	-5371
▁kl	-5372
▁269	-5373
▁cup	-5374
▁1798	-5375
▁mnet	-5376
▁brown	-5377
▁electr	-5378
nt	-5379
iff	-5380
⿶⿱⿰	-5381
釆田阝	-5382
▁237	-5383
▁253	-5384
▁254	-5385
▁see	-5386
agram	-5387
▁1796	-5388
▁1813	-5389
▁kill	-5390
▁digital	-5391
ast	-5392
矛攵女	-5393
▁ash	-5394
▁1807	-5395
▁1819	-5396
▁software	-5397
bu	-5398
𦣞页	-5399
oud	-5400
▁ee	-5401
▁620	-5402
▁730	-5403
▁95%	-5404
▁eff	-5405
▁gun	-5406
▁pur	-5407
▁1826	-5408
▁adam	-5409
▁kiss	-5410
ograph	-5411
▁people	-5412
▁advance	-5413
nd	-5414
王民	-5415
ume	-5416
▁hp	-5417
ness	-5418
▁278	-5419
▁295	-5420
▁630	-5421
▁eli	-5422
▁sor	-5423
▁1580	-5424
▁were	-5425
▁georg	-5426
▁football	-5427
癶豆几	-5428
▁279	-5429
▁296	-5430
▁302	-5431
▁621	-5432
▁cop	-5433
▁had	-5434
▁nad	-5435
iness	-5436
table	-5437
▁1794	-5438
▁ipod	-5439
ection	-5440
▁awards	-5441
▁switch	-5442
cr	-5443
火山	-5444
mon	-5445
▁ct	-5446
▁304	-5447
▁asc	-5448
▁bud	-5449
▁gil	-5450
▁1799	-5451
▁1816	-5452
▁head	-5453
▁phone	-5454
▁secret	-5455
肀二	-5456
tim	-5457
▁dim	-5458
▁vel	-5459
antas	-5460
ering	-5461
▁fair	-5462
▁story	-5463
ication	-5464
一夕	-5465
ros	-5466
▁nu	-5467
▁276	-5468
▁470	-5469
▁512	-5470
▁jas	-5471
▁liv	-5472
▁mak	-5473
▁psp	-5474
▁1650	-5475
▁1802	-5476
▁leon	-5477
▁mike	-5478
▁note	-5479
▁point	-5480
▁series	-5481
▁chinese	-5482
iko	-5483
▁bh	-5484
▁um	-5485
ions	-5486
▁chi	-5487
▁1750	-5488
▁2300	-5489
▁4500	-5490
▁mess	-5491
▁sche	-5492
ascript	-5493
▁instagram	-5494
fi	-5495
竹及	-5496
als	-5497
▁274	-5498
▁322	-5499
▁377	-5500
▁kel	-5501
▁1780	-5502
▁next	-5503
▁rows	-5504
▁vers	-5505
▁wood	-5506
夂月	-5507
col	-5508
儿丨皿	-5509
厶口心	-5510
日大手	-5511
𠂉大聿	-5512
▁264	-5513
▁318	-5514
▁324	-5515
▁412	-5516
▁570	-5517
▁kon	-5518
▁ris	-5519
sport	-5520
▁1804	-5521
▁beta	-5522
▁perf	-5523
▁again	-5524
▁billboard	-5525
口垂	-5526
cho	-5527
▁mx	-5528
䒑未阝	-5529
▁319	-5530
▁85%	-5531
▁bey	-5532
▁pin	-5533
▁1818	-5534
▁cult	-5535
▁read	-5536
▁anton	-5537
320	-5538
til	-5539
▁pk	-5540
▁740	-5541
▁aaa	-5542
▁dun	-5543
▁mvp	-5544
▁pen	-5545
▁say	-5546
▁yah	-5547
stein	-5548
▁1803	-5549
▁card	-5550
▁chan	-5551
▁train	-5552
▁rowspan	-5553
宀心	-5554
aga	-5555
bra	-5556
esh	-5557
▁nd	-5558
raft	-5559
▁257	-5560
▁670	-5561
▁787	-5562
▁cle	-5563
▁dea	-5564
▁rat	-5565
▁som	-5566
⿱⿶⿱⿰	-5567
▁gard	-5568
▁they	-5569
▁andrew	-5570
▁square	-5571
▁development	-5572
弓也	-5573
忄冘	-5574
竹尹	-5575
ips	-5576
mhz	-5577
oro	-5578
ule	-5579
▁ls	-5580
▁268	-5581
▁323	-5582
▁sca	-5583
▁sql	-5584
▁und	-5585
▁wan	-5586
inger	-5587
other	-5588
▁four	-5589
▁hold	-5590
▁lord	-5591
ations	-5592
▁build	-5593
尸比	-5594
▁dt	-5595
▁248	-5596
▁321	-5597
▁333	-5598
▁710	-5599
▁blu	-5600
▁bou	-5601
▁dur	-5602
▁hit	-5603
▁kim	-5604
▁pos	-5605
▁sus	-5606
▁well	-5607
▁begin	-5608
▁christian	-5609
ei	-5610
vi	-5611
久火	-5612
王久	-5613
ema	-5614
uel	-5615
𠂊彐皮	-5616
2000	-5617
ston	-5618
▁272	-5619
▁299	-5620
▁348	-5621
▁wom	-5622
▁1788	-5623
▁1809	-5624
▁explorer	-5625
kh	-5626
木且	-5627
ces	-5628
▁dh	-5629
豸艮心	-5630
anda	-5631
▁840	-5632
▁asp	-5633
▁bir	-5634
▁tran	-5635
▁scott	-5636
▁europe	-5637
▁public	-5638
su	-5639
彳方	-5640
彳非	-5641
get	-5642
uri	-5643
war	-5644
▁dy	-5645
▁gm	-5646
▁267	-5647
▁289	-5648
▁313	-5649
▁316	-5650
▁589	-5651
▁742	-5652
▁903	-5653
▁985	-5654
▁fut	-5655
▁joe	-5656
▁jyp	-5657
▁mun	-5658
▁nas	-5659
▁sho	-5660
▁tea	-5661
糸言糸金	-5662
▁1590	-5663
▁1775	-5664
▁1787	-5665
▁lake	-5666
▁stan	-5667
▁acade	-5668
▁dance	-5669
▁langu	-5670
▁works	-5671
门心	-5672
46⿱	-5673
▁gh	-5674
人人頁	-5675
▁bul	-5676
▁hat	-5677
▁ven	-5678
ility	-5679
▁clar	-5680
▁sign	-5681
▁york	-5682
▁frame	-5683
▁water	-5684
▁museum	-5685
▁central	-5686
▁rd	-5687
▁978	-5688
▁ath	-5689
▁dog	-5690
▁kan	-5691
▁baby	-5692
▁conn	-5693
▁moun	-5694
▁shin	-5695
▁queen	-5696
▁their	-5697
▁touch	-5698
▁childr	-5699
▁family	-5700
ni	-5701
禾央	-5702
▁ot	-5703
▁354	-5704
▁525	-5705
▁nar	-5706
▁1582	-5707
▁1811	-5708
▁andr	-5709
▁unit	-5710
▁comput	-5711
▁person	-5712
uf	-5713
▁ay	-5714
chen	-5715
▁343	-5716
▁415	-5717
▁kit	-5718
▁nca	-5719
▁tay	-5720
ities	-5721
▁1784	-5722
▁1805	-5723
▁1827	-5724
▁supp	-5725
▁round	-5726
▁centre	-5727
▁france	-5728
▁systems	-5729
▁javascript	-5730
由月	-5731
耳冘	-5732
金川	-5733
801	-5734
els	-5735
ova	-5736
▁312	-5737
▁344	-5738
▁346	-5739
▁416	-5740
▁583	-5741
▁abb	-5742
▁bug	-5743
▁kin	-5744
▁sund	-5745
▁drive	-5746
▁children	-5747
kt	-5748
sy	-5749
气山	-5750
氵耳	-5751
aka	-5752
isa	-5753
zen	-5754
丿士贝	-5755
八厶瓦	-5756
▁334	-5757
▁386	-5758
▁ipv	-5759
▁joh	-5760
▁jon	-5761
丿𠃌攵灬	-5762
house	-5763
▁1553	-5764
▁1817	-5765
▁2200	-5766
▁meth	-5767
▁speed	-5768
▁python	-5769
ih	-5770
疒且	-5771
par	-5772
▁eb	-5773
chan	-5774
iana	-5775
rise	-5776
▁286	-5777
▁405	-5778
▁820	-5779
▁bom	-5780
▁dol	-5781
▁jeff	-5782
▁⿺⿱⿻⿻	-5783
▁astro	-5784
▁shell	-5785
dd	-5786
木由	-5787
ban	-5788
▁za	-5789
ious	-5790
▁259	-5791
▁607	-5792
▁860	-5793
▁870	-5794
▁fra	-5795
▁hop	-5796
▁pdf	-5797
▁ten	-5798
works	-5799
▁know	-5800
▁zero	-5801
▁basic	-5802
▁broad	-5803
▁pagasa	-5804
▁produce	-5805
氵金	-5806
ift	-5807
mal	-5808
▁yg	-5809
▁485	-5810
▁760	-5811
▁din	-5812
▁fan	-5813
▁ill	-5814
▁1770	-5815
▁arts	-5816
▁lond	-5817
▁soul	-5818
kw	-5819
▁8%	-5820
▁355	-5821
▁590	-5822
▁707	-5823
▁830	-5824
▁fel	-5825
▁ker	-5826
▁1808	-5827
▁gran	-5828
▁count	-5829
▁earth	-5830
民攵	-5831
46⿹	-5832
att	-5833
men	-5834
una	-5835
▁vl	-5836
ency	-5837
▁366	-5838
▁iec	-5839
▁tex	-5840
▁indi	-5841
▁journal	-5842
gu	-5843
匚久	-5844
din	-5845
▁bf	-5846
勹口灬	-5847
民攵心	-5848
▁445	-5849
▁690	-5850
▁757	-5851
▁fac	-5852
▁pie	-5853
▁sla	-5854
▁some	-5855
▁stage	-5856
▁voice	-5857
▁education	-5858
ij	-5859
bit	-5860
eta	-5861
ori	-5862
sen	-5863
▁np	-5864
日一頁	-5865
uber	-5866
▁261	-5867
▁281	-5868
▁284	-5869
▁293	-5870
▁375	-5871
▁mig	-5872
▁vit	-5873
丷干丸手	-5874
▁ball	-5875
▁bell	-5876
▁chap	-5877
▁number	-5878
女予	-5879
火虫	-5880
艹韦	-5881
osp	-5882
▁ie	-5883
ines	-5884
mail	-5885
▁780	-5886
▁dia	-5887
▁its	-5888
▁ske	-5889
▁1583	-5890
▁2030	-5891
▁amaz	-5892
▁dest	-5893
▁magn	-5894
▁stad	-5895
▁alpha	-5896
▁there	-5897
▁friend	-5898
▁london	-5899
▁nc	-5900
heim	-5901
less	-5902
▁347	-5903
▁395	-5904
▁490	-5905
▁901	-5906
▁bob	-5907
▁gps	-5908
▁lum	-5909
▁wta	-5910
ments	-5911
▁1550	-5912
▁1592	-5913
▁stra	-5914
▁steve	-5915
5⿹	-5916
gi	-5917
hp	-5918
革央	-5919
▁ld	-5920
刀丿止	-5921
口止果	-5922
立日欠	-5923
play	-5924
▁411	-5925
▁619	-5926
▁880	-5927
▁gpl	-5928
▁hiv	-5929
▁jess	-5930
▁virt	-5931
▁austr	-5932
▁johnson	-5933
uz	-5934
钅白	-5935
ful	-5936
pro	-5937
▁gy	-5938
▁ik	-5939
木木阝	-5940
𠘧又缶	-5941
ides	-5942
▁283	-5943
▁298	-5944
▁425	-5945
▁ess	-5946
▁mik	-5947
▁ron	-5948
▁1786	-5949
▁fore	-5950
▁shar	-5951
▁fried	-5952
▁human	-5953
▁govern	-5954
钅本	-5955
▁rb	-5956
ques	-5957
stra	-5958
▁abd	-5959
▁hay	-5960
▁nex	-5961
▁1648	-5962
▁dark	-5963
▁libr	-5964
▁russ	-5965
▁happy	-5966
▁fantas	-5967
▁management	-5968
山及	-5969
bsd	-5970
dle	-5971
ken	-5972
ran	-5973
▁pt	-5974
ible	-5975
▁291	-5976
▁402	-5977
▁921	-5978
▁meg	-5979
▁1730	-5980
▁view	-5981
lie	-5982
ror	-5983
▁328	-5984
▁970	-5985
▁ali	-5986
▁deb	-5987
▁ton	-5988
▁1080	-5989
▁1586	-5990
▁1760	-5991
▁rail	-5992
▁album	-5993
▁three	-5994
扌八	-5995
木乐	-5996
木王	-5997
艹耳	-5998
des	-5999
her	-6000
ize	-6001
▁007	-6002
▁314	-6003
▁ant	-6004
▁gpu	-6005
▁tcp	-6006
▁1570	-6007
▁ruby	-6008
▁sour	-6009
nm	-6010
yo	-6011
一户	-6012
于皿	-6013
金肅	-6014
ain	-6015
ved	-6016
不一阝	-6017
幺大谷	-6018
▁367	-6019
▁dal	-6020
athan	-6021
ellow	-6022
▁1778	-6023
▁pack	-6024
▁prim	-6025
▁tvbs	-6026
▁double	-6027
▁single	-6028
sk	-6029
亻非	-6030
言夬	-6031
▁6%	-6032
▁uk	-6033
凵丨皮	-6034
bour	-6035
mond	-6036
sson	-6037
▁282	-6038
▁331	-6039
▁356	-6040
▁ent	-6041
▁ghz	-6042
▁1640	-6043
▁ncaa	-6044
lation	-6045
▁simon	-6046
▁bridge	-6047
▁virgin	-6048
▁edition	-6049
▁studios	-6050
oe	-6051
yd	-6052
工口	-6053
cel	-6054
tia	-6055
wer	-6056
▁rp	-6057
▁uc	-6058
alia	-6059
ming	-6060
▁447	-6061
▁gor	-6062
▁1797	-6063
▁2600	-6064
▁conf	-6065
▁wond	-6066
uction	-6067
▁opera	-6068
▁dragon	-6069
uv	-6070
艹弓	-6071
▁og	-6072
atus	-6073
▁aim	-6074
▁emu	-6075
▁got	-6076
▁1521	-6077
▁mega	-6078
▁villa	-6079
▁history	-6080
wd	-6081
工阝	-6082
240	-6083
lab	-6084
rib	-6085
▁eg	-6086
木木女	-6087
tica	-6088
▁502	-6089
▁645	-6090
▁our	-6091
▁via	-6092
▁cham	-6093
▁dead	-6094
▁laur	-6095
▁spir	-6096
▁than	-6097
ective	-6098
ration	-6099
vision	-6100
▁ft	-6101
itan	-6102
▁317	-6103
▁581	-6104
▁bmw	-6105
▁bre	-6106
▁civ	-6107
▁gon	-6108
▁pea	-6109
▁tap	-6110
▁1565	-6111
▁alan	-6112
▁arth	-6113
▁fifa	-6114
▁hero	-6115
▁wall	-6116
▁other	-6117
af	-6118
一川	-6119
扌龙	-6120
白田	-6121
600	-6122
ago	-6123
och	-6124
utv	-6125
elle	-6126
vent	-6127
vers	-6128
▁326	-6129
▁327	-6130
▁417	-6131
▁arc	-6132
▁brt	-6133
▁bsd	-6134
▁kde	-6135
▁mis	-6136
▁php	-6137
▁tab	-6138
▁ted	-6139
▁tol	-6140
▁audi	-6141
▁base	-6142
▁edge	-6143
▁gall	-6144
▁right	-6145
▁stephen	-6146
ex	-6147
kb	-6148
子子	-6149
eme	-6150
ode	-6151
▁bg	-6152
ench	-6153
▁442	-6154
▁625	-6155
▁att	-6156
▁dat	-6157
▁gla	-6158
▁1559	-6159
▁1777	-6160
▁kids	-6161
▁ross	-6162
▁ascii	-6163
▁order	-6164
▁beyond	-6165
hs	-6166
文糸	-6167
rod	-6168
甲一斤	-6169
lion	-6170
untu	-6171
▁297	-6172
▁345	-6173
▁930	-6174
▁940	-6175
▁bak	-6176
▁fre	-6177
▁kat	-6178
▁nik	-6179
ealth	-6180
itish	-6181
▁1568	-6182
▁bang	-6183
▁toky	-6184
ission	-6185
▁marie	-6186
▁viutv	-6187
sl	-6188
zi	-6189
酉干	-6190
umb	-6191
▁cj	-6192
厶口火	-6193
▁309	-6194
▁352	-6195
▁407	-6196
▁585	-6197
▁920	-6198
▁ari	-6199
▁beau	-6200
▁cook	-6201
▁list	-6202
▁turn	-6203
▁organ	-6204
▁indust	-6205
▁british	-6206
方土	-6207
901	-6208
ols	-6209
▁ey	-6210
人示田	-6211
士口页	-6212
小丿女	-6213
方方土	-6214
iter	-6215
▁339	-6216
▁358	-6217
▁465	-6218
▁617	-6219
▁810	-6220
▁cli	-6221
▁flo	-6222
▁hun	-6223
▁lot	-6224
▁mah	-6225
▁rot	-6226
▁yam	-6227
▁1511	-6228
▁1571	-6229
▁1625	-6230
▁1661	-6231
▁1785	-6232
▁fish	-6233
▁true	-6234
▁zone	-6235
▁brand	-6236
▁break	-6237
▁start	-6238
▁track	-6239
▁contin	-6240
亻里	-6241
讠且	-6242
acy	-6243
yan	-6244
木木米	-6245
▁bin	-6246
▁bot	-6247
▁mmc	-6248
糸言糸山	-6249
▁1560	-6250
▁rose	-6251
▁sant	-6252
▁wild	-6253
▁sport	-6254
▁times	-6255
▁econom	-6256
▁business	-6257
aro	-6258
bby	-6259
chi	-6260
eno	-6261
med	-6262
pot	-6263
▁eu	-6264
ches	-6265
▁329	-6266
▁388	-6267
▁ati	-6268
▁gab	-6269
▁kor	-6270
𠂊田灬刂	-6271
▁1368	-6272
▁1636	-6273
▁1646	-6274
▁area	-6275
▁fall	-6276
▁samu	-6277
bin	-6278
lah	-6279
rix	-6280
uts	-6281
tran	-6282
▁336	-6283
▁35%	-6284
▁505	-6285
▁506	-6286
▁517	-6287
▁999	-6288
▁emi	-6289
▁lor	-6290
▁aven	-6291
▁lost	-6292
▁mang	-6293
▁15000	-6294
▁major	-6295
▁theat	-6296
mg	-6297
扌夬	-6298
𭕄⿻	-6299
ifi	-6300
▁nr	-6301
丿大山	-6302
二丨心	-6303
tice	-6304
▁359	-6305
▁387	-6306
▁404	-6307
▁555	-6308
▁ern	-6309
▁inn	-6310
习习隹戈	-6311
𠂊冫寸大	-6312
ument	-6313
▁1642	-6314
▁also	-6315
▁imax	-6316
▁jones	-6317
▁albert	-6318
▁august	-6319
yr	-6320
red	-6321
▁4%	-6322
夂口隹	-6323
立十子	-6324
core	-6325
▁399	-6326
▁427	-6327
▁515	-6328
▁mom	-6329
▁pon	-6330
▁⿰⿱⿵	-6331
ident	-6332
usion	-6333
▁1556	-6334
▁1628	-6335
▁gang	-6336
▁most	-6337
▁walk	-6338
▁12000	-6339
▁action	-6340
▁socket	-6341
▁english	-6342
▁jackson	-6343
formation	-6344
utc	-6345
▁rx	-6346
esis	-6347
ific	-6348
▁403	-6349
▁533	-6350
▁abs	-6351
▁cba	-6352
▁map	-6353
▁yes	-6354
light	-6355
▁1577	-6356
▁mass	-6357
▁rand	-6358
▁seed	-6359
▁shad	-6360
▁tokyo	-6361
▁yahoo	-6362
▁virtual	-6363
▁language	-6364
cam	-6365
cer	-6366
▁bt	-6367
▁js	-6368
▁414	-6369
▁jay	-6370
▁kam	-6371
▁row	-6372
▁wel	-6373
冂二目力	-6374
▁anth	-6375
▁make	-6376
▁ring	-6377
▁refer	-6378
▁prince	-6379
▁7%	-6380
▁xm	-6381
▁363	-6382
▁384	-6383
▁408	-6384
▁413	-6385
▁532	-6386
▁758	-6387
▁ave	-6388
▁pun	-6389
▁tas	-6390
▁1547	-6391
▁1598	-6392
▁2800	-6393
▁boss	-6394
▁greg	-6395
▁lind	-6396
▁pict	-6397
▁vita	-6398
▁blood	-6399
▁field	-6400
▁seven	-6401
▁apache	-6402
▁johann	-6403
▁states	-6404
▁theatre	-6405
▁original	-6406
▁christoph	-6407
▁collection	-6408
oh	-6409
大力	-6410
iii	-6411
▁ci	-6412
▁tl	-6413
山豆頁	-6414
bach	-6415
▁419	-6416
▁422	-6417
▁466	-6418
▁535	-6419
▁727	-6420
▁css	-6421
▁mes	-6422
▁saf	-6423
▁sts	-6424
inity	-6425
▁crea	-6426
▁espn	-6427
▁take	-6428
▁nicon	-6429
▁santa	-6430
▁pierre	-6431
目来	-6432
mas	-6433
uma	-6434
▁kt	-6435
匚儿戈	-6436
tist	-6437
▁1562	-6438
▁cher	-6439
▁here	-6440
▁made	-6441
▁voca	-6442
▁kevin	-6443
▁golden	-6444
▁niconico	-6445
dm	-6446
ali	-6447
gam	-6448
▁kk	-6449
▁vp	-6450
扌丸手	-6451
𠘧又心	-6452
▁353	-6453
▁389	-6454
▁428	-6455
▁627	-6456
▁885	-6457
▁eth	-6458
▁rac	-6459
▁sna	-6460
▁sug	-6461
atory	-6462
enger	-6463
erial	-6464
▁1723	-6465
▁1781	-6466
▁kenn	-6467
▁very	-6468
▁alice	-6469
▁liber	-6470
osaurus	-6471
▁foundation	-6472
5⿸	-6473
bat	-6474
erm	-6475
ets	-6476
iny	-6477
oop	-6478
匚儿斗	-6479
cept	-6480
ects	-6481
ogue	-6482
▁294	-6483
▁351	-6484
▁539	-6485
▁546	-6486
▁615	-6487
▁622	-6488
▁six	-6489
▁1651	-6490
▁1772	-6491
▁days	-6492
▁test	-6493
▁when	-6494
▁wolf	-6495
▁sunday	-6496
疒巴	-6497
耳𠃊	-6498
601	-6499
oli	-6500
tex	-6501
十罒心	-6502
ners	-6503
▁435	-6504
▁577	-6505
▁790	-6506
▁bah	-6507
▁mhz	-6508
▁ois	-6509
▁sas	-6510
人一口页	-6511
𠂊田一非	-6512
▁1487	-6513
▁1517	-6514
▁1624	-6515
▁1765	-6516
▁mars	-6517
▁side	-6518
▁wiki	-6519
▁⿰⿱𭕄⿻	-6520
▁arthur	-6521
▁source	-6522
▁taylor	-6523
幺小	-6524
钅重	-6525
阝鬼	-6526
330	-6527
bon	-6528
▁hx	-6529
贝贝缶	-6530
ania	-6531
fred	-6532
iger	-6533
loid	-6534
▁342	-6535
▁368	-6536
▁418	-6537
▁421	-6538
▁448	-6539
▁534	-6540
▁549	-6541
▁770	-6542
▁abo	-6543
▁mcc	-6544
亠口小页	-6545
𠂊田灬兆	-6546
▁1779	-6547
▁cole	-6548
▁fred	-6549
▁math	-6550
▁qual	-6551
change	-6552
▁common	-6553
石见	-6554
言非	-6555
ado	-6556
dom	-6557
nia	-6558
amin	-6559
ites	-6560
▁12%	-6561
▁337	-6562
▁349	-6563
▁376	-6564
▁fab	-6565
▁fda	-6566
▁las	-6567
▁nmb	-6568
▁pow	-6569
▁1683	-6570
▁cube	-6571
▁into	-6572
▁mytv	-6573
▁player	-6574
▁profess	-6575
亚土	-6576
豸里	-6577
辶十	-6578
mph	-6579
ril	-6580
ype	-6581
▁ix	-6582
▁qs	-6583
車斤土	-6584
itor	-6585
rent	-6586
▁436	-6587
▁547	-6588
▁fbi	-6589
▁jos	-6590
▁ped	-6591
▁rfc	-6592
▁1370	-6593
▁1541	-6594
▁1621	-6595
▁1622	-6596
▁2025	-6597
▁been	-6598
▁gene	-6599
▁karl	-6600
▁phys	-6601
▁solo	-6602
▁chang	-6603
▁surface	-6604
ht	-6605
ief	-6606
lev	-6607
ria	-6608
▁ky	-6609
▁mw	-6610
▁rc	-6611
▁ye	-6612
人人耳	-6613
▁432	-6614
▁446	-6615
▁45%	-6616
▁457	-6617
▁910	-6618
▁ext	-6619
abeth	-6620
ector	-6621
▁1643	-6622
▁1680	-6623
▁1745	-6624
▁1755	-6625
▁5500	-6626
▁boys	-6627
▁ener	-6628
▁lisa	-6629
▁standard	-6630
gl	-6631
日卯	-6632
木石	-6633
疒豆	-6634
讠非	-6635
金甘	-6636
ees	-6637
hed	-6638
leg	-6639
tie	-6640
yth	-6641
▁lv	-6642
一由心	-6643
匕水頁	-6644
幺幺土	-6645
usta	-6646
▁292	-6647
▁396	-6648
▁406	-6649
▁537	-6650
▁fro	-6651
▁lte	-6652
▁mam	-6653
𠂊田灬非	-6654
ember	-6655
▁1634	-6656
▁1637	-6657
▁1748	-6658
▁1773	-6659
▁deep	-6660
▁fort	-6661
▁mind	-6662
▁smart	-6663
▁future	-6664
▁library	-6665
▁process	-6666
don	-6667
ges	-6668
▁gc	-6669
▁lc	-6670
火火木	-6671
back	-6672
▁050	-6673
▁362	-6674
▁371	-6675
▁455	-6676
▁516	-6677
▁528	-6678
▁556	-6679
▁612	-6680
▁626	-6681
▁636	-6682
▁688	-6683
▁765	-6684
▁890	-6685
▁aur	-6686
▁bes	-6687
▁eva	-6688
▁los	-6689
▁lyn	-6690
▁raw	-6691
丨丨比阝	-6692
▁1649	-6693
▁1763	-6694
▁1769	-6695
▁1774	-6696
▁gear	-6697
▁sars	-6698
▁parad	-6699
▁chrome	-6700
issement	-6701
▁interac	-6702
▁williams	-6703
dc	-6704
束頁	-6705
金白	-6706
elf	-6707
mes	-6708
ots	-6709
▁hm	-6710
▁uh	-6711
bang	-6712
cape	-6713
ding	-6714
▁379	-6715
▁632	-6716
▁aff	-6717
▁alt	-6718
▁arg	-6719
▁dns	-6720
▁lie	-6721
▁rue	-6722
▁tre	-6723
⿱⿶⿳⿰	-6724
▁1620	-6725
▁1727	-6726
▁doug	-6727
▁nick	-6728
▁nico	-6729
▁hyper	-6730
▁tower	-6731
▁theory	-6732
▁walter	-6733
▁stadium	-6734
冂丨	-6735
舟方	-6736
mad	-6737
▁io	-6738
口龶见	-6739
▁545	-6740
▁552	-6741
▁611	-6742
▁99%	-6743
▁jar	-6744
▁lew	-6745
▁tun	-6746
▁1736	-6747
▁burn	-6748
▁fern	-6749
▁prop	-6750
▁rade	-6751
▁talk	-6752
亠丷厂生刂	-6753
▁marsh	-6754
▁metal	-6755
▁where	-6756
▁castle	-6757
▁ubuntu	-6758
▁academy	-6759
▁patrick	-6760
rs	-6761
王耳	-6762
701	-6763
▁kv	-6764
▁pf	-6765
未攵厂	-6766
ando	-6767
hard	-6768
▁341	-6769
▁372	-6770
▁451	-6771
▁475	-6772
▁476	-6773
▁613	-6774
▁980	-6775
▁ell	-6776
▁hip	-6777
▁jus	-6778
▁lil	-6779
▁pix	-6780
人人龰耳	-6781
▁1502	-6782
▁1603	-6783
▁1662	-6784
▁1720	-6785
▁1752	-6786
▁anna	-6787
▁cali	-6788
▁feat	-6789
▁flor	-6790
▁hand	-6791
▁lead	-6792
▁thro	-6793
iction	-6794
▁20000	-6795
▁brian	-6796
▁secur	-6797
▁stone	-6798
▁ville	-6799
▁arrond	-6800
▁geforce	-6801
▁portable	-6802
▁arrondissement	-6803
⿳𭕄	-6804
gie	-6805
uer	-6806
▁xe	-6807
𠂊口比	-6808
ages	-6809
▁361	-6810
▁409	-6811
▁454	-6812
▁499	-6813
▁509	-6814
▁668	-6815
▁amp	-6816
▁gem	-6817
▁que	-6818
▁std	-6819
▁tot	-6820
▁1613	-6821
▁1660	-6822
▁1782	-6823
▁chen	-6824
▁jenn	-6825
▁phot	-6826
▁hotel	-6827
▁robin	-6828
▁depart	-6829
▁enterp	-6830
▁wonder	-6831
110	-6832
aki	-6833
bro	-6834
oda	-6835
pur	-6836
▁fs	-6837
▁rf	-6838
日大阝	-6839
cell	-6840
stal	-6841
▁423	-6842
▁443	-6843
▁529	-6844
▁639	-6845
▁cel	-6846
▁gog	-6847
▁mut	-6848
▁sex	-6849
▁1619	-6850
▁1627	-6851
▁1664	-6852
▁1757	-6853
▁1762	-6854
▁graph	-6855
ference	-6856
▁avenue	-6857
▁mission	-6858
uy	-6859
口亚	-6860
口頁	-6861
acs	-6862
fan	-6863
▁ow	-6864
▁rr	-6865
▁tt	-6866
口夫欠	-6867
odon	-6868
▁18%	-6869
▁332	-6870
▁503	-6871
▁521	-6872
▁548	-6873
▁604	-6874
▁irt	-6875
▁neo	-6876
▁pot	-6877
▁1050	-6878
▁1585	-6879
▁resp	-6880
▁death	-6881
▁michel	-6882
▁samuel	-6883
▁mountain	-6884
冖水	-6885
门隹	-6886
olo	-6887
▁sb	-6888
iano	-6889
inus	-6890
▁364	-6891
▁518	-6892
▁553	-6893
▁655	-6894
▁713	-6895
▁815	-6896
▁ala	-6897
▁ddr	-6898
▁fat	-6899
▁mba	-6900
▁nfl	-6901
▁opp	-6902
▁ori	-6903
▁wea	-6904
craft	-6905
worth	-6906
▁1758	-6907
▁3200	-6908
▁dohc	-6909
▁mart	-6910
▁sail	-6911
▁shop	-6912
▁week	-6913
土儿土丸𧘇	-6914
▁memor	-6915
▁never	-6916
▁think	-6917
▁season	-6918
cf	-6919
亻羊	-6920
广羊	-6921
谷阝	-6922
dor	-6923
nam	-6924
▁kd	-6925
口口頁	-6926
覀示瓜	-6927
elli	-6928
view	-6929
▁523	-6930
▁675	-6931
▁717	-6932
▁755	-6933
▁bac	-6934
▁hey	-6935
▁mys	-6936
▁1490	-6937
▁1610	-6938
▁1616	-6939
▁1630	-6940
▁1659	-6941
▁1725	-6942
▁cath	-6943
▁nich	-6944
▁pers	-6945
▁ryan	-6946
▁services	-6947
▁framework	-6948
▁championship	-6949
缶本	-6950
金土	-6951
cep	-6952
uty	-6953
▁gw	-6954
▁ox	-6955
helm	-6956
pson	-6957
▁381	-6958
▁453	-6959
▁489	-6960
▁605	-6961
▁606	-6962
▁705	-6963
▁bol	-6964
▁cia	-6965
▁jud	-6966
▁tgv	-6967
コ一人贝	-6968
ollow	-6969
▁1369	-6970
▁1450	-6971
▁1652	-6972
▁1689	-6973
▁1759	-6974
▁1767	-6975
▁anal	-6976
▁auto	-6977
▁plat	-6978
▁wave	-6979
▁court	-6980
ological	-6981
▁vocaloid	-6982
▁christopher	-6983
▁information	-6984
dn	-6985
rd	-6986
700	-6987
fri	-6988
rac	-6989
umi	-6990
▁9%	-6991
▁dx	-6992
▁vv	-6993
▁383	-6994
▁426	-6995
▁439	-6996
▁51%	-6997
▁538	-6998
▁588	-6999
▁637	-7000
▁825	-7001
▁bag	-7002
▁joy	-7003
▁pad	-7004
▁auth	-7005
▁cosp	-7006
▁nord	-7007
▁tony	-7008
▁access	-7009
▁invest	-7010
▁memory	-7011
▁machine	-7012
800	-7013
alk	-7014
hen	-7015
yer	-7016
▁ck	-7017
▁dk	-7018
▁gs	-7019
▁tm	-7020
kins	-7021
▁373	-7022
▁477	-7023
▁479	-7024
▁487	-7025
▁514	-7026
▁519	-7027
▁524	-7028
▁685	-7029
▁98%	-7030
▁cos	-7031
▁dyn	-7032
▁kom	-7033
▁lem	-7034
▁nan	-7035
▁scr	-7036
▁usa	-7037
▁1496	-7038
▁1540	-7039
▁1684	-7040
▁1701	-7041
▁five	-7042
▁sher	-7043
▁smap	-7044
▁board	-7045
▁ultra	-7046
▁wilson	-7047
▁cosplay	-7048
爫见	-7049
目丁	-7050
isc	-7051
oni	-7052
usa	-7053
▁lm	-7054
▁tf	-7055
ways	-7056
▁452	-7057
▁536	-7058
▁55%	-7059
▁907	-7060
▁lat	-7061
▁1454	-7062
▁1466	-7063
▁1567	-7064
▁1609	-7065
▁1615	-7066
▁1667	-7067
▁1670	-7068
▁1707	-7069
▁1724	-7070
▁look	-7071
▁mrna	-7072
▁poem	-7073
▁lucas	-7074
▁prime	-7075
▁watch	-7076
▁eleven	-7077
▁method	-7078
▁complex	-7079
▁reference	-7080
㐅刂	-7081
tha	-7082
尢丶山	-7083
arch	-7084
lace	-7085
▁369	-7086
▁394	-7087
▁398	-7088
▁433	-7089
▁508	-7090
▁575	-7091
▁785	-7092
▁ale	-7093
▁bow	-7094
▁eos	-7095
火火冖火	-7096
ather	-7097
▁1544	-7098
▁1573	-7099
▁1604	-7100
▁1647	-7101
▁1771	-7102
▁afri	-7103
▁roll	-7104
▁modern	-7105
▁radeon	-7106
▁computer	-7107
▁function	-7108
亻瓦	-7109
钅甘	-7110
vey	-7111
▁ek	-7112
𠁣𠃛隹	-7113
𠃊目八	-7114
agne	-7115
ales	-7116
roll	-7117
▁378	-7118
▁562	-7119
▁586	-7120
▁712	-7121
▁762	-7122
▁845	-7123
▁lcd	-7124
▁1756	-7125
▁2700	-7126
▁lisp	-7127
▁mpeg	-7128
▁pink	-7129
▁priv	-7130
▁stop	-7131
intosh	-7132
▁based	-7133
▁repub	-7134
ulation	-7135
▁committ	-7136
▁division	-7137
巾隹	-7138
彳弗	-7139
扌工	-7140
▁xi	-7141
inae	-7142
ries	-7143
▁456	-7144
▁554	-7145
▁587	-7146
▁634	-7147
▁635	-7148
▁925	-7149
▁fis	-7150
▁sav	-7151
▁stu	-7152
▁1250	-7153
▁1574	-7154
▁1599	-7155
▁1601	-7156
▁1629	-7157
▁corn	-7158
▁cour	-7159
▁scot	-7160
▁paris	-7161
▁philip	-7162
▁singap	-7163
▁transport	-7164
wh	-7165
山由	-7166
戋皿	-7167
来贝	-7168
钅不	-7169
雨非	-7170
109	-7171
ats	-7172
bow	-7173
火火阝	-7174
▁392	-7175
▁472	-7176
▁504	-7177
▁507	-7178
▁511	-7179
▁616	-7180
▁725	-7181
▁835	-7182
▁bun	-7183
▁hyd	-7184
▁pit	-7185
▁vip	-7186
▁1538	-7187
▁1584	-7188
▁1595	-7189
▁adhd	-7190
▁sega	-7191
▁mount	-7192
▁review	-7193
▁alexand	-7194
▁capital	-7195
▁generation	-7196
wi	-7197
wr	-7198
cht	-7199
▁df	-7200
▁dp	-7201
▁kb	-7202
▁lp	-7203
▁lr	-7204
禾几页	-7205
▁458	-7206
▁495	-7207
▁513	-7208
▁715	-7209
▁ccd	-7210
▁kab	-7211
▁nec	-7212
▁obs	-7213
十口儿刂	-7214
糸言糸木	-7215
𠂊田灬方	-7216
ating	-7217
▁1618	-7218
▁anne	-7219
▁gram	-7220
▁about	-7221
▁const	-7222
▁movie	-7223
▁naver	-7224
▁freder	-7225
▁planet	-7226
▁friedrich	-7227
▁government	-7228
束力	-7229
𠂆万	-7230
bas	-7231
dez	-7232
ois	-7233
uit	-7234
zar	-7235
▁hl	-7236
人人艮	-7237
口止八	-7238
ense	-7239
ione	-7240
ogen	-7241
osph	-7242
▁374	-7243
▁468	-7244
▁596	-7245
▁65%	-7246
▁687	-7247
▁945	-7248
▁aqu	-7249
▁atm	-7250
▁dif	-7251
▁dip	-7252
▁fit	-7253
▁haw	-7254
▁isa	-7255
▁pia	-7256
▁ral	-7257
刀丿丶米	-7258
aster	-7259
bourg	-7260
▁3600	-7261
▁hein	-7262
▁palm	-7263
entium	-7264
▁magic	-7265
▁alfred	-7266
▁energy	-7267
▁harris	-7268
▁wester	-7269
▁wilhelm	-7270
▁gamespot	-7271
艹且	-7272
bol	-7273
esa	-7274
ole	-7275
ucl	-7276
▁cx	-7277
▁rg	-7278
▁wu	-7279
镸彡毛	-7280
tier	-7281
▁551	-7282
▁990	-7283
▁cad	-7284
▁did	-7285
▁pul	-7286
anger	-7287
▁1545	-7288
▁1575	-7289
▁1654	-7290
▁1675	-7291
▁1733	-7292
▁1735	-7293
▁1751	-7294
▁2023	-7295
▁mira	-7296
▁rela	-7297
▁snow	-7298
▁elect	-7299
▁harry	-7300
▁money	-7301
▁roman	-7302
▁lamigo	-7303
▁pascal	-7304
▁pacific	-7305
▁philipp	-7306
hl	-7307
一虫	-7308
王韦	-7309
纟非	-7310
钅玉	-7311
120	-7312
uda	-7313
▁jp	-7314
䒑土心	-7315
䒑土水	-7316
八刀心	-7317
口木火	-7318
ancy	-7319
lect	-7320
lica	-7321
▁391	-7322
▁531	-7323
▁628	-7324
▁629	-7325
▁718	-7326
▁721	-7327
▁735	-7328
▁atr	-7329
▁det	-7330
▁rol	-7331
▁tes	-7332
凵丨一虫	-7333
羊䒑口阝	-7334
iller	-7335
thers	-7336
▁1529	-7337
▁1578	-7338
▁1685	-7339
▁1713	-7340
▁1721	-7341
▁gaon	-7342
▁rick	-7343
▁stri	-7344
▁taip	-7345
bridge	-7346
▁integ	-7347
▁rober	-7348
▁turbo	-7349
▁women	-7350
▁pentium	-7351
du	-7352
ev	-7353
氵里	-7354
火欠	-7355
hip	-7356
kia	-7357
lis	-7358
oco	-7359
ove	-7360
宀八串	-7361
日一毛	-7362
木木糸	-7363
bell	-7364
reis	-7365
▁567	-7366
▁573	-7367
▁gas	-7368
▁iss	-7369
▁kid	-7370
▁ncc	-7371
▁pga	-7372
▁1457	-7373
▁1469	-7374
▁1569	-7375
▁marc	-7376
▁ober	-7377
▁rank	-7378
▁spar	-7379
▁yosh	-7380
ential	-7381
py	-7382
目疌	-7383
𠂉𠃓	-7384
eld	-7385
enz	-7386
kit	-7387
月月刂	-7388
host	-7389
iday	-7390
rian	-7391
ulus	-7392
▁429	-7393
▁438	-7394
▁561	-7395
▁706	-7396
▁711	-7397
▁805	-7398
▁boo	-7399
▁kle	-7400
▁nap	-7401
eater	-7402
tdown	-7403
▁1260	-7404
▁1612	-7405
▁1631	-7406
▁1688	-7407
▁1697	-7408
▁1726	-7409
▁1764	-7410
▁7500	-7411
▁avex	-7412
▁eliz	-7413
▁file	-7414
▁food	-7415
▁full	-7416
▁lion	-7417
▁tell	-7418
motion	-7419
▁being	-7420
▁civil	-7421
▁guide	-7422
▁index	-7423
▁metro	-7424
▁health	-7425
▁european	-7426
▁singapore	-7427
of	-7428
疒久	-7429
龙耳	-7430
ika	-7431
kan	-7432
met	-7433
rin	-7434
via	-7435
▁hg	-7436
▁nl	-7437
冂一谷	-7438
card	-7439
ophy	-7440
▁393	-7441
▁934	-7442
▁aba	-7443
▁aer	-7444
▁him	-7445
▁sud	-7446
▁1350	-7447
▁1535	-7448
▁1589	-7449
▁1593	-7450
▁1639	-7451
▁1732	-7452
▁1766	-7453
▁6500	-7454
▁blog	-7455
▁coll	-7456
▁jane	-7457
▁mand	-7458
▁term	-7459
▁ther	-7460
▁viii	-7461
冂一谷又土	-7462
office	-7463
▁extra	-7464
▁gnome	-7465
▁motor	-7466
▁version	-7467
扌柬	-7468
讠牙	-7469
里灬	-7470
革末	-7471
die	-7472
ios	-7473
▁aq	-7474
𠂇子攵	-7475
ross	-7476
town	-7477
▁13%	-7478
▁397	-7479
▁488	-7480
▁493	-7481
▁684	-7482
▁dsp	-7483
▁hud	-7484
▁nak	-7485
▁nin	-7486
▁pak	-7487
▁smk	-7488
▁vor	-7489
▁1623	-7490
▁1633	-7491
▁1638	-7492
▁1657	-7493
▁1744	-7494
▁1768	-7495
▁body	-7496
▁cool	-7497
▁dash	-7498
▁dota	-7499
▁find	-7500
▁jord	-7501
▁sens	-7502
enberg	-7503
▁archit	-7504
▁associ	-7505
▁sailor	-7506
hu	-7507
oi	-7508
wc	-7509
一尸	-7510
必皿	-7511
目小	-7512
46⿷	-7513
dal	-7514
hew	-7515
pad	-7516
ree	-7517
ulu	-7518
▁qt	-7519
▁rn	-7520
乡隹瓦	-7521
八刀木	-7522
八刀阝	-7523
口贝阝	-7524
木木止	-7525
𠃊目小	-7526
▁471	-7527
▁541	-7528
▁544	-7529
▁557	-7530
▁614	-7531
▁731	-7532
▁fol	-7533
▁kur	-7534
▁sis	-7535
未攵厂牛	-7536
▁1525	-7537
▁1526	-7538
▁1572	-7539
▁1739	-7540
▁1754	-7541
▁maca	-7542
▁nova	-7543
▁wing	-7544
ension	-7545
▁25000	-7546
▁front	-7547
▁storm	-7548
▁valley	-7549
▁directx	-7550
▁building	-7551
▁holdings	-7552
火韦	-7553
王申	-7554
钅目	-7555
emi	-7556
lon	-7557
ost	-7558
▁bp	-7559
▁ji	-7560
▁ug	-7561
▁ws	-7562
艹冖虫	-7563
1000	-7564
agar	-7565
agon	-7566
anch	-7567
iron	-7568
more	-7569
oria	-7570
pend	-7571
ties	-7572
▁382	-7573
▁424	-7574
▁444	-7575
▁464	-7576
▁467	-7577
▁478	-7578
▁522	-7579
▁542	-7580
▁559	-7581
▁624	-7582
▁642	-7583
▁649	-7584
▁657	-7585
▁926	-7586
▁935	-7587
▁962	-7588
▁age	-7589
▁bmt	-7590
▁itv	-7591
▁npc	-7592
▁sac	-7593
▁tvn	-7594
▁wik	-7595
▁1493	-7596
▁1635	-7597
▁gate	-7598
▁juan	-7599
▁pear	-7600
▁jason	-7601
ography	-7602
▁garden	-7603
▁fantasy	-7604
▁natural	-7605
▁countdown	-7606
▁elizabeth	-7607
▁enterprise	-7608
ku	-7609
日兆	-7610
bes	-7611
ils	-7612
tig	-7613
▁xf	-7614
口口瓦	-7615
女又巾	-7616
戈戈皿	-7617
扌丸𧘇	-7618
endo	-7619
tern	-7620
▁14%	-7621
▁449	-7622
▁498	-7623
▁527	-7624
▁643	-7625
▁759	-7626
▁886	-7627
▁979	-7628
▁bos	-7629
▁das	-7630
▁lun	-7631
▁nac	-7632
▁ner	-7633
▁pav	-7634
▁pci	-7635
▁sid	-7636
▁1587	-7637
▁1746	-7638
▁acid	-7639
▁cass	-7640
▁come	-7641
▁gian	-7642
▁sain	-7643
▁through	-7644
au	-7645
ax	-7646
oy	-7647
ru	-7648
口言	-7649
女丑	-7650
朱阝	-7651
350	-7652
lag	-7653
mic	-7654
wat	-7655
▁ou	-7656
▁11%	-7657
▁728	-7658
▁847	-7659
▁975	-7660
▁981	-7661
▁chu	-7662
▁gsm	-7663
▁jet	-7664
▁nig	-7665
▁oce	-7666
peria	-7667
under	-7668
▁1481	-7669
▁1522	-7670
▁1747	-7671
▁fami	-7672
▁tang	-7673
▁whit	-7674
▁moham	-7675
▁active	-7676
▁struct	-7677
▁bernard	-7678
▁western	-7679
▁engineering	-7680
aw	-7681
乃小	-7682
文口	-7683
灬又	-7684
石木	-7685
禺頁	-7686
phy	-7687
ulf	-7688
▁cz	-7689
▁kc	-7690
▁od	-7691
禾儿頁	-7692
bury	-7693
down	-7694
ista	-7695
oper	-7696
▁484	-7697
▁574	-7698
▁598	-7699
▁623	-7700
▁651	-7701
▁658	-7702
▁689	-7703
▁702	-7704
▁716	-7705
▁729	-7706
▁812	-7707
▁817	-7708
▁821	-7709
▁876	-7710
▁997	-7711
▁any	-7712
▁hav	-7713
▁kal	-7714
▁rim	-7715
▁tag	-7716
▁1280	-7717
▁1475	-7718
▁1505	-7719
▁1524	-7720
▁1617	-7721
▁1718	-7722
▁3800	-7723
▁catal	-7724
▁freed	-7725
▁macos	-7726
▁remix	-7727
▁search	-7728
▁taipei	-7729
▁archive	-7730
▁classic	-7731
▁perfect	-7732
▁macintosh	-7733
▁interactive	-7734
amo	-7735
ias	-7736
oom	-7737
▁pb	-7738
▁tb	-7739
丷夫己	-7740
日一页	-7741
止匕石	-7742
etta	-7743
hedr	-7744
▁496	-7745
▁582	-7746
▁646	-7747
▁929	-7748
▁alg	-7749
▁bec	-7750
▁eug	-7751
▁eye	-7752
▁ide	-7753
▁pip	-7754
▁rca	-7755
▁won	-7756
berry	-7757
▁1614	-7758
▁1626	-7759
▁1641	-7760
▁1712	-7761
▁1734	-7762
▁alli	-7763
▁cash	-7764
▁demo	-7765
▁gord	-7766
▁imag	-7767
▁para	-7768
▁path	-7769
▁scar	-7770
▁wash	-7771
▁child	-7772
▁exile	-7773
▁lewis	-7774
▁offic	-7775
▁security	-7776
▁christmas	-7777
▁community	-7778
▁universal	-7779
oa	-7780
火乐	-7781
豸才	-7782
104	-7783
kir	-7784
oka	-7785
put	-7786
tes	-7787
▁bj	-7788
▁vf	-7789
一八糸	-7790
口止重	-7791
case	-7792
ival	-7793
▁437	-7794
▁482	-7795
▁486	-7796
▁543	-7797
▁714	-7798
▁826	-7799
▁915	-7800
▁hxd	-7801
▁lud	-7802
▁oly	-7803
▁pse	-7804
人一口阝	-7805
angel	-7806
▁1632	-7807
▁1681	-7808
▁hosp	-7809
▁vice	-7810
▁gamec	-7811
▁lovel	-7812
▁xperia	-7813
▁species	-7814
▁committee	-7815
mc	-7816
忄千	-7817
氵巳	-7818
目于	-7819
bis	-7820
ici	-7821
▁oz	-7822
一由寸	-7823
anny	-7824
bers	-7825
▁481	-7826
▁565	-7827
▁648	-7828
▁666	-7829
▁698	-7830
▁824	-7831
▁938	-7832
▁947	-7833
▁cac	-7834
▁ria	-7835
▁tet	-7836
▁tnt	-7837
▁use	-7838
▁vcd	-7839
▁⿰⿰⿱	-7840
ennis	-7841
music	-7842
overy	-7843
▁1150	-7844
▁1581	-7845
▁1602	-7846
▁1673	-7847
▁1690	-7848
▁1715	-7849
▁1740	-7850
▁1761	-7851
▁barb	-7852
▁bird	-7853
▁brun	-7854
▁cccc	-7855
▁fast	-7856
▁penn	-7857
▁perl	-7858
▁rest	-7859
▁arena	-7860
▁chart	-7861
▁roger	-7862
▁years	-7863
▁miller	-7864
▁gamecube	-7865
▁victoria	-7866
▁revolution	-7867
lu	-7868
np	-7869
zh	-7870
口自	-7871
土丘	-7872
00%	-7873
gra	-7874
ppe	-7875
uto	-7876
▁gd	-7877
▁mf	-7878
▁sq	-7879
imax	-7880
ique	-7881
▁441	-7882
▁592	-7883
▁602	-7884
▁662	-7885
▁669	-7886
▁756	-7887
▁908	-7888
▁936	-7889
▁952	-7890
▁988	-7891
▁amc	-7892
▁cit	-7893
▁hms	-7894
▁ica	-7895
▁lab	-7896
▁wir	-7897
弋一止贝	-7898
▁1180	-7899
▁1606	-7900
▁1702	-7901
▁1728	-7902
▁1729	-7903
▁1742	-7904
▁boot	-7905
▁dave	-7906
▁hack	-7907
▁kind	-7908
▁oper	-7909
▁symb	-7910
▁ward	-7911
▁gamer	-7912
▁nokia	-7913
▁sweet	-7914
▁twins	-7915
vention	-7916
▁ccccff	-7917
▁howard	-7918
▁intell	-7919
▁yellow	-7920
▁culture	-7921
▁partners	-7922
__	-7923
木斥	-7924
氵来	-7925
门三	-7926
116	-7927
imo	-7928
▁fp	-7929
▁iu	-7930
▁nv	-7931
𠂒口阝	-7932
ifer	-7933
olis	-7934
phal	-7935
tech	-7936
uary	-7937
▁579	-7938
▁608	-7939
▁659	-7940
▁699	-7941
▁733	-7942
▁746	-7943
▁818	-7944
▁846	-7945
▁884	-7946
▁965	-7947
▁arn	-7948
▁ful	-7949
▁jes	-7950
▁ost	-7951
▁pil	-7952
▁sie	-7953
𠂉大巨木	-7954
▁1024	-7955
▁1451	-7956
▁1460	-7957
▁1679	-7958
▁1699	-7959
▁1737	-7960
▁case	-7961
▁dual	-7962
▁fact	-7963
▁fron	-7964
▁ital	-7965
▁lear	-7966
▁shah	-7967
▁want	-7968
▁asian	-7969
▁malay	-7970
▁identi	-7971
▁report	-7972
▁califor	-7973
▁premium	-7974
讠夬	-7975
非虫	-7976
aha	-7977
ars	-7978
▁fd	-7979
ears	-7980
iner	-7981
oshi	-7982
▁16%	-7983
▁459	-7984
▁473	-7985
▁558	-7986
▁566	-7987
▁576	-7988
▁584	-7989
▁597	-7990
▁603	-7991
▁633	-7992
▁638	-7993
▁786	-7994
▁809	-7995
▁969	-7996
▁973	-7997
▁gre	-7998
▁hkt	-7999
▁ipa	-8000
▁tin	-8001
乛耳攵心	-8002
acter	-8003
▁1001	-8004
▁1276	-8005
▁1453	-8006
▁1676	-8007
▁1705	-8008
▁alph	-8009
▁atom	-8010
▁cris	-8011
▁diam	-8012
▁hope	-8013
▁ling	-8014
▁mail	-8015
▁prom	-8016
▁raid	-8017
▁vent	-8018
▁democ	-8019
▁kelly	-8020
▁march	-8021
▁openg	-8022
▁plaza	-8023
▁amazon	-8024
▁carlos	-8025
▁follow	-8026
▁antonio	-8027
▁command	-8028
▁frances	-8029
▁aircraft	-8030
▁exchange	-8031
▁department	-8032
zj	-8033
业㡀	-8034
勹言	-8035
日火	-8036
𠂉丹	-8037
123	-8038
25%	-8039
nie	-8040
vet	-8041
zan	-8042
▁mn	-8043
enne	-8044
ians	-8045
▁431	-8046
▁462	-8047
▁494	-8048
▁647	-8049
▁745	-8050
▁751	-8051
▁829	-8052
▁914	-8053
▁933	-8054
▁bap	-8055
▁beh	-8056
▁fur	-8057
▁msn	-8058
▁rud	-8059
▁sad	-8060
▁sed	-8061
▁tha	-8062
laris	-8063
▁1430	-8064
▁1519	-8065
▁1530	-8066
▁1532	-8067
▁1658	-8068
▁1665	-8069
▁1722	-8070
▁2050	-8071
▁cycl	-8072
▁kick	-8073
▁maur	-8074
▁sams	-8075
▁used	-8076
▁atlan	-8077
▁delta	-8078
▁scope	-8079
▁stars	-8080
▁these	-8081
▁change	-8082
▁middle	-8083
▁provin	-8084
▁support	-8085
▁youtuber	-8086
▁formation	-8087
▁commission	-8088
ju	-8089
口黑	-8090
灬大	-8091
钅巴	-8092
钅贝	-8093
113	-8094
340	-8095
iva	-8096
ues	-8097
▁wm	-8098
丿丿火	-8099
iser	-8100
mark	-8101
▁474	-8102
▁483	-8103
▁492	-8104
▁497	-8105
▁578	-8106
▁654	-8107
▁708	-8108
▁754	-8109
▁808	-8110
▁842	-8111
▁863	-8112
▁865	-8113
▁912	-8114
▁918	-8115
▁924	-8116
▁946	-8117
▁951	-8118
▁aks	-8119
▁cis	-8120
▁cut	-8121
▁gui	-8122
▁hab	-8123
▁imm	-8124
▁obj	-8125
▁tac	-8126
▁zen	-8127
丨丨比米	-8128
eland	-8129
ether	-8130
utsch	-8131
▁1275	-8132
▁1564	-8133
▁1710	-8134
▁1731	-8135
▁3166	-8136
▁3300	-8137
▁hart	-8138
▁khan	-8139
▁pent	-8140
▁teau	-8141
▁davis	-8142
▁dynam	-8143
▁olymp	-8144
▁artist	-8145
▁jordan	-8146
▁airport	-8147
▁hospital	-8148
一未	-8149
疒羊	-8150
阝垂	-8151
bda	-8152
edy	-8153
lus	-8154
▁ud	-8155
▁ue	-8156
▁vt	-8157
𠂇巾阝	-8158
atan	-8159
brid	-8160
lass	-8161
stad	-8162
wart	-8163
▁469	-8164
▁kad	-8165
▁obe	-8166
▁ras	-8167
▁rid	-8168
▁1190	-8169
▁1536	-8170
▁1591	-8171
▁1597	-8172
▁bass	-8173
▁logo	-8174
▁allen	-8175
▁clark	-8176
▁jacob	-8177
▁short	-8178
▁total	-8179
▁factor	-8180
▁wright	-8181
▁dreamcast	-8182
▁francisco	-8183
▁messenger	-8184
▁promotion	-8185
囗屯	-8186
虫斗	-8187
车乚	-8188
203	-8189
264	-8190
oon	-8191
tio	-8192
▁aj	-8193
▁px	-8194
▁tn	-8195
▁tp	-8196
▁zu	-8197
arts	-8198
hema	-8199
igan	-8200
izon	-8201
othy	-8202
ying	-8203
▁33%	-8204
▁599	-8205
▁704	-8206
▁719	-8207
▁768	-8208
▁775	-8209
▁844	-8210
▁875	-8211
▁882	-8212
▁888	-8213
▁917	-8214
▁927	-8215
▁955	-8216
▁apm	-8217
▁gri	-8218
▁kap	-8219
▁1371	-8220
▁1655	-8221
▁1669	-8222
▁cong	-8223
▁idol	-8224
▁page	-8225
▁room	-8226
▁admin	-8227
▁candy	-8228
▁henri	-8229
▁spect	-8230
▁tourn	-8231
▁commer	-8232
▁sevent	-8233
▁spring	-8234
▁temple	-8235
▁concert	-8236
▁rainbow	-8237
▁village	-8238
▁pictures	-8239
vy	-8240
月甫	-8241
王玉	-8242
石隹	-8243
310	-8244
adi	-8245
gas	-8246
hol	-8247
iac	-8248
iah	-8249
lem	-8250
lyn	-8251
ono	-8252
zzo	-8253
▁nf	-8254
▁nk	-8255
▁rm	-8256
▁wc	-8257
覀示刂	-8258
ello	-8259
ilog	-8260
▁463	-8261
▁563	-8262
▁569	-8263
▁667	-8264
▁677	-8265
▁813	-8266
▁833	-8267
▁971	-8268
▁amx	-8269
▁ans	-8270
▁lip	-8271
▁nel	-8272
▁pel	-8273
▁put	-8274
ilton	-8275
iment	-8276
▁1040	-8277
▁1385	-8278
▁1520	-8279
▁1537	-8280
▁1552	-8281
▁andy	-8282
▁cdma	-8283
▁lock	-8284
▁scri	-8285
▁bruce	-8286
▁match	-8287
▁parti	-8288
▁peace	-8289
▁piece	-8290
▁still	-8291
▁twice	-8292
▁donald	-8293
▁triple	-8294
▁bigbang	-8295
▁samsung	-8296
▁material	-8297
tz	-8298
木柬	-8299
钅必	-8300
agu	-8301
fly	-8302
ogo	-8303
ski	-8304
▁hb	-8305
▁mh	-8306
▁xl	-8307
口寸灬	-8308
ashi	-8309
body	-8310
ists	-8311
ized	-8312
▁461	-8313
▁491	-8314
▁526	-8315
▁593	-8316
▁641	-8317
▁652	-8318
▁672	-8319
▁722	-8320
▁749	-8321
▁784	-8322
▁798	-8323
▁803	-8324
▁827	-8325
▁883	-8326
▁904	-8327
▁916	-8328
▁948	-8329
▁957	-8330
▁97%	-8331
▁986	-8332
▁996	-8333
▁guy	-8334
▁nit	-8335
▁sak	-8336
▁wol	-8337
▁⿱⿳⿳	-8338
world	-8339
▁1130	-8340
▁1390	-8341
▁1543	-8342
▁1607	-8343
▁1687	-8344
▁1711	-8345
▁host	-8346
▁kara	-8347
▁baron	-8348
▁brook	-8349
▁carol	-8350
▁cover	-8351
▁labor	-8352
▁ocean	-8353
▁author	-8354
▁forest	-8355
▁hunter	-8356
▁walker	-8357
▁window	-8358
▁matthew	-8359
▁present	-8360
▁movement	-8361
▁california	-8362
aa	-8363
山见	-8364
月井	-8365
王禹	-8366
竹世	-8367
金朱	-8368
117	-8369
chy	-8370
cia	-8371
hal	-8372
hem	-8373
pin	-8374
anni	-8375
haus	-8376
lard	-8377
ween	-8378
▁17%	-8379
▁434	-8380
▁572	-8381
▁966	-8382
▁977	-8383
▁ark	-8384
▁bee	-8385
▁fig	-8386
▁jst	-8387
▁lol	-8388
▁nts	-8389
火火冖水	-8390
ament	-8391
istry	-8392
▁1277	-8393
▁1478	-8394
▁1512	-8395
▁1527	-8396
▁1566	-8397
▁1605	-8398
▁1709	-8399
▁fund	-8400
▁grow	-8401
▁josh	-8402
▁kent	-8403
▁scan	-8404
▁self	-8405
▁wang	-8406
▁texas	-8407
▁urban	-8408
▁valve	-8409
▁opengl	-8410
▁russell	-8411
▁independ	-8412
口人	-8413
aku	-8414
het	-8415
ido	-8416
inn	-8417
▁ks	-8418
▁sj	-8419
dies	-8420
illy	-8421
osis	-8422
rial	-8423
▁080	-8424
▁571	-8425
▁738	-8426
▁828	-8427
▁897	-8428
▁928	-8429
▁dub	-8430
▁hur	-8431
▁jal	-8432
▁rav	-8433
▁rod	-8434
▁sdk	-8435
▁ufo	-8436
▁1125	-8437
▁1240	-8438
▁1442	-8439
▁1513	-8440
▁1558	-8441
▁1561	-8442
▁1576	-8443
▁1588	-8444
▁1749	-8445
▁bing	-8446
▁bord	-8447
▁brad	-8448
▁gary	-8449
▁sncf	-8450
▁then	-8451
▁ghost	-8452
▁moore	-8453
▁sigma	-8454
▁german	-8455
▁heaven	-8456
▁vision	-8457
▁winter	-8458
▁england	-8459
▁noinclude	-8460
▁universit	-8461
▁television	-8462
大車	-8463
钅川	-8464
105	-8465
14%	-8466
34%	-8467
bly	-8468
edo	-8469
kes	-8470
lim	-8471
pes	-8472
uff	-8473
ulo	-8474
▁sz	-8475
▁uf	-8476
⺊口乚	-8477
习习廾	-8478
山大車	-8479
head	-8480
iler	-8481
ocus	-8482
odes	-8483
olic	-8484
▁016	-8485
▁564	-8486
▁568	-8487
▁656	-8488
▁661	-8489
▁752	-8490
▁905	-8491
▁909	-8492
▁937	-8493
▁dlc	-8494
▁etc	-8495
▁kai	-8496
▁leo	-8497
糸言糸手	-8498
eller	-8499
tiful	-8500
▁1230	-8501
▁1380	-8502
▁1555	-8503
▁1563	-8504
▁benn	-8505
▁camer	-8506
▁colon	-8507
▁today	-8508
▁wanna	-8509
▁circle	-8510
▁comple	-8511
▁french	-8512
▁gordon	-8513
▁margar	-8514
▁object	-8515
▁orange	-8516
▁pocket	-8517
▁country	-8518
▁kingdom	-8519
▁perfume	-8520
▁administ	-8521
日方	-8522
石本	-8523
金皮	-8524
125	-8525
48%	-8526
ete	-8527
ety	-8528
wal	-8529
▁jd	-8530
▁xy	-8531
冂卄禾	-8532
立十糸	-8533
ario	-8534
band	-8535
char	-8536
▁609	-8537
▁682	-8538
▁683	-8539
▁692	-8540
▁782	-8541
▁839	-8542
▁848	-8543
▁923	-8544
▁982	-8545
▁995	-8546
▁acg	-8547
▁caf	-8548
▁exo	-8549
▁fem	-8550
▁hid	-8551
▁hug	-8552
▁kot	-8553
▁kra	-8554
▁tit	-8555
space	-8556
▁1127	-8557
▁1415	-8558
▁1674	-8559
▁army	-8560
▁coco	-8561
▁easy	-8562
▁root	-8563
▁terr	-8564
▁thor	-8565
▁wise	-8566
▁franz	-8567
▁psych	-8568
▁agency	-8569
▁carter	-8570
▁lambda	-8571
▁medium	-8572
▁scheme	-8573
▁against	-8574
▁anthony	-8575
▁between	-8576
▁century	-8577
▁destiny	-8578
▁forever	-8579
▁freebsd	-8580
▁friends	-8581
▁medical	-8582
▁virginia	-8583
▁broadcast	-8584
cp	-8585
dh	-8586
kn	-8587
pd	-8588
rt	-8589
女臣	-8590
106	-8591
107	-8592
108	-8593
bur	-8594
ted	-8595
▁gf	-8596
▁vm	-8597
一丂页	-8598
目八阝	-8599
bank	-8600
▁020	-8601
▁23%	-8602
▁49%	-8603
▁663	-8604
▁681	-8605
▁686	-8606
▁799	-8607
▁806	-8608
▁877	-8609
▁919	-8610
▁932	-8611
▁ach	-8612
▁ats	-8613
▁cri	-8614
▁ein	-8615
▁kun	-8616
▁tma	-8617
▁vas	-8618
▁1382	-8619
▁1420	-8620
▁1508	-8621
▁1523	-8622
▁1753	-8623
▁4800	-8624
▁caro	-8625
▁dick	-8626
▁earl	-8627
▁hugh	-8628
▁nint	-8629
▁sata	-8630
▁tree	-8631
▁appli	-8632
▁cyber	-8633
▁daily	-8634
▁skype	-8635
▁table	-8636
▁third	-8637
▁attack	-8638
▁effect	-8639
▁histor	-8640
▁morris	-8641
▁nation	-8642
▁showcase	-8643
▁beautiful	-8644
wo	-8645
几歹	-8646
金戉	-8647
05%	-8648
ced	-8649
icy	-8650
oft	-8651
omy	-8652
▁lt	-8653
▁nn	-8654
anti	-8655
aria	-8656
▁653	-8657
▁732	-8658
▁771	-8659
▁819	-8660
▁atv	-8661
▁ibn	-8662
▁kol	-8663
▁roc	-8664
▁rou	-8665
▁rus	-8666
▁wer	-8667
▁zip	-8668
ature	-8669
dford	-8670
point	-8671
▁1234	-8672
▁1514	-8673
▁1548	-8674
▁1549	-8675
▁1557	-8676
▁1579	-8677
▁1668	-8678
▁1672	-8679
▁1678	-8680
▁1682	-8681
▁1714	-8682
▁1738	-8683
▁2024	-8684
▁arms	-8685
▁born	-8686
▁brea	-8687
▁eyes	-8688
▁iris	-8689
▁iron	-8690
▁jpeg	-8691
▁keep	-8692
▁ster	-8693
▁teen	-8694
▁30000	-8695
▁books	-8696
▁drama	-8697
▁image	-8698
▁lumia	-8699
▁score	-8700
▁terra	-8701
ologies	-8702
▁debian	-8703
▁perfor	-8704
▁rapper	-8705
▁without	-8706
▁electric	-8707
▁lovelive	-8708
▁republic	-8709
vc	-8710
大火	-8711
气川	-8712
車乚	-8713
03%	-8714
13%	-8715
57%	-8716
jan	-8717
kov	-8718
oid	-8719
zel	-8720
zza	-8721
▁wp	-8722
eyer	-8723
▁019	-8724
▁676	-8725
▁703	-8726
▁761	-8727
▁776	-8728
▁853	-8729
▁959	-8730
▁987	-8731
▁989	-8732
▁rio	-8733
▁sap	-8734
▁sit	-8735
▁uni	-8736
▁yan	-8737
丰丰豆阝	-8738
color	-8739
▁1435	-8740
▁1449	-8741
▁1691	-8742
▁aust	-8743
▁bomb	-8744
▁epic	-8745
▁gent	-8746
▁less	-8747
▁luis	-8748
▁abdul	-8749
▁coast	-8750
▁della	-8751
▁gmail	-8752
▁honey	-8753
▁jimmy	-8754
▁prote	-8755
▁quick	-8756
▁better	-8757
▁flying	-8758
▁hybrid	-8759
▁living	-8760
▁continu	-8761
▁environ	-8762
▁brothers	-8763
▁jonathan	-8764
▁nintendo	-8765
▁architect	-8766
▁evolution	-8767
▁conference	-8768
丷田	-8769
户非	-8770
氵龙	-8771
石𠃓	-8772
虫冉	-8773
金本	-8774
103	-8775
205	-8776
aru	-8777
ati	-8778
emy	-8779
irs	-8780
mur	-8781
pal	-8782
rus	-8783
ser	-8784
▁eh	-8785
▁wy	-8786
丷田日	-8787
冖车阝	-8788
fore	-8789
▁040	-8790
▁694	-8791
▁695	-8792
▁697	-8793
▁724	-8794
▁726	-8795
▁766	-8796
▁816	-8797
▁822	-8798
▁866	-8799
▁906	-8800
▁aps	-8801
▁dro	-8802
▁ecc	-8803
▁exe	-8804
▁kil	-8805
▁lux	-8806
▁nes	-8807
▁plc	-8808
▁url	-8809
▁1160	-8810
▁1320	-8811
▁1533	-8812
▁1677	-8813
▁1708	-8814
▁beca	-8815
▁berg	-8816
▁bios	-8817
▁dear	-8818
▁mort	-8819
▁nine	-8820
▁sang	-8821
▁shir	-8822
▁them	-8823
▁trna	-8824
▁activ	-8825
▁beach	-8826
▁bobby	-8827
▁pixel	-8828
▁would	-8829
▁legacy	-8830
▁return	-8831
▁shadow	-8832
▁another	-8833
▁distrib	-8834
▁monster	-8835
▁thunder	-8836
▁frederick	-8837
▁professional	-8838
几止	-8839
辶入	-8840
cci	-8841
cip	-8842
gio	-8843
iri	-8844
▁iz	-8845
▁jb	-8846
▁rk	-8847
riel	-8848
wick	-8849
▁631	-8850
▁664	-8851
▁741	-8852
▁855	-8853
▁939	-8854
▁942	-8855
▁956	-8856
▁clo	-8857
▁len	-8858
▁lex	-8859
▁toy	-8860
▁tru	-8861
▁vhs	-8862
▁vvv	-8863
opter	-8864
rence	-8865
shire	-8866
▁1129	-8867
▁1433	-8868
▁1480	-8869
▁1492	-8870
▁1551	-8871
▁1653	-8872
▁1666	-8873
▁1716	-8874
▁coup	-8875
▁fate	-8876
▁feel	-8877
▁flow	-8878
▁giov	-8879
▁mall	-8880
▁mate	-8881
▁soph	-8882
▁belie	-8883
▁sarah	-8884
▁berlin	-8885
▁motion	-8886
▁protoc	-8887
▁release	-8888
mw	-8889
vs	-8890
歹央	-8891
民日	-8892
王己	-8893
金卯	-8894
钅朱	-8895
40%	-8896
ala	-8897
cin	-8898
kar	-8899
rot	-8900
▁lf	-8901
冂丶阝	-8902
acle	-8903
agen	-8904
icus	-8905
▁002	-8906
▁012	-8907
▁595	-8908
▁673	-8909
▁769	-8910
▁789	-8911
▁887	-8912
▁968	-8913
▁ctv	-8914
▁dee	-8915
▁dei	-8916
▁ges	-8917
▁iup	-8918
▁nom	-8919
▁psv	-8920
▁rgb	-8921
▁seg	-8922
ibili	-8923
ledge	-8924
odore	-8925
▁1360	-8926
▁1440	-8927
▁1448	-8928
▁3700	-8929
▁buff	-8930
▁emer	-8931
▁jtbc	-8932
▁nike	-8933
▁null	-8934
▁oliv	-8935
▁peri	-8936
▁stat	-8937
hedral	-8938
▁andre	-8939
▁solid	-8940
▁trade	-8941
▁canada	-8942
▁nature	-8943
▁norman	-8944
▁spirit	-8945
ications	-8946
▁diamond	-8947
▁include	-8948
▁mathema	-8949
▁primary	-8950
▁publish	-8951
▁anderson	-8952
▁bilibili	-8953
▁intellig	-8954
▁margaret	-8955
▁princess	-8956
▁technologies	-8957
一又	-8958
二女	-8959
爿未	-8960
102	-8961
abe	-8962
bee	-8963
eco	-8964
hai	-8965
uan	-8966
wig	-8967
▁hc	-8968
▁ui	-8969
ardo	-8970
▁22%	-8971
▁734	-8972
▁781	-8973
▁836	-8974
▁837	-8975
▁838	-8976
▁895	-8977
▁jin	-8978
▁nem	-8979
▁tat	-8980
▁tax	-8981
▁tog	-8982
ample	-8983
iting	-8984
lines	-8985
▁1066	-8986
▁1392	-8987
▁1413	-8988
▁1445	-8989
▁1510	-8990
▁1703	-8991
▁1717	-8992
▁burg	-8993
▁leop	-8994
▁meet	-8995
▁much	-8996
▁piet	-8997
▁poin	-8998
▁scho	-8999
▁temp	-9000
▁vict	-9001
▁wifi	-9002
▁wong	-9003
▁⿰⿱⿱⿻	-9004
bourne	-9005
▁audio	-9006
▁holly	-9007
▁infin	-9008
▁songs	-9009
▁trust	-9010
chester	-9011
▁financ	-9012
▁johnny	-9013
▁metrop	-9014
▁crystal	-9015
▁democra	-9016
▁studies	-9017
▁advanced	-9018
▁discovery	-9019
耒巴	-9020
阝止	-9021
11%	-9022
33%	-9023
79%	-9024
97%	-9025
lav	-9026
mor	-9027
oko	-9028
▁zi	-9029
勹巳刂	-9030
口口页	-9031
alis	-9032
anna	-9033
bird	-9034
dium	-9035
lock	-9036
ring	-9037
▁591	-9038
▁594	-9039
▁679	-9040
▁739	-9041
▁779	-9042
▁849	-9043
▁862	-9044
▁881	-9045
▁991	-9046
▁998	-9047
▁eif	-9048
▁gay	-9049
▁gim	-9050
▁hil	-9051
▁hub	-9052
▁isp	-9053
▁lac	-9054
▁reb	-9055
▁rex	-9056
▁rif	-9057
▁ves	-9058
▁why	-9059
▁wow	-9060
ances	-9061
scape	-9062
▁1206	-9063
▁1278	-9064
▁1340	-9065
▁1375	-9066
▁1494	-9067
▁1546	-9068
▁1554	-9069
▁1611	-9070
▁1663	-9071
▁1686	-9072
▁1692	-9073
▁1741	-9074
▁4200	-9075
▁brit	-9076
▁carr	-9077
▁clos	-9078
▁dong	-9079
▁flag	-9080
▁ifpi	-9081
▁mong	-9082
▁sara	-9083
▁sequ	-9084
▁such	-9085
easure	-9086
friend	-9087
▁india	-9088
▁local	-9089
▁melon	-9090
▁swing	-9091
▁vogue	-9092
▁while	-9093
▁youth	-9094
▁differ	-9095
▁mechan	-9096
▁mother	-9097
▁douglas	-9098
▁hamilton	-9099
▁memorial	-9100
▁personal	-9101
▁washington	-9102
bw	-9103
uh	-9104
土隶	-9105
饣耳	-9106
002	-9107
08%	-9108
42%	-9109
87%	-9110
88%	-9111
alo	-9112
asi	-9113
eda	-9114
nik	-9115
pat	-9116
pie	-9117
ppm	-9118
rid	-9119
uis	-9120
▁__	-9121
▁ei	-9122
▁ez	-9123
▁oe	-9124
▁wn	-9125
夫丷页	-9126
火火刂	-9127
ador	-9128
mund	-9129
▁24%	-9130
▁671	-9131
▁693	-9132
▁763	-9133
▁788	-9134
▁792	-9135
▁894	-9136
▁898	-9137
▁902	-9138
▁922	-9139
▁941	-9140
▁967	-9141
▁aub	-9142
▁cem	-9143
▁hyp	-9144
▁lon	-9145
▁mcg	-9146
▁nic	-9147
▁occ	-9148
▁pom	-9149
▁sph	-9150
▁utf	-9151
▁yak	-9152
ishop	-9153
▁1070	-9154
▁1425	-9155
▁1472	-9156
▁4300	-9157
▁gaga	-9158
▁lice	-9159
▁nice	-9160
▁spin	-9161
▁user	-9162
▁wool	-9163
▁canon	-9164
▁creek	-9165
▁event	-9166
▁plant	-9167
▁prize	-9168
▁sever	-9169
▁cinema	-9170
▁constr	-9171
▁flight	-9172
▁justin	-9173
▁strate	-9174
▁jacques	-9175
▁yoshiki	-9176
▁greatest	-9177
▁cathedral	-9178
px	-9179
冫牙	-9180
木巴	-9181
毛求	-9182
米果	-9183
01%	-9184
06%	-9185
124	-9186
189	-9187
202	-9188
360	-9189
58%	-9190
68%	-9191
mit	-9192
mum	-9193
uki	-9194
van	-9195
▁gg	-9196
▁nx	-9197
▁pw	-9198
▁xc	-9199
aker	-9200
ardi	-9201
each	-9202
load	-9203
onda	-9204
otte	-9205
▁030	-9206
▁21%	-9207
▁665	-9208
▁678	-9209
▁744	-9210
▁748	-9211
▁831	-9212
▁834	-9213
▁899	-9214
▁913	-9215
▁931	-9216
▁949	-9217
▁acp	-9218
▁bio	-9219
▁cum	-9220
▁hem	-9221
▁sou	-9222
estra	-9223
pping	-9224
▁1140	-9225
▁1142	-9226
▁1270	-9227
▁1364	-9228
▁1381	-9229
▁1388	-9230
▁1516	-9231
▁1542	-9232
▁1596	-9233
▁2900	-9234
▁away	-9235
▁ferr	-9236
▁help	-9237
▁horn	-9238
▁step	-9239
▁tank	-9240
▁grant	-9241
▁jerry	-9242
▁pseud	-9243
▁stein	-9244
ination	-9245
▁around	-9246
▁canton	-9247
▁device	-9248
▁doctor	-9249
▁marcus	-9250
▁moment	-9251
▁nathan	-9252
▁charlie	-9253
▁factory	-9254
▁freedom	-9255
▁powerpc	-9256
▁premier	-9257
rh	-9258
王月	-9259
白匕	-9260
02%	-9261
07%	-9262
15%	-9263
17%	-9264
24%	-9265
35%	-9266
66%	-9267
84%	-9268
85%	-9269
hib	-9270
ige	-9271
imi	-9272
sty	-9273
▁qf	-9274
▁xd	-9275
目八缶	-9276
anga	-9277
anth	-9278
aron	-9279
bber	-9280
dram	-9281
feld	-9282
iles	-9283
ving	-9284
ysis	-9285
▁19%	-9286
▁709	-9287
▁736	-9288
▁764	-9289
▁791	-9290
▁811	-9291
▁814	-9292
▁961	-9293
▁aid	-9294
▁bam	-9295
▁bib	-9296
▁bis	-9297
▁cbc	-9298
▁giv	-9299
▁kay	-9300
▁ome	-9301
▁ran	-9302
▁ree	-9303
▁sab	-9304
▁too	-9305
▁1119	-9306
▁1170	-9307
▁1328	-9308
▁1406	-9309
▁1470	-9310
▁1534	-9311
▁1704	-9312
▁1706	-9313
▁circ	-9314
▁incl	-9315
▁pret	-9316
▁xiii	-9317
▁fight	-9318
▁nexus	-9319
▁study	-9320
▁worms	-9321
▁politi	-9322
▁repres	-9323
▁deutsch	-9324
▁thompson	-9325
女以	-9326
白木	-9327
禾末	-9328
18%	-9329
250	-9330
29%	-9331
82%	-9332
dit	-9333
iae	-9334
opp	-9335
sia	-9336
uba	-9337
unk	-9338
▁hz	-9339
gate	-9340
mers	-9341
▁44%	-9342
▁47%	-9343
▁691	-9344
▁696	-9345
▁843	-9346
▁878	-9347
▁891	-9348
▁892	-9349
▁893	-9350
▁adm	-9351
▁alf	-9352
▁cbe	-9353
▁emb	-9354
▁hir	-9355
▁lod	-9356
▁oak	-9357
▁ole	-9358
▁pod	-9359
▁syl	-9360
丷八白木	-9361
𠂊田一屯	-9362
lands	-9363
▁1067	-9364
▁1131	-9365
▁1135	-9366
▁1403	-9367
▁1410	-9368
▁1424	-9369
▁1528	-9370
▁bund	-9371
▁cmos	-9372
▁expo	-9373
▁idea	-9374
▁june	-9375
▁kris	-9376
▁lane	-9377
▁mala	-9378
▁need	-9379
▁quar	-9380
▁race	-9381
▁cinem	-9382
▁crazy	-9383
▁grace	-9384
▁hills	-9385
▁kings	-9386
▁maker	-9387
▁rhyth	-9388
▁sugar	-9389
▁tiger	-9390
▁beauty	-9391
▁during	-9392
▁powers	-9393
▁rights	-9394
▁rogers	-9395
▁sainte	-9396
▁roberts	-9397
▁seventeen	-9398
▁environment	-9399
▁productions	-9400
nh	-9401
土亚	-9402
舟中	-9403
虫乚	-9404
04%	-9405
112	-9406
61%	-9407
ben	-9408
cch	-9409
det	-9410
ovi	-9411
tus	-9412
▁bw	-9413
▁kp	-9414
▁ov	-9415
一八皮	-9416
ager	-9417
▁003	-9418
▁807	-9419
▁868	-9420
▁869	-9421
▁agg	-9422
▁dio	-9423
▁dll	-9424
▁jew	-9425
▁jol	-9426
▁kee	-9427
▁ric	-9428
▁tsa	-9429
白丿十阝	-9430
𠂊田灬弗	-9431
mance	-9432
▁1085	-9433
▁1120	-9434
▁1279	-9435
▁1497	-9436
▁1594	-9437
▁1743	-9438
▁bear	-9439
▁benj	-9440
▁caen	-9441
▁cafe	-9442
▁cnbc	-9443
▁cost	-9444
▁fine	-9445
▁font	-9446
▁hous	-9447
▁orch	-9448
▁11000	-9449
▁alone	-9450
▁anime	-9451
▁appro	-9452
▁chung	-9453
▁initi	-9454
▁iupac	-9455
▁korea	-9456
▁price	-9457
▁steel	-9458
▁thing	-9459
▁value	-9460
▁hudson	-9461
▁legend	-9462
▁shinee	-9463
▁strong	-9464
▁solaris	-9465
▁victory	-9466
▁lawrence	-9467
▁sciences	-9468
▁australia	-9469
▁transform	-9470
ef	-9471
hy	-9472
戊臣	-9473
王页	-9474
疒𠃓	-9475
礻韦	-9476
豕豕	-9477
钅戉	-9478
12%	-9479
170	-9480
20%	-9481
323	-9482
36%	-9483
53%	-9484
54%	-9485
70%	-9486
73%	-9487
98%	-9488
999	-9489
ahl	-9490
bla	-9491
dio	-9492
gis	-9493
khz	-9494
mel	-9495
oux	-9496
rap	-9497
rog	-9498
▁ej	-9499
▁kj	-9500
▁uv	-9501
▁vc	-9502
夫夫车	-9503
anne	-9504
base	-9505
icip	-9506
vest	-9507
▁010	-9508
▁43%	-9509
▁795	-9510
▁851	-9511
▁874	-9512
▁896	-9513
▁992	-9514
▁atc	-9515
▁geo	-9516
▁ips	-9517
▁jen	-9518
▁pho	-9519
▁sce	-9520
▁sco	-9521
▁ufc	-9522
▁woo	-9523
凵丨凵示	-9524
enson	-9525
ields	-9526
inder	-9527
▁1138	-9528
▁1330	-9529
▁1376	-9530
▁1608	-9531
▁1719	-9532
▁ange	-9533
▁dean	-9534
▁exec	-9535
▁gonz	-9536
▁hunt	-9537
▁mond	-9538
▁pure	-9539
▁requ	-9540
▁ship	-9541
▁shot	-9542
▁size	-9543
▁wish	-9544
▁yang	-9545
▁40000	-9546
▁beast	-9547
▁clear	-9548
▁opens	-9549
▁staff	-9550
▁matrix	-9551
▁observ	-9552
▁oliver	-9553
▁origin	-9554
▁spacex	-9555
▁stream	-9556
▁bgcolor	-9557
▁foreign	-9558
▁justice	-9559
▁running	-9560
▁transfer	-9561
一阝	-9562
山山	-9563
矛𧘇	-9564
竹戋	-9565
虫丘	-9566
121	-9567
32%	-9568
67%	-9569
77%	-9570
900	-9571
99%	-9572
mat	-9573
orm	-9574
oul	-9575
uka	-9576
uru	-9577
uta	-9578
▁lb	-9579
乀丿月	-9580
乀丿虫	-9581
立十纟	-9582
ards	-9583
chin	-9584
icle	-9585
olia	-9586
omet	-9587
orpg	-9588
ting	-9589
ules	-9590
▁004	-9591
▁26%	-9592
▁57%	-9593
▁858	-9594
▁964	-9595
▁amu	-9596
▁dot	-9597
▁dsm	-9598
▁gig	-9599
▁oem	-9600
▁pvc	-9601
▁spy	-9602
▁upd	-9603
cloud	-9604
ected	-9605
sters	-9606
stone	-9607
▁1137	-9608
▁1214	-9609
▁1225	-9610
▁1421	-9611
▁1464	-9612
▁1506	-9613
▁8500	-9614
▁bond	-9615
▁cond	-9616
▁ford	-9617
▁gray	-9618
▁gree	-9619
▁hend	-9620
▁iata	-9621
▁ikon	-9622
▁mile	-9623
▁quad	-9624
▁rush	-9625
▁early	-9626
▁hydro	-9627
▁sense	-9628
▁suica	-9629
▁suite	-9630
▁boulev	-9631
▁proble	-9632
▁captain	-9633
▁creative	-9634
▁southern	-9635
▁animation	-9636
▁represent	-9637
gp	-9638
sd	-9639
木比	-9640
艹氏	-9641
金不	-9642
111	-9643
52%	-9644
63%	-9645
64%	-9646
75%	-9647
96%	-9648
nel	-9649
oke	-9650
omb	-9651
rum	-9652
uen	-9653
▁dw	-9654
0000	-9655
ants	-9656
hill	-9657
issa	-9658
lier	-9659
link	-9660
sten	-9661
▁070	-9662
▁783	-9663
▁796	-9664
▁854	-9665
▁864	-9666
▁976	-9667
▁ana	-9668
▁bmg	-9669
▁bog	-9670
▁gap	-9671
▁gym	-9672
▁jak	-9673
▁mee	-9674
▁rah	-9675
▁rin	-9676
▁sip	-9677
▁spa	-9678
▁tir	-9679
𠂊田灬工	-9680
kreis	-9681
▁1010	-9682
▁1060	-9683
▁1220	-9684
▁1439	-9685
▁1504	-9686
▁1693	-9687
▁1694	-9688
▁1696	-9689
▁astr	-9690
▁both	-9691
▁chat	-9692
▁duke	-9693
▁even	-9694
▁give	-9695
▁phar	-9696
▁plas	-9697
▁sohc	-9698
▁stay	-9699
▁baker	-9700
▁brain	-9701
▁films	-9702
▁innov	-9703
▁manga	-9704
▁yours	-9705
▁newton	-9706
▁script	-9707
▁senior	-9708
▁steven	-9709
▁gabriel	-9710
▁stanley	-9711
▁vincent	-9712
▁boulevard	-9713
▁financial	-9714
弓耳	-9715
气乃	-9716
水水	-9717
氵尺	-9718
瓦千	-9719
目目	-9720
150	-9721
226	-9722
55%	-9723
83%	-9724
gro	-9725
uti	-9726
▁fg	-9727
▁tx	-9728
亠矛𧘇	-9729
ente	-9730
esco	-9731
ieux	-9732
irus	-9733
rier	-9734
▁46%	-9735
▁797	-9736
▁841	-9737
▁96%	-9738
▁add	-9739
▁ade	-9740
▁csm	-9741
▁mlb	-9742
▁pbs	-9743
▁rey	-9744
▁saw	-9745
▁tig	-9746
▁tum	-9747
▁uci	-9748
▁wit	-9749
▁wto	-9750
▁xxx	-9751
▁zim	-9752
目目隹又	-9753
itive	-9754
media	-9755
shine	-9756
▁1175	-9757
▁1215	-9758
▁1265	-9759
▁1412	-9760
▁1467	-9761
▁1503	-9762
▁1531	-9763
▁corp	-9764
▁ebay	-9765
▁ivan	-9766
▁joey	-9767
▁nato	-9768
▁past	-9769
▁pick	-9770
▁rate	-9771
▁rule	-9772
▁site	-9773
▁wars	-9774
▁basil	-9775
▁creat	-9776
▁instr	-9777
▁liter	-9778
▁venus	-9779
▁woman	-9780
▁certif	-9781
▁claude	-9782
▁mmorpg	-9783
▁philos	-9784
▁termin	-9785
▁travel	-9786
▁velvet	-9787
▁brother	-9788
▁concept	-9789
▁display	-9790
▁municip	-9791
▁princip	-9792
▁private	-9793
▁stewart	-9794
ification	-9795
▁together	-9796
▁character	-9797
▁lucasarts	-9798
▁president	-9799
▁performance	-9800
艹必	-9801
虫甘	-9802
言斤	-9803
122	-9804
204	-9805
26%	-9806
27%	-9807
28%	-9808
31%	-9809
386	-9810
39%	-9811
43%	-9812
45%	-9813
47%	-9814
56%	-9815
69%	-9816
76%	-9817
86%	-9818
ffe	-9819
isk	-9820
iza	-9821
oly	-9822
ppa	-9823
rik	-9824
▁lz	-9825
▁vh	-9826
冂口木	-9827
cial	-9828
eria	-9829
ined	-9830
lich	-9831
ours	-9832
▁27%	-9833
▁774	-9834
▁861	-9835
▁92%	-9836
▁974	-9837
▁993	-9838
▁ced	-9839
▁cre	-9840
▁emo	-9841
▁kok	-9842
▁ktv	-9843
▁nag	-9844
▁raf	-9845
▁veh	-9846
▁wav	-9847
annon	-9848
arian	-9849
ative	-9850
ledis	-9851
osaur	-9852
owski	-9853
tains	-9854
ticle	-9855
▁1116	-9856
▁1455	-9857
▁bull	-9858
▁cele	-9859
▁hang	-9860
▁pont	-9861
▁viet	-9862
ighter	-9863
▁alter	-9864
▁chief	-9865
▁danny	-9866
▁monte	-9867
▁ready	-9868
▁ground	-9869
▁normal	-9870
▁pledis	-9871
▁provid	-9872
▁retrie	-9873
▁amazing	-9874
▁diction	-9875
▁morning	-9876
▁theater	-9877
▁students	-9878
fy	-9879
sc	-9880
山鬼	-9881
疒山	-9882
礻乃	-9883
艹虫	-9884
讠几	-9885
09%	-9886
134	-9887
22%	-9888
37%	-9889
65%	-9890
89%	-9891
95%	-9892
dia	-9893
mod	-9894
omp	-9895
▁fw	-9896
儿丨金	-9897
士示隶	-9898
blue	-9899
king	-9900
lian	-9901
news	-9902
omer	-9903
room	-9904
▁051	-9905
▁42%	-9906
▁674	-9907
▁804	-9908
▁852	-9909
▁867	-9910
▁879	-9911
▁889	-9912
▁983	-9913
▁aac	-9914
▁drm	-9915
▁eun	-9916
▁hus	-9917
▁ian	-9918
▁lay	-9919
▁own	-9920
▁rst	-9921
▁rum	-9922
▁tow	-9923
▁udp	-9924
anche	-9925
cbook	-9926
eless	-9927
▁1030	-9928
▁1139	-9929
▁1185	-9930
▁1210	-9931
▁1227	-9932
▁1259	-9933
▁1287	-9934
▁1394	-9935
▁1695	-9936
▁3400	-9937
▁cosm	-9938
▁draw	-9939
▁rein	-9940
▁rout	-9941
▁wake	-9942
titude	-9943
▁billy	-9944
▁infor	-9945
▁islam	-9946
▁large	-9947
▁later	-9948
▁milit	-9949
▁sonic	-9950
▁vocal	-9951
▁advent	-9952
▁always	-9953
▁before	-9954
▁centro	-9955
▁grande	-9956
▁police	-9957
▁signal	-9958
▁chamber	-9959
▁cinemas	-9960
▁evangel	-9961
▁example	-9962
▁benjamin	-9963
▁giovanni	-9964
▁marshall	-9965
干干	-9966
王几	-9967
艹目	-9968
艹豆	-9969
金目	-9970
𠂇冂	-9971
16%	-9972
21%	-9973
23%	-9974
arc	-9975
gel	-9976
hon	-9977
ket	-9978
lap	-9979
ogn	-9980
ras	-9981
tek	-9982
▁bn	-9983
▁fb	-9984
▁ih	-9985
▁nj	-9986
▁tz	-9987
乡隹土	-9988
覀土阝	-9989
重力灬	-9990
bson	-9991
east	-9992
etti	-9993
ichi	-9994
wald	-9995
wiki	-9996
▁090	-9997
▁32%	-9998
▁753	-9999
▁832	-10000
▁857	-10001
▁958	-10002
▁dab	-10003
▁fav	-10004
▁gaz	-10005
▁mud	-10006
▁nim	-10007
▁nir	-10008
▁ple	-10009
▁ptt	-10010
▁rer	-10011
▁rib	-10012
▁sul	-10013
▁tee	-10014
▁utr	-10015
▁xen	-10016
丨丨比几	-10017
ality	-10018
andra	-10019
illes	-10020
ingen	-10021
▁1002	-10022
▁1115	-10023
▁1377	-10024
▁1407	-10025
▁1452	-10026
▁1476	-10027
▁1501	-10028
▁1656	-10029
▁1698	-10030
▁aver	-10031
▁bahn	-10032
▁clay	-10033
▁epis	-10034
▁half	-10035
▁jtwc	-10036
▁mack	-10037
▁merc	-10038
▁prec	-10039
▁rise	-10040
▁rrna	-10041
▁tanh	-10042
▁twin	-10043
▁alber	-10044
▁cloud	-10045
▁craig	-10046
▁ernst	-10047
▁genie	-10048
▁larry	-10049
▁logic	-10050
▁minor	-10051
▁ralph	-10052
▁terry	-10053
▁varia	-10054
▁angela	-10055
▁animax	-10056
▁bishop	-10057
▁fellow	-10058
▁flower	-10059
▁proper	-10060
▁result	-10061
▁element	-10062
▁jessica	-10063
▁railway	-10064
▁alliance	-10065
▁infinity	-10066
▁northern	-10067
▁protocol	-10068
▁robinson	-10069
▁industrial	-10070
▁openoffice	-10071
▁references	-10072
ek	-10073
口我	-10074
氵日	-10075
犭弗	-10076
竹肃	-10077
10%	-10078
115	-10079
126	-10080
19%	-10081
30%	-10082
49%	-10083
50%	-10084
bye	-10085
eni	-10086
jet	-10087
lac	-10088
mid	-10089
owa	-10090
utt	-10091
yon	-10092
▁qr	-10093
户攵木	-10094
eaux	-10095
fort	-10096
kien	-10097
▁006	-10098
▁013	-10099
▁015	-10100
▁793	-10101
▁823	-10102
▁943	-10103
▁abu	-10104
▁aes	-10105
▁afi	-10106
▁ard	-10107
▁cab	-10108
▁dhc	-10109
▁dre	-10110
▁fia	-10111
▁nog	-10112
▁riv	-10113
▁sbl	-10114
▁sov	-10115
▁tok	-10116
井一八言	-10117
uther	-10118
▁1204	-10119
▁1219	-10120
▁1236	-10121
▁1362	-10122
▁1365	-10123
▁1437	-10124
▁1483	-10125
▁1539	-10126
▁ansi	-10127
▁beam	-10128
▁beck	-10129
▁echo	-10130
▁extr	-10131
▁glad	-10132
▁grav	-10133
▁jung	-10134
▁shap	-10135
▁trea	-10136
▁vvvf	-10137
ipedia	-10138
▁autom	-10139
▁charl	-10140
▁chies	-10141
▁conso	-10142
▁keith	-10143
▁maxim	-10144
▁range	-10145
▁smile	-10146
ression	-10147
▁butter	-10148
▁cooper	-10149
▁lantis	-10150
▁lovely	-10151
▁safari	-10152
▁content	-10153
▁electro	-10154
▁federal	-10155
▁product	-10156
▁campbell	-10157
▁federation	-10158
▁architecture	-10159
ew	-10160
kv	-10161
vm	-10162
xa	-10163
二儿	-10164
口羊	-10165
土龙	-10166
扌东	-10167
艹果	-10168
钅土	-10169
216	-10170
59%	-10171
72%	-10172
93%	-10173
agn	-10174
dem	-10175
loy	-10176
rah	-10177
uil	-10178
▁dz	-10179
▁gk	-10180
▁vb	-10181
八厶心	-10182
anus	-10183
asia	-10184
asis	-10185
bble	-10186
code	-10187
dell	-10188
enda	-10189
ilia	-10190
late	-10191
onia	-10192
tile	-10193
tima	-10194
tium	-10195
tius	-10196
▁052	-10197
▁28%	-10198
▁36%	-10199
▁54%	-10200
▁772	-10201
▁873	-10202
▁954	-10203
▁972	-10204
▁984	-10205
▁elf	-10206
▁ens	-10207
▁gav	-10208
▁ich	-10209
▁ntv	-10210
▁psr	-10211
▁rip	-10212
▁sib	-10213
▁sli	-10214
▁yui	-10215
▁⿱⿳⿻	-10216
alian	-10217
ancer	-10218
liner	-10219
tives	-10220
▁1086	-10221
▁1198	-10222
▁1253	-10223
▁1356	-10224
▁1386	-10225
▁1398	-10226
▁1402	-10227
▁1404	-10228
▁1408	-10229
▁1485	-10230
▁4600	-10231
▁carp	-10232
▁chee	-10233
▁clin	-10234
▁each	-10235
▁emba	-10236
▁grey	-10237
▁kath	-10238
▁otto	-10239
▁phen	-10240
▁supr	-10241
▁vill	-10242
timate	-10243
▁50000	-10244
▁assem	-10245
▁canad	-10246
▁libre	-10247
▁photo	-10248
▁reich	-10249
▁shock	-10250
▁thumb	-10251
▁chiesa	-10252
▁friday	-10253
▁gangan	-10254
▁gogoro	-10255
▁graham	-10256
▁nelson	-10257
▁rhythm	-10258
▁someth	-10259
▁collins	-10260
▁gallery	-10261
▁gregory	-10262
▁macbook	-10263
▁trinity	-10264
▁document	-10265
▁heinrich	-10266
▁netscape	-10267
▁sunshine	-10268
▁secretary	-10269
▁electronic	-10270
▁investment	-10271
▁communication	-10272
lc	-10273
lr	-10274
yu	-10275
口甘	-10276
月甲	-10277
爿羊	-10278
竹艮	-10279
005	-10280
139	-10281
151	-10282
190	-10283
60%	-10284
78%	-10285
80%	-10286
boy	-10287
esp	-10288
eto	-10289
far	-10290
iao	-10291
low	-10292
rel	-10293
rov	-10294
▁dg	-10295
▁vy	-10296
竹艮皿	-10297
aman	-10298
ango	-10299
cdon	-10300
igny	-10301
plus	-10302
ucle	-10303
ured	-10304
vide	-10305
▁018	-10306
▁52%	-10307
▁644	-10308
▁743	-10309
▁944	-10310
▁abl	-10311
▁ads	-10312
▁bod	-10313
▁cub	-10314
▁dag	-10315
▁dum	-10316
▁dup	-10317
▁hed	-10318
▁ioc	-10319
▁kem	-10320
▁raj	-10321
▁sax	-10322
▁ssh	-10323
𠂊田灬身	-10324
ensen	-10325
gamer	-10326
thing	-10327
▁1020	-10328
▁1042	-10329
▁1329	-10330
▁1351	-10331
▁1409	-10332
▁1414	-10333
▁coff	-10334
▁dram	-10335
▁gaud	-10336
▁hide	-10337
▁hipp	-10338
▁midi	-10339
▁noth	-10340
▁nucl	-10341
▁proc	-10342
▁rodr	-10343
▁salv	-10344
▁sent	-10345
▁shel	-10346
▁trax	-10347
▁trip	-10348
▁vall	-10349
icular	-10350
▁azure	-10351
▁cable	-10352
▁gusta	-10353
▁helen	-10354
▁lucky	-10355
▁macro	-10356
▁pedro	-10357
▁sdram	-10358
▁stock	-10359
▁blackp	-10360
▁contra	-10361
▁empire	-10362
▁ernest	-10363
▁experi	-10364
▁harper	-10365
▁monkey	-10366
▁compact	-10367
▁current	-10368
▁million	-10369
▁palazzo	-10370
▁complete	-10371
▁congress	-10372
▁constant	-10373
▁economic	-10374
▁cambridge	-10375
▁dictionary	-10376
iy	-10377
丿干	-10378
女朱	-10379
月羊	-10380
氵丰	-10381
王龙	-10382
衤夬	-10383
金衣	-10384
307	-10385
405	-10386
92%	-10387
bab	-10388
enu	-10389
lak	-10390
los	-10391
oca	-10392
set	-10393
umn	-10394
▁nb	-10395
▁sx	-10396
厶口阝	-10397
土土阝	-10398
夫夫車	-10399
氵𠃓火	-10400
立十手	-10401
come	-10402
elia	-10403
enet	-10404
enix	-10405
fish	-10406
gins	-10407
isch	-10408
onna	-10409
orum	-10410
toon	-10411
type	-10412
west	-10413
▁29%	-10414
▁37%	-10415
▁bae	-10416
▁cbd	-10417
▁cyp	-10418
▁emd	-10419
▁ets	-10420
▁fnc	-10421
▁ngo	-10422
▁ppm	-10423
▁rig	-10424
▁rup	-10425
▁spo	-10426
▁tec	-10427
▁wee	-10428
一中冖石	-10429
丨丨比金	-10430
icago	-10431
inary	-10432
ische	-10433
lated	-10434
ovich	-10435
▁1122	-10436
▁1211	-10437
▁1218	-10438
▁1282	-10439
▁1515	-10440
▁7200	-10441
▁bour	-10442
▁care	-10443
▁dipl	-10444
▁flex	-10445
▁icao	-10446
▁jazz	-10447
▁late	-10448
▁near	-10449
▁peak	-10450
▁ping	-10451
▁prac	-10452
▁tard	-10453
▁agree	-10454
▁amiga	-10455
▁cheng	-10456
▁evans	-10457
▁joint	-10458
▁medal	-10459
▁serge	-10460
▁smack	-10461
▁tommy	-10462
borough	-10463
▁dennis	-10464
▁estate	-10465
▁filter	-10466
▁fusion	-10467
▁qualif	-10468
▁resour	-10469
▁winner	-10470
▁believe	-10471
▁eastern	-10472
▁fortran	-10473
▁kenneth	-10474
▁tolkien	-10475
▁minister	-10476
▁something	-10477
▁convention	-10478
▁experience	-10479
土艮	-10480
扌垂	-10481
钅巨	-10482
135	-10483
136	-10484
230	-10485
62%	-10486
chu	-10487
cos	-10488
rat	-10489
▁iq	-10490
▁yf	-10491
虫虫皿	-10492
cock	-10493
esse	-10494
iola	-10495
itas	-10496
orus	-10497
ping	-10498
unch	-10499
uten	-10500
▁778	-10501
▁872	-10502
▁89%	-10503
▁94%	-10504
▁kas	-10505
▁lap	-10506
▁lev	-10507
▁lok	-10508
▁ntt	-10509
▁sse	-10510
▁ttc	-10511
▁vod	-10512
糸言糸子	-10513
uster	-10514
▁1014	-10515
▁1078	-10516
▁1099	-10517
▁1216	-10518
▁1327	-10519
▁1387	-10520
▁1397	-10521
▁1418	-10522
▁1429	-10523
▁1465	-10524
▁1471	-10525
▁1488	-10526
▁1499	-10527
▁3100	-10528
▁6600	-10529
▁calc	-10530
▁gith	-10531
▁insp	-10532
▁ming	-10533
▁stev	-10534
▁sult	-10535
▁barry	-10536
▁chall	-10537
▁focus	-10538
▁frequ	-10539
▁laura	-10540
▁lotus	-10541
▁macau	-10542
▁magne	-10543
▁medic	-10544
▁relig	-10545
▁reser	-10546
▁shang	-10547
▁sleep	-10548
▁titan	-10549
istance	-10550
torrent	-10551
▁disney	-10552
▁knight	-10553
▁letter	-10554
▁myster	-10555
▁select	-10556
▁simple	-10557
▁trance	-10558
▁turner	-10559
iversary	-10560
▁analysis	-10561
▁cultural	-10562
▁philippe	-10563
▁progress	-10564
▁rockstar	-10565
▁training	-10566
▁universe	-10567
▁landkreis	-10568
▁independent	-10569
fm	-10570
gt	-10571
yt	-10572
▁毌	-10573
冂山	-10574
火屯	-10575
牛毛	-10576
131	-10577
140	-10578
192	-10579
38%	-10580
41%	-10581
94%	-10582
isy	-10583
rag	-10584
rim	-10585
rup	-10586
sha	-10587
umo	-10588
▁bk	-10589
▁pn	-10590
▁tj	-10591
▁zf	-10592
人人且	-10593
凵丨又	-10594
力口衣	-10595
口止石	-10596
龶月见	-10597
ched	-10598
eror	-10599
peti	-10600
side	-10601
vais	-10602
▁005	-10603
▁723	-10604
▁963	-10605
▁ada	-10606
▁bai	-10607
▁cgi	-10608
▁cie	-10609
▁eur	-10610
▁gan	-10611
▁itu	-10612
▁liu	-10613
▁mpa	-10614
▁mrs	-10615
▁mta	-10616
▁ngt	-10617
▁peg	-10618
▁sep	-10619
▁sic	-10620
▁vie	-10621
▁vil	-10622
opsis	-10623
stand	-10624
uring	-10625
▁1011	-10626
▁1049	-10627
▁1110	-10628
▁1161	-10629
▁1162	-10630
▁1189	-10631
▁1199	-10632
▁1235	-10633
▁1241	-10634
▁1274	-10635
▁1290	-10636
▁1297	-10637
▁1325	-10638
▁1333	-10639
▁1345	-10640
▁1367	-10641
▁1372	-10642
▁1389	-10643
▁1395	-10644
▁1411	-10645
▁1427	-10646
▁1468	-10647
▁1498	-10648
▁bart	-10649
▁bone	-10650
▁cann	-10651
▁chun	-10652
▁kang	-10653
▁maxi	-10654
▁momo	-10655
▁ntfs	-10656
▁synd	-10657
▁tool	-10658
enburg	-10659
utions	-10660
▁april	-10661
▁check	-10662
▁could	-10663
▁emacs	-10664
▁excel	-10665
▁faith	-10666
▁laugh	-10667
▁upper	-10668
▁austin	-10669
▁github	-10670
▁oracle	-10671
▁region	-10672
▁stuart	-10673
▁chapter	-10674
▁console	-10675
▁vietnam	-10676
▁graphics	-10677
▁paradise	-10678
▁terminal	-10679
▁yourself	-10680
▁smackdown	-10681
▁australian	-10682
129	-10683
308	-10684
370	-10685
51%	-10686
def	-10687
elo	-10688
idi	-10689
kat	-10690
lew	-10691
opa	-10692
uli	-10693
uve	-10694
was	-10695
▁hh	-10696
▁tk	-10697
▁xb	-10698
▁zo	-10699
小丿衣	-10700
扌丸贝	-10701
车斤土	-10702
bras	-10703
dale	-10704
flow	-10705
html	-10706
olas	-10707
text	-10708
▁011	-10709
▁41%	-10710
▁859	-10711
▁871	-10712
▁88%	-10713
▁agm	-10714
▁dbc	-10715
▁era	-10716
▁khz	-10717
▁lai	-10718
▁ssd	-10719
▁syd	-10720
eline	-10721
ienne	-10722
illon	-10723
▁1004	-10724
▁1028	-10725
▁1032	-10726
▁1141	-10727
▁1205	-10728
▁1246	-10729
▁1258	-10730
▁1264	-10731
▁1272	-10732
▁1283	-10733
▁1363	-10734
▁1396	-10735
▁1405	-10736
▁dial	-10737
▁howe	-10738
▁imdb	-10739
▁kamp	-10740
▁sala	-10741
▁same	-10742
▁symp	-10743
▁task	-10744
▁vern	-10745
berger	-10746
script	-10747
▁13000	-10748
▁brave	-10749
▁emily	-10750
▁kitty	-10751
▁klein	-10752
▁mysql	-10753
▁perry	-10754
▁route	-10755
▁shall	-10756
▁since	-10757
▁sorry	-10758
▁swift	-10759
▁symph	-10760
▁anders	-10761
▁cookie	-10762
▁domain	-10763
▁doremi	-10764
▁introd	-10765
▁mirror	-10766
▁models	-10767
▁parker	-10768
▁period	-10769
▁please	-10770
▁valent	-10771
▁african	-10772
▁gaudens	-10773
▁georgia	-10774
▁goodbye	-10775
▁nuclear	-10776
▁scienti	-10777
▁frontier	-10778
▁nicholas	-10779
▁blackpink	-10780
▁hollywood	-10781
▁anniversary	-10782
一隹	-10783
廴由	-10784
目冘	-10785
虫皿	-10786
119	-10787
195	-10788
509	-10789
90%	-10790
aco	-10791
bad	-10792
eus	-10793
fet	-10794
kel	-10795
log	-10796
nic	-10797
omi	-10798
riz	-10799
▁lj	-10800
▁mj	-10801
▁wb	-10802
口止皮	-10803
crip	-10804
ecca	-10805
idas	-10806
last	-10807
latz	-10808
look	-10809
ount	-10810
tron	-10811
▁009	-10812
▁48%	-10813
▁56%	-10814
▁58%	-10815
▁66%	-10816
▁794	-10817
▁aeg	-10818
▁ata	-10819
▁bye	-10820
▁fen	-10821
▁kla	-10822
▁lag	-10823
▁lpl	-10824
▁pir	-10825
▁sns	-10826
▁suv	-10827
▁uri	-10828
一厶土阝	-10829
abase	-10830
cated	-10831
ccess	-10832
ength	-10833
istic	-10834
lipse	-10835
otype	-10836
stadt	-10837
umont	-10838
▁1025	-10839
▁1134	-10840
▁1153	-10841
▁1207	-10842
▁1252	-10843
▁1271	-10844
▁1284	-10845
▁1295	-10846
▁1352	-10847
▁1373	-10848
▁1399	-10849
▁1482	-10850
▁1486	-10851
▁1509	-10852
▁6400	-10853
▁aero	-10854
▁bent	-10855
▁dice	-10856
▁disk	-10857
▁drug	-10858
▁dyna	-10859
▁hier	-10860
▁kurt	-10861
▁lite	-10862
▁ller	-10863
▁mers	-10864
▁nano	-10865
▁pcie	-10866
▁prix	-10867
▁rang	-10868
▁rice	-10869
▁saab	-10870
▁surv	-10871
▁tiff	-10872
▁visa	-10873
stream	-10874
▁aaron	-10875
▁adams	-10876
▁alexa	-10877
▁diego	-10878
▁eagle	-10879
▁fleet	-10880
▁johan	-10881
▁kkbox	-10882
▁nancy	-10883
▁paper	-10884
▁phase	-10885
▁shift	-10886
▁aggreg	-10887
▁compon	-10888
▁fedora	-10889
▁murray	-10890
▁piazza	-10891
▁schwar	-10892
▁chicago	-10893
▁islands	-10894
▁catholic	-10895
▁electron	-10896
▁syndrome	-10897
▁francesco	-10898
▁interface	-10899
▁retrieved	-10900
▁bittorrent	-10901
▁cinemascore	-10902
gh	-10903
jk	-10904
且隹	-10905
人工	-10906
广阝	-10907
木予	-10908
氵民	-10909
虫亡	-10910
𠂆一	-10911
213	-10912
81%	-10913
dex	-10914
fun	-10915
ife	-10916
jin	-10917
mbh	-10918
phi	-10919
rys	-10920
sky	-10921
▁fh	-10922
▁jc	-10923
▁rw	-10924
▁wz	-10925
口耳戈	-10926
耳耳頁	-10927
arin	-10928
atra	-10929
endy	-10930
erie	-10931
essa	-10932
igen	-10933
igne	-10934
ived	-10935
lips	-10936
tify	-10937
▁014	-10938
▁035	-10939
▁053	-10940
▁060	-10941
▁38%	-10942
▁53%	-10943
▁82%	-10944
▁amy	-10945
▁cec	-10946
▁ces	-10947
▁eld	-10948
▁fps	-10949
▁frs	-10950
▁ftp	-10951
▁jab	-10952
▁lav	-10953
▁llo	-10954
▁nfc	-10955
▁ott	-10956
▁pfa	-10957
▁pid	-10958
▁svg	-10959
▁thi	-10960
▁tib	-10961
▁tls	-10962
▁typ	-10963
▁wwf	-10964
人人龰心	-10965
istar	-10966
press	-10967
▁1027	-10968
▁1096	-10969
▁1101	-10970
▁1126	-10971
▁1155	-10972
▁1167	-10973
▁1263	-10974
▁1266	-10975
▁1322	-10976
▁1374	-10977
▁1391	-10978
▁1447	-10979
▁1461	-10980
▁1491	-10981
▁2026	-10982
▁arab	-10983
▁bdsm	-10984
▁buck	-10985
▁cust	-10986
▁dawn	-10987
▁drop	-10988
▁fitz	-10989
▁hood	-10990
▁igbt	-10991
▁mama	-10992
▁must	-10993
▁octa	-10994
▁risc	-10995
▁spot	-10996
▁uber	-10997
▁⿱⿱⿱⿱	-10998
▁beats	-10999
▁bloom	-11000
▁chrom	-11001
▁glass	-11002
▁griff	-11003
▁heavy	-11004
▁karen	-11005
▁stern	-11006
▁africa	-11007
▁athlon	-11008
▁cherry	-11009
▁chiang	-11010
▁dreams	-11011
▁ludwig	-11012
▁oxford	-11013
▁counter	-11014
▁episode	-11015
▁highway	-11016
▁liberty	-11017
▁protein	-11018
▁student	-11019
▁jennifer	-11020
▁metropol	-11021
▁commodore	-11022
▁organization	-11023
▁administration	-11024
fb	-11025
王頁	-11026
禾干	-11027
纟寸	-11028
虫内	-11029
钅皮	-11030
130	-11031
162	-11032
bbs	-11033
bre	-11034
cor	-11035
esc	-11036
etf	-11037
ied	-11038
ipe	-11039
tob	-11040
usu	-11041
vor	-11042
▁fk	-11043
▁hn	-11044
▁vk	-11045
▁xt	-11046
一丂瓜	-11047
1911	-11048
atch	-11049
aten	-11050
enty	-11051
ging	-11052
onex	-11053
othe	-11054
utch	-11055
▁84%	-11056
▁ape	-11057
▁ars	-11058
▁csi	-11059
▁dod	-11060
▁duc	-11061
▁eco	-11062
▁ela	-11063
▁esc	-11064
▁fee	-11065
▁gol	-11066
▁ion	-11067
▁mck	-11068
▁nct	-11069
▁pam	-11070
▁phd	-11071
▁rpm	-11072
▁vre	-11073
▁wen	-11074
etery	-11075
▁1016	-11076
▁1069	-11077
▁1090	-11078
▁1221	-11079
▁1228	-11080
▁1229	-11081
▁1231	-11082
▁1254	-11083
▁1261	-11084
▁1324	-11085
▁1401	-11086
▁1431	-11087
▁1474	-11088
▁1477	-11089
▁1507	-11090
▁abra	-11091
▁bene	-11092
▁chal	-11093
▁diff	-11094
▁drum	-11095
▁ella	-11096
▁elle	-11097
▁exid	-11098
▁gmbh	-11099
▁hass	-11100
▁hdmi	-11101
▁isis	-11102
▁modi	-11103
▁quin	-11104
▁roth	-11105
▁tong	-11106
▁trig	-11107
▁ucla	-11108
▁vlad	-11109
▁wide	-11110
▁wins	-11111
▁athle	-11112
▁clock	-11113
▁colin	-11114
▁crown	-11115
▁eddie	-11116
▁geoff	-11117
▁gross	-11118
▁licen	-11119
▁ordin	-11120
▁petit	-11121
▁share	-11122
▁singh	-11123
▁tomor	-11124
▁virus	-11125
▁wings	-11126
ability	-11127
itation	-11128
osition	-11129
▁adrian	-11130
▁indian	-11131
▁marine	-11132
▁reddit	-11133
▁stefan	-11134
▁update	-11135
▁eclipse	-11136
▁myspace	-11137
▁reality	-11138
▁timothy	-11139
▁tonight	-11140
▁products	-11141
▁province	-11142
▁starship	-11143
▁ultimate	-11144
▁political	-11145
▁distribution	-11146
uw	-11147
▁疋	-11148
彐𧰨	-11149
犭白	-11150
虍乎	-11151
钅来	-11152
003	-11153
157	-11154
231	-11155
262	-11156
71%	-11157
74%	-11158
ava	-11159
bah	-11160
cap	-11161
oku	-11162
roy	-11163
zon	-11164
zzi	-11165
▁oo	-11166
▁xs	-11167
幺幺子	-11168
ares	-11169
elin	-11170
ffer	-11171
illi	-11172
life	-11173
rame	-11174
rett	-11175
tery	-11176
tida	-11177
vier	-11178
▁017	-11179
▁34%	-11180
▁994	-11181
▁afc	-11182
▁dft	-11183
▁ees	-11184
▁eso	-11185
▁gly	-11186
▁hin	-11187
▁hua	-11188
▁kos	-11189
▁mev	-11190
▁oil	-11191
▁png	-11192
▁snk	-11193
▁spl	-11194
▁xii	-11195
丷干丸虫	-11196
arius	-11197
ening	-11198
water	-11199
▁1063	-11200
▁1072	-11201
▁1073	-11202
▁1114	-11203
▁1124	-11204
▁1143	-11205
▁1158	-11206
▁1183	-11207
▁1233	-11208
▁1248	-11209
▁1347	-11210
▁1349	-11211
▁1355	-11212
▁1393	-11213
▁1438	-11214
▁4700	-11215
▁9600	-11216
▁apec	-11217
▁brig	-11218
▁cern	-11219
▁citi	-11220
▁cold	-11221
▁dere	-11222
▁holy	-11223
▁iptv	-11224
▁jaco	-11225
▁lons	-11226
▁many	-11227
▁salt	-11228
▁wasp	-11229
▁wnba	-11230
▁16000	-11231
▁crist	-11232
▁exper	-11233
▁going	-11234
▁label	-11235
▁lower	-11236
▁mason	-11237
▁minec	-11238
▁ridge	-11239
▁sebas	-11240
▁shoot	-11241
▁circus	-11242
▁cortex	-11243
▁includ	-11244
▁making	-11245
▁morgan	-11246
▁saturn	-11247
▁sultan	-11248
▁warren	-11249
▁within	-11250
▁alphago	-11251
▁barbara	-11252
▁competi	-11253
▁gilbert	-11254
▁herbert	-11255
▁manager	-11256
▁outlook	-11257
▁vehicle	-11258
▁working	-11259
▁cemetery	-11260
▁database	-11261
▁malaysia	-11262
▁november	-11263
▁tomorrow	-11264
▁following	-11265
▁mountains	-11266
▁application	-11267
▁broadcasting	-11268
▁communications	-11269
kl	-11270
口食	-11271
田疋	-11272
白巴	-11273
竹肅	-11274
199	-11275
207	-11276
44%	-11277
aci	-11278
agh	-11279
gun	-11280
lys	-11281
oga	-11282
ppy	-11283
rio	-11284
sey	-11285
tik	-11286
▁gj	-11287
▁ln	-11288
▁qa	-11289
▁rv	-11290
丷夫言	-11291
山己见	-11292
镸彡冉	-11293
abad	-11294
beat	-11295
enge	-11296
erse	-11297
etch	-11298
gram	-11299
illo	-11300
ingo	-11301
ised	-11302
izer	-11303
onse	-11304
shop	-11305
tiva	-11306
udio	-11307
urst	-11308
▁032	-11309
▁054	-11310
▁856	-11311
▁aux	-11312
▁bmp	-11313
▁cav	-11314
▁cox	-11315
▁deg	-11316
▁dic	-11317
▁fle	-11318
▁flu	-11319
▁gif	-11320
▁gis	-11321
▁gto	-11322
▁het	-11323
▁hoo	-11324
▁imf	-11325
▁jis	-11326
▁lug	-11327
▁lyc	-11328
▁maz	-11329
▁nod	-11330
▁nur	-11331
▁oxy	-11332
▁pok	-11333
▁rie	-11334
▁smo	-11335
▁zun	-11336
十冖田疋	-11337
士冖一木	-11338
court	-11339
dress	-11340
onkey	-11341
track	-11342
▁1005	-11343
▁1033	-11344
▁1034	-11345
▁1111	-11346
▁1123	-11347
▁1144	-11348
▁1176	-11349
▁1187	-11350
▁1195	-11351
▁1217	-11352
▁1226	-11353
▁1242	-11354
▁1289	-11355
▁1331	-11356
▁1337	-11357
▁1346	-11358
▁1357	-11359
▁1444	-11360
▁liqu	-11361
▁load	-11362
▁loop	-11363
▁meta	-11364
▁mick	-11365
▁mine	-11366
▁move	-11367
▁rabb	-11368
▁soho	-11369
▁stem	-11370
▁stro	-11371
▁todd	-11372
▁trib	-11373
亠丷厂彡頁	-11374
tional	-11375
▁atari	-11376
▁chain	-11377
▁domin	-11378
▁jesus	-11379
▁kecam	-11380
▁opent	-11381
▁sandy	-11382
▁sharp	-11383
▁unity	-11384
▁xhtml	-11385
▁animal	-11386
▁argent	-11387
▁bureau	-11388
▁columb	-11389
▁gerald	-11390
▁melody	-11391
▁partic	-11392
▁policy	-11393
▁rachel	-11394
▁target	-11395
▁things	-11396
▁though	-11397
▁disease	-11398
▁fighter	-11399
▁january	-11400
▁openbsd	-11401
▁sunrise	-11402
▁supreme	-11403
▁transit	-11404
lications	-11405
▁atlantic	-11406
▁infinite	-11407
▁medicine	-11408
▁oriental	-11409
▁kecamatan	-11410
▁wikipedia	-11411
▁publishing	-11412
▁tournament	-11413
兆頁	-11414
宀𡗗	-11415
彳来	-11416
月龙	-11417
艹乡	-11418
酉甘	-11419
127	-11420
222	-11421
302	-11422
450	-11423
91%	-11424
cad	-11425
dun	-11426
enc	-11427
had	-11428
icz	-11429
inc	-11430
jar	-11431
kas	-11432
nar	-11433
opo	-11434
▁ao	-11435
▁hf	-11436
コ一心	-11437
八刀土	-11438
勹日阝	-11439
木斤白	-11440
0001	-11441
alle	-11442
anie	-11443
aris	-11444
born	-11445
call	-11446
cate	-11447
chus	-11448
jang	-11449
road	-11450
wich	-11451
▁68%	-11452
▁72%	-11453
▁77%	-11454
▁baa	-11455
▁jur	-11456
▁lad	-11457
▁moo	-11458
▁ski	-11459
𠂊田灬予	-11460
istan	-11461
▁1006	-11462
▁1017	-11463
▁1041	-11464
▁1054	-11465
▁1076	-11466
▁1077	-11467
▁1081	-11468
▁1102	-11469
▁1132	-11470
▁1136	-11471
▁1224	-11472
▁1232	-11473
▁1256	-11474
▁1262	-11475
▁1307	-11476
▁1342	-11477
▁1348	-11478
▁1358	-11479
▁1456	-11480
▁3900	-11481
▁5200	-11482
▁avbw	-11483
▁brid	-11484
▁cara	-11485
▁caus	-11486
▁crim	-11487
▁dome	-11488
▁else	-11489
▁enti	-11490
▁fell	-11491
▁goth	-11492
▁hugo	-11493
▁isle	-11494
▁luke	-11495
▁mean	-11496
▁mist	-11497
▁neil	-11498
▁poss	-11499
▁sans	-11500
▁sham	-11501
▁tale	-11502
▁trop	-11503
▁ultr	-11504
ulouse	-11505
▁adult	-11506
▁agent	-11507
▁alive	-11508
▁atlas	-11509
▁devil	-11510
▁forum	-11511
▁gener	-11512
▁josef	-11513
▁kanon	-11514
▁notes	-11515
▁redmi	-11516
▁susan	-11517
ankings	-11518
▁comics	-11519
▁driver	-11520
▁import	-11521
▁inside	-11522
▁shield	-11523
▁tardis	-11524
▁watson	-11525
▁connect	-11526
▁georges	-11527
▁hermann	-11528
▁journey	-11529
▁leonard	-11530
▁photosh	-11531
▁popular	-11532
▁raymond	-11533
▁symbian	-11534
▁johannes	-11535
▁regional	-11536
▁showtime	-11537
▁terminus	-11538
▁toulouse	-11539
▁everything	-11540
▁gamerankings	-11541
▁intelligence	-11542
hk	-11543
匚口	-11544
女册	-11545
木乍	-11546
艹千	-11547
讠工	-11548
160	-11549
168	-11550
208	-11551
215	-11552
217	-11553
255	-11554
470	-11555
870	-11556
apa	-11557
ims	-11558
mut	-11559
nos	-11560
oms	-11561
tah	-11562
var	-11563
zip	-11564
▁vu	-11565
▁vz	-11566
▁xv	-11567
月刂见	-11568
ayan	-11569
city	-11570
imir	-11571
iral	-11572
olin	-11573
ovan	-11574
utes	-11575
zone	-11576
▁046	-11577
▁aig	-11578
▁ain	-11579
▁amb	-11580
▁ate	-11581
▁cun	-11582
▁daw	-11583
▁gad	-11584
▁gcc	-11585
▁hak	-11586
▁hog	-11587
▁htm	-11588
▁lia	-11589
▁nds	-11590
▁psi	-11591
▁rab	-11592
▁sue	-11593
▁tah	-11594
▁tul	-11595
▁tyr	-11596
▁vid	-11597
▁vog	-11598
▁vpn	-11599
▁wei	-11600
人一朩田	-11601
口口隹頁	-11602
艹罒冖目	-11603
andro	-11604
endor	-11605
ified	-11606
ragon	-11607
▁1013	-11608
▁1018	-11609
▁1065	-11610
▁1087	-11611
▁1093	-11612
▁1097	-11613
▁1103	-11614
▁1106	-11615
▁1109	-11616
▁1118	-11617
▁1273	-11618
▁1285	-11619
▁1302	-11620
▁1309	-11621
▁1314	-11622
▁1326	-11623
▁1417	-11624
▁1419	-11625
▁1462	-11626
▁1473	-11627
▁1479	-11628
▁1518	-11629
▁5600	-11630
▁adap	-11631
▁aiko	-11632
▁anto	-11633
▁bald	-11634
▁bert	-11635
▁bind	-11636
▁biow	-11637
▁bott	-11638
▁dale	-11639
▁date	-11640
▁fear	-11641
▁hoch	-11642
▁ietf	-11643
▁ligo	-11644
▁lung	-11645
▁ntsb	-11646
▁pain	-11647
▁pred	-11648
▁push	-11649
▁raja	-11650
▁riaa	-11651
▁sier	-11652
▁spor	-11653
ensive	-11654
ession	-11655
▁berry	-11656
▁birth	-11657
▁cells	-11658
▁chlor	-11659
▁glory	-11660
▁shine	-11661
▁words	-11662
▁choice	-11663
▁course	-11664
▁integr	-11665
▁palace	-11666
▁simula	-11667
▁sydney	-11668
▁temper	-11669
ditional	-11670
▁genesis	-11671
▁horizon	-11672
▁meeting	-11673
▁profile	-11674
▁allmusic	-11675
▁harrison	-11676
▁industry	-11677
▁michelle	-11678
▁reaction	-11679
▁knowledge	-11680
▁objective	-11681
▁photoshop	-11682
▁professor	-11683
▁laboratory	-11684
▁ユ	-11685
八月	-11686
犭九	-11687
虫且	-11688
言山	-11689
金必	-11690
钅乙	-11691
118	-11692
235	-11693
486	-11694
730	-11695
ahn	-11696
aye	-11697
etz	-11698
hat	-11699
jah	-11700
lea	-11701
len	-11702
mos	-11703
nis	-11704
vas	-11705
▁dn	-11706
▁ij	-11707
▁iw	-11708
▁oy	-11709
▁rl	-11710
▁xa	-11711
勹冫金	-11712
𠂆一㔾	-11713
____	-11714
dorf	-11715
fare	-11716
ired	-11717
ives	-11718
olph	-11719
onne	-11720
ouri	-11721
ucky	-11722
ustr	-11723
wall	-11724
▁067	-11725
▁83%	-11726
▁arp	-11727
▁aud	-11728
▁cet	-11729
▁cow	-11730
▁cru	-11731
▁cvt	-11732
▁ddg	-11733
▁dsi	-11734
▁eid	-11735
▁enc	-11736
▁exc	-11737
▁gom	-11738
▁gtp	-11739
▁hla	-11740
▁hmv	-11741
▁nhl	-11742
▁nut	-11743
▁pab	-11744
▁pcc	-11745
▁rsa	-11746
▁ssl	-11747
▁tau	-11748
▁try	-11749
▁wiz	-11750
丿𠃌攵贝	-11751
囗⺌日瓦	-11752
lable	-11753
▁1035	-11754
▁1039	-11755
▁1044	-11756
▁1094	-11757
▁1159	-11758
▁1188	-11759
▁1191	-11760
▁1194	-11761
▁1196	-11762
▁1291	-11763
▁1296	-11764
▁1308	-11765
▁1354	-11766
▁1366	-11767
▁2040	-11768
▁4400	-11769
▁beth	-11770
▁btob	-11771
▁chak	-11772
▁crow	-11773
▁dang	-11774
▁dell	-11775
▁dian	-11776
▁elis	-11777
▁hits	-11778
▁hook	-11779
▁incr	-11780
▁kate	-11781
▁kern	-11782
▁kirk	-11783
▁ndez	-11784
▁owen	-11785
▁ques	-11786
▁shaw	-11787
▁tenn	-11788
utsche	-11789
▁atenu	-11790
▁behav	-11791
▁blade	-11792
▁blast	-11793
▁disco	-11794
▁felix	-11795
▁montb	-11796
▁nigel	-11797
▁param	-11798
▁posix	-11799
▁rapid	-11800
▁sales	-11801
▁squad	-11802
▁thank	-11803
▁using	-11804
▁border	-11805
▁branch	-11806
▁bright	-11807
▁carbon	-11808
▁claire	-11809
▁combin	-11810
▁depend	-11811
▁realme	-11812
▁statis	-11813
▁strike	-11814
▁yamaha	-11815
icularia	-11816
▁because	-11817
▁leaders	-11818
▁nations	-11819
▁schools	-11820
▁singles	-11821
▁assembly	-11822
▁learning	-11823
▁aggregate	-11824
▁authority	-11825
▁operations	-11826
▁programming	-11827
sw	-11828
亡阝	-11829
亻夫	-11830
亻巨	-11831
匕十	-11832
文寸	-11833
耒㠯	-11834
酉乍	-11835
133	-11836
141	-11837
197	-11838
319	-11839
46%	-11840
850	-11841
bil	-11842
eli	-11843
gic	-11844
gus	-11845
haw	-11846
ilo	-11847
▁hv	-11848
▁qb	-11849
▁rj	-11850
习习中	-11851
戊𠃌阝	-11852
日十阝	-11853
hood	-11854
idea	-11855
iden	-11856
itis	-11857
lade	-11858
midt	-11859
mmet	-11860
omon	-11861
opus	-11862
orph	-11863
rice	-11864
▁022	-11865
▁037	-11866
▁072	-11867
▁64%	-11868
▁86%	-11869
▁acm	-11870
▁ald	-11871
▁cfm	-11872
▁diy	-11873
▁eps	-11874
▁fad	-11875
▁gau	-11876
▁gtk	-11877
▁hai	-11878
▁hap	-11879
▁hdr	-11880
▁hex	-11881
▁hul	-11882
▁ico	-11883
▁ipo	-11884
▁kis	-11885
▁kre	-11886
▁lga	-11887
▁mph	-11888
▁mri	-11889
▁pau	-11890
▁pdp	-11891
▁pig	-11892
▁psa	-11893
▁shi	-11894
▁sos	-11895
▁sri	-11896
▁wrc	-11897
chell	-11898
layer	-11899
okawa	-11900
rique	-11901
▁1045	-11902
▁1059	-11903
▁1071	-11904
▁1095	-11905
▁1113	-11906
▁1121	-11907
▁1146	-11908
▁1147	-11909
▁1152	-11910
▁1154	-11911
▁1174	-11912
▁1202	-11913
▁1281	-11914
▁1341	-11915
▁1443	-11916
▁1495	-11917
▁5800	-11918
▁brew	-11919
▁cand	-11920
▁choc	-11921
▁cock	-11922
▁cogn	-11923
▁elli	-11924
▁evan	-11925
▁hour	-11926
▁july	-11927
▁lucy	-11928
▁mono	-11929
▁node	-11930
▁reed	-11931
▁save	-11932
▁stic	-11933
▁wine	-11934
▁wiss	-11935
caster	-11936
▁emule	-11937
▁irish	-11938
▁isaac	-11939
▁jesse	-11940
▁joker	-11941
▁layer	-11942
▁lloyd	-11943
▁marty	-11944
▁noble	-11945
starter	-11946
▁camera	-11947
▁chance	-11948
▁coffee	-11949
▁joshua	-11950
▁orient	-11951
▁racing	-11952
▁safety	-11953
▁should	-11954
▁sistar	-11955
▁bioware	-11956
▁borough	-11957
▁constit	-11958
▁fiction	-11959
▁license	-11960
▁millenn	-11961
▁rebecca	-11962
▁scandal	-11963
▁spotify	-11964
▁aviation	-11965
▁beauvais	-11966
▁canadian	-11967
▁franklin	-11968
▁informer	-11969
▁missouri	-11970
▁physical	-11971
▁scotland	-11972
▁shanghai	-11973
▁associated	-11974
▁commercial	-11975
▁qualifying	-11976
▁utricularia	-11977
口龙	-11978
月瓜	-11979
米巴	-11980
言工	-11981
钅了	-11982
176	-11983
228	-11984
309	-11985
boo	-11986
edi	-11987
hot	-11988
jun	-11989
neo	-11990
omm	-11991
onn	-11992
pen	-11993
▁jk	-11994
匚王力	-11995
口止夫	-11996
宀八土	-11997
宀八果	-11998
burn	-11999
cale	-12000
care	-12001
eron	-12002
ktop	-12003
sted	-12004
▁039	-12005
▁065	-12006
▁099	-12007
▁67%	-12008
▁81%	-12009
▁87%	-12010
▁afl	-12011
▁cot	-12012
▁cul	-12013
▁enh	-12014
▁gba	-12015
▁ghq	-12016
▁gmp	-12017
▁ira	-12018
▁jpg	-12019
▁jup	-12020
▁kul	-12021
▁mbe	-12022
▁nay	-12023
▁nbl	-12024
▁ned	-12025
▁nsa	-12026
▁rug	-12027
▁sod	-12028
▁wag	-12029
▁wes	-12030
▁yun	-12031
aries	-12032
erous	-12033
itude	-12034
tique	-12035
utive	-12036
▁0001	-12037
▁1048	-12038
▁1056	-12039
▁1064	-12040
▁1133	-12041
▁1179	-12042
▁1182	-12043
▁1213	-12044
▁1267	-12045
▁1268	-12046
▁1315	-12047
▁1321	-12048
▁1359	-12049
▁1436	-12050
▁1484	-12051
▁6800	-12052
▁aaaa	-12053
▁baba	-12054
▁batt	-12055
▁bugs	-12056
▁cape	-12057
▁carn	-12058
▁chow	-12059
▁dhar	-12060
▁gone	-12061
▁infl	-12062
▁jake	-12063
▁mint	-12064
▁neut	-12065
▁riot	-12066
▁saga	-12067
▁semi	-12068
▁sept	-12069
▁shut	-12070
▁swim	-12071
▁tick	-12072
▁tier	-12073
▁ting	-12074
elling	-12075
ternal	-12076
▁14000	-12077
▁augus	-12078
▁brows	-12079
▁cause	-12080
▁chick	-12081
▁close	-12082
▁cohen	-12083
▁demon	-12084
▁ellen	-12085
▁error	-12086
▁jalan	-12087
▁kinki	-12088
▁marqu	-12089
▁molec	-12090
▁oscar	-12091
▁panas	-12092
▁print	-12093
▁quant	-12094
▁robot	-12095
▁scale	-12096
▁stack	-12097
▁telec	-12098
▁theor	-12099
▁tyler	-12100
liament	-12101
▁andrea	-12102
▁bleach	-12103
▁coming	-12104
▁franco	-12105
▁higher	-12106
▁jeremy	-12107
▁miguel	-12108
▁points	-12109
▁rocket	-12110
▁spider	-12111
▁vector	-12112
▁address	-12113
▁phoenix	-12114
▁welcome	-12115
▁airlines	-12116
▁deutsche	-12117
▁fernando	-12118
▁japanese	-12119
▁kadokawa	-12120
▁military	-12121
▁official	-12122
▁platform	-12123
▁agreement	-12124
▁eurogamer	-12125
▁minecraft	-12126
▁municipal	-12127
▁parliament	-12128
▁kickstarter	-12129
jn	-12130
kk	-12131
口皿	-12132
月申	-12133
气亚	-12134
艹长	-12135
175	-12136
179	-12137
206	-12138
220	-12139
227	-12140
233	-12141
261	-12142
305	-12143
321	-12144
abi	-12145
fit	-12146
ged	-12147
jon	-12148
mah	-12149
uku	-12150
utz	-12151
zig	-12152
▁yi	-12153
▁zn	-12154
业㡀甫	-12155
千口氏	-12156
𠂉口皿	-12157
agan	-12158
arte	-12159
chel	-12160
enia	-12161
gles	-12162
hell	-12163
ishi	-12164
ivan	-12165
kell	-12166
lain	-12167
mbps	-12168
ocer	-12169
oder	-12170
onso	-12171
tish	-12172
wave	-12173
wide	-12174
wind	-12175
▁021	-12176
▁025	-12177
▁045	-12178
▁048	-12179
▁066	-12180
▁31%	-12181
▁91%	-12182
▁adi	-12183
▁apa	-12184
▁ask	-12185
▁bmi	-12186
▁cdc	-12187
▁dah	-12188
▁ett	-12189
▁fix	-12190
▁gin	-12191
▁gur	-12192
▁icd	-12193
▁irc	-12194
▁isu	-12195
▁jag	-12196
▁kep	-12197
▁kum	-12198
▁liz	-12199
▁llc	-12200
▁rai	-12201
▁rak	-12202
▁tsh	-12203
▁vik	-12204
▁zam	-12205
eased	-12206
icate	-12207
itten	-12208
ookie	-12209
shock	-12210
▁1156	-12211
▁1192	-12212
▁1208	-12213
▁1239	-12214
▁1292	-12215
▁1310	-12216
▁1311	-12217
▁1332	-12218
▁1379	-12219
▁1422	-12220
▁1463	-12221
▁alco	-12222
▁alto	-12223
▁amar	-12224
▁cald	-12225
▁chol	-12226
▁cort	-12227
▁fung	-12228
▁gond	-12229
▁harm	-12230
▁hash	-12231
▁heat	-12232
▁hulu	-12233
▁hung	-12234
▁json	-12235
▁mann	-12236
▁nand	-12237
▁orth	-12238
▁pere	-12239
▁pump	-12240
▁sean	-12241
▁sram	-12242
▁tail	-12243
ampton	-12244
ermont	-12245
manuel	-12246
tended	-12247
urance	-12248
▁acous	-12249
▁bella	-12250
▁bibli	-12251
▁buddh	-12252
▁canal	-12253
▁carlo	-12254
▁derek	-12255
▁edwin	-12256
▁fever	-12257
▁gamma	-12258
▁honor	-12259
▁huang	-12260
▁inves	-12261
▁marco	-12262
▁neuro	-12263
▁nucle	-12264
▁pitch	-12265
▁prism	-12266
▁solar	-12267
cdonald	-12268
▁appear	-12269
▁corner	-12270
▁groups	-12271
▁ladies	-12272
▁langon	-12273
▁member	-12274
▁pretty	-12275
▁ronald	-12276
▁rubber	-12277
▁survey	-12278
▁transm	-12279
▁transp	-12280
▁abraham	-12281
▁andreas	-12282
▁article	-12283
▁busters	-12284
▁finance	-12285
▁forward	-12286
▁persona	-12287
▁verilog	-12288
▁basilica	-12289
▁clermont	-12290
▁ericsson	-12291
▁phillips	-12292
▁remember	-12293
▁frequency	-12294
▁panasonic	-12295
▁secondary	-12296
▁structure	-12297
▁technical	-12298
▁translation	-12299
▁construction	-12300
mf	-12301
亻千	-12302
竹罒	-12303
讠卜	-12304
辶甫	-12305
金田	-12306
阝食	-12307
167	-12308
174	-12309
180	-12310
322	-12311
875	-12312
caf	-12313
chn	-12314
fal	-12315
hof	-12316
iso	-12317
leh	-12318
phe	-12319
uin	-12320
web	-12321
yah	-12322
▁++	-12323
▁eq	-12324
▁uu	-12325
▁yy	-12326
㐅乂土	-12327
亠父力	-12328
𠁣𠃛一	-12329
aign	-12330
amoo	-12331
atar	-12332
cdma	-12333
enna	-12334
fire	-12335
itus	-12336
lash	-12337
quin	-12338
rell	-12339
sapp	-12340
tors	-12341
▁024	-12342
▁056	-12343
▁39%	-12344
▁62%	-12345
▁63%	-12346
▁69%	-12347
▁ais	-12348
▁alc	-12349
▁amo	-12350
▁bry	-12351
▁dou	-12352
▁epr	-12353
▁fog	-12354
▁foo	-12355
▁gdi	-12356
▁gec	-12357
▁gia	-12358
▁gli	-12359
▁jor	-12360
▁kop	-12361
▁ler	-12362
▁oct	-12363
▁phi	-12364
▁pic	-12365
▁rez	-12366
▁smg	-12367
▁sof	-12368
▁sto	-12369
▁sut	-12370
▁tut	-12371
▁ucs	-12372
▁vul	-12373
▁wah	-12374
brain	-12375
icial	-12376
ilder	-12377
radio	-12378
stock	-12379
▁1008	-12380
▁1026	-12381
▁1046	-12382
▁1083	-12383
▁1104	-12384
▁1107	-12385
▁1177	-12386
▁1212	-12387
▁1251	-12388
▁1286	-12389
▁1378	-12390
▁1428	-12391
▁1432	-12392
▁1671	-12393
▁2028	-12394
▁5300	-12395
▁assa	-12396
▁bush	-12397
▁chas	-12398
▁clim	-12399
▁cord	-12400
▁esta	-12401
▁flat	-12402
▁funk	-12403
▁gddr	-12404
▁homo	-12405
▁info	-12406
▁kiha	-12407
▁niss	-12408
▁ogle	-12409
▁oppo	-12410
▁ratp	-12411
▁said	-12412
▁tune	-12413
▁vevo	-12414
▁weap	-12415
hammad	-12416
lement	-12417
▁18000	-12418
▁ahmed	-12419
▁bless	-12420
▁bound	-12421
▁fritz	-12422
▁giant	-12423
▁giuse	-12424
▁gradu	-12425
▁lance	-12426
▁month	-12427
▁omega	-12428
▁paint	-12429
▁piano	-12430
▁prest	-12431
▁pride	-12432
▁synth	-12433
▁teach	-12434
▁truth	-12435
▁units	-12436
▁wagon	-12437
▁arnold	-12438
▁excell	-12439
▁fisher	-12440
▁format	-12441
▁gaming	-12442
▁hammer	-12443
▁julian	-12444
▁lollip	-12445
▁manuel	-12446
▁output	-12447
▁phosph	-12448
▁prison	-12449
▁rising	-12450
▁vmware	-12451
▁weekly	-12452
▁chronic	-12453
▁coaster	-12454
▁conserv	-12455
▁indones	-12456
▁lovelyz	-12457
▁nothing	-12458
▁campaign	-12459
▁columbia	-12460
▁director	-12461
▁presents	-12462
▁challenge	-12463
▁charlotte	-12464
▁different	-12465
▁directory	-12466
▁associates	-12467
▁millennium	-12468
▁postscript	-12469
丿手	-12470
土己	-12471
土甘	-12472
火文	-12473
火斤	-12474
灬尺	-12475
言卜	-12476
龙石	-12477
006	-12478
214	-12479
306	-12480
508	-12481
alu	-12482
cco	-12483
eem	-12484
hor	-12485
iev	-12486
ikh	-12487
iku	-12488
ocy	-12489
ogy	-12490
the	-12491
yes	-12492
▁jj	-12493
▁lh	-12494
八刀手	-12495
又又页	-12496
ater	-12497
ilus	-12498
inda	-12499
lett	-12500
rael	-12501
rill	-12502
talk	-12503
▁093	-12504
▁78%	-12505
▁93%	-12506
▁alm	-12507
▁aoa	-12508
▁avc	-12509
▁bed	-12510
▁dlp	-12511
▁doi	-12512
▁dvb	-12513
▁emm	-12514
▁fsa	-12515
▁gue	-12516
▁kha	-12517
▁kod	-12518
▁lcc	-12519
▁mcp	-12520
▁mia	-12521
▁nun	-12522
▁oss	-12523
▁pax	-12524
▁sae	-12525
▁scp	-12526
▁sia	-12527
▁tcl	-12528
▁tub	-12529
▁ups	-12530
囗⺌日刂	-12531
ither	-12532
leman	-12533
matic	-12534
uchus	-12535
ucker	-12536
▁1019	-12537
▁1074	-12538
▁1082	-12539
▁1108	-12540
▁1112	-12541
▁1168	-12542
▁1203	-12543
▁1238	-12544
▁1293	-12545
▁1294	-12546
▁1299	-12547
▁1312	-12548
▁1335	-12549
▁1336	-12550
▁1344	-12551
▁1416	-12552
▁1441	-12553
▁1446	-12554
▁2049	-12555
▁5700	-12556
▁6200	-12557
▁affa	-12558
▁anat	-12559
▁bach	-12560
▁bash	-12561
▁bong	-12562
▁copy	-12563
▁cout	-12564
▁dame	-12565
▁emil	-12566
▁fash	-12567
▁fuck	-12568
▁grim	-12569
▁lamb	-12570
▁mith	-12571
▁once	-12572
▁pati	-12573
▁proj	-12574
▁rage	-12575
▁schw	-12576
▁skin	-12577
▁span	-12578
▁spee	-12579
▁alleg	-12580
▁bruno	-12581
▁ching	-12582
▁falls	-12583
▁krist	-12584
▁laser	-12585
▁prada	-12586
▁resid	-12587
▁trail	-12588
▁trick	-12589
▁aqours	-12590
▁assist	-12591
▁barnes	-12592
▁bullet	-12593
▁campus	-12594
▁forces	-12595
▁glados	-12596
▁growth	-12597
▁kindle	-12598
▁kirara	-12599
▁lonely	-12600
▁louise	-12601
▁techno	-12602
▁treaty	-12603
▁twenty	-12604
▁however	-12605
▁jeffrey	-12606
▁kennedy	-12607
▁lisieux	-12608
▁picture	-12609
▁players	-12610
▁shannon	-12611
▁critical	-12612
▁extended	-12613
▁identity	-12614
▁lollipop	-12615
▁opentype	-12616
▁whatsapp	-12617
▁dualshock	-12618
▁blackberry	-12619
▁centroliner	-12620
eo	-12621
gg	-12622
js	-12623
nn	-12624
口瓜	-12625
艹欠	-12626
132	-12627
143	-12628
156	-12629
159	-12630
165	-12631
229	-12632
271	-12633
303	-12634
603	-12635
737	-12636
770	-12637
905	-12638
bia	-12639
bot	-12640
dam	-12641
erd	-12642
ieu	-12643
igi	-12644
lio	-12645
rea	-12646
roe	-12647
say	-12648
udo	-12649
▁jf	-12650
3000	-12651
abil	-12652
ceae	-12653
cycl	-12654
eman	-12655
ened	-12656
gest	-12657
ires	-12658
mine	-12659
mith	-12660
odus	-12661
omen	-12662
till	-12663
ught	-12664
ults	-12665
uman	-12666
uted	-12667
wdie	-12668
▁008	-12669
▁036	-12670
▁085	-12671
▁773	-12672
▁alo	-12673
▁alp	-12674
▁alv	-12675
▁bao	-12676
▁ccr	-12677
▁eat	-12678
▁ech	-12679
▁eve	-12680
▁ffe	-12681
▁fus	-12682
▁gul	-12683
▁hig	-12684
▁icc	-12685
▁iia	-12686
▁jsp	-12687
▁lfa	-12688
▁mai	-12689
▁pcr	-12690
▁pda	-12691
▁ppp	-12692
▁sau	-12693
▁shu	-12694
▁svd	-12695
▁thy	-12696
▁tis	-12697
▁uhf	-12698
▁une	-12699
▁vib	-12700
▁vim	-12701
edded	-12702
illus	-12703
metal	-12704
onomy	-12705
ports	-12706
▁1012	-12707
▁1015	-12708
▁1021	-12709
▁1023	-12710
▁1047	-12711
▁1055	-12712
▁1068	-12713
▁1075	-12714
▁1128	-12715
▁1151	-12716
▁1165	-12717
▁1181	-12718
▁1222	-12719
▁1244	-12720
▁1257	-12721
▁1317	-12722
▁1384	-12723
▁1426	-12724
▁1434	-12725
▁2035	-12726
▁boom	-12727
▁dart	-12728
▁dens	-12729
▁diva	-12730
▁dock	-12731
▁farm	-12732
▁frag	-12733
▁leaf	-12734
▁luna	-12735
▁mans	-12736
▁nana	-12737
▁nerv	-12738
▁pang	-12739
▁purp	-12740
▁rena	-12741
▁rosa	-12742
▁ruth	-12743
▁safe	-12744
▁saun	-12745
▁scor	-12746
▁slow	-12747
▁stre	-12748
▁tube	-12749
▁upon	-12750
▁voip	-12751
▁webs	-12752
▁zico	-12753
ceptor	-12754
kinson	-12755
omatic	-12756
porary	-12757
roller	-12758
▁abbey	-12759
▁brita	-12760
▁chand	-12761
▁corps	-12762
▁elite	-12763
▁julie	-12764
▁liner	-12765
▁mario	-12766
▁miles	-12767
▁navar	-12768
▁plane	-12769
▁plate	-12770
▁porta	-12771
▁quest	-12772
▁rifle	-12773
▁shish	-12774
▁spark	-12775
▁stray	-12776
▁tribe	-12777
▁whole	-12778
ception	-12779
ibility	-12780
therine	-12781
wdiepie	-12782
▁clarke	-12783
▁collec	-12784
▁combat	-12785
▁contem	-12786
▁harvey	-12787
▁lights	-12788
▁liquid	-12789
▁maggie	-12790
▁novell	-12791
▁reason	-12792
▁unesco	-12793
fication	-12794
▁bedford	-12795
▁bennett	-12796
▁defense	-12797
▁desktop	-12798
▁dynamic	-12799
▁fashion	-12800
▁message	-12801
▁musical	-12802
▁olympic	-12803
▁passion	-12804
▁thomson	-12805
▁weather	-12806
▁giuseppe	-12807
▁multiple	-12808
▁catherine	-12809
▁pewdiepie	-12810
▁winchester	-12811
qi	-12812
tf	-12813
口申	-12814
女为	-12815
扌千	-12816
石斤	-12817
竹巴	-12818
衤氏	-12819
007	-12820
009	-12821
144	-12822
145	-12823
184	-12824
211	-12825
402	-12826
409	-12827
459	-12828
465	-12829
505	-12830
atz	-12831
dec	-12832
laf	-12833
mia	-12834
oso	-12835
rip	-12836
tak	-12837
uke	-12838
zin	-12839
▁bx	-12840
▁jh	-12841
▁vg	-12842
丷夫豕	-12843
二厶刂	-12844
acty	-12845
addy	-12846
amer	-12847
ande	-12848
baby	-12849
esty	-12850
hold	-12851
icar	-12852
iper	-12853
ithe	-12854
oche	-12855
olla	-12856
oman	-12857
pass	-12858
stro	-12859
taur	-12860
teen	-12861
tide	-12862
tism	-12863
▁027	-12864
▁064	-12865
▁081	-12866
▁097	-12867
▁aik	-12868
▁bgm	-12869
▁dak	-12870
▁dix	-12871
▁epa	-12872
▁fah	-12873
▁fas	-12874
▁fcc	-12875
▁gat	-12876
▁gut	-12877
▁ida	-12878
▁igg	-12879
▁jub	-12880
▁mei	-12881
▁nos	-12882
▁ont	-12883
▁oth	-12884
▁piz	-12885
▁pyr	-12886
▁sey	-12887
▁sme	-12888
▁sys	-12889
▁til	-12890
▁vga	-12891
▁vix	-12892
人一口刂	-12893
burgh	-12894
graph	-12895
itage	-12896
rical	-12897
where	-12898
▁1003	-12899
▁1052	-12900
▁1057	-12901
▁1163	-12902
▁1166	-12903
▁1301	-12904
▁1316	-12905
▁1323	-12906
▁1343	-12907
▁1353	-12908
▁2047	-12909
▁8859	-12910
▁9500	-12911
▁beij	-12912
▁bian	-12913
▁coop	-12914
▁disp	-12915
▁emma	-12916
▁guil	-12917
▁inno	-12918
▁khal	-12919
▁kung	-12920
▁lily	-12921
▁luck	-12922
▁marg	-12923
▁mbit	-12924
▁mead	-12925
▁ment	-12926
▁nest	-12927
▁niel	-12928
▁ofdm	-12929
▁peng	-12930
▁schl	-12931
▁temu	-12932
▁tone	-12933
▁tram	-12934
▁vick	-12935
anning	-12936
ending	-12937
▁amber	-12938
▁armor	-12939
▁blues	-12940
▁boris	-12941
▁capit	-12942
▁chase	-12943
▁chuck	-12944
▁fresh	-12945
▁guard	-12946
▁horse	-12947
▁kabup	-12948
▁known	-12949
▁manuf	-12950
▁melan	-12951
▁mills	-12952
▁namco	-12953
▁navig	-12954
▁pearl	-12955
▁pilot	-12956
▁yonex	-12957
▁barbus	-12958
▁basket	-12959
▁called	-12960
▁delphi	-12961
▁ferdin	-12962
▁impact	-12963
▁killer	-12964
▁nikola	-12965
▁palais	-12966
▁selina	-12967
▁stella	-12968
▁usenet	-12969
▁volume	-12970
▁warner	-12971
standing	-12972
▁account	-12973
▁borland	-12974
▁britain	-12975
▁carrier	-12976
▁gfriend	-12977
▁ireland	-12978
▁leopard	-12979
▁nicolas	-12980
▁paradox	-12981
▁promise	-12982
▁quantum	-12983
▁russian	-12984
▁schwarz	-12985
▁trouble	-12986
▁whitney	-12987
▁investig	-12988
▁magnetic	-12989
▁mitchell	-12990
▁muhammad	-12991
▁nacional	-12992
▁response	-12993
▁variable	-12994
▁chemistry	-12995
▁executive	-12996
▁extension	-12997
▁orchestra	-12998
▁selection	-12999
▁protection	-13000
▁resistance	-13001
▁metropolitan	-13002
bh	-13003
wb	-13004
yx	-13005
▁豸	-13006
土垂	-13007
攵虫	-13008
方阝	-13009
米白	-13010
纟甘	-13011
罒不	-13012
钅卯	-13013
173	-13014
328	-13015
429	-13016
bet	-13017
bir	-13018
deo	-13019
fic	-13020
gai	-13021
ghz	-13022
hop	-13023
lal	-13024
mac	-13025
nas	-13026
orh	-13027
pto	-13028
raw	-13029
sec	-13030
teo	-13031
uga	-13032
uls	-13033
▁mq	-13034
▁ux	-13035
丿皿卩	-13036
山而页	-13037
ante	-13038
coln	-13039
gang	-13040
itar	-13041
lift	-13042
mont	-13043
mour	-13044
quet	-13045
scha	-13046
tres	-13047
uron	-13048
wire	-13049
▁033	-13050
▁068	-13051
▁078	-13052
▁091	-13053
▁71%	-13054
▁73%	-13055
▁aka	-13056
▁beg	-13057
▁cct	-13058
▁chs	-13059
▁cio	-13060
▁cod	-13061
▁egg	-13062
▁egy	-13063
▁fai	-13064
▁hod	-13065
▁jct	-13066
▁kus	-13067
▁mao	-13068
▁mim	-13069
▁msc	-13070
▁pcm	-13071
▁psl	-13072
▁rss	-13073
▁wak	-13074
▁wim	-13075
▁wrx	-13076
▁zar	-13077
eaker	-13078
essel	-13079
frame	-13080
inois	-13081
istol	-13082
iston	-13083
lette	-13084
mouth	-13085
ornis	-13086
quest	-13087
radar	-13088
tober	-13089
umann	-13090
▁1061	-13091
▁1145	-13092
▁1148	-13093
▁1184	-13094
▁1247	-13095
▁1303	-13096
▁1318	-13097
▁1319	-13098
▁1339	-13099
▁1423	-13100
▁alas	-13101
▁cart	-13102
▁chip	-13103
▁danc	-13104
▁diet	-13105
▁enix	-13106
▁erik	-13107
▁exit	-13108
▁gott	-13109
▁grid	-13110
▁hind	-13111
▁isab	-13112
▁jade	-13113
▁joel	-13114
▁loss	-13115
▁mbps	-13116
▁mips	-13117
▁phra	-13118
▁rear	-13119
▁sanc	-13120
▁sexy	-13121
▁shak	-13122
▁simi	-13123
▁soci	-13124
▁subs	-13125
▁trem	-13126
▁wern	-13127
▁zepp	-13128
bility	-13129
▁algol	-13130
▁algor	-13131
▁atlus	-13132
▁bapti	-13133
▁blanc	-13134
▁carry	-13135
▁crypt	-13136
▁eight	-13137
▁elena	-13138
▁leung	-13139
▁lover	-13140
▁montr	-13141
▁rosen	-13142
▁snapd	-13143
▁wales	-13144
▁wayne	-13145
▁bailey	-13146
▁cheung	-13147
▁cnblue	-13148
▁compos	-13149
▁conver	-13150
▁disord	-13151
▁eugene	-13152
▁father	-13153
▁gustav	-13154
▁herman	-13155
▁linked	-13156
▁magnus	-13157
▁marian	-13158
▁matter	-13159
▁peters	-13160
▁prepar	-13161
▁recogn	-13162
▁schema	-13163
▁twitch	-13164
▁waters	-13165
▁antoine	-13166
▁artists	-13167
▁baptist	-13168
▁bradley	-13169
▁clement	-13170
▁grammar	-13171
▁lincoln	-13172
▁miracle	-13173
▁officer	-13174
▁problem	-13175
▁quality	-13176
▁restaur	-13177
▁success	-13178
▁telecom	-13179
▁acoustic	-13180
▁approach	-13181
▁athletic	-13182
▁baseball	-13183
▁distance	-13184
▁kentucky	-13185
▁mohammad	-13186
▁regiment	-13187
▁relation	-13188
▁kabupaten	-13189
▁melbourne	-13190
▁artsvision	-13191
▁expression	-13192
▁interchange	-13193
▁libreoffice	-13194
▁observatory	-13195
▁championships	-13196
yi	-13197
亻及	-13198
囗コ	-13199
扌甘	-13200
氵为	-13201
臼人	-13202
004	-13203
114	-13204
161	-13205
351	-13206
503	-13207
777	-13208
887	-13209
906	-13210
blr	-13211
elt	-13212
erc	-13213
iam	-13214
isi	-13215
law	-13216
top	-13217
upa	-13218
xis	-13219
zie	-13220
▁oa	-13221
▁ql	-13222
▁vx	-13223
女又手	-13224
彑𧰨土	-13225
爫子阝	-13226
龶夂夫	-13227
athy	-13228
clus	-13229
fied	-13230
horn	-13231
idal	-13232
ieri	-13233
ilon	-13234
lies	-13235
lord	-13236
most	-13237
odor	-13238
phin	-13239
rang	-13240
ssen	-13241
vely	-13242
▁096	-13243
▁61%	-13244
▁aec	-13245
▁agn	-13246
▁amr	-13247
▁apu	-13248
▁coa	-13249
▁ctr	-13250
▁duo	-13251
▁hut	-13252
▁iau	-13253
▁itf	-13254
▁kaz	-13255
▁lig	-13256
▁mtd	-13257
▁muk	-13258
▁nab	-13259
▁neu	-13260
▁rov	-13261
▁tlc	-13262
▁tse	-13263
▁urs	-13264
▁vos	-13265
▁wed	-13266
▁wet	-13267
▁yum	-13268
人一口廾	-13269
尸示寸火	-13270
火火冖糸	-13271
etype	-13272
▁1037	-13273
▁1169	-13274
▁1172	-13275
▁1186	-13276
▁1193	-13277
▁1249	-13278
▁1269	-13279
▁1306	-13280
▁2027	-13281
▁5400	-13282
▁6300	-13283
▁anci	-13284
▁avro	-13285
▁bean	-13286
▁chia	-13287
▁cres	-13288
▁cyan	-13289
▁dana	-13290
▁dhcp	-13291
▁doub	-13292
▁driv	-13293
▁haus	-13294
▁herm	-13295
▁hoff	-13296
▁jumo	-13297
▁maps	-13298
▁metz	-13299
▁mons	-13300
▁omni	-13301
▁opus	-13302
▁pand	-13303
▁resc	-13304
▁shan	-13305
▁thir	-13306
▁till	-13307
▁util	-13308
▁viva	-13309
opedia	-13310
tivity	-13311
▁17000	-13312
▁45000	-13313
▁ahmad	-13314
▁allan	-13315
▁array	-13316
▁bourg	-13317
▁brass	-13318
▁bring	-13319
▁cream	-13320
▁glise	-13321
▁honda	-13322
▁lynch	-13323
▁mausu	-13324
▁neway	-13325
▁nitro	-13326
▁novel	-13327
▁stard	-13328
▁teddy	-13329
▁trent	-13330
▁warri	-13331
▁wells	-13332
▁accord	-13333
▁angels	-13334
▁arcade	-13335
▁editor	-13336
▁edmund	-13337
▁encore	-13338
▁fields	-13339
▁harold	-13340
▁hughes	-13341
▁marvel	-13342
▁monday	-13343
▁paypal	-13344
▁queens	-13345
▁random	-13346
▁rounds	-13347
▁sierra	-13348
▁sophie	-13349
▁sphere	-13350
▁tumblr	-13351
▁alterna	-13352
▁beijing	-13353
▁brandon	-13354
▁contain	-13355
▁enhance	-13356
▁gamespy	-13357
▁gardens	-13358
▁gateway	-13359
▁haskell	-13360
▁indiana	-13361
▁mercury	-13362
▁mystery	-13363
▁october	-13364
▁perform	-13365
▁schmidt	-13366
▁scholar	-13367
▁elements	-13368
▁manufact	-13369
▁property	-13370
▁democracy	-13371
▁including	-13372
▁solutions	-13373
▁democratic	-13374
▁snapdragon	-13375
▁investments	-13376
eb	-13377
fu	-13378
fx	-13379
tb	-13380
vd	-13381
▁囗	-13382
七木	-13383
勹匕	-13384
土更	-13385
广鬼	-13386
扌束	-13387
日巨	-13388
氵内	-13389
礻禺	-13390
米更	-13391
艹及	-13392
讠山	-13393
豕生	-13394
金乙	-13395
门韦	-13396
128	-13397
137	-13398
138	-13399
152	-13400
181	-13401
182	-13402
191	-13403
282	-13404
355	-13405
359	-13406
api	-13407
asy	-13408
bul	-13409
eah	-13410
ept	-13411
flo	-13412
gia	-13413
has	-13414
hev	-13415
lia	-13416
pus	-13417
sts	-13418
ugu	-13419
▁ew	-13420
▁lx	-13421
▁qi	-13422
▁uo	-13423
▁zy	-13424
九朩隹	-13425
人人心	-13426
尢丶彡	-13427
氵七木	-13428
dier	-13429
ican	-13430
icia	-13431
idad	-13432
noon	-13433
ocon	-13434
otes	-13435
otus	-13436
pent	-13437
pool	-13438
rica	-13439
rift	-13440
step	-13441
vich	-13442
waii	-13443
▁74%	-13444
▁ack	-13445
▁als	-13446
▁amg	-13447
▁cms	-13448
▁due	-13449
▁faa	-13450
▁gou	-13451
▁hag	-13452
▁hik	-13453
▁hos	-13454
▁icu	-13455
▁img	-13456
▁ktm	-13457
▁lik	-13458
▁mbs	-13459
▁nxt	-13460
▁och	-13461
▁osi	-13462
▁ota	-13463
▁pep	-13464
▁sbd	-13465
▁sma	-13466
▁tms	-13467
▁uns	-13468
▁xin	-13469
▁xiv	-13470
▁xsl	-13471
▁zea	-13472
aguar	-13473
games	-13474
insky	-13475
ished	-13476
night	-13477
owitz	-13478
style	-13479
uctor	-13480
▁1031	-13481
▁1058	-13482
▁1092	-13483
▁1157	-13484
▁1164	-13485
▁1255	-13486
▁1288	-13487
▁1334	-13488
▁2029	-13489
▁5100	-13490
▁8800	-13491
▁aacs	-13492
▁adsl	-13493
▁ciel	-13494
▁dies	-13495
▁does	-13496
▁dust	-13497
▁fame	-13498
▁fans	-13499
▁gaba	-13500
▁glen	-13501
▁hick	-13502
▁imac	-13503
▁item	-13504
▁madr	-13505
▁mete	-13506
▁mund	-13507
▁ntsc	-13508
▁porn	-13509
▁rece	-13510
▁shor	-13511
▁vari	-13512
kirche	-13513
willer	-13514
▁35000	-13515
▁advis	-13516
▁aster	-13517
▁belle	-13518
▁berke	-13519
▁bible	-13520
▁brack	-13521
▁cache	-13522
▁denis	-13523
▁edgar	-13524
▁lands	-13525
▁legal	-13526
▁meyer	-13527
▁often	-13528
▁phant	-13529
▁rebel	-13530
▁separ	-13531
▁tempo	-13532
▁veloc	-13533
▁wheel	-13534
▁wowow	-13535
▁wrest	-13536
formula	-13537
▁answer	-13538
▁aurora	-13539
▁bandar	-13540
▁calvin	-13541
▁celebr	-13542
▁critic	-13543
▁hearts	-13544
▁jackie	-13545
▁jaguar	-13546
▁jessie	-13547
▁linear	-13548
▁milton	-13549
▁nieder	-13550
▁olivia	-13551
▁parade	-13552
▁presid	-13553
▁sexual	-13554
▁admiral	-13555
▁angeles	-13556
▁burning	-13557
▁economy	-13558
▁fischer	-13559
▁illustr	-13560
▁maurice	-13561
▁replace	-13562
▁rolling	-13563
▁saunier	-13564
▁spirits	-13565
▁academic	-13566
▁junction	-13567
▁networks	-13568
▁register	-13569
▁truetype	-13570
▁commander	-13571
▁happiness	-13572
▁marketing	-13573
▁basketball	-13574
▁enterbrain	-13575
▁industries	-13576
▁innovation	-13577
mt	-13578
pf	-13579
rc	-13580
rp	-13581
tn	-13582
▁丶	-13583
忄里	-13584
耳冉	-13585
舟山	-13586
虫乍	-13587
金且	-13588
金巴	-13589
钅衣	-13590
门一	-13591
155	-13592
172	-13593
209	-13594
254	-13595
257	-13596
304	-13597
353	-13598
666	-13599
aho	-13600
apy	-13601
bak	-13602
gir	-13603
jax	-13604
leb	-13605
lov	-13606
ovo	-13607
qui	-13608
tar	-13609
tid	-13610
tml	-13611
▁fv	-13612
▁pq	-13613
▁vd	-13614
▁zw	-13615
虍几食	-13616
豕豕火	-13617
2010	-13618
ames	-13619
chat	-13620
flex	-13621
hall	-13622
inga	-13623
iong	-13624
lair	-13625
mons	-13626
oter	-13627
tiss	-13628
uced	-13629
umer	-13630
▁029	-13631
▁042	-13632
▁061	-13633
▁075	-13634
▁077	-13635
▁079	-13636
▁087	-13637
▁098	-13638
▁953	-13639
▁aix	-13640
▁ble	-13641
▁cip	-13642
▁fay	-13643
▁fon	-13644
▁inj	-13645
▁ism	-13646
▁jel	-13647
▁jvc	-13648
▁kes	-13649
▁ket	-13650
▁lub	-13651
▁mcd	-13652
▁nez	-13653
▁nie	-13654
▁orb	-13655
▁pes	-13656
▁raz	-13657
▁roo	-13658
▁sai	-13659
▁sdn	-13660
▁seo	-13661
▁sik	-13662
▁ssg	-13663
▁tep	-13664
▁umb	-13665
▁xav	-13666
▁yar	-13667
annad	-13668
antic	-13669
child	-13670
erver	-13671
fried	-13672
iland	-13673
itors	-13674
itzer	-13675
vania	-13676
zione	-13677
▁0000	-13678
▁1009	-13679
▁1088	-13680
▁1171	-13681
▁1173	-13682
▁1209	-13683
▁1459	-13684
▁2036	-13685
▁barn	-13686
▁bran	-13687
▁buzz	-13688
▁corr	-13689
▁dors	-13690
▁duck	-13691
▁fail	-13692
▁gior	-13693
▁gulf	-13694
▁hern	-13695
▁jing	-13696
▁joan	-13697
▁klee	-13698
▁lynn	-13699
▁mant	-13700
▁meas	-13701
▁nist	-13702
▁noah	-13703
▁pool	-13704
▁poor	-13705
▁pter	-13706
▁punk	-13707
▁robb	-13708
▁seat	-13709
▁slip	-13710
▁soon	-13711
▁trim	-13712
▁vivo	-13713
▁wear	-13714
▁yuen	-13715
▁zeit	-13716
▁zion	-13717
cephal	-13718
ements	-13719
minton	-13720
▁adolf	-13721
▁alias	-13722
▁analy	-13723
▁angle	-13724
▁annie	-13725
▁arrow	-13726
▁arsen	-13727
▁bened	-13728
▁bonus	-13729
▁bukit	-13730
▁chaos	-13731
▁chess	-13732
▁clean	-13733
▁deter	-13734
▁false	-13735
▁flick	-13736
▁grade	-13737
▁heath	-13738
▁issue	-13739
▁juice	-13740
▁latin	-13741
▁linda	-13742
▁oasis	-13743
▁radar	-13744
▁revol	-13745
▁sword	-13746
▁taste	-13747
▁teams	-13748
▁those	-13749
▁until	-13750
▁adidas	-13751
▁ashley	-13752
▁atomic	-13753
▁butler	-13754
▁compan	-13755
▁decade	-13756
▁docomo	-13757
▁getchu	-13758
▁holmes	-13759
▁indica	-13760
▁marion	-13761
▁marsan	-13762
▁nicola	-13763
▁played	-13764
▁psycho	-13765
▁rabbit	-13766
▁reform	-13767
▁roland	-13768
▁symmet	-13769
▁teredo	-13770
▁verdun	-13771
▁vorbis	-13772
▁holland	-13773
▁reserve	-13774
▁several	-13775
▁stevens	-13776
▁tiffany	-13777
▁berkeley	-13778
▁shishamo	-13779
▁alexandra	-13780
▁babymetal	-13781
▁coutances	-13782
▁economics	-13783
▁ferdinand	-13784
▁languages	-13785
▁materials	-13786
▁worldwide	-13787
▁soundtrack	-13788
fp	-13789
kr	-13790
⿷⿺	-13791
亻丁	-13792
八方	-13793
口甲	-13794
广心	-13795
日电	-13796
礻石	-13797
辶刀	-13798
钅女	-13799
186	-13800
344	-13801
404	-13802
407	-13803
416	-13804
606	-13805
bed	-13806
dha	-13807
hpa	-13808
iad	-13809
izz	-13810
kor	-13811
lib	-13812
ocl	-13813
qua	-13814
syl	-13815
thy	-13816
tir	-13817
uca	-13818
yal	-13819
▁hj	-13820
▁nz	-13821
▁wg	-13822
▁zk	-13823
匕火頁	-13824
夂卜日	-13825
白匕卩	-13826
arez	-13827
atum	-13828
boot	-13829
cont	-13830
enau	-13831
enez	-13832
enko	-13833
erno	-13834
iste	-13835
lake	-13836
mart	-13837
mill	-13838
olds	-13839
ores	-13840
phia	-13841
rail	-13842
reza	-13843
thor	-13844
tial	-13845
tivo	-13846
uche	-13847
umin	-13848
unce	-13849
▁023	-13850
▁031	-13851
▁asa	-13852
▁atf	-13853
▁atl	-13854
▁buy	-13855
▁chn	-13856
▁cmg	-13857
▁cts	-13858
▁cyn	-13859
▁dax	-13860
▁dit	-13861
▁dmc	-13862
▁ego	-13863
▁etf	-13864
▁gai	-13865
▁gea	-13866
▁gee	-13867
▁gnz	-13868
▁gum	-13869
▁haz	-13870
▁ina	-13871
▁ley	-13872
▁osp	-13873
▁pah	-13874
▁rhe	-13875
▁rng	-13876
▁roe	-13877
▁rox	-13878
▁shr	-13879
▁tav	-13880
▁tiz	-13881
▁yas	-13882
▁yet	-13883
▁zap	-13884
▁zer	-13885
▁zoo	-13886
丿𠃌攵金	-13887
ellar	-13888
ighty	-13889
ilion	-13890
lican	-13891
mania	-13892
ogram	-13893
oplan	-13894
otten	-13895
tidae	-13896
tranz	-13897
▁1022	-13898
▁1029	-13899
▁1043	-13900
▁1117	-13901
▁1313	-13902
▁1361	-13903
▁1489	-13904
▁2060	-13905
▁4900	-13906
▁5900	-13907
▁6700	-13908
▁9001	-13909
▁abcd	-13910
▁alma	-13911
▁apol	-13912
▁apps	-13913
▁barr	-13914
▁bath	-13915
▁bras	-13916
▁bron	-13917
▁cala	-13918
▁casp	-13919
▁chau	-13920
▁cola	-13921
▁dece	-13922
▁feed	-13923
▁fiba	-13924
▁folk	-13925
▁gprs	-13926
▁kane	-13927
▁male	-13928
▁mana	-13929
▁mast	-13930
▁mits	-13931
▁pale	-13932
▁pard	-13933
▁pete	-13934
▁pica	-13935
▁poet	-13936
▁poli	-13937
▁pula	-13938
▁rome	-13939
▁rust	-13940
▁sull	-13941
▁umts	-13942
▁vega	-13943
冂二月犬鬼	-13944
ousand	-13945
strong	-13946
▁above	-13947
▁absol	-13948
▁along	-13949
▁besan	-13950
▁briga	-13951
▁bryan	-13952
▁bulld	-13953
▁catch	-13954
▁caval	-13955
▁cctld	-13956
▁click	-13957
▁coach	-13958
▁colum	-13959
▁derby	-13960
▁destr	-13961
▁fairy	-13962
▁imper	-13963
▁lines	-13964
▁loren	-13965
▁merce	-13966
▁natal	-13967
▁paras	-13968
▁pluto	-13969
▁pyram	-13970
▁quake	-13971
▁ratio	-13972
▁santo	-13973
▁swiss	-13974
▁traff	-13975
▁treat	-13976
▁accept	-13977
▁became	-13978
▁chapel	-13979
▁config	-13980
▁defini	-13981
▁eccles	-13982
▁examin	-13983
▁icloud	-13984
▁israel	-13985
▁italia	-13986
▁julius	-13987
▁kaiser	-13988
▁labour	-13989
▁lauren	-13990
▁magnum	-13991
▁manual	-13992
▁rescue	-13993
▁sandra	-13994
▁travis	-13995
cription	-13996
▁adtranz	-13997
▁ancient	-13998
▁clannad	-13999
▁endless	-14000
▁gamepro	-14001
▁impreza	-14002
▁leopold	-14003
▁macross	-14004
▁mamamoo	-14005
▁related	-14006
▁respons	-14007
▁algorith	-14008
▁baptiste	-14009
▁carolina	-14010
▁governor	-14011
▁graduate	-14012
▁memories	-14013
▁position	-14014
▁scottish	-14015
▁sequence	-14016
▁symphony	-14017
▁thousand	-14018
▁badminton	-14019
▁classical	-14020
▁recording	-14021
▁competition	-14022
fd	-14023
oz	-14024
tu	-14025
亠臼	-14026
匕示	-14027
土广	-14028
女比	-14029
木日	-14030
水皿	-14031
立束	-14032
153	-14033
249	-14034
263	-14035
295	-14036
352	-14037
356	-14038
358	-14039
362	-14040
365	-14041
502	-14042
anz	-14043
bba	-14044
ceu	-14045
eae	-14046
emo	-14047
iry	-14048
kie	-14049
kos	-14050
run	-14051
uni	-14052
wei	-14053
▁jg	-14054
▁jl	-14055
▁kf	-14056
▁rz	-14057
▁zd	-14058
▁zz	-14059
亠臼𧘇	-14060
几木刂	-14061
宀八兆	-14062
扌斤虫	-14063
日巨火	-14064
田田糸	-14065
ains	-14066
bern	-14067
camp	-14068
colm	-14069
ento	-14070
four	-14071
ibus	-14072
icht	-14073
ismo	-14074
lang	-14075
name	-14076
ound	-14077
pret	-14078
quar	-14079
ungs	-14080
uter	-14081
wara	-14082
word	-14083
▁038	-14084
▁086	-14085
▁aau	-14086
▁adp	-14087
▁afp	-14088
▁aph	-14089
▁bid	-14090
▁cfa	-14091
▁cid	-14092
▁cim	-14093
▁coo	-14094
▁ddt	-14095
▁dop	-14096
▁evo	-14097
▁fuj	-14098
▁git	-14099
▁gne	-14100
▁goa	-14101
▁hoy	-14102
▁ldl	-14103
▁lez	-14104
▁lms	-14105
▁lsd	-14106
▁mdr	-14107
▁miz	-14108
▁mtu	-14109
▁nia	-14110
▁nil	-14111
▁ord	-14112
▁pou	-14113
▁psc	-14114
▁sag	-14115
▁ses	-14116
▁tia	-14117
▁tie	-14118
▁tox	-14119
▁tpp	-14120
▁tus	-14121
▁yau	-14122
丿𠃌攵犬	-14123
工口寸阝	-14124
𠂊田一巴	-14125
chaft	-14126
drive	-14127
enses	-14128
illed	-14129
platz	-14130
stown	-14131
ulata	-14132
▁1038	-14133
▁1079	-14134
▁1223	-14135
▁2032	-14136
▁7700	-14137
▁alth	-14138
▁beng	-14139
▁came	-14140
▁chim	-14141
▁chop	-14142
▁craw	-14143
▁eeee	-14144
▁evil	-14145
▁finn	-14146
▁gill	-14147
▁glay	-14148
▁goal	-14149
▁hess	-14150
▁iast	-14151
▁kans	-14152
▁kwok	-14153
▁lamp	-14154
▁lenn	-14155
▁leuc	-14156
▁loen	-14157
▁lpga	-14158
▁mara	-14159
▁milk	-14160
▁mood	-14161
▁mosa	-14162
▁pant	-14163
▁pong	-14164
▁pony	-14165
▁sass	-14166
▁sold	-14167
▁stef	-14168
▁tiny	-14169
▁vamp	-14170
▁wait	-14171
ellite	-14172
rative	-14173
saurus	-14174
uments	-14175
▁aleks	-14176
▁among	-14177
▁below	-14178
▁brent	-14179
▁chong	-14180
▁cliff	-14181
▁colla	-14182
▁coron	-14183
▁crane	-14184
▁cycle	-14185
▁diana	-14186
▁dutch	-14187
▁eidos	-14188
▁exist	-14189
▁forms	-14190
▁frost	-14191
▁gecko	-14192
▁hanna	-14193
▁heinz	-14194
▁naval	-14195
▁ninja	-14196
▁pages	-14197
▁patch	-14198
▁proto	-14199
▁seine	-14200
▁shark	-14201
▁silva	-14202
▁sparc	-14203
▁speak	-14204
▁spice	-14205
▁stree	-14206
▁sunny	-14207
▁thorn	-14208
▁vreux	-14209
▁woods	-14210
embourg	-14211
utenant	-14212
▁bandai	-14213
▁berger	-14214
▁davies	-14215
▁duncan	-14216
▁eeeeee	-14217
▁encycl	-14218
▁events	-14219
▁frankf	-14220
▁gibson	-14221
▁kather	-14222
▁legion	-14223
▁leslie	-14224
▁movies	-14225
▁panzer	-14226
▁patric	-14227
▁pepper	-14228
▁pharma	-14229
▁screen	-14230
▁silent	-14231
▁sungai	-14232
▁webkit	-14233
ographic	-14234
▁alberto	-14235
▁allstar	-14236
▁brigade	-14237
▁convers	-14238
▁dancing	-14239
▁deliver	-14240
▁holiday	-14241
▁madonna	-14242
▁malcolm	-14243
▁maxwell	-14244
▁optical	-14245
▁phantom	-14246
▁quarter	-14247
▁roberto	-14248
▁similar	-14249
▁verizon	-14250
▁caroline	-14251
▁chaumont	-14252
▁madhouse	-14253
▁practice	-14254
▁treasure	-14255
▁vladimir	-14256
▁afternoon	-14257
▁beginning	-14258
▁butterfly	-14259
▁philosoph	-14260
▁sebastian	-14261
▁historical	-14262
▁lieutenant	-14263
▁restaurant	-14264
▁introduction	-14265
hg	-14266
jd	-14267
⿳⿶	-14268
尢王	-14269
干阝	-14270
犭广	-14271
犭甲	-14272
石朱	-14273
罒衣	-14274
酉丁	-14275
金卜	-14276
金彡	-14277
𠂉斤	-14278
149	-14279
163	-14280
164	-14281
178	-14282
194	-14283
196	-14284
218	-14285
265	-14286
327	-14287
332	-14288
354	-14289
368	-14290
458	-14291
460	-14292
886	-14293
anu	-14294
aps	-14295
ela	-14296
ibu	-14297
jay	-14298
jer	-14299
opf	-14300
rai	-14301
tiz	-14302
▁pz	-14303
丶艮阝	-14304
人彡食	-14305
匕示頁	-14306
山而頁	-14307
羊乚厶	-14308
𠁣𠃛言	-14309
aged	-14310
aran	-14311
asse	-14312
bold	-14313
bolt	-14314
chem	-14315
cott	-14316
eady	-14317
edit	-14318
endi	-14319
este	-14320
etal	-14321
fect	-14322
game	-14323
gres	-14324
ipro	-14325
itia	-14326
main	-14327
tale	-14328
uler	-14329
unge	-14330
▁026	-14331
▁044	-14332
▁049	-14333
▁055	-14334
▁082	-14335
▁59%	-14336
▁ama	-14337
▁crc	-14338
▁crj	-14339
▁crt	-14340
▁csf	-14341
▁csp	-14342
▁dry	-14343
▁dvi	-14344
▁efi	-14345
▁els	-14346
▁gru	-14347
▁gta	-14348
▁hbl	-14349
▁hes	-14350
▁kpl	-14351
▁kry	-14352
▁moa	-14353
▁nou	-14354
▁opc	-14355
▁pha	-14356
▁pps	-14357
▁rae	-14358
▁rho	-14359
▁siv	-14360
▁snp	-14361
▁ssa	-14362
▁sty	-14363
▁tik	-14364
▁tna	-14365
▁unr	-14366
▁wad	-14367
▁wis	-14368
▁xxi	-14369
▁yen	-14370
𠂊田一方	-14371
aceae	-14372
break	-14373
canth	-14374
endar	-14375
ethyl	-14376
ianus	-14377
icien	-14378
illac	-14379
known	-14380
olate	-14381
ordin	-14382
ppers	-14383
recht	-14384
times	-14385
tista	-14386
ulate	-14387
▁1007	-14388
▁1089	-14389
▁1098	-14390
▁1105	-14391
▁1149	-14392
▁1178	-14393
▁1245	-14394
▁1298	-14395
▁1304	-14396
▁1458	-14397
▁2150	-14398
▁2160	-14399
▁3001	-14400
▁4100	-14401
▁adel	-14402
▁aria	-14403
▁bard	-14404
▁blow	-14405
▁byte	-14406
▁caps	-14407
▁coal	-14408
▁cron	-14409
▁dior	-14410
▁evol	-14411
▁febr	-14412
▁fork	-14413
▁foss	-14414
▁guer	-14415
▁hock	-14416
▁lala	-14417
▁laws	-14418
▁loud	-14419
▁maha	-14420
▁maya	-14421
▁mina	-14422
▁nipp	-14423
▁oste	-14424
▁ride	-14425
▁risk	-14426
▁siri	-14427
▁spen	-14428
▁sync	-14429
▁teng	-14430
▁thai	-14431
▁uefa	-14432
▁uniq	-14433
▁verb	-14434
▁wwdc	-14435
ctions	-14436
schaft	-14437
▁apost	-14438
▁bunny	-14439
▁burns	-14440
▁carca	-14441
▁chair	-14442
▁conca	-14443
▁costa	-14444
▁cours	-14445
▁dress	-14446
▁files	-14447
▁grass	-14448
▁heter	-14449
▁inner	-14450
▁irene	-14451
▁jenny	-14452
▁jewel	-14453
▁joyce	-14454
▁lives	-14455
▁loire	-14456
▁loves	-14457
▁mccar	-14458
▁orbit	-14459
▁ouest	-14460
▁panor	-14461
▁phila	-14462
▁randy	-14463
▁reach	-14464
▁rocky	-14465
▁sheph	-14466
▁shuff	-14467
▁snake	-14468
▁strat	-14469
▁trium	-14470
isation	-14471
▁condom	-14472
▁create	-14473
▁darwin	-14474
▁formos	-14475
▁foster	-14476
▁fourth	-14477
▁gemini	-14478
▁gloria	-14479
▁heroes	-14480
▁leader	-14481
▁levels	-14482
▁meteor	-14483
▁methyl	-14484
▁mosfet	-14485
▁mosque	-14486
▁native	-14487
▁patrol	-14488
▁porter	-14489
▁resort	-14490
▁salins	-14491
▁speech	-14492
▁supers	-14493
▁triang	-14494
▁airways	-14495
▁cameron	-14496
▁charter	-14497
▁consult	-14498
▁defence	-14499
▁emperor	-14500
▁eternal	-14501
▁fellows	-14502
▁harbour	-14503
▁physics	-14504
▁regular	-14505
▁richter	-14506
▁stories	-14507
▁wallace	-14508
▁woollim	-14509
▁zealand	-14510
▁deadline	-14511
▁illinois	-14512
▁illusion	-14513
▁institut	-14514
▁location	-14515
▁mohammed	-14516
▁question	-14517
▁receptor	-14518
▁relative	-14519
▁workshop	-14520
▁adventure	-14521
▁insurance	-14522
▁molecular	-14523
▁nationale	-14524
▁programme	-14525
▁angelababy	-14526
▁controller	-14527
▁gamesradar	-14528
▁richardson	-14529
▁continental	-14530
qa	-14531
▁缶	-14532
口刀	-14533
山来	-14534
廿尺	-14535
扌专	-14536
氵比	-14537
王干	-14538
禺页	-14539
酉皿	-14540
171	-14541
193	-14542
225	-14543
357	-14544
378	-14545
406	-14546
492	-14547
497	-14548
806	-14549
807	-14550
855	-14551
aly	-14552
chs	-14553
gpp	-14554
jam	-14555
kal	-14556
oor	-14557
pet	-14558
pps	-14559
raf	-14560
tai	-14561
wak	-14562
ynn	-14563
▁cq	-14564
▁fy	-14565
▁gq	-14566
▁gx	-14567
▁hw	-14568
▁jy	-14569
▁xr	-14570
▁ym	-14571
▁ys	-14572
▁zg	-14573
冫隹十	-14574
士口力	-14575
夫丷阝	-14576
彐水皿	-14577
日女阝	-14578
白匕旡	-14579
aldo	-14580
apur	-14581
baum	-14582
bine	-14583
bles	-14584
emon	-14585
gbps	-14586
iani	-14587
icum	-14588
iros	-14589
mani	-14590
mans	-14591
omys	-14592
quel	-14593
rain	-14594
rico	-14595
ride	-14596
stan	-14597
uala	-14598
ulin	-14599
ylon	-14600
▁047	-14601
▁059	-14602
▁062	-14603
▁blg	-14604
▁cus	-14605
▁dhl	-14606
▁dma	-14607
▁dul	-14608
▁ecu	-14609
▁eia	-14610
▁esa	-14611
▁fug	-14612
▁gce	-14613
▁gmt	-14614
▁gos	-14615
▁hst	-14616
▁ims	-14617
▁ini	-14618
▁ipc	-14619
▁kev	-14620
▁kro	-14621
▁ktx	-14622
▁kub	-14623
▁lal	-14624
▁lom	-14625
▁meh	-14626
▁nee	-14627
▁osm	-14628
▁pts	-14629
▁qew	-14630
▁rag	-14631
▁rit	-14632
▁rmb	-14633
▁roh	-14634
▁ryo	-14635
▁sek	-14636
▁sio	-14637
▁sms	-14638
▁src	-14639
▁tft	-14640
▁tup	-14641
▁vad	-14642
▁zig	-14643
▁zum	-14644
▁⿱⿴⿰	-14645
凵丨月木	-14646
凵丨王攵	-14647
annes	-14648
archy	-14649
cence	-14650
centr	-14651
elius	-14652
essee	-14653
gency	-14654
hardt	-14655
iling	-14656
iques	-14657
izing	-14658
liffe	-14659
orean	-14660
video	-14661
▁1091	-14662
▁1237	-14663
▁1338	-14664
▁6100	-14665
▁7300	-14666
▁8300	-14667
▁amph	-14668
▁anno	-14669
▁auch	-14670
▁axis	-14671
▁bala	-14672
▁boyz	-14673
▁chno	-14674
▁crew	-14675
▁degr	-14676
▁door	-14677
▁eden	-14678
▁eure	-14679
▁foun	-14680
▁gand	-14681
▁golf	-14682
▁hawk	-14683
▁henn	-14684
▁hers	-14685
▁kell	-14686
▁koch	-14687
▁koda	-14688
▁mare	-14689
▁mash	-14690
▁nate	-14691
▁nega	-14692
▁ohio	-14693
▁rene	-14694
▁reyn	-14695
▁rico	-14696
▁scsi	-14697
▁sell	-14698
▁simp	-14699
▁sinc	-14700
▁slam	-14701
▁trap	-14702
▁unif	-14703
▁vend	-14704
▁xeon	-14705
ometer	-14706
schule	-14707
system	-14708
weiler	-14709
▁60000	-14710
▁accel	-14711
▁agric	-14712
▁aless	-14713
▁artif	-14714
▁atrac	-14715
▁blake	-14716
▁crick	-14717
▁daisy	-14718
▁decla	-14719
▁diane	-14720
▁dirty	-14721
▁equal	-14722
▁foods	-14723
▁hands	-14724
▁kreis	-14725
▁logan	-14726
▁mirna	-14727
▁morph	-14728
▁mouse	-14729
▁natur	-14730
▁perak	-14731
▁rules	-14732
▁saman	-14733
▁satur	-14734
▁spike	-14735
▁tears	-14736
▁voith	-14737
▁witch	-14738
▁across	-14739
▁become	-14740
▁bomber	-14741
▁canyon	-14742
▁capcom	-14743
▁chakra	-14744
▁client	-14745
▁concep	-14746
▁connor	-14747
▁demand	-14748
▁esther	-14749
▁falcon	-14750
▁lancer	-14751
▁length	-14752
▁luther	-14753
▁monica	-14754
▁mosaic	-14755
▁murphy	-14756
▁nissan	-14757
▁patter	-14758
▁santos	-14759
▁status	-14760
▁string	-14761
▁summit	-14762
▁tennis	-14763
sylvania	-14764
▁auguste	-14765
▁capitol	-14766
▁concern	-14767
▁dynasty	-14768
▁jupiter	-14769
▁mohamed	-14770
▁numbers	-14771
▁package	-14772
▁pierrot	-14773
▁simpson	-14774
▁spencer	-14775
▁traffic	-14776
▁trident	-14777
transport	-14778
▁chemical	-14779
▁fighting	-14780
▁heritage	-14781
▁mapframe	-14782
▁michigan	-14783
▁pavilion	-14784
▁polytech	-14785
▁strategy	-14786
▁velocity	-14787
▁armstrong	-14788
▁computing	-14789
▁jefferson	-14790
▁katherine	-14791
▁powerbook	-14792
▁relations	-14793
▁resources	-14794
▁wordpress	-14795
▁philosophy	-14796
▁pennsylvania	-14797
bm	-14798
ep	-14799
hm	-14800
wu	-14801
乡食	-14802
井丶	-14803
囗寸	-14804
彳且	-14805
忄中	-14806
旡灬	-14807
日𠃓	-14808
禾果	-14809
豆工	-14810
钅方	-14811
158	-14812
224	-14813
326	-14814
341	-14815
456	-14816
775	-14817
802	-14818
888	-14819
cmg	-14820
ean	-14821
esi	-14822
eye	-14823
fol	-14824
fon	-14825
iya	-14826
map	-14827
otr	-14828
shi	-14829
sto	-14830
tau	-14831
▁bv	-14832
▁dq	-14833
▁eo	-14834
▁jm	-14835
▁kz	-14836
▁wl	-14837
▁yb	-14838
㡀攵目	-14839
尹口頁	-14840
扌丸虫	-14841
艹冖土	-14842
1200	-14843
1300	-14844
1897	-14845
alli	-14846
angu	-14847
anto	-14848
atsu	-14849
cens	-14850
etto	-14851
iman	-14852
inan	-14853
iour	-14854
ippi	-14855
isla	-14856
isto	-14857
iton	-14858
itri	-14859
mune	-14860
osed	-14861
rium	-14862
show	-14863
tree	-14864
vana	-14865
wise	-14866
▁028	-14867
▁073	-14868
▁084	-14869
▁089	-14870
▁092	-14871
▁76%	-14872
▁abi	-14873
▁aol	-14874
▁apt	-14875
▁bic	-14876
▁biz	-14877
▁chh	-14878
▁cns	-14879
▁cpr	-14880
▁dao	-14881
▁ecm	-14882
▁fdg	-14883
▁gev	-14884
▁gha	-14885
▁gpa	-14886
▁jia	-14887
▁kud	-14888
▁kut	-14889
▁laf	-14890
▁lak	-14891
▁lop	-14892
▁mbk	-14893
▁mex	-14894
▁mhc	-14895
▁mma	-14896
▁nio	-14897
▁phy	-14898
▁ppt	-14899
▁qui	-14900
▁sah	-14901
▁ska	-14902
▁tad	-14903
▁tao	-14904
▁tod	-14905
▁tud	-14906
▁usc	-14907
▁voy	-14908
▁wcg	-14909
凵㐅八夂	-14910
allow	-14911
arten	-14912
count	-14913
eness	-14914
ibada	-14915
ignan	-14916
nagar	-14917
power	-14918
tress	-14919
▁1084	-14920
▁1197	-14921
▁1201	-14922
▁2048	-14923
▁8100	-14924
▁acqu	-14925
▁aids	-14926
▁allo	-14927
▁alta	-14928
▁aval	-14929
▁boat	-14930
▁ches	-14931
▁dans	-14932
▁deca	-14933
▁ding	-14934
▁drag	-14935
▁fang	-14936
▁flav	-14937
▁forg	-14938
▁fras	-14939
▁guns	-14940
▁hebe	-14941
▁heil	-14942
▁hiro	-14943
▁hyde	-14944
▁init	-14945
▁lara	-14946
▁lens	-14947
▁lept	-14948
▁lith	-14949
▁mask	-14950
▁nero	-14951
▁nguy	-14952
▁nyse	-14953
▁polo	-14954
▁puma	-14955
▁raph	-14956
▁sage	-14957
▁situ	-14958
▁snap	-14959
▁thin	-14960
▁vand	-14961
▁ware	-14962
▁wein	-14963
▁whee	-14964
▁wick	-14965
▁yuki	-14966
▁zeta	-14967
hausen	-14968
▁10646	-14969
▁amuse	-14970
▁casey	-14971
▁chrys	-14972
▁compi	-14973
▁crime	-14974
▁exhib	-14975
▁floyd	-14976
▁gates	-14977
▁grove	-14978
▁guang	-14979
▁hydra	-14980
▁input	-14981
▁jamie	-14982
▁janet	-14983
▁kitch	-14984
▁lemon	-14985
▁liver	-14986
▁meego	-14987
▁merry	-14988
▁named	-14989
▁publi	-14990
▁santi	-14991
▁seoul	-14992
▁shirt	-14993
▁straw	-14994
▁toshi	-14995
▁verge	-14996
▁weiss	-14997
issance	-14998
▁archae	-14999
▁baobab	-15000
▁boston	-15001
▁cancer	-15002
▁cobras	-15003
▁establ	-15004
▁fergus	-15005
▁genius	-15006
▁height	-15007
▁infant	-15008
▁konami	-15009
▁marina	-15010
▁murder	-15011
▁purple	-15012
▁rafael	-15013
▁reader	-15014
▁remain	-15015
▁scream	-15016
▁singer	-15017
▁sister	-15018
▁smooth	-15019
▁sounds	-15020
▁takara	-15021
▁talent	-15022
▁terror	-15023
▁thread	-15024
▁toyota	-15025
▁ultras	-15026
▁werner	-15027
▁wizard	-15028
▁xavier	-15029
▁zimmer	-15030
▁anthrop	-15031
▁assault	-15032
▁average	-15033
▁balance	-15034
▁browser	-15035
▁celeron	-15036
▁contact	-15037
▁effects	-15038
▁flowers	-15039
▁greater	-15040
▁houston	-15041
▁killing	-15042
▁mapping	-15043
▁missing	-15044
▁pearson	-15045
▁shuffle	-15046
▁springs	-15047
▁theorem	-15048
▁trading	-15049
▁warning	-15050
▁wolfram	-15051
▁agricult	-15052
▁creation	-15053
▁embedded	-15054
▁geoffrey	-15055
▁imperial	-15056
▁ministry	-15057
▁morrison	-15058
▁patricia	-15059
▁religion	-15060
▁soribada	-15061
▁sullivan	-15062
▁component	-15063
▁direction	-15064
▁elisabeth	-15065
▁indonesia	-15066
▁september	-15067
▁strategic	-15068
▁superstar	-15069
▁tennessee	-15070
▁alexandria	-15071
▁continuous	-15072
▁population	-15073
▁alternative	-15074
▁certificate	-15075
▁mathematics	-15076
▁thunderbird	-15077
▁constitution	-15078
▁contemporary	-15079
▁transportation	-15080
aj	-15081
fh	-15082
nc	-15083
yy	-15084
一𧰨	-15085
中皿	-15086
亻求	-15087
亻王	-15088
月果	-15089
木亚	-15090
石乍	-15091
金我	-15092
钅彡	-15093
鬼隹	-15094
210	-15095
363	-15096
455	-15097
667	-15098
774	-15099
862	-15100
asv	-15101
avi	-15102
bek	-15103
dan	-15104
emu	-15105
enf	-15106
ffy	-15107
fix	-15108
gom	-15109
mpa	-15110
mul	-15111
naz	-15112
osc	-15113
osi	-15114
tax	-15115
two	-15116
uxe	-15117
vol	-15118
▁lq	-15119
▁xo	-15120
▁yh	-15121
▁zr	-15122
一内阝	-15123
人人冖	-15124
口人刂	-15125
士冖车	-15126
艹冖金	-15127
1903	-15128
2011	-15129
alus	-15130
amax	-15131
amps	-15132
arum	-15133
away	-15134
comm	-15135
ener	-15136
eric	-15137
fter	-15138
imon	-15139
inct	-15140
isen	-15141
kbps	-15142
lean	-15143
ocks	-15144
oday	-15145
ogon	-15146
oles	-15147
omat	-15148
opal	-15149
opia	-15150
rack	-15151
rete	-15152
ucks	-15153
ydro	-15154
ynos	-15155
▁034	-15156
▁041	-15157
▁083	-15158
▁abe	-15159
▁ags	-15160
▁ani	-15161
▁arx	-15162
▁bej	-15163
▁bsp	-15164
▁dai	-15165
▁dil	-15166
▁dmm	-15167
▁dow	-15168
▁dsl	-15169
▁dud	-15170
▁eas	-15171
▁edm	-15172
▁eds	-15173
▁ere	-15174
▁eti	-15175
▁gel	-15176
▁gib	-15177
▁gob	-15178
▁hew	-15179
▁hof	-15180
▁hui	-15181
▁ibf	-15182
▁ifa	-15183
▁ifc	-15184
▁isi	-15185
▁jkt	-15186
▁job	-15187
▁kow	-15188
▁lep	-15189
▁ltp	-15190
▁lup	-15191
▁lus	-15192
▁mlt	-15193
▁msm	-15194
▁mts	-15195
▁naz	-15196
▁omn	-15197
▁ong	-15198
▁ore	-15199
▁orn	-15200
▁pcb	-15201
▁pka	-15202
▁rts	-15203
▁scb	-15204
▁vac	-15205
▁vig	-15206
▁viz	-15207
▁wai	-15208
▁wpa	-15209
▁xyz	-15210
amina	-15211
antin	-15212
gaard	-15213
ticus	-15214
train	-15215
unter	-15216
werty	-15217
▁1062	-15218
▁1243	-15219
▁1305	-15220
▁2758	-15221
▁8200	-15222
▁8600	-15223
▁abba	-15224
▁aclu	-15225
▁ango	-15226
▁aqua	-15227
▁awar	-15228
▁benz	-15229
▁casa	-15230
▁clou	-15231
▁coel	-15232
▁esca	-15233
▁fold	-15234
▁herr	-15235
▁hors	-15236
▁hsbc	-15237
▁iter	-15238
▁maki	-15239
▁mell	-15240
▁miui	-15241
▁mora	-15242
▁musa	-15243
▁nadp	-15244
▁nash	-15245
▁navy	-15246
▁nept	-15247
▁omar	-15248
▁papa	-15249
▁pope	-15250
▁rare	-15251
▁reef	-15252
▁role	-15253
▁saml	-15254
▁seam	-15255
▁seng	-15256
▁seth	-15257
▁sogo	-15258
▁sohr	-15259
▁spex	-15260
▁tape	-15261
▁thur	-15262
▁viol	-15263
▁void	-15264
▁yoko	-15265
▁yong	-15266
▁yuri	-15267
▁zach	-15268
▁zoom	-15269
厶厶一日戈	-15270
estone	-15271
idence	-15272
master	-15273
▁argon	-15274
▁babel	-15275
▁banks	-15276
▁betty	-15277
▁botan	-15278
▁brock	-15279
▁claud	-15280
▁comet	-15281
▁crack	-15282
▁equip	-15283
▁favor	-15284
▁feder	-15285
▁ferry	-15286
▁given	-15287
▁globe	-15288
▁greek	-15289
▁hamas	-15290
▁levin	-15291
▁marce	-15292
▁means	-15293
▁milla	-15294
▁mtdna	-15295
▁pasha	-15296
▁petro	-15297
▁quint	-15298
▁retro	-15299
▁ricky	-15300
▁rider	-15301
▁rural	-15302
▁shake	-15303
▁split	-15304
▁takes	-15305
▁tesla	-15306
▁tibet	-15307
▁tools	-15308
▁trich	-15309
▁vital	-15310
▁wendy	-15311
▁carmen	-15312
▁custom	-15313
▁cyclol	-15314
▁escape	-15315
▁expect	-15316
▁female	-15317
▁flickr	-15318
▁former	-15319
▁geomet	-15320
▁irving	-15321
▁kepler	-15322
▁kernel	-15323
▁lovers	-15324
▁loving	-15325
▁matlab	-15326
▁minute	-15327
▁morton	-15328
▁myself	-15329
▁nights	-15330
▁perche	-15331
▁pietro	-15332
▁qwerty	-15333
▁remote	-15334
▁rivers	-15335
▁tarbes	-15336
▁values	-15337
▁zetima	-15338
ulations	-15339
▁associa	-15340
▁bristol	-15341
▁chester	-15342
▁christi	-15343
▁formosa	-15344
▁griffin	-15345
▁harvest	-15346
▁holding	-15347
▁imaging	-15348
▁laurent	-15349
▁lorenzo	-15350
▁servlet	-15351
▁shadows	-15352
▁triumph	-15353
▁variety	-15354
▁wonders	-15355
ellschaft	-15356
▁audition	-15357
▁broadway	-15358
▁chambers	-15359
▁chandler	-15360
▁colorado	-15361
▁consider	-15362
▁download	-15363
▁emmanuel	-15364
▁historic	-15365
▁interest	-15366
▁mercedes	-15367
▁postgres	-15368
▁problems	-15369
▁resource	-15370
▁wolfgang	-15371
▁alexandre	-15372
▁automatic	-15373
▁emergency	-15374
▁mediawiki	-15375
▁integrated	-15376
▁leadership	-15377
▁liberation	-15378
▁multimedia	-15379
▁scientific	-15380
dx	-15381
lb	-15382
pb	-15383
vp	-15384
vr	-15385
xp	-15386
口乍	-15387
山卯	-15388
广厶	-15389
户衣	-15390
氵央	-15391
田攵	-15392
礻兆	-15393
金夫	-15394
隹隹	-15395
𠂉毛	-15396
169	-15397
177	-15398
237	-15399
243	-15400
251	-15401
256	-15402
259	-15403
272	-15404
279	-15405
280	-15406
329	-15407
338	-15408
373	-15409
398	-15410
403	-15411
408	-15412
462	-15413
665	-15414
852	-15415
857	-15416
858	-15417
864	-15418
agi	-15419
ams	-15420
asp	-15421
bec	-15422
erk	-15423
fil	-15424
kom	-15425
liz	-15426
tap	-15427
tec	-15428
tel	-15429
umm	-15430
vic	-15431
xin	-15432
xxx	-15433
▁jw	-15434
▁xu	-15435
八刀廾	-15436
土龰丩	-15437
立十衣	-15438
1001	-15439
2012	-15440
abet	-15441
ared	-15442
aton	-15443
boro	-15444
club	-15445
esia	-15446
gaon	-15447
hart	-15448
iate	-15449
ibal	-15450
idel	-15451
idia	-15452
idon	-15453
iers	-15454
imai	-15455
mber	-15456
note	-15457
ocom	-15458
opro	-15459
phus	-15460
pped	-15461
rale	-15462
rics	-15463
rock	-15464
shaw	-15465
sons	-15466
thal	-15467
then	-15468
uben	-15469
ulum	-15470
vard	-15471
walk	-15472
▁043	-15473
▁057	-15474
▁058	-15475
▁063	-15476
▁074	-15477
▁088	-15478
▁095	-15479
▁aca	-15480
▁agb	-15481
▁ams	-15482
▁atx	-15483
▁auf	-15484
▁aws	-15485
▁axl	-15486
▁baz	-15487
▁bem	-15488
▁bri	-15489
▁bts	-15490
▁ccc	-15491
▁cds	-15492
▁ctc	-15493
▁dsc	-15494
▁fns	-15495
▁gsh	-15496
▁gus	-15497
▁hok	-15498
▁iar	-15499
▁imi	-15500
▁ish	-15501
▁jah	-15502
▁jug	-15503
▁kaw	-15504
▁lao	-15505
▁lau	-15506
▁lng	-15507
▁lut	-15508
▁mea	-15509
▁mec	-15510
▁nev	-15511
▁nih	-15512
▁ocn	-15513
▁ops	-15514
▁poo	-15515
▁pso	-15516
▁rms	-15517
▁rpc	-15518
▁sev	-15519
▁smt	-15520
▁spe	-15521
▁sps	-15522
▁una	-15523
▁yee	-15524
▁zis	-15525
▁zur	-15526
十豆口心	-15527
士冖一弓	-15528
acker	-15529
anium	-15530
arium	-15531
athon	-15532
atore	-15533
ators	-15534
brane	-15535
eeper	-15536
ersch	-15537
idium	-15538
ignac	-15539
ortun	-15540
query	-15541
rahim	-15542
rises	-15543
rison	-15544
teron	-15545
▁0080	-15546
▁0120	-15547
▁0300	-15548
▁1036	-15549
▁1053	-15550
▁2250	-15551
▁7100	-15552
▁8700	-15553
▁alla	-15554
▁ante	-15555
▁beer	-15556
▁berk	-15557
▁bike	-15558
▁blan	-15559
▁blur	-15560
▁cats	-15561
▁chad	-15562
▁clan	-15563
▁cnet	-15564
▁coat	-15565
▁cruz	-15566
▁ctrl	-15567
▁done	-15568
▁dslr	-15569
▁duty	-15570
▁edin	-15571
▁este	-15572
▁fand	-15573
▁feld	-15574
▁fest	-15575
▁gift	-15576
▁icon	-15577
▁intr	-15578
▁iowa	-15579
▁kale	-15580
▁kend	-15581
▁kers	-15582
▁larg	-15583
▁lips	-15584
▁luft	-15585
▁mace	-15586
▁maid	-15587
▁manh	-15588
▁nina	-15589
▁noaa	-15590
▁norm	-15591
▁oled	-15592
▁perm	-15593
▁pern	-15594
▁pert	-15595
▁poll	-15596
▁rost	-15597
▁send	-15598
▁sina	-15599
▁sind	-15600
▁smar	-15601
▁soap	-15602
▁sons	-15603
▁suit	-15604
▁swan	-15605
▁tall	-15606
▁tess	-15607
▁tung	-15608
▁vixx	-15609
▁wade	-15610
▁went	-15611
▁witt	-15612
▁ying	-15613
▁yung	-15614
etting	-15615
illion	-15616
itting	-15617
minute	-15618
player	-15619
schild	-15620
▁22000	-15621
▁27000	-15622
▁80000	-15623
▁aacsb	-15624
▁apink	-15625
▁attra	-15626
▁bains	-15627
▁bertr	-15628
▁bitch	-15629
▁blair	-15630
▁bravo	-15631
▁buddy	-15632
▁cases	-15633
▁chron	-15634
▁clamp	-15635
▁crash	-15636
▁crush	-15637
▁damon	-15638
▁entry	-15639
▁floor	-15640
▁jelly	-15641
▁jorge	-15642
▁jules	-15643
▁knock	-15644
▁leeds	-15645
▁links	-15646
▁pablo	-15647
▁panel	-15648
▁pulau	-15649
▁recon	-15650
▁rever	-15651
▁rubin	-15652
▁sabah	-15653
▁scene	-15654
▁schul	-15655
▁ships	-15656
▁shore	-15657
▁stere	-15658
▁taiji	-15659
▁tetra	-15660
▁title	-15661
▁trump	-15662
▁types	-15663
▁volks	-15664
issippi	-15665
romedia	-15666
uration	-15667
▁beaune	-15668
▁brooks	-15669
▁cataly	-15670
▁cheval	-15671
▁conrad	-15672
▁finder	-15673
▁groove	-15674
▁harmon	-15675
▁hassan	-15676
▁kotaku	-15677
▁monsta	-15678
▁nether	-15679
▁nforce	-15680
▁nippon	-15681
▁nogent	-15682
▁norton	-15683
▁parish	-15684
▁powell	-15685
▁saints	-15686
▁secure	-15687
▁spread	-15688
▁symbol	-15689
▁teresa	-15690
▁turtle	-15691
▁vincen	-15692
▁allison	-15693
▁arsenal	-15694
▁binding	-15695
▁circuit	-15696
▁emerson	-15697
▁fitness	-15698
▁gardner	-15699
▁gerhard	-15700
▁gravity	-15701
▁heights	-15702
▁ibrahim	-15703
▁imagine	-15704
▁instant	-15705
▁langres	-15706
▁microsd	-15707
▁results	-15708
▁reverse	-15709
▁rosetta	-15710
▁warfare	-15711
▁abdullah	-15712
▁although	-15713
▁astronom	-15714
▁birthday	-15715
▁chromium	-15716
▁commerce	-15717
▁everyday	-15718
▁fantasia	-15719
▁february	-15720
▁intermed	-15721
▁mortagne	-15722
▁motorola	-15723
▁negative	-15724
▁opportun	-15725
▁philadel	-15726
▁straight	-15727
▁thinkpad	-15728
▁wireless	-15729
▁carpenter	-15730
▁chocolate	-15731
▁henderson	-15732
▁macdonald	-15733
▁quicktime	-15734
▁wrestling	-15735
▁elementary	-15736
▁evangelion	-15737
▁excellence	-15738
▁functional	-15739
▁initiative	-15740
▁powerpoint	-15741
▁intelligent	-15742
▁mississippi	-15743
▁independence	-15744
▁publications	-15745
▁universities	-15746
▁hypertransport	-15747
cn	-15748
dj	-15749
hb	-15750
rb	-15751
rf	-15752
yk	-15753
口卜	-15754
口更	-15755
土巳	-15756
日頁	-15757
月彡	-15758
虫毛	-15759
142	-15760
232	-15761
252	-15762
267	-15763
276	-15764
278	-15765
367	-15766
391	-15767
395	-15768
454	-15769
504	-15770
660	-15771
879	-15772
891	-15773
907	-15774
995	-15775
ako	-15776
alt	-15777
bau	-15778
cet	-15779
dog	-15780
eac	-15781
fel	-15782
fta	-15783
lep	-15784
lik	-15785
loe	-15786
mex	-15787
odo	-15788
oki	-15789
uge	-15790
weg	-15791
xim	-15792
▁uz	-15793
▁xn	-15794
▁xz	-15795
▁zb	-15796
▁zx	-15797
▁⿷⿸	-15798
⿱⿳𭕄	-15799
冖几心	-15800
力口肉	-15801
厶大三	-15802
木斤日	-15803
𠃜目阝	-15804
2500	-15805
ades	-15806
anza	-15807
atin	-15808
cend	-15809
emen	-15810
ende	-15811
enig	-15812
free	-15813
fton	-15814
iere	-15815
liga	-15816
live	-15817
mind	-15818
olan	-15819
ondo	-15820
ouch	-15821
rion	-15822
ture	-15823
uchi	-15824
wing	-15825
zzle	-15826
▁anh	-15827
▁bpm	-15828
▁bwv	-15829
▁coe	-15830
▁csl	-15831
▁dha	-15832
▁diz	-15833
▁dms	-15834
▁eck	-15835
▁edg	-15836
▁erp	-15837
▁fft	-15838
▁fib	-15839
▁fim	-15840
▁gdf	-15841
▁hbv	-15842
▁ivy	-15843
▁joo	-15844
▁kei	-15845
▁koi	-15846
▁kou	-15847
▁mmx	-15848
▁msv	-15849
▁msx	-15850
▁nah	-15851
▁ofo	-15852
▁pch	-15853
▁pim	-15854
▁pud	-15855
▁qbz	-15856
▁rta	-15857
▁sss	-15858
▁suz	-15859
▁thf	-15860
▁tic	-15861
▁uml	-15862
▁xtr	-15863
丿冂米丂	-15864
井一𧘇力	-15865
𠂊田一由	-15866
angan	-15867
ately	-15868
basic	-15869
elles	-15870
flops	-15871
forge	-15872
hurst	-15873
inter	-15874
isoft	-15875
kirch	-15876
oodle	-15877
sburg	-15878
store	-15879
usson	-15880
▁2142	-15881
▁7600	-15882
▁ajax	-15883
▁awak	-15884
▁bret	-15885
▁bris	-15886
▁camb	-15887
▁capt	-15888
▁chit	-15889
▁cine	-15890
▁clem	-15891
▁cros	-15892
▁daim	-15893
▁dich	-15894
▁duch	-15895
▁ered	-15896
▁evel	-15897
▁ffff	-15898
▁foix	-15899
▁gare	-15900
▁herz	-15901
▁holt	-15902
▁hund	-15903
▁iran	-15904
▁jard	-15905
▁jill	-15906
▁join	-15907
▁kumi	-15908
▁labs	-15909
▁lich	-15910
▁mime	-15911
▁moth	-15912
▁opti	-15913
▁pair	-15914
▁pash	-15915
▁pico	-15916
▁pour	-15917
▁prov	-15918
▁raff	-15919
▁sank	-15920
▁sets	-15921
▁sten	-15922
▁sung	-15923
▁toll	-15924
▁toro	-15925
▁tris	-15926
▁wien	-15927
▁wink	-15928
▁xing	-15929
▁yoho	-15930
▁yves	-15931
⺌冖口田刂	-15932
endorf	-15933
ically	-15934
icient	-15935
tively	-15936
ughter	-15937
▁23000	-15938
▁asper	-15939
▁barth	-15940
▁blink	-15941
▁braun	-15942
▁carat	-15943
▁depor	-15944
▁dolce	-15945
▁doris	-15946
▁doyle	-15947
▁eleph	-15948
▁eugen	-15949
▁famil	-15950
▁genus	-15951
▁indie	-15952
▁julia	-15953
▁latex	-15954
▁marin	-15955
▁miami	-15956
▁minas	-15957
▁moody	-15958
▁nakay	-15959
▁nikon	-15960
▁optim	-15961
▁paulo	-15962
▁percy	-15963
▁polar	-15964
▁ports	-15965
▁rania	-15966
▁reven	-15967
▁rings	-15968
▁rough	-15969
▁rugby	-15970
▁salem	-15971
▁sampa	-15972
▁sight	-15973
▁stade	-15974
▁sting	-15975
▁subst	-15976
▁tales	-15977
▁theta	-15978
▁vicen	-15979
▁worth	-15980
▁write	-15981
▁ballad	-15982
▁benson	-15983
▁bottom	-15984
▁broken	-15985
▁cedric	-15986
▁charge	-15987
▁colour	-15988
▁comedy	-15989
▁cosmos	-15990
▁divine	-15991
▁exclus	-15992
▁exynos	-15993
▁fuller	-15994
▁gender	-15995
▁hawaii	-15996
▁herald	-15997
▁kinect	-15998
▁korean	-15999
▁mighty	-16000
▁millau	-16001
▁moving	-16002
▁nicole	-16003
▁oculus	-16004
▁option	-16005
▁oxygen	-16006
▁proced	-16007
▁regist	-16008
▁render	-16009
▁rodrig	-16010
▁valign	-16011
▁vernon	-16012
▁verycd	-16013
▁calling	-16014
▁carroll	-16015
▁cluster	-16016
▁concord	-16017
▁edwards	-16018
▁experim	-16019
▁extreme	-16020
▁falling	-16021
▁feature	-16022
▁fortune	-16023
▁further	-16024
▁germany	-16025
▁giorgio	-16026
▁harmony	-16027
▁initial	-16028
▁miranda	-16029
▁missile	-16030
▁montana	-16031
▁neutral	-16032
▁newtype	-16033
▁panther	-16034
▁provide	-16035
▁session	-16036
▁shuttle	-16037
▁spexial	-16038
▁storage	-16039
▁walking	-16040
▁workers	-16041
▁breaking	-16042
▁contract	-16043
▁december	-16044
▁latitude	-16045
▁midnight	-16046
▁opensuse	-16047
▁pleasure	-16048
▁released	-16049
▁seminary	-16050
▁specific	-16051
▁spectrum	-16052
▁stardust	-16053
▁swimming	-16054
▁telegram	-16055
▁cherbourg	-16056
▁chronicle	-16057
▁corporate	-16058
▁dangerous	-16059
▁lightning	-16060
▁satellite	-16061
▁wonderful	-16062
▁connection	-16063
▁psychology	-16064
▁mathematica	-16065
▁temperature	-16066
▁philadelphia	-16067
mk	-16068
uj	-16069
生生	-16070
竹见	-16071
纟予	-16072
艹弗	-16073
饣戋	-16074
146	-16075
183	-16076
244	-16077
253	-16078
274	-16079
290	-16080
324	-16081
333	-16082
376	-16083
396	-16084
422	-16085
471	-16086
476	-16087
483	-16088
499	-16089
506	-16090
507	-16091
549	-16092
653	-16093
658	-16094
669	-16095
704	-16096
776	-16097
859	-16098
882	-16099
954	-16100
993	-16101
akh	-16102
ape	-16103
enh	-16104
fen	-16105
gee	-16106
how	-16107
ilt	-16108
lif	-16109
nan	-16110
nap	-16111
non	-16112
pop	-16113
tok	-16114
tur	-16115
unn	-16116
wen	-16117
zyn	-16118
▁fz	-16119
▁gv	-16120
▁mz	-16121
▁pj	-16122
一大刂	-16123
冖車阝	-16124
1100	-16125
2018	-16126
3100	-16127
andi	-16128
anta	-16129
borg	-16130
cene	-16131
gers	-16132
iant	-16133
idis	-16134
iibo	-16135
inax	-16136
ivid	-16137
jack	-16138
lane	-16139
ogne	-16140
olid	-16141
omed	-16142
otti	-16143
rypt	-16144
thia	-16145
tige	-16146
uria	-16147
ylan	-16148
▁069	-16149
▁071	-16150
▁acs	-16151
▁adj	-16152
▁aek	-16153
▁agp	-16154
▁aia	-16155
▁aki	-16156
▁akm	-16157
▁ame	-16158
▁ami	-16159
▁ccf	-16160
▁clr	-16161
▁dok	-16162
▁ecn	-16163
▁ehr	-16164
▁esi	-16165
▁euc	-16166
▁ged	-16167
▁gew	-16168
▁gts	-16169
▁haj	-16170
▁hsp	-16171
▁jit	-16172
▁kak	-16173
▁kdl	-16174
▁kiv	-16175
▁lhc	-16176
▁loo	-16177
▁mda	-16178
▁mey	-16179
▁mez	-16180
▁mib	-16181
▁mie	-16182
▁nen	-16183
▁nus	-16184
▁obl	-16185
▁ols	-16186
▁ons	-16187
▁pca	-16188
▁rdf	-16189
▁rut	-16190
▁sfc	-16191
▁smi	-16192
▁snr	-16193
▁soo	-16194
▁srb	-16195
▁stl	-16196
▁suk	-16197
▁tdp	-16198
▁thq	-16199
▁tip	-16200
▁tpe	-16201
▁txt	-16202
▁uba	-16203
▁unc	-16204
▁vio	-16205
▁vla	-16206
▁yer	-16207
▁yin	-16208
▁yus	-16209
人人冖贝	-16210
凵丨月心	-16211
achim	-16212
anner	-16213
brand	-16214
ecker	-16215
enade	-16216
estro	-16217
group	-16218
ialis	-16219
iesta	-16220
ifica	-16221
ighth	-16222
illet	-16223
inski	-16224
iplex	-16225
lando	-16226
maker	-16227
olens	-16228
orpha	-16229
quist	-16230
tisan	-16231
ucted	-16232
▁1051	-16233
▁2033	-16234
▁2080	-16235
▁2350	-16236
▁2850	-16237
▁7800	-16238
▁8400	-16239
▁aeon	-16240
▁alba	-16241
▁amor	-16242
▁apex	-16243
▁asha	-16244
▁bess	-16245
▁bois	-16246
▁boul	-16247
▁brah	-16248
▁bram	-16249
▁cari	-16250
▁cuda	-16251
▁deen	-16252
▁dehp	-16253
▁deux	-16254
▁diss	-16255
▁dwar	-16256
▁fips	-16257
▁flip	-16258
▁ftis	-16259
▁gibb	-16260
▁gimp	-16261
▁goto	-16262
▁grig	-16263
▁hair	-16264
▁held	-16265
▁kash	-16266
▁kyle	-16267
▁lass	-16268
▁lgpl	-16269
▁lima	-16270
▁mela	-16271
▁moor	-16272
▁moss	-16273
▁myth	-16274
▁nadh	-16275
▁peti	-16276
▁pull	-16277
▁sauv	-16278
▁scha	-16279
▁scul	-16280
▁shim	-16281
▁siem	-16282
▁smok	-16283
▁sper	-16284
▁spie	-16285
▁stag	-16286
▁stur	-16287
▁styl	-16288
▁sulf	-16289
▁suse	-16290
▁tara	-16291
▁tart	-16292
▁tear	-16293
▁toys	-16294
▁trin	-16295
▁vivi	-16296
▁vlan	-16297
▁wass	-16298
▁yard	-16299
㐅乂木大石	-16300
enoble	-16301
escope	-16302
iensis	-16303
illing	-16304
neider	-16305
▁alien	-16306
▁allow	-16307
▁avran	-16308
▁bever	-16309
▁brien	-16310
▁camel	-16311
▁choco	-16312
▁cisco	-16313
▁civic	-16314
▁cocoa	-16315
▁degli	-16316
▁delay	-16317
▁ellis	-16318
▁elvis	-16319
▁essay	-16320
▁eunos	-16321
▁fluid	-16322
▁geass	-16323
▁invol	-16324
▁jolla	-16325
▁kawas	-16326
▁kuala	-16327
▁leigh	-16328
▁magna	-16329
▁manif	-16330
▁mercy	-16331
▁minim	-16332
▁mixed	-16333
▁mouth	-16334
▁musta	-16335
▁nadph	-16336
▁nicol	-16337
▁notre	-16338
▁orang	-16339
▁overs	-16340
▁pegas	-16341
▁platz	-16342
▁pratt	-16343
▁prosp	-16344
▁raise	-16345
▁react	-16346
▁ribon	-16347
▁roche	-16348
▁rotem	-16349
▁salam	-16350
▁sally	-16351
▁semic	-16352
▁shaft	-16353
▁stark	-16354
▁tracy	-16355
iciency	-16356
lington	-16357
osauria	-16358
▁100000	-16359
▁amanda	-16360
▁amiibo	-16361
▁angelo	-16362
▁angers	-16363
▁apollo	-16364
▁binary	-16365
▁bubble	-16366
▁buddha	-16367
▁cannon	-16368
▁column	-16369
▁consor	-16370
▁crisis	-16371
▁crytek	-16372
▁enough	-16373
▁expans	-16374
▁fabric	-16375
▁finger	-16376
▁forbes	-16377
▁gothic	-16378
▁guardi	-16379
▁hidden	-16380
▁horace	-16381
▁hotels	-16382
▁jacobs	-16383
▁kleene	-16384
▁laguna	-16385
▁launch	-16386
▁listen	-16387
▁magdal	-16388
▁maimai	-16389
▁maison	-16390
▁marcel	-16391
▁mojang	-16392
▁montes	-16393
▁nascar	-16394
▁palmer	-16395
▁pieter	-16396
▁propag	-16397
▁rudolf	-16398
▁savage	-16399
▁sereno	-16400
▁serial	-16401
▁sookie	-16402
▁static	-16403
▁telnet	-16404
▁tempor	-16405
▁tracks	-16406
▁verlag	-16407
▁weapon	-16408
▁wesley	-16409
▁affairs	-16410
▁alfonso	-16411
▁aniplex	-16412
▁atmosph	-16413
▁augusta	-16414
▁britann	-16415
▁colonel	-16416
▁complet	-16417
▁context	-16418
▁dolphin	-16419
▁edonkey	-16420
▁italian	-16421
▁joachim	-16422
▁kitchen	-16423
▁maximum	-16424
▁neoplan	-16425
▁opening	-16426
▁opteron	-16427
▁purpose	-16428
▁ranking	-16429
▁romance	-16430
▁runtime	-16431
▁shirley	-16432
▁simmons	-16433
▁subject	-16434
▁contents	-16435
▁criminal	-16436
▁disorder	-16437
▁equation	-16438
▁fountain	-16439
▁ftisland	-16440
▁grenoble	-16441
▁ordinary	-16442
▁politics	-16443
▁richmond	-16444
▁thinking	-16445
▁algorithm	-16446
▁avranches	-16447
▁canonical	-16448
▁christina	-16449
▁crossover	-16450
▁dependent	-16451
▁frankfurt	-16452
▁principle	-16453
▁stephanie	-16454
▁definition	-16455
▁fellowship	-16456
▁institution	-16457
▁progressive	-16458
▁encyclopedia	-16459
▁environmental	-16460
▁identification	-16461
ao	-16462
gf	-16463
gw	-16464
nx	-16465
vb	-16466
xs	-16467
大川	-16468
弋甘	-16469
木来	-16470
灬几	-16471
艹以	-16472
辶求	-16473
154	-16474
198	-16475
273	-16476
298	-16477
318	-16478
375	-16479
478	-16480
594	-16481
604	-16482
609	-16483
662	-16484
854	-16485
878	-16486
880	-16487
889	-16488
903	-16489
arh	-16490
arn	-16491
bay	-16492
coo	-16493
fig	-16494
fin	-16495
fts	-16496
gat	-16497
gil	-16498
hes	-16499
jee	-16500
joy	-16501
lax	-16502
lob	-16503
new	-16504
opy	-16505
rab	-16506
upo	-16507
yne	-16508
▁bz	-16509
▁vj	-16510
▁xk	-16511
▁yz	-16512
⿰⿱⿴	-16513
土口甫	-16514
镸彡兀	-16515
4000	-16516
ahan	-16517
anes	-16518
anor	-16519
asar	-16520
atti	-16521
bias	-16522
cann	-16523
coin	-16524
emia	-16525
erox	-16526
eroy	-16527
erto	-16528
esch	-16529
fall	-16530
geon	-16531
hail	-16532
ilee	-16533
ilis	-16534
inth	-16535
inux	-16536
ises	-16537
isse	-16538
kong	-16539
mous	-16540
nell	-16541
nine	-16542
omin	-16543
oven	-16544
ovic	-16545
pers	-16546
quez	-16547
rist	-16548
ropy	-16549
sing	-16550
tail	-16551
tape	-16552
ulla	-16553
ushi	-16554
xton	-16555
▁asm	-16556
▁ava	-16557
▁bgp	-16558
▁bls	-16559
▁cah	-16560
▁cay	-16561
▁cfc	-16562
▁cmm	-16563
▁dss	-16564
▁edi	-16565
▁erj	-16566
▁fow	-16567
▁hoc	-16568
▁idf	-16569
▁ids	-16570
▁iga	-16571
▁iot	-16572
▁jbj	-16573
▁jee	-16574
▁kag	-16575
▁ked	-16576
▁kuo	-16577
▁lcs	-16578
▁leh	-16579
▁lic	-16580
▁mbt	-16581
▁mgm	-16582
▁mog	-16583
▁mug	-16584
▁nii	-16585
▁noc	-16586
▁ohv	-16587
▁oro	-16588
▁owl	-16589
▁pcl	-16590
▁pem	-16591
▁pgp	-16592
▁pik	-16593
▁pst	-16594
▁pte	-16595
▁ptr	-16596
▁rpk	-16597
▁sop	-16598
▁ssn	-16599
▁tae	-16600
▁tko	-16601
▁tos	-16602
▁tsi	-16603
▁viu	-16604
▁wha	-16605
▁wie	-16606
▁wps	-16607
▁zag	-16608
▁zoe	-16609
▁zon	-16610
𠃋丿人頁	-16611
acity	-16612
aller	-16613
chant	-16614
cular	-16615
ensor	-16616
ernet	-16617
icity	-16618
itsch	-16619
leigh	-16620
licit	-16621
oming	-16622
ovski	-16623
stage	-16624
unded	-16625
▁1383	-16626
▁2031	-16627
▁2312	-16628
▁7400	-16629
▁9300	-16630
▁alar	-16631
▁ande	-16632
▁aram	-16633
▁avai	-16634
▁bend	-16635
▁bold	-16636
▁bust	-16637
▁cave	-16638
▁choi	-16639
▁chor	-16640
▁deta	-16641
▁dimm	-16642
▁dogs	-16643
▁doll	-16644
▁frig	-16645
▁gale	-16646
▁gion	-16647
▁gour	-16648
▁guid	-16649
▁hale	-16650
▁hast	-16651
▁herc	-16652
▁hime	-16653
▁jojo	-16654
▁kerr	-16655
▁kron	-16656
▁lama	-16657
▁loth	-16658
▁lump	-16659
▁lund	-16660
▁lynx	-16661
▁msdn	-16662
▁neue	-16663
▁oecd	-16664
▁oops	-16665
▁pend	-16666
▁pole	-16667
▁prev	-16668
▁pros	-16669
▁regn	-16670
▁rfid	-16671
▁sana	-16672
▁shek	-16673
▁smrt	-16674
▁spam	-16675
▁spas	-16676
▁stir	-16677
▁tata	-16678
▁toon	-16679
▁typh	-16680
▁vire	-16681
▁vola	-16682
▁weak	-16683
▁webb	-16684
▁wire	-16685
▁zard	-16686
antage	-16687
eneuve	-16688
gomery	-16689
queror	-16690
ssonne	-16691
sworth	-16692
unders	-16693
▁ambro	-16694
▁atten	-16695
▁avbwu	-16696
▁ayumi	-16697
▁began	-16698
▁benny	-16699
▁blois	-16700
▁bones	-16701
▁boost	-16702
▁brake	-16703
▁brett	-16704
▁cairo	-16705
▁comun	-16706
▁craft	-16707
▁curve	-16708
▁draft	-16709
▁dreux	-16710
▁elias	-16711
▁enemy	-16712
▁europ	-16713
▁freak	-16714
▁guild	-16715
▁hayes	-16716
▁hobby	-16717
▁inhib	-16718
▁kappa	-16719
▁kenny	-16720
▁mania	-16721
▁maybe	-16722
▁meter	-16723
▁mitch	-16724
▁pasmo	-16725
▁pizza	-16726
▁ponte	-16727
▁pulse	-16728
▁quart	-16729
▁quinn	-16730
▁raven	-16731
▁reyes	-16732
▁rstea	-16733
▁salon	-16734
▁schwe	-16735
▁selec	-16736
▁tango	-16737
▁theme	-16738
▁twink	-16739
▁unter	-16740
▁weeks	-16741
▁welsh	-16742
▁zhang	-16743
patrick	-16744
▁almost	-16745
▁athena	-16746
▁breath	-16747
▁criter	-16748
▁deluxe	-16749
▁desert	-16750
▁divers	-16751
▁employ	-16752
▁finals	-16753
▁gainax	-16754
▁gerard	-16755
▁guitar	-16756
▁jasper	-16757
▁nobody	-16758
▁phenom	-16759
▁plasma	-16760
▁proton	-16761
▁rather	-16762
▁rpgfan	-16763
▁senlis	-16764
▁troyes	-16765
▁tunnel	-16766
▁vivian	-16767
▁weight	-16768
▁applied	-16769
▁baldwin	-16770
▁biology	-16771
▁cartoon	-16772
▁chicken	-16773
▁daimler	-16774
▁density	-16775
▁evening	-16776
▁individ	-16777
▁islamic	-16778
▁majesty	-16779
▁masters	-16780
▁monitor	-16781
▁orlando	-16782
▁partner	-16783
▁powered	-16784
▁reading	-16785
▁request	-16786
▁seasons	-16787
▁silicon	-16788
▁spanish	-16789
▁stellar	-16790
▁theodor	-16791
▁trigger	-16792
▁unknown	-16793
▁vicente	-16794
▁activity	-16795
▁adaptive	-16796
▁argument	-16797
▁behavior	-16798
▁brooklyn	-16799
▁campagne	-16800
▁concepts	-16801
▁determin	-16802
▁dynamics	-16803
▁friedman	-16804
▁internal	-16805
▁salvador	-16806
▁saturday	-16807
▁solution	-16808
▁telltale	-16809
▁theodore	-16810
▁certified	-16811
▁coalition	-16812
▁dimension	-16813
▁important	-16814
▁interpret	-16815
▁nakayoshi	-16816
▁pharmaceu	-16817
▁powershot	-16818
▁precision	-16819
▁prototype	-16820
▁remington	-16821
▁smalltalk	-16822
▁adventures	-16823
▁components	-16824
▁consortium	-16825
▁difference	-16826
▁mechanical	-16827
▁montgomery	-16828
▁postgresql	-16829
▁carcassonne	-16830
▁enterprises	-16831
▁partnership	-16832
▁thunderbolt	-16833
▁transmission	-16834
dl	-16835
uo	-16836
万力	-16837
乃木	-16838
口艮	-16839
廿丨	-16840
忄刀	-16841
扌门	-16842
文心	-16843
木弋	-16844
木臼	-16845
比必	-16846
氵自	-16847
艹卯	-16848
钅我	-16849
钅火	-16850
钅耳	-16851
008	-16852
166	-16853
241	-16854
258	-16855
275	-16856
299	-16857
313	-16858
317	-16859
325	-16860
331	-16861
457	-16862
475	-16863
494	-16864
530	-16865
605	-16866
655	-16867
675	-16868
678	-16869
771	-16870
808	-16871
835	-16872
890	-16873
892	-16874
894	-16875
950	-16876
998	-16877
anx	-16878
app	-16879
bey	-16880
cio	-16881
dev	-16882
dii	-16883
dna	-16884
fac	-16885
hou	-16886
iak	-16887
igm	-16888
iph	-16889
jor	-16890
lai	-16891
mec	-16892
pla	-16893
rak	-16894
rar	-16895
rez	-16896
ryn	-16897
seg	-16898
tab	-16899
uez	-16900
ync	-16901
zka	-16902
▁hq	-16903
▁qc	-16904
▁wf	-16905
亻隹贝	-16906
木木土	-16907
肀月阝	-16908
1917	-16909
anet	-16910
angi	-16911
boys	-16912
cchi	-16913
ccus	-16914
cles	-16915
como	-16916
deck	-16917
ganu	-16918
gard	-16919
grad	-16920
hoff	-16921
ided	-16922
idus	-16923
ilio	-16924
inet	-16925
itte	-16926
kamp	-16927
lets	-16928
mate	-16929
oire	-16930
ovie	-16931
roph	-16932
uela	-16933
ully	-16934
user	-16935
uton	-16936
vere	-16937
wehr	-16938
ylie	-16939
zens	-16940
zing	-16941
▁acl	-16942
▁adc	-16943
▁aip	-16944
▁apc	-16945
▁aro	-16946
▁asv	-16947
▁boe	-16948
▁cen	-16949
▁cgs	-16950
▁cpa	-16951
▁cpg	-16952
▁ctu	-16953
▁dac	-16954
▁ded	-16955
▁deo	-16956
▁dys	-16957
▁eap	-16958
▁eta	-16959
▁fos	-16960
▁gag	-16961
▁glp	-16962
▁gtx	-16963
▁hee	-16964
▁hib	-16965
▁hou	-16966
▁hym	-16967
▁iap	-16968
▁iba	-16969
▁igr	-16970
▁iis	-16971
▁ine	-16972
▁ith	-16973
▁jax	-16974
▁kav	-16975
▁kib	-16976
▁kik	-16977
▁ksp	-16978
▁kwk	-16979
▁lys	-16980
▁mio	-16981
▁mls	-16982
▁mop	-16983
▁mum	-16984
▁mvc	-16985
▁nai	-16986
▁ncr	-16987
▁ogg	-16988
▁pae	-16989
▁pai	-16990
▁paw	-16991
▁pgc	-16992
▁pgm	-16993
▁ppi	-16994
▁pvp	-16995
▁ril	-16996
▁ruf	-16997
▁sdf	-16998
▁sgi	-16999
▁spc	-17000
▁spi	-17001
▁srs	-17002
▁svo	-17003
▁ugc	-17004
▁wig	-17005
▁wra	-17006
▁xmm	-17007
▁yeh	-17008
▁ymc	-17009
▁yos	-17010
▁zel	-17011
▁⿰⿰⿸	-17012
▁⿰⿸⿱	-17013
丨丨比禾	-17014
口口口阝	-17015
廿丨冖巾	-17016
𠂊厂㔾頁	-17017
atops	-17018
attan	-17019
bench	-17020
borne	-17021
eated	-17022
emont	-17023
enico	-17024
ersen	-17025
estic	-17026
ilogy	-17027
itory	-17028
jiang	-17029
oidea	-17030
onder	-17031
onica	-17032
strom	-17033
tilla	-17034
ually	-17035
watch	-17036
write	-17037
yleft	-17038
▁0600	-17039
▁2045	-17040
▁2046	-17041
▁aber	-17042
▁aman	-17043
▁amen	-17044
▁bark	-17045
▁chai	-17046
▁chao	-17047
▁chef	-17048
▁chok	-17049
▁chro	-17050
▁cing	-17051
▁dele	-17052
▁dent	-17053
▁dino	-17054
▁eber	-17055
▁ecma	-17056
▁emin	-17057
▁eras	-17058
▁espa	-17059
▁frog	-17060
▁godf	-17061
▁goes	-17062
▁gogo	-17063
▁guin	-17064
▁gung	-17065
▁hagu	-17066
▁hole	-17067
▁iana	-17068
▁iras	-17069
▁kira	-17070
▁kwan	-17071
▁lect	-17072
▁leed	-17073
▁llvm	-17074
▁loca	-17075
▁lowe	-17076
▁luca	-17077
▁mesa	-17078
▁mori	-17079
▁noel	-17080
▁ordn	-17081
▁pata	-17082
▁peer	-17083
▁pors	-17084
▁rapp	-17085
▁reid	-17086
▁rift	-17087
▁robo	-17088
▁saul	-17089
▁scen	-17090
▁shee	-17091
▁simd	-17092
▁syfy	-17093
▁teth	-17094
▁thou	-17095
▁thus	-17096
▁tina	-17097
▁tort	-17098
▁tres	-17099
▁uefi	-17100
▁vanc	-17101
▁verm	-17102
▁warp	-17103
▁welt	-17104
▁whip	-17105
▁whis	-17106
▁youb	-17107
▁zipp	-17108
亠丷冖巾口	-17109
ereign	-17110
ersion	-17111
ingham	-17112
inguis	-17113
lastic	-17114
odacty	-17115
ologie	-17116
[...]
