<pad>	0
<unk>	0
[CLS]	0
[SEP]	0
[MASK]	0
(	0
)	0
”	0
-	0
.	0
–	0
£	0
€	0
▁一	-0
▁人	-1
▁,	-2
▁丿	-3
▁白	-4
▁白勺	-5
▁水	-6
▁。	-7
▁口	-8
▁木	-9
▁辵	-10
▁手	-11
▁丶	-12
▁日	-13
▁囗	-14
▁宀	-15
▁言	-16
▁禾	-17
▁亠	-18
▁土	-19
▁彳	-20
▁一丿	-21
▁草	-22
▁人一	-23
▁十	-24
▁絲	-25
▁丿丰	-26
▁丿丰丶	-27
▁丷	-28
▁、	-29
▁一人	-30
▁1	-31
▁冂	-32
▁阜	-33
▁一人土	-34
▁丶丿	-35
▁二	-36
▁竹	-37
▁口丨	-38
▁日疋	-39
▁广	-40
▁夕	-41
▁八	-42
丨一	-43
▁牛	-44
▁丝	-45
▁玉	-46
▁一丿月	-47
▁丿乀	-48
▁一口	-49
▁冂一	-50
一八	-51
▁尸	-52
㇆㇆	-53
▁方	-54
▁2	-55
▁乛	-56
▁厂	-57
▁其	-58
冂丨	-59
▁乛亅	-60
▁女	-61
㇆㇆㇆	-62
▁口一	-63
▁臼	-64
▁禾口	-65
▁□	-66
丶人	-67
▁山	-68
▁月	-69
▁小	-70
▁戊	-71
▁一丶	-72
丨丶	-73
冖子	-74
▁金	-75
口丨	-76
▁立	-77
▁一丿丨丶	-78
▁衣	-79
▁心	-80
▁囗或	-81
▁土也	-82
▁19	-83
▁冂一一	-84
▁門	-85
▁一丨一	-86
▁厶	-87
▁囗玉	-88
▁刀	-89
▁示	-90
▁尚	-91
▁肉	-92
▁丿一	-93
▁丷一	-94
人冫	-95
▁方人冫	-96
丶丶	-97
▁之	-98
一口	-99
▁甘	-100
▁耳	-101
▁人也	-102
▁山山	-103
▁羊	-104
丷曰	-105
口丨丷曰	-106
▁20	-107
人人	-108
▁囗十	-109
▁冖	-110
▁至	-111
▁亠丷	-112
▁丰	-113
▁亠口	-114
▁彳亍	-115
匕匕	-116
▁戶	-117
冂口	-118
▁甘一八	-119
▁咅	-120
▁丶王	-121
▁月丨	-122
▁咅邑	-123
▁牛一	-124
▁廿	-125
▁人乍	-126
冂丨丨	-127
▁一丶冂丨丨	-128
▁八刀	-129
▁雨	-130
幺幺	-131
▁丨	-132
▁止	-133
▁至刀	-134
▁乃	-135
▁八厶	-136
丿一	-137
幺夂	-138
▁彳幺夂	-139
▁乃乀	-140
▁日寺	-141
▁石	-142
▁又	-143
▁夕口	-144
▁弓	-145
▁其斤	-146
▁人王	-147
弔丿	-148
▁匸	-149
▁木一	-150
▁㇆	-151
▁》	-152
▁《	-153
▁二丨	-154
▁車	-155
▁宀豕	-156
▁曰	-157
▁网	-158
▁足	-159
▁人一口丨丷曰	-160
▁西	-161
▁:	-162
▁衣皮	-163
▁亠勹	-164
▁水去	-165
乛一	-166
▁夕夕	-167
▁田	-168
▁爪	-169
▁一口亅	-170
▁冂一口	-171
▁竹弔丿	-172
▁「	-173
▁」	-174
▁土丿	-175
▁走	-176
▁卩	-177
▁一卜	-178
▁民	-179
▁亲	-180
日十	-181
▁了	-182
▁了一	-183
▁臼爻	-184
▁二亅	-185
▁臼一	-186
丶一八	-187
▁丶目	-188
▁一口儿	-189
丨乚	-190
▁业	-191
▁人丨	-192
▁卩丨乚	-193
▁丬	-194
▁丿二	-195
▁一大	-196
▁曰取	-197
▁正	-198
▁亠乂	-199
▁正攴	-200
▁臼爻冖子	-201
▁小冖子	-202
▁廴	-203
▁戶斤	-204
▁口口	-205
▁癶	-206
▁人固	-207
▁囗大	-208
▁夕卜	-209
▁人立	-210
▁竹寺	-211
▁力	-212
▁人弋	-213
▁穴	-214
▁西女	-215
冂丫	-216
冂丫二	-217
▁十冂丫二	-218
▁亲斤	-219
肉刀	-220
▁丷一肉刀	-221
▁止匕	-222
▁爿	-223
一乚	-224
▁亠巾	-225
▁亠口冂口	-226
▁“	-227
▁歹	-228
▁广廿	-229
▁牛寺	-230
▁·	-231
丿丨	-232
一寸	-233
日一寸	-234
▁3	-235
▁彳日一寸	-236
▁厶肉	-237
▁厶肉匕匕	-238
▁丬匕	-239
▁一二	-240
▁力口	-241
▁一厶	-242
▁厂一口	-243
一心	-244
▁200	-245
▁亠丷一	-246
▁牛勿	-247
▁大	-248
▁犬	-249
乁丿	-250
▁孝	-251
▁孝攴	-252
▁人壬	-253
▁人旦	-254
▁火	-255
▁廿丨一	-256
弓殳	-257
▁癶弓殳	-258
▁羊大	-259
▁玉里	-260
▁宀疋	-261
▁一厶土	-262
▁十一	-263
▁彳十	-264
网一心	-265
▁彳十网一心	-266
▁凵	-267
▁廴聿	-268
▁水每	-269
▁禾刀	-270
▁辵首	-271
▁乁丿	-272
肉寸	-273
▁爿肉寸	-274
▁工	-275
▁方丿一	-276
▁人吏	-277
▁一口聿	-278
▁勹	-279
▁其月	-280
▁人一口	-281
▁舟	-282
▁人匕	-283
▁日寸	-284
▁米	-285
▁凵丨	-286
▁;	-287
▁足各	-288
二丨	-289
▁冫	-290
▁一丶囬	-291
▁十兄	-292
▁井	-293
井大	-294
▁一冂丨	-295
▁宀井大	-296
▁广廿又	-297
▁土丿日	-298
▁辵甬	-299
▁木人人	-300
▁一一	-301
▁八亅	-302
▁者	-303
▁干	-304
▁者邑	-305
▁厶口	-306
▁冫欠	-307
▁丿一里	-308
▁貝	-309
▁冖車	-310
▁人云	-311
▁弋	-312
白小	-313
▁心生	-314
▁爪冖	-315
▁甲	-316
▁弋工	-317
▁玉求	-318
▁士	-319
▁丷亚	-320
▁馬	-321
▁角	-322
▁"	-323
▁一丨	-324
▁甲二	-325
▁川	-326
▁目	-327
▁木目	-328
▁辵言	-329
幺幺丱	-330
羊寸	-331
▁业羊寸	-332
▁言殳	-333
▁隹	-334
▁干丷	-335
▁女口	-336
▁4	-337
一丿	-338
冖巾	-339
▁厂白小	-340
▁井八	-341
▁一𠃋	-342
▁行	-343
▁巳	-344
▁口一戈	-345
▁水巷	-346
▁匸品	-347
▁手立	-348
▁木木	-349
▁车	-350
▁5	-351
▁十日十	-352
▁门	-353
▁虎	-354
▁一土	-355
▁重	-356
▁重力	-357
▁十目	-358
▁門开	-359
▁日一	-360
▁辵文	-361
▁其土	-362
巾刀	-363
▁長	-364
▁骨	-365
▁匸乂	-366
友丶	-367
▁丿友丶	-368
▁丿糸	-369
▁匕匕	-370
丶丶丶	-371
▁川丶丶丶	-372
▁一止	-373
▁玉見	-374
▁丿二巾刀	-375
▁日一里	-376
▁尚巾	-377
▁日月	-378
▁宀女	-379
▁禾斗	-380
卩又	-381
▁言吾	-382
▁草央	-383
▁此	-384
▁尚田	-385
▁土成	-386
▁丿乚	-387
▁二儿	-388
▁冰	-389
▁201	-390
▁雨电	-391
▁絲巠	-392
▁刀小	-393
丷一	-394
▁人王丷	-395
▁阜完	-396
犬火	-397
▁肉犬火	-398
▁京	-399
▁京尤	-400
▁辵咼	-401
▁走己	-402
艮卩	-403
▁广付	-404
丶乀	-405
▁乛亅丶乀	-406
▁言十	-407
▁單	-408
▁單戈	-409
▁冖车	-410
▁囗二	-411
▁門日	-412
▁己	-413
▁手是	-414
▁音	-415
▁病	-416
▁6	-417
▁又寸	-418
▁水台	-419
▁占	-420
入入	-421
▁囗儿	-422
▁己攴	-423
▁上	-424
▁c	-425
▁丨丨	-426
▁s	-427
▁开	-428
▁a	-429
▁一米	-430
▁口貝	-431
▁田介	-432
▁景	-433
▁木各	-434
▁景彡	-435
▁木幾	-436
▁聿	-437
▁音心	-438
▁食	-439
▁丿乚丶丶	-440
▁手妾	-441
▁木日	-442
▁此二	-443
▁马	-444
00	-445
▁立占	-446
▁禾日	-447
▁冂入	-448
▁且	-449
▁丨乛一	-450
▁夂	-451
丨丨	-452
▁丶冂口	-453
丶目	-454
▁一丿巾	-455
▁辵隹	-456
▁禾爯	-457
▁7	-458
亠厶	-459
亠厶川	-460
▁骨豊	-461
▁土昜	-462
▁长	-463
▁丷一丶目	-464
▁歹刀	-465
爻爻	-466
▁女台	-467
▁爪冖又	-468
▁一八	-469
冂丨爻爻	-470
▁一八冂丨爻爻	-471
▁巳丨	-472
▁一日十	-473
▁禾呈	-474
▁言亥	-475
▁8	-476
▁丷开	-477
▁立日	-478
▁勹己	-479
▁手旨	-480
▁刀巴	-481
▁开彡	-482
一十	-483
or	-484
▁冂人	-485
▁f	-486
▁一廾	-487
▁尸匕	-488
▁耳又	-489
▁水寅	-490
▁𠃊	-491
▁𠃊一丿	-492
丷豕	-493
▁亠父	-494
▁十目丨一	-495
▁婁	-496
▁婁攴	-497
▁云	-498
▁生	-499
▁丿二亅	-500
▁生日	-501
▁一丿口	-502
▁攸	-503
▁手乀	-504
▁絲泉	-505
er	-506
▁酉	-507
▁片	-508
日人	-509
▁一日人	-510
▁矢	-511
▁9	-512
▁丷木	-513
▁令	-514
一亅	-515
▁一冂丨入入	-516
▁m	-517
▁大丶	-518
▁丷口丨丷曰	-519
▁刑	-520
▁刑土	-521
▁人呆	-522
▁口乂	-523
▁宀子	-524
丷二	-525
丷二木	-526
▁业丷二木	-527
▁穴工	-528
▁水彎	-529
▁云力	-530
卌一	-531
▁丿一卌一	-532
▁阜可	-533
▁几	-534
▁t	-535
▁禾重	-536
▁18	-537
▁木交	-538
▁尸龷	-539
▁草者	-540
▁一𠃋小	-541
▁人人	-542
▁丝圣	-543
▁夂口	-544
▁口口口	-545
▁水亠厶川	-546
▁阜丷豕	-547
▁10	-548
▁隹木	-549
▁少	-550
▁宀井大貝	-551
▁次	-552
▁辵寸	-553
▁厂又	-554
▁199	-555
in	-556
la	-557
且丿	-558
▁丶且丿	-559
▁幺	-560
▁手寺	-561
▁口八	-562
▁娄	-563
▁娄攴	-564
▁十口	-565
▁示土	-566
▁木几	-567
▁玉见	-568
▁小丿	-569
▁少目	-570
▁竹官	-571
▁贝	-572
▁辵井	-573
▁水工	-574
▁卯	-575
▁貝刀	-576
▁三	-577
▁辵告	-578
亅八	-579
▁人言	-580
▁b	-581
▁水可	-582
▁絲充	-583
▁人一叩	-584
▁十戈	-585
▁示申	-586
丿丨三	-587
▁三丿丨三	-588
丿丿	-589
▁12	-590
勹山	-591
▁囗口	-592
甲一	-593
▁宀匕	-594
▁一冂	-595
▁人本	-596
▁禾中	-597
on	-598
▁辵斤	-599
弓丿丿	-600
▁十日十月	-601
▁一亅	-602
▁门日	-603
an	-604
▁艮卩	-605
▁方丿一矢	-606
▁禾女	-607
▁丶冂	-608
▁絲勺	-609
▁水州	-610
▁門幺幺丱	-611
刀牛	-612
▁角刀牛	-613
▁耳幺幺丱	-614
▁一业	-615
▁十又	-616
▁占戈	-617
▁宀㠯	-618
▁丿一卌一火	-619
▁心青	-620
一草	-621
▁草一草	-622
▁草一草一十	-623
▁人門	-624
▁禾尔	-625
▁p	-626
▁辵軍	-627
▁亠口小	-628
▁小兀	-629
▁夫	-630
▁二小	-631
▁口贝	-632
冂儿	-633
冂儿口	-634
▁亠丷冂儿口	-635
▁黑	-636
▁今	-637
▁辵土	-638
▁辵土羊	-639
▁丨丨丷一	-640
▁丿乙	-641
▁吉	-642
▁上卜	-643
▁水舌	-644
▁王	-645
▁辵巽	-646
▁h	-647
▁丘	-648
▁爿肉寸將	-649
▁人牛	-650
口口	-651
▁絲悤	-652
▁号	-653
▁古	-654
▁水青	-655
▁号虎	-656
土儿	-657
▁丿土儿	-658
▁君	-659
▁日木	-660
▁日乚	-661
▁亠厶	-662
▁石开	-663
▁亠丿	-664
▁亠丿亅八	-665
▁言己	-666
▁手舌	-667
▁手戈	-668
▁化	-669
▁d	-670
▁小彐	-671
▁乂	-672
▁方攴	-673
厂氏	-674
▁刀口丨	-675
▁11	-676
▁亠丷冖巾	-677
▁革	-678
人彡	-679
▁彳主	-680
▁片反	-681
大口口	-682
▁口口大口口	-683
人人疋	-684
▁彳人人疋	-685
丿乚	-686
十一	-687
▁絲且	-688
▁土厶	-689
▁丩	-690
▁丩攴	-691
▁尸一	-692
▁月一	-693
▁矛	-694
▁一冂十一	-695
▁言兌	-696
▁彳艮	-697
▁网維	-698
▁一木	-699
▁丿日	-700
▁宀貫	-701
幺木	-702
▁幺白	-703
▁幺白幺木	-704
▁羊我	-705
▁水皮	-706
▁弓丨	-707
▁宀元	-708
▁产	-709
▁产生	-710
丶乛	-711
▁人丶乛	-712
▁一弋	-713
▁一弋止	-714
二口	-715
▁二二口	-716
▁言午	-717
▁子	-718
▁示見	-719
匸一亅	-720
▁尸一匸一亅	-721
▁絲言	-722
▁言義	-723
▁並	-724
▁並日	-725
▁一冂丨人人	-726
▁离	-727
▁离隹	-728
▁衣刀	-729
▁木艮	-730
一𠃑	-731
▁立月	-732
一乚三	-733
▁立月一𠃑	-734
▁立月一𠃑一乚三	-735
▁丝充	-736
▁丿一母	-737
▁水厂氏	-738
▁且厶	-739
▁类	-740
▁类頁	-741
▁阜余	-742
▁人專	-743
▁穴九	-744
▁丄	-745
▁丄丿	-746
▁矛务	-747
▁絲吉	-748
▁羊丿	-749
▁是	-750
▁矢口	-751
▁女也	-752
▁士口	-753
▁立丿	-754
▁丘八	-755
▁丨一	-756
▁口力	-757
人隹	-758
▁草闌	-759
▁网夕	-760
▁人列	-761
▁言忍	-762
en	-763
▁幸	-764
▁人一卩	-765
二丨二	-766
▁尸二丨二	-767
▁阜人	-768
▁人门	-769
▁県	-770
▁県系	-771
▁198	-772
▁虫	-773
▁木子	-774
▁月卩又	-775
▁n	-776
▁尸古	-777
一丶	-778
▁宀示	-779
▁广人隹	-780
▁言周	-781
▁埶	-782
▁尸二丨二蜀	-783
▁玄	-784
▁囗卄	-785
▁耳关	-786
▁手丁	-787
▁火火	-788
▁聿曰	-789
▁亠厶肉	-790
▁叀	-791
▁亠八	-792
▁一人子	-793
口心	-794
▁丷口心	-795
▁囗專	-796
▁工力	-797
▁手隹	-798
▁丿丰殳	-799
▁g	-800
▁土弓丿丿	-801
▁女子	-802
▁曲	-803
卜人	-804
▁口卜人	-805
▁丷天	-806
▁草化	-807
▁白王	-808
▁歹匕	-809
▁r	-810
▁魚	-811
▁目一八	-812
ar	-813
▁一𠃋十	-814
▁丝戋	-815
▁辵束	-816
▁宀头	-817
▁哥	-818
▁哥欠	-819
丶丶十	-820
▁玄冰	-821
▁玄冰丶丶十	-822
▁广人隹心	-823
▁宀各	-824
▁戊一	-825
▁舟亢	-826
▁水原	-827
▁丿乁	-828
▁乂布	-829
▁示畐	-830
▁丷三	-831
▁爪聿	-832
▁广黃	-833
▁水一丶	-834
▁絲言夕	-835
▁雚	-836
▁辵云	-837
▁辵大	-838
▁戊一女	-839
▁工攴	-840
▁日十	-841
▁厽	-842
▁禾子	-843
▁與	-844
▁人尹	-845
一田	-846
一田八	-847
▁口刀	-848
▁口刀刀	-849
▁攸彡	-850
▁网直	-851
▁卜	-852
▁麻	-853
▁丝且	-854
▁广坐	-855
▁手殳	-856
▁走召	-857
夕几	-858
▁虎夕几	-859
▁for	-860
▁人共	-861
▁次貝	-862
凵殳	-863
▁車凵殳	-864
▁厽人彡	-865
▁一白	-866
▁匚	-867
土口	-868
▁冂土口	-869
▁宀亘	-870
彐一	-871
▁丶彐一	-872
▁丶彐一勹山	-873
▁土曾	-874
▁絲己	-875
丿一丶	-876
▁化十	-877
mu	-878
▁_	-879
▁戶乛一	-880
▁草禺	-881
▁丶乂	-882
▁火火冖	-883
▁宀必	-884
▁身	-885
▁15	-886
▁木雚	-887
▁敕	-888
▁敕正	-889
▁月邑	-890
▁古攴	-891
▁令頁	-892
▁弓長	-893
田一	-894
▁人分	-895
▁言兑	-896
▁金真	-897
▁犬蒦	-898
▁丷人	-899
▁至攴	-900
▁黑占	-901
八口	-902
冖至	-903
▁吉冖至	-904
▁丶一丿	-905
▁口丂	-906
▁彳山	-907
▁尚黑	-908
▁几一	-909
勹又	-910
▁土或	-911
▁手番	-912
▁車凵殳手	-913
▁水勹又	-914
▁亡	-915
▁丿夫	-916
▁土匀	-917
▁宀谷	-918
▁且力	-919
▁㇆㇆	-920
▁道	-921
▁道寸	-922
▁口口甲一	-923
丶丶亅	-924
▁丨一二	-925
▁丨一二丶丶亅	-926
▁丝勺	-927
▁日勿	-928
▁手支	-929
▁走戉	-930
▁雨而	-931
▁言侖	-932
▁丨丿	-933
▁豆	-934
▁尸禹	-935
mula	-936
▁人乃	-937
▁戶乛一帀	-938
▁安	-939
▁安木	-940
▁一亅丿	-941
▁宀必山	-942
▁formula	-943
▁豆頁	-944
▁木莫	-945
▁丷一十	-946
▁卬	-947
▁辵不	-948
▁/	-949
▁身寸	-950
▁與二丨	-951
▁人更	-952
▁194	-953
▁16	-954
▁亦	-955
▁斤	-956
▁木旦	-957
▁辵車	-958
▁人白	-959
乛一矢	-960
▁卬一	-961
▁廿丿乚	-962
▁廿丿乚冖巾	-963
▁交	-964
▁絲隹	-965
▁彐	-966
▁17	-967
▁弓厶	-968
▁辛	-969
▁君羊	-970
▁人可	-971
▁i	-972
▁l	-973
▁叀寸	-974
▁屯	-975
哉王	-976
▁金哉王	-977
▁刀口丨豕	-978
▁車專	-979
▁車交	-980
▁丰丝	-981
▁丰月	-982
▁氣	-983
▁土竟	-984
▁手巴	-985
▁一勹	-986
刂王	-987
▁王刂王	-988
▁197	-989
▁竹目	-990
▁宀井大贝	-991
▁水少	-992
▁人专	-993
▁丝吉	-994
▁食官	-995
▁水又	-996
▁相	-997
▁相心	-998
▁米大	-999
▁臣	-1000
▁人良	-1001
▁辵睘	-1002
▁w	-1003
es	-1004
▁木又	-1005
▁弗	-1006
小一	-1007
▁几一蟲	-1008
▁巾	-1009
▁加	-1010
▁牛口	-1011
▁土丿匕	-1012
丷一口	-1013
▁广小一	-1014
▁一乚	-1015
▁土丿丂	-1016
▁阜艮	-1017
▁人象	-1018
▁一尢	-1019
▁手非	-1020
▁日召	-1021
禾禾	-1022
▁厂禾禾	-1023
▁止小	-1024
▁攸木	-1025
▁草洛	-1026
▁病丙	-1027
▁口合	-1028
木丶	-1029
▁行木丶	-1030
▁土荅	-1031
▁手豦	-1032
▁幸卩又	-1033
▁言舌	-1034
▁絲及	-1035
▁夕力	-1036
▁阜祭	-1037
▁木票	-1038
▁占火	-1039
▁竹艮卩	-1040
▁z	-1041
▁水夬	-1042
▁十目一八	-1043
▁人氐	-1044
▁言义	-1045
▁令页	-1046
丶一	-1047
▁聿田一	-1048
▁千	-1049
▁咸	-1050
▁咸心	-1051
al	-1052
▁竹目廾	-1053
▁冂大	-1054
▁丝及	-1055
▁鱼	-1056
▁明	-1057
▁豦	-1058
▁豦刀	-1059
▁明皿	-1060
▁八乂	-1061
▁米斗	-1062
▁氣米	-1063
ic	-1064
at	-1065
▁羽	-1066
▁水罙	-1067
▁制	-1068
▁方丿一也	-1069
▁弓厶蟲	-1070
▁水胡	-1071
丷土	-1072
丷土火	-1073
▁口丷土火	-1074
▁丶一	-1075
▁丝隹	-1076
▁制衣	-1077
▁行圭	-1078
▁言人	-1079
▁—	-1080
▁195	-1081
▁采	-1082
▁上丨	-1083
▁交攴	-1084
▁水各	-1085
▁人主	-1086
▁言司	-1087
▁言平	-1088
▁目儿	-1089
▁宀至	-1090
▁木寸	-1091
▁草阜	-1092
▁十尃	-1093
▁曲八	-1094
▁氶	-1095
▁莫	-1096
▁尚土	-1097
▁廿口	-1098
▁雚見	-1099
▁卯田	-1100
▁e	-1101
▁手居	-1102
▁手目	-1103
▁田心	-1104
▁彳聿	-1105
▁丶冂采	-1106
▁廿口十	-1107
中一	-1108
▁广廿巾	-1109
▁亦又	-1110
▁舟殳	-1111
▁尚儿	-1112
▁巳寸	-1113
▁196	-1114
▁千丨	-1115
▁今心	-1116
▁酉己	-1117
▁阜方	-1118
▁予	-1119
▁丶丨	-1120
▁氏	-1121
▁言式	-1122
▁米青	-1123
▁水昷	-1124
▁言若	-1125
▁斤斤	-1126
▁斤斤貝	-1127
▁林	-1128
▁亲見	-1129
▁雨田	-1130
▁o	-1131
▁士心	-1132
▁良	-1133
▁丿丨丨	-1134
▁日京	-1135
▁阜夅	-1136
▁癶豆	-1137
▁水斿	-1138
▁水肖	-1139
▁羊丿目	-1140
▁十人	-1141
▁人故	-1142
▁禾多	-1143
▁贝刀	-1144
▁絲賣	-1145
▁辵袁	-1146
▁革力	-1147
▁倉	-1148
▁倉刀	-1149
▁人弗	-1150
▁言仑	-1151
▁草冖	-1152
▁丿丨	-1153
▁丿丨木	-1154
▁囗啚	-1155
▁是頁	-1156
▁草办	-1157
▁氶三	-1158
▁丶冂米	-1159
▁丅	-1160
▁耳戠	-1161
▁丿十	-1162
▁人直	-1163
▁气	-1164
▁阜坴	-1165
▁厶大	-1166
▁埶力	-1167
心夂	-1168
▁爪冖心夂	-1169
▁厶大彡	-1170
▁囗才	-1171
▁厂禾禾止	-1172
▁木示	-1173
▁手比	-1174
▁敬	-1175
▁合	-1176
▁辵先	-1177
▁丝己	-1178
目又	-1179
▁曰目又	-1180
▁木丶	-1181
▁人衣	-1182
▁手空	-1183
▁叔	-1184
▁叔目	-1185
▁广隶	-1186
▁0	-1187
▁13	-1188
▁193	-1189
▁田力	-1190
▁壯	-1191
▁自	-1192
▁14	-1193
▁厂十	-1194
▁區	-1195
▁勹丶	-1196
▁冖元	-1197
▁冖元寸	-1198
▁宀井大土	-1199
▁厂力	-1200
▁宀寸	-1201
▁辵斿	-1202
▁壯衣	-1203
▁心丿	-1204
▁口昌	-1205
▁水羊	-1206
▁辵术	-1207
▁立早	-1208
▁可	-1209
▁可可	-1210
▁將	-1211
▁金失	-1212
月王	-1213
▁亡月王	-1214
▁丶冂米大	-1215
▁大可	-1216
▁區欠	-1217
▁半	-1218
is	-1219
▁k	-1220
▁j	-1221
▁門口	-1222
▁广氐	-1223
▁zh	-1224
▁人丨乛一矢	-1225
▁囗冬	-1226
▁丶冂采大	-1227
▁水奥	-1228
▁畐	-1229
▁畐刀	-1230
▁手亢	-1231
▁西示	-1232
▁阜遀	-1233
▁火火冖呂	-1234
▁木木木	-1235
▁土土	-1236
▁列	-1237
▁日召火	-1238
▁水殳	-1239
革大	-1240
▁辵艮	-1241
▁今口	-1242
犬犬	-1243
▁草犬犬	-1244
▁宀畐	-1245
▁丨丿帀	-1246
▁囗袁	-1247
▁户	-1248
▁木羕	-1249
▁金艮	-1250
▁木直	-1251
▁絲合	-1252
▁}	-1253
▁人我	-1254
▁{	-1255
000	-1256
力辛	-1257
▁辛力辛	-1258
▁金彔	-1259
▁將犬	-1260
▁石皮	-1261
一亅丿	-1262
▁丅一亅丿	-1263
▁水革大	-1264
▁另	-1265
▁另刀	-1266
▁人以	-1267
▁絲罔	-1268
▁丷甲一	-1269
▁夫見	-1270
▁瓦	-1271
▁一丿又	-1272
▁阜示	-1273
▁言青	-1274
▁飞	-1275
升飞	-1276
▁飞升飞	-1277
▁手乇	-1278
▁絲內	-1279
▁臼同	-1280
▁衣里	-1281
▁谷	-1282
▁絲冬	-1283
▁夕木	-1284
▁网丿丨	-1285
▁网丿丨人人	-1286
▁阜付	-1287
▁絲扁	-1288
▁阜東	-1289
el	-1290
▁臼同大	-1291
it	-1292
▁心夬	-1293
▁手卩又	-1294
▁宀祭	-1295
▁木勾	-1296
▁木亥	-1297
▁能	-1298
▁草冡	-1299
▁草臧	-1300
▁不	-1301
▁木冓	-1302
▁草穌	-1303
▁女母	-1304
肀口	-1305
▁广肀口	-1306
▁土土寸	-1307
▁廿一田八	-1308
口王	-1309
▁耳口王	-1310
▁人亭	-1311
▁合手	-1312
▁手受	-1313
▁穴犬	-1314
▁十冖	-1315
▁十冖丝	-1316
豆戈	-1317
▁玉耑	-1318
▁虎豆戈	-1319
▁弓长	-1320
▁一自	-1321
▁卜口	-1322
▁乞	-1323
▁乞一	-1324
▁十劦	-1325
▁丝内	-1326
日夕	-1327
▁刀聿	-1328
▁丿一日夕	-1329
▁水隹	-1330
▁宀丰	-1331
▁次贝	-1332
▁一自夕	-1333
▁牙	-1334
▁勹丶勹山	-1335
▁卅	-1336
▁卅冖巾	-1337
▁一丿工	-1338
▁兴	-1339
▁水主	-1340
▁因	-1341
▁因心	-1342
▁工頁	-1343
▁手乀水	-1344
▁30	-1345
▁丷夫	-1346
▁片卑	-1347
▁臼儿	-1348
▁辵由	-1349
▁亠口冖	-1350
厂用	-1351
草厂用	-1352
▁人草厂用	-1353
▁丨丨丿一丶	-1354
▁丿入	-1355
▁敬言	-1356
▁示见	-1357
▁木口	-1358
▁玉睘	-1359
▁示且	-1360
▁舟八口	-1361
▁草早	-1362
一幺幺	-1363
▁冰夬	-1364
▁阜日	-1365
▁厂十贝	-1366
▁木亟	-1367
▁v	-1368
▁行韋	-1369
丨一幺幺	-1370
丨一幺幺一幺幺	-1371
▁絲丨一幺幺一幺幺	-1372
▁阜击	-1373
▁丶匸	-1374
▁戶方	-1375
▁192	-1376
▁言襄	-1377
▁乙	-1378
▁畫	-1379
▁畫刀	-1380
▁自心	-1381
▁鄉	-1382
▁几乂	-1383
le	-1384
▁宀舄	-1385
▁方丿一氏	-1386
▁甘匹	-1387
▁水齐	-1388
▁竹朿	-1389
▁文	-1390
▁犬蜀	-1391
▁草埶	-1392
▁草埶云	-1393
▁十疋	-1394
▁二丨龴	-1395
▁冰隹	-1396
▁里	-1397
丶丿	-1398
▁夫见	-1399
▁鄉音	-1400
幺幺火	-1401
▁声	-1402
▁声殳	-1403
▁手詹	-1404
▁里予	-1405
▁加木	-1406
▁广占	-1407
▁冂丶一	-1408
▁比	-1409
▁土矣	-1410
▁广予	-1411
▁囗韋	-1412
▁保	-1413
▁丶一水	-1414
▁尸曽	-1415
▁小冋	-1416
he	-1417
▁禾責	-1418
▁辵豕	-1419
▁木羊	-1420
un	-1421
▁弗貝	-1422
▁杀	-1423
▁禾北	-1424
又二丨	-1425
▁絲工	-1426
丿止	-1427
▁丰邑	-1428
▁廴丿止	-1429
▁冂乂	-1430
▁彡	-1431
▁声殳耳	-1432
▁享	-1433
▁虽	-1434
▁虽隹	-1435
▁亚	-1436
▁木婁	-1437
▁君邑	-1438
▁貝攴	-1439
▁厷	-1440
▁戈	-1441
▁厷隹	-1442
▁竹卩	-1443
▁丿一匕	-1444
▁戈刀	-1445
▁弓虽	-1446
▁人丿一	-1447
▁保土	-1448
▁草右	-1449
▁土旦	-1450
▁匕	-1451
一小	-1452
▁二山	-1453
ro	-1454
▁杀殳	-1455
▁七	-1456
▁七刀	-1457
▁手乀日	-1458
▁25	-1459
▁言登	-1460
▁2008	-1461
▁阜昜	-1462
▁半刀	-1463
▁山厈	-1464
▁丝合	-1465
▁刀口丨儿	-1466
▁是页	-1467
▁宀木	-1468
▁离隹離	-1469
九木	-1470
▁2006	-1471
▁阜迶	-1472
▁门口	-1473
▁臤	-1474
us	-1475
夂生	-1476
▁阜夂生	-1477
▁仓	-1478
▁车专	-1479
▁仓刀	-1480
▁爿犬	-1481
▁隹口	-1482
▁辵曹	-1483
▁水由	-1484
▁言蒦	-1485
▁矢豆	-1486
▁辵车	-1487
▁隹隹	-1488
▁水酉	-1489
▁隹隹又	-1490
兀攴	-1491
▁彳山兀攴	-1492
▁水齊	-1493
▁言寺	-1494
am	-1495
▁彳殳	-1496
▁丷弔丿	-1497
▁丶丶	-1498
▁禾只	-1499
▁羊丿工	-1500
▁2007	-1501
as	-1502
幺幺火頁	-1503
▁日幺幺火頁	-1504
▁肉殳	-1505
▁谷卩	-1506
▁肉劵	-1507
▁立耑	-1508
▁辵自	-1509
穴方	-1510
▁辵自穴方	-1511
▁十日十人	-1512
▁耳只	-1513
▁co	-1514
丿丨又	-1515
▁乛丿丨又	-1516
▁丶丶大	-1517
▁辵关	-1518
▁每	-1519
▁田各	-1520
▁幺幺	-1521
▁幺幺戈	-1522
日大	-1523
▁人侖	-1524
▁人圭	-1525
▁冂乂乂	-1526
▁丶皿	-1527
et	-1528
▁车交	-1529
▁埶灬	-1530
▁区	-1531
▁水隹十	-1532
丷一加	-1533
▁吉丷一加	-1534
▁止戊	-1535
▁兴二丨	-1536
ion	-1537
▁彐水	-1538
▁方丿一其	-1539
▁人叚	-1540
▁丶艮	-1541
▁艹	-1542
▁又见	-1543
丁丶丿	-1544
▁殹	-1545
▁止戊丁丶丿	-1546
▁力八	-1547
▁殹酉	-1548
▁彳复	-1549
▁21	-1550
▁艹一田八	-1551
▁能心	-1552
▁赤	-1553
▁良月	-1554
▁每攴	-1555
▁女昏	-1556
▁区欠	-1557
▁巨	-1558
▁巨丨丨	-1559
▁舌	-1560
▁羊丷一口	-1561
▁木公	-1562
▁幺幺戈人	-1563
il	-1564
▁网者	-1565
▁一十	-1566
▁日免	-1567
▁191	-1568
▁牙隹	-1569
▁臣丿一丶	-1570
▁分	-1571
▁冂丿乚	-1572
▁麻手	-1573
▁手采	-1574
▁广廷	-1575
▁金肖	-1576
▁尸毛	-1577
▁中一	-1578
▁弓單	-1579
▁丝扁	-1580
▁一彑	-1581
ur	-1582
月攴	-1583
▁井月攴	-1584
▁竹耤	-1585
▁户一	-1586
▁屯頁	-1587
▁冖与	-1588
▁人堇	-1589
▁刀貝	-1590
▁彳正	-1591
▁十戈車	-1592
▁步	-1593
▁!	-1594
▁居	-1595
▁居刀	-1596
金刀	-1597
▁草乂	-1598
▁木每	-1599
▁尹	-1600
▁尹口	-1601
▁草日大	-1602
▁北	-1603
▁水則	-1604
▁人賈	-1605
▁禾乃	-1606
▁2005	-1607
▁丝冬	-1608
ac	-1609
▁丝工	-1610
▁成	-1611
▁言卂	-1612
▁車咠	-1613
▁絲戠	-1614
▁成皿	-1615
▁龴	-1616
▁言正	-1617
▁石隺	-1618
▁辵力	-1619
▁列火	-1620
▁立木	-1621
示欠	-1622
▁士示欠	-1623
冂丨入入	-1624
廿冂丨入入	-1625
▁足巨	-1626
▁酉夋	-1627
▁壮	-1628
▁壮衣	-1629
▁又土	-1630
▁古肉	-1631
▁十办	-1632
▁x	-1633
▁草氾	-1634
育攵	-1635
▁卩一	-1636
▁亠人	-1637
田火	-1638
▁刀田火	-1639
乛亅	-1640
▁龴乛亅	-1641
▁人止	-1642
▁黍	-1643
▁2000	-1644
▁工页	-1645
▁甘木	-1646
▁丝卖	-1647
▁火暴	-1648
▁鱼日	-1649
▁水廿冂丨入入	-1650
▁24	-1651
▁舟監	-1652
▁卯金刀	-1653
▁弓丿丨	-1654
▁士口丷一口	-1655
▁人系	-1656
▁22	-1657
▁革大	-1658
▁草阜产	-1659
▁丁	-1660
▁土寸	-1661
▁尤	-1662
▁尤丿	-1663
▁言者	-1664
▁彳走	-1665
戶乛一	-1666
▁辵戶乛一	-1667
丨丨八	-1668
▁丷一彐	-1669
▁丷一彐丨丨八	-1670
▁囗元	-1671
▁犬虫	-1672
▁宀丰口	-1673
▁赤赤	-1674
▁爪木	-1675
冂厶	-1676
▁人仑	-1677
▁手爰	-1678
▁缶	-1679
▁耳邑	-1680
▁丝只	-1681
▁广乛一	-1682
▁广乛一丨丨	-1683
▁辵秀	-1684
▁宀呂	-1685
▁丰貝	-1686
品木	-1687
冖又	-1688
彐冖又	-1689
▁朿	-1690
▁水八口	-1691
▁手雍	-1692
▁水聿	-1693
▁匚乛一	-1694
▁尸至	-1695
▁丿一十	-1696
▁竹巩	-1697
▁手户	-1698
▁夂田	-1699
▁竹間	-1700
▁予頁	-1701
▁the	-1702
▁日共	-1703
▁日共水	-1704
▁23	-1705
▁言賣	-1706
▁口向	-1707
▁廴壬	-1708
▁草何	-1709
re	-1710
▁丿尸	-1711
人口	-1712
▁手白	-1713
▁疋	-1714
▁玉不	-1715
▁木反	-1716
▁土咅	-1717
▁草阜產	-1718
▁人二	-1719
▁北肉	-1720
▁木及	-1721
▁木才	-1722
▁革大隹	-1723
▁人布	-1724
▁林示	-1725
▁草非	-1726
▁丬夕	-1727
▁宀丁	-1728
▁丿未	-1729
▁臣丿一	-1730
▁丨二	-1731
幺幺斤	-1732
▁丨二幺幺	-1733
▁丨二幺幺幺幺斤	-1734
▁幸丸	-1735
▁手安	-1736
勹丿	-1737
▁草冖吕	-1738
▁黍勹丿	-1739
▁人丿丨	-1740
▁口及	-1741
▁乡	-1742
▁竹付	-1743
于八	-1744
▁人于八	-1745
一八皿	-1746
▁丷一八皿	-1747
▁亥	-1748
▁爪冖友	-1749
▁乡郎	-1750
丨一米	-1751
▁丝丨一米	-1752
▁丷六	-1753
▁奴	-1754
▁网非	-1755
▁2004	-1756
▁筑	-1757
▁筑木	-1758
ing	-1759
▁口隹	-1760
▁八人口	-1761
▁門耳	-1762
▁比白	-1763
▁女某	-1764
▁言川	-1765
▁求	-1766
▁求攴	-1767
▁乙丷	-1768
▁王丶	-1769
▁丿一卌一舛	-1770
▁水兄	-1771
▁厭	-1772
▁手苗	-1773
▁示豊	-1774
▁魚日	-1775
▁厭土	-1776
▁立里	-1777
▁田共	-1778
▁彡頁	-1779
丷一亅	-1780
▁丿丷一亅	-1781
▁辵余	-1782
凵士	-1783
▁尸凵士	-1784
▁足艮	-1785
▁2010	-1786
▁不口	-1787
▁爪龴	-1788
冂厶又	-1789
▁爪龴冂厶又	-1790
▁草帝	-1791
▁人人人	-1792
▁丰毋	-1793
▁絲田	-1794
▁2009	-1795
尸丨	-1796
▁士尸丨	-1797
▁囗古	-1798
▁言寸	-1799
▁草来	-1800
▁食丿一	-1801
▁知	-1802
▁知日	-1803
os	-1804
▁28	-1805
ol	-1806
▁人占	-1807
▁食丿一巾	-1808
▁言方	-1809
▁絲刀	-1810
▁絲刀巴	-1811
▁水敫	-1812
▁人又	-1813
車卩	-1814
▁竹車卩	-1815
▁亥刀	-1816
▁尸云	-1817
▁囗韦	-1818
▁匚矢	-1819
▁言戠	-1820
▁人丿一昜	-1821
▁又戈	-1822
▁曲辰	-1823
𠄌丶丶	-1824
▁禾厶	-1825
▁宀王	-1826
爭爭	-1827
▁爪聿爭爭	-1828
缶貝	-1829
▁宀王缶貝	-1830
ch	-1831
▁26	-1832
▁霝	-1833
▁人十	-1834
▁食余	-1835
▁草隹	-1836
▁草隹臼	-1837
▁雨云	-1838
▁霝巫	-1839
厂敢	-1840
▁口口厂敢	-1841
▁日曰	-1842
夕丶	-1843
▁亠人夕丶	-1844
▁人憂	-1845
▁二厶	-1846
ow	-1847
▁尢	-1848
▁手奐	-1849
▁亠允	-1850
▁缶夬	-1851
▁馬僉	-1852
▁目艮	-1853
▁石角	-1854
▁手手	-1855
▁木喬	-1856
▁莫巾	-1857
▁st	-1858
▁丬夕大	-1859
▁执	-1860
▁宀于	-1861
▁手品木	-1862
▁草枼	-1863
ed	-1864
▁干刀	-1865
▁羽白	-1866
▁享攴	-1867
▁辵白	-1868
▁水昆	-1869
▁番	-1870
▁女生	-1871
▁土皮	-1872
▁手育攵	-1873
▁草乙	-1874
▁弗贝	-1875
▁折	-1876
▁in	-1877
▁000	-1878
▁27	-1879
▁一由	-1880
▁車巠	-1881
▁山夆	-1882
▁夫夫	-1883
▁车害	-1884
▁肉包	-1885
▁目八	-1886
▁手犮	-1887
▁𠃋	-1888
𠃋丿	-1889
▁𠃋𠃋丿	-1890
▁麻鬼	-1891
▁一由凵	-1892
刅木	-1893
▁水刅木	-1894
王王	-1895
王王亅	-1896
▁丨王王亅	-1897
▁尢丶	-1898
▁木乔	-1899
▁夫夫曰	-1900
▁酋	-1901
▁絲柬	-1902
▁番羽	-1903
▁大隹	-1904
▁丬犬	-1905
▁手乀禾	-1906
▁十日十韋	-1907
▁辵反	-1908
▁石馬	-1909
▁耳又乑	-1910
▁太	-1911
▁木土	-1912
▁太心	-1913
▁日央	-1914
▁客	-1915
▁刍	-1916
▁宀一	-1917
▁辵禺	-1918
▁言丁	-1919
▁丨丨又	-1920
▁水乏	-1921
id	-1922
▁又又	-1923
▁han	-1924
▁朿刀	-1925
▁言果	-1926
▁雨彐	-1927
▁水斬	-1928
▁人木	-1929
▁阜夌	-1930
▁言睪	-1931
▁丽	-1932
▁执火	-1933
▁木既	-1934
▁穴牙	-1935
▁手罙	-1936
▁雨路	-1937
▁辵兆	-1938
▁宀草	-1939
▁口十	-1940
▁丽鹿	-1941
▁100	-1942
▁口乎	-1943
▁2003	-1944
▁十日十人羽	-1945
▁2012	-1946
▁歹直	-1947
▁尸乀	-1948
▁禾必	-1949
▁手氐	-1950
▁人彐冖又	-1951
▁原	-1952
▁50	-1953
▁草來	-1954
▁人尔	-1955
巛囟	-1956
▁子系	-1957
▁阜車	-1958
▁刀口	-1959
ent	-1960
▁日业	-1961
▁凵氶	-1962
▁马佥	-1963
▁阜皆	-1964
▁巩	-1965
▁水则	-1966
▁辵辟	-1967
▁乂一小	-1968
▁竹扁	-1969
▁屯页	-1970
▁𠂤	-1971
止帚	-1972
▁𠂤止帚	-1973
▁中	-1974
▁臣丿一丶皿	-1975
▁巾白	-1976
▁告	-1977
▁阜东	-1978
▁中心	-1979
▁木娄	-1980
▁2011	-1981
▁an	-1982
▁手甫	-1983
▁水咸	-1984
▁禾火	-1985
▁土止	-1986
▁'	-1987
草两	-1988
▁广敞	-1989
▁彳寺	-1990
▁告非	-1991
▁言炎	-1992
▁方丿一疋	-1993
▁水奚	-1994
▁水朝	-1995
▁of	-1996
▁手乀一十	-1997
▁口丩	-1998
▁金竟	-1999
▁人意	-2000
▁水九木	-2001
▁貝冓	-2002
▁190	-2003
▁手旦	-2004
心夕	-2005
▁車侖	-2006
▁玉元	-2007
▁丷夫卩	-2008
▁气羊	-2009
▁水草两	-2010
▁夭	-2011
▁水曼	-2012
▁人介	-2013
丶丶丶丶	-2014
▁一聿	-2015
▁一聿女	-2016
▁良邑	-2017
▁丝田	-2018
▁火乍	-2019
口攴	-2020
▁戶口攴	-2021
▁來	-2022
▁一冂丨丶丶丶丶	-2023
▁犬卩	-2024
丶一丨	-2025
▁丶丶一丨	-2026
▁彳山一	-2027
▁來夕	-2028
▁鬲	-2029
▁非	-2030
▁>	-2031
▁29	-2032
▁鬲虫	-2033
▁木倉	-2034
▁木白	-2035
▁言射	-2036
ad	-2037
▁广朝	-2038
▁去	-2039
▁2002	-2040
▁車俞	-2041
ig	-2042
▁言斥	-2043
▁口未	-2044
▁辵巛	-2045
▁十戈车	-2046
王攴	-2047
ut	-2048
▁冂人人	-2049
▁羽異	-2050
▁匕矢	-2051
▁火火冖木	-2052
▁臣丿一品	-2053
▁卒	-2054
八隹	-2055
▁卒八隹	-2056
米斤	-2057
▁丨一米斤	-2058
▁彳山一王攴	-2059
丨丿一	-2060
丨丿一亅	-2061
▁丿一丨丿一亅	-2062
▁水共	-2063
▁巩心	-2064
▁山夕	-2065
▁人則	-2066
▁]	-2067
▁<	-2068
▁2013	-2069
▁[	-2070
▁大隹寸	-2071
▁水氣	-2072
龴疋	-2073
▁匕矢龴疋	-2074
▁每攴丝	-2075
▁丶尸	-2076
▁束	-2077
▁口儿	-2078
▁刍心	-2079
▁ch	-2080
▁手乀夭	-2081
▁水夭	-2082
▁阜鬲	-2083
▁人建	-2084
▁辵卬	-2085
▁彳余	-2086
▁31	-2087
▁广車	-2088
▁木尌	-2089
▁开刀	-2090
▁40	-2091
▁木斤	-2092
▁y	-2093
彐心	-2094
▁大镸	-2095
▁文刀	-2096
▁冰兄	-2097
▁阜且	-2098
▁竹间	-2099
丰丰	-2100
丰丰豆	-2101
▁山丰丰豆	-2102
爪工	-2103
爪工彐心	-2104
▁埶力勢	-2105
▁冰令	-2106
▁叀心	-2107
▁病正	-2108
▁木昜	-2109
▁刀贝	-2110
▁丰贝	-2111
▁雨隹	-2112
▁金十	-2113
▁辵西	-2114
▁厃	-2115
▁厃卩	-2116
▁折口	-2117
▁肉巛囟	-2118
om	-2119
▁2014	-2120
▁言上	-2121
▁十戈異	-2122
▁手聶	-2123
▁采睪	-2124
▁山石	-2125
▁人谷	-2126
▁肉生	-2127
▁禾且	-2128
▁人寸	-2129
▁水度	-2130
▁止肉	-2131
▁火包	-2132
▁手奂	-2133
▁委	-2134
▁委鬼	-2135
白小彡	-2136
▁禾白小彡	-2137
▁貝才	-2138
▁田艹	-2139
▁田艹一十	-2140
▁夗	-2141
大己	-2142
iv	-2143
口手	-2144
▁尚口手	-2145
▁草重	-2146
▁人乛一矢	-2147
▁口王	-2148
▁贝攴	-2149
▁丿干	-2150
▁辵西大己	-2151
▁絲戔	-2152
ot	-2153
▁草分	-2154
▁羊食	-2155
▁广车	-2156
▁金昔	-2157
▁人山	-2158
▁草樂	-2159
▁刁	-2160
▁宀且	-2161
▁言只	-2162
▁厂圡	-2163
▁白水	-2164
乛心夕	-2165
▁广乛一丨丨乛心夕	-2166
▁辵啇	-2167
▁辵米	-2168
▁人并	-2169
▁广兼	-2170
▁多	-2171
▁多句	-2172
▁子亥	-2173
▁辵貴	-2174
▁水夜	-2175
▁2001	-2176
ir	-2177
共殳	-2178
▁尸共殳	-2179
▁丨丨丿一丶口丨	-2180
▁广大	-2181
▁又隹	-2182
▁金帛	-2183
▁2015	-2184
▁2016	-2185
▁冰水	-2186
st	-2187
▁手用	-2188
▁子乙	-2189
▁敝	-2190
▁酋寸	-2191
▁林疋	-2192
▁田丁	-2193
▁采彡	-2194
▁虎儿	-2195
▁刁丶	-2196
▁丨丿彐	-2197
▁十日十韦	-2198
▁宀吕	-2199
▁囗員	-2200
ia	-2201
▁辵周	-2202
▁夕冰	-2203
▁川頁	-2204
▁疋虫	-2205
▁化貝	-2206
▁水步	-2207
▁尸由	-2208
▁十日十乞	-2209
▁十戈衣	-2210
▁人人土	-2211
▁人到	-2212
▁日音	-2213
▁辵贵	-2214
▁br	-2215
▁丝色	-2216
▁果	-2217
丶冂	-2218
丶冂丶	-2219
▁一冂丶冂丶	-2220
▁立十	-2221
▁青	-2222
▁卄	-2223
曰日	-2224
▁卄曰日	-2225
▁玉朱	-2226
▁金童	-2227
▁亠口冖儿	-2228
▁囗卷	-2229
im	-2230
▁黑土	-2231
▁雨令	-2232
▁亚丿	-2233
▁水同	-2234
▁手召	-2235
▁奴力	-2236
▁余	-2237
▁u	-2238
▁草監	-2239
▁人桀	-2240
▁雨辰	-2241
▁亠口子	-2242
▁石更	-2243
▁玉玉	-2244
▁宀玉	-2245
▁舟见	-2246
▁步頁	-2247
▁列衣	-2248
▁絲丑	-2249
▁廿一	-2250
▁189	-2251
▁十豆	-2252
▁十豆支	-2253
▁衣甫	-2254
▁玉玉今	-2255
▁山宗	-2256
▁豸	-2257
▁人義	-2258
▁車欠	-2259
▁勹口	-2260
▁車兩	-2261
▁人扁	-2262
▁广聽	-2263
ec	-2264
▁啇	-2265
▁啇攴	-2266
▁車害	-2267
▁二丿丨	-2268
▁幺力	-2269
冰弓	-2270
冰弓冰	-2271
▁弓冰弓冰	-2272
▁2017	-2273
▁辵扁	-2274
▁臼爻冖	-2275
▁人舌	-2276
▁金同	-2277
▁水也	-2278
▁手廣	-2279
▁土丷	-2280
▁人左	-2281
▁雚欠	-2282
▁丶田	-2283
▁手巨	-2284
▁丁頁	-2285
od	-2286
一火	-2287
▁水戊	-2288
▁水戊一火	-2289
▁尺	-2290
▁宀心	-2291
▁1990	-2292
▁中一贝	-2293
▁阜僉	-2294
▁人昔	-2295
▁囗木	-2296
▁口虫	-2297
▁臼爻冖見	-2298
▁亠口冖豕	-2299
▁手疌	-2300
▁串	-2301
▁女又	-2302
▁串心	-2303
▁la	-2304
▁水弯	-2305
▁人乙	-2306
▁竹僉	-2307
▁水又二丨	-2308
▁不皿	-2309
▁草约	-2310
▁草采	-2311
ation	-2312
▁女那	-2313
▁石茲	-2314
▁女彐	-2315
▁金建	-2316
▁草匍	-2317
▁𤇾	-2318
▁𤇾力	-2319
▁宀心皿	-2320
▁人戈	-2321
▁宀心皿丁	-2322
▁言志	-2323
▁中一貝	-2324
▁女未	-2325
▁广土	-2326
▁草次	-2327
▁广林	-2328
▁爪龴冂厶又乙	-2329
▁手丸	-2330
▁人古	-2331
▁阜介	-2332
▁鱼羊	-2333
▁1999	-2334
▁心灰	-2335
▁门耳	-2336
甫寸	-2337
▁60	-2338
▁金易	-2339
▁=	-2340
▁人尤	-2341
▁玉馬	-2342
um	-2343
▁阜臽	-2344
ter	-2345
▁1998	-2346
几帀	-2347
▁手辰	-2348
▁土丿亅八	-2349
▁辵折	-2350
▁丰夕	-2351
▁2018	-2352
▁牛也	-2353
▁歹朱	-2354
▁亞	-2355
▁辟	-2356
一日	-2357
厶一日	-2358
▁一厶厶一日	-2359
▁车俞	-2360
少貝	-2361
▁宀一少貝	-2362
em	-2363
▁亠口冂	-2364
50	-2365
▁人具	-2366
先先	-2367
▁先先	-2368
▁尺冰	-2369
▁?	-2370
▁车咠	-2371
▁予页	-2372
▁奠	-2373
▁奠邑	-2374
▁彳卸	-2375
▁莫土	-2376
▁辵千	-2377
▁代	-2378
▁人几帀	-2379
▁户一一	-2380
▁九木	-2381
▁米唐	-2382
▁言胃	-2383
▁十戈隹	-2384
ag	-2385
▁黑犬	-2386
▁水甫	-2387
▁竞	-2388
▁竞竞	-2389
▁弓单	-2390
▁孰	-2391
▁水折	-2392
▁彦	-2393
▁子小	-2394
▁木僉	-2395
▁言卖	-2396
▁习	-2397
▁习习	-2398
▁草人	-2399
▁草人一小	-2400
▁示乚	-2401
▁人子	-2402
▁草盍	-2403
糸攴	-2404
▁彳山糸攴	-2405
▁髟	-2406
▁亠口冂毛	-2407
▁去卩	-2408
▁石马	-2409
▁宀番	-2410
口月	-2411
▁亡口月	-2412
▁步页	-2413
▁手广	-2414
刀田	-2415
刀田大	-2416
▁行刀田大	-2417
▁病尞	-2418
▁行重	-2419
▁牛攴	-2420
▁°	-2421
▁已	-2422
▁已廾	-2423
▁阜章	-2424
▁虎鬲	-2425
▁封	-2426
▁封帛	-2427
▁虎鬲犬	-2428
▁1997	-2429
▁夗示	-2430
▁臤土	-2431
▁人五	-2432
▁口天	-2433
▁耒	-2434
人百	-2435
▁宀人百	-2436
乁丿丶	-2437
▁一乁丿丶	-2438
▁巾畐	-2439
▁豈	-2440
▁衣复	-2441
▁1980	-2442
▁hans	-2443
▁辵敫	-2444
▁木主	-2445
冖方	-2446
▁亠丷冖方	-2447
▁草利	-2448
▁木奉	-2449
▁人足	-2450
▁手軍	-2451
▁雇	-2452
▁雇頁	-2453
▁敝巾	-2454
▁人咅	-2455
▁車九	-2456
十目	-2457
▁魚羊	-2458
▁匸儿	-2459
▁米立	-2460
▁木不	-2461
▁士買	-2462
▁水骨	-2463
▁般	-2464
十目一心	-2465
▁马主	-2466
▁丨丨丿一丶皿	-2467
▁耳王	-2468
▁耳王十目一心	-2469
▁老	-2470
▁手睪	-2471
▁言又二丨	-2472
▁粦	-2473
东一	-2474
▁木火	-2475
▁木又寸	-2476
▁粦邑	-2477
▁水良	-2478
▁豈几	-2479
▁言冓	-2480
▁歹又	-2481
▁甬	-2482
▁日日	-2483
▁日日日	-2484
▁80	-2485
▁人禺	-2486
▁巛	-2487
▁188	-2488
▁玉必	-2489
▁火然	-2490
▁人则	-2491
▁阜匋	-2492
▁彳巠	-2493
▁絲責	-2494
▁厶儿	-2495
▁木旁	-2496
网心	-2497
▁宀丰网心	-2498
▁草冖力	-2499
▁原頁	-2500
▁西復	-2501
▁孰火	-2502
▁享邑	-2503
▁木弓丿丿	-2504
▁亠口了	-2505
▁足夸	-2506
▁al	-2507
▁竹合	-2508
▁甬力	-2509
▁彐火	-2510
▁岡	-2511
▁岡刀	-2512
▁馬主	-2513
▁彑	-2514
▁絲彔	-2515
▁草古	-2516
▁羊介	-2517
▁水睪	-2518
▁草祭	-2519
▁歹又食	-2520
▁米分	-2521
▁言吳	-2522
▁客頁	-2523
▁辵卂	-2524
▁龍	-2525
▁木叒	-2526
▁心曼	-2527
▁亞心	-2528
▁巸	-2529
▁巸火	-2530
凵一	-2531
▁止人人	-2532
凵一人人	-2533
▁止人人凵一人人	-2534
▁广發	-2535
▁足包	-2536
▁土甫	-2537
▁木可	-2538
ap	-2539
死廾	-2540
▁草死廾	-2541
▁彳皮	-2542
▁厂工	-2543
丿丨二	-2544
刀丫	-2545
▁亠刀丫	-2546
▁人半	-2547
▁草沙	-2548
▁水干	-2549
▁木黃	-2550
▁病矢	-2551
▁草滕	-2552
▁水斩	-2553
▁句	-2554
ay	-2555
▁丨日	-2556
▁言普	-2557
▁人卬	-2558
▁亚日	-2559
▁心褱	-2560
▁肉卻	-2561
▁竹前	-2562
▁心亙	-2563
▁句多	-2564
▁186	-2565
▁玉人彡	-2566
▁虫它	-2567
▁丁页	-2568
▁草囷	-2569
▁沉	-2570
▁丿厶	-2571
▁草幺幺	-2572
▁玉马	-2573
▁冫中	-2574
▁手斤	-2575
▁絲絲	-2576
▁手荅	-2577
▁文丿丨	-2578
▁小大	-2579
▁艮	-2580
▁手散	-2581
▁手军	-2582
日子	-2583
▁厂日子	-2584
▁车仑	-2585
20	-2586
▁车欠	-2587
▁僉	-2588
▁小冖	-2589
▁川页	-2590
▁草匋	-2591
▁此丝	-2592
▁500	-2593
▁大示	-2594
▁衣冏	-2595
尸乛一	-2596
▁辵丷豕	-2597
▁土唐	-2598
▁犬言	-2599
▁犬言犬	-2600
▁土丷二丨	-2601
▁丿二丨	-2602
▁水炎	-2603
▁金夆	-2604
▁1996	-2605
op	-2606
ce	-2607
▁人丿一力	-2608
▁贝才	-2609
▁口乞	-2610
▁辵中一	-2611
▁辵中一尸乛一	-2612
▁肉巤	-2613
▁187	-2614
▁馬奇	-2615
▁丝各	-2616
▁金戔	-2617
工口	-2618
▁网貝	-2619
▁豕	-2620
𠄌丶丶乀	-2621
𠄌丶丶𠄌丶丶乀	-2622
▁臼𠄌丶丶𠄌丶丶乀	-2623
▁冰咸	-2624
▁手斥	-2625
▁般皿	-2626
▁阜侌	-2627
▁厂火	-2628
▁木兆	-2629
▁采又二丨	-2630
▁木其	-2631
北口	-2632
▁廿北口	-2633
▁廿北口火	-2634
▁示羊	-2635
oc	-2636
▁木戒	-2637
▁老子	-2638
▁水匚	-2639
og	-2640
▁孚	-2641
▁几丶	-2642
▁2019	-2643
▁『	-2644
▁』	-2645
▁彡页	-2646
▁孚乙	-2647
▁母	-2648
ul	-2649
▁草將	-2650
▁人申	-2651
▁半反	-2652
▁tw	-2653
▁僉刀	-2654
▁十日十人干	-2655
▁比十	-2656
▁70	-2657
▁宀草見	-2658
▁龍衣	-2659
▁hk	-2660
▁丝丑	-2661
▁草网	-2662
▁茍	-2663
▁茍攴	-2664
▁卜尸	-2665
▁竹佥	-2666
▁手員	-2667
▁絲宿	-2668
▁食欠	-2669
工口寸	-2670
▁彐工口寸	-2671
▁车圣	-2672
▁茲	-2673
▁茲心	-2674
▁35	-2675
av	-2676
▁南	-2677
▁南犬	-2678
▁草潘	-2679
▁草曷	-2680
▁刀田一	-2681
▁分頁	-2682
▁90	-2683
▁1995	-2684
羊皿	-2685
▁阜车	-2686
▁草羊皿	-2687
▁de	-2688
▁衣中一	-2689
廿木	-2690
▁草耤	-2691
▁亠厶廿木	-2692
▁宀草見丶	-2693
ers	-2694
▁32	-2695
▁病甬	-2696
▁冂丷一	-2697
ind	-2698
▁人犬	-2699
▁水冘	-2700
▁宀先	-2701
▁宀乇	-2702
▁冃	-2703
▁木圭	-2704
▁言井	-2705
▁1994	-2706
▁麻幺	-2707
▁屯邑	-2708
▁石出	-2709
▁辵亦	-2710
▁馬史	-2711
▁女且	-2712
九軌	-2713
▁车九軌	-2714
▁畾	-2715
▁阜佥	-2716
▁肉兌	-2717
▁丝东一	-2718
▁日比	-2719
▁阜遂	-2720
▁冂丷一山	-2721
▁絲彖	-2722
▁堇	-2723
▁走卜	-2724
土殳	-2725
▁臼土殳	-2726
▁手卓	-2727
土畺	-2728
▁弓土畺	-2729
▁車甫	-2730
▁土褱	-2731
▁足兆	-2732
▁竹聿	-2733
▁手兆	-2734
▁+	-2735
▁厂丁	-2736
th	-2737
▁辵舌	-2738
▁周	-2739
▁草网冖	-2740
▁re	-2741
▁月月	-2742
▁臤絲	-2743
▁石卑	-2744
▁36	-2745
月缶	-2746
▁走取	-2747
▁1970	-2748
▁化贝	-2749
▁日卬	-2750
▁走肖	-2751
▁禾爪工彐心	-2752
▁言延	-2753
▁草壯	-2754
▁and	-2755
ip	-2756
▁子皿	-2757
▁囗员	-2758
▁卯貝	-2759
火丿	-2760
▁舟叟	-2761
▁广夏	-2762
▁言成	-2763
火皿	-2764
▁聿火皿	-2765
▁夭口	-2766
▁肉昔	-2767
▁夭口冂口	-2768
ie	-2769
▁手石	-2770
▁草冖木	-2771
▁〉	-2772
田皿	-2773
▁虎田皿	-2774
▁木佥	-2775
▁丿之	-2776
▁户口	-2777
▁莫心	-2778
▁〈	-2779
▁1993	-2780
▁廾	-2781
▁宀由	-2782
▁廾戈	-2783
▁能火	-2784
▁丷一幺幺	-2785
儿厶	-2786
▁丶田儿厶	-2787
▁un	-2788
▁辟土	-2789
▁隹又	-2790
▁釆	-2791
▁釆田	-2792
▁公	-2793
▁鹿	-2794
▁斬	-2795
▁走乂	-2796
▁臣丿一丶网	-2797
▁草网冖夕	-2798
▁丷三丨	-2799
▁1949	-2800
▁石楚	-2801
▁害	-2802
na	-2803
▁com	-2804
▁言某	-2805
▁舟廷	-2806
▁草水	-2807
▁敬手	-2808
▁1992	-2809
▁十戈木	-2810
▁石炭	-2811
▁果頁	-2812
口衣	-2813
▁土口衣	-2814
▁岂	-2815
▁宀申	-2816
▁ar	-2817
▁1950	-2818
▁亠幺	-2819
▁33	-2820
▁宀草见	-2821
凵乚	-2822
▁丿凵乚	-2823
▁木弟	-2824
▁束負	-2825
▁絲氏	-2826
▁周隹	-2827
▁水厓	-2828
▁大寸	-2829
▁广乛一丨丨比	-2830
▁岂几	-2831
▁丿巾	-2832
▁45	-2833
▁工貝	-2834
▁舍	-2835
▁草方	-2836
▁一火	-2837
▁匚淮	-2838
▁工丂	-2839
ard	-2840
▁手乚	-2841
▁舌乙	-2842
▁手聂	-2843
▁金中	-2844
▁斬日	-2845
▁水孚	-2846
▁丷夫手	-2847
▁q	-2848
▁勹凶	-2849
▁手童	-2850
▁田糸	-2851
▁1991	-2852
▁艮旡	-2853
▁1945	-2854
▁爪龴冂厶又辛	-2855
▁女尼	-2856
▁夭丿丨	-2857
▁齒	-2858
▁堇力	-2859
▁衣卜	-2860
▁木攴	-2861
ct	-2862
▁壴	-2863
▁壴彡	-2864
▁300	-2865
▁人义	-2866
▁sh	-2867
▁网干	-2868
ba	-2869
▁尚貝	-2870
▁1960	-2871
▁行金	-2872
▁土夬	-2873
▁彗	-2874
▁彗心	-2875
一口寸	-2876
乛工	-2877
▁士乛工	-2878
▁士乛工一口寸	-2879
▁草之	-2880
▁心圣	-2881
▁tr	-2882
▁土川	-2883
乂凵	-2884
亠乂凵	-2885
▁彳盾	-2886
▁手臿	-2887
▁齊	-2888
▁th	-2889
言刀	-2890
▁网言刀	-2891
▁禾少	-2892
▁女己	-2893
井一	-2894
工殳	-2895
▁臼工殳	-2896
▁車軍	-2897
▁心不	-2898
儿言	-2899
▁刀厂	-2900
▁刀厂儿言	-2901
▁青爭	-2902
▁衣由	-2903
▁邦	-2904
▁邦巾	-2905
▁卜日十	-2906
▁木當	-2907
▁害刀	-2908
▁土方	-2909
▁絲言心	-2910
▁客页	-2911
▁角蜀	-2912
▁嘼	-2913
▁嘼犬	-2914
▁彳圣	-2915
▁1989	-2916
▁絲召	-2917
ik	-2918
貝凡	-2919
▁亡口月貝凡	-2920
▁山奇	-2921
▁水容	-2922
▁石包	-2923
▁尸并	-2924
▁玉皮	-2925
▁犬尤	-2926
▁厂十目	-2927
▁土亶	-2928
▁門各	-2929
▁小冖见	-2930
▁贝勾	-2931
▁厂禾禾日	-2932
▁父	-2933
▁與言	-2934
▁38	-2935
▁水先	-2936
▁手昜	-2937
▁火堯	-2938
▁谷欠	-2939
▁手又二丨	-2940
▁一口丷一	-2941
▁人寺	-2942
▁舌攴	-2943
▁臣丿一丶网見	-2944
▁手巽	-2945
▁水亏	-2946
▁金小	-2947
▁人韋	-2948
▁丝宿	-2949
▁龙	-2950
▁爪一丶	-2951
▁肉厂氏	-2952
10	-2953
and	-2954
▁丘山	-2955
▁木彡	-2956
▁广发	-2957
▁人方	-2958
▁竹夭	-2959
▁～	-2960
▁土真	-2961
▁石广	-2962
▁木卯	-2963
▁土鬼	-2964
▁辵了	-2965
▁34	-2966
▁水尼	-2967
▁184	-2968
▁絲屯	-2969
▁朔	-2970
▁訁	-2971
▁訁某	-2972
▁肉亠乂凵	-2973
▁宀兵	-2974
▁交邑	-2975
▁人需	-2976
ows	-2977
▁彦頁	-2978
▁示兄	-2979
▁朔土	-2980
▁玉林	-2981
革月	-2982
▁几一鳥	-2983
▁1988	-2984
▁女彐冖巾	-2985
▁戊一口	-2986
▁雨革月	-2987
▁木仓	-2988
ess	-2989
ov	-2990
▁口巴	-2991
▁此木	-2992
▁絲各	-2993
▁乘	-2994
▁乘刀	-2995
▁wind	-2996
ub	-2997
▁工贝	-2998
▁─	-2999
▁門才	-3000
▁sp	-3001
▁金戋	-3002
ine	-3003
▁手分	-3004
▁大弓	-3005
▁絲會	-3006
▁丝录	-3007
▁丰刀	-3008
▁丨丨又土	-3009
▁草巟	-3010
▁le	-3011
▁木示隶	-3012
▁冂一丨丨	-3013
▁疋亠厶川	-3014
▁先先贝	-3015
丶丨	-3016
口二	-3017
▁彑口二	-3018
▁彑口二丶丨	-3019
▁is	-3020
▁卯贝	-3021
ab	-3022
▁金岡	-3023
ell	-3024
▁虫虫	-3025
▁虫虫虫	-3026
▁手员	-3027
▁手叟	-3028
if	-3029
▁日辰	-3030
est	-3031
▁辵回	-3032
▁食反	-3033
ist	-3034
ob	-3035
▁犬酋	-3036
▁齐	-3037
▁齐刀	-3038
▁水相	-3039
▁宀井大冰	-3040
ill	-3041
▁185	-3042
▁草連	-3043
▁絲岡	-3044
▁勹田	-3045
▁日王	-3046
▁冰夌	-3047
▁丰刀大	-3048
▁水番	-3049
▁孛	-3050
▁原心	-3051
▁虎丱	-3052
▁虎丱一	-3053
▁孛力	-3054
▁光	-3055
▁光翟	-3056
▁馬區	-3057
ak	-3058
▁mar	-3059
▁絲宗	-3060
▁辵孫	-3061
▁人曽	-3062
▁丷夫刀	-3063
▁|	-3064
▁人盡	-3065
▁肉复	-3066
▁木卜	-3067
▁37	-3068
▁%	-3069
30	-3070
▁隹火	-3071
▁手弓丿丿	-3072
lan	-3073
▁关	-3074
▁关邑	-3075
▁又欠	-3076
▁口口丨	-3077
▁阜爪工彐心	-3078
▁木亢	-3079
▁衣谷	-3080
▁齒令	-3081
▁pro	-3082
▁亠口冖丁	-3083
▁矢巨	-3084
▁木支	-3085
▁肉兑	-3086
▁龙衣	-3087
▁windows	-3088
▁舟皿	-3089
▁1985	-3090
▁水白	-3091
▁肉巴	-3092
▁人中	-3093
▁加馬	-3094
ud	-3095
▁水永	-3096
▁火登	-3097
▁共	-3098
丶口	-3099
▁口丶口	-3100
▁米卒	-3101
▁蟲	-3102
▁水朁	-3103
▁肉莫	-3104
▁1987	-3105
▁手昔	-3106
▁心意	-3107
▁手由	-3108
▁奴心	-3109
示寸	-3110
▁尸示寸	-3111
▁1986	-3112
▁草田	-3113
▁ii	-3114
▁水昜	-3115
▁冈	-3116
▁冈刀	-3117
▁辵屰	-3118
▁丶冂采亏	-3119
▁犬火	-3120
▁土亢	-3121
▁at	-3122
▁丨丨又丝	-3123
小又	-3124
▁上小又	-3125
▁水圼	-3126
▁手肙	-3127
▁am	-3128
ian	-3129
▁ne	-3130
▁宀厷	-3131
▁行水	-3132
▁采心	-3133
▁兴言	-3134
▁犬巤	-3135
▁手爪	-3136
ice	-3137
▁广木	-3138
▁耒毛	-3139
▁立兄	-3140
▁言吴	-3141
丨口丨	-3142
▁手疑	-3143
▁立青	-3144
▁口斤	-3145
▁令邑	-3146
▁禾兌	-3147
▁刃	-3148
▁刃心	-3149
▁手般	-3150
ra	-3151
▁言旬	-3152
▁广朝廟	-3153
土丨丨	-3154
▁丿二土丨丨	-3155
▁草水甫寸	-3156
▁歹戔	-3157
▁巠	-3158
▁皮	-3159
▁阜它	-3160
▁竹相	-3161
▁手夫	-3162
80	-3163
▁病了	-3164
▁1984	-3165
▁止支	-3166
▁心亘	-3167
▁曰丶	-3168
▁土不	-3169
ge	-3170
▁厄	-3171
田廾	-3172
▁厄页	-3173
▁自田廾	-3174
言辛	-3175
▁魚耆	-3176
▁辛言辛	-3177
▁手屋	-3178
▁禾急	-3179
▁水雚	-3180
▁阜月	-3181
▁一乂	-3182
▁人夋	-3183
▁匕日	-3184
▁64	-3185
▁马奇	-3186
▁巛火	-3187
▁佥	-3188
▁400	-3189
▁人甫寸	-3190
▁女吳	-3191
▁子瓜	-3192
卜皿	-3193
▁土卜皿	-3194
▁口客	-3195
▁水賓	-3196
▁豸白	-3197
▁石廣	-3198
▁豸白儿	-3199
▁馮	-3200
▁穴囱	-3201
▁馮心	-3202
▁禾高	-3203
▁口土	-3204
▁弓玄	-3205
▁舍予	-3206
up	-3207
▁宀奇	-3208
▁1982	-3209
▁辵韋	-3210
▁ap	-3211
▁登	-3212
▁to	-3213
思心	-3214
▁虎思心	-3215
▁病殳	-3216
▁竹壽	-3217
▁草戊	-3218
▁犬句	-3219
▁豕苗	-3220
冖牛	-3221
▁手并	-3222
▁母貝	-3223
▁ng	-3224
▁山與	-3225
▁阜夹	-3226
▁00	-3227
▁辵孙	-3228
▁车两	-3229
▁39	-3230
▁臤貝	-3231
▁乛头	-3232
▁肉永	-3233
▁1979	-3234
▁絲分	-3235
▁as	-3236
▁禾兑	-3237
all	-3238
▁心隹	-3239
▁土啬	-3240
▁1983	-3241
▁人孚	-3242
▁垂	-3243
▁垂邑	-3244
▁180	-3245
▁木黄	-3246
▁山令	-3247
▁丝彖	-3248
▁亚心	-3249
▁肉台	-3250
▁人頃	-3251
▁亠厶廾	-3252
▁⺆	-3253
⺆一	-3254
▁⺆⺆一	-3255
▁卯艮卩	-3256
▁前	-3257
▁人尸	-3258
▁人尸一口	-3259
▁玉亠厶川	-3260
▁水告	-3261
▁55	-3262
▁石枼	-3263
▁予丿	-3264
▁42	-3265
▁金欠	-3266
▁言主	-3267
▁丝氏	-3268
▁足亦	-3269
▁广郎	-3270
▁禾肖	-3271
▁耳甹	-3272
▁人诸	-3273
▁余斗	-3274
▁草监	-3275
▁勿	-3276
▁冃目	-3277
11	-3278
▁丝丝	-3279
▁山領	-3280
▁火垔	-3281
▁車由	-3282
文王	-3283
▁王文王	-3284
▁登邑	-3285
▁草夗	-3286
▁玉离	-3287
▁加貝	-3288
▁土襄	-3289
▁辵尊	-3290
▁波	-3291
▁or	-3292
▁波女	-3293
ok	-3294
丿丶	-3295
鹵皿	-3296
▁臣丿一鹵皿	-3297
▁竹毛	-3298
▁hant	-3299
▁馬敬	-3300
io	-3301
▁厂里	-3302
▁48	-3303
▁人諸	-3304
▁尸巾刀	-3305
▁肉旨	-3306
▁con	-3307
▁斤欠	-3308
▁1978	-3309
▁草户	-3310
▁en	-3311
▁草烝	-3312
▁石卒	-3313
▁jo	-3314
▁75	-3315
▁丝召	-3316
▁羽卒	-3317
▁手曷	-3318
▁云鬼	-3319
▁言羊	-3320
ity	-3321
▁矛木	-3322
▁水甬	-3323
▁44	-3324
ich	-3325
ert	-3326
▁辵畐	-3327
▁絲堯	-3328
▁絲從	-3329
▁青争	-3330
▁米且	-3331
▁水宾	-3332
▁1981	-3333
▁犬孟	-3334
▁酉每	-3335
ey	-3336
▁卯丶丶	-3337
ph	-3338
12	-3339
▁ad	-3340
▁肉几	-3341
▁65	-3342
▁犬良	-3343
▁cn	-3344
▁金冈	-3345
▁阜反	-3346
▁1946	-3347
▁熏	-3348
▁熏力	-3349
▁门才	-3350
▁府	-3351
▁府肉	-3352
▁女匸	-3353
▁犬王	-3354
▁女匸丨口丨	-3355
▁人俞	-3356
▁又邑	-3357
▁畾土	-3358
60	-3359
▁大卉	-3360
und	-3361
▁虫累	-3362
▁言召	-3363
▁羽立	-3364
▁丝宗	-3365
▁人加	-3366
▁爿嗇	-3367
▁on	-3368
▁咢	-3369
▁尸者	-3370
▁絲爰	-3371
te	-3372
▁天	-3373
▁絲者	-3374
▁女因	-3375
▁金名	-3376
▁1930	-3377
▁水忝	-3378
▁車車	-3379
▁車車車	-3380
ive	-3381
▁fr	-3382
▁鬼	-3383
品山	-3384
▁齊刀	-3385
丷夫	-3386
左月	-3387
▁髟犮	-3388
▁先先貝	-3389
▁水替	-3390
▁女乃	-3391
▁阜左月	-3392
▁章	-3393
▁由	-3394
▁43	-3395
▁代衣	-3396
▁47	-3397
▁石亠厶川	-3398
二二	-3399
▁肉人	-3400
▁病品山	-3401
▁肉人二二	-3402
▁火某	-3403
▁佥刀	-3404
▁门各	-3405
▁ph	-3406
▁舌辛	-3407
ue	-3408
▁150	-3409
▁马区	-3410
▁厂卩	-3411
▁丨丶	-3412
▁章彡	-3413
ts	-3414
▁手卦	-3415
▁1940	-3416
▁心亡	-3417
▁非心	-3418
▁丝责	-3419
▁1920	-3420
▁戶冊	-3421
▁1958	-3422
▁水函	-3423
▁竹監	-3424
▁玉冊	-3425
▁水覃	-3426
欠皿	-3427
▁水欠皿	-3428
▁水匋	-3429
▁公羽	-3430
▁手甲	-3431
▁ac	-3432
igh	-3433
▁金甫	-3434
▁奚	-3435
▁土欠	-3436
▁1000	-3437
▁1937	-3438
▁车甫	-3439
▁彐寸	-3440
▁pr	-3441
▁口觜	-3442
25	-3443
eb	-3444
▁水王	-3445
▁人九	-3446
▁女良	-3447
耳攴	-3448
▁丅耳攴	-3449
▁辵夆	-3450
▁士冖	-3451
▁而	-3452
▁丝屯	-3453
▁手屈	-3454
▁几又	-3455
▁言人彡	-3456
▁1948	-3457
▁曷	-3458
▁厂丅	-3459
▁手卬	-3460
丷八	-3461
▁é	-3462
▁曷欠	-3463
▁辵加	-3464
▁丿丿丶	-3465
▁勿心	-3466
▁儿	-3467
▁土隹	-3468
▁儿丷八	-3469
▁土甚	-3470
▁一丶貝	-3471
▁丶九	-3472
▁丝从	-3473
▁山隹	-3474
▁肉空	-3475
▁俞	-3476
ib	-3477
▁犬師	-3478
▁41	-3479
▁角虫	-3480
▁水包	-3481
▁山夾	-3482
▁冰疑	-3483
ou	-3484
▁气录	-3485
▁心貫	-3486
▁金小貝	-3487
▁手憂	-3488
▁sc	-3489
丶丿辛	-3490
▁辛丶丿辛	-3491
▁丰寸	-3492
▁五	-3493
▁五口	-3494
▁山朋	-3495
▁肉匈	-3496
▁冰馬	-3497
▁立日儿	-3498
▁600	-3499
▁1975	-3500
▁分皿	-3501
21	-3502
▁手以	-3503
▁183	-3504
▁水中	-3505
▁由邑	-3506
▁手那	-3507
▁~	-3508
40	-3509
▁辵万	-3510
▁隺	-3511
▁奚隹	-3512
農膿	-3513
▁水農膿	-3514
▁厲	-3515
▁厲力	-3516
▁天口	-3517
eg	-3518
▁利	-3519
▁此隹	-3520
▁1941	-3521
▁麥	-3522
art	-3523
▁示巳	-3524
▁阜元	-3525
ry	-3526
▁ex	-3527
▁又丶	-3528
▁jr	-3529
▁弓爾	-3530
▁丝会	-3531
▁心白	-3532
▁彦页	-3533
ong	-3534
▁1947	-3535
▁手口	-3536
▁ma	-3537
▁虎心	-3538
▁人昌	-3539
▁肉翏	-3540
▁門蟲	-3541
▁口厶	-3542
▁足翟	-3543
▁草肅	-3544
▁俞心	-3545
▁49	-3546
▁草匊	-3547
▁火尧	-3548
▁800	-3549
▁去力	-3550
▁束负	-3551
▁酉星	-3552
▁歹戋	-3553
▁木隹	-3554
▁51	-3555
▁179	-3556
▁一亅丶	-3557
▁go	-3558
▁女少	-3559
unt	-3560
▁46	-3561
▁col	-3562
▁乃子	-3563
▁虎业	-3564
▁劦	-3565
▁少隹	-3566
▁人貞	-3567
丿一也	-3568
▁ngc	-3569
▁禾舀	-3570
▁麻石	-3571
▁壳	-3572
▁手包	-3573
▁水莫	-3574
▁口屯	-3575
▁te	-3576
▁心布	-3577
70	-3578
▁前刀	-3579
▁52	-3580
▁尸出	-3581
▁木朱	-3582
丨丿	-3583
▁口欠	-3584
▁女家	-3585
▁風	-3586
▁水显	-3587
▁1972	-3588
▁水袞	-3589
▁1973	-3590
▁1956	-3591
bs	-3592
▁’	-3593
▁木木夕	-3594
爿片	-3595
▁目爿片	-3596
▁劦肉	-3597
丿十	-3598
▁丶田丿十	-3599
▁罒	-3600
▁丝爰	-3601
▁山幺幺	-3602
囗乂	-3603
▁土平	-3604
▁120	-3605
乡隹	-3606
▁亠乡隹	-3607
▁1976	-3608
▁手丿一也	-3609
▁冰马	-3610
▁女丿	-3611
▁余攴	-3612
▁牙邑	-3613
▁1966	-3614
▁石疑	-3615
▁阜急	-3616
▁亠人十	-3617
5%	-3618
▁十买	-3619
一殳	-3620
▁手月缶	-3621
▁卜貝	-3622
▁nba	-3623
▁1952	-3624
▁广龍	-3625
共木	-3626
▁肉泉	-3627
▁宀一共木	-3628
▁1974	-3629
▁酉享	-3630
▁水弓丿丿	-3631
▁聿八	-3632
▁聿八丿丨	-3633
▁斤丶	-3634
▁水勾	-3635
▁水魚	-3636
ord	-3637
▁齿	-3638
▁气安	-3639
▁辵隶	-3640
▁土口口	-3641
▁勹日	-3642
▁车由	-3643
ver	-3644
▁水太	-3645
▁金重	-3646
▁58	-3647
▁1968	-3648
ens	-3649
网见	-3650
▁丨丨丿一丶网见	-3651
▁工人人	-3652
▁&	-3653
▁山夹	-3654
▁日爰	-3655
▁木帛	-3656
勹虫	-3657
▁罒勹虫	-3658
▁壳一殳	-3659
▁火因	-3660
▁竹监	-3661
▁水冓	-3662
▁水工鳥	-3663
▁53	-3664
▁斩	-3665
▁口賁	-3666
▁而寸	-3667
▁1944	-3668
▁1938	-3669
乛一辛	-3670
▁草户乛一辛	-3671
▁一人冂	-3672
ft	-3673
ack	-3674
▁女兆	-3675
▁音員	-3676
▁巛果	-3677
▁門兌	-3678
▁so	-3679
▁1939	-3680
▁示彔	-3681
▁bo	-3682
▁言乇	-3683
▁尸水	-3684
▁74	-3685
▁1955	-3686
▁土里	-3687
▁口尺	-3688
▁1977	-3689
15	-3690
▁麥面	-3691
▁气圣	-3692
▁肖	-3693
▁禾希	-3694
▁肖刀	-3695
▁1942	-3696
▁1967	-3697
ain	-3698
▁水戔	-3699
▁厂相	-3700
▁54	-3701
ang	-3702
▁辵萬	-3703
冊司	-3704
▁口冊司	-3705
▁辵罗	-3706
▁1964	-3707
▁1969	-3708
lay	-3709
▁斩日	-3710
▁肉巿	-3711
▁豙	-3712
▁豙殳	-3713
▁耒井	-3714
▁分页	-3715
▁肉却	-3716
▁草癸	-3717
16	-3718
▁絲文	-3719
▁人韦	-3720
▁1954	-3721
▁齿令	-3722
▁草新	-3723
▁se	-3724
▁火丁	-3725
▁56	-3726
▁1971	-3727
▁草将	-3728
man	-3729
▁宀火	-3730
▁从	-3731
▁虫工	-3732
▁鹿粦	-3733
▁1965	-3734
▁彳育攵	-3735
▁丝尧	-3736
▁心昔	-3737
▁口加	-3738
▁尚旨	-3739
▁女圭	-3740
sp	-3741
▁丝者	-3742
井一衣	-3743
▁口口井一衣	-3744
uc	-3745
▁言覃	-3746
▁車畐	-3747
▁金監	-3748
▁草全	-3749
▁1959	-3750
ect	-3751
▁人崔	-3752
▁非文	-3753
▁西贝	-3754
▁肉支	-3755
▁be	-3756
▁手亶	-3757
▁水朔	-3758
▁矢委	-3759
▁肉非	-3760
▁op	-3761
▁水文	-3762
▁土云	-3763
▁57	-3764
▁手穵	-3765
▁咢邑	-3766
ss	-3767
▁尸死	-3768
白石	-3769
▁王白石	-3770
▁貝易	-3771
▁羊羽	-3772
▁99	-3773
▁予象	-3774
ma	-3775
▁西貝	-3776
▁棥	-3777
▁戶乛一巾	-3778
▁大圭	-3779
▁丝分	-3780
▁棥大	-3781
▁一口乂	-3782
19	-3783
ant	-3784
▁1943	-3785
▁1957	-3786
bc	-3787
▁亡心	-3788
▁宀辛	-3789
▁酋大	-3790
▁木妻	-3791
▁一丶用	-3792
▁76	-3793
▁衣果	-3794
▁‘	-3795
▁1936	-3796
▁人夾	-3797
▁1961	-3798
▁貝曽	-3799
▁→	-3800
▁1953	-3801
一丶丶	-3802
▁丶冂一丶丶	-3803
▁女兼	-3804
▁魚京	-3805
▁广人隹鳥	-3806
▁午	-3807
止卩	-3808
▁mac	-3809
▁午止卩	-3810
23	-3811
▁手皮	-3812
▁女馬	-3813
ix	-3814
18	-3815
▁59	-3816
▁水絜	-3817
▁皮頁	-3818
▁gr	-3819
▁目垂	-3820
▁辵尞	-3821
▁走旱	-3822
▁口鳥	-3823
▁宀禺	-3824
ate	-3825
▁肉退	-3826
▁mo	-3827
▁貝占	-3828
▁石少	-3829
▁豕者	-3830
▁心合	-3831
▁木当	-3832
厂彡	-3833
▁人火	-3834
▁1963	-3835
▁言贊	-3836
ort	-3837
▁虫夆	-3838
▁63	-3839
▁1962	-3840
▁手京	-3841
▁手無	-3842
▁口甫	-3843
▁言秀	-3844
▁巾冒	-3845
14	-3846
▁口那	-3847
▁肉交	-3848
▁金连	-3849
▁山冈	-3850
24	-3851
qu	-3852
▁辵亦迹	-3853
▁竹寿	-3854
▁言兼	-3855
▁石並	-3856
▁酉告	-3857
▁厂衣	-3858
▁178	-3859
▁御	-3860
▁御示	-3861
▁食并	-3862
▁木亘	-3863
hn	-3864
▁分貝	-3865
▁氣巠	-3866
▁走芻	-3867
▁1935	-3868
▁73	-3869
▁母贝	-3870
▁朿朿	-3871
▁厂夏	-3872
▁手崔	-3873
▁木木凡	-3874
▁68	-3875
▁1951	-3876
bo	-3877
▁足沓	-3878
ug	-3879
▁宀必虫	-3880
▁1933	-3881
丨冂口	-3882
口井一	-3883
▁一口丨冂口	-3884
▁一口丨冂口口井一	-3885
▁申	-3886
ire	-3887
▁肉安	-3888
ps	-3889
▁縣	-3890
▁縣心	-3891
ff	-3892
▁员	-3893
▁畾冝	-3894
▁金令	-3895
end	-3896
▁肉藏	-3897
▁石粦	-3898
▁从一	-3899
▁口非	-3900
▁米良	-3901
▁田比	-3902
▁攸心	-3903
▁阜咅	-3904
▁貝反	-3905
▁ed	-3906
厂虎	-3907
▁辵厂虎	-3908
▁tv	-3909
26	-3910
▁心台	-3911
▁莫力	-3912
丨乀	-3913
▁日升	-3914
▁厂丨乀	-3915
▁sy	-3916
▁足舀	-3917
▁舌甘	-3918
▁召	-3919
▁700	-3920
▁次女	-3921
▁共心	-3922
▁宀妟	-3923
▁1927	-3924
▁ge	-3925
13	-3926
▁inter	-3927
▁cod	-3928
▁人顷	-3929
▁肉干	-3930
▁女古	-3931
▁手帚	-3932
▁dv	-3933
▁火希	-3934
▁己心	-3935
▁風台	-3936
▁冃勉	-3937
▁辵免	-3938
贝凡	-3939
▁亡口月贝凡	-3940
▁言隹	-3941
▁$	-3942
▁广翏	-3943
▁絲面	-3944
▁豸勺	-3945
▁貝武	-3946
▁辵犀	-3947
▁1928	-3948
▁石頁	-3949
▁96	-3950
▁草浦	-3951
彐彐	-3952
丨乚彐彐	-3953
丨乚彐彐囗乂	-3954
▁折言	-3955
▁员力	-3956
ast	-3957
▁犬侯	-3958
▁我	-3959
▁一丶贝	-3960
▁厂欮	-3961
▁car	-3962
27	-3963
▁玉其	-3964
▁草微	-3965
▁足從	-3966
▁・	-3967
▁水丁	-3968
ond	-3969
▁手无	-3970
ock	-3971
▁爿士	-3972
▁鬼斗	-3973
▁利木	-3974
▁160	-3975
17	-3976
▁洰	-3977
▁洰木	-3978
▁66	-3979
▁日堯	-3980
▁×	-3981
▁98	-3982
ly	-3983
▁水爭	-3984
▁宀八	-3985
▁dna	-3986
▁95	-3987
▁草矛	-3988
▁水日	-3989
▁草澡	-3990
▁丵	-3991
▁1932	-3992
▁1931	-3993
▁口勿	-3994
▁心艮	-3995
▁草肃	-3996
▁彳切	-3997
22	-3998
ah	-3999
▁88	-4000
▁手奄	-4001
ith	-4002
▁并	-4003
▁并瓦	-4004
▁丘邑	-4005
▁言皆	-4006
▁雚力	-4007
尢力	-4008
▁手句	-4009
▁手尢力	-4010
▁1934	-4011
ick	-4012
▁米量	-4013
▁lin	-4014
▁he	-4015
口辛	-4016
▁尸口辛	-4017
▁真	-4018
▁草咅	-4019
▁水彐冖又	-4020
▁田半	-4021
▁网能	-4022
▁肉辟	-4023
▁水屚	-4024
▁足失	-4025
▁丨丨丿一丶金	-4026
ust	-4027
▁草本	-4028
▁水户	-4029
▁牛生	-4030
▁木卜日	-4031
聿冃	-4032
▁广聿冃	-4033
▁九	-4034
iz	-4035
▁虫枼	-4036
▁石页	-4037
▁沙	-4038
▁手倉	-4039
▁衣口	-4040
▁土是	-4041
▁魚禾	-4042
▁絲黽	-4043
▁el	-4044
▁虫畐	-4045
▁心真	-4046
▁示司	-4047
▁水兹	-4048
▁馬爻	-4049
▁par	-4050
▁虫析	-4051
one	-4052
爪缶	-4053
▁水日幺幺火	-4054
▁手共	-4055
▁辵弟	-4056
▁羊女	-4057
▁sch	-4058
▁77	-4059
▁示單	-4060
▁言宜	-4061
▁sm	-4062
▁户隹	-4063
▁果页	-4064
▁既	-4065
▁戶攴	-4066
▁丬士	-4067
▁丨丿巾	-4068
▁心乙	-4069
▁α	-4070
son	-4071
▁97	-4072
又皿	-4073
▁69	-4074
▁乃又皿	-4075
▁丝冈	-4076
▁木区	-4077
▁手少	-4078
▁78	-4079
▁氶一	-4080
▁犬青	-4081
▁me	-4082
▁石幾	-4083
▁小肉	-4084
▁辵俞	-4085
▁手圭	-4086
28	-4087
ton	-4088
ux	-4089
▁广比	-4090
▁任	-4091
▁县	-4092
▁县心	-4093
▁cd	-4094
▁少力	-4095
▁犬昔	-4096
▁水叔	-4097
ern	-4098
▁人責	-4099
ore	-4100
▁1929	-4101
sh	-4102
兮皿	-4103
▁尚贝	-4104
▁巠力	-4105
▁言兮皿	-4106
▁千口	-4107
▁口頓	-4108
▁木區	-4109
▁石焦	-4110
▁取	-4111
▁取女	-4112
▁召邑	-4113
▁木匡	-4114
ii	-4115
▁示喜	-4116
▁水闰	-4117
▁手罷	-4118
▁魚噩	-4119
▁爪巴	-4120
▁金旁	-4121
▁ro	-4122
▁丝文	-4123
▁乍	-4124
▁乍心	-4125
▁戶肉	-4126
▁水閏	-4127
▁丝面	-4128
▁木乚	-4129
▁門活	-4130
land	-4131
▁玉令	-4132
▁尉	-4133
▁1912	-4134
▁巠頁	-4135
▁口剌	-4136
▁禾失	-4137
▁cl	-4138
▁ip	-4139
▁門人	-4140
▁日尧	-4141
▁85	-4142
▁井日	-4143
▁辵韦	-4144
ies	-4145
▁wh	-4146
▁水女	-4147
▁火完	-4148
▁舟倉	-4149
▁雨務	-4150
▁林火	-4151
▁走人彡	-4152
▁高	-4153
▁草亡	-4154
▁水登	-4155
▁cr	-4156
ath	-4157
▁又鸟	-4158
▁既旦	-4159
▁口俞	-4160
▁ht	-4161
▁*	-4162
▁bl	-4163
▁us	-4164
▁尉心	-4165
▁草逢	-4166
ial	-4167
▁加马	-4168
▁余又	-4169
▁it	-4170
▁穴乍	-4171
▁山灰	-4172
▁足夭	-4173
▁冖日大	-4174
▁肉办	-4175
ight	-4176
▁雨叚	-4177
2%	-4178
▁王廾	-4179
▁几木	-4180
▁共己	-4181
ure	-4182
▁玄冖牛	-4183
▁马史	-4184
▁new	-4185
▁目民	-4186
▁日干	-4187
▁草连	-4188
▁讠	-4189
▁讠羊	-4190
▁‧	-4191
▁甲鳥	-4192
▁穴躬	-4193
29	-4194
▁水難	-4195
▁亦心	-4196
▁竹目大	-4197
▁1925	-4198
▁dr	-4199
▁木宗	-4200
▁宀夗	-4201
▁man	-4202
▁彳歨	-4203
▁草番	-4204
▁西木	-4205
农脓	-4206
▁水农脓	-4207
▁john	-4208
▁厉	-4209
▁厉力	-4210
▁sa	-4211
▁土反	-4212
▁人賞	-4213
▁1919	-4214
▁net	-4215
▁丶丿彐	-4216
▁大冖牛	-4217
▁車斤	-4218
▁朋	-4219
▁门虫	-4220
▁count	-4221
▁鱼包	-4222
ber	-4223
▁宀尞	-4224
▁贝武	-4225
▁心參	-4226
▁86	-4227
▁丨丨又贝	-4228
▁dvd	-4229
▁言公	-4230
▁木闌	-4231
▁1918	-4232
▁木干	-4233
▁气炎	-4234
▁草雷	-4235
ory	-4236
▁水难	-4237
75	-4238
▁1924	-4239
▁巾凡	-4240
又又	-4241
▁犬夾	-4242
▁车又又	-4243
▁口且	-4244
▁肉要	-4245
▁囗人	-4246
▁玉白	-4247
ne	-4248
▁甚	-4249
▁女夭	-4250
▁手雟	-4251
ide	-4252
▁ser	-4253
▁刀人	-4254
▁pc	-4255
▁口贲	-4256
pe	-4257
▁水京	-4258
▁草畜	-4259
▁手高	-4260
3%	-4261
1%	-4262
▁79	-4263
▁金贊	-4264
so	-4265
▁竹同	-4266
ai	-4267
▁手察	-4268
ld	-4269
▁口葛	-4270
▁1926	-4271
▁刀口丨儿丶	-4272
丰彐	-4273
▁肉昜	-4274
▁丰丰彐	-4275
▁草廌	-4276
▁110	-4277
co	-4278
夕工	-4279
▁立早夕工	-4280
▁次瓦	-4281
▁164	-4282
▁北異	-4283
▁戶羽	-4284
ame	-4285
▁弓尔	-4286
se	-4287
▁支	-4288
▁草因	-4289
▁宀元攴	-4290
人凵	-4291
ina	-4292
▁止人凵	-4293
▁1922	-4294
▁草頻	-4295
▁支羽	-4296
▁示录	-4297
▁隺鳥	-4298
ment	-4299
▁丷田	-4300
▁cent	-4301
▁心贯	-4302
▁170	-4303
▁丶冂米亏	-4304
▁有	-4305
▁人士	-4306
▁人為	-4307
▁心京	-4308
▁氏日	-4309
▁有邑	-4310
▁衣曷	-4311
▁手廷	-4312
▁夗心	-4313
▁comp	-4314
片爿	-4315
▁聿片爿	-4316
▁分贝	-4317
▁辵羅	-4318
▁口巾	-4319
▁丷田一口	-4320
7%	-4321
▁示斤	-4322
▁人卩	-4323
▁走刍	-4324
86	-4325
▁codice	-4326
▁84	-4327
▁酉卒	-4328
▁犬者	-4329
▁口曷	-4330
▁1914	-4331
▁次皿	-4332
▁250	-4333
▁89	-4334
▁广廿火	-4335
ans	-4336
▁匕禾	-4337
▁絲韋	-4338
▁93	-4339
▁亠田	-4340
▁心吾	-4341
ier	-4342
mp	-4343
▁手足	-4344
▁辰	-4345
▁车军	-4346
▁目青	-4347
▁人尞	-4348
▁辵庶	-4349
▁革圭	-4350
▁玉俞	-4351
▁勹厶	-4352
▁女敕	-4353
▁爪女	-4354
ung	-4355
▁戶攴聿	-4356
ork	-4357
丷夫水	-4358
▁水丷夫水	-4359
ational	-4360
▁门兑	-4361
▁几皇	-4362
▁手尤	-4363
▁手發	-4364
▁贝易	-4365
▁山侖	-4366
▁貝戎	-4367
▁食包	-4368
▁言堇	-4369
▁草夫	-4370
▁金小贝	-4371
▁av	-4372
▁山厓	-4373
▁玄田	-4374
▁貝貝	-4375
▁3000	-4376
▁貝者	-4377
▁土贝	-4378
▁id	-4379
▁加贝	-4380
▁1917	-4381
▁67	-4382
▁山岡	-4383
▁人为	-4384
4%	-4385
▁1900	-4386
▁肉彭	-4387
▁髟松	-4388
▁土阜	-4389
▁手爪缶	-4390
▁130	-4391
▁火皇	-4392
ium	-4393
▁气弗	-4394
▁犬瓜	-4395
▁口口几	-4396
▁宀龍	-4397
▁穴力	-4398
▁門甲	-4399
▁絲韱	-4400
ign	-4401
ee	-4402
▁大亏	-4403
▁水貴	-4404
▁1921	-4405
▁87	-4406
▁手丑	-4407
▁木同	-4408
▁177	-4409
6%	-4410
▁山与	-4411
匸一	-4412
▁石咸	-4413
▁肉丷夫	-4414
▁county	-4415
▁冰争	-4416
▁田肉	-4417
▁1913	-4418
▁魚粦	-4419
▁米羔	-4420
▁木口丷	-4421
lar	-4422
▁鱼禾	-4423
35	-4424
▁今貝	-4425
▁水召	-4426
▁竹由	-4427
▁木丙	-4428
▁1923	-4429
▁140	-4430
ary	-4431
ish	-4432
甘欠	-4433
▁日青	-4434
▁山甘欠	-4435
▁棥大手	-4436
▁巾長	-4437
▁火盧	-4438
上小	-4439
上小戈	-4440
▁厂上小戈	-4441
▁大人人	-4442
▁木嬰	-4443
▁贝曾	-4444
▁now	-4445
▁木奇	-4446
▁鹵	-4447
▁絲言弓	-4448
▁广龙	-4449
ogle	-4450
▁米胡	-4451
▁車干	-4452
▁木隋	-4453
▁肉僉	-4454
▁play	-4455
▁貝貝女	-4456
▁大隹田	-4457
▁肉丷夫马	-4458
ta	-4459
iki	-4460
▁门活	-4461
▁pa	-4462
8%	-4463
pl	-4464
▁ag	-4465
▁巾占	-4466
▁水桼	-4467
mm	-4468
▁水票	-4469
▁google	-4470
90	-4471
▁犬苗	-4472
▁齊小	-4473
▁或	-4474
▁玉章	-4475
▁72	-4476
▁任几	-4477
▁涂	-4478
▁涂土	-4479
age	-4480
▁小冖云	-4481
ach	-4482
▁水彭	-4483
▁木叔	-4484
▁病艮	-4485
▁草劦	-4486
▁175	-4487
▁my	-4488
▁魚包	-4489
▁1911	-4490
iel	-4491
▁贝占	-4492
▁木夋	-4493
勹火	-4494
9%	-4495
▁木東	-4496
▁qu	-4497
▁辰寸	-4498
▁ho	-4499
▁丝千	-4500
▁口喿	-4501
▁豸艮	-4502
▁草巴	-4503
▁ab	-4504
▁手當	-4505
▁辵月缶	-4506
▁者火	-4507
▁酉同	-4508
▁水十	-4509
▁木曹	-4510
▁走干	-4511
▁兼	-4512
▁丿天	-4513
▁肉詹	-4514
▁176	-4515
cl	-4516
▁犬师	-4517
ace	-4518
▁木象	-4519
▁兼欠	-4520
▁士冗	-4521
az	-4522
▁食司	-4523
冖心夕	-4524
▁一白冖心夕	-4525
▁文厂彡	-4526
▁尸丶目	-4527
▁168	-4528
▁900	-4529
▁辛束	-4530
▁合頁	-4531
▁尚木	-4532
▁圣	-4533
▁皮页	-4534
iss	-4535
▁卜贝	-4536
▁水必	-4537
▁林鹿	-4538
▁1910	-4539
▁馬夋	-4540
▁木旱	-4541
▁示单	-4542
▁音匀	-4543
▁丿口	-4544
▁虎胃	-4545
▁丿口冂厶	-4546
▁os	-4547
▁身朵	-4548
▁尸復	-4549
▁′	-4550
▁2020	-4551
▁车畐	-4552
36	-4553
日羽	-4554
一爿	-4555
▁肉駦	-4556
片一爿	-4557
▁94	-4558
▁金勺	-4559
▁其欠	-4560
▁申昜	-4561
▁166	-4562
▁水片一爿	-4563
▁ste	-4564
▁肉旦	-4565
▁耳悤	-4566
▁ー	-4567
▁父耶	-4568
▁心賁	-4569
▁per	-4570
ite	-4571
▁木匱	-4572
▁匚斤	-4573
▁鹿土	-4574
▁女支	-4575
▁lan	-4576
▁镸	-4577
▁心董	-4578
▁yo	-4579
iam	-4580
ivers	-4581
▁will	-4582
▁镸聿	-4583
▁辵尺	-4584
▁fre	-4585
▁目亡	-4586
▁金兌	-4587
▁no	-4588
▁人司	-4589
▁虎吴	-4590
are	-4591
ile	-4592
▁水鱼	-4593
▁mc	-4594
▁ps	-4595
一丨一	-4596
▁fo	-4597
▁足易	-4598
▁mon	-4599
▁巢	-4600
冖果	-4601
▁田一	-4602
▁彑冖果	-4603
▁果多	-4604
▁火品木	-4605
ml	-4606
▁人乔	-4607
▁er	-4608
▁丝韦	-4609
▁水工鸟	-4610
▁人喬	-4611
ky	-4612
▁酉孝	-4613
mb	-4614
▁圭	-4615
▁匚非	-4616
▁水余	-4617
▁人离	-4618
▁人呂	-4619
▁巢刀	-4620
▁甚力	-4621
▁水吉	-4622
▁mic	-4623
▁門月	-4624
▁革安	-4625
▁人右	-4626
▁酉州	-4627
▁83	-4628
▁芻	-4629
▁水衮	-4630
▁厶牛	-4631
▁金連	-4632
▁intern	-4633
▁音召	-4634
▁言咨	-4635
▁石日一寸	-4636
▁叒	-4637
▁盧	-4638
▁叒冝	-4639
ae	-4640
▁女吴	-4641
▁言永	-4642
彐人	-4643
▁ms	-4644
▁心瞿	-4645
▁广彐人	-4646
开刀	-4647
▁金羅	-4648
▁草开刀	-4649
▁水享	-4650
▁金隹	-4651
▁弓瓜	-4652
▁linux	-4653
▁代黑	-4654
▁int	-4655
▁口口犬	-4656
pr	-4657
for	-4658
▁土申	-4659
▁土日羽	-4660
▁土虚	-4661
▁虎匸一	-4662
▁冰京	-4663
ass	-4664
▁网卓	-4665
▁非車	-4666
▁火容	-4667
▁禾聿	-4668
▁β	-4669
直分	-4670
▁62	-4671
▁宀直分	-4672
▁又力	-4673
▁丿木	-4674
▁宀臣	-4675
ank	-4676
▁合皿	-4677
ica	-4678
▁の	-4679
▁口侯	-4680
▁水章	-4681
▁或心	-4682
▁165	-4683
▁手仓	-4684
au	-4685
▁冊	-4686
▁玉京	-4687
▁黍占	-4688
old	-4689
use	-4690
▁病留	-4691
ence	-4692
▁gre	-4693
▁水谷	-4694
▁示右	-4695
▁禾尤	-4696
▁匕頁	-4697
▁手彐	-4698
▁鼠	-4699
▁火臽	-4700
ical	-4701
▁sup	-4702
34	-4703
▁手齊	-4704
▁舍甫	-4705
▁辵乞	-4706
▁金丐	-4707
▁宀牛	-4708
▁手隽	-4709
▁bar	-4710
▁火柬	-4711
▁心卓	-4712
▁手卜	-4713
▁盧頁	-4714
▁es	-4715
▁手卷	-4716
ann	-4717
▁05	-4718
▁女干	-4719
▁巾童	-4720
▁mod	-4721
▁絲敫	-4722
▁61	-4723
▁圭卜	-4724
ley	-4725
▁足止	-4726
▁气分	-4727
▁1905	-4728
de	-4729
▁手菐	-4730
▁石肖	-4731
48	-4732
▁广奄	-4733
▁非羽	-4734
amp	-4735
dp	-4736
▁口辰	-4737
▁肉方	-4738
▁敖	-4739
me	-4740
arl	-4741
▁105	-4742
▁火考	-4743
99	-4744
▁草牙	-4745
▁人夹	-4746
aw	-4747
▁网去	-4748
▁iii	-4749
▁158	-4750
▁水暴	-4751
▁玉鬼	-4752
▁肉庄	-4753
▁舟仓	-4754
▁micro	-4755
lat	-4756
▁木朋	-4757
ost	-4758
▁蟲叚	-4759
▁手罢	-4760
▁牙鳥	-4761
▁立夋	-4762
▁九日	-4763
▁雨林	-4764
▁山支	-4765
▁1916	-4766
▁穴屈	-4767
▁草存	-4768
▁豸艮土	-4769
▁1915	-4770
▁156	-4771
▁馬扁	-4772
▁fl	-4773
▁赤攴	-4774
▁酉旨	-4775
▁5000	-4776
ime	-4777
▁06	-4778
▁火丙	-4779
▁人尝	-4780
▁口交	-4781
▁手丞	-4782
▁一凵	-4783
▁足宗	-4784
▁足犮	-4785
▁ev	-4786
ome	-4787
▁ut	-4788
▁ic	-4789
▁心参	-4790
▁univers	-4791
▁玉夐	-4792
ke	-4793
▁火火冖蟲	-4794
32	-4795
▁虎彡	-4796
act	-4797
▁cor	-4798
ames	-4799
▁隺鸟	-4800
▁石旁	-4801
▁言枼	-4802
▁言遣	-4803
▁肉殿	-4804
▁wor	-4805
▁人责	-4806
▁rob	-4807
▁米占	-4808
▁冰台	-4809
▁木兰	-4810
▁沙魚	-4811
▁尸婁	-4812
▁ib	-4813
▁石勘	-4814
▁水啇	-4815
▁104	-4816
▁禾惠	-4817
▁代貝	-4818
▁cp	-4819
▁肉丕	-4820
ction	-4821
ms	-4822
tv	-4823
▁肉豕	-4824
▁示咼	-4825
▁gro	-4826
▁min	-4827
▁草心	-4828
▁丿一乙	-4829
▁gen	-4830
▁我鳥	-4831
▁手啇	-4832
▁火东一	-4833
anc	-4834
▁155	-4835
▁火少	-4836
hz	-4837
▁met	-4838
▁氐	-4839
▁125	-4840
▁日者	-4841
▁草敝	-4842
▁禺	-4843
ash	-4844
▁玉攴	-4845
▁人雇	-4846
▁pe	-4847
▁金勻	-4848
33	-4849
丿米	-4850
▁木梁	-4851
丿米丨	-4852
▁草署	-4853
▁水丿米丨	-4854
▁水戋	-4855
ower	-4856
▁手率	-4857
▁po	-4858
▁1906	-4859
▁106	-4860
▁犬夹	-4861
▁土者	-4862
▁草夌	-4863
▁土亘	-4864
▁广人隹鸟	-4865
▁口尼	-4866
▁玉胡	-4867
▁犬星	-4868
▁公頁	-4869
▁石专	-4870
▁草汤	-4871
▁ン	-4872
▁屰	-4873
▁屰月	-4874
ys	-4875
▁人委	-4876
▁絲丩	-4877
enn	-4878
▁07	-4879
▁木昆	-4880
▁阜大	-4881
▁阜大入入	-4882
38	-4883
▁丷酉	-4884
▁咅刀	-4885
▁159	-4886
▁水山	-4887
▁敝廾	-4888
▁一丷	-4889
▁父巴	-4890
▁草加	-4891
▁一丷大	-4892
▁解	-4893
▁解虫	-4894
▁1907	-4895
▁丵取	-4896
▁食几	-4897
▁凸	-4898
▁丝妥	-4899
▁101	-4900
▁冰東	-4901
▁厶矢	-4902
▁雨相	-4903
stem	-4904
爪壬	-4905
▁金寿	-4906
▁食蟲	-4907
ony	-4908
▁157	-4909
▁穴咼	-4910
▁che	-4911
▁免	-4912
▁免力	-4913
▁1909	-4914
▁亦大	-4915
▁木留	-4916
tp	-4917
▁dav	-4918
gr	-4919
▁口咸	-4920
肉力	-4921
▁竹肉力	-4922
▁女宛	-4923
▁all	-4924
▁mag	-4925
▁人敖	-4926
uth	-4927
▁人丈	-4928
▁口鸟	-4929
▁氐邑	-4930
▁土立	-4931
▁人兒	-4932
▁凹	-4933
▁貝咅	-4934
▁口卑	-4935
▁水虑	-4936
▁心俞	-4937
▁web	-4938
45	-4939
▁1908	-4940
▁木敢	-4941
▁木西	-4942
▁竹目大絲	-4943
▁gu	-4944
▁口麻	-4945
▁山夋	-4946
▁禾尤旨	-4947
▁mm	-4948
▁水爪壬	-4949
▁1895	-4950
▁土及	-4951
▁1500	-4952
▁田壽	-4953
▁虫圭	-4954
▁心兌	-4955
▁08	-4956
▁mat	-4957
▁匸若	-4958
▁足戋	-4959
▁金廉	-4960
人人十	-4961
▁人人人人十	-4962
▁do	-4963
int	-4964
瓜辛	-4965
▁衣中	-4966
▁辛瓜辛	-4967
▁水巿	-4968
▁水肴	-4969
▁言風	-4970
▁а	-4971
▁水贵	-4972
ase	-4973
▁鬥	-4974
▁1904	-4975
▁自犬	-4976
37	-4977
▁絲帝	-4978
▁har	-4979
▁lov	-4980
▁歹旬	-4981
▁金少	-4982
▁大爻爻	-4983
eng	-4984
▁口拉	-4985
▁豐	-4986
per	-4987
▁隊	-4988
▁隊土	-4989
ck	-4990
ool	-4991
▁em	-4992
▁立曷	-4993
▁立早夕工贝	-4994
ose	-4995
▁真頁	-4996
▁金睪	-4997
▁大田	-4998
▁絲邦	-4999
▁言俞	-5000
▁爪冖舛	-5001
▁木登	-5002
▁09	-5003
▁nh	-5004
▁厂人隹	-5005
▁su	-5006
▁水林	-5007
▁馬也	-5008
▁mp	-5009
▁西米	-5010
▁81	-5011
▁82	-5012
▁亨	-5013
▁亨火	-5014
▁草巠	-5015
▁115	-5016
ale	-5017
▁木矞	-5018
▁非衣	-5019
▁骨亥	-5020
▁cla	-5021
▁井刀	-5022
▁木覽	-5023
▁mv	-5024
▁system	-5025
▁竹黄	-5026
▁丝方	-5027
▁心每	-5028
日小	-5029
▁竹韱	-5030
▁á	-5031
▁壹	-5032
▁壹恣	-5033
▁馬蚤	-5034
▁world	-5035
▁言朱	-5036
▁阜小	-5037
▁阜小日小	-5038
▁言全	-5039
▁言甬	-5040
▁石几	-5041
▁女啇	-5042
▁草陰	-5043
ult	-5044
▁pet	-5045
▁凵乂	-5046
▁人至	-5047
▁手合	-5048
▁dis	-5049
▁口彖	-5050
▁匕禾頁	-5051
▁冊刀	-5052
▁167	-5053
▁水將	-5054
▁air	-5055
▁人朱	-5056
▁71	-5057
ual	-5058
▁肉長	-5059
ance	-5060
▁水戾	-5061
▁玉巛囟	-5062
ere	-5063
▁幺幺戈田	-5064
▁手免	-5065
▁肉旁	-5066
▁金壽	-5067
ho	-5068
▁tvb	-5069
▁草疏	-5070
▁革便	-5071
km	-5072
xt	-5073
▁92	-5074
▁med	-5075
▁言乍	-5076
由八	-5077
▁禾隹	-5078
▁宀一由八	-5079
▁bro	-5080
▁山屈	-5081
▁金甲	-5082
▁gn	-5083
31	-5084
▁109	-5085
▁厂萬	-5086
▁108	-5087
▁竹龍	-5088
▁宀叔	-5089
▁禺心	-5090
▁107	-5091
▁臼車	-5092
▁臼車一八	-5093
▁票	-5094
▁水奄	-5095
▁des	-5096
soft	-5097
iro	-5098
▁口奐	-5099
ri	-5100
▁徴	-5101
▁口里	-5102
▁徴心	-5103
▁文武	-5104
ca	-5105
▁草容	-5106
▁鹵僉	-5107
da	-5108
ict	-5109
▁石圭	-5110
olog	-5111
▁水監	-5112
▁草平	-5113
▁水咼	-5114
▁gl	-5115
禾殳	-5116
▁士冖禾殳	-5117
der	-5118
▁犬守	-5119
▁金襄	-5120
▁酉先	-5121
▁can	-5122
▁nor	-5123
▁人菐	-5124
▁犬袁	-5125
ins	-5126
▁水世	-5127
▁土冢	-5128
ics	-5129
▁#	-5130
▁亞土	-5131
itt	-5132
yn	-5133
ode	-5134
▁土烏	-5135
▁立女	-5136
▁水勃	-5137
42	-5138
▁水定	-5139
▁牛土	-5140
ve	-5141
ade	-5142
▁草羅	-5143
▁128	-5144
▁厂猒	-5145
月刀	-5146
urn	-5147
▁人一月刀	-5148
▁丿戈	-5149
▁竹龙	-5150
▁william	-5151
▁ep	-5152
ron	-5153
▁ü	-5154
lex	-5155
▁高肉	-5156
▁1902	-5157
▁127	-5158
ki	-5159
▁1901	-5160
▁歹千	-5161
39	-5162
▁朋鳥	-5163
▁金兑	-5164
▁app	-5165
ars	-5166
▁病皮	-5167
46	-5168
oth	-5169
▁貝乏	-5170
▁手发	-5171
▁言月缶	-5172
▁手坐	-5173
▁肉弓丿丿	-5174
▁nowiki	-5175
▁门甲	-5176
▁木甬	-5177
▁广尌	-5178
▁水末	-5179
▁live	-5180
aur	-5181
▁手鄭	-5182
▁丝帛	-5183
▁肉危	-5184
▁手牚	-5185
▁136	-5186
▁土賁	-5187
▁木容	-5188
▁iso	-5189
af	-5190
▁水蜀	-5191
▁爪子	-5192
▁360	-5193
▁水卯	-5194
▁骨各	-5195
▁未	-5196
▁真页	-5197
▁金内	-5198
▁you	-5199
▁言迷	-5200
▁1898	-5201
▁日暴	-5202
▁我鸟	-5203
▁水真	-5204
ata	-5205
▁白完	-5206
▁mus	-5207
▁足戔	-5208
▁鬼未	-5209
sc	-5210
▁草盧	-5211
▁行吾	-5212
▁4000	-5213
▁人贞	-5214
▁水查	-5215
▁水甚	-5216
▁水卯金刀	-5217
攴厂	-5218
▁未攴厂	-5219
▁缶工	-5220
▁ak	-5221
▁古辛	-5222
▁羊令	-5223
▁we	-5224
▁虫朱	-5225
▁贝贝	-5226
▁水寿	-5227
▁臤肉	-5228
心隹	-5229
▁石欠	-5230
▁足帝	-5231
▁网心隹	-5232
▁喜	-5233
▁jav	-5234
▁cat	-5235
▁microsoft	-5236
▁草圣	-5237
▁弋心	-5238
▁武	-5239
▁日析	-5240
orn	-5241
47	-5242
ax	-5243
rom	-5244
▁石專	-5245
▁衣蔑	-5246
▁91	-5247
▁1903	-5248
▁亥力	-5249
▁口寸	-5250
station	-5251
▁示貞	-5252
▁言柬	-5253
▁и	-5254
▁束刀	-5255
dr	-5256
ood	-5257
▁res	-5258
▁木菐	-5259
▁金咼	-5260
▁肉土	-5261
▁水匚隹	-5262
95	-5263
▁將酉	-5264
▁草甘	-5265
▁her	-5266
▁水尃	-5267
▁甲鸟	-5268
冖鬯	-5269
▁犬里	-5270
▁虎男	-5271
冖鬯彡	-5272
▁人旁	-5273
▁金丁	-5274
▁金由	-5275
▁三厶	-5276
own	-5277
缶木	-5278
▁骨遀	-5279
▁木缶木	-5280
▁木缶木冖鬯彡	-5281
▁厽土	-5282
▁135	-5283
▁人府	-5284
▁言內	-5285
▁耳卯	-5286
ward	-5287
tr	-5288
▁野	-5289
▁野土	-5290
▁116	-5291
▁118	-5292
▁籥	-5293
▁牙鸟	-5294
▁籥頁	-5295
▁350	-5296
▁super	-5297
ler	-5298
▁士冖豆	-5299
▁school	-5300
▁草明	-5301
▁旉	-5302
▁旉攴	-5303
▁center	-5304
凶儿	-5305
▁о	-5306
▁凶儿	-5307
▁广户	-5308
▁门人	-5309
▁厂相廂	-5310
▁目舜	-5311
▁草完	-5312
▁門辟	-5313
▁食我	-5314
▁rna	-5315
▁垔	-5316
▁love	-5317
▁【	-5318
▁km	-5319
▁元	-5320
▁】	-5321
▁chr	-5322
▁匕页	-5323
▁手台	-5324
▁水慮	-5325
▁playstation	-5326
▁絲逢	-5327
▁門馬	-5328
▁sw	-5329
lo	-5330
▁木辛	-5331
▁10%	-5332
▁1896	-5333
oci	-5334
▁by	-5335
▁人奇	-5336
▁门木	-5337
▁鬥市	-5338
▁gdp	-5339
▁str	-5340
ise	-5341
▁病冬	-5342
▁臼男	-5343
▁草水平	-5344
▁手禽	-5345
asa	-5346
▁木南	-5347
ube	-5348
▁山寺	-5349
▁竹馬	-5350
▁示氏	-5351
▁林彡	-5352
▁酉荃	-5353
▁每亠厶川	-5354
▁日吾	-5355
▁宀肖	-5356
▁1860	-5357
▁目苗	-5358
▁137	-5359
▁50%	-5360
▁ass	-5361
▁肉桼	-5362
▁衣包	-5363
▁肉重	-5364
▁山高	-5365
▁水張	-5366
▁草曼	-5367
ald	-5368
▁口赫	-5369
▁文而	-5370
▁mark	-5371
▁ö	-5372
▁彑米	-5373
▁145	-5374
▁bas	-5375
▁one	-5376
糸廾	-5377
▁金居	-5378
▁ind	-5379
▁贝贝女	-5380
▁录	-5381
▁录刀	-5382
▁手末	-5383
▁虫扁	-5384
▁水勇	-5385
yle	-5386
▁04	-5387
▁水賴	-5388
▁ibm	-5389
▁off	-5390
▁彑米糸廾	-5391
▁je	-5392
▁卜冖	-5393
▁1897	-5394
▁sn	-5395
▁玉奇	-5396
▁臣卜	-5397
▁117	-5398
▁高攴	-5399
▁comm	-5400
▁犬且	-5401
▁1889	-5402
▁木亶	-5403
▁1200	-5404
▁dc	-5405
▁网馬	-5406
▁1890	-5407
儿土	-5408
里儿土	-5409
百弓	-5410
▁弓百弓	-5411
▁缶雚	-5412
▁act	-5413
▁亠丷厂彡	-5414
▁代贝	-5415
ka	-5416
▁university	-5417
undam	-5418
▁赤邑	-5419
att	-5420
▁ele	-5421
▁勹丿丿	-5422
be	-5423
ana	-5424
▁巩革	-5425
▁湯	-5426
▁20%	-5427
▁肉长	-5428
▁絲言蟲	-5429
▁ā	-5430
▁垔瓦	-5431
▁目尞	-5432
▁冂丨	-5433
▁水文刀	-5434
大廾	-5435
▁金表	-5436
▁草大廾	-5437
▁mr	-5438
▁木章	-5439
▁代山	-5440
▁匚甲	-5441
lin	-5442
▁ra	-5443
va	-5444
▁老日	-5445
work	-5446
▁hd	-5447
▁lo	-5448
▁草於	-5449
▁木丈	-5450
▁鱼京	-5451
▁169	-5452
pt	-5453
▁bla	-5454
ont	-5455
▁1899	-5456
▁病風	-5457
▁絲广	-5458
▁ent	-5459
▁絲广里儿土	-5460
eth	-5461
▁絲申	-5462
▁del	-5463
▁喜火	-5464
▁丷夫目	-5465
▁stud	-5466
▁※	-5467
儿夕	-5468
▁广則	-5469
ius	-5470
oph	-5471
▁尸二丨二牛	-5472
▁hy	-5473
▁金丑	-5474
▁im	-5475
▁大者	-5476
▁辵爪缶	-5477
▁ir	-5478
▁辵失	-5479
▁ds	-5480
▁彔	-5481
▁土龍	-5482
▁匚王	-5483
▁水松	-5484
▁羊儿	-5485
ited	-5486
▁朋鸟	-5487
▁衣君	-5488
▁申弓丿丿	-5489
▁水夕	-5490
▁with	-5491
▁保衣	-5492
▁册	-5493
▁册刀	-5494
▁1871	-5495
▁geor	-5496
▁手尢力拋	-5497
▁μ	-5498
▁若	-5499
▁sil	-5500
▁草付	-5501
▁酉鬼	-5502
▁彔刀	-5503
▁草焦	-5504
▁口圭	-5505
▁木官	-5506
▁水曷	-5507
▁肉宛	-5508
▁丝丩	-5509
▁束攴	-5510
▁酉襄	-5511
▁气亥	-5512
cd	-5513
▁工凡	-5514
▁若心	-5515
▁札	-5516
▁札絲	-5517
▁mich	-5518
▁牛羲	-5519
▁水胃	-5520
▁gundam	-5521
ott	-5522
▁金勾	-5523
▁126	-5524
41	-5525
gb	-5526
▁你	-5527
▁ty	-5528
▁你心	-5529
▁禾夌	-5530
▁肉半	-5531
▁贝咅	-5532
▁欲	-5533
▁欲心	-5534
▁rec	-5535
ner	-5536
▁執	-5537
▁火頁	-5538
▁iv	-5539
▁不一	-5540
illa	-5541
▁臣人	-5542
▁val	-5543
cr	-5544
ha	-5545
▁风	-5546
ike	-5547
▁cm	-5548
▁肉夫	-5549
▁pol	-5550
▁ss	-5551
▁international	-5552
▁木俞	-5553
▁血	-5554
▁et	-5555
▁火闌	-5556
▁env	-5557
ition	-5558
▁病叟	-5559
▁絲覽	-5560
▁金占	-5561
▁水俞	-5562
▁食尧	-5563
▁手闌	-5564
▁示邑	-5565
▁木夌	-5566
enc	-5567
▁央	-5568
▁隋	-5569
▁水侖	-5570
▁示壽	-5571
▁隋土	-5572
▁马蚤	-5573
▁cap	-5574
▁pl	-5575
▁木皆	-5576
▁丬夕水	-5577
▁广郭	-5578
▁い	-5579
▁山今	-5580
▁石典	-5581
▁門伐	-5582
▁馬聚	-5583
▁心贲	-5584
▁久	-5585
▁木亠厶川	-5586
▁日進	-5587
▁女亚	-5588
▁金呂	-5589
▁冖兔	-5590
▁手欣	-5591
▁石宛	-5592
▁ä	-5593
▁colle	-5594
ara	-5595
▁口馬	-5596
▁絲致	-5597
▁未攴厂里	-5598
▁丝逢	-5599
▁金八口	-5600
▁刀丶	-5601
▁vis	-5602
▁木吾	-5603
▁日軍	-5604
▁絲帛	-5605
yl	-5606
▁fe	-5607
▁1800	-5608
br	-5609
▁巾戠	-5610
▁ver	-5611
▁金里	-5612
▁水壽	-5613
▁虎文	-5614
43	-5615
▁人幸	-5616
▁火户	-5617
▁cro	-5618
▁心尤	-5619
▁门伐	-5620
ield	-5621
▁1870	-5622
▁嬰	-5623
▁嬰鳥	-5624
▁金吕	-5625
▁各	-5626
▁歹韱	-5627
du	-5628
▁圣页	-5629
▁竹其	-5630
▁貝兼	-5631
▁wal	-5632
▁david	-5633
▁138	-5634
ox	-5635
cc	-5636
▁车斤	-5637
▁robert	-5638
▁阜員	-5639
▁草倉	-5640
44	-5641
▁利牛	-5642
▁trans	-5643
▁厂昔	-5644
▁女胥	-5645
▁土方攴	-5646
▁玉良	-5647
▁宀龙	-5648
▁intel	-5649
▁正一	-5650
▁正一勹火	-5651
▁sec	-5652
▁cont	-5653
▁言京	-5654
ille	-5655
▁cpu	-5656
▁黑今	-5657
▁虫胡	-5658
osh	-5659
▁草尉	-5660
ject	-5661
▁−	-5662
▁食虫	-5663
▁火巨	-5664
▁fac	-5665
▁手舍	-5666
▁草旬	-5667
▁手平	-5668
▁舟白	-5669
▁di	-5670
▁war	-5671
几口	-5672
▁金几口	-5673
釆禼	-5674
▁酉良	-5675
▁穴釆禼	-5676
▁手難	-5677
uch	-5678
able	-5679
▁口阿	-5680
隹亏	-5681
▁风具	-5682
▁虎隹亏	-5683
98	-5684
▁耳火	-5685
▁reg	-5686
▁次口	-5687
▁马爻	-5688
▁垚	-5689
▁垚兀	-5690
▁草仓	-5691
▁up	-5692
▁非车	-5693
▁power	-5694
▁口朝	-5695
▁木更	-5696
人目	-5697
一八人目	-5698
▁卜冖一八人目	-5699
▁巾晃	-5700
▁口宅	-5701
▁示其	-5702
▁灰	-5703
▁灰皿	-5704
▁金辛	-5705
▁水合	-5706
▁亦弓	-5707
▁水弗	-5708
▁水益	-5709
▁竹立	-5710
▁門品	-5711
aster	-5712
▁charl	-5713
▁水臼	-5714
▁rich	-5715
49	-5716
▁草惢	-5717
▁言荒	-5718
▁mor	-5719
urg	-5720
ett	-5721
▁fa	-5722
▁父斤	-5723
▁雨文	-5724
▁木东	-5725
▁木古	-5726
▁田寿	-5727
▁厂万	-5728
▁div	-5729
▁羊丿丑	-5730
▁star	-5731
▁sl	-5732
▁辟言	-5733
▁丘丿	-5734
▁臼车	-5735
▁草无	-5736
▁臼车一八	-5737
▁虫知	-5738
▁pre	-5739
▁ca	-5740
▁心荒	-5741
▁米曹	-5742
fl	-5743
▁í	-5744
▁paul	-5745
▁ter	-5746
oss	-5747
▁衣庫	-5748
▁ts	-5749
▁匸扁	-5750
▁门单	-5751
▁耳又又	-5752
▁sd	-5753
▁土霸	-5754
▁水四	-5755
▁1885	-5756
ino	-5757
▁1894	-5758
cm	-5759
▁口肖	-5760
92	-5761
▁土乌	-5762
▁土敦	-5763
▁巾只	-5764
▁十戈口	-5765
▁女我	-5766
▁言风	-5767
▁80%	-5768
▁ó	-5769
▁1600	-5770
▁土奇	-5771
▁水臼勹火	-5772
▁back	-5773
▁220	-5774
▁湯皿	-5775
▁part	-5776
ave	-5777
▁虎力	-5778
▁言莫	-5779
▁amer	-5780
▁衣彡	-5781
las	-5782
▁水留	-5783
▁心各	-5784
▁103	-5785
▁vir	-5786
▁102	-5787
ham	-5788
▁cal	-5789
▁絲方	-5790
65	-5791
▁da	-5792
▁草庶	-5793
▁147	-5794
▁game	-5795
早戈	-5796
▁口今	-5797
▁絲卓	-5798
▁十早戈	-5799
▁inst	-5800
▁贝乏	-5801
▁人卜	-5802
▁父金	-5803
▁草湯	-5804
▁公页	-5805
ene	-5806
▁貝有	-5807
▁人鬼	-5808
▁贝戎	-5809
▁high	-5810
▁火圣	-5811
▁石切	-5812
▁christ	-5813
▁肉力	-5814
▁是匕	-5815
▁石夕	-5816
▁cy	-5817
▁1880	-5818
▁竹目大厶	-5819
▁01	-5820
pg	-5821
▁人卑	-5822
way	-5823
▁尸娄	-5824
▁牛西	-5825
▁水斤	-5826
▁111	-5827
▁子攴	-5828
▁日匿	-5829
▁wil	-5830
▁6000	-5831
▁土屈	-5832
▁java	-5833
▁水頻	-5834
uk	-5835
▁手奉	-5836
▁水既	-5837
▁絲咠	-5838
fer	-5839
▁手斯	-5840
▁山我	-5841
box	-5842
▁水帶	-5843
▁武鳥	-5844
▁气青	-5845
▁水參	-5846
▁1884	-5847
▁门文	-5848
▁人畺	-5849
▁人畾	-5850
ings	-5851
▁革大艮	-5852
ement	-5853
▁group	-5854
uro	-5855
▁park	-5856
▁弟	-5857
ael	-5858
▁ス	-5859
▁1861	-5860
▁金臬	-5861
▁90%	-5862
ism	-5863
▁win	-5864
ream	-5865
▁с	-5866
▁人庸	-5867
▁肉中	-5868
▁chem	-5869
▁sk	-5870
▁草高	-5871
▁nhk	-5872
sd	-5873
▁刀电	-5874
ook	-5875
▁木隶	-5876
▁max	-5877
▁口耆	-5878
▁手当	-5879
▁魚里	-5880
▁450	-5881
▁木冘	-5882
by	-5883
▁豐色	-5884
pa	-5885
▁芻隹	-5886
幺肉	-5887
▁火土	-5888
幺肉乚	-5889
▁丿幺肉乚	-5890
▁н	-5891
▁丝邦	-5892
85	-5893
▁貝賣	-5894
vel	-5895
▁eng	-5896
▁ur	-5897
▁雨务	-5898
▁mk	-5899
▁手尃	-5900
ute	-5901
▁sim	-5902
▁30%	-5903
▁national	-5904
▁水歰	-5905
口币	-5906
▁日光	-5907
丨一口币	-5908
▁е	-5909
▁竹薄	-5910
▁il	-5911
▁門單	-5912
▁水张	-5913
▁129	-5914
▁sg	-5915
fc	-5916
▁言翏	-5917
▁lim	-5918
▁ba	-5919
▁1888	-5920
▁肉佥	-5921
▁style	-5922
▁目者	-5923
▁na	-5924
▁雨廷	-5925
▁music	-5926
ied	-5927
▁丿士	-5928
▁穴呙	-5929
▁草姑	-5930
▁don	-5931
fa	-5932
▁ec	-5933
▁city	-5934
▁丝敫	-5935
▁ke	-5936
▁1848	-5937
iver	-5938
++	-5939
▁γ	-5940
▁爿女	-5941
▁tech	-5942
▁冰东	-5943
▁石黄	-5944
▁耳总	-5945
▁rad	-5946
▁口于	-5947
▁心具	-5948
▁ang	-5949
▁孰土	-5950
ior	-5951
▁心感	-5952
▁cs	-5953
oo	-5954
▁人用	-5955
▁韋	-5956
▁心既	-5957
▁james	-5958
▁手習	-5959
▁146	-5960
▁亡女	-5961
▁木览	-5962
▁http	-5963
▁食堯	-5964
▁木詹	-5965
▁草句	-5966
▁align	-5967
ital	-5968
▁enviro	-5969
▁σ	-5970
mer	-5971
▁門臽	-5972
▁草如	-5973
▁女女	-5974
▁art	-5975
▁水曳	-5976
▁女女女	-5977
ife	-5978
▁手过	-5979
▁目詹	-5980
▁1887	-5981
▁1862	-5982
▁open	-5983
▁金垂	-5984
▁前火	-5985
que	-5986
▁甘邑	-5987
▁水古	-5988
oll	-5989
▁水心	-5990
一儿	-5991
▁木果	-5992
▁td	-5993
▁臤豆	-5994
▁草卒	-5995
▁鹿其	-5996
▁穴缶	-5997
▁丝叕	-5998
▁手予	-5999
let	-6000
ology	-6001
▁今贝	-6002
▁手莫	-6003
▁肉堂	-6004
▁dire	-6005
▁nt	-6006
▁丿去	-6007
▁big	-6008
▁du	-6009
▁火旱	-6010
▁言巫	-6011
▁女爰	-6012
▁言可	-6013
▁mer	-6014
▁金呙	-6015
▁red	-6016
▁女賓	-6017
▁女马	-6018
▁ha	-6019
▁tom	-6020
丷十	-6021
▁人丷十	-6022
▁一儿	-6023
▁匚白	-6024
▁病愈	-6025
▁are	-6026
▁馬句	-6027
▁马聚	-6028
▁征	-6029
▁土步	-6030
▁圣力	-6031
▁征心	-6032
▁禾周	-6033
▁甲禸	-6034
fs	-6035
any	-6036
▁ga	-6037
ds	-6038
▁金美	-6039
▁又艮	-6040
▁40%	-6041
▁р	-6042
▁巾长	-6043
▁水军	-6044
▁木宾	-6045
▁心孛	-6046
▁pat	-6047
▁门臽	-6048
96	-6049
▁口匕	-6050
ane	-6051
▁手掌	-6052
▁240	-6053
▁unic	-6054
▁毛	-6055
▁ta	-6056
▁亦虫	-6057
▁lib	-6058
▁1867	-6059
ric	-6060
▁丘丶	-6061
▁口米	-6062
▁子包	-6063
▁穴卖	-6064
▁絲少	-6065
▁髟须	-6066
▁utc	-6067
▁π	-6068
▁匸丨口丨	-6069
▁立早夕工貝	-6070
▁bbc	-6071
▁ber	-6072
▁ww	-6073
▁丝黾	-6074
to	-6075
▁木隋橢	-6076
▁unix	-6077
▁手齐	-6078
▁1850	-6079
▁thom	-6080
戶邑	-6081
▁水戶邑	-6082
po	-6083
▁辵豆	-6084
▁日安	-6085
▁草委	-6086
▁ル	-6087
▁水频	-6088
56	-6089
ga	-6090
▁人皆	-6091
▁水呙	-6092
aph	-6093
▁臣丿一丶网金	-6094
▁目坴	-6095
▁山昆	-6096
▁声殳香	-6097
ebook	-6098
▁serv	-6099
▁out	-6100
▁alex	-6101
▁石水	-6102
▁匕禾页	-6103
▁1868	-6104
▁day	-6105
gro	-6106
▁03	-6107
▁言韋	-6108
▁金內	-6109
ark	-6110
▁土匽	-6111
▁〕	-6112
ull	-6113
▁af	-6114
▁747	-6115
▁〔	-6116
▁佥攴	-6117
▁示呙	-6118
▁丨丨又肉	-6119
▁工水	-6120
▁amd	-6121
▁絲睪	-6122
▁king	-6123
erson	-6124
▁2500	-6125
▁人吕	-6126
▁し	-6127
▁麻非	-6128
▁der	-6129
▁fla	-6130
▁ん	-6131
▁kn	-6132
▁火奐	-6133
▁革巴	-6134
▁黑出	-6135
port	-6136
ql	-6137
▁白告	-6138
▁70%	-6139
▁fin	-6140
ese	-6141
▁手翟	-6142
▁玉爪缶	-6143
▁bm	-6144
▁mg	-6145
▁水臭	-6146
▁arm	-6147
87	-6148
▁bu	-6149
▁в	-6150
ake	-6151
▁马扁	-6152
▁ce	-6153
▁水軍	-6154
▁辟玉	-6155
▁1893	-6156
icon	-6157
▁atp	-6158
丂戈	-6159
▁羊禾	-6160
▁肉善	-6161
▁羊禾丂戈	-6162
▁02	-6163
▁口筮	-6164
▁水分	-6165
▁言夸	-6166
▁hen	-6167
mun	-6168
▁not	-6169
era	-6170
▁口多	-6171
▁う	-6172
▁女方	-6173
▁水夋	-6174
▁unicode	-6175
ven	-6176
▁草青	-6177
aurus	-6178
▁direct	-6179
inc	-6180
▁人老	-6181
▁肉工	-6182
▁草西	-6183
97	-6184
ear	-6185
▁丝帝	-6186
▁酉昔	-6187
▁水目	-6188
ication	-6189
▁人一冊	-6190
▁1864	-6191
▁org	-6192
虫虫	-6193
les	-6194
▁玉䍃	-6195
▁勹冰	-6196
▁水奏	-6197
▁1886	-6198
▁к	-6199
▁金柬	-6200
网方	-6201
▁dos	-6202
▁厂犬	-6203
▁草熏	-6204
▁rock	-6205
▁日军	-6206
▁facebook	-6207
▁就	-6208
▁金玄	-6209
▁1876	-6210
▁絲妥	-6211
berg	-6212
▁class	-6213
▁卵	-6214
丅二	-6215
▁丿丅二	-6216
▁八兄	-6217
▁卵孚	-6218
▁病昷	-6219
▁nat	-6220
▁sky	-6221
ution	-6222
64	-6223
ipt	-6224
▁5%	-6225
▁阜龙	-6226
▁革化	-6227
▁bel	-6228
▁text	-6229
eration	-6230
▁λ	-6231
oug	-6232
▁color	-6233
▁小土	-6234
▁210	-6235
▁1892	-6236
ele	-6237
▁xp	-6238
▁女亭	-6239
▁jack	-6240
▁280	-6241
▁穴賣	-6242
▁1881	-6243
▁丿大	-6244
▁土龙	-6245
▁fm	-6246
ubl	-6247
▁bi	-6248
▁咢頁	-6249
▁阜走	-6250
▁michael	-6251
▁イ	-6252
▁人令	-6253
▁charles	-6254
ari	-6255
ero	-6256
▁ok	-6257
▁草朱	-6258
▁sun	-6259
▁dj	-6260
▁水其	-6261
▁血乑	-6262
▁虫文	-6263
▁心兑	-6264
▁水仓	-6265
▁sci	-6266
▁竹本	-6267
▁草缊	-6268
▁1865	-6269
▁time	-6270
▁δ	-6271
▁日翟	-6272
▁112	-6273
▁1873	-6274
▁手閣	-6275
▁示贞	-6276
▁金太	-6277
▁木网方	-6278
▁yout	-6279
▁草縕	-6280
▁路	-6281
irl	-6282
▁酉分	-6283
▁260	-6284
▁队	-6285
▁队土	-6286
▁1840	-6287
▁肉星	-6288
▁草每	-6289
▁sam	-6290
66	-6291
sa	-6292
▁亶	-6293
▁白巾	-6294
▁虫易	-6295
▁贝反	-6296
▁贝长	-6297
▁金巨	-6298
▁230	-6299
▁fire	-6300
▁元頁	-6301
▁戊丶	-6302
▁水监	-6303
span	-6304
▁bill	-6305
▁bus	-6306
▁示寿	-6307
▁ant	-6308
▁木風	-6309
▁火扇	-6310
▁疋月	-6311
▁colspan	-6312
▁113	-6313
press	-6314
▁人每	-6315
▁虫丰	-6316
丨一彐	-6317
▁丿丨一彐	-6318
▁土夸	-6319
▁絲叕	-6320
▁techn	-6321
▁richard	-6322
▁1879	-6323
▁雨辟	-6324
▁apg	-6325
94	-6326
rol	-6327
▁rom	-6328
ons	-6329
ree	-6330
88	-6331
▁vi	-6332
▁手反	-6333
▁米造	-6334
▁alb	-6335
▁1874	-6336
▁inc	-6337
ena	-6338
▁ig	-6339
▁60%	-6340
▁1882	-6341
▁750	-6342
▁耳心	-6343
▁肉太	-6344
▁卜囗乂	-6345
ker	-6346
▁玉比	-6347
▁arch	-6348
▁apple	-6349
▁开邑	-6350
▁草咢	-6351
▁1875	-6352
ator	-6353
td	-6354
▁莫日	-6355
▁sub	-6356
▁kh	-6357
ford	-6358
▁病人彡	-6359
ya	-6360
▁pop	-6361
▁肉夷	-6362
▁youtube	-6363
ico	-6364
▁央皿	-6365
▁癶天	-6366
▁虫義	-6367
▁阜禺	-6368
▁草臺	-6369
▁bet	-6370
▁8000	-6371
▁秋	-6372
ude	-6373
vid	-6374
▁石朋	-6375
▁雨母	-6376
▁7000	-6377
pm	-6378
ild	-6379
▁门市	-6380
▁sol	-6381
▁west	-6382
ican	-6383
▁示必	-6384
▁口革大	-6385
▁pal	-6386
▁金段	-6387
▁1863	-6388
▁火火冖玉	-6389
▁阜坒	-6390
▁か	-6391
▁虫莽	-6392
cp	-6393
▁玉巴	-6394
▁魚思	-6395
▁114	-6396
62	-6397
▁各酉	-6398
▁george	-6399
55	-6400
▁弟刀	-6401
▁示也	-6402
▁韦	-6403
▁草可	-6404
form	-6405
▁fc	-6406
▁山獄	-6407
▁玉罙	-6408
▁1891	-6409
▁木甘	-6410
▁秋心	-6411
▁1866	-6412
▁草包	-6413
▁1883	-6414
▁口奂	-6415
▁水圣	-6416
▁示乍	-6417
▁金屯	-6418
▁boy	-6419
▁玉堇	-6420
▁т	-6421
▁草介	-6422
▁西一	-6423
eral	-6424
▁水弱	-6425
▁sir	-6426
▁phil	-6427
▁水占	-6428
▁麻毛	-6429
▁black	-6430
▁top	-6431
▁college	-6432
▁宀丬	-6433
▁雨肖	-6434
▁宀丬彐冖又	-6435
▁ラ	-6436
▁山嚴	-6437
▁魚盧	-6438
▁ben	-6439
▁言爪缶	-6440
▁sony	-6441
ral	-6442
sch	-6443
▁ol	-6444
▁wat	-6445
isc	-6446
▁san	-6447
▁ul	-6448
▁鹵咸	-6449
df	-6450
▁水带	-6451
▁口因	-6452
▁ω	-6453
▁水於	-6454
丨一丙	-6455
▁jun	-6456
▁1878	-6457
▁阜丨一丙	-6458
▁ト	-6459
▁艮土	-6460
▁虫下	-6461
▁白七	-6462
▁竹族	-6463
▁敝死	-6464
▁た	-6465
▁水宣	-6466
▁737	-6467
▁1872	-6468
▁650	-6469
▁丨丨又立	-6470
ien	-6471
▁sel	-6472
▁that	-6473
▁尸肖	-6474
▁竹逢	-6475
▁马也	-6476
line	-6477
示示	-6478
▁水仑	-6479
▁tim	-6480
▁草示示	-6481
▁厂人	-6482
▁丝翏	-6483
▁言且	-6484
▁sal	-6485
ety	-6486
▁py	-6487
▁鱼粦	-6488
▁火页	-6489
▁玉英	-6490
▁阜益	-6491
ump	-6492
▁fir	-6493
▁pla	-6494
▁aa	-6495
▁木華	-6496
▁л	-6497
por	-6498
ram	-6499
▁手旱	-6500
▁320	-6501
ensis	-6502
▁xbox	-6503
▁produ	-6504
▁草台	-6505
ware	-6506
▁25%	-6507
▁人奉	-6508
▁木丂	-6509
▁jose	-6510
▁車喬	-6511
▁vol	-6512
▁von	-6513
▁肙	-6514
91	-6515
▁竹彖	-6516
▁金月	-6517
▁手覽	-6518
▁木耶	-6519
▁久人口	-6520
▁ob	-6521
▁丬夕酉	-6522
▁server	-6523
▁亠回	-6524
▁土文	-6525
▁尚攴	-6526
ery	-6527
▁馬各	-6528
▁associ	-6529
自心	-6530
▁羽隹	-6531
▁舌自心	-6532
▁と	-6533
▁歹台	-6534
▁玉炎	-6535
▁口少	-6536
▁mart	-6537
▁vo	-6538
▁女夷	-6539
▁舌刀	-6540
▁hol	-6541
▁沙鱼	-6542
▁爪見	-6543
▁草啬	-6544
▁1869	-6545
▁html	-6546
▁金又二丨	-6547
cess	-6548
▁lu	-6549
▁丵凵	-6550
▁宀爿	-6551
▁言戒	-6552
▁金句	-6553
▁mid	-6554
▁internet	-6555
▁oh	-6556
▁害谷	-6557
▁山肖	-6558
▁bre	-6559
▁竹二	-6560
▁白夲	-6561
▁550	-6562
▁plan	-6563
▁单	-6564
▁馬它	-6565
▁si	-6566
▁人同	-6567
▁人失	-6568
▁水发	-6569
▁水立	-6570
▁金龠	-6571
▁gam	-6572
tl	-6573
▁1830	-6574
ris	-6575
▁丝周	-6576
▁ε	-6577
▁水且	-6578
▁草怱	-6579
▁hel	-6580
▁火冋	-6581
▁票風	-6582
▁心旱	-6583
▁馬喬	-6584
▁广盧	-6585
ground	-6586
▁風具	-6587
▁言牙	-6588
▁life	-6589
▁hot	-6590
▁ref	-6591
▁media	-6592
01	-6593
▁亦廾	-6594
▁木婴	-6595
▁蟲巤	-6596
▁office	-6597
▁分山	-6598
▁草令	-6599
▁贝者	-6600
▁革旦	-6601
▁ア	-6602
▁手感	-6603
▁芻邑	-6604
▁舟它	-6605
▁木全	-6606
▁火兰	-6607
▁木蒙	-6608
▁law	-6609
obe	-6610
▁水嬴	-6611
▁rem	-6612
▁火勺	-6613
▁网革	-6614
ange	-6615
▁adv	-6616
▁mem	-6617
▁火火冖鳥	-6618
▁ا	-6619
200	-6620
▁口木	-6621
▁阜皇	-6622
▁ka	-6623
▁水阑	-6624
ep	-6625
▁翏	-6626
攴火	-6627
▁贝有	-6628
▁刍攴火	-6629
▁禾田	-6630
▁金刀	-6631
▁from	-6632
▁禾田儿夕	-6633
▁1853	-6634
▁land	-6635
▁wr	-6636
▁足危	-6637
▁270	-6638
za	-6639
▁山顛	-6640
▁竹生	-6641
▁般石	-6642
▁dream	-6643
▁卬丿	-6644
ions	-6645
▁silver	-6646
▁bbs	-6647
93	-6648
▁china	-6649
si	-6650
ugh	-6651
wan	-6652
▁水童	-6653
100	-6654
dy	-6655
its	-6656
▁手止	-6657
▁衣求	-6658
▁车干	-6659
▁cur	-6660
▁gnu	-6661
▁女口心	-6662
▁楙	-6663
豆寸	-6664
▁丝秀	-6665
▁十廾	-6666
▁病风	-6667
▁革肖	-6668
▁jap	-6669
▁peter	-6670
▁水豪	-6671
▁金票	-6672
▁wii	-6673
▁nasa	-6674
▁house	-6675
▁mtv	-6676
▁乙水	-6677
▁楙心	-6678
▁食留	-6679
▁100%	-6680
xx	-6681
▁rev	-6682
▁亩	-6683
▁亩久	-6684
▁朿冰	-6685
▁食向	-6686
▁食臽	-6687
▁1400	-6688
▁十日十人斗	-6689
▁口念	-6690
▁手考	-6691
▁酉唐	-6692
▁ast	-6693
bn	-6694
▁rh	-6695
▁絲尃	-6696
▁north	-6697
▁ο	-6698
殳金	-6699
▁丵臼	-6700
▁口肅	-6701
phone	-6702
▁丵臼殳金	-6703
▁羊圣	-6704
▁草鬼	-6705
▁1858	-6706
▁言旁	-6707
▁club	-6708
▁耳耳	-6709
▁148	-6710
▁gar	-6711
67	-6712
▁•	-6713
▁耳耳耳	-6714
▁girl	-6715
▁thomas	-6716
ini	-6717
▁手半	-6718
▁翏戈	-6719
istr	-6720
iew	-6721
▁口又	-6722
▁aut	-6723
▁dig	-6724
▁人僉	-6725
▁水及	-6726
▁草悤	-6727
▁form	-6728
▁american	-6729
▁log	-6730
▁tor	-6731
▁gt	-6732
▁草宣	-6733
▁女戶	-6734
▁木禽	-6735
▁金各	-6736
▁鼠由	-6737
▁ros	-6738
▁辵曷	-6739
▁imp	-6740
▁木风	-6741
▁franc	-6742
pc	-6743
▁mi	-6744
▁草畺	-6745
▁euro	-6746
旡旡	-6747
uck	-6748
bl	-6749
旡旡日	-6750
▁丝又二丨	-6751
▁ク	-6752
ily	-6753
ink	-6754
net	-6755
▁she	-6756
▁丹	-6757
▁stre	-6758
▁女喬	-6759
▁gb	-6760
▁穴弓	-6761
▁dec	-6762
▁丹彡	-6763
▁手乃	-6764
▁玉小	-6765
▁may	-6766
▁日未	-6767
▁1877	-6768
▁リ	-6769
▁水参	-6770
▁if	-6771
▁肉卑	-6772
▁齒句	-6773
▁led	-6774
ision	-6775
▁水曹	-6776
▁羊夋	-6777
▁杀刀	-6778
▁至秦	-6779
▁fil	-6780
▁土呈	-6781
▁土豪	-6782
▁宀睘	-6783
▁dem	-6784
ander	-6785
▁1%	-6786
▁mb	-6787
▁女眉	-6788
▁手虜	-6789
▁草阴	-6790
▁1300	-6791
▁gold	-6792
iff	-6793
▁port	-6794
min	-6795
▁口戛	-6796
▁竹干	-6797
ates	-6798
▁md	-6799
▁虫昔	-6800
▁122	-6801
▁cam	-6802
▁pan	-6803
▁丝戎	-6804
▁目分	-6805
▁蟲單	-6806
▁ko	-6807
▁木焦	-6808
▁米女	-6809
▁行瞿	-6810
itch	-6811
▁○	-6812
ape	-6813
▁121	-6814
▁ann	-6815
▁south	-6816
米弓	-6817
▁口耑	-6818
▁15%	-6819
▁弓米弓	-6820
▁水倉	-6821
▁www	-6822
▁心巛囟	-6823
▁草网戍	-6824
幺大	-6825
▁sr	-6826
▁土歷	-6827
▁阜井	-6828
▁abc	-6829
▁爪幺大	-6830
▁kong	-6831
▁è	-6832
68	-6833
we	-6834
rop	-6835
▁心肖	-6836
▁木己	-6837
go	-6838
▁食壬	-6839
▁end	-6840
▁1854	-6841
wn	-6842
▁tre	-6843
▁1859	-6844
▁に	-6845
▁執土	-6846
ated	-6847
gu	-6848
▁目目	-6849
▁dan	-6850
▁sql	-6851
▁冂十一	-6852
▁木巨	-6853
▁水卞	-6854
▁火粲	-6855
▁人丨攴	-6856
▁火商	-6857
▁mob	-6858
▁九鳥	-6859
▁sing	-6860
asc	-6861
▁手兰	-6862
▁虫詹	-6863
▁龍共	-6864
▁心血	-6865
▁马它	-6866
▁足品木	-6867
uss	-6868
▁草胡	-6869
▁言彦	-6870
▁雨歷	-6871
▁cct	-6872
▁父卩	-6873
▁144	-6874
▁石匝	-6875
▁言危	-6876
▁身區	-6877
▁home	-6878
▁background	-6879
58	-6880
itz	-6881
▁目目隹	-6882
▁show	-6883
▁li	-6884
▁絲肅	-6885
▁123	-6886
▁dom	-6887
▁な	-6888
▁毋	-6889
▁om	-6890
▁人兩	-6891
▁絲翏	-6892
▁fam	-6893
▁±	-6894
▁1856	-6895
▁勹二	-6896
▁ju	-6897
ville	-6898
▁睿	-6899
▁口马	-6900
▁肉关	-6901
▁金孟	-6902
idae	-6903
▁inf	-6904
▁hall	-6905
▁long	-6906
▁穴切	-6907
▁1815	-6908
▁limited	-6909
▁門文	-6910
▁roy	-6911
▁1700	-6912
▁更	-6913
ney	-6914
▁睿又	-6915
▁門王	-6916
▁火共	-6917
▁mil	-6918
ous	-6919
▁更生	-6920
burg	-6921
▁lou	-6922
▁ram	-6923
▁辵盾	-6924
ors	-6925
red	-6926
▁金玉	-6927
▁魚曼	-6928
乀丿丶	-6929
▁1851	-6930
▁一爿	-6931
▁人多	-6932
▁水麗	-6933
▁火奂	-6934
roid	-6935
▁211	-6936
乀丿丶臣	-6937
▁一爿乀丿丶臣	-6938
▁ger	-6939
ester	-6940
51	-6941
ega	-6942
▁口比	-6943
▁tem	-6944
▁り	-6945
▁kr	-6946
▁刍邑	-6947
▁手夾	-6948
▁白反	-6949
▁手口刀	-6950
itter	-6951
▁games	-6952
sm	-6953
▁草甫	-6954
▁cv	-6955
▁草罗	-6956
▁日署	-6957
▁木契	-6958
▁ova	-6959
▁hong	-6960
▁る	-6961
ula	-6962
▁1857	-6963
▁model	-6964
▁project	-6965
▁生男	-6966
▁金度	-6967
▁124	-6968
▁貝戔	-6969
cript	-6970
mus	-6971
▁sur	-6972
▁鳥	-6973
▁辟木	-6974
▁丷兄	-6975
▁人青	-6976
▁广臾	-6977
▁竹马	-6978
▁tour	-6979
▁company	-6980
▁est	-6981
▁iphone	-6982
▁口犬	-6983
▁白鬼	-6984
▁日每	-6985
▁work	-6986
▁fer	-6987
▁1841	-6988
ista	-6989
▁耳令	-6990
ita	-6991
▁ltd	-6992
▁sat	-6993
▁厂豆寸	-6994
78	-6995
▁草內	-6996
wood	-6997
▁\	-6998
▁road	-6999
59	-7000
▁手困	-7001
▁日羲	-7002
▁水發	-7003
▁舟孟	-7004
▁real	-7005
ano	-7006
app	-7007
▁口屬	-7008
▁歹賓	-7009
▁言告	-7010
▁隹十	-7011
vidia	-7012
▁award	-7013
▁丝厘	-7014
ague	-7015
▁nvidia	-7016
▁木賓	-7017
▁gp	-7018
▁ext	-7019
▁口宅吒	-7020
▁133	-7021
▁good	-7022
▁first	-7023
▁水木	-7024
▁舟甲	-7025
▁van	-7026
▁batt	-7027
▁miss	-7028
vin	-7029
▁水屋	-7030
▁絲戎	-7031
▁草于	-7032
▁草惠	-7033
▁119	-7034
▁ú	-7035
▁φ	-7036
▁酉迷	-7037
▁japan	-7038
▁口定	-7039
▁anim	-7040
▁spec	-7041
▁冖日大巾	-7042
▁db	-7043
▁巾番	-7044
▁fi	-7045
▁土丹	-7046
▁执土	-7047
▁金白	-7048
▁jon	-7049
▁categ	-7050
▁女肙	-7051
▁矢隹	-7052
bi	-7053
ora	-7054
▁1812	-7055
ington	-7056
our	-7057
▁將木	-7058
▁草云	-7059
▁studio	-7060
▁association	-7061
▁口南	-7062
▁kg	-7063
▁门王	-7064
▁grand	-7065
77	-7066
▁mot	-7067
▁visual	-7068
▁丝少	-7069
▁言夬	-7070
▁wid	-7071
▁金安	-7072
force	-7073
▁great	-7074
▁green	-7075
▁instit	-7076
▁田奇	-7077
▁ice	-7078
▁tur	-7079
rich	-7080
▁草斤	-7081
lad	-7082
▁言曷	-7083
▁vii	-7084
▁1846	-7085
▁口亥	-7086
▁女閑	-7087
▁ray	-7088
olf	-7089
▁木冊	-7090
▁lar	-7091
▁type	-7092
▁sv	-7093
▁256	-7094
▁1100	-7095
ella	-7096
▁camp	-7097
▁く	-7098
▁az	-7099
▁xml	-7100
▁一丂	-7101
▁水殿	-7102
ular	-7103
▁hum	-7104
▁news	-7105
▁舟玄	-7106
▁衣親	-7107
言火	-7108
unc	-7109
▁丰色	-7110
▁火言火	-7111
▁水元	-7112
▁category	-7113
▁水于	-7114
▁髟胡	-7115
▁lis	-7116
▁mad	-7117
▁1855	-7118
▁火言火又	-7119
ko	-7120
▁ま	-7121
▁hu	-7122
▁匕水	-7123
▁女壬	-7124
▁毛炎	-7125
▁ham	-7126
▁henry	-7127
▁水兵	-7128
▁bor	-7129
▁き	-7130
▁ρ	-7131
▁人卷	-7132
▁火蜀	-7133
▁network	-7134
ws	-7135
▁爾	-7136
ble	-7137
▁dl	-7138
▁阜百	-7139
▁key	-7140
▁pos	-7141
▁record	-7142
▁street	-7143
bor	-7144
▁luc	-7145
▁line	-7146
61	-7147
▁食幾	-7148
▁joseph	-7149
ids	-7150
▁贝卖	-7151
ball	-7152
05	-7153
ipp	-7154
▁丬女	-7155
▁soft	-7156
my	-7157
ura	-7158
▁絲夌	-7159
▁1852	-7160
▁expl	-7161
▁丝善	-7162
▁其石	-7163
▁爾玉	-7164
▁马各	-7165
▁char	-7166
▁丝卓	-7167
▁女至	-7168
ative	-7169
▁adobe	-7170
▁日天	-7171
▁911	-7172
▁pent	-7173
▁女开	-7174
▁女息	-7175
▁nbc	-7176
▁frank	-7177
▁usb	-7178
▁木戋	-7179
▁pres	-7180
▁水闌	-7181
▁1849	-7182
▁android	-7183
▁刍隹	-7184
▁publ	-7185
▁木鬼	-7186
ster	-7187
▁elect	-7188
▁ν	-7189
▁耒禺	-7190
▁1845	-7191
▁周鳥	-7192
▁mov	-7193
▁hell	-7194
ci	-7195
▁ah	-7196
idge	-7197
▁soci	-7198
54	-7199
▁ς	-7200
蟲蟲	-7201
▁草厥	-7202
▁die	-7203
▁1844	-7204
▁尺旦	-7205
▁辵于	-7206
▁pi	-7207
▁丝申	-7208
▁虫奎	-7209
▁韋刃	-7210
▁手勞	-7211
ideo	-7212
▁api	-7213
▁tai	-7214
▁was	-7215
53	-7216
一虫	-7217
ada	-7218
field	-7219
ger	-7220
▁犬艮	-7221
▁fun	-7222
com	-7223
▁850	-7224
▁木工	-7225
▁就鳥	-7226
▁目童	-7227
▁肉光	-7228
▁oricon	-7229
0%	-7230
ury	-7231
▁气山	-7232
▁目屬	-7233
▁nov	-7234
▁人泰	-7235
▁squ	-7236
▁mill	-7237
▁矢喬	-7238
ough	-7239
▁isbn	-7240
ama	-7241
▁水甾	-7242
▁chin	-7243
▁水寫	-7244
▁而女	-7245
▁best	-7246
▁mult	-7247
▁宀爿彐冖又	-7248
osaurus	-7249
uz	-7250
▁勿丶	-7251
▁andre	-7252
57	-7253
▁水審	-7254
▁黑音	-7255
▁1814	-7256
▁1843	-7257
▁carl	-7258
03	-7259
▁ッ	-7260
▁下	-7261
▁土卑	-7262
▁奴弓	-7263
▁草止	-7264
ional	-7265
▁口臭	-7266
▁魚周	-7267
500	-7268
▁心鬼	-7269
▁pag	-7270
▁1847	-7271
ny	-7272
▁昔	-7273
▁身尚	-7274
▁车乔	-7275
▁330	-7276
▁far	-7277
mo	-7278
▁酉禾	-7279
▁龴用	-7280
▁132	-7281
▁hal	-7282
▁moz	-7283
▁马又二丨	-7284
乁丶	-7285
▁cc	-7286
▁心粦	-7287
▁水歷	-7288
▁一乁丶	-7289
els	-7290
▁单邑	-7291
▁女卑	-7292
▁草吕	-7293
▁虫黾	-7294
▁208	-7295
▁1789	-7296
▁river	-7297
▁手龍	-7298
▁立羽	-7299
▁心賴	-7300
▁214	-7301
▁stand	-7302
▁ve	-7303
▁竹均	-7304
▁pp	-7305
▁yu	-7306
▁mos	-7307
▁sum	-7308
▁1820	-7309
▁league	-7310
▁衣者	-7311
▁易	-7312
▁丝览	-7313
▁日咎	-7314
▁日成	-7315
▁水虫	-7316
ther	-7317
▁1842	-7318
▁cross	-7319
▁island	-7320
urt	-7321
▁ly	-7322
▁人辟	-7323
▁木尊	-7324
▁車展	-7325
ij	-7326
▁女疾	-7327
▁水眉	-7328
▁肉利	-7329
▁def	-7330
▁壯大	-7331
▁比死	-7332
▁75%	-7333
▁戶攴口	-7334
▁區殳	-7335
▁鱼耆	-7336
▁state	-7337
300	-7338
▁下勹	-7339
▁冖几	-7340
▁cle	-7341
▁ロ	-7342
左肉	-7343
▁ot	-7344
▁心左肉	-7345
52	-7346
▁火玄	-7347
▁は	-7348
ets	-7349
▁ef	-7350
▁口付	-7351
▁易刀	-7352
▁辵坴	-7353
cast	-7354
▁bit	-7355
▁山坎	-7356
▁阜龍	-7357
▁kar	-7358
口川	-7359
▁言非	-7360
▁人口川	-7361
▁free	-7362
▁general	-7363
▁service	-7364
▁シ	-7365
▁tu	-7366
▁穴羔	-7367
▁金秀	-7368
彳育攵	-7369
unes	-7370
ns	-7371
▁手厄	-7372
▁肉寸	-7373
▁般木	-7374
▁木舂	-7375
▁肉火	-7376
ific	-7377
黑攴	-7378
erv	-7379
▁hill	-7380
▁彳山一黑攴	-7381
73	-7382
76	-7383
ty	-7384
▁草保	-7385
▁丶丶丨	-7386
▁smith	-7387
ody	-7388
▁巾贞	-7389
▁木監	-7390
gin	-7391
▁合鳥	-7392
ache	-7393
▁lee	-7394
▁口永	-7395
▁jul	-7396
ertain	-7397
▁master	-7398
▁寽	-7399
▁hs	-7400
▁寽虎	-7401
▁虫郎	-7402
▁门马	-7403
▁how	-7404
▁blue	-7405
囟比	-7406
ird	-7407
▁言化	-7408
72	-7409
74	-7410
▁手癸	-7411
▁@	-7412
升土	-7413
▁尚衣	-7414
▁木册	-7415
▁阜升土	-7416
▁〇	-7417
▁禾儿	-7418
mann	-7419
▁380	-7420
▁て	-7421
▁玉叚	-7422
▁衣寸	-7423
▁tel	-7424
ru	-7425
▁au	-7426
▁水廉	-7427
▁石申	-7428
▁core	-7429
▁this	-7430
▁commun	-7431
▁人囟	-7432
▁人囟儿夕	-7433
▁目廿冂丨入入	-7434
▁病知	-7435
▁men	-7436
ush	-7437
▁口属	-7438
▁心岂	-7439
▁木寧	-7440
▁心曽	-7441
▁水睿	-7442
orts	-7443
▁progr	-7444
▁台	-7445
▁木危	-7446
▁草匐	-7447
▁777	-7448
▁mobile	-7449
84	-7450
▁山斬	-7451
▁米子	-7452
▁金金	-7453
▁鼠句	-7454
▁金金金	-7455
ih	-7456
win	-7457
▁dd	-7458
ally	-7459
▁cry	-7460
▁ear	-7461
▁just	-7462
▁express	-7463
▁言韦	-7464
edia	-7465
▁but	-7466
ota	-7467
▁足台	-7468
▁bur	-7469
63	-7470
▁τ	-7471
▁金叉	-7472
▁〜	-7473
mhz	-7474
▁區鳥	-7475
▁口孔	-7476
▁豐盍	-7477
▁manag	-7478
▁人尚	-7479
▁耳止	-7480
▁bay	-7481
▁205	-7482
▁prof	-7483
▁山豆	-7484
▁水僕	-7485
▁explor	-7486
alk	-7487
▁米需	-7488
▁不正	-7489
▁bank	-7490
led	-7491
▁cg	-7492
▁水黄	-7493
ex	-7494
▁玉韋	-7495
▁sar	-7496
mat	-7497
▁女霜	-7498
▁209	-7499
82	-7500
▁м	-7501
▁日叚	-7502
▁mel	-7503
▁口口马	-7504
▁jean	-7505
▁啚	-7506
▁啚邑	-7507
▁目兆	-7508
▁豸召	-7509
lation	-7510
▁10000	-7511
ops	-7512
▁車袁	-7513
▁jump	-7514
▁mount	-7515
口女	-7516
▁口十口女	-7517
▁衣禁	-7518
▁mozilla	-7519
▁員	-7520
▁猋	-7521
▁crh	-7522
▁mir	-7523
▁馬睪	-7524
ison	-7525
ste	-7526
▁子需	-7527
▁日乍	-7528
▁tar	-7529
ze	-7530
▁人农	-7531
▁金全	-7532
▁battle	-7533
02	-7534
▁從	-7535
▁山風	-7536
▁米異	-7537
▁ipod	-7538
▁足采	-7539
▁que	-7540
▁草辛	-7541
li	-7542
▁蟲黽	-7543
▁dep	-7544
▁god	-7545
▁post	-7546
▁杀式	-7547
▁阜皮	-7548
▁食畏	-7549
ason	-7550
▁152	-7551
▁480	-7552
▁fran	-7553
71	-7554
▁rs	-7555
▁玉圭	-7556
▁聿旦	-7557
▁衣末	-7558
urch	-7559
▁羔	-7560
▁饣	-7561
▁202	-7562
▁jim	-7563
▁匸丨口丨頁	-7564
▁口下	-7565
▁金色	-7566
▁over	-7567
wa	-7568
▁‰	-7569
掷郑	-7570
▁手掷郑	-7571
▁video	-7572
▁2%	-7573
▁病隱	-7574
▁絲奇	-7575
▁les	-7576
▁さ	-7577
▁山合	-7578
▁mal	-7579
▁1806	-7580
▁cu	-7581
▁囗甫	-7582
▁木吉	-7583
▁票风	-7584
▁衣習	-7585
▁金苗	-7586
aker	-7587
▁gal	-7588
▁1832	-7589
▁entertain	-7590
ips	-7591
ning	-7592
▁nav	-7593
▁united	-7594
▁み	-7595
▁cf	-7596
▁水卢	-7597
▁羔美	-7598
ient	-7599
▁syn	-7600
azine	-7601
▁band	-7602
宀一	-7603
▁bb	-7604
▁225	-7605
▁non	-7606
annel	-7607
▁edward	-7608
▁gh	-7609
▁革达	-7610
▁235	-7611
▁litt	-7612
▁cre	-7613
▁bf	-7614
▁inv	-7615
▁white	-7616
79	-7617
ola	-7618
▁cir	-7619
▁女宾	-7620
▁巛邑	-7621
▁日麗	-7622
▁aug	-7623
▁production	-7624
丶木	-7625
丶木刀	-7626
▁乂丶木刀	-7627
▁entertainment	-7628
▁春	-7629
▁口孝	-7630
▁手出	-7631
▁手敝	-7632
▁春虫虫	-7633
▁1835	-7634
▁team	-7635
▁twitter	-7636
▁馬亥	-7637
▁221	-7638
▁sin	-7639
▁mess	-7640
▁word	-7641
cs	-7642
▁合鸟	-7643
▁辟刀	-7644
▁foot	-7645
▁ll	-7646
▁女亞	-7647
ters	-7648
▁曰乁丿	-7649
▁余田	-7650
▁dev	-7651
▁width	-7652
▁人它	-7653
▁水舀	-7654
▁玉虎	-7655
83	-7656
ule	-7657
▁rub	-7658
▁vict	-7659
▁bob	-7660
▁1795	-7661
▁east	-7662
ja	-7663
che	-7664
▁xx	-7665
▁手爭	-7666
▁金高	-7667
▁士冖业	-7668
▁explorer	-7669
女凡	-7670
umb	-7671
▁dh	-7672
▁火息	-7673
▁竹肖	-7674
▁134	-7675
▁亡口月女凡	-7676
▁こ	-7677
▁足交	-7678
▁骨殳	-7679
▁ios	-7680
▁金本	-7681
▁mmc	-7682
▁louis	-7683
▁カ	-7684
ios	-7685
▁片枼	-7686
▁馬川	-7687
▁番邑	-7688
▁辵冋	-7689
▁門心	-7690
ette	-7691
▁420	-7692
▁var	-7693
▁distr	-7694
ope	-7695
▁人支	-7696
▁石西	-7697
04	-7698
gen	-7699
▁fu	-7700
▁走尚	-7701
den	-7702
▁ai	-7703
▁大电	-7704
▁天虫	-7705
▁玉可	-7706
▁衣库	-7707
▁龙共	-7708
▁hist	-7709
▁engine	-7710
殳手	-7711
▁路鳥	-7712
▁食貴	-7713
▁bey	-7714
▁mvp	-7715
▁車殳手	-7716
▁control	-7717
oh	-7718
▁ل	-7719
▁が	-7720
▁僉攴	-7721
▁cas	-7722
▁doc	-7723
▁magazine	-7724
▁ド	-7725
▁口丁	-7726
▁木郎	-7727
▁767	-7728
▁人田	-7729
▁絲交	-7730
▁rpg	-7731
▁two	-7732
▁ever	-7733
▁д	-7734
▁ti	-7735
▁竹及	-7736
thon	-7737
▁154	-7738
69	-7739
als	-7740
▁eb	-7741
▁竹師	-7742
▁1836	-7743
▁book	-7744
▁元页	-7745
kb	-7746
col	-7747
▁丝交	-7748
▁奴巾	-7749
▁歹畺	-7750
▁tro	-7751
▁亠回禾	-7752
▁タ	-7753
▁dar	-7754
▁jac	-7755
▁pac	-7756
▁1792	-7757
ni	-7758
▁ct	-7759
▁冖豖	-7760
▁女辰	-7761
▁言咢	-7762
earch	-7763
▁广人隹肉	-7764
▁寿	-7765
▁寿火	-7766
▁言旨	-7767
▁spr	-7768
▁basic	-7769
▁va	-7770
▁火田	-7771
▁disc	-7772
▁mpeg	-7773
▁research	-7774
▁ë	-7775
▁食贵	-7776
well	-7777
▁gi	-7778
▁口吾	-7779
▁370	-7780
ona	-7781
▁辵肖	-7782
▁金土	-7783
▁马夋	-7784
iana	-7785
▁hor	-7786
▁mu	-7787
▁山甲	-7788
▁young	-7789
▁society	-7790
▁à	-7791
▁ら	-7792
▁亡民	-7793
▁人交	-7794
▁人喜	-7795
▁手弗	-7796
▁病難	-7797
▁虫需	-7798
▁95%	-7799
▁soc	-7800
▁dm	-7801
▁采由	-7802
▁fed	-7803
▁网革馬	-7804
▁9000	-7805
▁1839	-7806
▁francis	-7807
06	-7808
▁木春	-7809
▁木節	-7810
▁aud	-7811
▁leg	-7812
▁cons	-7813
▁pm	-7814
▁彐二丨	-7815
▁草水亡	-7816
▁flash	-7817
▁宀石	-7818
▁羊炭	-7819
▁tex	-7820
囗丰	-7821
▁水它	-7822
▁卜囗丰	-7823
▁lamb	-7824
▁丝咠	-7825
▁丝尃	-7826
▁手堯	-7827
▁131	-7828
▁bal	-7829
▁3500	-7830
▁little	-7831
▁ι	-7832
ani	-7833
▁3%	-7834
▁草余	-7835
▁rep	-7836
▁山魏	-7837
▁水圭	-7838
▁1793	-7839
▁員力	-7840
▁心康	-7841
▁髟巤	-7842
ling	-7843
▁sem	-7844
▁1831	-7845
▁1837	-7846
gy	-7847
▁木會	-7848
▁絲周	-7849
▁frame	-7850
▁institute	-7851
▁ml	-7852
▁手母	-7853
▁辵粦	-7854
aint	-7855
▁cbs	-7856
▁scott	-7857
fe	-7858
cher	-7859
▁mig	-7860
▁comput	-7861
▁corpor	-7862
89	-7863
▁山谷	-7864
▁水者	-7865
▁ath	-7866
▁bab	-7867
▁gpl	-7868
▁psp	-7869
▁1821	-7870
己共	-7871
▁口肃	-7872
▁水龍	-7873
ents	-7874
▁610	-7875
▁joh	-7876
▁己己共	-7877
▁brit	-7878
▁pentium	-7879
no	-7880
▁手圼	-7881
▁203	-7882
▁alf	-7883
ather	-7884
▁cctv	-7885
▁phot	-7886
pp	-7887
ense	-7888
▁151	-7889
▁asc	-7890
▁iee	-7891
▁克	-7892
▁人羅	-7893
▁絲非	-7894
▁酉勺	-7895
▁麥匊	-7896
ival	-7897
▁141	-7898
ua	-7899
▁お	-7900
ida	-7901
▁戶邑	-7902
▁病虐	-7903
▁space	-7904
▁匸丨口丨页	-7905
ization	-7906
▁手襄	-7907
▁虫义	-7908
▁mol	-7909
▁who	-7910
▁mary	-7911
▁prot	-7912
▁geforce	-7913
▁あ	-7914
▁卢	-7915
▁業	-7916
▁陏	-7917
▁業邑	-7918
▁陏土	-7919
▁const	-7920
▁small	-7921
▁尸九	-7922
▁way	-7923
▁旡旡日	-7924
▁aust	-7925
▁mont	-7926
▁your	-7927
▁旡旡日蟲蟲	-7928
▁martin	-7929
▁ç	-7930
▁θ	-7931
▁堇邑	-7932
▁山民	-7933
▁木貞	-7934
▁139	-7935
▁set	-7936
▁1801	-7937
▁radio	-7938
▁bon	-7939
lam	-7940
▁has	-7941
▁son	-7942
▁土幼	-7943
▁鱼咢	-7944
▁290	-7945
ility	-7946
▁union	-7947
▁station	-7948
▁口喜	-7949
▁心皇	-7950
eter	-7951
▁228	-7952
▁rog	-7953
▁song	-7954
▁firef	-7955
▁channel	-7956
▁久火	-7957
▁火戠	-7958
raph	-7959
▁206	-7960
▁hom	-7961
▁alph	-7962
rit	-7963
▁千北	-7964
▁石周	-7965
▁light	-7966
▁水屯	-7967
▁玉宗	-7968
▁人佥	-7969
▁人匽	-7970
▁木华	-7971
▁1825	-7972
zo	-7973
▁木方	-7974
▁酋犬	-7975
▁ret	-7976
▁1644	-7977
▁sars	-7978
▁york	-7979
▁vista	-7980
▁wo	-7981
▁手阁	-7982
▁魚則	-7983
agon	-7984
▁301	-7985
▁木窄	-7986
▁言帝	-7987
ural	-7988
▁asp	-7989
▁georg	-7990
▁royal	-7991
▁草末	-7992
▁207	-7993
▁婴	-7994
▁香	-7995
ift	-7996
wor	-7997
▁任貝	-7998
▁婴鸟	-7999
▁ati	-8000
▁moon	-8001
▁night	-8002
▁区瓦	-8003
▁手难	-8004
▁日立	-8005
▁目來	-8006
▁340	-8007
▁ieee	-8008
▁heart	-8009
▁敄	-8010
▁gov	-8011
▁only	-8012
▁digital	-8013
▁technology	-8014
pn	-8015
▁153	-8016
▁430	-8017
▁ing	-8018
▁1824	-8019
▁у	-8020
▁bg	-8021
▁彳方	-8022
▁水育攵	-8023
▁pass	-8024
▁石乐	-8025
▁竹师	-8026
▁firefox	-8027
ks	-8028
▁丝夅	-8029
▁亶頁	-8030
▁水路	-8031
▁革匊	-8032
▁310	-8033
▁yah	-8034
▁itunes	-8035
▁夾	-8036
▁公瓦	-8037
ender	-8038
▁sant	-8039
▁junior	-8040
ote	-8041
ros	-8042
▁八丂	-8043
▁玉冒	-8044
▁禾家	-8045
▁酉凶	-8046
▁金充	-8047
▁金弟	-8048
▁麻么	-8049
▁丿一黑	-8050
▁1838	-8051
lor	-8052
▁aw	-8053
▁玉黄	-8054
▁1833	-8055
81	-8056
▁木臺	-8057
▁草官	-8058
▁足果	-8059
▁革央	-8060
ency	-8061
▁sts	-8062
▁草冖火	-8063
▁1810	-8064
▁pier	-8065
__	-8066
▁マ	-8067
▁吉頁	-8068
▁水历	-8069
▁lord	-8070
▁mach	-8071
▁poly	-8072
▁tvbs	-8073
▁beyond	-8074
▁program	-8075
▁香复	-8076
▁let	-8077
▁science	-8078
▁nm	-8079
▁女叟	-8080
▁手劳	-8081
▁敖火	-8082
▁cast	-8083
ret	-8084
▁日西	-8085
▁水許	-8086
▁目匡	-8087
ister	-8088
velop	-8089
▁火弓丿丿	-8090
▁tl	-8091
▁238	-8092
▁asia	-8093
▁cell	-8094
▁eric	-8095
ao	-8096
tc	-8097
▁木庄	-8098
▁肉貳	-8099
▁aaa	-8100
▁木閭	-8101
▁马乔	-8102
▁pdf	-8103
▁php	-8104
di	-8105
▁女喜	-8106
▁水欶	-8107
▁病奐	-8108
▁车厄	-8109
▁1813	-8110
▁kw	-8111
▁心解	-8112
▁石差	-8113
ader	-8114
zy	-8115
▁フ	-8116
bit	-8117
▁鹿射	-8118
2000	-8119
▁dor	-8120
ira	-8121
▁hp	-8122
▁手览	-8123
▁雨散	-8124
▁cup	-8125
▁sports	-8126
▁taiwan	-8127
▁operation	-8128
▁手夜	-8129
▁eva	-8130
▁1834	-8131
hr	-8132
▁口垂	-8133
▁虫交	-8134
▁222	-8135
▁enter	-8136
olution	-8137
gs	-8138
▁卢页	-8139
▁手柔	-8140
▁穴規	-8141
▁204	-8142
▁ceo	-8143
▁絲言金	-8144
▁fried	-8145
▁ub	-8146
▁穴君	-8147
▁貝各	-8148
▁sand	-8149
ection	-8150
▁ジ	-8151
▁口爵	-8152
▁box	-8153
▁church	-8154
▁online	-8155
▁ns	-8156
▁夾頁	-8157
▁手覺	-8158
▁日尼	-8159
ures	-8160
▁365	-8161
▁720	-8162
ima	-8163
▁召力	-8164
atic	-8165
▁maj	-8166
mi	-8167
▁口牙	-8168
▁肙鳥	-8169
▁莫手	-8170
▁design	-8171
▁κ	-8172
▁bh	-8173
▁木市	-8174
▁玉旋	-8175
▁羊曷	-8176
▁虫合	-8177
▁emu	-8178
▁mas	-8179
▁conc	-8180
鱼刀	-8181
▁′′	-8182
▁jan	-8183
▁草鱼刀	-8184
▁酉亠厶川	-8185
08	-8186
▁â	-8187
▁≤	-8188
▁水翰	-8189
bert	-8190
ocket	-8191
▁1804	-8192
▁code	-8193
▁马川	-8194
▁emp	-8195
clude	-8196
▁sail	-8197
▁jp	-8198
▁uc	-8199
▁vh	-8200
▁石石	-8201
▁韦刃	-8202
▁410	-8203
▁cnn	-8204
▁marc	-8205
▁np	-8206
▁冰周	-8207
▁台心	-8208
▁尢介	-8209
▁心易	-8210
▁水写	-8211
book	-8212
▁163	-8213
▁den	-8214
▁丬夕木	-8215
▁臼同冖	-8216
▁records	-8217
380	-8218
▁wa	-8219
▁人農	-8220
▁口古	-8221
▁宀翏	-8222
▁金古	-8223
▁石石石	-8224
▁酉亠厶川皿	-8225
▁ô	-8226
ats	-8227
▁匚巾	-8228
adem	-8229
▁sig	-8230
▁1809	-8231
▁1816	-8232
ef	-8233
kin	-8234
▁日广	-8235
▁肉孛	-8236
▁虫我	-8237
▁tcp	-8238
▁mini	-8239
▁level	-8240
out	-8241
▁sbs	-8242
▁glob	-8243
▁counc	-8244
▁hello	-8245
▁玉路	-8246
▁金容	-8247
▁802	-8248
ek	-8249
ti	-8250
esh	-8251
▁冊一	-8252
▁竹條	-8253
▁liv	-8254
▁down	-8255
▁ax	-8256
▁data	-8257
▁stad	-8258
▁alexander	-8259
▁酉焦	-8260
over	-8261
▁hiv	-8262
▁num	-8263
▁1802	-8264
▁comic	-8265
▁field	-8266
▁手念	-8267
▁贝兼	-8268
▁champ	-8269
▁software	-8270
▁corporation	-8271
▁172	-8272
▁steph	-8273
▁council	-8274
▁η	-8275
▁骨鸟	-8276
sport	-8277
▁1807	-8278
▁seed	-8279
▁journ	-8280
▁^	-8281
▁薛	-8282
▁人两	-8283
▁武鸟	-8284
▁水完	-8285
▁穴鼠	-8286
▁143	-8287
▁run	-8288
eck	-8289
▁um	-8290
▁丶下	-8291
▁人示	-8292
▁日廣	-8293
▁水卂	-8294
▁絲予	-8295
▁ins	-8296
▁kin	-8297
▁christian	-8298
nt	-8299
日立	-8300
▁土界	-8301
▁川一	-8302
▁手雷	-8303
▁門欮	-8304
▁火日立	-8305
▁lake	-8306
▁victor	-8307
igo	-8308
key	-8309
▁薛子	-8310
▁cel	-8311
sl	-8312
▁肉夜	-8313
▁身弓	-8314
▁182	-8315
▁mhz	-8316
▁sen	-8317
ident	-8318
▁1796	-8319
▁1799	-8320
▁cook	-8321
▁心亠乂凵	-8322
▁langu	-8323
▁rd	-8324
▁水旋	-8325
▁火夆	-8326
▁1790	-8327
asy	-8328
▁水兆	-8329
▁水豖	-8330
▁虫皇	-8331
▁革斤	-8332
▁aim	-8333
▁tbs	-8334
▁1803	-8335
▁1829	-8336
▁cosp	-8337
▁inde	-8338
冖八	-8339
卩夕	-8340
止自	-8341
ume	-8342
▁mt	-8343
▁人家	-8344
▁女旦	-8345
▁草無	-8346
止自卩夕	-8347
▁丷一止自卩夕	-8348
▁も	-8349
330	-8350
acy	-8351
gar	-8352
▁路鸟	-8353
▁kon	-8354
▁mur	-8355
▁1828	-8356
▁card	-8357
▁name	-8358
▁develop	-8359
▁gra	-8360
▁rfc	-8361
▁tol	-8362
▁1776	-8363
▁廣	-8364
水欠	-8365
tps	-8366
▁弋二	-8367
▁病此	-8368
▁絲侖	-8369
elle	-8370
mail	-8371
▁212	-8372
▁羊水欠	-8373
▁circ	-8374
▁football	-8375
jo	-8376
▁レ	-8377
▁ny	-8378
▁心束	-8379
▁木追	-8380
▁玉申	-8381
▁草磨	-8382
pi	-8383
hel	-8384
▁廣邑	-8385
ness	-8386
▁chinese	-8387
▁门欮	-8388
▁680	-8389
▁1791	-8390
max	-8391
▁口令	-8392
▁950	-8393
▁cra	-8394
▁uss	-8395
▁1819	-8396
ato	-8397
ias	-8398
▁月乚	-8399
▁示古	-8400
▁车展	-8401
▁deb	-8402
▁cosplay	-8403
▁ß	-8404
▁口密	-8405
▁病辟	-8406
▁草嗇	-8407
▁金它	-8408
▁韦舀	-8409
ocal	-8410
▁歹又米	-8411
▁水冖八	-8412
▁水冖八工口	-8413
aya	-8414
▁bc	-8415
▁ni	-8416
▁手矣	-8417
▁142	-8418
▁215	-8419
▁jer	-8420
▁spe	-8421
▁病匸一	-8422
▁1805	-8423
▁https	-8424
zer	-8425
▁九鸟	-8426
▁亠几	-8427
▁手斗	-8428
▁玉文	-8429
▁din	-8430
一幺幺土	-8431
▁1822	-8432
▁sche	-8433
▁水一幺幺土	-8434
▁ī	-8435
▁呈	-8436
ple	-8437
▁ry	-8438
▁亠兊	-8439
▁人冬	-8440
▁呈邑	-8441
▁石樂	-8442
▁骨古	-8443
▁171	-8444
▁960	-8445
▁1818	-8446
▁wood	-8447
▁土斤	-8448
▁equ	-8449
▁virgin	-8450
▁を	-8451
▁fn	-8452
▁從耳	-8453
ious	-8454
▁hard	-8455
▁vers	-8456
▁堇見	-8457
▁木戔	-8458
▁猋風	-8459
▁2400	-8460
▁fair	-8461
ograph	-8462
dl	-8463
▁尸米	-8464
▁山松	-8465
▁日雲	-8466
▁水许	-8467
▁絲受	-8468
▁金川	-8469
▁149	-8470
▁cop	-8471
▁sailor	-8472
ipe	-8473
▁心舌	-8474
▁穴至	-8475
arch	-8476
ices	-8477
ople	-8478
▁und	-8479
▁一自戈	-8480
▁翕	-8481
ely	-8482
▁木久	-8483
▁竹旬	-8484
▁翕欠	-8485
▁金追	-8486
▁食耳	-8487
▁cit	-8488
▁fox	-8489
▁ker	-8490
▁mit	-8491
▁perf	-8492
▁方丿一生	-8493
▁れ	-8494
▁口分	-8495
▁马户	-8496
▁albert	-8497
db	-8498
▁ku	-8499
▁水咅	-8500
▁水金	-8501
▁肙鸟	-8502
▁under	-8503
▁女尔	-8504
▁女華	-8505
▁目隹	-8506
▁贝宀一	-8507
▁1780	-8508
▁1783	-8509
▁beta	-8510
▁square	-8511
▁堯	-8512
▁永	-8513
▁ki	-8514
▁堯羽	-8515
▁女免	-8516
▁宀辰	-8517
▁永日	-8518
▁禾央	-8519
▁髟吉	-8520
▁460	-8521
▁豸艮心	-8522
▁亠口冂乇	-8523
▁車彳育攵	-8524
orm	-8525
▁lg	-8526
▁sb	-8527
iter	-8528
▁rod	-8529
▁town	-8530
▁python	-8531
formation	-8532
▁つ	-8533
ize	-8534
▁gm	-8535
▁162	-8536
▁hon	-8537
▁block	-8538
▁brown	-8539
▁ち	-8540
▁如	-8541
▁水朱	-8542
▁217	-8543
▁640	-8544
▁ken	-8545
▁plus	-8546
▁尔	-8547
▁og	-8548
▁鱼里	-8549
▁atr	-8550
▁fif	-8551
▁水品木	-8552
▁next	-8553
▁乂有	-8554
▁尔玉	-8555
▁clar	-8556
▁second	-8557
▁ye	-8558
▁亠兌	-8559
▁言乞	-8560
▁𠃊厶	-8561
▁85%	-8562
▁ign	-8563
▁4500	-8564
▁appl	-8565
▁sund	-8566
▁wi	-8567
▁人非	-8568
▁口夋	-8569
▁金助	-8570
▁匕水页	-8571
▁pt	-8572
▁如丝	-8573
▁弓也	-8574
▁木午	-8575
▁虫歇	-8576
▁蟲豪	-8577
▁757	-8578
▁1787	-8579
ye	-8580
▁口坐	-8581
▁手尧	-8582
onom	-8583
▁have	-8584
▁market	-8585
ji	-8586
off	-8587
oma	-8588
▁各隹	-8589
▁心享	-8590
▁禾蒦	-8591
▁耳冘	-8592
▁金皮	-8593
▁223	-8594
▁1798	-8595
▁1826	-8596
▁bern	-8597
▁fest	-8598
▁process	-8599
▁rt	-8600
▁业邑	-8601
▁冰奏	-8602
▁lat	-8603
▁rail	-8604
▁europe	-8605
▁tg	-8606
▁冰先	-8607
▁禾歲	-8608
ible	-8609
ider	-8610
▁1794	-8611
▁2022	-8612
▁framework	-8613
▁ia	-8614
▁水栗	-8615
▁竹廉	-8616
▁173	-8617
▁rap	-8618
▁彳非	-8619
▁目害	-8620
▁found	-8621
▁store	-8622
▁й	-8623
och	-8624
▁6%	-8625
▁木拆	-8626
▁216	-8627
▁787	-8628
▁bsd	-8629
▁iec	-8630
▁乀	-8631
▁口畏	-8632
▁魚巤	-8633
▁218	-8634
▁265	-8635
▁emi	-8636
▁mbc	-8637
▁tak	-8638
▁1808	-8639
▁pack	-8640
▁public	-8641
▁ミ	-8642
▁4%	-8643
▁ox	-8644
▁心去	-8645
▁木由	-8646
▁骨葬	-8647
▁map	-8648
▁å	-8649
▁手龙	-8650
▁斬土	-8651
▁犬雚	-8652
▁nfl	-8653
▁玉小贝	-8654
enger	-8655
▁head	-8656
▁lind	-8657
▁virt	-8658
▁touch	-8659
▁water	-8660
yd	-8661
▁衣公	-8662
▁韋舀	-8663
丿一昜	-8664
▁敃	-8665
▁敃心	-8666
▁目敢	-8667
▁角斗	-8668
esis	-8669
▁gps	-8670
▁pow	-8671
▁adam	-8672
men	-8673
▁ja	-8674
▁丶囗	-8675
▁乀丿	-8676
▁絲玄	-8677
▁440	-8678
▁kbs	-8679
▁old	-8680
▁tam	-8681
▁angel	-8682
▁ø	-8683
gbt	-8684
osp	-8685
ran	-8686
▁ie	-8687
▁病隐	-8688
▁石定	-8689
▁身区	-8690
▁540	-8691
▁cho	-8692
▁pci	-8693
▁1823	-8694
▁虫呙	-8695
ences	-8696
▁2100	-8697
▁yahoo	-8698
▁敖鱼	-8699
▁ace	-8700
▁玉小貝	-8701
kg	-8702
▁sf	-8703
▁草波	-8704
▁阜员	-8705
ater	-8706
▁arts	-8707
▁management	-8708
▁口桑	-8709
▁彳回	-8710
▁氏丶	-8711
▁目癸	-8712
▁虫番	-8713
▁辵巠	-8714
▁辵豦	-8715
▁金产	-8716
rome	-8717
▁401	-8718
▁meg	-8719
scape	-8720
▁like	-8721
▁mike	-8722
cy	-8723
▁п	-8724
mon	-8725
▁ff	-8726
▁pg	-8727
▁言后	-8728
ship	-8729
▁ide	-8730
▁ult	-8731
▁1811	-8732
▁karl	-8733
▁prin	-8734
▁や	-8735
▁人甬	-8736
▁執手	-8737
▁登几	-8738
▁石录	-8739
▁虫复	-8740
▁言幾	-8741
▁足居	-8742
▁275	-8743
▁pap	-8744
▁party	-8745
don	-8746
▁rr	-8747
▁辵叚	-8748
▁exp	-8749
▁fal	-8750
▁special	-8751
nm	-8752
iva	-8753
▁心寺	-8754
▁牛建	-8755
▁病难	-8756
▁草寇	-8757
iger	-8758
▁tran	-8759
▁š	-8760
▁竹咸	-8761
▁竹延	-8762
▁金雷	-8763
▁262	-8764
▁580	-8765
▁618	-8766
▁global	-8767
str	-8768
uct	-8769
▁日斤	-8770
▁草咠	-8771
▁ipv	-8772
▁sign	-8773
▁saint	-8774
▁august	-8775
▁ن	-8776
lab	-8777
mar	-8778
▁od	-8779
▁心冘	-8780
▁金豈	-8781
ique	-8782
▁alt	-8783
▁十冖子	-8784
▁1788	-8785
▁lond	-8786
▁草网冖死	-8787
▁口票	-8788
▁木王	-8789
▁貝宁	-8790
▁車式	-8791
▁金庸	-8792
▁革末	-8793
ations	-8794
ng	-8795
▁pv	-8796
▁人朁	-8797
▁水西	-8798
▁虫堂	-8799
mond	-8800
▁1817	-8801
▁mrna	-8802
▁病倉	-8803
▁言焦	-8804
play	-8805
▁219	-8806
▁tra	-8807
▁maria	-8808
▁princ	-8809
ado	-8810
▁8%	-8811
▁eg	-8812
▁口亞	-8813
▁心豈	-8814
▁水弘	-8815
▁玉菐	-8816
▁車叕	-8817
▁181	-8818
▁女昌	-8819
▁米宗	-8820
宀井大	-8821
▁call	-8822
▁daniel	-8823
▁people	-8824
▁雍	-8825
320	-8826
car	-8827
han	-8828
▁丝娄	-8829
▁307	-8830
▁dt	-8831
▁刍皮	-8832
▁敖虫	-8833
▁木会	-8834
▁雨沾	-8835
▁ghz	-8836
▁bell	-8837
▁gard	-8838
ren	-8839
▁月缶	-8840
▁竹尹	-8841
▁鼠匽	-8842
▁htc	-8843
other	-8844
▁sour	-8845
▁person	-8846
▁я	-8847
丨又	-8848
▁口區	-8849
▁革曷	-8850
▁魚交	-8851
▁ren	-8852
▁絲言山	-8853
▁臼丨又	-8854
ights	-8855
▁1661	-8856
▁matt	-8857
▁人嚴	-8858
▁青見	-8859
inal	-8860
reis	-8861
▁月缶系	-8862
▁1683	-8863
▁2021	-8864
▁libr	-8865
▁sound	-8866
yr	-8867
▁7%	-8868
▁山风	-8869
▁竹泊	-8870
▁非一	-8871
▁249	-8872
▁255	-8873
▁gun	-8874
▁mak	-8875
iness	-8876
▁dark	-8877
▁muse	-8878
▁earth	-8879
▁bs	-8880
▁土于	-8881
▁金目	-8882
inger	-8883
stein	-8884
▁prop	-8885
▁force	-8886
▁central	-8887
▁edition	-8888
▁ر	-8889
▁丕	-8890
▁乁	-8891
ila	-8892
▁丕邑	-8893
▁木貢	-8894
▁病炎	-8895
▁512	-8896
▁dat	-8897
▁point	-8898
urs	-8899
▁ae	-8900
▁人肖	-8901
▁尸比	-8902
▁敄女	-8903
▁日文	-8904
▁325	-8905
▁903	-8906
07	-8907
do	-8908
abr	-8909
▁心令	-8910
▁玉代	-8911
▁玉各	-8912
▁007	-8913
▁161	-8914
▁fat	-8915
▁gil	-8916
▁革大欠	-8917
▁systems	-8918
▁オ	-8919
▁vr	-8920
▁ze	-8921
▁穴告	-8922
▁米共	-8923
▁金甘	-8924
▁麻米	-8925
atus	-8926
▁wiki	-8927
fo	-8928
sen	-8929
▁口欶	-8930
▁火虫	-8931
▁穴洼	-8932
▁草會	-8933
▁kir	-8934
▁乁一虫	-8935
▁tele	-8936
▁press	-8937
▁hr	-8938
▁竹快	-8939
erty	-8940
▁year	-8941
▁奬	-8942
▁翟	-8943
▁cb	-8944
▁口豖	-8945
▁水旬	-8946
▁水维	-8947
▁病全	-8948
▁竹攸	-8949
▁竹離	-8950
▁革達	-8951
▁音欠	-8952
▁530	-8953
▁som	-8954
▁jeff	-8955
je	-8956
▁手最	-8957
vent	-8958
▁390	-8959
▁1770	-8960
▁1797	-8961
▁水豊	-8962
▁鄉向	-8963
▁酉奄	-8964
rick	-8965
▁bad	-8966
▁bug	-8967
▁手僉	-8968
▁翟戈	-8969
ersh	-8970
▁nam	-8971
▁sla	-8972
▁2200	-8973
▁2300	-8974
▁chil	-8975
nes	-8976
uel	-8977
▁玉久	-8978
▁食交	-8979
▁髟宗	-8980
▁232	-8981
▁ascii	-8982
▁キ	-8983
▁焱	-8984
ito	-8985
tic	-8986
▁vs	-8987
▁木肖	-8988
▁bmw	-8989
▁eff	-8990
▁fly	-8991
▁1784	-8992
▁johnson	-8993
▁ō	-8994
▁コ	-8995
400	-8996
▁乃鼎	-8997
▁ess	-8998
▁rade	-8999
▁district	-9000
▁rf	-9001
▁人里	-9002
▁口卩	-9003
▁火昜	-9004
▁草黎	-9005
▁226	-9006
▁his	-9007
▁sav	-9008
▁2600	-9009
▁arth	-9010
▁meth	-9011
▁alpha	-9012
▁information	-9013
▁火各	-9014
▁玉军	-9015
▁玉贊	-9016
ania	-9017
▁ash	-9018
▁bea	-9019
▁por	-9020
▁1827	-9021
▁pagasa	-9022
▁ñ	-9023
cha	-9024
eri	-9025
lon	-9026
▁joe	-9027
▁well	-9028
get	-9029
rey	-9030
▁木堇	-9031
▁沙女	-9032
▁焱木	-9033
▁貝辰	-9034
▁魚圭	-9035
▁229	-9036
▁dyn	-9037
ference	-9038
une	-9039
▁冖幕	-9040
▁就鸟	-9041
▁玉連	-9042
▁510	-9043
▁520	-9044
▁ban	-9045
▁last	-9046
vision	-9047
ascript	-9048
▁radeon	-9049
iga	-9050
▁人百	-9051
▁口華	-9052
▁林女	-9053
▁犬卒	-9054
▁甚戈	-9055
▁贝各	-9056
▁305	-9057
▁560	-9058
▁broad	-9059
▁common	-9060
▁女老	-9061
▁宀莫	-9062
▁车式	-9063
▁pin	-9064
▁human	-9065
▁govern	-9066
▁london	-9067
▁亚土	-9068
▁手八	-9069
▁竹伐	-9070
▁213	-9071
▁lam	-9072
▁pay	-9073
▁sus	-9074
▁木日羽	-9075
vo	-9076
uld	-9077
▁区殳	-9078
▁犬交	-9079
▁羊火	-9080
▁虫原	-9081
▁224	-9082
▁1645	-9083
▁г	-9084
eta	-9085
▁火夬	-9086
▁貝長	-9087
uble	-9088
▁chan	-9089
▁hold	-9090
▁perl	-9091
▁side	-9092
▁合龙	-9093
▁手島	-9094
▁234	-9095
▁dol	-9096
▁gla	-9097
▁丶目幸	-9098
▁more	-9099
dc	-9100
ui	-9101
▁nc	-9102
itor	-9103
▁hop	-9104
▁conn	-9105
▁what	-9106
▁williams	-9107
▁rx	-9108
▁昔鸟	-9109
ering	-9110
▁pasc	-9111
▁true	-9112
▁山同	-9113
▁水耑	-9114
▁肉巠	-9115
▁830	-9116
▁acc	-9117
▁att	-9118
▁alan	-9119
▁object	-9120
▁secret	-9121
▁ي	-9122
▁ム	-9123
▁水寻	-9124
▁草朔	-9125
▁386	-9126
▁978	-9127
▁mik	-9128
▁rat	-9129
▁1781	-9130
▁lady	-9131
▁plat	-9132
酉分	-9133
▁木且	-9134
▁木戚	-9135
▁木毳	-9136
▁禾平	-9137
▁scr	-9138
▁fact	-9139
▁臼同冖酉分	-9140
▁andrew	-9141
▁america	-9142
▁directx	-9143
hc	-9144
▁口內	-9145
▁文丝	-9146
▁虫吴	-9147
▁虫曷	-9148
chen	-9149
▁601	-9150
▁lisp	-9151
▁academ	-9152
09	-9153
oe	-9154
caa	-9155
▁木贞	-9156
▁肉建	-9157
▁251	-9158
▁anal	-9159
acs	-9160
▁金阿	-9161
▁魚雪	-9162
▁ern	-9163
▁leon	-9164
▁merc	-9165
▁wond	-9166
▁profess	-9167
▁テ	-9168
▁ㄧ	-9169
魚刀	-9170
tor	-9171
▁dy	-9172
▁金昆	-9173
amin	-9174
▁exc	-9175
▁get	-9176
▁hat	-9177
▁草魚刀	-9178
▁1582	-9179
▁happ	-9180
▁rain	-9181
▁stan	-9182
▁social	-9183
▁language	-9184
▁衣埶	-9185
▁311	-9186
▁low	-9187
▁anth	-9188
▁止戊一小	-9189
▁steam	-9190
▁mountain	-9191
▁netscape	-9192
pan	-9193
▁水垔	-9194
▁草我	-9195
▁金固	-9196
ustr	-9197
▁174	-9198
▁780	-9199
▁1368	-9200
▁1648	-9201
▁fort	-9202
▁johann	-9203
方土	-9204
▁tc	-9205
▁口魯	-9206
▁弋鸟	-9207
▁手夬	-9208
▁eth	-9209
▁fri	-9210
▁lab	-9211
▁女囟比	-9212
▁方方土	-9213
▁ball	-9214
▁computer	-9215
700	-9216
▁qs	-9217
▁水卩	-9218
▁病奂	-9219
▁bom	-9220
▁tal	-9221
▁1750	-9222
▁1786	-9223
▁shar	-9224
▁屮	-9225
▁人局	-9226
▁口宣	-9227
▁林邑	-9228
▁水耳	-9229
▁病卑	-9230
▁233	-9231
▁bat	-9232
▁絲言鳥	-9233
▁anton	-9234
▁journal	-9235
▁山及	-9236
▁玉耳	-9237
▁肉贰	-9238
▁芻皮	-9239
▁草韋	-9240
▁门吕	-9241
▁285	-9242
▁323	-9243
▁cha	-9244
▁nik	-9245
▁shell	-9246
▁standard	-9247
▁グ	-9248
刃止	-9249
rad	-9250
▁肉厷	-9251
▁齒艮	-9252
▁akb	-9253
▁rot	-9254
row	-9255
▁hx	-9256
▁ru	-9257
▁厂则	-9258
▁山己	-9259
▁心需	-9260
▁水离	-9261
▁虫公	-9262
▁水刃止	-9263
▁dest	-9264
▁educ	-9265
▁math	-9266
▁ring	-9267
aga	-9268
▁水栾	-9269
▁水賣	-9270
▁玉豖	-9271
▁食肴	-9272
aven	-9273
ides	-9274
▁239	-9275
▁35%	-9276
▁sea	-9277
▁ncaa	-9278
▁エ	-9279
▁ナ	-9280
▁犭	-9281
ray	-9282
rix	-9283
▁fx	-9284
▁心斤	-9285
▁或彡	-9286
▁犭弥	-9287
▁病豆	-9288
▁草臾	-9289
▁kan	-9290
▁psy	-9291
▁ron	-9292
include	-9293
▁す	-9294
par	-9295
▁金必	-9296
▁门心	-9297
▁707	-9298
▁msn	-9299
ector	-9300
ental	-9301
▁fifa	-9302
▁示止	-9303
▁草见	-9304
▁車厄	-9305
▁bir	-9306
▁kde	-9307
▁mis	-9308
▁山顛巔	-9309
board	-9310
▁orig	-9311
▁stra	-9312
▁front	-9313
▁family	-9314
▁土后	-9315
▁手匋	-9316
▁馬盧	-9317
▁馬票	-9318
alth	-9319
▁hit	-9320
▁jet	-9321
▁草狄	-9322
tern	-9323
▁say	-9324
▁ven	-9325
▁1763	-9326
▁russ	-9327
▁test	-9328
▁active	-9329
dle	-9330
▁木射	-9331
▁病顛	-9332
▁虫单	-9333
▁金贝	-9334
▁饣余	-9335
heim	-9336
▁227	-9337
▁660	-9338
▁haw	-9339
▁ten	-9340
▁匕矢聿	-9341
▁禾尤山	-9342
▁人矣	-9343
▁合龍	-9344
▁水间	-9345
▁630	-9346
▁nad	-9347
▁prim	-9348
▁eleven	-9349
▁pascal	-9350
▁virtual	-9351
▁champion	-9352
▁で	-9353
▁口帝	-9354
▁彳弗	-9355
▁水除	-9356
ques	-9357
▁hbo	-9358
ole	-9359
▁甚斗	-9360
▁馬華	-9361
▁bud	-9362
▁dur	-9363
▁宀心用	-9364
▁jones	-9365
▁sunday	-9366
▁ィ	-9367
▁木眉	-9368
▁水尧	-9369
▁虫冉	-9370
▁虫延	-9371
▁贝戋	-9372
itte	-9373
▁cin	-9374
dm	-9375
▁»	-9376
▁ˋ	-9377
▁pu	-9378
▁12%	-9379
▁245	-9380
▁246	-9381
▁cba	-9382
▁fel	-9383
▁pas	-9384
▁blog	-9385
▁file	-9386
▁again	-9387
▁access	-9388
▁friedrich	-9389
▁ь	-9390
▁サ	-9391
▁日兆	-9392
▁sap	-9393
▁彐冖巾	-9394
ities	-9395
▁kenn	-9396
▁centre	-9397
▁萠	-9398
▁火巠	-9399
▁萠刀	-9400
▁lew	-9401
▁م	-9402
▁乚	-9403
bus	-9404
oto	-9405
▁ls	-9406
▁号鳥	-9407
▁火遂	-9408
▁arc	-9409
▁xii	-9410
ht	-9411
iny	-9412
▁一夕	-9413
▁气冬	-9414
▁言每	-9415
▁鳥它	-9416
▁820	-9417
▁ther	-9418
▁build	-9419
▁court	-9420
▁prince	-9421
▁source	-9422
▁development	-9423
冖玉	-9424
vis	-9425
▁lv	-9426
▁缶本	-9427
▁草氏	-9428
▁had	-9429
▁mom	-9430
▁艹冖玉	-9431
▁1636	-9432
▁prem	-9433
▁player	-9434
▁彖	-9435
ami	-9436
▁口齧	-9437
▁父多	-9438
▁620	-9439
▁fut	-9440
▁nar	-9441
▁tay	-9442
▁zip	-9443
▁chris	-9444
▁smart	-9445
▁lambda	-9446
▁javascript	-9447
▁舛	-9448
▁乚丿	-9449
▁匚貴	-9450
▁口出	-9451
▁火韋	-9452
▁石夾	-9453
▁舛木	-9454
lish	-9455
▁lte	-9456
▁nec	-9457
▁彖虫虫	-9458
▁samu	-9459
▁philip	-9460
▁ē	-9461
▁∈	-9462
ala	-9463
uri	-9464
▁tf	-9465
▁手幼	-9466
▁石见	-9467
▁金堅	-9468
▁gsm	-9469
▁1723	-9470
▁turn	-9471
▁final	-9472
▁steve	-9473
▁british	-9474
▁手屏	-9475
▁木秦	-9476
▁火咅	-9477
▁火山	-9478
▁爪见	-9479
▁金產	-9480
itan	-9481
star	-9482
▁621	-9483
unter	-9484
▁1785	-9485
▁organ	-9486
▁б	-9487
▁ck	-9488
▁rn	-9489
icle	-9490
▁jam	-9491
osaur	-9492
▁2800	-9493
▁じ	-9494
▁ニ	-9495
▁令羽	-9496
▁石展	-9497
▁金奇	-9498
icus	-9499
sson	-9500
▁网革马	-9501
▁drive	-9502
▁stephen	-9503
of	-9504
▁だ	-9505
▁庚	-9506
esc	-9507
▁手争	-9508
▁木盈	-9509
▁玉景	-9510
▁病巴	-9511
▁禾几	-9512
▁金咢	-9513
▁鳥木	-9514
elli	-9515
▁306	-9516
▁880	-9517
▁980	-9518
▁kids	-9519
▁friend	-9520
mg	-9521
▁手岛	-9522
▁金定	-9523
▁1080	-9524
▁1650	-9525
▁cdma	-9526
▁deut	-9527
intosh	-9528
▁opera	-9529
▁dreamcast	-9530
▁剷	-9531
▁ee	-9532
▁uh	-9533
▁人羊	-9534
▁鹿米	-9535
▁45%	-9536
ature	-9537
▁phys	-9538
▁stadium	-9539
ots	-9540
▁足尊	-9541
▁酉是	-9542
▁金朱	-9543
▁242	-9544
▁589	-9545
▁985	-9546
▁jos	-9547
anced	-9548
▁1662	-9549
▁克刀	-9550
▁口惡	-9551
▁玉加	-9552
▁草耳	-9553
iang	-9554
▁312	-9555
▁opt	-9556
▁vcd	-9557
▁fant	-9558
ission	-9559
▁times	-9560
▁dragon	-9561
▁æ	-9562
cho	-9563
ili	-9564
▁目玄	-9565
▁肉咢	-9566
▁four	-9567
▁festival	-9568
▁ū	-9569
▁xm	-9570
▁酉胡	-9571
▁門音	-9572
▁296	-9573
▁670	-9574
▁sha	-9575
▁2700	-9576
▁carol	-9577
▁arthur	-9578
八米	-9579
ria	-9580
▁吉吉	-9581
▁心栗	-9582
▁水刀	-9583
cept	-9584
▁gall	-9585
▁水刀八米	-9586
▁enterpr	-9587
vi	-9588
▁ч	-9589
▁ci	-9590
▁从耳	-9591
▁水犬	-9592
▁言取	-9593
▁豆宛	-9594
▁門木	-9595
▁sho	-9596
▁palm	-9597
▁awards	-9598
▁socket	-9599
yth	-9600
▁合邑	-9601
▁手参	-9602
▁木乐	-9603
▁ccd	-9604
▁tas	-9605
athan	-9606
▁read	-9607
▁library	-9608
▁ハ	-9609
▁病疑	-9610
▁衣虒	-9611
▁金烏	-9612
▁inn	-9613
▁1777	-9614
▁queen	-9615
ika	-9616
untu	-9617
▁243	-9618
▁水犬奇	-9619
▁1775	-9620
▁order	-9621
▁山威	-9622
▁木宁	-9623
▁言羽	-9624
▁貝台	-9625
lace	-9626
ston	-9627
▁279	-9628
▁485	-9629
▁lor	-9630
▁mix	-9631
▁1640	-9632
▁poem	-9633
▁20000	-9634
▁series	-9635
▁ê	-9636
val	-9637
ves	-9638
▁攸肉	-9639
▁木敫	-9640
▁絲善	-9641
▁金乌	-9642
face	-9643
▁742	-9644
▁film	-9645
▁mass	-9646
▁right	-9647
▁train	-9648
▁childr	-9649
▁theory	-9650
▁«	-9651
▁و	-9652
▁保火	-9653
▁金肅	-9654
▁252	-9655
▁廿口丰	-9656
▁草冖鸟	-9657
▁1598	-9658
▁fall	-9659
▁which	-9660
una	-9661
▁ea	-9662
▁亶页	-9663
▁水半	-9664
▁272	-9665
▁318	-9666
▁civ	-9667
▁las	-9668
▁sas	-9669
abeth	-9670
▁wall	-9671
▁zero	-9672
▁after	-9673
▁metal	-9674
▁tower	-9675
▁パ	-9676
ban	-9677
ois	-9678
▁手耑	-9679
▁蟲兌	-9680
▁590	-9681
▁98%	-9682
▁hay	-9683
▁wom	-9684
▁hotel	-9685
▁texas	-9686
▁プ	-9687
▁昫	-9688
ova	-9689
▁kl	-9690
▁人利	-9691
▁合页	-9692
▁昫火	-9693
▁水里	-9694
▁竹詹	-9695
erial	-9696
▁gear	-9697
▁double	-9698
▁バ	-9699
▁直	-9700
▁nd	-9701
▁病且	-9702
▁衣旦	-9703
rent	-9704
▁cad	-9705
▁los	-9706
▁viv	-9707
house	-9708
▁1782	-9709
▁link	-9710
▁rose	-9711
▁sega	-9712
▁tony	-9713
101	-9714
con	-9715
mal	-9716
oli	-9717
oro	-9718
▁心赖	-9719
▁犬賴	-9720
▁病利	-9721
▁570	-9722
▁css	-9723
▁1642	-9724
▁symb	-9725
▁business	-9726
▁education	-9727
▁ld	-9728
▁口区	-9729
▁手過	-9730
▁肉會	-9731
▁言吉	-9732
▁足齊	-9733
less	-9734
▁caf	-9735
▁mand	-9736
▁尧	-9737
▁gy	-9738
▁qq	-9739
▁尧羽	-9740
▁竹争	-9741
▁龍耳	-9742
▁470	-9743
▁action	-9744
▁walter	-9745
▁children	-9746
▁9%	-9747
▁制手	-9748
▁手達	-9749
▁蟲咼	-9750
▁258	-9751
▁607	-9752
▁aba	-9753
▁blu	-9754
▁dim	-9755
▁1760	-9756
▁carr	-9757
▁cole	-9758
▁days	-9759
▁spir	-9760
▁roger	-9761
▁け	-9762
dom	-9763
▁馬大	-9764
▁315	-9765
▁962	-9766
▁叉	-9767
▁矞	-9768
丶虫	-9769
▁言啇	-9770
▁304	-9771
▁mah	-9772
▁pen	-9773
▁wta	-9774
▁叉丶虫	-9775
▁anti	-9776
iction	-9777
▁brand	-9778
▁messenger	-9779
kh	-9780
kt	-9781
▁ダ	-9782
▁于	-9783
▁厂斯	-9784
▁口羅	-9785
▁248	-9786
▁299	-9787
▁334	-9788
▁abs	-9789
▁lcd	-9790
▁mun	-9791
▁衣八口	-9792
▁1680	-9793
▁conf	-9794
▁rand	-9795
▁alfred	-9796
uv	-9797
▁ウ	-9798
十貝	-9799
▁ix	-9800
▁十十	-9801
▁厶廾	-9802
▁执手	-9803
▁玉宛	-9804
▁舟方	-9805
▁酉豊	-9806
▁金鬲	-9807
▁501	-9808
▁dam	-9809
▁sex	-9810
ating	-9811
▁cult	-9812
▁greg	-9813
▁十十十貝	-9814
▁states	-9815
▁virginia	-9816
ati	-9817
eek	-9818
oon	-9819
▁fs	-9820
▁犬昌	-9821
▁病尤	-9822
▁雨历	-9823
▁18%	-9824
▁405	-9825
▁nas	-9826
▁1772	-9827
▁unit	-9828
▁ブ	-9829
600	-9830
lah	-9831
uit	-9832
▁bt	-9833
▁手吉	-9834
▁衣卑	-9835
▁車耴	-9836
▁金倉	-9837
▁263	-9838
▁our	-9839
▁☆	-9840
gan	-9841
res	-9842
▁丝仑	-9843
▁人雋	-9844
▁心閔	-9845
▁敖魚	-9846
▁昔鳥	-9847
▁木闾	-9848
▁玉昆	-9849
▁衣退	-9850
▁金巴	-9851
anna	-9852
ming	-9853
tran	-9854
▁244	-9855
▁375	-9856
▁bac	-9857
▁pur	-9858
▁vhs	-9859
kreis	-9860
▁1620	-9861
▁1689	-9862
▁museum	-9863
▁xf	-9864
▁木羽	-9865
▁示氐	-9866
▁bul	-9867
▁屮一虫	-9868
▁水目少	-9869
▁bios	-9870
▁cham	-9871
▁samuel	-9872
▁鸟	-9873
▁hi	-9874
▁手厶	-9875
▁虫引	-9876
▁雨兒	-9877
▁ton	-9878
▁utf	-9879
▁trav	-9880
▁wilson	-9881
gi	-9882
ief	-9883
iti	-9884
▁lr	-9885
▁水卖	-9886
▁水弟	-9887
▁水朮	-9888
▁絲夅	-9889
▁车袁	-9890
▁辵后	-9891
▁辵解	-9892
▁264	-9893
▁kat	-9894
▁sor	-9895
▁目草两	-9896
▁walk	-9897
▁econom	-9898
ications	-9899
▁č	-9900
▁モ	-9901
▁pb	-9902
▁巾隹	-9903
▁火只	-9904
▁病仓	-9905
▁病脊	-9906
▁羊巠	-9907
▁金衣	-9908
▁690	-9909
▁710	-9910
▁1735	-9911
▁imax	-9912
▁kill	-9913
zz	-9914
▁玉邪	-9915
▁馬襄	-9916
▁237	-9917
▁273	-9918
▁rel	-9919
▁弋二貝	-9920
▁手厶廾	-9921
laris	-9922
▁1778	-9923
▁3200	-9924
▁base	-9925
▁丂	-9926
350	-9927
mph	-9928
▁女乔	-9929
▁水間	-9930
▁水顥	-9931
▁竹爭	-9932
kien	-9933
▁241	-9934
▁266	-9935
▁flo	-9936
ified	-9937
▁brad	-9938
▁15000	-9939
▁board	-9940
▁sport	-9941
▁austral	-9942
kw	-9943
oda	-9944
▁山島	-9945
▁直直	-9946
▁254	-9947
▁271	-9948
▁51%	-9949
▁770	-9950
▁ddr	-9951
▁iup	-9952
▁直直直	-9953
▁magn	-9954
▁skype	-9955
chi	-9956
▁tb	-9957
▁于皿	-9958
▁任贝	-9959
▁号鸟	-9960
▁水責	-9961
▁雚鸟	-9962
anda	-9963
helm	-9964
▁268	-9965
▁99%	-9966
▁irt	-9967
opher	-9968
▁1592	-9969
▁5500	-9970
▁dance	-9971
▁macintosh	-9972
fr	-9973
hed	-9974
▁言虐	-9975
▁金麃	-9976
▁247	-9977
▁hand	-9978
▁robin	-9979
▁function	-9980
▁禿	-9981
▁xi	-9982
▁手觉	-9983
▁玉民	-9984
▁病久	-9985
▁草韦	-9986
▁金告	-9987
▁313	-9988
▁saf	-9989
▁swe	-9990
▁know	-9991
▁gamec	-9992
▁gamesp	-9993
▁golden	-9994
▁single	-9995
▁tolkien	-9996
▁foundation	-9997
▁υ	-9998
zen	-9999
▁口各	-10000
▁心韱	-10001
▁肉因	-10002
▁虫余	-10003
▁虫宛	-10004
pson	-10005
▁236	-10006
▁303	-10007
▁308	-10008
▁333	-10009
▁921	-10010
▁fle	-10011
▁1774	-10012
▁doug	-10013
▁未攴厂牛	-10014
▁freeb	-10015
▁graph	-10016
▁twins	-10017
bon	-10018
▁rb	-10019
▁女票	-10020
kins	-10021
▁999	-10022
▁cer	-10023
▁hms	-10024
▁1730	-10025
▁wolf	-10026
百百	-10027
hemat	-10028
▁1624	-10029
▁there	-10030
cle	-10031
ror	-10032
▁ky	-10033
▁pk	-10034
▁丝受	-10035
▁禿頁	-10036
▁金罗	-10037
▁骨婁	-10038
iano	-10039
odon	-10040
▁13%	-10041
▁astro	-10042
▁pacific	-10043
▁ə	-10044
▁ャ	-10045
din	-10046
▁mx	-10047
▁前羽	-10048
▁目来	-10049
▁阜畏	-10050
head	-10051
raft	-10052
▁276	-10053
▁639	-10054
▁gor	-10055
▁hyp	-10056
▁its	-10057
▁yam	-10058
ennis	-10059
change	-10060
▁lewis	-10061
▁ひ	-10062
▁わ	-10063
▁尢監	-10064
ects	-10065
▁269	-10066
▁302	-10067
▁740	-10068
▁ped	-10069
▁main	-10070
▁gnome	-10071
▁capital	-10072
▁electron	-10073
bw	-10074
340	-10075
▁門奄	-10076
▁青定	-10077
▁马句	-10078
etta	-10079
▁231	-10080
▁277	-10081
▁328	-10082
▁fan	-10083
▁jay	-10084
▁匕水頁	-10085
▁shad	-10086
人水	-10087
▁木隺	-10088
▁玉雚	-10089
▁言獻	-10090
▁65%	-10091
▁tan	-10092
▁禾人水	-10093
usion	-10094
▁1660	-10095
▁marsh	-10096
▁openg	-10097
▁apache	-10098
▁よ	-10099
▁チ	-10100
ype	-10101
▁匚贵	-10102
▁手參	-10103
▁絲云	-10104
acle	-10105
▁278	-10106
▁316	-10107
▁727	-10108
▁chi	-10109
▁kle	-10110
▁1740	-10111
▁1779	-10112
▁ross	-10113
▁story	-10114
▁number	-10115
▁valley	-10116
▁enterprise	-10117
▁焉	-10118
bar	-10119
eno	-10120
erb	-10121
pro	-10122
rie	-10123
▁幺小	-10124
▁焉邑	-10125
▁581	-10126
▁pot	-10127
iance	-10128
▁1701	-10129
▁espn	-10130
▁ガ	-10131
▁兹	-10132
▁cw	-10133
▁分心	-10134
▁虫甬	-10135
▁907	-10136
▁930	-10137
▁声殳缶	-10138
▁2030	-10139
▁bridge	-10140
▁history	-10141
▁ã	-10142
▁由肉	-10143
▁草倍	-10144
▁魚念	-10145
▁253	-10146
▁760	-10147
▁eif	-10148
▁大百百	-10149
▁committe	-10150
nd	-10151
▁ュ	-10152
ago	-10153
aka	-10154
▁dw	-10155
▁gs	-10156
▁丝肙	-10157
▁目属	-10158
▁羊次	-10159
▁虫马	-10160
▁門真	-10161
▁bin	-10162
▁hyd	-10163
▁sab	-10164
▁王口口	-10165
▁1603	-10166
▁kent	-10167
▁view	-10168
▁blood	-10169
▁freed	-10170
▁three	-10171
▁王口口口口	-10172
▁pierre	-10173
▁气乃	-10174
▁水巠	-10175
▁水鹵	-10176
▁金尼	-10177
▁髟毛	-10178
ucle	-10179
▁319	-10180
▁gon	-10181
▁wel	-10182
▁1570	-10183
▁gene	-10184
▁hein	-10185
▁shine	-10186
▁wilhelm	-10187
gl	-10188
▁炎	-10189
口又	-10190
hen	-10191
her	-10192
▁ri	-10193
▁xe	-10194
▁口可	-10195
▁水蒙	-10196
▁甬心	-10197
▁艮心	-10198
▁55%	-10199
▁627	-10200
ellow	-10201
▁1630	-10202
▁raid	-10203
▁contin	-10204
▁depart	-10205
oy	-10206
▁rp	-10207
▁石本	-10208
▁足齐	-10209
丿丿丶	-10210
口又一	-10211
▁295	-10212
▁dog	-10213
▁1590	-10214
▁kiss	-10215
▁mind	-10216
▁丂口又一	-10217
▁major	-10218
▁丶囗丿丿丶	-10219
▁harris	-10220
▁木行	-10221
▁水條	-10222
▁竹手	-10223
▁魚由	-10224
▁840	-10225
▁abo	-10226
▁yes	-10227
▁1643	-10228
▁beat	-10229
▁wing	-10230
▁dynam	-10231
▁english	-10232
hi	-10233
osa	-10234
▁火毀	-10235
▁草耦	-10236
inus	-10237
▁282	-10238
▁286	-10239
▁870	-10240
▁bot	-10241
▁ted	-10242
▁tun	-10243
▁草冖虫	-10244
▁boss	-10245
▁freder	-10246
▁airport	-10247
▁え	-10248
▁っ	-10249
▁龠	-10250
▁pd	-10251
▁tm	-10252
▁手夹	-10253
▁絲肙	-10254
▁言氐	-10255
▁龠禾	-10256
ando	-10257
▁259	-10258
▁338	-10259
▁aer	-10260
atory	-10261
▁1688	-10262
ification	-10263
▁hm	-10264
▁nu	-10265
▁享丸	-10266
▁手柬	-10267
▁木秋	-10268
▁玉郎	-10269
▁貝臧	-10270
▁860	-10271
▁aff	-10272
aceae	-10273
▁beaut	-10274
▁speed	-10275
▁formation	-10276
▁含	-10277
絲辛	-10278
001	-10279
utt	-10280
▁女疌	-10281
ites	-10282
▁385	-10283
▁ale	-10284
▁bru	-10285
▁jas	-10286
▁辛絲辛	-10287
worth	-10288
▁竹旡旡日	-10289
▁allen	-10290
▁simon	-10291
▁taylor	-10292
isk	-10293
▁草夾	-10294
▁門者	-10295
anth	-10296
▁lgbt	-10297
▁mail	-10298
▁memor	-10299
▁opengl	-10300
▁european	-10301
▁landkreis	-10302
▁畠	-10303
ken	-10304
▁aj	-10305
▁女弟	-10306
▁絲寸	-10307
▁384	-10308
▁arg	-10309
▁jud	-10310
▁girls	-10311
▁iupac	-10312
▁jackson	-10313
▁vl	-10314
▁山喬	-10315
▁水固	-10316
▁水巳	-10317
▁贝台	-10318
▁足石	-10319
anga	-10320
▁555	-10321
▁bow	-10322
▁kim	-10323
▁mba	-10324
▁sac	-10325
▁1762	-10326
▁atom	-10327
▁lang	-10328
action	-10329
▁巾曼	-10330
▁11%	-10331
▁701	-10332
▁730	-10333
▁orient	-10334
▁ł	-10335
▁्	-10336
ful	-10337
omo	-10338
▁言台	-10339
▁辵呈	-10340
▁407	-10341
▁6500	-10342
▁place	-10343
▁gamecube	-10344
▁committee	-10345
nh	-10346
264	-10347
▁病昜	-10348
▁絲益	-10349
▁虫旁	-10350
▁cab	-10351
▁jpeg	-10352
▁lock	-10353
▁yosh	-10354
▁alice	-10355
▁republ	-10356
▁summer	-10357
▁ा	-10358
800	-10359
▁xy	-10360
▁奚谷	-10361
▁虫牙	-10362
▁言韱	-10363
▁金如	-10364
bour	-10365
ines	-10366
stal	-10367
vers	-10368
▁281	-10369
▁356	-10370
▁619	-10371
▁dll	-10372
▁lie	-10373
▁sta	-10374
works	-10375
▁1573	-10376
▁1727	-10377
▁edge	-10378
▁冂丷一亡	-10379
▁break	-10380
▁happy	-10381
▁ubuntu	-10382
▁ow	-10383
▁vf	-10384
▁人麗	-10385
▁口关	-10386
▁口烏	-10387
▁女常	-10388
▁手戾	-10389
▁日卯	-10390
▁水连	-10391
▁草兔	-10392
▁金思	-10393
▁金旦	-10394
▁bec	-10395
▁acid	-10396
▁left	-10397
▁zone	-10398
▁hyper	-10399
▁magic	-10400
dn	-10401
apt	-10402
▁山斩	-10403
▁竹勿	-10404
view	-10405
▁343	-10406
▁sid	-10407
▁tod	-10408
▁1764	-10409
▁deep	-10410
▁stat	-10411
▁death	-10412
▁harry	-10413
▁ˊ	-10414
ema	-10415
ete	-10416
ages	-10417
▁dal	-10418
▁dsm	-10419
▁isa	-10420
ality	-10421
▁1521	-10422
▁1580	-10423
▁1610	-10424
▁anna	-10425
▁cart	-10426
▁chap	-10427
▁eliz	-10428
▁list	-10429
▁人一口口	-10430
▁12000	-10431
▁davis	-10432
▁other	-10433
rum	-10434
▁cj	-10435
▁日勻	-10436
▁木邦	-10437
▁水堯	-10438
▁水析	-10439
▁絲色	-10440
▁门良	-10441
▁758	-10442
▁fbi	-10443
▁1637	-10444
▁pict	-10445
▁table	-10446
▁spring	-10447
▁―	-10448
▁⋯	-10449
大車	-10450
iac	-10451
med	-10452
sky	-10453
▁gc	-10454
▁uk	-10455
▁木百	-10456
▁目疌	-10457
▁肉青	-10458
▁門呂	-10459
▁309	-10460
▁321	-10461
▁gem	-10462
▁山大車	-10463
▁1616	-10464
▁inte	-10465
▁rest	-10466
▁track	-10467
▁wester	-10468
▁academy	-10469
yt	-10470
▁ŋ	-10471
eld	-10472
▁cx	-10473
▁oc	-10474
▁vb	-10475
▁山眉	-10476
▁火卓	-10477
▁肉劦	-10478
▁食曼	-10479
bell	-10480
▁505	-10481
▁705	-10482
▁bos	-10483
ments	-10484
▁1622	-10485
▁1720	-10486
▁gate	-10487
▁motor	-10488
uf	-10489
▁ب	-10490
▁芬	-10491
▁ya	-10492
▁口共	-10493
▁手彖	-10494
▁木旬	-10495
▁芬木	-10496
▁草鲜	-10497
▁257	-10498
▁314	-10499
▁404	-10500
▁abb	-10501
▁fab	-10502
▁iss	-10503
▁彳月缶	-10504
▁1370	-10505
▁1560	-10506
▁1646	-10507
▁1684	-10508
▁fore	-10509
▁nich	-10510
▁invest	-10511
▁mission	-10512
hp	-10513
▁栃	-10514
▁吉页	-10515
▁心弟	-10516
▁言音	-10517
▁金戉	-10518
▁馬又	-10519
頁口口	-10520
▁335	-10521
▁lud	-10522
▁rac	-10523
▁dead	-10524
▁index	-10525
▁paris	-10526
▁口口頁口口	-10527
▁freebsd	-10528
ces	-10529
day	-10530
ges	-10531
▁vt	-10532
▁亦鸟	-10533
▁木共	-10534
▁324	-10535
▁583	-10536
▁age	-10537
▁1632	-10538
▁hart	-10539
▁prom	-10540
▁they	-10541
▁cctld	-10542
▁metac	-10543
▁works	-10544
rot	-10545
▁lf	-10546
▁nn	-10547
▁口厘	-10548
▁口龍	-10549
▁手頡	-10550
▁蟲馬	-10551
▁言工	-10552
▁阜垂	-10553
▁魚尤	-10554
▁261	-10555
▁tot	-10556
▁1724	-10557
▁1733	-10558
▁1773	-10559
▁dist	-10560
▁希	-10561
vey	-10562
▁gw	-10563
▁kb	-10564
▁山乞	-10565
▁水劳	-10566
▁犬彌	-10567
▁病畀	-10568
▁14%	-10569
▁490	-10570
▁add	-10571
▁kal	-10572
▁kid	-10573
▁lic	-10574
▁nac	-10575
▁7500	-10576
▁area	-10577
▁toky	-10578
▁audio	-10579
▁debian	-10580
目心	-10581
esa	-10582
uff	-10583
▁bd	-10584
▁山差	-10585
▁米果	-10586
iple	-10587
▁16%	-10588
▁317	-10589
▁pra	-10590
▁1736	-10591
▁coll	-10592
▁ruby	-10593
▁彳十目心	-10594
▁never	-10595
▁ζ	-10596
uma	-10597
yer	-10598
▁1⁄	-10599
▁央鳥	-10600
▁水肃	-10601
▁犬尞	-10602
▁莫邑	-10603
▁言古	-10604
▁金凡	-10605
▁金皆	-10606
ardo	-10607
ogen	-10608
▁525	-10609
▁611	-10610
▁bag	-10611
▁ill	-10612
▁lot	-10613
inder	-10614
▁auth	-10615
▁馬宀井大	-10616
▁patrick	-10617
▁generation	-10618
▁萬	-10619
▁大力	-10620
▁水尌	-10621
▁湯火	-10622
▁草冬	-10623
▁蟲夾	-10624
▁327	-10625
▁pun	-10626
▁wik	-10627
▁1757	-10628
▁fish	-10629
▁gang	-10630
▁laur	-10631
▁talk	-10632
▁wash	-10633
▁金日一寸	-10634
▁taipe	-10635
▁athlon	-10636
▁howard	-10637
▁mathemat	-10638
▁government	-10639
▁df	-10640
▁人隺	-10641
▁女予	-10642
▁目于	-10643
▁米康	-10644
▁肉奄	-10645
▁足庶	-10646
sche	-10647
▁284	-10648
▁359	-10649
▁dia	-10650
▁dun	-10651
▁emb	-10652
▁mcc	-10653
▁oly	-10654
▁rud	-10655
▁via	-10656
▁草冖水	-10657
▁1623	-10658
▁baby	-10659
▁kell	-10660
▁lost	-10661
▁when	-10662
▁advanced	-10663
▁ょ	-10664
▁nr	-10665
▁车叕	-10666
reme	-10667
▁274	-10668
▁403	-10669
color	-10670
ember	-10671
▁1713	-10672
▁aven	-10673
▁album	-10674
▁services	-10675
▁デ	-10676
oke	-10677
▁丝乞	-10678
▁庚贝	-10679
▁石氐	-10680
▁虫青	-10681
ians	-10682
▁玉几帀	-10683
▁1769	-10684
▁most	-10685
▁nick	-10686
▁chang	-10687
ological	-10688
▁wm	-10689
▁二木	-10690
▁口亚	-10691
▁含頁	-10692
▁病養	-10693
▁草雉	-10694
ales	-10695
▁287	-10696
▁288	-10697
▁425	-10698
▁810	-10699
▁prote	-10700
hd	-10701
▁jt	-10702
▁人粟	-10703
▁希邑	-10704
▁水肙	-10705
▁犬戎	-10706
▁玉粦	-10707
▁絲半	-10708
▁舟首	-10709
▁足崩	-10710
▁322	-10711
▁1765	-10712
▁burn	-10713
▁fred	-10714
▁mode	-10715
▁sher	-10716
▁taipei	-10717
▁弋鳥	-10718
▁心單	-10719
▁木加	-10720
▁絲乞	-10721
▁虫章	-10722
▁言灰	-10723
▁马付	-10724
____	-10725
ways	-10726
▁298	-10727
▁杀式弒	-10728
▁歹勹又	-10729
▁1609	-10730
▁1721	-10731
▁cour	-10732
▁nico	-10733
▁marie	-10734
▁stone	-10735
▁villa	-10736
▁health	-10737
▁wonder	-10738
▁з	-10739
kel	-10740
▁立厷	-10741
▁西早	-10742
▁aqu	-10743
▁1583	-10744
▁1585	-10745
▁3600	-10746
▁anne	-10747
▁turbo	-10748
▁complex	-10749
▁transport	-10750
▁collection	-10751
▁メ	-10752
ocr	-10753
▁亦金	-10754
▁區瓦	-10755
▁口嘗	-10756
▁心景	-10757
▁虫廷	-10758
▁金者	-10759
▁魚昆	-10760
▁901	-10761
▁ell	-10762
ilton	-10763
▁1755	-10764
▁人一口口人人	-10765
azz	-10766
oid	-10767
▁宀有	-10768
▁玉爰	-10769
▁草秋	-10770
▁辵貌	-10771
iron	-10772
▁605	-10773
▁1615	-10774
▁1629	-10775
▁2025	-10776
▁food	-10777
▁rick	-10778
▁garden	-10779
▁product	-10780
▁ろ	-10781
▁人瓦	-10782
▁矢乔	-10783
▁足重	-10784
iant	-10785
olic	-10786
read	-10787
▁001	-10788
▁606	-10789
▁1627	-10790
▁1771	-10791
▁avbw	-10792
▁cath	-10793
▁fern	-10794
▁lear	-10795
▁jacob	-10796
▁parad	-10797
▁where	-10798
▁perfume	-10799
sk	-10800
▁≥	-10801
310	-10802
bra	-10803
▁人栗	-10804
▁勹畐	-10805
▁区鸟	-10806
▁土丘	-10807
▁水南	-10808
▁草夹	-10809
▁雍瓦	-10810
ogue	-10811
▁345	-10812
▁tnt	-10813
▁earl	-10814
▁quick	-10815
▁ultra	-10816
gn	-10817
▁hl	-10818
▁tt	-10819
▁一尸	-10820
▁絲是	-10821
▁酉干	-10822
▁马尧	-10823
▁魚屯	-10824
▁331	-10825
▁801	-10826
▁sug	-10827
ische	-10828
▁1550	-10829
▁1618	-10830
▁1628	-10831
▁1748	-10832
▁nucle	-10833
▁bgcolor	-10834
xy	-10835
▁木魯	-10836
▁目丁	-10837
oper	-10838
▁352	-10839
▁402	-10840
▁gig	-10841
▁gui	-10842
▁nig	-10843
▁1568	-10844
▁boys	-10845
▁take	-10846
▁billboard	-10847
air	-10848
▁壳殳	-10849
▁言益	-10850
▁酉昷	-10851
▁金考	-10852
▁门真	-10853
▁970	-10854
▁daw	-10855
▁ist	-10856
▁ua	-10857
▁子子	-10858
▁玉睿	-10859
alis	-10860
▁17%	-10861
▁486	-10862
▁506	-10863
▁nts	-10864
▁pad	-10865
▁fast	-10866
▁calif	-10867
▁struct	-10868
▁termin	-10869
▁window	-10870
▁ft	-10871
▁lc	-10872
▁阜千	-10873
chan	-10874
esco	-10875
tech	-10876
▁him	-10877
anger	-10878
▁cost	-10879
▁path	-10880
▁delta	-10881
▁offic	-10882
▁戔	-10883
▁ay	-10884
▁犬厥	-10885
▁草回	-10886
▁草弓	-10887
▁豆支	-10888
▁馬付	-10889
▁馬并	-10890
enny	-10891
▁476	-10892
▁lyn	-10893
▁1250	-10894
▁1625	-10895
▁cand	-10896
▁flor	-10897
▁wright	-10898
▁ć	-10899
bsd	-10900
lus	-10901
▁乂乂	-10902
▁戔皿	-10903
▁水彌	-10904
▁火欠	-10905
▁草名	-10906
▁hey	-10907
▁gala	-10908
▁shop	-10909
▁animax	-10910
▁archit	-10911
▁method	-10912
▁western	-10913
▁building	-10914
▁californ	-10915
丶戈	-10916
rod	-10917
▁ey	-10918
▁草倩	-10919
▁草貌	-10920
▁金不	-10921
▁金家	-10922
▁395	-10923
▁465	-10924
▁单丶戈	-10925
▁1621	-10926
▁1635	-10927
▁professional	-10928
lu	-10929
▁ビ	-10930
▁万	-10931
ece	-10932
rin	-10933
▁山乘	-10934
▁犬蒙	-10935
▁336	-10936
▁412	-10937
▁617	-10938
▁gpu	-10939
▁kam	-10940
▁oct	-10941
light	-10942
▁self	-10943
▁clark	-10944
▁olymp	-10945
▁memory	-10946
kn	-10947
erg	-10948
mes	-10949
▁火宣	-10950
▁玉韦	-10951
▁穴规	-10952
▁金乙	-10953
▁267	-10954
▁731	-10955
▁969	-10956
▁ful	-10957
▁pic	-10958
▁卜冖一	-10959
▁full	-10960
▁火火冖火	-10961
enberg	-10962
▁theat	-10963
▁斌	-10964
又土	-10965
cer	-10966
▁口华	-10967
▁水丏	-10968
▁禾念	-10969
▁虫科	-10970
谷又土	-10971
▁329	-10972
▁did	-10973
▁dir	-10974
▁nan	-10975
▁1614	-10976
▁capt	-10977
▁some	-10978
▁soul	-10979
▁very	-10980
▁whit	-10981
▁卜冖一谷又土	-10982
▁anderson	-10983
▁ί	-10984
elo	-10985
▁心旦	-10986
▁心旬	-10987
▁玉留	-10988
▁肉農	-10989
▁門豈	-10990
eron	-10991
▁49%	-10992
▁552	-10993
▁mys	-10994
▁1569	-10995
▁1756	-10996
▁3300	-10997
▁than	-10998
▁commission	-10999
▁矩	-11000
▁口包	-11001
▁咢页	-11002
▁土朵	-11003
▁夗鳥	-11004
▁心千	-11005
▁敖貝	-11006
▁水回	-11007
▁矩木	-11008
▁豈頁	-11009
ench	-11010
▁357	-11011
▁exe	-11012
▁hip	-11013
▁气丿丨	-11014
▁1685	-11015
▁1707	-11016
▁1768	-11017
▁five	-11018
▁exchange	-11019
np	-11020
▁丝晋	-11021
▁火樂	-11022
▁穴遂	-11023
▁金局	-11024
▁292	-11025
▁rca	-11026
▁1604	-11027
▁horn	-11028
▁hosp	-11029
▁roll	-11030
▁secur	-11031
▁think	-11032
▁machine	-11033
hl	-11034
▁孟	-11035
isa	-11036
wer	-11037
▁kc	-11038
▁pf	-11039
▁孟力	-11040
▁工邑	-11041
▁日助	-11042
▁水蕭	-11043
▁病颠	-11044
▁目登	-11045
▁罒幸	-11046
▁肉府	-11047
▁金每	-11048
▁hxd	-11049
▁1664	-11050
▁1667	-11051
▁autom	-11052
▁kevin	-11053
omy	-11054
▁kd	-11055
▁心童	-11056
▁水羕	-11057
▁阜鬼	-11058
ists	-11059
▁289	-11060
▁bed	-11061
▁bol	-11062
▁cia	-11063
▁fol	-11064
▁lac	-11065
▁1758	-11066
▁cnbc	-11067
▁tokyo	-11068
▁version	-11069
▁elizabeth	-11070
▁口言	-11071
▁手秋	-11072
▁禾岁	-11073
ross	-11074
▁415	-11075
▁622	-11076
▁625	-11077
▁kur	-11078
▁nak	-11079
▁seg	-11080
▁1690	-11081
▁1725	-11082
▁body	-11083
▁cert	-11084
▁comb	-11085
▁pers	-11086
▁modern	-11087
▁francisco	-11088
▁め	-11089
aki	-11090
hal	-11091
uto	-11092
▁口當	-11093
▁病於	-11094
▁肉思	-11095
▁言卜	-11096
osph	-11097
▁973	-11098
▁edu	-11099
▁esc	-11100
▁reb	-11101
▁sie	-11102
▁1659	-11103
▁stor	-11104
▁avenue	-11105
▁powerpc	-11106
▁christopher	-11107
▁®	-11108
▁せ	-11109
hew	-11110
iko	-11111
▁nv	-11112
▁rc	-11113
▁夗鸟	-11114
▁手邑	-11115
▁絲采	-11116
▁足就	-11117
inae	-11118
iser	-11119
▁326	-11120
▁33%	-11121
▁acg	-11122
▁amb	-11123
▁loc	-11124
▁1634	-11125
▁1767	-11126
▁cant	-11127
▁mega	-11128
▁玉宣	-11129
▁馬麗	-11130
ione	-11131
▁502	-11132
▁alg	-11133
▁dif	-11134
▁kom	-11135
▁npc	-11136
▁pse	-11137
▁ric	-11138
▁see	-11139
▁sse	-11140
▁tit	-11141
▁絲言手	-11142
rough	-11143
▁1260	-11144
▁1626	-11145
▁dick	-11146
▁local	-11147
▁seven	-11148
▁division	-11149
▁evolution	-11150
aco	-11151
war	-11152
▁手工	-11153
▁水赖	-11154
▁羊心	-11155
▁肉宾	-11156
▁虫斗	-11157
▁血半	-11158
irus	-11159
rian	-11160
▁344	-11161
▁383	-11162
▁628	-11163
▁803	-11164
▁ble	-11165
▁das	-11166
▁1578	-11167
▁1745	-11168
▁gord	-11169
▁lisa	-11170
▁ntfs	-11171
▁soho	-11172
▁gmail	-11173
▁yoshiki	-11174
uy	-11175
▁◎	-11176
cht	-11177
ogo	-11178
oni	-11179
wig	-11180
▁nl	-11181
▁丝奇	-11182
▁人叔	-11183
▁耒云	-11184
▁草翏	-11185
more	-11186
▁355	-11187
▁371	-11188
▁399	-11189
▁411	-11190
▁495	-11191
▁enc	-11192
▁ple	-11193
▁url	-11194
▁vin	-11195
▁1369	-11196
▁1584	-11197
▁1761	-11198
▁living	-11199
zi	-11200
▁黹	-11201
mas	-11202
▁雨貍	-11203
▁626	-11204
▁beg	-11205
▁木羊水	-11206
ritic	-11207
▁1572	-11208
▁1759	-11209
▁face	-11210
▁look	-11211
▁anthony	-11212
▁夹	-11213
▁bp	-11214
▁口斯	-11215
▁草艮	-11216
▁豸才	-11217
▁金因	-11218
ergy	-11219
hard	-11220
omys	-11221
ysis	-11222
▁337	-11223
▁406	-11224
▁655	-11225
▁gas	-11226
▁tab	-11227
▁1670	-11228
▁1681	-11229
▁1697	-11230
▁carlos	-11231
▁donald	-11232
▁california	-11233
▁ы	-11234
iah	-11235
lag	-11236
▁既魚	-11237
▁月蒙	-11238
▁犬骨	-11239
▁竹台	-11240
▁草河	-11241
▁虫莫	-11242
▁辵狂	-11243
▁魚參	-11244
▁283	-11245
▁615	-11246
▁hav	-11247
▁mam	-11248
▁oem	-11249
iment	-11250
▁1619	-11251
▁1709	-11252
▁1752	-11253
▁brian	-11254
▁miller	-11255
▁concert	-11256
▁hospital	-11257
▁television	-11258
一丨	-11259
awa	-11260
▁lp	-11261
▁yf	-11262
▁山思	-11263
▁日愛	-11264
▁水条	-11265
▁矞鳥	-11266
▁言毚	-11267
agen	-11268
▁603	-11269
▁dns	-11270
berry	-11271
▁1234	-11272
▁1450	-11273
▁scheme	-11274
▁metacritic	-11275
▁ば	-11276
▁秃	-11277
ils	-11278
▁rg	-11279
▁水曰	-11280
▁目台	-11281
▁蟲皿	-11282
▁鼠青	-11283
pend	-11284
▁645	-11285
▁717	-11286
▁ala	-11287
▁brt	-11288
▁nap	-11289
▁rgb	-11290
▁thr	-11291
▁wav	-11292
▁army	-11293
▁diam	-11294
▁ford	-11295
▁shir	-11296
▁based	-11297
ination	-11298
▁َ	-11299
kit	-11300
nel	-11301
▁zo	-11302
▁弟鳥	-11303
ives	-11304
ners	-11305
ulat	-11306
▁354	-11307
▁367	-11308
▁atm	-11309
▁dod	-11310
▁mut	-11311
▁1649	-11312
▁1747	-11313
▁车彳育攵	-11314
▁thund	-11315
▁report	-11316
▁戋	-11317
▁扁	-11318
▁胡	-11319
umi	-11320
▁乂刀	-11321
▁單邑	-11322
▁戋皿	-11323
▁水需	-11324
▁禾卑	-11325
▁蟲厲	-11326
▁马丽	-11327
bras	-11328
▁297	-11329
▁751	-11330
▁bak	-11331
▁kit	-11332
▁rib	-11333
acter	-11334
▁barb	-11335
▁viii	-11336
▁week	-11337
▁phone	-11338
▁chrome	-11339
▁archive	-11340
▁macbook	-11341
▁engineering	-11342
▁出	-11343
▁耑	-11344
ali	-11345
met	-11346
▁人詹	-11347
▁口夫	-11348
▁日華	-11349
▁沙衣	-11350
▁肉意	-11351
▁草勺	-11352
▁金闌	-11353
▁門合	-11354
▁雨包	-11355
▁346	-11356
▁亠回示	-11357
▁1699	-11358
▁coco	-11359
▁hugh	-11360
▁into	-11361
▁step	-11362
丿一弓丿丿	-11363
▁about	-11364
▁movie	-11365
▁strat	-11366
▁classic	-11367
▁portable	-11368
ev	-11369
▁∞	-11370
imo	-11371
orf	-11372
raw	-11373
uan	-11374
uda	-11375
▁hc	-11376
▁kv	-11377
▁勹甫	-11378
▁心闵	-11379
▁文口	-11380
▁木石	-11381
▁此石	-11382
▁犬畏	-11383
▁玉龍	-11384
▁目弟	-11385
▁馬堯	-11386
bury	-11387
▁612	-11388
▁vor	-11389
liner	-11390
▁1492	-11391
▁1638	-11392
▁1651	-11393
▁1654	-11394
▁1714	-11395
▁cond	-11396
▁make	-11397
▁oper	-11398
ential	-11399
▁frederick	-11400
▁û	-11401
▁善	-11402
enz	-11403
▁vc	-11404
▁善邑	-11405
▁堇见	-11406
▁水旁	-11407
▁絲定	-11408
▁辵堯	-11409
▁金先	-11410
▁龙耳	-11411
▁479	-11412
▁940	-11413
▁tag	-11414
▁1571	-11415
▁1601	-11416
▁1607	-11417
▁amaz	-11418
▁grav	-11419
▁president	-11420
▁ś	-11421
ido	-11422
mir	-11423
ucn	-11424
▁人曷	-11425
▁央鸟	-11426
▁扁羽	-11427
▁玉禹	-11428
▁草帖	-11429
▁贝辰	-11430
▁马累	-11431
oria	-11432
▁det	-11433
▁eug	-11434
▁ips	-11435
▁oce	-11436
▁usa	-11437
oster	-11438
rence	-11439
▁1665	-11440
▁1751	-11441
▁cass	-11442
▁midi	-11443
▁mond	-11444
▁sequ	-11445
▁trna	-11446
ension	-11447
▁suite	-11448
▁χ	-11449
▁ツ	-11450
ove	-11451
yan	-11452
▁xt	-11453
▁弓耳	-11454
▁玉崔	-11455
▁玉粲	-11456
▁由冃	-11457
▁絲林	-11458
▁虫非	-11459
wick	-11460
▁291	-11461
▁293	-11462
▁342	-11463
▁366	-11464
▁vit	-11465
▁whe	-11466
agram	-11467
enter	-11468
thers	-11469
▁1734	-11470
▁2023	-11471
▁smap	-11472
▁infin	-11473
▁stock	-11474
▁orange	-11475
▁ψ	-11476
▁س	-11477
▁冒	-11478
imp	-11479
▁心光	-11480
▁蟲胃	-11481
▁23%	-11482
▁fda	-11483
▁kap	-11484
▁nob	-11485
▁1673	-11486
▁1729	-11487
▁dave	-11488
▁gran	-11489
▁ling	-11490
▁mall	-11491
▁page	-11492
▁vinc	-11493
▁planet	-11494
▁र	-11495
▁壽	-11496
▁lm	-11497
▁壽火	-11498
▁秃页	-11499
▁肉甫	-11500
▁肉粦	-11501
▁草拉	-11502
▁金翏	-11503
▁762	-11504
▁ali	-11505
▁cis	-11506
order	-11507
▁1127	-11508
▁1728	-11509
▁iucn	-11510
▁jord	-11511
▁rele	-11512
▁歹丿一昜	-11513
▁crystal	-11514
rd	-11515
olo	-11516
▁心聂	-11517
▁草预	-11518
lang	-11519
▁358	-11520
▁451	-11521
▁hab	-11522
▁lum	-11523
▁obs	-11524
▁ost	-11525
angel	-11526
▁1587	-11527
▁1742	-11528
▁andy	-11529
▁jess	-11530
▁maur	-11531
▁mort	-11532
ecture	-11533
▁round	-11534
▁their	-11535
▁alexand	-11536
elf	-11537
ifi	-11538
ril	-11539
▁dx	-11540
▁vv	-11541
▁囗屯	-11542
▁心军	-11543
▁手俞	-11544
▁水詹	-11545
▁火敦	-11546
▁614	-11547
▁gib	-11548
▁lev	-11549
▁juan	-11550
▁phen	-11551
▁snow	-11552
▁stop	-11553
▁santa	-11554
▁short	-11555
▁russell	-11556
bb	-11557
rt	-11558
子攴	-11559
艮皿	-11560
231	-11561
het	-11562
▁fw	-11563
▁rk	-11564
▁人亢	-11565
▁玉唐	-11566
▁石見	-11567
▁穴敫	-11568
▁肉齐	-11569
▁鱼思	-11570
isch	-11571
orph	-11572
▁432	-11573
▁528	-11574
▁613	-11575
▁aur	-11576
▁dsi	-11577
▁six	-11578
▁乂一丿	-11579
▁竹艮皿	-11580
▁1613	-11581
▁1631	-11582
▁1658	-11583
▁1669	-11584
▁1702	-11585
▁1738	-11586
▁1766	-11587
▁ital	-11588
▁nike	-11589
▁wave	-11590
▁canon	-11591
▁relat	-11592
▁乂一丿子攴	-11593
▁review	-11594
▁medical	-11595
▁department	-11596
▁ά	-11597
inn	-11598
▁口苗	-11599
▁辵十	-11600
ador	-11601
ones	-11602
▁632	-11603
▁920	-11604
ument	-11605
▁azure	-11606
▁franz	-11607
▁peace	-11608
▁psych	-11609
▁kingdom	-11610
▁ノ	-11611
eep	-11612
▁hz	-11613
▁人耶	-11614
▁出示	-11615
▁彳來	-11616
▁歹宾	-11617
▁火盡	-11618
▁禾真	-11619
▁294	-11620
▁abd	-11621
▁bou	-11622
▁mes	-11623
▁neo	-11624
stone	-11625
▁1553	-11626
▁1565	-11627
▁1710	-11628
▁kitt	-11629
▁baron	-11630
▁every	-11631
▁metro	-11632
▁spirit	-11633
▁destiny	-11634
▁ェ	-11635
113	-11636
lav	-11637
▁加衣	-11638
▁火尞	-11639
▁足柔	-11640
▁金隽	-11641
▁鹿几	-11642
▁1⁄2	-11643
▁435	-11644
▁681	-11645
point	-11646
space	-11647
▁1672	-11648
▁1753	-11649
▁hero	-11650
▁priv	-11651
▁jimmy	-11652
▁macos	-11653
▁pseud	-11654
▁sweet	-11655
ruction	-11656
▁effect	-11657
▁middle	-11658
▁fantasy	-11659
▁theatre	-11660
▁onlyinclude	-11661
aa	-11662
▁د	-11663
▁析	-11664
aro	-11665
▁木廚	-11666
▁示去	-11667
▁示爾	-11668
▁辵矞	-11669
eman	-11670
▁436	-11671
▁667	-11672
▁xen	-11673
lines	-11674
shire	-11675
world	-11676
▁1687	-11677
▁1712	-11678
▁1726	-11679
▁cash	-11680
▁here	-11681
▁being	-11682
▁display	-11683
▁そ	-11684
hol	-11685
▁手垂	-11686
▁火軍	-11687
▁玉豦	-11688
▁石帝	-11689
▁羽廾	-11690
▁虫丘	-11691
▁車失	-11692
mark	-11693
▁clo	-11694
▁ria	-11695
▁1586	-11696
▁1717	-11697
▁1732	-11698
▁jane	-11699
▁morn	-11700
bridge	-11701
▁25000	-11702
▁urban	-11703
▁centro	-11704
▁advance	-11705
▁hamilton	-11706
▁washington	-11707
▁application	-11708
wh	-11709
▁ど	-11710
▁ㄨ	-11711
110	-11712
erc	-11713
nie	-11714
▁io	-11715
▁nk	-11716
▁亦手	-11717
▁亶毛	-11718
▁女焉	-11719
▁牛古	-11720
▁草会	-11721
▁草宛	-11722
▁草長	-11723
▁足厥	-11724
▁金咅	-11725
▁魚有	-11726
bach	-11727
ilog	-11728
last	-11729
▁332	-11730
▁408	-11731
▁apm	-11732
▁cav	-11733
▁put	-11734
▁1453	-11735
▁1526	-11736
▁1567	-11737
▁1722	-11738
▁gram	-11739
▁image	-11740
▁future	-11741
▁walker	-11742
arc	-11743
oko	-11744
▁山見	-11745
▁木尾	-11746
▁禾襄	-11747
▁竹肅	-11748
▁草且	-11749
anus	-11750
stad	-11751
▁546	-11752
▁682	-11753
▁986	-11754
▁dft	-11755
▁1602	-11756
▁bart	-11757
▁null	-11758
▁quad	-11759
▁hydro	-11760
▁voice	-11761
vc	-11762
▁●	-11763
▁岀	-11764
▁bj	-11765
▁手咠	-11766
▁水延	-11767
▁衣卦	-11768
aver	-11769
erve	-11770
▁431	-11771
▁507	-11772
▁jar	-11773
▁joy	-11774
▁sdk	-11775
▁tri	-11776
▁1559	-11777
▁grad	-11778
▁thor	-11779
▁宀井大言	-11780
▁margar	-11781
▁douglas	-11782
▁environ	-11783
▁industr	-11784
▁jacques	-11785
▁solaris	-11786
▁symbian	-11787
tz	-11788
▁mn	-11789
▁丝段	-11790
▁手差	-11791
▁骨鳥	-11792
页口口	-11793
1000	-11794
▁396	-11795
▁624	-11796
▁668	-11797
▁755	-11798
▁cut	-11799
▁fig	-11800
▁nom	-11801
▁pel	-11802
▁vip	-11803
▁1647	-11804
▁wong	-11805
▁人一小一	-11806
▁方丿一円	-11807
▁bruce	-11808
▁value	-11809
▁口口页口口	-11810
tscript	-11811
▁integr	-11812
单斤	-11813
巾八	-11814
▁wc	-11815
▁土庸	-11816
▁水肥	-11817
▁病包	-11818
▁病閒	-11819
▁革是	-11820
time	-11821
▁427	-11822
▁598	-11823
▁910	-11824
▁草单斤	-11825
▁1150	-11826
▁1575	-11827
▁1639	-11828
▁1679	-11829
▁1715	-11830
active	-11831
▁ident	-11832
▁refer	-11833
▁tiger	-11834
▁natural	-11835
▁gamespot	-11836
▁lawrence	-11837
wo	-11838
▁́	-11839
絲蟲	-11840
iph	-11841
ten	-11842
▁eu	-11843
▁水尞	-11844
▁牛賣	-11845
▁豈見	-11846
▁門厷	-11847
onia	-11848
oshi	-11849
wart	-11850
▁424	-11851
▁537	-11852
▁ncc	-11853
▁ral	-11854
▁tru	-11855
▁竹手匝	-11856
▁草冂丨	-11857
imate	-11858
▁1737	-11859
▁were	-11860
▁石弓丿丿	-11861
▁草冂丨絲蟲	-11862
ography	-11863
▁gordon	-11864
▁command	-11865
▁country	-11866
▁fortran	-11867
▁georgia	-11868
▁championship	-11869
▁←	-11870
phy	-11871
▁kt	-11872
▁玉占	-11873
▁禺頁	-11874
▁萬足	-11875
▁髟冉	-11876
ophy	-11877
▁353	-11878
▁863	-11879
▁pip	-11880
▁rif	-11881
▁1611	-11882
▁1731	-11883
▁burg	-11884
▁hide	-11885
▁rank	-11886
▁treat	-11887
▁holdings	-11888
zh	-11889
▁ゆ	-11890
▁麗	-11891
lie	-11892
▁户非	-11893
▁木查	-11894
▁火韦	-11895
▁犬弗	-11896
▁票刀	-11897
▁草巿	-11898
▁足菐	-11899
igan	-11900
▁364	-11901
▁535	-11902
▁553	-11903
▁790	-11904
▁97%	-11905
▁beh	-11906
▁nic	-11907
▁ras	-11908
eless	-11909
▁1350	-11910
▁1520	-11911
▁1595	-11912
▁1704	-11913
▁buff	-11914
▁cher	-11915
▁gary	-11916
▁lead	-11917
▁logo	-11918
▁nord	-11919
▁wild	-11920
▁宀井大足	-11921
▁stars	-11922
▁author	-11923
gp	-11924
▁­	-11925
▁ό	-11926
▁■	-11927
ols	-11928
▁kk	-11929
▁人奄	-11930
▁日韋	-11931
▁歹僉	-11932
▁水皇	-11933
asia	-11934
haus	-11935
ized	-11936
lass	-11937
ress	-11938
▁339	-11939
▁372	-11940
▁378	-11941
▁422	-11942
▁533	-11943
▁796	-11944
▁990	-11945
▁hem	-11946
▁絲言木	-11947
count	-11948
▁1380	-11949
▁1536	-11950
▁1739	-11951
▁stage	-11952
▁valve	-11953
▁columb	-11954
▁universal	-11955
px	-11956
▁ァ	-11957
▁vm	-11958
▁土乾	-11959
▁心宛	-11960
▁执衣	-11961
▁玉秀	-11962
▁車乚	-11963
▁辵爾	-11964
▁金將	-11965
▁454	-11966
▁phi	-11967
▁tax	-11968
▁wan	-11969
istic	-11970
▁1588	-11971
▁1597	-11972
▁1605	-11973
▁3800	-11974
▁dash	-11975
▁iron	-11976
▁labor	-11977
▁dennis	-11978
▁energy	-11979
▁ˇ	-11980
▁ズ	-11981
▁fd	-11982
▁丝益	-11983
▁虫可	-11984
▁金登	-11985
人人回	-11986
冂儿大	-11987
巾八攴	-11988
▁418	-11989
▁532	-11990
▁926	-11991
▁fro	-11992
▁pda	-11993
▁1547	-11994
▁1657	-11995
▁andr	-11996
▁case	-11997
▁丷巾八攴	-11998
▁刀冂儿大	-11999
▁土人人回	-12000
▁beach	-12001
▁intell	-12002
▁oracle	-12003
▁alliance	-12004
▁analysis	-12005
▁ericsson	-12006
▁community	-12007
mad	-12008
▁lt	-12009
▁口自	-12010
▁山由	-12011
▁手虏	-12012
▁炎邑	-12013
▁竹高	-12014
▁絲婁	-12015
▁絲晉	-12016
▁絲段	-12017
▁369	-12018
▁381	-12019
▁629	-12020
▁815	-12021
▁936	-12022
▁ein	-12023
▁raw	-12024
▁1130	-12025
▁1655	-12026
▁gent	-12027
▁火火冖水	-12028
iation	-12029
▁johnny	-12030
▁deutsch	-12031
▁morning	-12032
▁perfect	-12033
▁independ	-12034
▁ず	-12035
edy	-12036
enu	-12037
put	-12038
▁nx	-12039
▁水連	-12040
▁玉介	-12041
▁玉共	-12042
▁竹戋	-12043
▁肉齊	-12044
▁骨娄	-12045
back	-12046
omet	-12047
▁22%	-12048
▁348	-12049
▁374	-12050
▁417	-12051
▁439	-12052
▁cos	-12053
▁hud	-12054
▁ire	-12055
▁mud	-12056
▁oak	-12057
▁ole	-12058
▁sis	-12059
▁syl	-12060
▁tap	-12061
▁1593	-12062
▁1653	-12063
▁1666	-12064
▁1676	-12065
▁gray	-12066
▁resp	-12067
▁xiii	-12068
▁catal	-12069
▁chand	-12070
▁jason	-12071
▁flight	-12072
iy	-12073
owa	-12074
▁勿刀	-12075
▁十艹	-12076
▁歹央	-12077
▁毛求	-12078
▁票瓜	-12079
▁草奈	-12080
▁足八	-12081
▁門圭	-12082
▁576	-12083
▁586	-12084
▁623	-12085
▁got	-12086
otion	-12087
▁1612	-12088
▁iata	-12089
▁trib	-12090
▁hunter	-12091
▁morris	-12092
▁matthew	-12093
▁universit	-12094
▁ョ	-12095
▁ワ	-12096
die	-12097
fly	-12098
▁gd	-12099
▁jd	-12100
▁qt	-12101
▁亦木	-12102
▁口内	-12103
▁女以	-12104
▁尢监	-12105
▁日分	-12106
▁病巠	-12107
▁言斤	-12108
▁魚敝	-12109
roll	-12110
▁398	-12111
▁443	-12112
▁壳殳心	-12113
▁宀爿未	-12114
▁1024	-12115
▁1589	-12116
▁1741	-12117
▁berg	-12118
▁asian	-12119
▁opens	-12120
▁polit	-12121
▁transform	-12122
109	-12123
rov	-12124
▁dz	-12125
▁ez	-12126
▁土嗇	-12127
▁木比	-12128
▁火乐	-12129
▁虫率	-12130
▁辟手	-12131
▁金布	-12132
丨一人	-12133
omer	-12134
▁511	-12135
▁684	-12136
▁itu	-12137
▁pak	-12138
▁rab	-12139
▁十艹贝	-12140
▁1050	-12141
▁avbwu	-12142
▁watch	-12143
▁antonio	-12144
丝辛	-12145
emb	-12146
ulf	-12147
▁za	-12148
▁口享	-12149
▁手耶	-12150
▁次心	-12151
▁石艾	-12152
▁草果	-12153
▁谷邑	-12154
▁車可	-12155
▁金我	-12156
ello	-12157
▁21%	-12158
▁361	-12159
▁368	-12160
▁718	-12161
▁row	-12162
▁wto	-12163
▁辛丝辛	-12164
itive	-12165
▁1718	-12166
▁barr	-12167
▁chen	-12168
▁fami	-12169
▁mars	-12170
▁rrna	-12171
▁30000	-12172
▁civil	-12173
▁henri	-12174
▁norman	-12175
▁conference	-12176
▁nf	-12177
▁占乙	-12178
▁口小	-12179
▁女丑	-12180
▁女咼	-12181
▁山區	-12182
▁玉番	-12183
▁肉甲	-12184
▁言甚	-12185
▁金交	-12186
▁24%	-12187
▁392	-12188
▁475	-12189
▁551	-12190
▁604	-12191
▁642	-12192
▁905	-12193
▁ads	-12194
▁dag	-12195
▁hob	-12196
gress	-12197
▁1517	-12198
▁1530	-12199
▁1577	-12200
▁1754	-12201
▁ange	-12202
▁bang	-12203
▁cycl	-12204
▁joey	-12205
▁nato	-12206
▁reich	-12207
▁estate	-12208
▁vision	-12209
▁environment	-12210
hem	-12211
▁俞見	-12212
▁厂林	-12213
▁木巴	-12214
▁氣亞	-12215
▁石曷	-12216
▁马并	-12217
enet	-12218
▁373	-12219
▁453	-12220
▁455	-12221
▁527	-12222
▁hur	-12223
▁pit	-12224
▁plc	-12225
▁wir	-12226
ament	-12227
▁1525	-12228
▁1556	-12229
▁1574	-12230
▁1668	-12231
▁1705	-12232
▁bert	-12233
▁clos	-12234
▁cool	-12235
▁user	-12236
▁return	-12237
mc	-12238
25%	-12239
iet	-12240
rid	-12241
▁gf	-12242
▁oz	-12243
▁土艮	-12244
▁夹页	-12245
▁木規	-12246
一王攴	-12247
ango	-12248
atch	-12249
fore	-12250
wiki	-12251
▁27%	-12252
▁433	-12253
▁523	-12254
▁754	-12255
▁arn	-12256
▁bmt	-12257
▁lil	-12258
▁tgv	-12259
▁1066	-12260
▁1555	-12261
▁1641	-12262
▁2024	-12263
▁also	-12264
▁benj	-12265
▁brun	-12266
▁fate	-12267
▁ferr	-12268
▁pala	-12269
▁march	-12270
▁水山一王攴	-12271
ulation	-12272
▁canada	-12273
▁differ	-12274
▁nature	-12275
▁heinrich	-12276
▁î	-12277
▁ı	-12278
▁敢	-12279
▁責	-12280
cus	-12281
▁敢心	-12282
▁病鮮	-12283
▁衣保	-12284
▁責力	-12285
ifer	-12286
ulus	-12287
▁351	-12288
▁376	-12289
▁445	-12290
▁515	-12291
▁518	-12292
▁565	-12293
▁666	-12294
▁isp	-12295
▁1656	-12296
▁1711	-12297
▁penn	-12298
▁medic	-12299
▁moore	-12300
▁studios	-12301
▁victoria	-12302
tex	-12303
▁ug	-12304
▁亦山	-12305
▁口林	-12306
▁病山	-12307
▁至邑	-12308
▁503	-12309
▁534	-12310
▁ado	-12311
▁elf	-12312
▁fem	-12313
▁fur	-12314
▁gay	-12315
▁pho	-12316
▁sna	-12317
▁tin	-12318
ening	-12319
lands	-12320
▁1276	-12321
▁1674	-12322
▁8859	-12323
▁buck	-12324
▁hope	-12325
▁omni	-12326
▁orch	-12327
▁billy	-12328
▁emacs	-12329
▁virus	-12330
▁legend	-12331
▁yellow	-12332
▁material	-12333
▁postscript	-12334
yg	-12335
▁咁	-12336
ebe	-12337
ori	-12338
▁tn	-12339
▁一中	-12340
▁广无	-12341
▁心聶	-12342
▁手赞	-12343
▁舟尾	-12344
▁马亥	-12345
iber	-12346
onda	-12347
▁585	-12348
▁ctv	-12349
▁dip	-12350
▁fis	-12351
▁ipa	-12352
▁sip	-12353
music	-12354
▁1524	-12355
▁1744	-12356
▁8500	-12357
▁boot	-12358
▁come	-12359
▁icao	-12360
▁ipad	-12361
▁lane	-12362
▁past	-12363
▁solid	-12364
▁total	-12365
▁democr	-12366
▁巫	-12367
▁朗	-12368
▁皋	-12369
ebr	-12370
▁nb	-12371
▁pw	-12372
▁冰妻	-12373
▁口爹	-12374
▁巛田	-12375
▁朗土	-12376
▁示乃	-12377
▁草鮮	-12378
▁金來	-12379
▁隹丨	-12380
base	-12381
phal	-12382
▁26%	-12383
▁414	-12384
▁529	-12385
▁636	-12386
▁641	-12387
▁722	-12388
▁805	-12389
▁825	-12390
▁976	-12391
▁vic	-12392
▁一中冖	-12393
▁人交攴	-12394
▁1542	-12395
▁flow	-12396
▁tree	-12397
▁kinki	-12398
▁kitty	-12399
▁multi	-12400
▁nicon	-12401
▁region	-12402
▁ゲ	-12403
▁毌	-12404
必皿	-12405
kar	-12406
▁口既	-12407
▁心咢	-12408
▁病闲	-12409
▁皋羽	-12410
▁絲賓	-12411
ashi	-12412
▁341	-12413
▁362	-12414
▁409	-12415
▁536	-12416
▁616	-12417
▁712	-12418
▁713	-12419
▁715	-12420
▁ian	-12421
▁mcg	-12422
▁nem	-12423
▁pid	-12424
▁tat	-12425
▁言必皿	-12426
etype	-12427
ollow	-12428
▁4200	-12429
▁duke	-12430
▁root	-12431
▁brook	-12432
▁spect	-12433
▁diamond	-12434
▁studies	-12435
▁niconico	-12436
▁republic	-12437
▁ه	-12438
▁示天	-12439
▁禾末	-12440
▁穴串	-12441
▁酉云	-12442
▁金有	-12443
▁金蜀	-12444
▁门或	-12445
▁389	-12446
▁391	-12447
▁423	-12448
▁44%	-12449
▁675	-12450
▁cbe	-12451
▁jes	-12452
ether	-12453
itude	-12454
▁1562	-12455
▁1608	-12456
▁1749	-12457
▁auto	-12458
▁ella	-12459
▁lion	-12460
▁tong	-12461
▁women	-12462
▁benjamin	-12463
▁¬	-12464
▁า	-12465
▁備	-12466
omb	-12467
ues	-12468
▁hg	-12469
▁rm	-12470
▁人齊	-12471
▁備心	-12472
▁户大	-12473
▁豸莫	-12474
▁416	-12475
▁711	-12476
▁741	-12477
▁918	-12478
▁any	-12479
▁cox	-12480
▁丷夫己	-12481
estra	-12482
▁1599	-12483
▁1633	-12484
▁1652	-12485
▁1675	-12486
▁ansi	-12487
▁calc	-12488
▁rows	-12489
▁ster	-12490
▁vent	-12491
▁trust	-12492
▁magnet	-12493
▁security	-12494
▁`	-12495
▁х	-12496
pad	-12497
▁tk	-12498
▁人堯	-12499
▁广羊	-12500
▁木堯	-12501
▁水责	-12502
▁火局	-12503
▁金卡	-12504
▁門盍	-12505
▁鱼卢	-12506
iday	-12507
▁19%	-12508
▁28%	-12509
▁545	-12510
▁577	-12511
▁704	-12512
▁965	-12513
▁bod	-12514
▁mev	-12515
▁occ	-12516
▁pul	-12517
▁udp	-12518
▁1716	-12519
▁ebay	-12520
▁ifpi	-12521
▁shah	-12522
▁activ	-12523
▁thumb	-12524
▁scient	-12525
▁borough	-12526
▁powersh	-12527
▁federation	-12528
iq	-12529
▁ɛ	-12530
▁包	-12531
▁朱	-12532
一友	-12533
▁uv	-12534
▁亦子	-12535
▁口叕	-12536
▁日丙	-12537
▁木樂	-12538
▁木监	-12539
▁朱邑	-12540
▁水卓	-12541
▁水拜	-12542
▁水累	-12543
▁火屯	-12544
▁病林	-12545
▁目冘	-12546
▁肉卢	-12547
▁金廷	-12548
▁鱼敝	-12549
▁050	-12550
▁363	-12551
▁556	-12552
▁guy	-12553
▁pix	-12554
▁爪一友	-12555
eller	-12556
elson	-12557
oshop	-12558
▁1694	-12559
▁terr	-12560
▁vert	-12561
▁money	-12562
▁campbell	-12563
▁photoshop	-12564
▁来	-12565
alo	-12566
cat	-12567
fun	-12568
gio	-12569
▁dg	-12570
▁ov	-12571
▁包刀	-12572
▁口契	-12573
▁口秦	-12574
▁水夌	-12575
▁玉旬	-12576
▁石隹	-12577
▁示眞	-12578
▁虫孟	-12579
olis	-12580
▁347	-12581
▁377	-12582
▁426	-12583
▁634	-12584
▁drm	-12585
▁ftp	-12586
▁obe	-12587
▁pon	-12588
▁1581	-12589
▁3400	-12590
▁cosm	-12591
▁khan	-12592
▁leop	-12593
▁then	-12594
▁40000	-12595
▁plant	-12596
▁quant	-12597
▁shock	-12598
▁start	-12599
▁jordan	-12600
har	-12601
▁手单	-12602
▁曲豆	-12603
▁水頼	-12604
▁矛今	-12605
▁413	-12606
▁478	-12607
▁557	-12608
▁ate	-12609
▁hub	-12610
▁leo	-12611
▁psv	-12612
istry	-12613
▁1566	-12614
▁1596	-12615
▁1678	-12616
▁2900	-12617
▁gabr	-12618
▁hunt	-12619
▁tank	-12620
▁daily	-12621
▁excel	-12622
▁instagram	-12623
▁ㄚ	-12624
▁卑	-12625
▁烏	-12626
▁聶	-12627
ppm	-12628
▁ek	-12629
▁tx	-12630
▁心星	-12631
▁木斛	-12632
▁来贝	-12633
▁牛氐	-12634
▁白交	-12635
▁石凡	-12636
▁聶頁	-12637
▁虫悉	-12638
band	-12639
illy	-12640
▁387	-12641
▁397	-12642
▁472	-12643
▁538	-12644
▁554	-12645
▁609	-12646
▁637	-12647
▁aac	-12648
▁eag	-12649
▁kol	-12650
▁ufo	-12651
▁絲言子	-12652
ising	-12653
overy	-12654
▁1279	-12655
▁1371	-12656
▁1403	-12657
▁1561	-12658
▁1576	-12659
▁1703	-12660
▁cree	-12661
▁scar	-12662
▁sens	-12663
▁plaza	-12664
▁vocal	-12665
▁shinee	-12666
▁bernard	-12667
arm	-12668
tis	-12669
▁dp	-12670
▁人乞	-12671
▁口倉	-12672
▁日方	-12673
▁水令	-12674
▁烏邑	-12675
▁玉几	-12676
▁病圣	-12677
▁石占	-12678
▁车耴	-12679
▁382	-12680
▁888	-12681
▁957	-12682
▁afi	-12683
▁mim	-12684
▁sak	-12685
▁sli	-12686
▁xxx	-12687
▁1564	-12688
▁1708	-12689
▁3166	-12690
▁spin	-12691
▁admin	-12692
▁quest	-12693
▁castle	-12694
▁nation	-12695
▁novell	-12696
▁rowspan	-12697
▁graphics	-12698
▁sciences	-12699
▁thunderb	-12700
▁卂	-12701
▁夸	-12702
▁皇	-12703
山又	-12704
iri	-12705
uts	-12706
▁hh	-12707
▁木予	-12708
▁木勺	-12709
▁析白	-12710
▁猋风	-12711
▁玉法	-12712
▁皇光	-12713
▁肉井	-12714
▁胡鳥	-12715
▁蟲見	-12716
▁辰肉	-12717
▁金犮	-12718
▁马冀	-12719
▁魚非	-12720
bang	-12721
iner	-12722
ivan	-12723
▁442	-12724
▁890	-12725
▁971	-12726
▁arr	-12727
▁ges	-12728
▁toy	-12729
▁vel	-12730
▁卂蟲蟲	-12731
▁弓山又	-12732
▁1001	-12733
▁1523	-12734
▁1540	-12735
▁1606	-12736
▁1617	-12737
▁1746	-12738
▁ryan	-12739
▁exper	-12740
▁myspace	-12741
▁primary	-12742
erm	-12743
ige	-12744
uid	-12745
▁mf	-12746
▁口齿	-12747
▁喜喜	-12748
▁气克	-12749
▁水亢	-12750
▁辵狄	-12751
lich	-12752
▁379	-12753
▁419	-12754
▁509	-12755
▁541	-12756
▁ans	-12757
▁bun	-12758
▁ecl	-12759
▁nds	-12760
▁pil	-12761
▁tog	-12762
▁1563	-12763
▁3700	-12764
▁hang	-12765
▁must	-12766
▁	-12767
一	-12768
人	-12769
口	-12770
丿	-12771
丶	-12772
丨	-12773
,	-12774
白	-12775
日	-12776
土	-12777
木	-12778
勺	-12779
㇆	-12780
水	-12781
十	-12782
。	-12783
丷	-12784
刀	-12785
冂	-12786
二	-12787
辵	-12788
手	-12789
八	-12790
言	-12791
囗	-12792
禾	-12793
宀	-12794
亠	-12795
月	-12796
亅	-12797
丰	-12798
草	-12799
匕	-12800
大	-12801
1	-12802
彳	-12803
夕	-12804
心	-12805
火	-12806
又	-12807
冖	-12808
寸	-12809
厶	-12810
攴	-12811
絲	-12812
乀	-12813
0	-12814
疋	-12815
玉	-12816
、	-12817
小	-12818
山	-12819
肉	-12820
阜	-12821
女	-12822
幺	-12823
目	-12824
乛	-12825
王	-12826
斤	-12827
力	-12828
牛	-12829
2	-12830
竹	-12831
也	-12832
广	-12833
子	-12834
丝	-12835
巾	-12836
寺	-12837
儿	-12838
隹	-12839
立	-12840
9	-12841
乚	-12842
方	-12843
羊	-12844
厂	-12845
曰	-12846
乂	-12847
尸	-12848
邑	-12849
殳	-12850
田	-12851
卩	-12852
卜	-12853
□	-12854
a	-12855
工	-12856
其	-12857
貝	-12858
聿	-12859
勹	-12860
示	-12861
衣	-12862
止	-12863
e	-12864
戈	-12865
臼	-12866
弓	-12867
里	-12868
冫	-12869
車	-12870
廿	-12871
己	-12872
戊	-12873
犬	-12874
金	-12875
門	-12876
网	-12877
o	-12878
或	-12879
i	-12880
r	-12881
夂	-12882
至	-12883
豕	-12884
n	-12885
爻	-12886
3	-12887
5	-12888
8	-12889
弋	-12890
井	-12891
彡	-12892
耳	-12893
各	-12894
艮	-12895
开	-12896
4	-12897
s	-12898
米	-12899
皮	-12900
尚	-12901
頁	-12902
t	-12903
㇉	-12904
之	-12905
6	-12906
且	-12907
7	-12908
甘	-12909
匸	-12910
乃	-12911
生	-12912
欠	-12913
云	-12914
入	-12915
咅	-12916
贝	-12917
l	-12918
戶	-12919
正	-12920
亍	-12921
乍	-12922
业	-12923
石	-12924
占	-12925
見	-12926
可	-12927
者	-12928
车	-12929
雨	-12930
三	-12931
c	-12932
凵	-12933
m	-12934
西	-12935
爪	-12936
去	-12937
足	-12938
	-12939
弔	-12940
川	-12941
旦	-12942
走	-12943
》	-12944
《	-12945
:	-12946
了	-12947
彐	-12948
几	-12949
「	-12950
」	-12951
民	-12952
矢	-12953
重	-12954
h	-12955
亲	-12956
勿	-12957
取	-12958
乁	-12959
甲	-12960
穴	-12961
d	-12962
丬	-12963
每	-12964
u	-12965
台	-12966
青	-12967
廴	-12968
冰	-12969
丫	-12970
癶	-12971
固	-12972
爿	-12973
皿	-12974
舌	-12975
干	-12976
兄	-12977
壬	-12978
虎	-12979
歹	-12980
“	-12981
交	-12982
·	-12983
馬	-12984
门	-12985
孝	-12986
甬	-12987
p	-12988
见	-12989
首	-12990
文	-12991
長	-12992
是	-12993
廾	-12994
亚	-12995
士	-12996
巴	-12997
页	-12998
吏	-12999
吉	-13000
品	-13001
斗	-13002
夫	-13003
昜	-13004
舟	-13005
丁	-13006
京	-13007
求	-13008
𠃋	-13009
g	-13010
;	-13011
古	-13012
付	-13013
囬	-13014
角	-13015
乙	-13016
亥	-13017
主	-13018
尤	-13019
b	-13020
豆	-13021
f	-13022
少	-13023
巠	-13024
專	-13025
音	-13026
成	-13027
丱	-13028
中	-13029
"	-13030
糸	-13031
友	-13032
合	-13033
虫	-13034
單	-13035
介	-13036
酉	-13037
央	-13038
巳	-13039
氏	-13040
令	-13041
行	-13042
骨	-13043
充	-13044
巷	-13045
马	-13046
畐	-13047
元	-13048
长	-13049
吾	-13050
直	-13051
食	-13052
完	-13053
上	-13054
此	-13055
咼	-13056
电	-13057
共	-13058
召	-13059
反	-13060
官	-13061
豊	-13062
婁	-13063
化	-13064
黑	-13065
余	-13066
夬	-13067
及	-13068
圣	-13069
病	-13070
由	-13071
非	-13072
幾	-13073
不	-13074
九	-13075
將	-13076
旨	-13077
景	-13078
分	-13079
辛	-13080
妾	-13081
k	-13082
采	-13083
雚	-13084
爯	-13085
革	-13086
呈	-13087
告	-13088
y	-13089
父	-13090
我	-13091
片	-13092
良	-13093
申	-13094
母	-13095
娄	-13096
兀	-13097
泉	-13098
丂	-13099
谷	-13100
寅	-13101
次	-13102
𠃊	-13103
v	-13104
予	-13105
亢	-13106
攸	-13107
蟲	-13108
w	-13109
莫	-13110
系	-13111
蜀	-13112
刑	-13113
扁	-13114
呆	-13115
彎	-13116
卌	-13117
軍	-13118
尔	-13119
列	-13120
龷	-13121
氐	-13122
圭	-13123
卯	-13124
羽	-13125
帀	-13126
自	-13127
关	-13128
侖	-13129
今	-13130
兌	-13131
韋	-13132
冬	-13133
埶	-13134
才	-13135
产	-13136
比	-13137
丩	-13138
番	-13139
肖	-13140
本	-13141
弗	-13142
豦	-13143
周	-13144
只	-13145
禺	-13146
祭	-13147
叩	-13148
卬	-13149
加	-13150
支	-13151
州	-13152
龴	-13153
巽	-13154
甫	-13155
必	-13156
㠯	-13157
義	-13158
布	-13159
安	-13160
戠	-13161
悤	-13162
蒦	-13163
尹	-13164
天	-13165
丘	-13166
君	-13167
先	-13168
睘	-13169
号	-13170
离	-13171
斿	-13172
袁	-13173
卄	-13174
貫	-13175
束	-13176
矛	-13177
专	-13178
咸	-13179
原	-13180
午	-13181
戋	-13182
並	-13183
維	-13184
玄	-13185
闌	-13186
仑	-13187
兑	-13188
𠃑	-13189
真	-13190
务	-13191
早	-13192
包	-13193
巨	-13194
类	-13195
丄	-13196
黃	-13197
僉	-13198
z	-13199
幸	-13200
飞	-13201
多	-13202
居	-13203
尢	-13204
同	-13205
户	-13206
魚	-13207
亘	-13208
屯	-13209
忍	-13210
県	-13211
匚	-13212
相	-13213
更	-13214
办	-13215
头	-13216
亦	-13217
倉	-13218
竟	-13219
林	-13220
亡	-13221
冓	-13222
賣	-13223
與	-13224
叀	-13225
氣	-13226
罙	-13227
北	-13228
曲	-13229
千	-13230
%	-13231
呂	-13232
耑	-13233
哥	-13234
坐	-13235
麻	-13236
氶	-13237
x	-13238
曾	-13239
夭	-13240
乞	-13241
厽	-13242
而	-13243
敕	-13244
缶	-13245
虽	-13246
_	-13247
鬼	-13248
荅	-13249
辰	-13250
匀	-13251
身	-13252
睪	-13253
朿	-13254
司	-13255
义	-13256
道	-13257
半	-13258
象	-13259
牙	-13260
戉	-13261
禹	-13262
票	-13263
平	-13264
未	-13265
丙	-13266
胡	-13267
俞	-13268
/	-13269
彔	-13270
臣	-13271
昔	-13272
用	-13273
隶	-13274
佥	-13275
爭	-13276
毛	-13277
哉	-13278
區	-13279
鱼	-13280
兆	-13281
刂	-13282
j	-13283
乇	-13284
尃	-13285
赤	-13286
明	-13287
壯	-13288
洛	-13289
監	-13290
勾	-13291
失	-13292
卑	-13293
叔	-13294
丅	-13295
登	-13296
敬	-13297
因	-13298
若	-13299
制	-13300
—	-13301
空	-13302
复	-13303
責	-13304
韦	-13305
瓦	-13306
式	-13307
昷	-13308
昌	-13309
巛	-13310
于	-13311
鬲	-13312
果	-13313
夅	-13314
坴	-13315
折	-13316
故	-13317
鳥	-13318
啚	-13319
仓	-13320
則	-13321
曽	-13322
襄	-13323
某	-13324
夋	-13325
艹	-13326
气	-13327
以	-13328
劦	-13329
害	-13330
齐	-13331
步	-13332
升	-13333
東	-13334
巩	-13335
遀	-13336
內	-13337
术	-13338
句	-13339
齊	-13340
咠	-13341
吕	-13342
能	-13343
奇	-13344
奥	-13345
廷	-13346
堇	-13347
公	-13348
卒	-13349
爰	-13350
戔	-13351
夆	-13352
詹	-13353
羕	-13354
享	-13355
卖	-13356
朱	-13357
}	-13358
{	-13359
厷	-13360
罔	-13361
另	-13362
区	-13363
辟	-13364
彑	-13365
内	-13366
卂	-13367
并	-13368
亭	-13369
臧	-13370
來	-13371
冡	-13372
敫	-13373
穌	-13374
受	-13375
朝	-13376
肀	-13377
異	-13378
耤	-13379
丸	-13380
右	-13381
啇	-13382
免	-13383
叚	-13384
卅	-13385
兴	-13386
曹	-13387
帛	-13388
亟	-13389
击	-13390
炎	-13391
冋	-13392
矣	-13393
畫	-13394
鄉	-13395
舄	-13396
匹	-13397
保	-13398
宗	-13399
声	-13400
苗	-13401
曷	-13402
枼	-13403
东	-13404
杀	-13405
曼	-13406
七	-13407
夌	-13408
員	-13409
隺	-13410
離	-13411
厈	-13412
建	-13413
鹿	-13414
迶	-13415
臤	-13416
则	-13417
郎	-13418
丑	-13419
劵	-13420
秀	-13421
与	-13422
灬	-13423
暴	-13424
岡	-13425
斬	-13426
殹	-13427
匋	-13428
昏	-13429
犮	-13430
兼	-13431
斥	-13432
乡	-13433
帝	-13434
童	-13435
酋	-13436
!	-13437
喬	-13438
賈	-13439
孚	-13440
太	-13441
客	-13442
憂	-13443
壮	-13444
鸟	-13445
攵	-13446
育	-13447
氾	-13448
竞	-13449
意	-13450
粦	-13451
黍	-13452
习	-13453
既	-13454
柬	-13455
尞	-13456
章	-13457
两	-13458
皆	-13459
夗	-13460
向	-13461
唐	-13462
易	-13463
龍	-13464
舛	-13465
昆	-13466
雍	-13467
奐	-13468
間	-13469
乔	-13470
奚	-13471
產	-13472
何	-13473
茲	-13474
敢	-13475
知	-13476
委	-13477
六	-13478
奴	-13479
筑	-13480
毋	-13481
那	-13482
乏	-13483
厭	-13484
刍	-13485
来	-13486
帚	-13487
它	-13488
巫	-13489
亏	-13490
旁	-13491
廣	-13492
凡	-13493
员	-13494
𠄌	-13495
路	-13496
霝	-13497
允	-13498
尺	-13499
堯	-13500
褱	-13501
执	-13502
乑	-13503
左	-13504
囟	-13505
冈	-13506
刅	-13507
丽	-13508
冊	-13509
彖	-13510
巤	-13511
尼	-13512
貴	-13513
镸	-13514
乎	-13515
臽	-13516
般	-13517
利	-13518
叟	-13519
尌	-13520
𠂤	-13521
射	-13522
'	-13523
敞	-13524
q	-13525
宿	-13526
单	-13527
敝	-13528
吳	-13529
灰	-13530
奂	-13531
录	-13532
卷	-13533
>	-13534
贵	-13535
五	-13536
色	-13537
死	-13538
前	-13539
胃	-13540
]	-13541
疑	-13542
<	-13543
[	-13544
出	-13545
间	-13546
龙	-13547
度	-13548
永	-13549
军	-13550
高	-13551
卓	-13552
聶	-13553
樂	-13554
勢	-13555
夜	-13556
具	-13557
厃	-13558
斩	-13559
夹	-13560
百	-13561
刁	-13562
圡	-13563
尧	-13564
亶	-13565
弟	-13566
兩	-13567
發	-13568
到	-13569
沙	-13570
翟	-13571
桀	-13572
夾	-13573
亞	-13574
容	-13575
奉	-13576
瓜	-13577
豸	-13578
疌	-13579
聽	-13580
雇	-13581
復	-13582
夸	-13583
串	-13584
盍	-13585
叒	-13586
弯	-13587
老	-13588
冃	-13589
志	-13590
约	-13591
彦	-13592
翏	-13593
匍	-13594
𤇾	-13595
夏	-13596
代	-13597
豈	-13598
=	-13599
壽	-13600
?	-13601
卸	-13602
奠	-13603
史	-13604
孰	-13605
南	-13606
髟	-13607
已	-13608
朔	-13609
封	-13610
°	-13611
垂	-13612
⺆	-13613
耒	-13614
畺	-13615
冘	-13616
吴	-13617
買	-13618
+	-13619
监	-13620
旬	-13621
然	-13622
厓	-13623
面	-13624
邦	-13625
散	-13626
朋	-13627
巸	-13628
急	-13629
戒	-13630
滕	-13631
普	-13632
當	-13633
卻	-13634
亙	-13635
風	-13636
囷	-13637
沉	-13638
冏	-13639
畾	-13640
凶	-13641
屈	-13642
侌	-13643
发	-13644
寿	-13645
黄	-13646
延	-13647
釆	-13648
連	-13649
『	-13650
』	-13651
武	-13652
旡	-13653
舍	-13654
遂	-13655
茍	-13656
需	-13657
甚	-13658
潘	-13659
從	-13660
舀	-13661
覃	-13662
岂	-13663
軌	-13664
从	-13665
光	-13666
争	-13667
賓	-13668
回	-13669
旱	-13670
炭	-13671
肙	-13672
〉	-13673
盧	-13674
〈	-13675
盾	-13676
奄	-13677
會	-13678
孛	-13679
聂	-13680
楚	-13681
屰	-13682
鹵	-13683
負	-13684
希	-13685
齒	-13686
淮	-13687
刃	-13688
賁	-13689
耆	-13690
咢	-13691
兵	-13692
壴	-13693
思	-13694
崔	-13695
彗	-13696
臿	-13697
厄	-13698
星	-13699
嘼	-13700
全	-13701
垔	-13702
宾	-13703
皇	-13704
～	-13705
羅	-13706
责	-13707
乘	-13708
訁	-13709
连	-13710
孟	-13711
屋	-13712
─	-13713
贊	-13714
府	-13715
巟	-13716
盡	-13717
孫	-13718
朁	-13719
圼	-13720
尊	-13721
|	-13722
啬	-13723
貞	-13724
逢	-13725
肅	-13726
熏	-13727
留	-13728
廟	-13729
喜	-13730
焦	-13731
万	-13732
馮	-13733
囱	-13734
韱	-13735
巿	-13736
孙	-13737
萬	-13738
芻	-13739
波	-13740
菐	-13741
有	-13742
侯	-13743
嗇	-13744
甹	-13745
累	-13746
冝	-13747
頃	-13748
宛	-13749
诸	-13750
爾	-13751
領	-13752
名	-13753
匊	-13754
諸	-13755
会	-13756
活	-13757
家	-13758
烝	-13759
戎	-13760
師	-13761
忝	-13762
農	-13763
卉	-13764
卦	-13765
切	-13766
析	-13767
风	-13768
癸	-13769
替	-13770
罗	-13771
函	-13772
彭	-13773
当	-13774
觜	-13775
厲	-13776
匈	-13777
é	-13778
无	-13779
麥	-13780
難	-13781
~	-13782
膿	-13783
參	-13784
末	-13785
呙	-13786
负	-13787
&	-13788
壳	-13789
松	-13790
显	-13791
袞	-13792
’	-13793
齿	-13794
罒	-13795
尉	-13796
冒	-13797
买	-13798
無	-13799
欮	-13800
肃	-13801
妻	-13802
庶	-13803
C	-13804
敖	-13805
贲	-13806
将	-13807
豙	-13808
却	-13809
新	-13810
退	-13811
嬰	-13812
黽	-13813
穵	-13814
頻	-13815
桼	-13816
棥	-13817
覽	-13818
匡	-13819
‘	-13820
→	-13821
絜	-13822
隋	-13823
难	-13824
迹	-13825
犀	-13826
御	-13827
危	-13828
男	-13829
縣	-13830
羔	-13831
雷	-13832
妟	-13833
沓	-13834
农	-13835
藏	-13836
兹	-13837
顷	-13838
勉	-13839
$	-13840
浦	-13841
定	-13842
微	-13843
・	-13844
兰	-13845
洰	-13846
耶	-13847
×	-13848
贞	-13849
澡	-13850
丵	-13851
量	-13852
屚	-13853
宜	-13854
任	-13855
α	-13856
丈	-13857
县	-13858
兮	-13859
頓	-13860
蚤	-13861
厉	-13862
罷	-13863
闰	-13864
噩	-13865
剌	-13866
閏	-13867
瞿	-13868
参	-13869
務	-13870
久	-13871
考	-13872
*	-13873
讠	-13874
市	-13875
‧	-13876
躬	-13877
妥	-13878
歨	-13879
脓	-13880
賞	-13881
畜	-13882
伐	-13883
為	-13884
师	-13885
要	-13886
雟	-13887
察	-13888
葛	-13889
益	-13890
解	-13891
廉	-13892
廌	-13893
叕	-13894
为	-13895
朵	-13896
′	-13897
贯	-13898
庄	-13899
惠	-13900
殿	-13901
下	-13902
署	-13903
於	-13904
湯	-13905
鼠	-13906
喿	-13907
丕	-13908
涂	-13909
華	-13910
宣	-13911
兒	-13912
賴	-13913
荒	-13914
冗	-13915
矞	-13916
巢	-13917
聚	-13918
駦	-13919
烏	-13920
ー	-13921
匱	-13922
虚	-13923
董	-13924
隽	-13925
善	-13926
迷	-13927
禽	-13928
肴	-13929
衮	-13930
咨	-13931
β	-13932
勻	-13933
の	-13934
丐	-13935
览	-13936
歷	-13937
率	-13938
存	-13939
罢	-13940
丞	-13941
汤	-13942
血	-13943
豪	-13944
册	-13945
眉	-13946
尝	-13947
夐	-13948
羲	-13949
遣	-13950
拉	-13951
麗	-13952
秋	-13953
勘	-13954
戾	-13955
查	-13956
匽	-13957
梁	-13958
ン	-13959
豐	-13960
感	-13961
#	-13962
凸	-13963
凹	-13964
虑	-13965
夷	-13966
壹	-13967
а	-13968
鬥	-13969
陰	-13970
隊	-13971
亨	-13972
庸	-13973
習	-13974
á	-13975
恣	-13976
世	-13977
黾	-13978
便	-13979
念	-13980
疏	-13981
如	-13982
乌	-13983
徴	-13984
蒙	-13985
守	-13986
冢	-13987
蔑	-13988
勃	-13989
猒	-13990
ü	-13991
野	-13992
鄭	-13993
斯	-13994
臭	-13995
牚	-13996
阿	-13997
豖	-13998
美	-13999
兔	-14000
表	-14001
勇	-14002
и	-14003
堂	-14004
鬯	-14005
慮	-14006
籥	-14007
舜	-14008
畏	-14009
旉	-14010
о	-14011
廂	-14012
【	-14013
】	-14014
睿	-14015
香	-14016
婴	-14017
荃	-14018
奏	-14019
赫	-14020
張	-14021
ö	-14022
丹	-14023
敦	-14024
ā	-14025
段	-14026
典	-14027
郭	-14028
秦	-14029
※	-14030
卢	-14031
臺	-14032
拋	-14033
μ	-14034
四	-14035
霸	-14036
札	-14037
宅	-14038
你	-14039
欲	-14040
執	-14041
欣	-14042
進	-14043
い	-14044
展	-14045
屬	-14046
ä	-14047
胥	-14048
致	-14049
晃	-14050
曳	-14051
嚴	-14052
−	-14053
禼	-14054
垚	-14055
息	-14056
惢	-14057
í	-14058
臾	-14059
庫	-14060
薄	-14061
ó	-14062
差	-14063
就	-14064
匿	-14065
帶	-14066
幼	-14067
ス	-14068
臬	-14069
с	-14070
н	-14071
歰	-14072
币	-14073
е	-14074
龠	-14075
张	-14076
顛	-14077
华	-14078
总	-14079
姑	-14080
γ	-14081
厥	-14082
春	-14083
σ	-14084
过	-14085
愈	-14086
征	-14087
禸	-14088
р	-14089
掌	-14090
须	-14091
频	-14092
后	-14093
π	-14094
橢	-14095
ル	-14096
甾	-14097
契	-14098
〕	-14099
〔	-14100
叉	-14101
し	-14102
ん	-14103
宁	-14104
в	-14105
筮	-14106
柔	-14107
う	-14108
乐	-14109
族	-14110
䍃	-14111
к	-14112
卵	-14113
英	-14114
λ	-14115
扇	-14116
阑	-14117
イ	-14118
弱	-14119
缊	-14120
造	-14121
δ	-14122
閣	-14123
縕	-14124
队	-14125
栗	-14126
粲	-14127
厘	-14128
匝	-14129
莽	-14130
坒	-14131
か	-14132
怱	-14133
獄	-14134
旋	-14135
達	-14136
т	-14137
困	-14138
追	-14139
ラ	-14140
劳	-14141
带	-14142
ω	-14143
ト	-14144
た	-14145
卞	-14146
л	-14147
康	-14148
历	-14149
と	-14150
属	-14151
戍	-14152
欶	-14153
夲	-14154
ε	-14155
ア	-14156
ا	-14157
嬴	-14158
勞	-14159
寧	-14160
楙	-14161
亩	-14162
ο	-14163
•	-14164
ク	-14165
克	-14166
リ	-14167
虜	-14168
阴	-14169
戛	-14170
虐	-14171
○	-14172
è	-14173
商	-14174
奎	-14175
に	-14176
达	-14177
審	-14178
な	-14179
±	-14180
り	-14181
る	-14182
均	-14183
局	-14184
條	-14185
\	-14186
吒	-14187
ú	-14188
φ	-14189
閑	-14190
親	-14191
赖	-14192
く	-14193
寽	-14194
ま	-14195
き	-14196
ρ	-14197
疾	-14198
屮	-14199
ν	-14200
ς	-14201
咎	-14202
猋	-14203
泰	-14204
魯	-14205
寫	-14206
ッ	-14207
規	-14208
島	-14209
助	-14210
孔	-14211
禁	-14212
ロ	-14213
は	-14214
舂	-14215
坎	-14216
シ	-14217
@	-14218
歲	-14219
〇	-14220
て	-14221
匐	-14222
霜	-14223
τ	-14224
〜	-14225
僕	-14226
冉	-14227
м	-14228
郑	-14229
含	-14230
饣	-14231
‰	-14232
掷	-14233
隱	-14234
さ	-14235
み	-14236
こ	-14237
カ	-14238
么	-14239
堅	-14240
库	-14241
ل	-14242
が	-14243
ド	-14244
д	-14245
節	-14246
タ	-14247
寻	-14248
窄	-14249
ë	-14250
à	-14251
ら	-14252
魏	-14253
ι	-14254
お	-14255
業	-14256
あ	-14257
陏	-14258
ç	-14259
θ	-14260
敄	-14261
雋	-14262
阁	-14263
狄	-14264
у	-14265
雲	-14266
マ	-14267
爵	-14268
許	-14269
貳	-14270
閭	-14271
虒	-14272
焉	-14273
フ	-14274
引	-14275
翕	-14276
彌	-14277
ジ	-14278
覺	-14279
κ	-14280
â	-14281
≤	-14282
翰	-14283
黎	-14284
写	-14285
ô	-14286
貌	-14287
界	-14288
耴	-14289
η	-14290
^	-14291
薛	-14292
毳	-14293
桑	-14294
も	-14295
脊	-14296
レ	-14297
磨	-14298
雪	-14299
密	-14300
愛	-14301
戚	-14302
ß	-14303
ī	-14304
兊	-14305
を	-14306
许	-14307
れ	-14308
つ	-14309
尾	-14310
ち	-14311
尋	-14312
歇	-14313
奈	-14314
й	-14315
拆	-14316
ミ	-14317
葬	-14318
å	-14319
貢	-14320
敃	-14321
ø	-14322
隐	-14323
п	-14324
⁄	-14325
や	-14326
寇	-14327
崩	-14328
š	-14329
威	-14330
ن	-14331
焱	-14332
弘	-14333
最	-14334
辱	-14335
沾	-14336
鼎	-14337
я	-14338
泊	-14339
ر	-14340
オ	-14341
洼	-14342
快	-14343
奬	-14344
维	-14345
キ	-14346
ō	-14347
コ	-14348
ñ	-14349
幕	-14350
毚	-14351
г	-14352
ي	-14353
ム	-14354
テ	-14355
ㄧ	-14356
贰	-14357
グ	-14358
栾	-14359
鮮	-14360
エ	-14361
ナ	-14362
弥	-14363
犭	-14364
除	-14365
す	-14366
巔	-14367
で	-14368
赞	-14369
休	-14370
ィ	-14371
»	-14372
ˋ	-14373
ь	-14374
サ	-14375
萠	-14376
م	-14377
屏	-14378
麃	-14379
齧	-14380
ē	-14381
∈	-14382
闲	-14383
б	-14384
即	-14385
じ	-14386
ニ	-14387
だ	-14388
庚	-14389
惡	-14390
盈	-14391
岛	-14392
剷	-14393
冀	-14394
æ	-14395
ū	-14396
ч	-14397
ハ	-14398
朮	-14399
過	-14400
ê	-14401
獻	-14402
«	-14403
و	-14404
パ	-14405
狂	-14406
プ	-14407
昫	-14408
バ	-14409
毀	-14410
鲜	-14411
け	-14412
謁	-14413
ダ	-14414
頡	-14415
ウ	-14416
ブ	-14417
閔	-14418
☆	-14419
闾	-14420
č	-14421
モ	-14422
邪	-14423
顥	-14424
位	-14425
禿	-14426
觉	-14427
υ	-14428
ə	-14429
ャ	-14430
稟	-14431
ひ	-14432
わ	-14433
よ	-14434
チ	-14435
冥	-14436
畀	-14437
ガ	-14438
ã	-14439
倍	-14440
ュ	-14441
丏	-14442
翁	-14443
耦	-14444
え	-14445
っ	-14446
常	-14447
畠	-14448
動	-14449
ł	-14450
्	-14451
ा	-14452
晉	-14453
伏	-14454
ˊ	-14455
―	-14456
⋯	-14457
岁	-14458
ŋ	-14459
ب	-14460
条	-14461
芬	-14462
國	-14463
栃	-14464
ζ	-14465
養	-14466
ょ	-14467
嘗	-14468
粟	-14469
デ	-14470
雉	-14471
艾	-14472
弒	-14473
閒	-14474
з	-14475
晋	-14476
メ	-14477
规	-14478
ろ	-14479
≥	-14480
眞	-14481
皋	-14482
ć	-14483
倩	-14484
ビ	-14485
昬	-14486
爱	-14487
斌	-14488
科	-14489
ί	-14490
矩	-14491
蕭	-14492
颠	-14493
め	-14494
®	-14495
せ	-14496
円	-14497
◎	-14498
貍	-14499
黹	-14500
ы	-14501
河	-14502
ば	-14503
秃	-14504
َ	-14505
卡	-14506
∞	-14507
闵	-14508
û	-14509
禀	-14510
ś	-14511
帖	-14512
χ	-14513
ツ	-14514
ψ	-14515
س	-14516
र	-14517
预	-14518
虛	-14519
ά	-14520
ノ	-14521
ェ	-14522
廚	-14523
د	-14524
雩	-14525
そ	-14526
ど	-14527
ㄨ	-14528
●	-14529
岀	-14530
乾	-14531
否	-14532
肥	-14533
鼻	-14534
́	-14535
←	-14536
า	-14537
ゆ	-14538
­	-14539
ό	-14540
■	-14541
ァ	-14542
ˇ	-14543
ズ	-14544
朗	-14545
虏	-14546
ず	-14547
恩	-14548
榮	-14549
素	-14550
ョ	-14551
ワ	-14552
爽	-14553
î	-14554
ı	-14555
隆	-14556
咁	-14557
爹	-14558
ゲ	-14559
毌	-14560
ه	-14561
¬	-14562
備	-14563
`	-14564
х	-14565
ɛ	-14566
拜	-14567
燕	-14568
悉	-14569
斛	-14570
緣	-14571
通	-14572
頼	-14573
ㄚ	-14574
法	-14575
畢	-14576
尽	-14577
都	-14578
贱	-14579
ザ	-14580
鲁	-14581
ð	-14582
ц	-14583
★	-14584
賤	-14585
严	-14586
đ	-14587
卍	-14588
ž	-14589
び	-14590
毕	-14591
ت	-14592
ほ	-14593
物	-14594
藔	-14595
ˈ	-14596
ъ	-14597
¥	-14598
ш	-14599
セ	-14600
數	-14601
þ	-14602
肯	-14603
†	-14604
團	-14605
孤	-14606
尿	-14607
ξ	-14608
ร	-14609
彥	-14610
ね	-14611
ふ	-14612
ギ	-14613
恵	-14614
ケ	-14615
笹	-14616
ф	-14617
י	-14618
ゅ	-14619
ㄇ	-14620
ɔ	-14621
έ	-14622
ń	-14623
न	-14624
ゃ	-14625
岑	-14626
込	-14627
ï	-14628
ぐ	-14629
む	-14630
ネ	-14631
神	-14632
衰	-14633
坚	-14634
放	-14635
ò	-14636
辶	-14637
麦	-14638
ì	-14639
ş	-14640
奧	-14641
季	-14642
陟	-14643
ع	-14644
ى	-14645
虖	-14646
釜	-14647
ボ	-14648
塞	-14649
∧	-14650
ソ	-14651
昛	-14652
↔	-14653
叵	-14654
廝	-14655
ポ	-14656
谒	-14657
閵	-14658
隼	-14659
麿	-14660
嵙	-14661
颉	-14662
ぎ	-14663
牟	-14664
厨	-14665
备	-14666
ی	-14667
ご	-14668
ː	-14669
的	-14670
ù	-14671
ʔ	-14672
ו	-14673
ぶ	-14674
寬	-14675
ि	-14676
น	-14677
ゴ	-14678
強	-14679
爲	-14680
韭	-14681
ύ	-14682
ж	-14683
丌	-14684
叙	-14685
粥	-14686
藺	-14687
越	-14688
ý	-14689
ヴ	-14690
疐	-14691
ِ	-14692
म	-14693
节	-14694
ベ	-14695
答	-14696
ج	-14697
་	-14698
流	-14699
號	-14700
ḥ	-14701
≠	-14702
卝	-14703
舎	-14704
ă	-14705
і	-14706
त	-14707
া	-14708
்	-14709
ㄐ	-14710
颢	-14711
э	-14712
幵	-14713
静	-14714
ح	-14715
ก	-14716
∨	-14717
≈	-14718
尓	-14719
部	-14720
ě	-14721
刷	-14722
囊	-14723
旧	-14724
へ	-14725
尨	-14726
∀	-14727
ㄩ	-14728
拑	-14729
槀	-14730
ή	-14731
क	-14732
ة	-14733
เ	-14734
俬	-14735
畟	-14736
이	-14737
ق	-14738
∶	-14739
刺	-14740
巂	-14741
ǎ	-14742
≡	-14743
氵	-14744
背	-14745
衡	-14746
ك	-14747
प	-14748
อ	-14749
ヤ	-14750
ɕ	-14751
ヒ	-14752
孨	-14753
徵	-14754
舉	-14755
げ	-14756
伝	-14757
ف	-14758
ง	-14759
♭	-14760
勒	-14761
宏	-14762
ㄜ	-14763
ɪ	-14764
席	-14765
蚩	-14766
ה	-14767
ר	-14768
स	-14769
゙	-14770
沛	-14771
리	-14772
ย	-14773
ั	-14774
ㄛ	-14775
孱	-14776
幷	-14777
弁	-14778
锗	-14779
ư	-14780
ش	-14781
ُ	-14782
ม	-14783
ざ	-14784
ホ	-14785
時	-14786
巧	-14787
店	-14788
ピ	-14789
殄	-14790
豩	-14791
黨	-14792
鼓	-14793
〞	-14794
ㄥ	-14795
ɑ	-14796
ㄝ	-14797
凪	-14798
幹	-14799
灵	-14800
国	-14801
忩	-14802
荣	-14803
萣	-14804
誊	-14805
霍	-14806
ğ	-14807
ส	-14808
ㄠ	-14809
仄	-14810
动	-14811
匧	-14812
忽	-14813
欒	-14814
費	-14815
鿫	-14816
F	-14817
ी	-14818
ペ	-14819
地	-14820
̇	-14821
א	-14822
द	-14823
♯	-14824
佘	-14825
蔺	-14826
衍	-14827
逹	-14828
錄	-14829
ṇ	-14830
欽	-14831
闷	-14832
ש	-14833
ْ	-14834
べ	-14835
数	-14836
M	-14837
÷	-14838
〖	-14839
〗	-14840
約	-14841
隷	-14842
ל	-14843
ㄑ	-14844
丟	-14845
宰	-14846
ㄕ	-14847
ヘ	-14848
ㄋ	-14849
眔	-14850
대	-14851
ƒ	-14852
ю	-14853
ṣ	-14854
〝	-14855
ㄅ	-14856
睢	-14857
遷	-14858
ท	-14859
ა	-14860
ṭ	-14861
ㄢ	-14862
T	-14863
ㄒ	-14864
赦	-14865
ą	-14866
œ	-14867
ल	-14868
व	-14869
ㄏ	-14870
䓬	-14871
ב	-14872
ु	-14873
ㄆ	-14874
̍	-14875
ز	-14876
时	-14877
य	-14878
ォ	-14879
ㄣ	-14880
ʻ	-14881
ว	-14882
ะ	-14883
ㄓ	-14884
両	-14885
毒	-14886
瞢	-14887
ę	-14888
ิ	-14889
々	-14890
ㄉ	-14891
ת	-14892
ं	-14893
➤	-14894
ㄍ	-14895
厌	-14896
拍	-14897
ё	-14898
檗	-14899
ř	-14900
่	-14901
∇	-14902
ユ	-14903
ㄎ	-14904
吊	-14905
ʼ	-14906
מ	-14907
ṃ	-14908
╱	-14909
ぼ	-14910
ㄌ	-14911
ָ	-14912
พ	-14913
♥	-14914
ぬ	-14915
拿	-14916
خ	-14917
ग	-14918
े	-14919
∼	-14920
ㄙ	-14921
丗	-14922
刕	-14923
卐	-14924
洪	-14925
皅	-14926
羌	-14927
龟	-14928
사	-14929
ㄟ	-14930
舋	-14931
ह	-14932
举	-14933
凖	-14934
র	-14935
ゼ	-14936
棘	-14937
温	-14938
ż	-14939
ј	-14940
श	-14941
√	-14942
ㄈ	-14943
ㄗ	-14944
印	-14945
瓩	-14946
題	-14947
ʨ	-14948
奔	-14949
斵	-14950
杂	-14951
ヶ	-14952
ㄞ	-14953
㹴	-14954
著	-14955
鯱	-14956
𨧀	-14957
õ	-14958
ล	-14959
↓	-14960
ㄡ	-14961
戻	-14962
ّ	-14963
ா	-14964
ด	-14965
ἀ	-14966
↑	-14967
づ	-14968
匪	-14969
琺	-14970
靑	-14971
성	-14972
자	-14973
̃	-14974
ุ	-14975
ი	-14976
ㄤ	-14977
叢	-14978
突	-14979
𡒉	-14980
§	-14981
ǐ	-14982
щ	-14983
أ	-14984
ط	-14985
⊆	-14986
