<pad>	0
<unk>	0
[CLS]	0
[SEP]	0
[MASK]	0
(	0
)	0
”	0
-	0
.	0
–	0
£	0
€	0
⿰	-0
⿱	-1
cd	-2
cdp	-3
⿰⿱	-4
,	-5
⿸	-6
⿱⿱	-7
88	-8
勹丶	-9
⿱⿱	-10
⿺	-11
。	-12
⿻	-13
⿱⿰	-14
一八	-15
⿵	-16
,⿰	-17
一口	-18
⿴	-19
⿳	-20
⿹	-21
一龰	-22
885	-23
,⿱	-24
⿱⿰	-25
▁⿰	-26
⿰⿱⿱	-27
土寸	-28
89	-29
一厶	-30
、	-31
目八	-32
口口	-33
口丨	-34
⿱⿴	-35
⿰⿱	-36
二丨	-37
十口	-38
日一	-39
66	-40
丁口	-41
⿱⿻	-42
1	-43
𠘧又	-44
亠口	-45
866	-46
人一	-47
▁⿱	-48
𠂇月	-49
一人	-50
一厶土	-51
一廾	-52
ca	-53
夂口	-54
人人	-55
⿱⿻	-56
⿱⿱⿱	-57
口一	-58
𠁣𠃛	-59
亠丷	-60
⿰⿸	-61
戊𠃌	-62
cac	-63
禾口	-64
一止	-65
丿𠃌	-66
龷八	-67
bb	-68
20	-69
一丁	-70
㐅乂	-71
甲一	-72
乛亅	-73
亠土	-74
乀丿	-75
囗玉	-76
耂日	-77
二厶	-78
⺌日	-79
囗⺌日	-80
冂口	-81
八厶	-82
丿丿	-83
⿹⿻	-84
土也	-85
bbf	-86
凵丨	-87
人⺀	-88
一兀	-89
八刀	-90
厶口	-91
人丶	-92
⺌冖	-93
幺幺	-94
立口	-95
⺊一	-96
人一口	-97
⿷	-98
凵丨凵	-99
⿱⿳	-100
䒑土	-101
8665	-102
一大	-103
弓丨	-104
⺊口	-105
丷干	-106
⿲	-107
亻也	-108
䒑自	-109
立口阝	-110
一八斤	-111
土厶	-112
⿵⿰	-113
𠂊冫	-114
亠口小	-115
⺌冖口	-116
𠂉大	-117
𠂉母	-118
bc	-119
丨丨	-120
8661	-121
日十	-122
夕口	-123
⿸⿸	-124
目儿	-125
弓丨丿	-126
耳又	-127
⿱⿳	-128
⿱⿰⿱	-129
乚丿	-130
⿳⿰	-131
、⿰	-132
亻乍	-133
止匕	-134
896	-135
丿士	-136
立日	-137
冂一口	-138
口止	-139
⿶⿳⿰	-140
彐一八	-141
一厶土刂	-142
力口	-143
夕夕	-144
土龰	-145
⿺⿱	-146
儿口	-147
一卜	-148
亠父	-149
19	-150
小丿	-151
且一	-152
宀豕	-153
宀八	-154
cb	-155
龶月	-156
亻立	-157
立朩	-158
月刂	-159
⿰⿳	-160
𠂊小	-161
幺夂	-162
木木	-163
冖子	-164
冫欠	-165
衤皮	-166
干丷	-167
2	-168
⿵⿵	-169
⿳𭕄	-170
亠巾	-171
丿丨	-172
口儿	-173
囗大	-174
一心	-175
,⿸	-176
甲一一	-177
·	-178
一止攵	-179
人丨	-180
十罒	-181
十罒一心	-182
且一八	-183
由八	-184
⿵⿵	-185
》	-186
𠃋丿	-187
𠃋丿人	-188
彐冖	-189
⺆冫	-190
丿糸	-191
千口	-192
䒑业	-193
宀㠯	-194
、⿱	-195
禾刂	-196
亠乂	-197
201	-198
丿尸	-199
𠂊田	-200
:	-201
▁⿸	-202
廴聿	-203
𠂇巾	-204
冖車	-205
立朩斤	-206
宀女	-207
亻弋	-208
井一八	-209
,⿱⿱	-210
cc	-211
十口儿	-212
⿶⿱⿰	-213
廿又	-214
白小	-215
𠂆一口	-216
子攵	-217
bd	-218
丿尸斤	-219
200	-220
⿶⿳⿰	-221
匕匕	-222
𠂆又	-223
㐅乂子	-224
⿱⿶⿱⿰	-225
日乚	-226
一二	-227
䒑土大	-228
日一寸	-229
匚㐅	-230
77	-231
弋工	-232
覀女	-233
歹刂	-234
《	-235
人丶龴	-236
士口	-237
19	-238
土口	-239
亻寸	-240
爫冖	-241
木目	-242
,⿰⿱	-243
耂子攵	-244
日寸	-245
冂卄	-246
3	-247
扌立	-248
亠丷一	-249
884	-250
▁19	-251
口八	-252
口王	-253
王里	-254
」	-255
「	-256
龶𧘇	-257
日月	-258
夕卜	-259
人王	-260
一八月	-261
⿰⿰	-262
冖巾	-263
冂刂	-264
牛冂刂	-265
⿰⿻	-266
尢丶	-267
,⿺	-268
コ一	-269
王求	-270
⿱⿱⿱	-271
禾斗	-272
亻吏	-273
一口田	-274
𠂒儿	-275
勹巳	-276
忄生	-277
⿵⿰	-278
丷八	-279
𠂊田灬	-280
冖车	-281
女攵	-282
立十	-283
十又	-284
一由八	-285
“	-286
一巛	-287
一巛工	-288
耂日阝	-289
𠂒口	-290
𠂊冫寸	-291
刀口	-292
尸匕	-293
囗口	-294
⿹⿶	-295
一厶儿	-296
⿵⿱	-297
幺幺丱	-298
⿰⿹	-299
土土	-300
人一朩	-301
习习	-302
一八土	-303
一土	-304
爫冖又	-305
小丿目	-306
糸言	-307
糸言糸	-308
重力	-309
4	-310
匕日	-311
;	-312
▁⿱⿱	-313
辶文	-314
卩又	-315
艹央	-316
口木	-317
䒑土寸	-318
王丷	-319
五口	-320
又寸	-321
口丂	-322
䒑土我	-323
丿冂口	-324
𠁣𠃛日	-325
⿳⿱	-326
亻丨	-327
辶言	-328
口贝	-329
日大	-330
⿻⿻	-331
宀八工	-332
5	-333
亠丷厂	-334
▁⿺	-335
龷八巳	-336
𠂇又	-337
女口	-338
肀一	-339
儿丨	-340
⺌冖口田	-341
囗儿	-342
日生	-343
,⿱	-344
亠口小彡	-345
▁⿰⿱	-346
土龰巳	-347
幺幺人	-348
⿹⿶	-349
立日心	-350
曲豆	-351
禾女	-352
⿲㇇	-353
85	-354
犬灬	-355
𠂊冫犬灬	-356
00	-357
冎口	-358
⿱⿲	-359
ス工	-360
⺌冖口巾	-361
⿱⿰⿴	-362
戈十	-363
入入	-364
己攵	-365
一廾刂	-366
米大	-367
𠂊巴	-368
肀一一	-369
日一里	-370
⿰⿱⿰	-371
丿冂	-372
一冉	-373
辶隹	-374
夂⺀	-375
大丶	-376
夂力	-377
日十月	-378
立女	-379
釆田	-380
er	-381
隹又	-382
木丶	-383
甲一戈	-384
一巾	-385
an	-386
儿土	-387
丷豕	-388
二厶力	-389
𠂇口	-390
乂丶	-391
白水	-392
土儿土	-393
6	-394
目八刂	-395
𠂉丶	-396
力八	-397
禾日	-398
▁201	-399
冂入	-400
𫝀口	-401
,⿰	-402
宀丰	-403
亠几	-404
𫝀口㐄	-405
上卜	-406
8665⿰	-407
勹虫	-408
方攵	-409
勹口	-410
丿大	-411
门日	-412
⿵⿱	-413
in	-414
冂人	-415
一廾彡	-416
一业	-417
木几	-418
7	-419
丿夫	-420
丿囗	-421
⿱⿲	-422
一廾刂土	-423
cbb	-424
ee	-425
,⿻	-426
龷由八	-427
201	-428
止匕二	-429
凵㐅	-430
宀丰口	-431
⿰⿳	-432
尹口	-433
口口隹	-434
口心	-435
丷口心	-436
戊一	-437
火火	-438
隹木	-439
·⿰	-440
氏丶	-441
or	-442
⺌兀	-443
十口攵	-444
亠丷冖巾	-445
辶寸	-446
辶井	-447
8665⿱	-448
丿十	-449
二人	-450
,⿹	-451
爫冉	-452
十豆	-453
丶艮	-454
8661⿰	-455
on	-456
且厶	-457
200	-458
卌一	-459
𠂉卌一	-460
一𫝀	-461
ce	-462
王见	-463
䒑未	-464
虍几	-465
⿱⿰⿴	-466
宀匕	-467
巳巳	-468
宀子	-469
人彡	-470
氵工	-471
八口	-472
,⿴	-473
礻土	-474
口力	-475
日乂	-476
8	-477
𠂉大口	-478
夕寸	-479
宀示	-480
虍豕	-481
9	-482
䒑业日	-483
禾中	-484
糸言糸弓	-485
禾重	-486
覀示	-487
几丶	-488
⺌月	-489
10	-490
⿱⿴	-491
癶豆	-492
丷夫	-493
亻本	-494
𠂉丶皿	-495
刀丿	-496
氵州	-497
⺌彐	-498
𠂇工	-499
口卩	-500
止𣥂	-501
田一	-502
ea	-503
⺊口戈	-504
幺木	-505
幺白	-506
幺白幺木	-507
𠂉子	-508
4⿱	-509
刀牛	-510
日夂	-511
𠂉日夂	-512
龷日	-513
𠁣𠃛柬	-514
罒夕	-515
十口月	-516
▁⿻	-517
土羊	-518
丿囗夂	-519
一厶月	-520
𠂉十	-521
亠口冖	-522
弋一止	-523
亻言	-524
𠃌口	-525
丘八	-526
氵皮	-527
コ一亅	-528
且一小	-529
丿冂米大	-530
辶斤	-531
丆口	-532
口龰	-533
一白	-534
12	-535
礻申	-536
凵㐅禸	-537
阝人	-538
戊一口	-539
8661	-540
米女攵	-541
⿱⿴⿱	-542
亠幺	-543
▁1	-544
夂朩	-545
宀必	-546
亻牛	-547
厶厶	-548
尸禹	-549
人匕	-550
亠丷日	-551
土儿土丸	-552
丿囗夂心	-553
二阝	-554
刀二阝	-555
bf	-556
女也	-557
木寸	-558
▁200	-559
⿰⿱⿱	-560
心夂	-561
la	-562
𠂉卌一灬	-563
亻尹	-564
宀必山	-565
日日	-566
冖儿	-567
歹匕	-568
⿰⿱⿴	-569
人人龰	-570
日木	-571
口口犬	-572
言十	-573
⿸⿴	-574
尸一口	-575
土𠃓	-576
贝刂	-577
11	-578
肀一一田一	-579
日罒	-580
日罒又	-581
木艮	-582
甫寸	-583
木子	-584
丩攵	-585
井一八贝	-586
𠂊田一	-587
⿳⿰	-588
乚丿十	-589
丁口欠	-590
纟且	-591
一口𧘇	-592
中一	-593
·⿱	-594
纟戋	-595
立月	-596
st	-597
⿶	-598
衤刀	-599
爫木	-600
宀八九	-601
⿱⿵⿱	-602
ar	-603
亠八	-604
八夂	-605
辶大	-606
8964	-607
立日儿	-608
⿺⿱	-609
身寸	-610
en	-611
勹口攵	-612
丨丿	-613
扌丁	-614
冖儿木	-615
二丨凵	-616
厶厶人彡	-617
纟及	-618
⿰⿱⿹	-619
禾子	-620
亻门	-621
戊一女	-622
丷三	-623
山而	-624
土口𧘇	-625
8661⿱	-626
bcb	-627
⿱⿱⿰	-628
士衣	-629
口虫	-630
夕㐄	-631
火火冖	-632
𠂊厂	-633
宀谷	-634
5⿱	-635
𠃌丨	-636
刀丿心	-637
讠十	-638
甘木	-639
⿱⿹	-640
bea	-641
雨田	-642
艹禺	-643
丿虫	-644
亻隹	-645
囗丨	-646
0⿱	-647
丿七	-648
彳艮	-649
厂生	-650
丿口	-651
口丿口	-652
夂彡	-653
丷八十	-654
,⿱⿰	-655
辶束	-656
8960	-657
al	-658
⿱⿶⿳⿰	-659
田力	-660
白王	-661
扌隹	-662
工力	-663
又又	-664
⿺⿻	-665
⿳⿱	-666
又土	-667
、⿰⿱	-668
女子	-669
勹冫	-670
口十	-671
⿱⿸	-672
宀头	-673
th	-674
犬頁	-675
米犬頁	-676
厶大	-677
夂几	-678
厶大彡	-679
》⿰	-680
一氺	-681
一氺丶	-682
山一	-683
宀女木	-684
井一冉	-685
《⿰	-686
八乂	-687
束攵	-688
辶車	-689
雨而	-690
纟隹	-691
⿱⿻⿱	-692
白丿十	-693
且力	-694
肀一一日	-695
亻白	-696
革力	-697
人丶龴頁	-698
口夫	-699
一厶土攵	-700
辶不	-701
一内	-702
士口冖	-703
扌斤	-704
丿𠃌刂	-705
車凵	-706
工攵	-707
亻隹心	-708
▁s	-709
八人	-710
䒑自寸	-711
⿱⿱⿻	-712
上小	-713
勹厶	-714
肀口	-715
20	-716
ch	-717
禾乃	-718
「⿰	-719
夂丰	-720
,⿵	-721
丿廾	-722
⺌冖口土	-723
5⿰	-724
龷八氺	-725
士心	-726
夂卜	-727
一尢	-728
一口田刂	-729
de	-730
虍豕刂	-731
𠘧又手	-732
人㔾	-733
尹口羊	-734
扌丸	-735
彑氺	-736
刀田	-737
木示	-738
上小又	-739
土龰戉	-740
乛头	-741
《⿱	-742
𠂉也	-743
⺌冖口黑	-744
⿱⿹	-745
at	-746
⺊口灬	-747
▁m	-748
糸言糸攵	-749
士𠃜	-750
⿰⿷	-751
人丶龴页	-752
几㐅	-753
⿸⿸	-754
一自	-755
巳寸	-756
⿱⿰⿱	-757
扌非	-758
匚儿	-759
le	-760
井一八土	-761
耂匕	-762
囗才	-763
“⿰	-764
▁⿴	-765
⿱𭕄	-766
亻专	-767
⿱⿵	-768
牛冂刂衣	-769
⿱⿺	-770
阝艮	-771
⿱⿰⿱⿱	-772
犭犬	-773
亻更	-774
8665⿵⿵	-775
廿巾	-776
耂丂	-777
㐅朩	-778
18	-779
一𧘇	-780
井一𧘇	-781
一自夂	-782
儿言	-783
田心	-784
囗丨𧰨	-785
豆頁	-786
亻象	-787
199	-788
戊一口心	-789
,⿳	-790
日月皿	-791
ro	-792
⿳⿱⿻	-793
勹又	-794
勹口攵言	-795
亻乃	-796
彐心	-797
立里	-798
⿲⿱	-799
丿二丨	-800
刀丫	-801
一丨	-802
𠂉一	-803
⿺⿸	-804
𠂇又丶	-805
一曲	-806
一曲日	-807
⿸⿱	-808
for	-809
酉己	-810
木目心	-811
丰阝	-812
⿱⿰⿻	-813
▁《	-814
气米	-815
氵羊	-816
氵夬	-817
口耳	-818
阝方	-819
▁⿹	-820
亠口子	-821
土土寸	-822
冖一	-823
「⿱	-824
亠口冖丁	-825
讠人	-826
釆大	-827
丿冂釆大	-828
丷酉	-829
彳聿	-830
𡗗氺	-831
礻见	-832
女母	-833
⿻㇀	-834
、⿻	-835
,⿱⿱⿱	-836
厂力	-837
纟内	-838
讠己	-839
亠父攵	-840
纟己	-841
冖一豕	-842
凵㐅禸隹	-843
𠂇工月	-844
爿戈	-845
爿戈臣	-846
米斗	-847
》⿱	-848
⿰⿹	-849
自心	-850
扌巴	-851
囗大心	-852
亻弗	-853
mu	-854
夂㐄	-855
艹冖	-856
co	-857
⿱⿵⿵	-858
一兀寸	-859
is	-860
扌比	-861
尸一口刂	-862
15	-863
辶由	-864
冂一	-865
广隶	-866
羊目	-867
亻我	-868
龵目	-869
冂儿	-870
cbd	-871
厶八夂	-872
、⿱⿱	-873
87	-874
厶虫	-875
龶糸	-876
礻且	-877
▁p	-878
阝日	-879
▁⿱⿰	-880
re	-881
十冖	-882
十冖糸	-883
46	-884
𠂊冫寸犬	-885
丨丨比	-886
弓长	-887
宀寸	-888
彐氺	-889
▁⿳	-890
䒑山	-891
比白	-892
it	-893
目廾	-894
"	-895
卅冖巾	-896
力力	-897
“⿱	-898
阝示	-899
辶艮	-900
▁由	-901
尸口	-902
言己	-903
」⿰	-904
▁199	-905
⿱⿵⿱	-906
氵隹	-907
▁b	-908
氵又	-909
,19	-910
口力刂	-911
辶车	-912
▁⿵⿵	-913
16	-914
白巾	-915
8665⿰⿱	-916
亻衣	-917
禾禾	-918
禾禾止	-919
一龰頁	-920
𠂇厶	-921
爫一	-922
⿱⿳𭕄	-923
丿大口	-924
七刀	-925
𠃊米	-926
冫夬	-927
车专	-928
刀口灬	-929
冫欠贝	-930
爿士衣	-931
户方	-932
亡月	-933
亡月王	-934
上小又目	-935
口龶	-936
𠂊田灬禾	-937
𠘧口	-938
艹田	-939
木又	-940
䒑亡	-941
二乚	-942
8⿷	-943
斤斤	-944
𠃊人	-945
mula	-946
冖方	-947
亠丷冖方	-948
立十力	-949
日比	-950
formula	-951
17	-952
13	-953
口又	-954
𠂉一乁	-955
阝東	-956
冂二	-957
」。	-958
66⿰	-959
am	-960
⺆冫攵	-961
口木土	-962
一亅	-963
𠂊亅	-964
;⿰	-965
口又一	-966
虍豆	-967
虍豆戈	-968
忄夬	-969
人一口手	-970
、⿸	-971
un	-972
耳口王	-973
𠂇火	-974
一生	-975
;⿱	-976
口口欠	-977
▁⿱⿱⿱	-978
臼儿	-979
石皮	-980
白方攵	-981
夂丶	-982
人㔾刂	-983
el	-984
𠁣𠃛口	-985
、《	-986
宀八犬	-987
▁t	-988
中一贝	-989
女又	-990
亻以	-991
5⿱	-992
尹口阝	-993
艹来	-994
/	-995
冫隹	-996
,200	-997
戈刂	-998
⺄十	-999
罒乑	-1000
一丂	-1001
,⿵⿵	-1002
丷夫㔾	-1003
世木	-1004
▁h	-1005
十口刂	-1006
心丿	-1007
耳阝	-1008
谷卩	-1009
⿱⿺	-1010
8665⿺	-1011
里予	-1012
工頁	-1013
▁a	-1014
㐅㐅	-1015
夫见	-1016
厂干	-1017
𡗗日	-1018
コ又	-1019
扌户	-1020
冂丶	-1021
䒑土永	-1022
il	-1023
14	-1024
8	-1025
10	-1026
15	-1027
龴疋	-1028
⿰⿸	-1029
es	-1030
力口木	-1031
0	-1032
8665	-1033
亠𠃊	-1034
隹口	-1035
丬士衣	-1036
土儿土丸灬	-1037
宀八方	-1038
戈戈	-1039
⿸⿱⿱	-1040
十豆口	-1041
几攵	-1042
山一几攵	-1043
十贝	-1044
艹乂	-1045
ion	-1046
二丨刂	-1047
尢丶丿	-1048
一龰页	-1049
コ一女	-1050
土八夂	-1051
亠丷厂生	-1052
⿰⿻	-1053
勹缶	-1054
𠂇厶隹	-1055
⿳𭕄	-1056
df	-1057
ic	-1058
门口	-1059
冖𧘇	-1060
𠂊田一日	-1061
宀丁	-1062
氵由	-1063
工页	-1064
隹隹又	-1065
人氺	-1066
口寸	-1067
屯頁	-1068
zh	-1069
𠂉大豆	-1070
𠃌丨一	-1071
勹灬	-1072
ra	-1073
竹朿	-1074
又戈	-1075
▁g	-1076
王王	-1077
辶豕	-1078
𠂉乙	-1079
the	-1080
▁o	-1081
𠘧又耳	-1082
巾白	-1083
王不	-1084
木羊	-1085
氏日	-1086
广土	-1087
艹非	-1088
䒑口	-1089
羊䒑口	-1090
丬夕	-1091
又见	-1092
口止巨	-1093
广予	-1094
18	-1095
肀一一田一刂	-1096
12	-1097
氵酉	-1098
丿皿	-1099
木木手	-1100
亻十	-1101
16	-1102
▁d	-1103
⿰⿳⿱⿻	-1104
宀木	-1105
匚㐅欠	-1106
▁本	-1107
牙隹	-1108
,⿱⿱	-1109
17	-1110
戊一𣥂	-1111
》、《	-1112
辶力	-1113
幺大	-1114
丷夫力	-1115
us	-1116
,⿰⿱⿱	-1117
龶贝	-1118
纟工	-1119
▁一	-1120
▁w	-1121
丿之	-1122
士示	-1123
人人十	-1124
口口木	-1125
氵㔾	-1126
目八攵	-1127
士示欠	-1128
氵隹十	-1129
幺幺灬	-1130
25	-1131
囗人	-1132
ri	-1133
𠂊彐心	-1134
30	-1135
⿱⿸	-1136
▁f	-1137
𠘧又酉	-1138
彐冖巾	-1139
㇇⿰	-1140
夂田	-1141
冖隹	-1142
00⿱	-1143
弓冫	-1144
羊工	-1145
▁⿵	-1146
丰丰	-1147
⿻⿺	-1148
夫夫	-1149
冂㐅	-1150
衤里	-1151
𠂉巾	-1152
𠂊田灬日	-1153
丬夕大	-1154
8661⿸⿸	-1155
乛耳	-1156
乛耳攵	-1157
尸毛	-1158
彡頁	-1159
et	-1160
夫夫日	-1161
爫子	-1162
氵聿	-1163
习习白	-1164
户口	-1165
丿乚	-1166
𠂊贝	-1167
扌白	-1168
䒑八	-1169
䒑八皿	-1170
000	-1171
辶𠂤	-1172
50	-1173
日小	-1174
30	-1175
車斤	-1176
金艮	-1177
爿犬	-1178
一厶月攵	-1179
li	-1180
广车	-1181
金刂	-1182
ing	-1183
米女	-1184
as	-1185
大口	-1186
𠃑大口	-1187
刀金刂	-1188
⿱⿱⿻	-1189
▁194	-1190
895	-1191
囗韦	-1192
木土	-1193
,⿸⿸	-1194
𠂉母攵	-1195
、⿱⿰	-1196
扌丸灬	-1197
凵土	-1198
⿱⿰⿷	-1199
lo	-1200
口虫隹	-1201
匕月	-1202
刀丿丶	-1203
▁⿰⿱⿱	-1204
勹丿	-1205
亻二	-1206
予頁	-1207
幺幺灬頁	-1208
21	-1209
罒非	-1210
人止	-1211
口夫隹	-1212
刀丿丶木	-1213
囗人皿	-1214
王丶	-1215
歹刂灬	-1216
丷干丸	-1217
80	-1218
and	-1219
戊𠃌皿	-1220
▁c	-1221
乡隹	-1222
亠口子攵	-1223
一彑	-1224
—	-1225
大丷	-1226
大丷日小	-1227
求攵	-1228
几口	-1229
⿰⿵	-1230
艹乙	-1231
日央	-1232
」⿱	-1233
▁n	-1234
⿴⿱	-1235
戈十車	-1236
凵田	-1237
,⿱⿻	-1238
犭虫	-1239
人人夂	-1240
21	-1241
禾必	-1242
文刂	-1243
197	-1244
,⿰⿳	-1245
22	-1246
ur	-1247
田皿	-1248
舟见	-1249
一𣥂	-1250
23	-1251
尸由	-1252
匕匕心	-1253
24	-1254
土止	-1255
𠂉大口日	-1256
月犬	-1257
⿰⿱⿵	-1258
冂二月犬	-1259
13	-1260
日业	-1261
土皮	-1262
▁小	-1263
日皿	-1264
木才	-1265
14	-1266
土儿土丸力	-1267
66⿱	-1268
一乚丿	-1269
一乚丿兀	-1270
亻又	-1271
0⿰	-1272
:⿰	-1273
耳又乑	-1274
⿳⿻	-1275
ed	-1276
冖又	-1277
コ一冖又	-1278
、⿰	-1279
60	-1280
木木示	-1281
子小	-1282
一丰	-1283
口口口	-1284
阝东	-1285
弗贝	-1286
𠂉疋	-1287
月月	-1288
:“	-1289
⿹⿻	-1290
、⿺	-1291
8661⿵⿰	-1292
丷酉寸	-1293
8661⿵	-1294
山夕	-1295
丨又	-1296
臼丨又	-1297
辶巛	-1298
人人一	-1299
⿱⿻⿻	-1300
冂二月犬土	-1301
雨隹	-1302
、⿳	-1303
⿱⿰⿸	-1304
几丶木	-1305
八大	-1306
冂八大	-1307
木及	-1308
屯页	-1309
木木疋	-1310
8665⿱⿱	-1311
▁"	-1312
白小彡	-1313
㇇	-1314
广車	-1315
26	-1316
,⿸	-1317
▁197	-1318
土土兀	-1319
口止艮	-1320
冫水	-1321
朿刂	-1322
▁195	-1323
辶禺	-1324
28	-1325
𠃋丿人刂	-1326
禾厶	-1327
又隹	-1328
27	-1329
亻木	-1330
▁2	-1331
夫丷	-1332
目艮	-1333
11	-1334
口及	-1335
,⿰⿸	-1336
干刂	-1337
》。	-1338
𠂊厂㔾	-1339
宀于	-1340
雨彐	-1341
冖几	-1342
石角	-1343
冂口攵	-1344
爫罒	-1345
口隹	-1346
▁⿱⿰⿴	-1347
十廾	-1348
▁⿸⿸	-1349
日大巾	-1350
辶兆	-1351
龶母	-1352
ma	-1353
,⿶⿳⿰	-1354
扌戈	-1355
犭㔾	-1356
王缶	-1357
丶尸	-1358
194	-1359
𠁣𠃛耳	-1360
⿸⿱	-1361
木斤	-1362
田糸	-1363
艹两	-1364
扌甫	-1365
禾火	-1366
戈廾	-1367
𠂒口非	-1368
耳耳	-1369
宀且	-1370
山石	-1371
弋丿	-1372
宀八牙	-1373
夕㔾	-1374
ig	-1375
木木鬼	-1376
不口	-1377
木隹	-1378
ow	-1379
2⿱	-1380
丬犬	-1381
▁the	-1382
,201	-1383
艹重	-1384
幺幺斤	-1385
▁of	-1386
山隹	-1387
id	-1388
丰寸	-1389
乛工	-1390
乛工一	-1391
士乛工一	-1392
耂匕日	-1393
車㔾	-1394
𩰋𩰊	-1395
缶夬	-1396
钅艮	-1397
▁k	-1398
▁以	-1399
,⿰⿱	-1400
29	-1401
戈十车	-1402
8977	-1403
中心	-1404
▁193	-1405
2010	-1406
3⿱	-1407
ut	-1408
8⿰	-1409
广大	-1410
大丶心	-1411
㇇⿱	-1412
▁」	-1413
子皿	-1414
艹隹	-1415
讠上	-1416
又又木	-1417
止月	-1418
艹隹臼	-1419
、⿹	-1420
、⿱	-1421
ol	-1422
辶米	-1423
厶又	-1424
爫龴	-1425
𠃌冫	-1426
辶白	-1427
十豆寸	-1428
臣又	-1429
女生	-1430
刀巴	-1431
䒑夫	-1432
阝車	-1433
31	-1434
彑𧰨	-1435
86	-1436
:⿱	-1437
冂大	-1438
𠂊冂大	-1439
丷酉大	-1440
氵气	-1441
口乎	-1442
勹臼	-1443
:「	-1444
大隹	-1445
ter	-1446
爫缶	-1447
木白	-1448
比十	-1449
ac	-1450
夕㐄木	-1451
丿囗㐅	-1452
禾女鬼	-1453
止𣥂頁	-1454
土丶	-1455
⿰⿵	-1456
丷夫氺	-1457
》⿻	-1458
195	-1459
os	-1460
⺊尸	-1461
氵甫	-1462
火乍	-1463
𠂤止	-1464
日十韦	-1465
黑犬	-1466
纟田	-1467
𡗗禾	-1468
子乚	-1469
女又力	-1470
勹日	-1471
一丨虫	-1472
丰丰豆	-1473
月生	-1474
囗㐅	-1475
ir	-1476
br	-1477
}	-1478
土厶卩	-1479
ia	-1480
亠𧘇	-1481
、⿴	-1482
5	-1483
川頁	-1484
亡口	-1485
厂㔾	-1486
车斤	-1487
火火冖木	-1488
亠口冖豕	-1489
丿土	-1490
丿土攵	-1491
𠃊米斤	-1492
25	-1493
⿷⿱	-1494
▁3	-1495
▁co	-1496
8661⿰⿱	-1497
户隹	-1498
8⿱	-1499
·⿱⿱	-1500
日大土	-1501
ve	-1502
习习隹	-1503
1,	-1504
黑土	-1505
户口攵	-1506
贝攵	-1507
196	-1508
戈十衣	-1509
予页	-1510
亻戈	-1511
扌乚	-1512
丨丿彐	-1513
⿲㇇	-1514
大镸	-1515
宀玉	-1516
木𠃓	-1517
木灬	-1518
▁in	-1519
6⿱	-1520
ent	-1521
十目	-1522
1⿱	-1523
84	-1524
亠口冖毛	-1525
隹灬	-1526
田月	-1527
口丩	-1528
氵九	-1529
,⿱⿰⿴	-1530
氵九木	-1531
▁20	-1532
▁v	-1533
▁自	-1534
厂丁	-1535
人人木隹	-1536
门耳	-1537
▁2013	-1538
止𣥂页	-1539
8665⿹	-1540
山豆	-1541
阝且	-1542
扌疌	-1543
㡀攵	-1544
▁2016	-1545
大隹寸	-1546
▁196	-1547
⿰⿳⿱	-1548
扌斤口	-1549
2⿰	-1550
,《	-1551
▁st	-1552
气羊	-1553
han	-1554
几丶心	-1555
um	-1556
di	-1557
凵丨月	-1558
彡页	-1559
23	-1560
心皿	-1561
83	-1562
勹甫	-1563
心皿丁	-1564
亠口冖几	-1565
40	-1566
王朱	-1567
▁⿱⿻	-1568
氵也	-1569
𠂊田一羊	-1570
,⿺⿱	-1571
爫木彡	-1572
·⿸	-1573
——	-1574
亻山	-1575
亻五	-1576
%⿰	-1577
,⿺	-1578
火火冖力	-1579
▁2014	-1580
䒑土食	-1581
5⿸	-1582
言川	-1583
ct	-1584
om	-1585
2⿱	-1586
亠口子阝	-1587
口未	-1588
土厶皿	-1589
em	-1590
1⿱	-1591
艹冖力	-1592
▁j	-1593
27	-1594
爫工	-1595
爫工彐心	-1596
灬皿	-1597
肀一灬皿	-1598
▁2015	-1599
⿰⿰	-1600
石更	-1601
im	-1602
一田	-1603
一田一	-1604
丨日	-1605
▁2012	-1606
29	-1607
戈十隹	-1608
女未	-1609
十豆彡	-1610
⺌冖口手	-1611
丷酉大阝	-1612
▁2010	-1613
王王必	-1614
亻谷	-1615
扌丸力	-1616
193	-1617
果页	-1618
/⿻	-1619
丁頁	-1620
大示	-1621
礻乚	-1622
幺力	-1623
24	-1624
龶夂	-1625
目八才	-1626
田丁	-1627
▁⿱⿳	-1628
5⿰⿱	-1629
亚日	-1630
ot	-1631
▁l	-1632
糸攵	-1633
山一糸攵	-1634
𠂊田灬羊	-1635
op	-1636
不皿	-1637
𠂉母攵糸	-1638
大巳	-1639
覀大巳	-1640
2016	-1641
▁2008	-1642
8661⿻	-1643
山豆几	-1644
▁2017	-1645
九朩	-1646
〢又	-1647
▁2011	-1648
▁2018	-1649
2012	-1650
禾且	-1651
ation	-1652
衤甫	-1653
辶千	-1654
8960⿰	-1655
ver	-1656
疋虫	-1657
26	-1658
䒑土皿	-1659
扌巨	-1660
1⿰	-1661
川页	-1662
▁《⿰	-1663
▁⿺⿱	-1664
囗木	-1665
3⿱	-1666
7⿱	-1667
中一㠯	-1668
亠口了	-1669
耂子	-1670
丿巾	-1671
66	-1672
2008	-1673
二丨力	-1674
尸示	-1675
尸示寸	-1676
丰刀	-1677
▁e	-1678
歹刂衣	-1679
%。	-1680
尺⺀	-1681
ad	-1682
,⿱⿳	-1683
木示隶	-1684
言寸	-1685
▁4	-1686
亻乙	-1687
2⿰	-1688
⿰⿱⿺	-1689
车九	-1690
2011	-1691
2015	-1692
串心	-1693
、「	-1694
車欠	-1695
》⿰	-1696
《⿰⿱	-1697
爿士	-1698
𠄎丿	-1699
2013	-1700
2014	-1701
山己	-1702
囗禾	-1703
一日	-1704
厶厶一日	-1705
乚丿贝	-1706
▁目	-1707
5⿰	-1708
言方	-1709
ge	-1710
𠂉力	-1711
「⿰⿱	-1712
㇇⿱	-1713
3⿰	-1714
丁页	-1715
巳廾	-1716
口口隹欠	-1717
0⿰	-1718
,000	-1719
,“	-1720
彐火	-1721
日土	-1722
纟丑	-1723
亻禺	-1724
ap	-1725
」,⿰	-1726
ss	-1727
歺又	-1728
2009	-1729
82	-1730
▁⿰⿸	-1731
乛水	-1732
彳皮	-1733
▁⿹⿶	-1734
乛水一	-1735
⿴⿰	-1736
土丷	-1737
」,	-1738
冫中	-1739
oo	-1740
2007	-1741
宀申	-1742
𠂉一罒	-1743
日干	-1744
土甫	-1745
、⿵	-1746
贝才	-1747
000⿱	-1748
厶儿	-1749
▁5	-1750
」,⿱	-1751
1⿰	-1752
te	-1753
ba	-1754
立十土	-1755
艹罒	-1756
牛攵	-1757
22	-1758
sp	-1759
ip	-1760
·⿰⿱	-1761
冖木	-1762
《⿻	-1763
⿺⿵	-1764
纟东	-1765
弓土	-1766
三丨	-1767
歹匕廾	-1768
夕㐄阝	-1769
彳重	-1770
扌广	-1771
土龰㐅	-1772
▁de	-1773
sa	-1774
:⿰	-1775
2006	-1776
𠂊田大	-1777
言果	-1778
人朩	-1779
艹人朩	-1780
▁2009	-1781
口月	-1782
亻子	-1783
氵干	-1784
▁formula	-1785
氵冘	-1786
▁為	-1787
亠口子丸	-1788
⿱⿰⿳	-1789
歹朱	-1790
9⿱	-1791
木不	-1792
巳灬	-1793
𦣞巳灬	-1794
山己几	-1795
木兆	-1796
讠井	-1797
!	-1798
言丁	-1799
▁6	-1800
▁7	-1801
厶又乚	-1802
車九	-1803
ul	-1804
na	-1805
2017	-1806
土龰卜	-1807
扌斥	-1808
夂口頁	-1809
sh	-1810
止匕糸	-1811
一丨犬	-1812
镸彡	-1813
工贝	-1814
幺𠃌	-1815
2000	-1816
4⿱	-1817
▁9	-1818
扌兆	-1819
日子	-1820
幺幺心	-1821
5⿱	-1822
⿳⿳	-1823
▁日	-1824
𠘧又皿	-1825
66⿺	-1826
⿰⿺	-1827
4⿰	-1828
口巴	-1829
▁2007	-1830
▁巴	-1831
户隹頁	-1832
3⿰	-1833
目儿丶	-1834
艹见	-1835
▁i	-1836
8665⿸	-1837
8⿱	-1838
礻羊	-1839
2018	-1840
10⿱	-1841
言斥	-1842
钅中	-1843
歺又食	-1844
▁<	-1845
▁《⿱	-1846
臣又土	-1847
冂二目	-1848
199	-1849
戊一火	-1850
81	-1851
车欠	-1852
?	-1853
45	-1854
ay	-1855
爫臼	-1856
丿厶	-1857
亻犬	-1858
阝车	-1859
十冖子	-1860
讠方	-1861
se	-1862
28	-1863
ub	-1864
00⿰	-1865
又丶	-1866
▁2006	-1867
女且	-1868
䒑山刂	-1869
白小頁	-1870
》,	-1871
丷干犬	-1872
▁2019	-1873
4⿰	-1874
虫虫	-1875
小大	-1876
㡀攵巾	-1877
」、「	-1878
丶丶	-1879
亻申	-1880
丶丶丶	-1881
止匕木	-1882
工口寸	-1883
,⿵⿰	-1884
夂口页	-1885
衤卜	-1886
▁ch	-1887
ta	-1888
木攵	-1889
辶了	-1890
广由	-1891
50	-1892
口止兆	-1893
讠川	-1894
▁r	-1895
ne	-1896
车两	-1897
ph	-1898
罒心	-1899
宀丰罒心	-1900
木卯	-1901
hk	-1902
,⿰⿻	-1903
艹罒冖	-1904
▁!	-1905
亠口子丸灬	-1906
▁ca	-1907
匕口	-1908
匕口灬	-1909
70	-1910
千口攵	-1911
𠃌丿	-1912
2005	-1913
8⿰	-1914
▁10	-1915
ck	-1916
▁and	-1917
tw	-1918
35	-1919
,2001	-1920
土口隹	-1921
up	-1922
一大阝	-1923
大电	-1924
,2009	-1925
𠂒儿贝	-1926
臼工	-1927
▁为	-1928
▁“	-1929
▁re	-1930
▁⿱⿵⿱	-1931
日大㣺	-1932
車甫	-1933
钅戋	-1934
》,⿰	-1935
ind	-1936
口龶力	-1937
ie	-1938
丿田	-1939
儿厶	-1940
qu	-1941
一史	-1942
田一口	-1943
0	-1944
丰阝巾	-1945
氵白	-1946
艹罒冖夕	-1947
千口乚	-1948
大寸	-1949
八刀頁	-1950
bo	-1951
,「	-1952
龙衣	-1953
="	-1954
冖儿干	-1955
▁「	-1956
》⿱	-1957
米立	-1958
革月	-1959
氵匚	-1960
田田	-1961
37	-1962
匕匕灬	-1963
8959	-1964
、“	-1965
丨丨一	-1966
、⿰⿱⿱	-1967
冖见	-1968
▁⿰⿳	-1969
▁。	-1970
凵乚	-1971
39	-1972
忄不	-1973
廿木	-1974
36	-1975
土欠	-1976
2004	-1977
日王	-1978
牛也	-1979
金十	-1980
艹方	-1981
爫子乚	-1982
王白	-1983
,⿱⿰⿱	-1984
0⿱	-1985
《⿱⿱	-1986
弓厶	-1987
艹之	-1988
勹口攵手	-1989
人人刂	-1990
扌石	-1991
ard	-1992
人干	-1993
5⿰	-1994
凵丨欠	-1995
40	-1996
ine	-1997
ag	-1998
▁2005	-1999
47	-2000
ang	-2001
8661⿱⿱	-2002
木彡	-2003
𠂉丶见	-2004
av	-2005
▁⿰⿱⿰	-2006
广发	-2007
亻中	-2008
2019	-2009
臣又糸	-2010
十冖子力	-2011
49	-2012
土夬	-2013
so	-2014
丰刀大	-2015
und	-2016
木木幺	-2017
6⿱	-2018
ak	-2019
:⿱	-2020
yo	-2021
2,	-2022
灬史	-2023
臼土	-2024
2001	-2025
,⿹	-2026
》,⿱	-2027
》、《⿰	-2028
千臼	-2029
丰丰彐心	-2030
石广	-2031
48	-2032
,199	-2033
廿灬	-2034
▁190	-2035
8661⿸	-2036
hans	-2037
王文	-2038
矛木	-2039
讠寸	-2040
車斤日	-2041
art	-2042
凵丨月土	-2043
「⿻	-2044
46⿰	-2045
旡旡	-2046
一火	-2047
旡旡日	-2048
又欠	-2049
▁⿶⿳⿰	-2050
ber	-2051
禾禾日	-2052
190	-2053
one	-2054
,⿵⿱	-2055
ik	-2056
“⿻	-2057
讠斥	-2058
79	-2059
竹聿	-2060
王皮	-2061
〢又土	-2062
戈𠂇	-2063
口斤	-2064
▁8	-2065
勹田	-2066
30⿱	-2067
」⿰	-2068
▁民	-2069
all	-2070
土川	-2071
▁二	-2072
王文王	-2073
舟皿	-2074
8665⿰⿱⿱	-2075
车由	-2076
⺊贝	-2077
谷欠	-2078
56	-2079
100	-2080
,⿻	-2081
斤欠	-2082
果頁	-2083
20⿱	-2084
ii	-2085
2003	-2086
冖牛	-2087
糸言糸心	-2088
刀贝	-2089
疒了	-2090
宀由	-2091
冂㐅刂	-2092
人丶龴阝	-2093
《》	-2094
6⿰	-2095
衤由	-2096
阝月	-2097
▁比	-2098
土方	-2099
白小心	-2100
、⿰⿸	-2101
女己	-2102
口一𧘇	-2103
⿱⿱⿰	-2104
扌𠃓	-2105
厂㔾页	-2106
土鬼	-2107
亠父阝	-2108
▁2004	-2109
工丂	-2110
75	-2111
氵永	-2112
亻方	-2113
·⿹	-2114
钅十	-2115
;}	-2116
60	-2117
千口予	-2118
ht	-2119
土不	-2120
〢又糸	-2121
8⿰	-2122
"⿰	-2123
匕刂	-2124
33	-2125
876	-2126
大弓	-2127
⿳⿳	-2128
od	-2129
』	-2130
丿丨刂	-2131
日十彡	-2132
艹戊	-2133
卜皿	-2134
土卜皿	-2135
丘山	-2136
忄隹	-2137
10⿰	-2138
ica	-2139
讠丁	-2140
犭言	-2141
犭言犬	-2142
『	-2143
6⿰	-2144
厂里	-2145
口口丨	-2146
厂彡頁	-2147
,⿹⿶	-2148
》、《⿱	-2149
ci	-2150
广木	-2151
8665⿻	-2152
ccdp	-2153
90	-2154
𠁣𠃛才	-2155
丿言	-2156
“⿰⿱	-2157
65	-2158
虍业	-2159
业䒑夫	-2160
▁人	-2161
ist	-2162
mp	-2163
▁2003	-2164
屯阝	-2165
丷夫刀	-2166
2002	-2167
ly	-2168
一八言	-2169
▁to	-2170
丷夫手	-2171
毌贝	-2172
衤谷	-2173
讠果	-2174
“⿸	-2175
「⿱⿱	-2176
匕頁	-2177
ran	-2178
ers	-2179
8960	-2180
1990	-2181
犭王	-2182
「⿸	-2183
宀丰口刂	-2184
44	-2185
8⿱	-2186
8960⿱	-2187
扌由	-2188
man	-2189
犭火	-2190
;⿸	-2191
55	-2192
月巴	-2193
▁zh	-2194
女又心	-2195
井一八木	-2196
2011	-2197
氵𠃓	-2198
彳氵	-2199
亚心	-2200
▁ro	-2201
巛火	-2202
⿻⿱	-2203
ff	-2204
覀土	-2205
7⿱	-2206
7⿰	-2207
ows	-2208
由丂	-2209
ab	-2210
女彐	-2211
田一口犬	-2212
34	-2213
▁th	-2214
由阝	-2215
pe	-2216
口口田一口犬	-2217
王册	-2218
子瓜	-2219
、⿺⿱	-2220
白儿	-2221
76	-2222
几又	-2223
巛果	-2224
▁li	-2225
35	-2226
釆心	-2227
:00	-2228
5⿱⿱	-2229
15⿱	-2230
》⿰⿱	-2231
32	-2232
辶万	-2233
彐寸	-2234
口内	-2235
est	-2236
土土卜	-2237
:"	-2238
vi	-2239
目八女	-2240
80	-2241
虍心	-2242
勹米	-2243
戈十木	-2244
人一朩斗	-2245
月贝	-2246
卩丶	-2247
𠂎丶	-2248
耒毛	-2249
·⿺	-2250
▁12	-2251
▁2000	-2252
一厶廾	-2253
▁东	-2254
几木	-2255
ity	-2256
mo	-2257
indows	-2258
38	-2259
⿰⿱⿱⿱⿰	-2260
纟氏	-2261
,1	-2262
𠂊田灬里	-2263
▁也	-2264
一刂	-2265
▁al	-2266
tv	-2267
ke	-2268
,⿴	-2269
31	-2270
《⿸	-2271
70	-2272
2001	-2273
69	-2274
门才	-2275
·⿻	-2276
▁白	-2277
ga	-2278
米且	-2279
▁⿱⿰⿱	-2280
▁la	-2281
ps	-2282
cen	-2283
𠂉大巨	-2284
丿𠃌攵	-2285
cn	-2286
ant	-2287
口口山	-2288
𠃊人欠	-2289
ack	-2290
竹毛	-2291
爫女	-2292
扌以	-2293
▁2002	-2294
me	-2295
车甫	-2296
59	-2297
1980	-2298
8665⿵	-2299
▁東	-2300
ong	-2301
·⿰⿱⿱	-2302
月永	-2303
氵皮女	-2304
▁11	-2305
42	-2306
匚王	-2307
宀火	-2308
日女	-2309
▁⿵⿰	-2310
:“⿰	-2311
丶丶丶皿	-2312
歹戋	-2313
土隹	-2314
亠幺田	-2315
》⿸	-2316
丷八月	-2317
井一八⺀	-2318
艹肅	-2319
1999	-2320
非一	-2321
二厶鬼	-2322
ry	-2323
ill	-2324
“⿱⿱	-2325
1998	-2326
人一朩又	-2327
▁十	-2328
▁for	-2329
▁2001	-2330
▁x	-2331
匕页	-2332
束刂	-2333
mm	-2334
扌甲	-2335
lay	-2336
41	-2337
尸巾	-2338
尸巾刂	-2339
又阝	-2340
习习立	-2341
7⿰	-2342
,⿱⿴	-2343
口土	-2344
⿻⿵	-2345
66⿰⿱	-2346
90	-2347
冖且	-2348
43	-2349
灬心	-2350
⿰⿸⿸	-2351
垂阝	-2352
||	-2353
oh	-2354
一大㣺	-2355
⿱⿴⿱	-2356
辶隶	-2357
扌夫	-2358
⿰⿱⿻	-2359
乛水一灬	-2360
100⿱	-2361
氵王	-2362
8665⿰⿱⿺	-2363
lu	-2364
1997	-2365
木木石	-2366
𠃜目	-2367
虫朱	-2368
女兆	-2369
to	-2370
,⿰⿱⿰	-2371
mi	-2372
8661⿺	-2373
ear	-2374
ft	-2375
57	-2376
▁sh	-2377
艹亡	-2378
mar	-2379
67	-2380
犭讠	-2381
犭讠犬	-2382
女𦣞	-2383
覀贝	-2384
66⿱⿻	-2385
朿朿	-2386
/⿰	-2387
bs	-2388
癶豆阝	-2389
、⿱⿱⿱	-2390
小隹	-2391
車由	-2392
𠂤十	-2393
𠂊彐	-2394
12⿱	-2395
▁我	-2396
3,	-2397
99	-2398
pa	-2399
礻巳	-2400
ign	-2401
木乚	-2402
纟屯	-2403
丿二丨刂	-2404
𠂊丶	-2405
int	-2406
亻九	-2407
no	-2408
5⿺	-2409
62	-2410
ex	-2411
言羊	-2412
▁pro	-2413
▁年	-2414
角虫	-2415
亠丷厂彡页	-2416
▁事	-2417
⺊又	-2418
土厶力	-2419
▁山	-2420
月刂心	-2421
fa	-2422
ug	-2423
rea	-2424
,⿲	-2425
uni	-2426
车斤日	-2427
竹龙	-2428
木木夕	-2429
▁,	-2430
亻寸肉	-2431
」。	-2432
,⿰⿰	-2433
丷八牛	-2434
ud	-2435
厂万	-2436
·⿳	-2437
ti	-2438
64	-2439
氵欠	-2440
車車	-2441
▁1949	-2442
非心	-2443
、⿱⿳	-2444
;⿱	-2445
,⿱⿺	-2446
女乃	-2447
5⿹	-2448
ree	-2449
艹肃	-2450
釆丂	-2451
丿囗釆丂	-2452
肀月	-2453
⿹⿻⿱	-2454
⿱⿵	-2455
son	-2456
丿丿心	-2457
8665⿰⿺	-2458
1,	-2459
fi	-2460
:30	-2461
忄亡	-2462
十廾贝	-2463
大冖牛	-2464
45	-2465
▁hd	-2466
口贝力	-2467
12⿰	-2468
189	-2469
▁米	-2470
,⿳𭕄	-2471
si	-2472
9⿰	-2473
田田土	-2474
▁ar	-2475
1996	-2476
lor	-2477
八刀页	-2478
;⿱⿱	-2479
彳钅	-2480
⿹⿱	-2481
乛亅丿	-2482
05	-2483
▁1999	-2484
9⿰	-2485
彳金	-2486
end	-2487
⿱⿶⿱⿰	-2488
人一朩攵	-2489
%,	-2490
牙阝	-2491
1994	-2492
月几	-2493
亠里	-2494
亠里𧘇	-2495
⿰⿸⿱⿱	-2496
68	-2497
78	-2498
2009	-2499
9⿱	-2500
亻韦	-2501
讠内	-2502
」⿰⿱	-2503
1970	-2504
lin	-2505
止匕角	-2506
亻弋衣	-2507
八口𧘇	-2508
忄白	-2509
2,	-2510
▁lo	-2511
木卜	-2512
木朱	-2513
口欠	-2514
▁⿲㇇	-2515
《⿱⿰	-2516
▁1990	-2517
氵欠皿	-2518
▁永	-2519
46	-2520
▁1998	-2521
コ一丿	-2522
;⿰	-2523
艹禺力	-2524
月刂刀	-2525
"⿰	-2526
50⿱	-2527
非文	-2528
1995	-2529
▁朱	-2530
王白石	-2531
ho	-2532
per	-2533
覀木	-2534
一丂阝	-2535
田比	-2536
▁于	-2537
com	-2538
火丁	-2539
ate	-2540
一中	-2541
一中冖	-2542
:「⿰	-2543
▁⿳𭕄	-2544
」⿱	-2545
冫欠口	-2546
石页	-2547
09	-2548
20⿱	-2549
又丶虫	-2550
·⿱⿵⿱	-2551
言刂	-2552
<	-2553
氵中	-2554
windows	-2555
《⿰	-2556
63	-2557
▁⿲	-2558
九丶	-2559
▁⿳⿱	-2560
亻丨攵	-2561
:“⿱	-2562
䒑土女	-2563
刀牛虫	-2564
▁18	-2565
1960	-2566
53	-2567
ell	-2568
「⿱⿰	-2569
▁is	-2570
73	-2571
氵丁	-2572
▁1997	-2573
八刀皿	-2574
11⿰	-2575
㐅乂木	-2576
龷八㣺	-2577
]	-2578
《⿺	-2579
宀禺	-2580
,⿰⿹	-2581
㐅乂木大	-2582
扌爪	-2583
71	-2584
ty	-2585
▁⿰⿷	-2586
口屯	-2587
io	-2588
[	-2589
ds	-2590
立𧰨	-2591
ian	-2592
ure	-2593
nba	-2594
54	-2595
予象	-2596
▁长	-2597
61	-2598
iv	-2599
▁con	-2600
,⿳⿱	-2601
72	-2602
▁16	-2603
be	-2604
1991	-2605
十月	-2606
十月丶	-2607
;⿰⿱	-2608
虫工	-2609
1992	-2610
止匕隹	-2611
土里	-2612
石頁	-2613
目隹	-2614
「⿺	-2615
、⿱⿻	-2616
乃子	-2617
力力月	-2618
日大力	-2619
士冖	-2620
鬼斗	-2621
40⿱	-2622
51	-2623
▁y	-2624
扌皮	-2625
74	-2626
▁1950	-2627
hr	-2628
01	-2629
氵女	-2630
1993	-2631
ort	-2632
辶韦	-2633
⿰⿴	-2634
艹矛	-2635
扌口	-2636
ust	-2637
11⿱	-2638
亻火	-2639
⺌月刂	-2640
——⿰	-2641
宀八乙	-2642
土贝	-2643
jr	-2644
les	-2645
18⿱	-2646
2⿰⿱	-2647
一廾瓦	-2648
46⿱	-2649
▁⿰⿻	-2650
立十言	-2651
188	-2652
0⿻	-2653
▁生	-2654
而寸	-2655
丰刀糸	-2656
金重	-2657
39	-2658
⿰⿱⿰	-2659
▁/	-2660
ment	-2661
耒井	-2662
net	-2663
go	-2664
》。	-2665
一大口	-2666
▁1996	-2667
con	-2668
ore	-2669
▁1980	-2670
ha	-2671
185	-2672
讠羊	-2673
▁en	-2674
1⿰⿱	-2675
㇇⿸	-2676
"⿱	-2677
⿳⿻	-2678
▁so	-2679
58	-2680
〢又贝	-2681
宀必虫	-2682
纟文	-2683
33	-2684
ue	-2685
,⿱⿵⿱	-2686
、⿸⿸	-2687
da	-2688
0⿰⿱	-2689
,19	-2690
52	-2691
丬士	-2692
门王	-2693
匚儿力	-2694
▁车	-2695
水日	-2696
,《⿰	-2697
07	-2698
/⿱	-2699
▁1993	-2700
we	-2701
幺大隹	-2702
巨木	-2703
氵巨木	-2704
▁1994	-2705
▁mo	-2706
▁u	-2707
斤丶	-2708
丘阝	-2709
户攵	-2710
艹本	-2711
36	-2712
1989	-2713
䒑土灬	-2714
▁17	-2715
▁瓦	-2716
85	-2717
hant	-2718
06	-2719
▁1992	-2720
亡心	-2721
▁ma	-2722
·⿱⿻	-2723
ka	-2724
▁1945	-2725
14⿱	-2726
8665⿱⿰	-2727
乃又	-2728
乃又皿	-2729
8661⿰⿱⿰	-2730
ux	-2731
钅甫	-2732
𠁣𠃛王	-2733
ame	-2734
▁col	-2735
《⿱	-2736
po	-2737
宀八乍	-2738
▁1995	-2739
,2010	-2740
16⿱	-2741
dv	-2742
亠丷厂彡	-2743
ms	-2744
13⿱	-2745
·⿱⿳	-2746
亻士	-2747
口非	-2748
目目隹	-2749
va	-2750
千口甘	-2751
尸雨	-2752
刀口阝	-2753
gle	-2754
且厶心	-2755
、⿰⿳	-2756
8661。	-2757
ick	-2758
pt	-2759
▁,⿱	-2760
、⿲㇇	-2761
ina	-2762
03	-2763
▁史	-2764
08	-2765
木干	-2766
“⿺	-2767
04	-2768
尸水	-2769
1988	-2770
⺌冖口贝	-2771
⿸⿱⿱	-2772
、⿱⿰⿱	-2773
、⿵⿵	-2774
丿糸心	-2775
⺌贝	-2776
500	-2777
▁1991	-2778
100	-2779
",	-2780
禾刂木	-2781
34	-2782
8665⿱⿱⿱	-2783
pro	-2784
コ一人	-2785
1950	-2786
讠刂	-2787
37	-2788
_1	-2789
亠田	-2790
▁on	-2791
卩示	-2792
▁九	-2793
66	-2794
ction	-2795
:⿸	-2796
▁⿷	-2797
厂万力	-2798
,⿲㇇	-2799
4,	-2800
ens	-2801
,《⿱	-2802
▁1988	-2803
钅欠	-2804
▁189	-2805
、⿰⿱	-2806
目垂	-2807
、⿹⿶	-2808
ess	-2809
95	-2810
贝贝	-2811
“⿴	-2812
cho	-2813
▁z	-2814
冫欠瓦	-2815
▁yo	-2816
1900	-2817
氵户	-2818
·⿵⿵	-2819
冫欠女	-2820
3,	-2821
▁ra	-2822
」⿻	-2823
ld	-2824
,“⿰	-2825
王廾	-2826
丿木	-2827
士冖豆	-2828
𠂉丶金	-2829
gro	-2830
𠁣𠃛虫	-2831
月干	-2832
乀丿口	-2833
ib	-2834
km	-2835
:⿰⿱	-2836
牛生	-2837
▁1985	-2838
mv	-2839
yle	-2840
tion	-2841
𠘧又糸	-2842
忄乙	-2843
8665⿰⿸	-2844
力口贝	-2845
扌斤言	-2846
亻丨攵心	-2847
⿻⿱	-2848
02	-2849
do	-2850
▁|	-2851
金欠	-2852
饣欠	-2853
my	-2854
xt	-2855
不一	-2856
200⿱	-2857
自犬	-2858
氵文	-2859
sk	-2860
8665⿳	-2861
▁le	-2862
尸示寸心	-2863
ory	-2864
,2011	-2865
立十月	-2866
▁世	-2867
户月	-2868
口尺	-2869
ung	-2870
▁an	-2871
;⿺	-2872
,⿱⿶⿱⿰	-2873
49	-2874
广比	-2875
月力	-2876
▁1989	-2877
oogle	-2878
ith	-2879
,000⿱	-2880
▁車	-2881
皮頁	-2882
丨丿巾	-2883
25⿱	-2884
扌丑	-2885
8⿰⿱	-2886
⿱⿰⿱⿴	-2887
耳又女	-2888
ep	-2889
▁15	-2890
,⿵	-2891
1987	-2892
目大	-2893
竹目大	-2894
▁广	-2895
ook	-2896
匕禾	-2897
land	-2898
忄艮	-2899
“⿱⿰	-2900
wor	-2901
⿱⿻⿱	-2902
丿士几	-2903
center	-2904
mon	-2905
▁=	-2906
ram	-2907
贝贝女	-2908
77	-2909
口巾	-2910
8960⿰⿱	-2911
32	-2912
span	-2913
ts	-2914
▁⿰⿰	-2915
:⿻	-2916
厂彡	-2917
ton	-2918
月非	-2919
𠂤巾	-2920
▁mar	-2921
▁or	-2922
亠口𧘇	-2923
1986	-2924
car	-2925
▁ne	-2926
「⿴	-2927
立十讠	-2928
now	-2929
▁bo	-2930
ster	-2931
ish	-2932
《⿴	-2933
匚一	-2934
衤果	-2935
礻斤	-2936
,⿰⿷	-2937
,⿱⿱⿱	-2938
dice	-2939
▁1984	-2940
je	-2941
⿱⿰⿰	-2942
ohn	-2943
ah	-2944
:「⿱	-2945
,⿷	-2946
]]	-2947
冫欠皿	-2948
ok	-2949
戊丶	-2950
气弗	-2951
sm	-2952
92	-2953
cy	-2954
du	-2955
▁又	-2956
▁1983	-2957
石专	-2958
八刀贝	-2959
𠁣𠃛人	-2960
▁1970	-2961
人目	-2962
冂一八	-2963
小丿力	-2964
▁八	-2965
ube	-2966
sao	-2967
iz	-2968
38	-2969
“⿰	-2970
5。	-2971
口口隹力	-2972
」⿺	-2973
20⿰	-2974
75	-2975
▁sp	-2976
▁皮	-2977
1985	-2978
fe	-2979
、⿷	-2980
ational	-2981
play	-2982
4,	-2983
cp	-2984
⿻⿻	-2985
8⿱⿵	-2986
户攵聿	-2987
▁工	-2988
iss	-2989
土龰干	-2990
1984	-2991
gc	-2992
▁[	-2993
500	-2994
▁」⿰	-2995
▁1982	-2996
93	-2997
ice	-2998
,2007	-2999
96	-3000
▁1960	-3001
0⿸	-3002
▁1986	-3003
爪巴	-3004
▁1987	-3005
97	-3006
1945	-3007
乍心	-3008
tt	-3009
八厶𧘇	-3010
16⿰	-3011
98	-3012
艹夫	-3013
lar	-3014
▁1978	-3015
丂戈	-3016
亻为	-3017
禾丂戈	-3018
己心	-3019
if	-3020
乀丿寸	-3021
189	-3022
ite	-3023
▁be	-3024
▁1946	-3025
ll	-3026
1982	-3027
艹巴	-3028
㐅乂木大手	-3029
8960⿳	-3030
der	-3031
log	-3032
"⿱	-3033
,⿱⿲	-3034
300	-3035
」、「⿰	-3036
」,⿰⿱	-3037
ther	-3038
▁1958	-3039
pp	-3040
木木火	-3041
甘欠	-3042
dr	-3043
一巛工力	-3044
55	-3045
17⿱	-3046
66。	-3047
dvd	-3048
tr	-3049
ire	-3050
1983	-3051
,⿱⿻	-3052
㇇。	-3053
;19	-3054
木象	-3055
——⿱	-3056
1⿰⿱	-3057
▁me	-3058
、⿵⿰	-3059
46	-3060
▁1979	-3061
丷田一口	-3062
𠂊田一禾	-3063
47	-3064
{⿱	-3065
「⿳	-3066
;⿱⿰	-3067
,⿳	-3068
;⿵⿵	-3069
身弓	-3070
▁ex	-3071
▁1937	-3072
5⿰⿱⿱	-3073
ence	-3074
ara	-3075
」⿹	-3076
▁重	-3077
,2005	-3078
8665⿸⿸	-3079
广龙	-3080
隹乃	-3081
88	-3082
48	-3083
▁⿰⿱⿹	-3084
木東	-3085
》⿱⿱	-3086
目民	-3087
cha	-3088
𠂇月阝	-3089
▁1948	-3090
hi	-3091
vers	-3092
《⿵	-3093
ary	-3094
▁⿱⿴	-3095
幺冖牛	-3096
」⿸	-3097
ive	-3098
▁《⿰⿱	-3099
,000⿰	-3100
辶尺	-3101
口甫	-3102
▁wor	-3103
1⿻	-3104
94	-3105
▁贝	-3106
一巛工頁	-3107
3⿰⿱	-3108
ames	-3109
back	-3110
44	-3111
fo	-3112
▁母	-3113
cor	-3114
ley	-3115
120	-3116
cl	-3117
九日	-3118
ies	-3119
{}	-3120
、⿻	-3121
夕㔾心	-3122
dna	-3123
,3	-3124
门虫	-3125
"。	-3126
60⿱	-3127
▁id	-3128
▁am	-3129
use	-3130
ron	-3131
犭瓜	-3132
ance	-3133
,“⿱	-3134
》⿺	-3135
google	-3136
車干	-3137
匚非	-3138
app	-3139
、“⿰	-3140
缶工	-3141
—⿱	-3142
⿷⿱	-3143
ground	-3144
“⿱	-3145
㇇⿰⿱	-3146
▁1947	-3147
、⿱⿱	-3148
▁style	-3149
▁ri	-3150
口口一	-3151
氵戋	-3152
00⿻	-3153
▁⿰⿱⿴	-3154
cr	-3155
▁1941	-3156
「」	-3157
2005	-3158
⿸⿸⿸	-3159
gen	-3160
1979	-3161
000⿰	-3162
▁sy	-3163
▁188	-3164
bi	-3165
1930	-3166
亻為	-3167
{⿰	-3168
▁at	-3169
土申	-3170
父巴	-3171
▁se	-3172
65	-3173
2010	-3174
、⿰⿱⿰	-3175
匚斤	-3176
1949	-3177
vo	-3178
《⿳	-3179
dy	-3180
目夂	-3181
冂人目夂	-3182
𠘧又月	-3183
疒艮	-3184
mer	-3185
⿱⿱⿲	-3186
iki	-3187
jo	-3188
𠁣𠃛甲	-3189
▁1981	-3190
1978	-3191
ni	-3192
%,⿱⿱	-3193
2⿻	-3194
are	-3195
》⿻	-3196
一八欠	-3197
43	-3198
0⿻	-3199
stat	-3200
14⿰	-3201
非衣	-3202
》、《	-3203
又力	-3204
21、	-3205
,18	-3206
▁1952	-3207
15⿰	-3208
▁⿱⿶⿱⿰	-3209
;⿻	-3210
▁1920	-3211
che	-3212
ris	-3213
▁“⿰	-3214
%⿱	-3215
13⿰	-3216
az	-3217
▁1955	-3218
▁月	-3219
匚甲	-3220
,2	-3221
▁女	-3222
8661⿱⿰	-3223
▁0	-3224
pc	-3225
188	-3226
皮页	-3227
sil	-3228
1920	-3229
扌彐	-3230
he	-3231
:⿱⿱	-3232
8665⿺⿱	-3233
her	-3234
station	-3235
止龰	-3236
ai	-3237
▁1956	-3238
且一八頁	-3239
▁187	-3240
ner	-3241
pre	-3242
人一口皿	-3243
、19	-3244
codice	-3245
hd	-3246
pi	-3247
2020	-3248
,2006	-3249
亻弋黑	-3250
米丂	-3251
1975	-3252
1940	-3253
ark	-3254
▁1954	-3255
vel	-3256
66⿸	-3257
ru	-3258
su	-3259
▁1938	-3260
sy	-3261
_2	-3262
300	-3263
ical	-3264
人一朩土	-3265
▁1940	-3266
2006	-3267
言隹	-3268
%,⿰	-3269
ime	-3270
爿一	-3271
片爿一	-3272
illi	-3273
▁⿰⿹	-3274
口口几	-3275
𠁣𠃛月	-3276
1981	-3277
cm	-3278
▁man	-3279
丿囗米丂	-3280
、⿳⿱	-3281
ood	-3282
立十束	-3283
竹由	-3284
艮土	-3285
5,	-3286
yout	-3287
1972	-3288
氵谷	-3289
hy	-3290
厶牛	-3291
▁及	-3292
ml	-3293
▁⿻㇀	-3294
丿二丨小	-3295
▁⿱⿲	-3296
8960⿺	-3297
⿱⿵⿵	-3298
3⿻	-3299
⿰⿳⿱	-3300
▁inter	-3301
mb	-3302
ven	-3303
一自戈	-3304
book	-3305
met	-3306
%,⿱	-3307
2013	-3308
,2012	-3309
300⿱	-3310
,「⿰	-3311
old	-3312
align	-3313
、⿲	-3314
亡目	-3315
女干	-3316
户犬	-3317
,⿱⿻⿱	-3318
;"	-3319
ger	-3320
1973	-3321
gu	-3322
19⿱	-3323
8,	-3324
王鬼	-3325
4⿻	-3326
lan	-3327
且一八页	-3328
45⿱	-3329
“⿳	-3330
2000	-3331
mic	-3332
▁丹	-3333
「⿰	-3334
」、「⿱	-3335
石几	-3336
王攵	-3337
·⿱⿰	-3338
fc	-3339
弓瓜	-3340
丰丰彐	-3341
2008	-3342
▁186	-3343
face	-3344
大隹田	-3345
⺌冖口木	-3346
八丂	-3347
,⿱⿰	-3348
▁ii	-3349
john	-3350
▁comp	-3351
ome	-3352
color	-3353
66⿻	-3354
▁「⿰	-3355
background	-3356
1974	-3357
▁土	-3358
5⿳	-3359
▁it	-3360
金甫	-3361
▁14	-3362
uper	-3363
▁1966	-3364
口且	-3365
21⿱	-3366
▁1939	-3367
纟韦	-3368
、⿰⿹	-3369
1976	-3370
口一心	-3371
2007	-3372
low	-3373
宀八力	-3374
500⿱	-3375
纟千	-3376
2⿰⿱	-3377
24⿱	-3378
2012	-3379
au	-3380
text	-3381
▁1975	-3382
22⿱	-3383
▁1930	-3384
、⿸	-3385
ght	-3386
▁do	-3387
bert	-3388
▁1942	-3389
《⿸⿸	-3390
91	-3391
竹目大糸	-3392
66⿱⿱	-3393
▁⿻⿺	-3394
6,	-3395
臣卜	-3396
幺幺田	-3397
national	-3398
1958	-3399
5⿴	-3400
gb	-3401
ult	-3402
▁,⿰	-3403
ls	-3404
+	-3405
box	-3406
1964	-3407
▁1973	-3408
1968	-3409
_3	-3410
ight	-3411
《》⿰	-3412
can	-3413
1977	-3414
口电	-3415
▁istat	-3416
youtube	-3417
木木彡	-3418
ser	-3419
,5	-3420
ko	-3421
立十瓜	-3422
150	-3423
ale	-3424
▁ho	-3425
;0	-3426
𠃋丿人力	-3427
dio	-3428
64	-3429
2014	-3430
·⿱⿱⿱	-3431
冫欠心	-3432
氵十	-3433
rom	-3434
18⿰	-3435
playstation	-3436
镸聿	-3437
own	-3438
㇇⿻	-3439
氏丶阝	-3440
1956	-3441
aw	-3442
「⿱	-3443
、“⿱	-3444
46⿸	-3445
,2008	-3446
丿米	-3447
tor	-3448
冂卄頁	-3449
,2013	-3450
min	-3451
185	-3452
艹牙	-3453
疋月	-3454
igh	-3455
{⿸	-3456
80⿱	-3457
·⿰	-3458
ana	-3459
ste	-3460
丿米丨	-3461
400	-3462
inter	-3463
门木	-3464
rit	-3465
2019	-3466
gn	-3467
⿱⿰⿻	-3468
▁1953	-3469
八厶頁	-3470
巛果刂	-3471
1966	-3472
5⿻	-3473
7,	-3474
火火冖虫	-3475
⿵⿱⿱	-3476
▁1927	-3477
▁1944	-3478
▁1959	-3479
言永	-3480
▁ngc	-3481
宀牛	-3482
丆且	-3483
氵山	-3484
99	-3485
▁colspan	-3486
▁“⿱	-3487
8661⿴	-3488
:⿰⿱	-3489
42	-3490
rp	-3491
rist	-3492
30⿰	-3493
女亚	-3494
▁you	-3495
▁1943	-3496
1957	-3497
51	-3498
▁1935	-3499
▁185	-3500
sc	-3501
8⿻	-3502
1971	-3503
冖果	-3504
氵世	-3505
酉州	-3506
彑冖果	-3507
stem	-3508
▁1964	-3509
氵必	-3510
col	-3511
,12	-3512
▁1965	-3513
187	-3514
89	-3515
▁ser	-3516
1969	-3517
1941	-3518
8960⿸	-3519
1967	-3520
eam	-3521
2015	-3522
▁1951	-3523
▁1977	-3524
▁gro	-3525
▁coun	-3526
5,	-3527
ern	-3528
▁非	-3529
mat	-3530
1944	-3531
木口	-3532
土立	-3533
、⿰⿷	-3534
▁1968	-3535
1946	-3536
10⿰	-3537
don	-3538
177	-3539
2016	-3540
1965	-3541
,2014	-3542
1952	-3543
ki	-3544
▁《⿻	-3545
▁1972	-3546
士冖一	-3547
56	-3548
59	-3549
木东	-3550
覀米	-3551
</	-3552
扌发	-3553
▁as	-3554
火东	-3555
非車	-3556
ae	-3557
大田	-3558
35⿱	-3559
76	-3560
,⿰⿱⿹	-3561
univers	-3562
4⿰⿱	-3563
土及	-3564
soft	-3565
mac	-3566
丨丨比土	-3567
文而	-3568
门甲	-3569
▁1936	-3570
8665⿱⿻	-3571
亠果	-3572
亻丈	-3573
犬廾	-3574
亠果𧘇	-3575
艹犬廾	-3576
宀臣	-3577
艹心	-3578
red	-3579
▁13	-3580
匕禾頁	-3581
,4	-3582
▁1969	-3583
▁1974	-3584
▁1971	-3585
1959	-3586
ann	-3587
▁《⿱⿱	-3588
100⿰	-3589
ide	-3590
ks	-3591
ys	-3592
10⿱	-3593
▁」⿱	-3594
chool	-3595
silver	-3596
▁un	-3597
,「⿱	-3598
火户	-3599
▁1961	-3600
人一口頁	-3601
▁1962	-3602
▁with	-3603
8⿻	-3604
57	-3605
▁new	-3606
▁1957	-3607
1948	-3608
54	-3609
tain	-3610
▁ed	-3611
52	-3612
1000	-3613
5"	-3614
羊乚	-3615
▁1928	-3616
▁1976	-3617
▁已	-3618
800	-3619
200⿱	-3620
mit	-3621
丷豕土	-3622
耂日灬	-3623
▁mus	-3624
17⿰	-3625
扌卜	-3626
、、	-3627
23⿱	-3628
▁1963	-3629
sn	-3630
eng	-3631
▁1931	-3632
ass	-3633
led	-3634
▁po	-3635
1942	-3636
ix	-3637
5⿻	-3638
ya	-3639
▁no	-3640
▁1932	-3641
400	-3642
1"	-3643
口止戋	-3644
53	-3645
70⿱	-3646
iii	-3647
1947	-3648
鬼未	-3649
2017	-3650
="5"	-3651
1943	-3652
尢力	-3653
2。	-3654
pl	-3655
丘丿	-3656
米糸	-3657
宀八缶	-3658
亻卜	-3659
米糸廾	-3660
9,	-3661
禾刂牛	-3662
▁qu	-3663
八丂皿	-3664
org	-3665
;⿴	-3666
」⿱⿱	-3667
月中	-3668
,17	-3669
▁fo	-3670
▁one	-3671
1963	-3672
1961	-3673
,⿵⿵	-3674
bar	-3675
1962	-3676
icon	-3677
▁田	-3678
3⿸	-3679
2⿸	-3680
td	-3681
63	-3682
·⿱	-3683
里予土	-3684
」,⿱⿱	-3685
“⿹	-3686
、⿰⿰	-3687
,2015	-3688
41	-3689
火柬	-3690
new	-3691
▁by	-3692
▁1934	-3693
2004	-3694
▁car	-3695
门人	-3696
1954	-3697
by	-3698
1937	-3699
:⿺	-3700
「⿹	-3701
▁:	-3702
禾隹	-3703
巛田	-3704
dc	-3705
ward	-3706
▁1933	-3707
ble	-3708
▁ph	-3709
1000⿱	-3710
een	-3711
▁te	-3712
%;	-3713
ics	-3714
95	-3715
gra	-3716
丨丨一刂	-3717
钅内	-3718
虍几彡	-3719
ata	-3720
ower	-3721
ere	-3722
厶厶土	-3723
,6	-3724
中𧘇	-3725
亠中𧘇	-3726
,10	-3727
,9	-3728
——	-3729
▁1929	-3730
▁身	-3731
耳卯	-3732
7⿻	-3733
氵文刂	-3734
」⿶⿳⿰	-3735
,5	-3736
石欠	-3737
age	-3738
千口甫	-3739
纟方	-3740
tra	-3741
《⿹	-3742
」,⿸	-3743
1939	-3744
1955	-3745
illiam	-3746
▁school	-3747
—6⿱	-3748
月𠃓	-3749
bbc	-3750
ins	-3751
▁「⿱	-3752
600	-3753
69	-3754
res	-3755
▁184	-3756
《⿱⿳	-3757
;0—6⿱	-3758
ani	-3759
“⿵	-3760
、⿳𭕄	-3761
wa	-3762
⿺⿸	-3763
》⿰⿱⿱	-3764
tro	-3765
凵㐅儿	-3766
ze	-3767
▁di	-3768
▁⿸⿱	-3769
虍力	-3770
彐氺刂	-3771
▁韦	-3772
fer	-3773
,7	-3774
,⿹⿻	-3775
,2002	-3776
耳火	-3777
ham	-3778
[[	-3779
牛土	-3780
3⿰⿱	-3781
8665⿱⿲	-3782
▁windows	-3783
口止止	-3784
·⿹⿶	-3785
歺又米	-3786
row	-3787
1953	-3788
micro	-3789
—⿰	-3790
dp	-3791
1⿸	-3792
5⿱⿳	-3793
linux	-3794
nowiki	-3795
冫東	-3796
king	-3797
tu	-3798
▁ua	-3799
犭里	-3800
丿土攵心	-3801
▁1967	-3802
月豕	-3803
禺心	-3804
:⿱⿱	-3805
har	-3806
roid	-3807
ler	-3808
立口刂	-3809
gr	-3810
册刂	-3811
edia	-3812
申𠃓	-3813
,9	-3814
「⿱⿳	-3815
《⿺⿱	-3816
20⿰	-3817
一白弓	-3818
、⿱⿵⿱	-3819
vil	-3820
58	-3821
74	-3822
》:	-3823
za	-3824
akb	-3825
▁⿱⿹	-3826
26⿱	-3827
ial	-3828
,⿱⿱⿰	-3829
》、《⿰⿱	-3830
pr	-3831
歹千	-3832
▁sa	-3833
匚巾	-3834
月方	-3835
甫方攵	-3836
⿻⿵	-3837
⿱⿶⿳⿰	-3838
bu	-3839
90⿱	-3840
▁go	-3841
丿丿丶	-3842
line	-3843
ja	-3844
⿻㇀	-3845
臣又月	-3846
8661⿰⿳	-3847
1。	-3848
口于	-3849
月重	-3850
、⿶⿳⿰	-3851
hz	-3852
400⿱	-3853
vis	-3854
亻弋山	-3855
ng	-3856
艹户	-3857
彐一八車	-3858
𠂊田灬由	-3859
150⿱	-3860
口木𧘇	-3861
8661,⿰	-3862
,16	-3863
1938	-3864
ny	-3865
▁1926	-3866
木丈	-3867
cal	-3868
ino	-3869
亻弋贝	-3870
2003	-3871
▁cor	-3872
6⿻	-3873
bur	-3874
「⿵	-3875
facebook	-3876
丶丶丶匕	-3877
1936	-3878
▁world	-3879
女我	-3880
ead	-3881
,"	-3882
『⿰	-3883
饣虫	-3884
val	-3885
士冖一禾	-3886
臣人	-3887
max	-3888
star	-3889
sd	-3890
⿰⿱⿶	-3891
2018	-3892
丶丶丶匕彡	-3893
,,	-3894
▁木	-3895
ace	-3896
24⿰	-3897
⿰⿻⿵	-3898
犭且	-3899
amp	-3900
68	-3901
rid	-3902
疒皮	-3903
sw	-3904
ash	-3905
木冖	-3906
木缶	-3907
eld	-3908
inc	-3909
木缶木冖	-3910
8960⿱⿱	-3911
丘丶	-3912
礻氏	-3913
66,⿰	-3914
_4	-3915
5·⿰	-3916
⿰⿱⿳	-3917
1935	-3918
,⿸⿸	-3919
sch	-3920
▁1925	-3921
▁1912	-3922
del	-3923
▁1924	-3924
ari	-3925
ase	-3926
72	-3927
𠂊冫寸水	-3928
67	-3929
1951	-3930
口里	-3931
ero	-3932
⿱⿶	-3933
,2004	-3934
1⿱⿱	-3935
rich	-3936
cu	-3937
avid	-3938
▁system	-3939
幺月	-3940
幺月乚	-3941
8⿱⿱	-3942
,11	-3943
let	-3944
50⿰	-3945
ker	-3946
ition	-3947
月土	-3948
王厶	-3949
'	-3950
:""	-3951
讠隹	-3952
way	-3953
0⿱⿱	-3954
1933	-3955
甘阝	-3956
覀土瓦	-3957
12⿱	-3958
asa	-3959
lat	-3960
礻阝	-3961
▁+	-3962
豸艮土	-3963
▁tra	-3964
▁we	-3965
1999	-3966
50⿰	-3967
lass	-3968
,⿱⿹	-3969
gi	-3970
舟白	-3971
att	-3972
广户	-3973
氵末	-3974
㇇⿺	-3975
㡀攵廾	-3976
ano	-3977
mr	-3978
、、	-3979
月女	-3980
1929	-3981
纟丩	-3982
utc	-3983
800	-3984
氵斤	-3985
28⿱	-3986
扌末	-3987
bor	-3988
𠂇火皿	-3989
9⿻	-3990
日隹	-3991
彐一八车	-3992
8661⿹	-3993
,“	-3994
tp	-3995
ose	-3996
▁pa	-3997
1⿱⿰⿱	-3998
nor	-3999
宀龙	-4000
73	-4001
,2016	-4002
itt	-4003
illa	-4004
8665⿱⿴	-4005
5⿵	-4006
19⿰	-4007
web	-4008
62	-4009
一廾阝	-4010
2002	-4011
cer	-4012
:00⿰	-4013
亠口了灬	-4014
▁1919	-4015
氵心	-4016
iso	-4017
pet	-4018
;⿹	-4019
▁mon	-4020
▁21	-4021
『⿱	-4022
fran	-4023
▁⿱⿱⿰	-4024
27⿱	-4025
,0	-4026
ju	-4027
门文	-4028
ini	-4029
"。	-4030
·⿰⿳	-4031
mus	-4032
丷夫目	-4033
▁love	-4034
//	-4035
▁live	-4036
cs	-4037
竹立	-4038
▁1922	-4039
⺌冖口牙	-4040
600	-4041
_5	-4042
贝长	-4043
艹甘	-4044
ise	-4045
ray	-4046
ス工页	-4047
火頁	-4048
雨文	-4049
ans	-4050
▁music	-4051
||0	-4052
5⿱⿻	-4053
port	-4054
,⿱⿰⿻	-4055
por	-4056
,⿰⿱⿱	-4057
hone	-4058
,7	-4059
79	-4060
⿳⿲	-4061
阝龙	-4062
uch	-4063
18⿱	-4064
pen	-4065
▁1917	-4066
dd	-4067
月夫	-4068
uth	-4069
96	-4070
𠂇口心	-4071
que	-4072
ject	-4073
25⿰	-4074
eed	-4075
ich	-4076
4⿸	-4077
120⿱	-4078
》,⿱	-4079
」,⿱	-4080
1931	-4081
66⿰⿱⿱	-4082
,8	-4083
ream	-4084
▁子	-4085
▁未	-4086
bl	-4087
▁牛	-4088
▁my	-4089
冂口月	-4090
university	-4091
木更	-4092
17⿱	-4093
char	-4094
8661⿳	-4095
金隹	-4096
▁甘	-4097
ces	-4098
uro	-4099
、⿰⿻	-4100
》、《⿻	-4101
▁can	-4102
、⿱⿶⿱⿰	-4103
▁发	-4104
,⿰⿵	-4105
0。	-4106
1934	-4107
、《	-4108
》,⿸	-4109
8661,⿱	-4110
12⿰	-4111
丬夕水	-4112
」,⿺	-4113
▁1918	-4114
丷十	-4115
bra	-4116
21⿰	-4117
心心	-4118
一龰匕	-4119
「⿱⿱⿱	-4120
匕禾页	-4121
九力	-4122
des	-4123
⿰⿱⿹	-4124
▁per	-4125
,6	-4126
166	-4127
立十玉	-4128
1/	-4129
氵夕	-4130
eal	-4131
ink	-4132
▁wh	-4133
』⿰	-4134
ene	-4135
166	-4136
▁ass	-4137
1932	-4138
af	-4139
▁km	-4140
xy	-4141
bal	-4142
」、「	-4143
自木	-4144
urn	-4145
40⿰	-4146
⿰⿹⿶	-4147
言乍	-4148
八厶页	-4149
▁pre	-4150
,3	-4151
山我	-4152
ank	-4153
3、	-4154
pu	-4155
tvb	-4156
里儿土	-4157
《》⿱	-4158
巾长	-4159
「⿳⿱	-4160
22⿰	-4161
、⿻⿺	-4162
android	-4163
://	-4164
tre	-4165
▁《⿸	-4166
▁all	-4167
2、	-4168
▁group	-4169
ey	-4170
wh	-4171
uk	-4172
15⿰	-4173
ava	-4174
1、	-4175
mc	-4176
𠂎卩	-4177
ric	-4178
𠂊小心	-4179
、⿻㇀	-4180
2000⿱	-4181
未攵	-4182
一止心	-4183
78	-4184
▁1923	-4185
1914	-4186
▁1901	-4187
▁enter	-4188
,⿱⿶⿳⿰	-4189
microsoft	-4190
羊丑	-4191
虫丰	-4192
、⿱⿰	-4193
田皿頁	-4194
110	-4195
,2017	-4196
5⿸	-4197
ium	-4198
las	-4199
1⿸	-4200
par	-4201
▁up	-4202
87	-4203
1918	-4204
、⿺	-4205
5⿰⿱	-4206
▁1909	-4207
▁1921	-4208
ugh	-4209
86	-4210
32⿱	-4211
▁1911	-4212
nhk	-4213
lack	-4214
,4	-4215
虍文	-4216
21⿱	-4217
彑氺刂	-4218
cial	-4219
》⿶⿳⿰	-4220
py	-4221
灬也	-4222
木乚糸	-4223
5⿱⿰	-4224
ena	-4225
65⿱	-4226
1922	-4227
酉鬼	-4228
、19	-4229
98	-4230
xbox	-4231
van	-4232
,⿻㇀	-4233
▁play	-4234
ute	-4235
23⿰	-4236
inal	-4237
super	-4238
▁sch	-4239
厂犬	-4240
日立	-4241
甲一阝	-4242
▁179	-4243
1912	-4244
月长	-4245
16⿱	-4246
▁mag	-4247
·⿸⿸	-4248
ier	-4249
6⿰⿱	-4250
》,⿰⿱	-4251
3。	-4252
、"	-4253
▁os	-4254
阝人土	-4255
》,⿱⿱	-4256
、21	-4257
code	-4258
⿰⿱⿰⿱	-4259
亻朱	-4260
石水	-4261
ild	-4262
tri	-4263
▁us	-4264
1:	-4265
▁1914	-4266
ref	-4267
5·⿱	-4268
119	-4269
▁part	-4270
erica	-4271
亠口子丸土	-4272
门柬	-4273
ane	-4274
」,⿰	-4275
83	-4276
1928	-4277
win	-4278
wal	-4279
,2003	-4280
日十戈	-4281
32⿰	-4282
1927	-4283
ec	-4284
yn	-4285
口比	-4286
ital	-4287
rans	-4288
66,⿱	-4289
48⿱	-4290
》,⿰	-4291
▁180	-4292
木矛木	-4293
▁bar	-4294
mg	-4295
gon	-4296
〢又月	-4297
冂人禸	-4298
㇇⿱⿱	-4299
5⿸	-4300
𠂊冫寸酉	-4301
1924	-4302
非车	-4303
钅隹	-4304
air	-4305
▁air	-4306
:⿱⿰	-4307
1900	-4308
5⿰⿸	-4309
▁183	-4310
1919	-4311
钅月	-4312
」;	-4313
,2000	-4314
▁county	-4315
ios	-4316
𠘧又石	-4317
,⿶⿳⿰	-4318
chael	-4319
vol	-4320
▁art	-4321
aa	-4322
▁are	-4323
▁cl	-4324
▁gen	-4325
▁甲	-4326
夂卜口	-4327
▁1913	-4328
4⿰⿱	-4329
八刀山	-4330
爿女	-4331
《》。	-4332
97	-4333
▁des	-4334
,⿱⿵⿵	-4335
3000	-4336
iphone	-4337
bn	-4338
饣几	-4339
ual	-4340
ings	-4341
ution	-4342
▁colle	-4343
艹内	-4344
11⿰	-4345
1998	-4346
弋心	-4347
木果	-4348
sur	-4349
00	-4350
180	-4351
、⿳	-4352
ast	-4353
:'	-4354
8661⿱⿻	-4355
、《⿰	-4356
艹斤	-4357
",⿰	-4358
gue	-4359
hel	-4360
mun	-4361
{⿱⿻	-4362
⿱⿻⿻	-4363
1917	-4364
》⿵	-4365
糸言糸虫	-4366
mk	-4367
▁入	-4368
、⿹	-4369
13⿱	-4370
enn	-4371
,2018	-4372
口米	-4373
!」	-4374
60⿰	-4375
logy	-4376
46⿰⿱	-4377
%⿸	-4378
㇇⿴	-4379
8661⿱⿲	-4380
コ儿	-4381
白コ儿	-4382
61	-4383
form	-4384
,⿱⿵	-4385
zo	-4386
▁'	-4387
vin	-4388
!⿰	-4389
1925	-4390
▁el	-4391
itter	-4392
革巴	-4393
宀八弓	-4394
gy	-4395
any	-4396
bel	-4397
:30⿰	-4398
木矛木心	-4399
一儿	-4400
▁that	-4401
,⿺⿱	-4402
、1	-4403
1921	-4404
▁q	-4405
山甲	-4406
丿丿皿	-4407
▁not	-4408
saint	-4409
ns	-4410
xx	-4411
82	-4412
▁stu	-4413
5⿱⿱⿱	-4414
david	-4415
_6	-4416
》⿸	-4417
ス工力	-4418
木冘	-4419
竹二	-4420
11⿱	-4421
gar	-4422
几丶革	-4423
》⿹	-4424
1997	-4425
ave	-4426
▁day	-4427
fs	-4428
谷欠心	-4429
▁bea	-4430
竹目大厶	-4431
「⿵⿰	-4432
ky	-4433
30⿰	-4434
84	-4435
女女	-4436
ese	-4437
·⿰⿷	-4438
▁from	-4439
dj	-4440
5⿰⿱	-4441
戈十口	-4442
工水	-4443
act	-4444
8⿸	-4445
▁par	-4446
𠂇工月土	-4447
▁2020	-4448
《⿱⿱⿱	-4449
8960⿰⿱⿱	-4450
48⿰	-4451
gin	-4452
work	-4453
「⿺⿱	-4454
william	-4455
:⿸	-4456
rna	-4457
30⿱	-4458
46⿱	-4459
5,⿰	-4460
fr	-4461
大十	-4462
700	-4463
lect	-4464
木隶	-4465
kar	-4466
▁⿵⿱	-4467
game	-4468
lude	-4469
》⿱⿻	-4470
++	-4471
▁ge	-4472
off	-4473
itch	-4474
▁gu	-4475
▁lin	-4476
1910	-4477
3000⿱	-4478
36⿱	-4479
600⿱	-4480
ww	-4481
▁⿺⿵	-4482
81	-4483
oricon	-4484
ura	-4485
1,0	-4486
8665⿰⿹	-4487
uri	-4488
▁dis	-4489
31⿱	-4490
ef	-4491
pop	-4492
扌予	-4493
33⿱	-4494
kg	-4495
衤彡	-4496
inst	-4497
豆寸	-4498
sky	-4499
▁⿰⿵	-4500
▁gir	-4501
攵灬	-4502
ama	-4503
▁ce	-4504
0⿰	-4505
𠂊彐攵灬	-4506
1923	-4507
gdp	-4508
top	-4509
▁jo	-4510
▁recor	-4511
16⿰	-4512
8⿺	-4513
_10	-4514
unt	-4515
29⿱	-4516
父卩	-4517
66⿴	-4518
▁pri	-4519
,15	-4520
8661⿰⿱⿹	-4521
4。	-4522
17⿰	-4523
vie	-4524
、⿰⿱⿹	-4525
▁was	-4526
ico	-4527
▁30	-4528
氵弗	-4529
火巨	-4530
钅甲	-4531
lam	-4532
:,	-4533
3⿱⿱	-4534
」⿱⿰	-4535
▁⿱⿶⿳⿰	-4536
1926	-4537
、《⿱	-4538
6⿸	-4539
apan	-4540
火火冖玉	-4541
▁pl	-4542
250	-4543
》,	-4544
wan	-4545
未攵厂里	-4546
》,⿺	-4547
_7	-4548
div	-4549
▁ad	-4550
38⿱	-4551
"|	-4552
14⿰	-4553
ado	-4554
十豆口灬	-4555
wi	-4556
一也	-4557
ond	-4558
▁"⿰	-4559
▁inc	-4560
亡女	-4561
父斤	-4562
:⿳	-4563
live	-4564
8⿰⿱	-4565
礻乍	-4566
金金	-4567
▁tv	-4568
凵丨阝	-4569
⿸⿱⿰	-4570
10⿱⿱	-4571
冫东	-4572
口夫艮	-4573
iu	-4574
辶豆	-4575
55⿱	-4576
又艮	-4577
止止	-4578
𠁣𠃛文	-4579
ement	-4580
艹朱	-4581
虫我	-4582
女口心	-4583
》、《⿱⿱	-4584
tainment	-4585
▁du	-4586
mark	-4587
bit	-4588
▁im	-4589
00⿱⿱	-4590
小土	-4591
18⿰	-4592
ike	-4593
1911	-4594
4、	-4595
ita	-4596
berg	-4597
:“⿺	-4598
▁international	-4599
orge	-4600
▁comm	-4601
pol	-4602
,⿸⿱	-4603
500⿰	-4604
;⿱⿱⿱	-4605
ren	-4606
▁et	-4607
6,	-4608
▁1916	-4609
▁star	-4610
5。	-4611
火页	-4612
26⿰	-4613
,1998	-4614
lock	-4615
press	-4616
▁university	-4617
ism	-4618
cher	-4619
ning	-4620
cation	-4621
,⿰⿳	-4622
40⿰	-4623
▁ea	-4624
130	-4625
》⿹⿶	-4626
▁1903	-4627
fm	-4628
177	-4629
san	-4630
gg	-4631
▁且	-4632
▁几	-4633
火土	-4634
▁he	-4635
93	-4636
ctor	-4637
irst	-4638
车干	-4639
ford	-4640
㇇,⿰	-4641
undam	-4642
250⿱	-4643
礻也	-4644
▁</	-4645
800⿱	-4646
、⿱⿱⿰	-4647
pm	-4648
ret	-4649
⿱⿰⿹	-4650
71	-4651
▁app	-4652
hu	-4653
2⿱⿱	-4654
▁1915	-4655
1913	-4656
1915	-4657
sam	-4658
war	-4659
9⿰⿱	-4660
▁fran	-4661
1/	-4662
1200	-4663
pg	-4664
▁[[	-4665
▁1905	-4666
ala	-4667
▁⿶	-4668
ben	-4669
ibm	-4670
sar	-4671
木木毛	-4672
▁《⿱⿰	-4673
「⿰⿱⿱	-4674
sg	-4675
50⿱	-4676
ily	-4677
▁||	-4678
2:	-4679
》《	-4680
7⿰⿱	-4681
、⿱⿲	-4682
include	-4683
▁entertainment	-4684
人斗	-4685
900	-4686
1990	-4687
ange	-4688
2⿸	-4689
金柬	-4690
8⿰⿱	-4691
ald	-4692
big	-4693
▁gra	-4694
ville	-4695
金丑	-4696
ula	-4697
、3	-4698
1995	-4699
▁ver	-4700
竹本	-4701
ump	-4702
reet	-4703
,000⿱⿱	-4704
_13	-4705
vir	-4706
ator	-4707
mel	-4708
ord	-4709
▁net	-4710
女方	-4711
求衣	-4712
石夕	-4713
罒方	-4714
key	-4715
1994	-4716
ross	-4717
▁专	-4718
土文	-4719
;⿱⿰⿴	-4720
虍隹	-4721
言朱	-4722
0⿹	-4723
凵丨隹	-4724
《》⿻	-4725
,2	-4726
ev	-4727
asc	-4728
▁mi	-4729
nh	-4730
▁、	-4731
丹彡	-4732
𠁣𠃛木	-4733
𠂊田一里	-4734
▁⿹⿻	-4735
𠂊彐阝	-4736
」,⿴	-4737
▁inst	-4738
⿰⿷	-4739
gan	-4740
tom	-4741
92	-4742
146	-4743
10⿰⿱	-4744
uss	-4745
nd	-4746
臣又豆	-4747
:⿴	-4748
75⿱	-4749
1916	-4750
▁来	-4751
氵木	-4752
0⿳	-4753
mal	-4754
94	-4755
:⿹	-4756
comp	-4757
▁cen	-4758
:“⿸	-4759
michael	-4760
>⿰	-4761
bm	-4762
▁飛	-4763
禾几	-4764
ken	-4765
66⿰⿹	-4766
under	-4767
▁games	-4768
5、	-4769
白七	-4770
▁tech	-4771
,《⿰⿱	-4772
1905	-4773
ov	-4774
tc	-4775
med	-4776
ple	-4777
:《	-4778
unix	-4779
⿰⿰⿴	-4780
,000⿻	-4781
▁park	-4782
gl	-4783
bro	-4784
dis	-4785
〢又立	-4786
only	-4787
ript	-4788
▁her	-4789
▁htt	-4790
▁mat	-4791
,20	-4792
《⿰⿸	-4793
▁high	-4794
礻必	-4795
",⿱	-4796
0⿺	-4797
mor	-4798
pri	-4799
𠂊田灬屯	-4800
▁em	-4801
34⿱	-4802
1908	-4803
cpu	-4804
ony	-4805
html	-4806
160	-4807
1907	-4808
▁award	-4809
><	-4810
_12	-4811
▁su	-4812
、、⿰	-4813
robert	-4814
言柬	-4815
》⿰⿱	-4816
》、	-4817
0⿱⿰⿱	-4818
open	-4819
37⿱	-4820
5000⿱	-4821
atp	-4822
hal	-4823
1996	-4824
5%	-4825
日大日	-4826
7⿸	-4827
cast	-4828
▁177	-4829
《⿳⿱	-4830
央皿	-4831
虫文	-4832
reg	-4833
sco	-4834
田八夂	-4835
91	-4836
ella	-4837
ship	-4838
type	-4839
▁spe	-4840
erson	-4841
讠柬	-4842
21⿰	-4843
bas	-4844
fri	-4845
▁心	-4846
hen	-4847
▁40	-4848
1992	-4849
▁bro	-4850
urt	-4851
千口刂	-4852
140	-4853
fl	-4854
110	-4855
day	-4856
sen	-4857
金丁	-4858
·⿲	-4859
,⿱⿰⿸	-4860
8661⿰⿸	-4861
阝禺	-4862
cat	-4863
lace	-4864
▁war	-4865
42⿱	-4866
·⿸⿱	-4867
light	-4868
;⿱⿰⿸	-4869
▁手	-4870
ubl	-4871
unes	-4872
ensis	-4873
,1997	-4874
urs	-4875
」⿵	-4876
love	-4877
48⿱	-4878
6、	-4879
讠朱	-4880
7⿰⿱	-4881
cle	-4882
105	-4883
60⿰	-4884
mited	-4885
亻鬼	-4886
era	-4887
▁bu	-4888
2⿱⿰⿱	-4889
part	-4890
28⿰	-4891
,⿰⿸	-4892
osa	-4893
ball	-4894
「⿰⿸	-4895
ritic	-4896
twitter	-4897
ont	-4898
,⿱⿰⿴	-4899
𠂉一罒金	-4900
wo	-4901
氵且	-4902
氵目	-4903
耒禺	-4904
25⿰	-4905
mag	-4906
ney	-4907
reen	-4908
pat	-4909
700	-4910
1906	-4911
▁川	-4912
龙土	-4913
rew	-4914
46⿱	-4915
▁super	-4916
木巨	-4917
/10	-4918
·⿴	-4919
tive	-4920
▁res	-4921
丷干丸土	-4922
,1999	-4923
=	-4924
19⿱	-4925
5000	-4926
▁片	-4927
▁角	-4928
oro	-4929
ull	-4930
⿻⿹	-4931
,1990	-4932
cra	-4933
ons	-4934
㐅朩刂	-4935
free	-4936
27⿰	-4937
:「⿰⿱	-4938
氵立	-4939
120	-4940
cis	-4941
omas	-4942
700⿱	-4943
朿⺀	-4944
eat	-4945
vid	-4946
、2	-4947
java	-4948
「⿸⿸	-4949
[[	-4950
gt	-4951
▁乐	-4952
▁曲	-4953
扌乃	-4954
www	-4955
▁」。	-4956
木木非	-4957
1,000	-4958
gh	-4959
口肃	-4960
sta	-4961
▁80	-4962
」⿰⿱	-4963
扌丸土	-4964
5,⿱	-4965
10⿸	-4966
1500	-4967
,1996	-4968
130	-4969
nat	-4970
duction	-4971
忄束	-4972
ami	-4973
人彡戈	-4974
vice	-4975
▁har	-4976
1,5	-4977
「」⿰	-4978
ander	-4979
▁john	-4980
113	-4981
丿廾土	-4982
▁del	-4983
▁val	-4984
「⿱⿰⿱	-4985
acritic	-4986
_8	-4987
▁;	-4988
艹巨	-4989
isa	-4990
王王比	-4991
1904	-4992
1909	-4993
:⿺	-4994
艹甫	-4995
釆由	-4996
ath	-4997
fin	-4998
44⿱	-4999
:⿻	-5000
112	-5001
bus	-5002
ves	-5003
王王巴	-5004
▁boy	-5005
intel	-5006
▁time	-5007
▁⿱⿰⿱⿱	-5008
200⿰	-5009
8661⿱⿱⿱	-5010
19⿰	-5011
den	-5012
oci	-5013
sr	-5014
比土	-5015
示示	-5016
:⿵	-5017
:「⿺	-5018
▁tour	-5019
christ	-5020
nu	-5021
」,	-5022
口肅	-5023
山谷	-5024
ake	-5025
vent	-5026
㇇,⿱	-5027
james	-5028
7,	-5029
very	-5030
ou	-5031
_1⿰	-5032
sun	-5033
宀丰口谷	-5034
》、《⿸	-5035
▁college	-5036
osh	-5037
丬夕酉	-5038
ling	-5039
、1⿱	-5040
,⿰⿱⿴	-5041
,⿱⿳𭕄	-5042
40⿱	-5043
▁50	-5044
gram	-5045
unicode	-5046
▁巨	-5047
阝井	-5048
fox	-5049
《⿰⿱⿱	-5050
▁records	-5051
ji	-5052
一攵	-5053
石石	-5054
隹十	-5055
%⿱⿱	-5056
lue	-5057
mas	-5058
ora	-5059
out	-5060
囗口禾	-5061
▁act	-5062
nt	-5063
氵及	-5064
150	-5065
abc	-5066
eta	-5067
lex	-5068
8⿸	-5069
ates	-5070
earch	-5071
▁road	-5072
▁japan	-5073
27⿱	-5074
bil	-5075
itz	-5076
wii	-5077
▁wal	-5078
39⿱	-5079
apple	-5080
木甘	-5081
29⿱	-5082
6⿰⿱	-5083
▁⿱⿵	-5084
!⿱	-5085
cket	-5086
▁1910	-5087
ql	-5088
sl	-5089
木丂	-5090
"、"	-5091
mod	-5092
1991	-5093
1993	-5094
eral	-5095
》⿰⿸	-5096
vd	-5097
oto	-5098
▁tr	-5099
8⿱⿰⿱	-5100
▁show	-5101
""	-5102
扌止	-5103
艹鬼	-5104
pan	-5105
▁es	-5106
一丂頁	-5107
alex	-5108
chem	-5109
ring	-5110
▁city	-5111
8665⿴	-5112
,1995	-5113
▁street	-5114
7、	-5115
氵发	-5116
耳心	-5117
阝皮	-5118
,“⿰	-5119
15⿱	-5120
dom	-5121
▁1906	-5122
户攵口	-5123
▁lea	-5124
5⿱⿱	-5125
▁club	-5126
kh	-5127
月工	-5128
金内	-5129
ada	-5130
▁25	-5131
1,3	-5132
7。	-5133
竹生	-5134
25⿱	-5135
chi	-5136
』⿱	-5137
,"	-5138
orn	-5139
ous	-5140
sal	-5141
⿱⿳𭕄	-5142
▁associ	-5143
kin	-5144
cate	-5145
show	-5146
66⿱⿰	-5147
8661⿱⿰⿱	-5148
▁limited	-5149
丬女	-5150
cla	-5151
、⿴	-5152
言内	-5153
1⿱⿱	-5154
▁vo	-5155
匚隹	-5156
木鬼	-5157
mtv	-5158
tal	-5159
千口自心	-5160
、⿱⿹	-5161
">	-5162
clo	-5163
dra	-5164
▁ber	-5165
its	-5166
ten	-5167
▁fi	-5168
丿皿乑	-5169
▁out	-5170
,1992	-5171
艹于	-5172
▁1900	-5173
0,	-5174
get	-5175
lea	-5176
tel	-5177
▁er	-5178
mith	-5179
,1950	-5180
,⿱⿰⿱⿱	-5181
cv	-5182
gs	-5183
die	-5184
ral	-5185
,《⿻	-5186
》、⿰	-5187
▁1908	-5188
80⿰	-5189
ius	-5190
vic	-5191
able	-5192
ents	-5193
paul	-5194
丿丿丶心	-5195
52⿱	-5196
8。	-5197
人示	-5198
ban	-5199
ety	-5200
5⿵⿵	-5201
kb	-5202
纟申	-5203
讠乍	-5204
time	-5205
▁life	-5206
『⿰	-5207
广里	-5208
▁cd	-5209
𠂉大隹	-5210
“⿱⿱⿱	-5211
、⿱⿰⿷	-5212
101	-5213
dar	-5214
;⿳	-5215
▁com	-5216
160⿱	-5217
metacritic	-5218
rt	-5219
yu	-5220
口永	-5221
85⿱	-5222
▁lu	-5223
▁⿻⿻	-5224
1945	-5225
mont	-5226
弓丨丿刂	-5227
35⿰	-5228
360	-5229
_9	-5230
gp	-5231
24⿰	-5232
⿱⿻⿹	-5233
ista	-5234
▁class	-5235
,1994	-5236
eration	-5237
ob	-5238
氵于	-5239
pal	-5240
sim	-5241
db	-5242
▁da	-5243
目八力	-5244
,⿶	-5245
▁this	-5246
▁media	-5247
onlyinclude	-5248
"⿸	-5249
ye	-5250
▁申	-5251
木己	-5252
{⿸⿸	-5253
reat	-5254
▁fil	-5255
64⿱	-5256
men	-5257
▁《⿺	-5258
1,4	-5259
1901	-5260
;⿰⿱⿱	-5261
8960⿻	-5262
zy	-5263
fla	-5264
5⿱⿴	-5265
▁hall	-5266
:“⿱⿱	-5267
erican	-5268
▁house	-5269
lc	-5270
日文	-5271
nbc	-5272
110⿱	-5273
cus	-5274
8⿱⿰	-5275
▁mac	-5276
▁ter	-5277
火言	-5278
金屯	-5279
▁ag	-5280
▁ta	-5281
士冖业	-5282
350	-5283
▁char	-5284
竹干	-5285
5⿱⿳	-5286
bon	-5287
𠘧又金	-5288
29⿰	-5289
8661,	-5290
8665⿵⿰	-5291
▁national	-5292
3⿸	-5293
日未	-5294
火又	-5295
5⿱⿱	-5296
kbs	-5297
口龶阝	-5298
》;	-5299
▁pol	-5300
▁tri	-5301
:19	-5302
130⿱	-5303
,1985	-5304
colspan	-5305
爫寸	-5306
艹止	-5307
rat	-5308
▁2⿱	-5309
月刂灬	-5310
bill	-5311
mann	-5312
𡗗臼	-5313
dos	-5314
lie	-5315
mad	-5316
map	-5317
ota	-5318
丷干臼	-5319
8,	-5320
idth	-5321
⿱⿱⿴⿱	-5322
丿囗㐅儿	-5323
火言火又	-5324
,13	-5325
《⿵⿰	-5326
𠂊冫寸木	-5327
1895	-5328
,1993	-5329
ach	-5330
·⿵	-5331
737	-5332
、⿱⿴	-5333
▁1904	-5334
,1991	-5335
,2019	-5336
rey	-5337
sing	-5338
urus	-5339
viro	-5340
▁center	-5341
1%	-5342
▁—	-5343
禾儿	-5344
eep	-5345
ery	-5346
▁22	-5347
0,⿰	-5348
56⿱	-5349
black	-5350
▁name	-5351
土丹	-5352
金巨	-5353
ors	-5354
ited	-5355
team	-5356
▁eng	-5357
▁exp	-5358
cience	-5359
"⿻	-5360
kw	-5361
14⿱	-5362
:⿱⿰	-5363
』。	-5364
牛冂刂手	-5365
angel	-5366
▁1907	-5367
⿰⿱⿱⿱	-5368
gundam	-5369
8%	-5370
▁pe	-5371
43⿱	-5372
4000	-5373
23⿰	-5374
▁24	-5375
▁met	-5376
106	-5377
107	-5378
⿺⿱⿱	-5379
,⿱⿱⿻	-5380
140⿱	-5381
匕水	-5382
bri	-5383
eet	-5384
9⿸	-5385
stra	-5386
▁min	-5387
▁van	-5388
▁⿱⿱⿻	-5389
·⿱⿴	-5390
》、⿱	-5391
0⿶⿳⿰	-5392
rs	-5393
pha	-5394
▁⿱⿺	-5395
3:	-5396
high	-5397
/⿰⿱	-5398
、⿵⿱	-5399
ku	-5400
ded	-5401
ova	-5402
arch	-5403
wood	-5404
▁med	-5405
▁best	-5406
▁open	-5407
1903	-5408
,1986	-5409
hp	-5410
rpm	-5411
gory	-5412
rick	-5413
▁end	-5414
▁san	-5415
、《⿰	-5416
6%	-5417
钅垂	-5418
▁60	-5419
comm	-5420
▁bas	-5421
101	-5422
170	-5423
47⿱	-5424
:「⿸	-5425
▁sing	-5426
1500⿱	-5427
cf	-5428
木册	-5429
bin	-5430
not	-5431
thy	-5432
rand	-5433
urch	-5434
▁ltd	-5435
,189	-5436
钅丁	-5437
亠田久	-5438
、5	-5439
elle	-5440
108	-5441
《⿱⿰⿱	-5442
,1983	-5443
勹二	-5444
1、	-5445
》⿴	-5446
1890	-5447
20⿱⿱	-5448
ei	-5449
aut	-5450
mil	-5451
roy	-5452
bour	-5453
west	-5454
music	-5455
▁dist	-5456
>⿱	-5457
金由	-5458
100⿱	-5459
「⿱⿻	-5460
饣我	-5461
,⿰⿻	-5462
mes	-5463
http	-5464
ress	-5465
,1984	-5466
▁company	-5467
,18	-5468
sbs	-5469
sir	-5470
一兀頁	-5471
ids	-5472
一大虫	-5473
mart	-5474
》、《⿱⿰	-5475
束欠	-5476
钅由	-5477
:15	-5478
▁jr	-5479
禾火心	-5480
、4	-5481
0,⿱	-5482
,1⿱	-5483
220	-5484
36⿰	-5485
▁乙	-5486
8。	-5487
1913	-5488
103	-5489
116	-5490
5⿶⿳⿰	-5491
orts	-5492
▁iii	-5493
20⿸	-5494
board	-5495
,1980	-5496
川一	-5497
cbs	-5498
tim	-5499
▁"⿱	-5500
30⿸	-5501
ional	-5502
▁1895	-5503
1899	-5504
,1988	-5505
」、「⿰⿱	-5506
▁association	-5507
146	-5508
9⿰⿱	-5509
eau	-5510
{⿰⿱	-5511
attle	-5512
/3	-5513
4%	-5514
女户	-5515
而女	-5516
艹末	-5517
_15	-5518
tur	-5519
cade	-5520
▁der	-5521
▁nor	-5522
6⿱⿱	-5523
power	-5524
▁kong	-5525
⿱⿰⿻⿱	-5526
+1	-5527
▁飞	-5528
cas	-5529
人目又	-5530
cctv	-5531
less	-5532
,14	-5533
▁game	-5534
“⿰⿱⿱	-5535
charles	-5536
richard	-5537
角斗	-5538
钅里	-5539
_11	-5540
_14	-5541
une	-5542
115	-5543
12⿸	-5544
、2⿱	-5545
field	-5546
hs	-5547
116	-5548
ali	-5549
▁pr	-5550
▁ty	-5551
丿丿刂	-5552
4⿱⿱	-5553
85⿱	-5554
bsd	-5555
spe	-5556
ule	-5557
⿸⿸⿸	-5558
06	-5559
09	-5560
▁bra	-5561
41⿱	-5562
▁mark	-5563
1870	-5564
1898	-5565
止自	-5566
lon	-5567
oss	-5568
巳八夂	-5569
ated	-5570
▁wat	-5571
104	-5572
▁team	-5573
止自巳八夂	-5574
11⿰⿱	-5575
1860	-5576
enviro	-5577
▁power	-5578
13⿰	-5579
,⿱⿰⿷	-5580
▁google	-5581
ato	-5582
bre	-5583
子皿力	-5584
▁mod	-5585
▁⿱⿰⿻	-5586
《⿲㇇	-5587
」,⿹	-5588
3%	-5589
api	-5590
mbc	-5591
uis	-5592
▁sw	-5593
女又弓	-5594
5⿵⿰	-5595
:“⿰⿱	-5596
george	-5597
▁first	-5598
▁codice	-5599
;⿸	-5600
gm	-5601
pn	-5602
金垂	-5603
gam	-5604
58⿱	-5605
annel	-5606
1896	-5607
,1949	-5608
7%	-5609
115	-5610
ati	-5611
ira	-5612
125	-5613
2》⿰	-5614
、⿱⿰⿻	-5615
category	-5616
》⿺	-5617
","	-5618
,“⿱	-5619
oph	-5620
▁4⿰	-5621
bile	-5622
109	-5623
/2	-5624
土斤	-5625
木戋	-5626
矛攵	-5627
艮心	-5628
ria	-5629
《"	-5630
core	-5631
53⿱	-5632
、《⿱	-5633
6。	-5634
白鬼	-5635
mid	-5636
▁2⿰	-5637
ridge	-5638
itunes	-5639
50⿻	-5640
66⿲	-5641
66⿵	-5642
eart	-5643
nasa	-5644
▁vol	-5645
istat	-5646
1902	-5647
,1987	-5648
▁christ	-5649
9。	-5650
zz	-5651
石申	-5652
cil	-5653
𠘧又木	-5654
well	-5655
▁mor	-5656
2%	-5657
los	-5658
force	-5659
忄鬼	-5660
000⿻	-5661
66⿳	-5662
ures	-5663
▁100	-5664
54⿱	-5665
57⿱	-5666
,⿳⿱	-5667
amd	-5668
dire	-5669
31⿰	-5670
33⿰	-5671
“⿺⿱	-5672
「」。	-5673
117	-5674
87⿱	-5675
▁pet	-5676
1,7	-5677
15⿸	-5678
fli	-5679
lia	-5680
view	-5681
》⿱⿰	-5682
21、21	-5683
▁1898	-5684
pv	-5685
▁瓜	-5686
gal	-5687
,。	-5688
ince	-5689
sony	-5690
11⿸	-5691
ission	-5692
弓米	-5693
更生	-5694
dan	-5695
tin	-5696
弓米弓	-5697
rown	-5698
▁bus	-5699
▁von	-5700
1,6	-5701
64⿰	-5702
、10	-5703
world	-5704
▁free	-5705
180⿱	-5706
1897	-5707
ication	-5708
▁口	-5709
黑攵	-5710
hol	-5711
angu	-5712
▁hot	-5713
山一黑攵	-5714
▁trans	-5715
|	-5716
cap	-5717
sum	-5718
wat	-5719
▁ant	-5720
,⿺⿻	-5721
1,9	-5722
128	-5723
8、	-5724
114	-5725
tem	-5726
▁23	-5727
rock	-5728
▁may	-5729
51⿱	-5730
𠂊田一刂	-5731
oseph	-5732
peter	-5733
▁1902	-5734
火田	-5735
nes	-5736
▁3⿰	-5737
▁《⿵	-5738
02	-5739
9,	-5740
▁mic	-5741
,2⿱	-5742
,⿻⿺	-5743
34⿰	-5744
:“⿻	-5745
300⿰	-5746
og	-5747
』⿰	-5748
一乚	-5749
_16	-5750
ddf	-5751
ict	-5752
ile	-5753
olf	-5754
tbs	-5755
▁1⿱	-5756
一乚丶	-5757
“"	-5758
fice	-5759
》《⿰	-5760
、⿱⿰⿸	-5761
▁william	-5762
革斤	-5763
cond	-5764
210	-5765
;⿸⿸	-5766
▁back	-5767
ations	-5768
钅丑	-5769
via	-5770
66⿹	-5771
49⿱	-5772
2⿰⿱⿱	-5773
▁store	-5774
65⿱	-5775
mot	-5776
usb	-5777
▁pat	-5778
▁⿰⿳⿱	-5779
66⿰⿸	-5780
囗甫	-5781
ceo	-5782
gnu	-5783
ida	-5784
口王阝	-5785
0⿱	-5786
"⿰⿱	-5787
45⿰	-5788
cg	-5789
rh	-5790
丷丨	-5791
18⿻	-5792
72⿱	-5793
900	-5794
、⿰⿵	-5795
「⿰⿳	-5796
ublic	-5797
1000⿰	-5798
2,000	-5799
艹艮	-5800
21⿻	-5801
26⿰	-5802
:45	-5803
ird	-5804
lis	-5805
㇇⿹	-5806
ally	-5807
tran	-5808
ving	-5809
▁rea	-5810
▁ste	-5811
▁night	-5812
,1982	-5813
扌弗	-5814
▁je	-5815
1989	-5816
▁mem	-5817
▁mer	-5818
▁⿱⿰⿸	-5819
⺌冖口衣	-5820
》,⿻	-5821
graph	-5822
space	-5823
1800	-5824
1⿰⿱⿱	-5825
▁techno	-5826
:⿳	-5827
of	-5828
『⿱	-5829
艹我	-5830
金甲	-5831
ffe	-5832
;⿵	-5833
」⿴	-5834
jack	-5835
▁west	-5836
犬犬	-5837
ele	-5838
1988	-5839
here	-5840
ural	-5841
▁but	-5842
▁⿱⿳𭕄	-5843
114	-5844
118	-5845
/⿰	-5846
tl	-5847
60⿱	-5848
dia	-5849
din	-5850
elf	-5851
2》	-5852
0、⿰	-5853
▁sea	-5854
,3⿱	-5855
kt	-5856
土于	-5857
zen	-5858
㇇⿳	-5859
艹冖玉	-5860
/⿹	-5861
1986	-5862
117	-5863
230	-5864
umber	-5865
▁承	-5866
米子	-5867
8⿴	-5868
bot	-5869
“⿰⿸	-5870
“⿱⿳	-5871
1200⿱	-5872
▁office	-5873
"⿹	-5874
nm	-5875
」⿻	-5876
忄斤	-5877
pos	-5878
▁http	-5879
,1979	-5880
氵兆	-5881
ext	-5882
亻隹月	-5883
八厶儿	-5884
▁ben	-5885
112	-5886
▁island	-5887
9%	-5888
bt	-5889
eg	-5890
日乍	-5891
目兆	-5892
80⿱	-5893
lee	-5894
▁max	-5895
丨丨比灬	-5896
:「⿱⿱	-5897
5·	-5898
77⿱	-5899
oli	-5900
▁500	-5901
13⿸	-5902
]]⿰	-5903
velop	-5904
ax	-5905
犭艮	-5906
86⿰	-5907
_17	-5908
1000	-5909
▁acc	-5910
450	-5911
——⿺	-5912
thomas	-5913
⿲⿱	-5914
厶廾	-5915
27⿰	-5916
_2⿰	-5917
4:	-5918
1987	-5919
66,	-5920
ival	-5921
rome	-5922
trol	-5923
uber	-5924
丿𠃌攵虫	-5925
113	-5926
unior	-5927
▁news	-5928
▁manag	-5929
4000⿱	-5930
▁instit	-5931
mir	-5932
yah	-5933
▁ac	-5934
▁ip	-5935
㐅乂玉	-5936
木丶刂	-5937
city	-5938
jean	-5939
tech	-5940
46⿰	-5941
、、⿱	-5942
」;⿰	-5943
▁micro	-5944
,8	-5945
言且	-5946
15⿻	-5947
ain	-5948
cur	-5949
raw	-5950
爿士大	-5951
▁sur	-5952
▁whi	-5953
▁⿱⿰⿷	-5954
》⿰⿳	-5955
▁king	-5956
14⿰⿱	-5957
1880	-5958
ampion	-5959
8665⿱⿰⿱	-5960
▁science	-5961
ao	-5962
口犬	-5963
bbs	-5964
ude	-5965
丷酉犬	-5966
人人攵	-5967
女口糸	-5968
ding	-5969
102	-5970
▁your	-5971
▁丘	-5972
贝戋	-5973
钅刂	-5974
;⿱⿱	-5975
arm	-5976
non	-5977
stu	-5978
▁26	-5979
《⿱⿲	-5980
:⿱⿱⿱	-5981
!!	-5982
2/	-5983
⺀火	-5984
亻两	-5985
木方	-5986
86⿱	-5987
nam	-5988
tar	-5989
var	-5990
𠂊⺀火	-5991
▁cap	-5992
▁wil	-5993
240	-5994
“⿸⿸	-5995
1,500	-5996
8661⿰⿱⿱	-5997
yg	-5998
日斤	-5999
2⿱⿱	-6000
㇇,	-6001
𠂇月土	-6002
▁reg	-6003
▁sim	-6004
、⿱⿱⿻	-6005
▁studio	-6006
木工	-6007
一兀页	-6008
、6	-6009
1948	-6010
1949	-6011
iucn	-6012
260	-6013
iller	-6014
▁1897	-6015
▁over	-6016
▁谷	-6017
毛毛	-6018
_18	-6019
emi	-6020
ros	-6021
,⿱⿰⿱	-6022
band	-6023
phil	-6024
▁adv	-6025
▁vis	-6026
129	-6027
38⿰	-6028
right	-6029
」⿰⿱⿱	-6030
,1945	-6031
,1989	-6032
:⿹	-6033
1,⿱	-6034
eee	-6035
丬夕木	-6036
囗口示	-6037
rive	-6038
thon	-6039
8⿱⿱	-6040
[[⿰	-6041
▁song	-6042
zi	-6043
乙水	-6044
20⿻	-6045
gbt	-6046
▁,⿸	-6047
艹冖火	-6048
500⿱	-6049
last	-6050
/⿱⿱	-6051
59⿱	-6052
ittle	-6053
13⿰⿱	-6054
30⿱⿱	-6055
50%⿰	-6056
0。	-6057
」⿺	-6058
氵朱	-6059
耳止	-6060
阝千	-6061
fre	-6062
▁fa	-6063
1980	-6064
▁166	-6065
▁don	-6066
80⿰	-6067
▁network	-6068
5⿹	-6069
pd	-6070
虫牙	-6071
▁3⿱	-6072
▁ear	-6073
280	-6074
||0||	-6075
vision	-6076
mt	-6077
rc	-6078
、9	-6079
丿乀	-6080
永日	-6081
ett	-6082
iko	-6083
ock	-6084
▁ve	-6085
⿴⿱	-6086
1985	-6087
fire	-6088
ness	-6089
side	-6090
sport	-6091
1885	-6092
▁project	-6093
kan	-6094
burg	-6095
chin	-6096
62⿱	-6097
1850	-6098
▁linux	-6099
international	-6100
厂人	-6101
口牙	-6102
cos	-6103
dor	-6104
rap	-6105
2⿻	-6106
、7	-6107
trans	-6108
▁have	-6109
5/	-6110
md	-6111
衤寸	-6112
衤末	-6113
cia	-6114
crh	-6115
zer	-6116
mary	-6117
ones	-6118
▁vir	-6119
37⿰	-6120
66⿱	-6121
747	-6122
▁river	-6123
lg	-6124
、⿵	-6125
85⿰	-6126
mos	-6127
ush	-6128
▁hy	-6129
1911	-6130
ison	-6131
48⿰	-6132
8665⿱⿹	-6133
ua	-6134
ui	-6135
▁久	-6136
001	-6137
10⿻	-6138
119	-6139
bay	-6140
tai	-6141
矛攵女	-6142
、0	-6143
chel	-6144
▁sal	-6145
龷由八阝	-6146
「⿵⿵	-6147
▁year	-6148
12⿱⿱	-6149
1889	-6150
lt	-6151
宀石	-6152
12⿻	-6153
omo	-6154
ops	-6155
ille	-6156
126	-6157
stein	-6158
12⿰⿱	-6159
master	-6160
▁server	-6161
石乐	-6162
48⿻	-6163
5%⿰	-6164
fan	-6165
sat	-6166
《⿰⿱	-6167
㇇⿳⿱	-6168
70⿰	-6169
▁corpor	-6170
dh	-6171
氵金	-6172
301	-6173
60⿻	-6174
eek	-6175
pas	-6176
wwe	-6177
▁mm	-6178
▁vi	-6179
gala	-6180
▁fun	-6181
▁sil	-6182
㇇⿸⿸	-6183
88⿱	-6184
“⿱⿻	-6185
、3⿱	-6186
《⿱⿻	-6187
350⿱	-6188
lation	-6189
▁girls	-6190
,1960	-6191
/⿱	-6192
36⿰	-6193
ima	-6194
chan	-6195
▁law	-6196
▁red	-6197
14⿸	-6198
ender	-6199
▁china	-6200
,1956	-6201
山民	-6202
钅屯	-6203
>	-6204
囗口阝	-6205
07	-6206
」、	-6207
1,2	-6208
78⿱	-6209
direct	-6210
3,000	-6211
金玉	-6212
nas	-6213
3⿱⿰⿱	-6214
155	-6215
69⿱	-6216
,「⿰⿱	-6217
internet	-6218
fu	-6219
mw	-6220
▁士	-6221
讠韦	-6222
酉禾	-6223
,⿱⿳	-6224
23⿻	-6225
ftw	-6226
lot	-6227
习习欠	-6228
215	-6229
house	-6230
▁rock	-6231
,187	-6232
,1978	-6233
宀一	-6234
501	-6235
_20	-6236
127	-6237
63⿱	-6238
▁camp	-6239
office	-6240
▁studi	-6241
3/	-6242
8/	-6243
;;	-6244
▁书	-6245
亻田	-6246
言牙	-6247
「⿰⿱	-6248
立十木	-6249
blue	-6250
rise	-6251
▁fri	-6252
▁lee	-6253
丿囗㐅比	-6254
84⿱	-6255
▁girl	-6256
▁hill	-6257
1888	-6258
ference	-6259
pk	-6260
月寸	-6261
氵虫	-6262
灬阝	-6263
▁90	-6264
、10	-6265
士口頁	-6266
135	-6267
」,⿻	-6268
」⿵⿰	-6269
000⿱⿱	-6270
20⿰⿱	-6271
,1946	-6272
,1981	-6273
nc	-6274
▁井	-6275
口丁	-6276
64⿱	-6277
gir	-6278
irt	-6279
ngc	-6280
ork	-6281
ted	-6282
匚㐅瓦	-6283
▁bur	-6284
▁hol	-6285
《⿻㇀	-6286
lobal	-6287
,1958	-6288
section	-6289
▁station	-6290
4⿸	-6291
亡民	-6292
辶于	-6293
金里	-6294
17⿻	-6295
19⿻	-6296
2,⿱	-6297
88⿱	-6298
mhz	-6299
rpg	-6300
1984	-6301
euro	-6302
▁dvd	-6303
2,0	-6304
dream	-6305
▁1899	-6306
▁mart	-6307
1861	-6308
——⿱⿱	-6309
》、《⿺	-6310
▁engine	-6311
118	-6312
30⿻	-6313
40⿻	-6314
89⿱	-6315
but	-6316
dig	-6317
eth	-6318
pin	-6319
ski	-6320
snh	-6321
釆田阝	-6322
1982	-6323
5⿰⿳	-6324
ever	-6325
lgbt	-6326
phen	-6327
,⿺⿵	-6328
122	-6329
7⿱⿱	-6330
」;⿱	-6331
1871	-6332
active	-6333
▁state	-6334
26⿻	-6335
dro	-6336
ful	-6337
匕水页	-6338
uman	-6339
,“⿸	-6340
thing	-6341
vidia	-6342
1893	-6343
6000⿱	-6344
▁junior	-6345
1,000⿱	-6346
volution	-6347
▁·	-6348
木由	-6349
火𠃓	-6350
28⿰	-6351
fly	-6352
,500	-6353
1939	-6354
▁has	-6355
▁pop	-6356
133	-6357
95⿱	-6358
:《⿰	-6359
——⿸	-6360
》⿵⿰	-6361
steam	-6362
▁long	-6363
▁soci	-6364
▁explor	-6365
25⿻	-6366
hot	-6367
ili	-6368
yes	-6369
▁《⿴	-6370
1903	-6371
▁「⿰⿱	-6372
121	-6373
82⿱	-6374
comic	-6375
,1970	-6376
▁』	-6377
▁干	-6378
▁门	-6379
5%。	-6380
apa	-6381
jam	-6382
jim	-6383
mem	-6384
wil	-6385
宀八巾	-6386
:[	-6387
uter	-6388
▁aga	-6389
▁sco	-6390
zilla	-6391
1887	-6392
▁革	-6393
尸九	-6394
45⿻	-6395
eak	-6396
eel	-6397
pon	-6398
▁《⿳	-6399
刀口力	-6400
chen	-6401
▁nat	-6402
▁sun	-6403
》《⿱	-6404
「⿲㇇	-6405
150⿰	-6406
kr	-6407
、3	-6408
28⿻	-6409
66⿱	-6410
aya	-6411
sca	-6412
vet	-6413
3⿻	-6414
1912	-6415
▁pag	-6416
2⿰⿰	-6417
、⿸⿱	-6418
quare	-6419
works	-6420
▁oper	-6421
1600	-6422
▁corporation	-6423
]]	-6424
业阝	-6425
16⿻	-6426
31⿻	-6427
一八石	-6428
04	-6429
flix	-6430
▁fla	-6431
8⿱⿱⿱	-6432
agram	-6433
▁1889	-6434
▁fest	-6435
900⿱	-6436
《》,⿰	-6437
8661⿱⿳	-6438
▁research	-6439
一由	-6440
80⿻	-6441
,⿰⿱⿰	-6442
ions	-6443
link	-6444
▁sol	-6445
frank	-6446
▁will	-6447
▁black	-6448
▁magaz	-6449
hn	-6450
彳方	-6451
240	-6452
35⿰	-6453
_1⿱	-6454
run	-6455
厶口心	-6456
alan	-6457
hard	-6458
idae	-6459
▁bel	-6460
17⿸	-6461
、⿱⿺	-6462
》⿸⿸	-6463
american	-6464
▁州	-6465
灬川	-6466
舟甲	-6467
11⿻	-6468
380	-6469
;⿰⿱	-6470
cel	-6471
jan	-6472
▁af	-6473
▁、⿰	-6474
𠂊彐隹	-6475
real	-6476
▁she	-6477
▁sum	-6478
ities	-6479
▁book	-6480
▁plus	-6481
17⿰⿱	-6482
▁commun	-6483
dl	-6484
𦣞页	-6485
acc	-6486
sid	-6487
tex	-6488
𠁣𠃛心	-6489
▁pla	-6490
▁spa	-6491
,5⿱	-6492
5⿱⿰⿴	-6493
66⿹⿶	-6494
▁jack	-6495
》⿱⿱⿱	-6496
▁found	-6497
▁church	-6498
rb	-6499
夂月	-6500
扌母	-6501
xml	-6502
1946	-6503
cept	-6504
▁alb	-6505
10,	-6506
“⿵⿵	-6507
——⿰⿱	-6508
qq	-6509
sf	-6510
uf	-6511
、9	-6512
1914	-6513
」,⿵	-6514
rd	-6515
tg	-6516
·⿸	-6517
▁》	-6518
88⿰	-6519
mix	-6520
ori	-6521
pot	-6522
rum	-6523
▁ep	-6524
dren	-6525
mail	-6526
",⿱	-6527
137	-6528
149	-6529
18⿸	-6530
ister	-6531
▁town	-6532
▁league	-6533
▁develop	-6534
▁magazine	-6535
22⿻	-6536
35⿻	-6537
111	-6538
▁1896	-6539
,“⿱⿱	-6540
▁smith	-6541
▁champion	-6542
uc	-6543
32⿻	-6544
86⿻	-6545
sig	-6546
tho	-6547
▁cy	-6548
100⿰	-6549
anna	-6550
main	-6551
亠口小頁	-6552
、1⿰	-6553
《⿰⿳	-6554
aniel	-6555
ental	-6556
▁fire	-6557
1840	-6558
▁dream	-6559
▁model	-6560
ws	-6561
▁『	-6562
_19	-6563
rie	-6564
rub	-6565
",⿱⿱	-6566
gent	-6567
uble	-6568
▁big	-6569
▁sup	-6570
▁tem	-6571
——⿻	-6572
1884	-6573
otball	-6574
,1966	-6575
vc	-6576
𦣞頁	-6577
87⿻	-6578
mvp	-6579
una	-6580
▁gi	-6581
▁ha	-6582
ffer	-6583
ston	-6584
,⿲⿱	-6585
25⿸	-6586
style	-6587
▁euro	-6588
▁tran	-6589
3⿰⿱⿱	-6590
,1948	-6591
100⿱⿱	-6592
8665⿰⿳	-6593
4/	-6594
bat	-6595
set	-6596
"⿸	-6597
2020	-6598
duce	-6599
sson	-6600
▁hel	-6601
▁who	-6602
▁1894	-6603
10%⿰	-6604
8661⿲	-6605
ftware	-6606
ildren	-6607
8661⿱⿶⿱⿰	-6608
9、	-6609
bh	-6610
日广	-6611
氵屯	-6612
,17	-6613
0⿵	-6614
29⿰	-6615
alf	-6616
ely	-6617
hbo	-6618
▁29	-6619
▁ap	-6620
▁fr	-6621
▁sc	-6622
▁xp	-6623
「"	-6624
rict	-6625
73⿱	-6626
」⿰⿳	-6627
▁plan	-6628
1892	-6629
ington	-6630
▁institute	-6631
,《	-6632
oc	-6633
▁mc	-6634
䒑未阝	-6635
ople	-6636
68⿱	-6637
《⿰⿱⿰	-6638
》、《⿵	-6639
39⿻	-6640
ila	-6641
kon	-6642
{⿱⿱	-6643
"⿻	-6644
best	-6645
cent	-6646
▁,⿱⿱	-6647
▁176	-6648
▁ham	-6649
▁top	-6650
▁《⿸⿸	-6651
,“⿻	-6652
16⿸	-6653
china	-6654
▁were	-6655
1830	-6656
,1976	-6657
dm	-6658
」⿸	-6659
14⿻	-6660
88⿻	-6661
_3⿰	-6662
fun	-6663
1920	-6664
139	-6665
61⿱	-6666
1879	-6667
66⿱⿱⿱	-6668
▁sports	-6669
火山	-6670
29⿻	-6671
83⿻	-6672
aga	-6673
bad	-6674
blo	-6675
cess	-6676
cker	-6677
39⿰	-6678
」、⿰	-6679
,188	-6680
120⿰	-6681
、⿱⿵⿵	-6682
battle	-6683
▁explorer	-6684
vy	-6685
彳非	-6686
木且	-6687
hor	-6688
▁pc	-6689
8、⿰	-6690
eath	-6691
just	-6692
ters	-6693
▁sam	-6694
145	-6695
》⿵⿵	-6696
「」⿱	-6697
2021	-6698
▁which	-6699
]。	-6700
vs	-6701
火夬	-6702
"⿰⿱	-6703
37⿻	-6704
3⿱⿱	-6705
deo	-6706
ges	-6707
pla	-6708
uld	-6709
anth	-6710
bang	-6711
erre	-6712
stru	-6713
▁por	-6714
▁set	-6715
▁two	-6716
,4⿱	-6717
,《⿱⿱	-6718
·⿱⿱⿰	-6719
、⿱⿴⿱	-6720
《》,⿱	-6721
▁express	-6722
nn	-6723
尸米	-6724
160	-6725
77⿻	-6726
87⿰	-6727
gor	-6728
vat	-6729
▁!!	-6730
▁4⿱	-6731
立十刀	-6732
1947	-6733
good	-6734
urce	-6735
▁aut	-6736
▁gar	-6737
76⿱	-6738
[[⿱	-6739
《⿹⿶	-6740
iness	-6741
1848	-6742
18⿱⿱	-6743
」、「⿻	-6744
女疌	-6745
扌斗	-6746
竹尹	-6747
180	-6748
emu	-6749
sha	-6750
str	-6751
vii	-6752
pent	-6753
tral	-6754
▁fin	-6755
▁web	-6756
42⿰	-6757
;⿰⿸	-6758
small	-6759
▁good	-6760
▁hist	-6761
▁point	-6762
▁stand	-6763
,1938	-6764
,1953	-6765
ization	-6766
▁design	-6767
np	-6768
竹及	-6769
39⿰	-6770
41⿻	-6771
47⿻	-6772
:10	-6773
癶豆几	-6774
1⿻	-6775
▁160	-6776
▁his	-6777
」,⿱⿱	-6778
,1⿰	-6779
221	-6780
▁more	-6781
▁heart	-6782
▁party	-6783
▁radio	-6784
,1952	-6785
2500⿱	-6786
="2	-6787
></	-6788
cry	-6789
gps	-6790
iter	-6791
!」⿰	-6792
81⿱	-6793
、5⿱	-6794
amily	-6795
15⿱⿱	-6796
1883	-6797
1894	-6798
攵心	-6799
33⿻	-6800
350	-6801
bla	-6802
iro	-6803
leg	-6804
tes	-6805
yan	-6806
▁27	-6807
民攵心	-6808
1937	-6809
wiki	-6810
,“⿺	-6811
154	-6812
44⿰	-6813
、4⿱	-6814
15⿰⿱	-6815
170⿱	-6816
二贝	-6817
礻止	-6818
13⿻	-6819
3,⿱	-6820
46⿹	-6821
85⿻	-6822
bet	-6823
ior	-6824
jer	-6825
pur	-6826
ras	-6827
sec	-6828
sey	-6829
wer	-6830
you	-6831
人人頁	-6832
、“	-6833
0⿺⿱	-6834
1979	-6835
night	-6836
「⿱⿶⿱⿰	-6837
▁society	-6838
」⿹	-6839
金肅	-6840
35⿱	-6841
kit	-6842
▁88	-6843
▁ko	-6844
、⿶	-6845
𠂊小玉	-6846
1894	-6847
1898	-6848
ason	-6849
thur	-6850
▁est	-6851
▁《⿱⿳	-6852
▁」⿰⿱	-6853
"⿱⿱	-6854
320	-6855
52⿰	-6856
urnal	-6857
▁rich	-6858
nvidia	-6859
▁width	-6860
,1940	-6861
耳冘	-6862
2⿱⿳	-6863
401	-6864
45⿱	-6865
8⿵	-6866
sub	-6867
▁46	-6868
儿丨皿	-6869
》⿳	-6870
1895	-6871
1960	-6872
1977	-6873
1981	-6874
,⿱⿸	-6875
adobe	-6876
north	-6877
table	-6878
16⿰⿱	-6879
1868	-6880
1872	-6881
ascript	-6882
▁service	-6883
vr	-6884
𠂉生	-6885
0,	-6886
79⿻	-6887
jav	-6888
jon	-6889
kyo	-6890
she	-6891
ume	-6892
▁70	-6893
/⿸	-6894
05	-6895
▁tim	-6896
750	-6897
9⿱⿱	-6898
“⿳𭕄	-6899
grand	-6900
▁control	-6901
火虫	-6902
43⿻	-6903
75⿱	-6904
apg	-6905
bug	-6906
els	-6907
:1	-6908
𠂉大聿	-6909
1941	-6910
▁tal	-6911
▁form	-6912
▁land	-6913
▁real	-6914
,1957	-6915
instagram	-6916
dt	-6917
uh	-6918
氵亡	-6919
76⿻	-6920
dex	-6921
nad	-6922
omy	-6923
▁1⿰	-6924
▁ju	-6925
▁」⿸	-6926
⺊尸页	-6927
八厶瓦	-6928
《⿲	-6929
1950	-6930
200⿰	-6931
post	-6932
▁159	-6933
▁fre	-6934
▁way	-6935
人一口龙	-6936
124	-6937
2,4	-6938
67⿱	-6939
74⿱	-6940
henry	-6941
▁dire	-6942
1865	-6943
1886	-6944
」⿱⿱⿱	-6945
▁program	-6946
%、	-6947
cw	-6948
kk	-6949
王民	-6950
46⿻	-6951
70⿻	-6952
eno	-6953
sin	-6954
ved	-6955
㇇⿵	-6956
!!	-6957
1933	-6958
andy	-6959
camp	-6960
jump	-6961
▁off	-6962
71⿱	-6963
:「⿻	-6964
1869	-6965
1891	-6966
▁white	-6967
uv	-6968
白田	-6969
1,⿰	-6970
34⿻	-6971
42⿻	-6972
8⿲	-6973
eas	-6974
igo	-6975
ito	-6976
2⿺	-6977
《⿷	-6978
appy	-6979
vest	-6980
▁,⿰⿱	-6981
▁165	-6982
▁cup	-6983
▁sub	-6984
▁und	-6985
▁《⿺⿱	-6986
11,	-6987
217	-6988
𠂊田灬比	-6989
,“⿰⿱	-6990
▁align	-6991
▁awards	-6992
▁management	-6993
ij	-6994
xd	-6995
yp	-6996
久火	-6997
27⿻	-6998
56⿻	-6999
nar	-7000
yer	-7001
▁ba	-7002
𠂊彐皮	-7003
123	-7004
90⿰	-7005
elect	-7006
▁chin	-7007
▁langu	-7008
netflix	-7009
ucation	-7010
▁festival	-7011
px	-7012
sb	-7013
/12	-7014
22⿰	-7015
70⿱	-7016
cnn	-7017
▁66	-7018
口止果	-7019
1907	-7020
▁nba	-7021
▁hong	-7022
240⿱	-7023
untain	-7024
▁under	-7025
,1937	-7026
,1955	-7027
]⿰	-7028
于皿	-7029
03⿻	-7030
36⿻	-7031
dal	-7032
jet	-7033
sol	-7034
1909	-7035
5、⿰	-7036
esis	-7037
▁iso	-7038
糸言糸金	-7039
165	-7040
▁arch	-7041
▁band	-7042
1876	-7043
2022	-7044
,1959	-7045
8661⿲㇇	-7046
__	-7047
yl	-7048
▁>	-7049
24⿻	-7050
5,	-7051
65⿻	-7052
7%。	-7053
ope	-7054
uel	-7055
▁、⿱	-7056
丰寸灬	-7057
1928	-7058
1930	-7059
▁def	-7060
▁now	-7061
41⿰	-7062
▁bank	-7063
▁face	-7064
▁film	-7065
80%⿰	-7066
:“⿱⿰	-7067
galaxy	-7068
,1947	-7069
一夕	-7070
气山	-7071
由月	-7072
55⿻	-7073
62⿻	-7074
iti	-7075
▁na	-7076
1931	-7077
news	-7078
oney	-7079
▁win	-7080
▁⿱⿴⿱	-7081
270	-7082
2⿱⿰	-7083
87⿱	-7084
▁cast	-7085
▁software	-7086
2,⿰	-7087
801	-7088
iga	-7089
lab	-7090
800⿱	-7091
enne	-7092
fect	-7093
fort	-7094
isbn	-7095
▁dig	-7096
㇇⿱⿰	-7097
,⿳⿳	-7098
156	-7099
3⿰⿰	-7100
·⿱⿹	-7101
「⿰⿹	-7102
「⿻㇀	-7103
」,「	-7104
class	-7105
ealth	-7106
▁1890	-7107
「⿰⿱⿰	-7108
▁press	-7109
」,⿱⿱⿱	-7110
8665⿱⿰⿴	-7111
hc	-7112
艹韦	-7113
钅本	-7114
bis	-7115
cin	-7116
mol	-7117
▁tw	-7118
▁wo	-7119
1970	-7120
dist	-7121
dium	-7122
ieee	-7123
175	-7124
47⿰	-7125
,10⿱	-7126
1877	-7127
victor	-7128
2,500	-7129
/0	-7130
tz	-7131
、6	-7132
,⿵⿰	-7133
37⿰	-7134
44⿻	-7135
rus	-7136
sql	-7137
,0	-7138
」「	-7139
1906	-7140
1935	-7141
1976	-7142
46。	-7143
bell	-7144
lang	-7145
▁ext	-7146
▁how	-7147
219	-7148
330	-7149
550	-7150
ugust	-7151
▁isbn	-7152
1873	-7153
1881	-7154
20%⿰	-7155
,1963	-7156
,1975	-7157
mozilla	-7158
production	-7159
8⿸	-7160
fx	-7161
肀二	-7162
82⿻	-7163
84⿻	-7164
caa	-7165
1910	-7166
1968	-7167
test	-7168
,⿱⿴⿱	-7169
1875	-7170
,1973	-7171
pf	-7172
,15	-7173
46⿰	-7174
cli	-7175
jun	-7176
kel	-7177
tan	-7178
1890	-7179
1966	-7180
1975	-7181
▁bay	-7182
▁mot	-7183
、⿰⿱⿱	-7184
212	-7185
young	-7186
▁1860	-7187
▁gold	-7188
▁mode	-7189
1858	-7190
1862	-7191
18⿰⿱	-7192
,1930	-7193
,1935	-7194
▁edition	-7195
formation	-7196
"⿺	-7197
/⿻	-7198
7⿸	-7199
22⿱	-7200
45⿰	-7201
far	-7202
shi	-7203
▁au	-7204
▁iv	-7205
立日欠	-7206
down	-7207
gold	-7208
》、《⿰	-7209
144	-7210
、⿱⿵	-7211
,000。	-7212
▁1885	-7213
▁home	-7214
▁line	-7215
1812	-7216
1874	-7217
2500	-7218
“⿱⿰⿱	-7219
▁album	-7220
8000⿱	-7221
▁technology	-7222
弓也	-7223
++⿰	-7224
105	-7225
250	-7226
601	-7227
kir	-7228
nia	-7229
▁⿰⿴	-7230
03	-7231
08	-7232
1919	-7233
1964	-7234
1978	-7235
ense	-7236
home	-7237
▁10⿱	-7238
▁cla	-7239
▁div	-7240
24⿸	-7241
、12	-7242
▁code	-7243
11⿱⿱	-7244
:⿰⿱⿱	-7245
joseph	-7246
,1944	-7247
,1967	-7248
2000⿰	-7249
」,⿶⿳⿰	-7250
▁头	-7251
尸比	-7252
禾央	-7253
,⿹⿶	-7254
4⿱⿱	-7255
701	-7256
89⿻	-7257
pse	-7258
▁77	-7259
1⿺	-7260
1983	-7261
itor	-7262
tvbs	-7263
▁bet	-7264
▁cur	-7265
▁hor	-7266
▁mak	-7267
》⿰⿱⿱	-7268
》,⿵	-7269
「⿹⿶	-7270
66、⿰	-7271
400⿰	-7272
66⿶⿳⿰	-7273
▁vista	-7274
▁young	-7275
,1961	-7276
200⿱⿱	-7277
▁number	-7278
7/	-7279
一户	-7280
8%。	-7281
81⿻	-7282
kat	-7283
ody	-7284
ote	-7285
丿士贝	-7286
+⿰	-7287
0⿰⿹	-7288
1905	-7289
cube	-7290
over	-7291
▁clo	-7292
丿𠃌攵灬	-7293
159	-7294
19⿸	-7295
266	-7296
「⿱⿲	-7297
90%⿰	-7298
、⿰⿳⿱	-7299
8960。	-7300
▁david	-7301
,1974	-7302
、⿱⿰⿱⿱	-7303
▁牙	-7304
34⿰	-7305
38⿻	-7306
67⿻	-7307
bol	-7308
hip	-7309
ipv	-7310
01	-7311
4⿱⿰⿱	-7312
itan	-7313
mond	-7314
stan	-7315
tual	-7316
▁god	-7317
▁mil	-7318
▁rep	-7319
,⿻⿻	-7320
43⿰	-7321
50⿸	-7322
77⿱	-7323
:⿺⿱	-7324
《⿰⿹	-7325
▁pres	-7326
,185	-7327
220⿱	-7328
50⿱⿱	-7329
、⿰⿱⿴	-7330
,;	-7331
扌夬	-7332
140	-7333
6%。	-7334
lum	-7335
mig	-7336
sts	-7337
、“⿻	-7338
2⿵	-7339
1925	-7340
1936	-7341
sian	-7342
▁kar	-7343
136	-7344
22⿸	-7345
8⿰⿱⿱	-7346
arden	-7347
▁1871	-7348
▁paul	-7349
1867	-7350
1882	-7351
▁james	-7352
▁other	-7353
,1954	-7354
,1972	-7355
55⿰	-7356
_23	-7357
iec	-7358
nan	-7359
3⿵	-7360
1955	-7361
8,⿱	-7362
east	-7363
fess	-7364
icle	-7365
ipad	-7366
rent	-7367
▁175	-7368
246	-7369
、20	-7370
」⿰⿸	-7371
▁1888	-7372
1864	-7373
19⿰⿱	-7374
450⿱	-7375
》、《⿴	-7376
」、「⿸	-7377
▁build	-7378
▁green	-7379
,1941	-7380
,1962	-7381
sv	-7382
24⿱	-7383
_21	-7384
als	-7385
chu	-7386
jor	-7387
nie	-7388
psp	-7389
▁5⿱	-7390
二丨心	-7391
戊一小	-7392
||	-7393
0、⿱	-7394
1904	-7395
1934	-7396
eric	-7397
▁ind	-7398
▁tur	-7399
214	-7400
40⿸	-7401
4⿱⿰	-7402
》⿰⿰	-7403
antas	-7404
chris	-7405
,1939	-7406
,1971	-7407
8665⿶⿳⿰	-7408
billboard	-7409
▁football	-7410
忄冘	-7411
04⿻	-7412
1⿱⿳	-7413
47⿰	-7414
75⿻	-7415
ddr	-7416
hiv	-7417
▁85	-7418
豸艮心	-7419
、「	-7420
1886	-7421
1971	-7422
come	-7423
ette	-7424
ific	-7425
pend	-7426
▁row	-7427
▁won	-7428
134	-7429
147	-7430
83⿱	-7431
ative	-7432
▁down	-7433
▁hold	-7434
dragon	-7435
《⿻	-7436
{	-7437
26⿱	-7438
_22	-7439
ois	-7440
▁sd	-7441
▁si	-7442
:<	-7443
anda	-7444
iana	-7445
▁cir	-7446
▁gal	-7447
",⿰	-7448
,6⿱	-7449
23⿸	-7450
4⿰⿰	-7451
650	-7452
enter	-7453
,⿰⿳⿱	-7454
1878	-7455
online	-7456
,1936	-7457
,1968	-7458
,1977	-7459
▁systems	-7460
▁education	-7461
oe	-7462
木乐	-7463
49⿻	-7464
63⿻	-7465
bes	-7466
ips	-7467
ske	-7468
▁28	-7469
▁cm	-7470
、15	-7471
1938	-7472
head	-7473
poly	-7474
,⿰⿴	-7475
10⿻	-7476
158	-7477
168	-7478
218	-7479
:⿱⿳	-7480
chest	-7481
▁1884	-7482
▁1893	-7483
▁phil	-7484
▁stor	-7485
1857	-7486
40⿱⿱	-7487
▁mobile	-7488
亻非	-7489
氵耳	-7490
2%。	-7491
54⿻	-7492
doh	-7493
pra	-7494
sea	-7495
tam	-7496
幺大谷	-7497
3⿺	-7498
1932	-7499
1940	-7500
anne	-7501
ipod	-7502
ncaa	-7503
omen	-7504
what	-7505
▁156	-7506
▁pan	-7507
2,3	-7508
2,9	-7509
216	-7510
380	-7511
ellow	-7512
1400	-7513
switch	-7514
▁pagasa	-7515
2,000⿱	-7516
/9	-7517
hl	-7518
ox	-7519
02⿻	-7520
74⿻	-7521
eme	-7522
▁/>	-7523
1908	-7524
8、⿱	-7525
mnet	-7526
▁120	-7527
▁blo	-7528
▁fer	-7529
▁⿱⿵⿵	-7530
79⿱	-7531
▁they	-7532
▁light	-7533
,1969	-7534
8661,⿰⿱	-7535
lication	-7536
冖水	-7537
口垂	-7538
61⿻	-7539
:20	-7540
_3⿱	-7541
mur	-7542
▁ir	-7543
▁ob	-7544
▁sm	-7545
勹口灬	-7546
,,	-7547
5⿻	-7548
1965	-7549
8,⿰	-7550
ques	-7551
▁ger	-7552
▁its	-7553
习习隹戈	-7554
277	-7555
49⿰	-7556
、2⿰	-7557
craft	-7558
▁centre	-7559
匚久	-7560
女予	-7561
宀心	-7562
扌龙	-7563
言夬	-7564
56⿰	-7565
dle	-7566
how	-7567
may	-7568
ror	-7569
、16	-7570
1。	-7571
1889	-7572
1918	-7573
1969	-7574
case	-7575
dian	-7576
town	-7577
▁abo	-7578
▁dra	-7579
▁pie	-7580
▁ram	-7581
,「⿸	-7582
12,	-7583
138	-7584
169	-7585
1⿱⿰	-7586
340	-7587
89⿱	-7588
green	-7589
stand	-7590
▁asia	-7591
▁just	-7592
21⿰⿱	-7593
8661⿷	-7594
▁space	-7595
5,000	-7596
▁channel	-7597
eu	-7598
tf	-7599
zu	-7600
104	-7601
109	-7602
58⿻	-7603
ade	-7604
cht	-7605
jos	-7606
▁!⿻	-7607
▁00	-7608
刀丿止	-7609
4⿻	-7610
“⿷	-7611
1972	-7612
mike	-7613
157	-7614
203	-7615
45⿸	-7616
《⿵⿵	-7617
》,⿴	-7618
bourg	-7619
yahoo	-7620
㇇⿰⿱⿱	-7621
1866	-7622
▁south	-7623
project	-7624
▁production	-7625
扌八	-7626
32⿰	-7627
66⿻	-7628
71⿻	-7629
9%。	-7630
asp	-7631
utv	-7632
who	-7633
▁mk	-7634
1600	-7635
1967	-7636
atic	-7637
cing	-7638
elli	-7639
hong	-7640
▁gam	-7641
▁men	-7642
▁nav	-7643
▁sky	-7644
⿱⿰⿱⿱	-7645
、“⿰⿱	-7646
162	-7647
167	-7648
2,5	-7649
99⿱	-7650
astro	-7651
media	-7652
▁east	-7653
▁york	-7654
1863	-7655
》、《⿳	-7656
ustral	-7657
▁https	-7658
▁round	-7659
,1942	-7660
,1965	-7661
fn	-7662
rx	-7663
xi	-7664
幺小	-7665
"⿱⿱	-7666
64⿻	-7667
78⿻	-7668
98⿻	-7669
cam	-7670
ika	-7671
日一頁	-7672
1897	-7673
1927	-7674
1929	-7675
1944	-7676
1958	-7677
1974	-7678
mega	-7679
ming	-7680
▁169	-7681
▁cho	-7682
▁pra	-7683
▁see	-7684
▁“⿰⿱	-7685
丷干丸手	-7686
,3⿰	-7687
2,6	-7688
“⿻㇀	-7689
level	-7690
louis	-7691
ments	-7692
」,⿵⿵	-7693
system	-7694
▁saint	-7695
▁sound	-7696
,1964	-7697
logical	-7698
▁united	-7699
:1	-7700
、7	-7701
门心	-7702
%,⿸	-7703
/11	-7704
05⿻	-7705
:35	-7706
ien	-7707
rix	-7708
usa	-7709
▁nt	-7710
1917	-7711
1922	-7712
1924	-7713
shin	-7714
亠口小页	-7715
179	-7716
55⿰	-7717
𠂊冫寸大	-7718
66、⿱	-7719
▁stud	-7720
python	-7721
▁there	-7722
▁series	-7723
0%	-7724
;}	-7725
lv	-7726
王久	-7727
疒久	-7728
金川	-7729
06⿻	-7730
3%⿰	-7731
97⿻	-7732
_2⿱	-7733
fal	-7734
gun	-7735
rin	-7736
不一阝	-7737
1926	-7738
1956	-7739
ideo	-7740
long	-7741
yond	-7742
▁bal	-7743
153	-7744
;⿱⿻	-7745
、11	-7746
point	-7747
uture	-7748
▁alex	-7749
▁also	-7750
,⿳⿱⿻	-7751
25⿱⿱	-7752
▁special	-7753
ek	-7754
2%⿰	-7755
23⿱	-7756
330	-7757
57⿻	-7758
73⿻	-7759
90⿻	-7760
93⿻	-7761
:⿱⿻	-7762
law	-7763
ott	-7764
peg	-7765
▁sk	-7766
「⿲	-7767
1957	-7768
eter	-7769
ious	-7770
rest	-7771
word	-7772
▁mel	-7773
cross	-7774
cture	-7775
south	-7776
▁work	-7777
,16⿱	-7778
」,⿱⿰	-7779
▁acade	-7780
▁force	-7781
▁肉	-7782
山及	-7783
08⿻	-7784
72⿻	-7785
9%⿰	-7786
_26	-7787
cts	-7788
dam	-7789
iel	-7790
sor	-7791
▁sn	-7792
▁《⿹	-7793
』、	-7794
ches	-7795
hang	-7796
rond	-7797
ular	-7798
▁sta	-7799
132	-7800
94⿱	-7801
:《⿱	-7802
》:“	-7803
𠂊田灬刂	-7804
▁core	-7805
105⿱	-7806
⿺⿱⿻⿻	-7807
change	-7808
▁brown	-7809
▁dance	-7810
▁story	-7811
]⿱	-7812
jt	-7813
4,⿱	-7814
66⿰	-7815
_25	-7816
_4⿱	-7817
boy	-7818
fbi	-7819
fra	-7820
jar	-7821
pac	-7822
rol	-7823
sel	-7824
umb	-7825
、18	-7826
"⿺	-7827
0⿱⿰	-7828
adam	-7829
arts	-7830
left	-7831
solo	-7832
▁box	-7833
▁dav	-7834
▁pal	-7835
13,	-7836
:,⿱	-7837
𠂊田灬兆	-7838
royal	-7839
unter	-7840
▁rail	-7841
▁tele	-7842
1849	-7843
600⿰	-7844
、⿱⿰⿴	-7845
▁elect	-7846
6/	-7847
耳𠃊	-7848
52⿻	-7849
gaz	-7850
rot	-7851
vey	-7852
「⿷	-7853
pala	-7854
▁mid	-7855
,《⿸	-7856
164	-7857
209	-7858
28⿸	-7859
54⿰	-7860
96⿱	-7861
“⿰⿰	-7862
1855	-7863
studio	-7864
▁market	-7865
▁america	-7866
▁microsoft	-7867
+⿰	-7868
vl	-7869
彳弗	-7870
疒且	-7871
革央	-7872
%,⿻	-7873
96⿻	-7874
99⿻	-7875
imo	-7876
▁」⿺	-7877
」⿱⿱	-7878
𠂊口比	-7879
1876	-7880
card	-7881
▁155	-7882
▁cal	-7883
▁mal	-7884
▁tom	-7885
刀丿丶米	-7886
,2⿰	-7887
143	-7888
256	-7889
;⿱⿳	-7890
stone	-7891
▁moon	-7892
▁only	-7893
▁thea	-7894
,⿰⿱⿺	-7895
▁final	-7896
▁council	-7897
8661⿱⿰⿱⿱	-7898
▁district	-7899
javascript	-7900
mul	-7901
php	-7902
wel	-7903
▁ga	-7904
小丿女	-7905
baby	-7906
iger	-7907
▁145	-7908
163	-7909
21⿸	-7910
58⿰	-7911
games	-7912
▁1886	-7913
▁1891	-7914
▁days	-7915
▁like	-7916
▁muse	-7917
▁orig	-7918
1815	-7919
1856	-7920
1859	-7921
6000	-7922
▁begin	-7923
▁drive	-7924
▁speci	-7925
,1920	-7926
69⿻	-7927
89⿰	-7928
8⿱⿱	-7929
_27	-7930
aka	-7931
bow	-7932
pdf	-7933
sus	-7934
tag	-7935
wta	-7936
▁hu	-7937
"⿹	-7938
1942	-7939
ider	-7940
list	-7941
plan	-7942
▁140	-7943
▁150	-7944
人人龰耳	-7945
,8⿱	-7946
187	-7947
225	-7948
370	-7949
」、⿱	-7950
▁1870	-7951
▁1879	-7952
▁1892	-7953
▁after	-7954
▁video	-7955
1,200	-7956
4,000	-7957
5,000⿱	-7958
▁foundation	-7959
▁development	-7960
目来	-7961
91⿻	-7962
bby	-7963
htc	-7964
pel	-7965
psy	-7966
▁1,	-7967
▁8⿰	-7968
▁⿺⿻	-7969
士口页	-7970
𠘧又缶	-7971
▁170	-7972
▁ast	-7973
▁pas	-7974
▁」⿱⿱	-7975
、⿱⿱⿱	-7976
16:	-7977
56⿰	-7978
66⿺⿱	-7979
hello	-7980
inger	-7981
johan	-7982
metro	-7983
▁1887	-7984
《⿱⿵⿱	-7985
7000⿱	-7986
3,000⿱	-7987
'⿰	-7988
>。	-7989
lr	-7990
木王	-7991
,16	-7992
,⿵⿱	-7993
09⿻	-7994
4%⿰	-7995
5,⿱	-7996
_24	-7997
amo	-7998
cba	-7999
gpl	-8000
tha	-8001
▁,⿺	-8002
▁dr	-8003
厶口火	-8004
日大手	-8005
4⿺	-8006
</	-8007
1892	-8008
1916	-8009
1943	-8010
1954	-8011
1963	-8012
life	-8013
▁14⿱	-8014
▁bab	-8015
▁hen	-8016
▁mas	-8017
▁var	-8018
,「⿻	-8019
176	-8020
1⿰⿰	-8021
325	-8022
51⿰	-8023
86⿱	-8024
“⿰⿳	-8025
5·⿰⿱	-8026
thern	-8027
unday	-8028
230⿱	-8029
▁their	-8030
▁three	-8031
1600⿱	-8032
8960⿸⿸	-8033
:⿴	-8034
一川	-8035
讠且	-8036
01⿻	-8037
0⿰⿱	-8038
10。	-8039
77⿰	-8040
="3	-8041
_4⿰	-8042
cum	-8043
tcp	-8044
·⿱⿱	-8045
▁if	-8046
夂口隹	-8047
1953	-8048
300⿱	-8049
8⿰⿸	-8050
:⿱⿱⿱	-8051
base	-8052
pean	-8053
▁lon	-8054
糸言糸山	-8055
131	-8056
148	-8057
2,7	-8058
29⿸	-8059
𠂊田一非	-8060
▁some	-8061
▁frame	-8062
▁phone	-8063
▁place	-8064
▁second	-8065
▁advance	-8066
▁general	-8067
xe	-8068
文糸	-8069
方土	-8070
51⿻	-8071
55⿱	-8072
hon	-8073
mis	-8074
ola	-8075
▁br	-8076
方方土	-8077
木木阝	-8078
anga	-8079
leon	-8080
loid	-8081
miss	-8082
roll	-8083
vern	-8084
▁125	-8085
、、、、	-8086
㇇⿺⿱	-8087
first	-8088
flash	-8089
verse	-8090
white	-8091
▁1880	-8092
1300	-8093
70%⿰	-8094
script	-8095
8661⿰⿰	-8096
▁people	-8097
▁language	-8098
tb	-8099
▁{	-8100
』⿱	-8101
亻里	-8102
1%⿰	-8103
3%。	-8104
8⿷	-8105
aki	-8106
kes	-8107
vas	-8108
——⿰	-8109
▁36	-8110
▁7⿱	-8111
▁az	-8112
▁ka	-8113
▁ke	-8114
⿱⿰⿸	-8115
、17	-8116
、「⿰	-8117
rain	-8118
▁die	-8119
▁far	-8120
▁ign	-8121
,7⿱	-8122
3,0	-8123
、⿲⿱	-8124
▁1878	-8125
▁brea	-8126
,「⿱⿱	-8127
40%⿰	-8128
▁roman	-8129
▁works	-8130
general	-8131
rf	-8132
106	-8133
12,	-8134
brt	-8135
wis	-8136
、14	-8137
火火木	-8138
8⿻	-8139
jeff	-8140
mand	-8141
▁str	-8142
178	-8143
『⿰⿱	-8144
▁arts	-8145
1700	-8146
edward	-8147
osaurus	-8148
▁family	-8149
▁championship	-8150
/4	-8151
王耳	-8152
4%。	-8153
7%⿰	-8154
92⿻	-8155
lim	-8156
lio	-8157
nel	-8158
▁“⿸	-8159
人人耳	-8160
人示田	-8161
匚儿戈	-8162
3、	-8163
1973	-8164
cell	-8165
ergy	-8166
ruby	-8167
▁bla	-8168
▁pen	-8169
▁「⿱⿱	-8170
151	-8171
183	-8172
323	-8173
420	-8174
50%	-8175
93⿱	-8176
“⿹⿶	-8177
、15	-8178
》,⿹	-8179
scott	-8180
,15⿱	-8181
30⿰⿱	-8182
8960⿹	-8183
friend	-8184
▁great	-8185
▁maria	-8186
8661⿰⿳⿱	-8187
8661⿱⿶⿳⿰	-8188
/5	-8189
▁末	-8190
工口	-8191
钅重	-8192
07⿻	-8193
dun	-8194
hav	-8195
isp	-8196
rep	-8197
▁ja	-8198
▁“⿻	-8199
山豆頁	-8200
;3	-8201
1880	-8202
ards	-8203
fifa	-8204
gran	-8205
stal	-8206
▁149	-8207
▁run	-8208
▁tai	-8209
206	-8210
35⿸	-8211
3⿱⿰	-8212
、18	-8213
anger	-8214
opher	-8215
ultra	-8216
width	-8217
▁know	-8218
daniel	-8219
visual	-8220
▁organ	-8221
▁prote	-8222
lp	-8223
木石	-8224
疒巴	-8225
1%。	-8226
nik	-8227
sup	-8228
▁8⿱	-8229
▁mu	-8230
乡隹瓦	-8231
幺幺土	-8232
立十子	-8233
贝贝缶	-8234
:『	-8235
1902	-8236
iano	-8237
ines	-8238
more	-8239
soci	-8240
▁api	-8241
▁bon	-8242
▁ele	-8243
▁vie	-8244
310	-8245
river	-8246
1852	-8247
▁museum	-8248
kv	-8249
、5	-8250
」「	-8251
石见	-8252
艹弓	-8253
170	-8254
190	-8255
28⿱	-8256
53⿻	-8257
94⿻	-8258
:50	-8259
ago	-8260
aim	-8261
arc	-8262
phy	-8263
▁ut	-8264
、12	-8265
、⿱⿳	-8266
木木女	-8267
甲一斤	-8268
eder	-8269
icus	-8270
mytv	-8271
pson	-8272
untu	-8273
zero	-8274
▁den	-8275
丨丨比阝	-8276
480	-8277
5%⿰	-8278
;⿵⿱	-8279
“⿰⿹	-8280
aylor	-8281
ility	-8282
▁data	-8283
▁head	-8284
「⿶⿳⿰	-8285
pierre	-8286
,1934	-8287
300⿱⿱	-8288
alexander	-8289
eb	-8290
mx	-8291
,12	-8292
68⿻	-8293
901	-8294
fil	-8295
hea	-8296
jay	-8297
▁ab	-8298
▁fu	-8299
2、	-8300
6⿻	-8301
1959	-8302
1962	-8303
imax	-8304
lant	-8305
▁139	-8306
▁16⿱	-8307
》、《⿱	-8308
92⿱	-8309
block	-8310
brary	-8311
ision	-8312
splay	-8313
▁1862	-8314
▁mini	-8315
▁type	-8316
101⿱	-8317
50⿰⿱	-8318
、⿰⿱⿻	-8319
》,⿵⿵	-8320
,1943	-8321
▁function	-8322
2⿺	-8323
mf	-8324
爫见	-8325
/13	-8326
0⿴	-8327
0⿷	-8328
107	-8329
36⿱	-8330
64⿰	-8331
chy	-8332
lyn	-8333
two	-8334
▁ru	-8335
凵丨皮	-8336
1896	-8337
1921	-8338
1961	-8339
8⿱⿻	-8340
dohc	-8341
file	-8342
ping	-8343
▁cra	-8344
10%	-8345
205	-8346
72⿰	-8347
]]⿱	-8348
、、、	-8349
「⿰⿻	-8350
5⿱⿰⿸	-8351
="2"|	-8352
viutv	-8353
▁1848	-8354
▁1868	-8355
1851	-8356
30%⿰	-8357
60%⿰	-8358
action	-8359
andrew	-8360
▁cross	-8361
,1927	-8362
,1931	-8363
▁studios	-8364
;⿻	-8365
mn	-8366
亻瓦	-8367
工阝	-8368
辶十	-8369
59⿻	-8370
6⿱⿱	-8371
84⿰	-8372
:05	-8373
flo	-8374
got	-8375
hop	-8376
joe	-8377
ona	-8378
zip	-8379
▁87	-8380
、《》	-8381
《⿱⿱	-8382
十罒心	-8383
口龶见	-8384
46⿻	-8385
beta	-8386
cdma	-8387
deon	-8388
pink	-8389
▁cer	-8390
▁sin	-8391
▁“⿱⿱	-8392
,,⿰	-8393
0⿰⿱	-8394
0⿱⿱	-8395
315	-8396
60⿸	-8397
“⿲㇇	-8398
、13	-8399
anton	-8400
ering	-8401
▁gran	-8402
1824	-8403
1⿱⿰⿱	-8404
ubuntu	-8405
▁court	-8406
▁right	-8407
▁indust	-8408
▁states	-8409
gw	-8410
巾隹	-8411
广羊	-8412
言非	-8413
𭕄⿻	-8414
125	-8415
320	-8416
6%⿰	-8417
90⿱	-8418
aps	-8419
cro	-8420
esa	-8421
lig	-8422
mba	-8423
put	-8424
』⿻	-8425
1877	-8426
club	-8427
omic	-8428
▁fol	-8429
▁pay	-8430
14,	-8431
174	-8432
208	-8433
211	-8434
27⿸	-8435
288	-8436
289	-8437
」⿱⿻	-8438
steve	-8439
▁1872	-8440
1841	-8441
1846	-8442
channel	-8443
▁little	-8444
▁示	-8445
钅白	-8446
32⿱	-8447
38⿰	-8448
ias	-8449
tic	-8450
口止八	-8451
日大阝	-8452
、8	-8453
1883	-8454
1884	-8455
5⿲㇇	-8456
body	-8457
cert	-8458
engl	-8459
▁10⿰	-8460
▁mad	-8461
▁sec	-8462
,21	-8463
15,	-8464
16,	-8465
91⿱	-8466
、⿻⿻	-8467
alice	-8468
ality	-8469
ascii	-8470
rough	-8471
▁1864	-8472
▁blue	-8473
,12⿱	-8474
60⿱⿱	-8475
▁color	-8476
,1951	-8477
▁square	-8478
issement	-8479
▁rowspan	-8480
▁information	-8481
+2	-8482
6⿸	-8483
9⿸	-8484
bw	-8485
qs	-8486
艹耳	-8487
27,	-8488
95⿻	-8489
_28	-8490
_5⿰	-8491
acy	-8492
blu	-8493
bob	-8494
ets	-8495
ghz	-8496
jyp	-8497
osp	-8498
▁6⿱	-8499
▁kw	-8500
一八糸	-8501
丿大山	-8502
1899	-8503
5、⿱	-8504
ango	-8505
thod	-8506
▁hat	-8507
▁leg	-8508
▁mis	-8509
,25	-8510
152	-8511
172	-8512
173	-8513
285	-8514
75⿰	-8515
radio	-8516
video	-8517
▁cell	-8518
▁mill	-8519
▁soul	-8520
,《⿱⿰	-8521
1854	-8522
,1932	-8523
8661⿵⿵	-8524
▁robert	-8525
▁mountain	-8526
亻羊	-8527
束頁	-8528
alo	-8529
gel	-8530
ilo	-8531
nex	-8532
rad	-8533
▁35	-8534
▁7⿰	-8535
▁mg	-8536
▁⿲⿱	-8537
⿱⿰⿷	-8538
""	-8539
1871	-8540
1952	-8541
lady	-8542
mpeg	-8543
next	-8544
▁123	-8545
,4⿰	-8546
202	-8547
50⿵	-8548
5⿱⿰⿱	-8549
every	-8550
uring	-8551
vices	-8552
worth	-8553
▁sant	-8554
125⿱	-8555
martin	-8556
philip	-8557
▁again	-8558
」、「⿱⿱	-8559
8665⿵⿱	-8560
rondissement	-8561
js	-8562
缶本	-8563
金甘	-8564
:40	-8565
aaa	-8566
eva	-8567
lag	-8568
lah	-8569
len	-8570
rue	-8571
sto	-8572
umi	-8573
▁ur	-8574
、“⿸	-8575
",	-8576
illy	-8577
▁hea	-8578
▁mur	-8579
、“⿱⿱	-8580
:“⿵	-8581
:⿱⿻	-8582
——⿹	-8583
“⿰⿻	-8584
、6⿱	-8585
、⿱⿸	-8586
prise	-8587
▁port	-8588
,18⿱	-8589
1792	-8590
▁north	-8591
iconico	-8592
8665⿱⿵⿵	-8593
arrondissement	-8594
一尸	-8595
亚土	-8596
子子	-8597
日卯	-8598
13,	-8599
9⿱⿱	-8600
bul	-8601
dol	-8602
neo	-8603
||1	-8604
▁op	-8605
車斤土	-8606
"></	-8607
400⿱	-8608
5⿱⿰⿱	-8609
tele	-8610
voca	-8611
▁let	-8612
▁tor	-8613
▁tro	-8614
184	-8615
229	-8616
90%	-8617
:⿰⿸	-8618
▁anim	-8619
102⿱	-8620
1843	-8621
edrich	-8622
▁direct	-8623
▁chinese	-8624
christian	-8625
vt	-8626
/15	-8627
_30	-8628
mik	-8629
mph	-8630
olo	-8631
unk	-8632
vor	-8633
▁「⿸	-8634
、20	-8635
1901	-8636
1923	-8637
ants	-8638
ashi	-8639
dies	-8640
fied	-8641
ites	-8642
pass	-8643
▁equ	-8644
冂二目力	-8645
141	-8646
207	-8647
335	-8648
⿰⿱⿵	-8649
《⿰⿻	-8650
《》,	-8651
▁1865	-8652
▁1867	-8653
▁aven	-8654
▁cult	-8655
▁wind	-8656
1833	-8657
iction	-8658
cosplay	-8659
▁williams	-8660
:0	-8661
酉干	-8662
/08	-8663
618	-8664
jac	-8665
mah	-8666
▁32	-8667
▁——	-8668
host	-8669
sega	-8670
▁dan	-8671
▁lar	-8672
▁vel	-8673
》⿶⿳⿰	-8674
㇇⿰⿸	-8675
,《⿺	-8676
17,	-8677
97⿱	-8678
98⿱	-8679
《⿱⿹	-8680
enger	-8681
place	-8682
▁last	-8683
▁than	-8684
▁zone	-8685
1847	-8686
4⿰⿱⿱	-8687
▁order	-8688
,1933	-8689
8661⿺⿱	-8690
▁summer	-8691
;⿺	-8692
mh	-8693
▁耳	-8694
▁豆	-8695
讠非	-8696
𠂆万	-8697
10,	-8698
211	-8699
3,⿰	-8700
gas	-8701
ipa	-8702
kal	-8703
kim	-8704
nov	-8705
oda	-8706
rac	-8707
std	-8708
“⿱⿱	-8709
▁6⿰	-8710
▁pi	-8711
、13	-8712
、⿺⿱	-8713
demo	-8714
ides	-8715
muel	-8716
reek	-8717
rian	-8718
sten	-8719
stor	-8720
ware	-8721
will	-8722
▁bbc	-8723
,9⿱	-8724
142	-8725
20⿵	-8726
26⿸	-8727
290	-8728
38⿸	-8729
53⿰	-8730
final	-8731
water	-8732
▁crea	-8733
1750	-8734
190⿱	-8735
260⿱	-8736
61⿰⿱	-8737
beyond	-8738
united	-8739
▁grand	-8740
▁human	-8741
1400⿱	-8742
▁public	-8743
▁american	-8744
阝鬼	-8745
%⿰⿱	-8746
44⿱	-8747
8%⿰	-8748
850	-8749
bir	-8750
sem	-8751
vcd	-8752
⿳⿱⿻	-8753
扌丸手	-8754
3。	-8755
asia	-8756
bian	-8757
data	-8758
ipei	-8759
nick	-8760
▁127	-8761
▁ban	-8762
287	-8763
32,	-8764
10⿱⿰⿱	-8765
▁note	-8766
▁test	-8767
,17⿱	-8768
13⿱⿱	-8769
1845	-8770
▁intel	-8771
▁academy	-8772
▁digital	-8773
朱阝	-8774
𠃊目	-8775
111	-8776
7⿱⿳	-8777
aro	-8778
hkt	-8779
pid	-8780
▁ev	-8781
▁fe	-8782
▁tu	-8783
⿰⿱⿴	-8784
口夫欠	-8785
戈戈皿	-8786
1568	-8787
:⿰⿱⿱	-8788
fore	-8789
muse	-8790
ober	-8791
stad	-8792
▁182	-8793
▁ent	-8794
▁gri	-8795
▁phy	-8796
▁tea	-8797
238	-8798
375	-8799
46⿱⿱	-8800
alpha	-8801
andra	-8802
ennis	-8803
usion	-8804
▁most	-8805
100%⿰	-8806
22:30	-8807
▁bridge	-8808
▁online	-8809
8665⿱⿰⿳	-8810
▁michael	-8811
1]	-8812
cj	-8813
wn	-8814
280	-8815
34⿱	-8816
3⿱⿳	-8817
8⿱⿳	-8818
vit	-8819
·⿰⿱	-8820
▁2,	-8821
▁ef	-8822
!》	-8823
;7	-8824
𠃊目小	-8825
endo	-8826
flow	-8827
gang	-8828
ront	-8829
tony	-8830
▁bor	-8831
186	-8832
192	-8833
777	-8834
911	-8835
ament	-8836
▁1863	-8837
▁pack	-8838
,20⿱	-8839
1820	-8840
210⿱	-8841
,1928	-8842
8661「⿰	-8843
8665⿱⿶⿱⿰	-8844
aq	-8845
▁柬	-8846
一虫	-8847
舟方	-8848
155	-8849
19,	-8850
24,	-8851
49⿰	-8852
css	-8853
gio	-8854
ole	-8855
ped	-8856
sci	-8857
uer	-8858
▁!⿱	-8859
▁vs	-8860
八刀阝	-8861
口口頁	-8862
止匕石	-8863
1882	-8864
bach	-8865
ency	-8866
helm	-8867
park	-8868
sent	-8869
ways	-8870
凵丨一虫	-8871
,,⿱	-8872
312	-8873
;10	-8874
、16	-8875
》:「	-8876
abeth	-8877
ating	-8878
berry	-8879
ffect	-8880
▁post	-8881
1789	-8882
1832	-8883
1844	-8884
250⿰	-8885
global	-8886
▁earth	-8887
▁premi	-8888
20:00	-8889
5000⿰	-8890
▁invest	-8891
▁thomas	-8892
1000⿱⿱	-8893
▁journal	-8894
扌工	-8895
/09	-8896
29,	-8897
_5⿱	-8898
pad	-8899
rio	-8900
sed	-8901
yal	-8902
zzo	-8903
▁33	-8904
▁gr	-8905
1583	-8906
1644	-8907
1800	-8908
call	-8909
wind	-8910
▁15⿱	-8911
▁360	-8912
▁400	-8913
▁chi	-8914
▁fed	-8915
▁jan	-8916
182	-8917
313	-8918
▁1869	-8919
16⿱⿱	-8920
;⿶⿳⿰	-8921
vement	-8922
1,300	-8923
1100⿱	-8924
▁player	-8925
partment	-8926
▁process	-8927
nr	-8928
』。	-8929
束力	-8930
豸里	-8931
44⿰	-8932
9,⿱	-8933
:25	-8934
lou	-8935
sio	-8936
tea	-8937
▁84	-8938
▁fm	-8939
▁gb	-8940
2。	-8941
:00⿱	-8942
iner	-8943
▁135	-8944
人一口页	-8945
316	-8946
𠂊田灬非	-8947
ittee	-8948
▁1850	-8949
▁1873	-8950
▁1876	-8951
▁pict	-8952
《⿰⿱⿹	-8953
8665⿰⿻	-8954
▁library	-8955
!⿰	-8956
;⿹	-8957
jb	-8958
目疌	-8959
124	-8960
:55	-8961
ars	-8962
bee	-8963
joy	-8964
kor	-8965
nmb	-8966
uda	-8967
▁ly	-8968
▁wa	-8969
、[[	-8970
;2	-8971
1571	-8972
1864	-8973
1915	-8974
1951	-8975
agon	-8976
amaz	-8977
inte	-8978
ries	-8979
▁dam	-8980
▁mom	-8981
糸言糸木	-8982
,《⿴	-8983
326	-8984
33⿸	-8985
90⿸	-8986
:,⿰	-8987
:⿸⿸	-8988
laris	-8989
lovel	-8990
▁1881	-8991
㇇⿱⿱⿱	-8992
,14⿱	-8993
10%。	-8994
1100	-8995
115⿱	-8996
8960⿵	-8997
bility	-8998
intosh	-8999
ublish	-9000
1500⿰	-9001
3000⿰	-9002
▁theory	-9003
8661⿱⿱⿻	-9004
niconico	-9005
▁francis	-9006
▁johnson	-9007
1⿹	-9008
,⿳𭕄	-9009
102	-9010
220	-9011
30,	-9012
75⿰	-9013
8,⿱	-9014
_6⿰	-9015
bru	-9016
cky	-9017
has	-9018
ils	-9019
lus	-9020
▁ku	-9021
▁nu	-9022
▁yu	-9023
▁⿱⿸	-9024
人人艮	-9025
木木米	-9026
lord	-9027
▁129	-9028
▁146	-9029
▁son	-9030
204	-9031
:“⿴	-9032
》⿺⿱	-9033
basic	-9034
ident	-9035
▁chan	-9036
▁gala	-9037
▁into	-9038
▁next	-9039
土儿土丸𧘇	-9040
」⿱⿰⿱	-9041
9000⿱	-9042
▁george	-9043
10,000	-9044
▁business	-9045
bp	-9046
,《⿰	-9047
11,	-9048
21,	-9049
742	-9050
ify	-9051
ige	-9052
pes	-9053
▁ti	-9054
》⿱⿱	-9055
八刀木	-9056
未攵厂	-9057
禾几页	-9058
aten	-9059
cali	-9060
fami	-9061
gate	-9062
heim	-9063
▁fly	-9064
12⿻	-9065
18,	-9066
245	-9067
324	-9068
3》⿰	-9069
65⿰	-9070
acter	-9071
marie	-9072
thers	-9073
▁360⿰	-9074
1836	-9075
1839	-9076
360⿱	-9077
》,⿱⿰	-9078
eleven	-9079
source	-9080
▁train	-9081
,1918	-9082
1,800	-9083
21:00	-9084
▁valley	-9085
▁history	-9086
▁theatre	-9087
universal	-9088
▁framework	-9089
目丁	-9090
钅玉	-9091
钅贝	-9092
_29	-9093
gla	-9094
itu	-9095
ost	-9096
say	-9097
▁37	-9098
▁64	-9099
▁83	-9100
▁ms	-9101
]⿰	-9102
0⿱⿳	-9103
1553	-9104
5⿸⿸	-9105
blog	-9106
greg	-9107
unch	-9108
▁mun	-9109
」⿶⿳⿰	-9110
5⿰⿰	-9111
46⿱⿰	-9112
georg	-9113
queen	-9114
▁1861	-9115
▁1874	-9116
▁1877	-9117
▁hand	-9118
1814	-9119
ration	-9120
▁stage	-9121
,1924	-9122
1,400	-9123
19:00	-9124
lection	-9125
children	-9126
大力	-9127
火韦	-9128
,⿱⿴	-9129
31⿰	-9130
38⿱	-9131
47⿱	-9132
4⿱⿳	-9133
flu	-9134
god	-9135
hai	-9136
kom	-9137
ulo	-9138
won	-9139
▁5⿰	-9140
3000	-9141
alph	-9142
anti	-9143
cola	-9144
kara	-9145
math	-9146
mile	-9147
plus	-9148
road	-9149
sail	-9150
▁che	-9151
▁dol	-9152
▁fac	-9153
▁our	-9154
,「⿺	-9155
171	-9156
227	-9157
rison	-9158
tokyo	-9159
union	-9160
▁1875	-9161
▁kids	-9162
▁vita	-9163
▁what	-9164
prince	-9165
▁times	-9166
▁tower	-9167
▁union	-9168
▁voice	-9169
:「⿱⿱⿱	-9170
8661「⿱	-9171
dw	-9172
fb	-9173
|⿰	-9174
“⿸	-9175
日兆	-9176
门隹	-9177
99⿰	-9178
aly	-9179
dec	-9180
imi	-9181
pea	-9182
sse	-9183
▁cr	-9184
䒑土水	-9185
0。	-9186
7⿻	-9187
1565	-9188
1582	-9189
1885	-9190
ando	-9191
cole	-9192
karl	-9193
lice	-9194
▁had	-9195
▁han	-9196
▁mmc	-9197
▁tru	-9198
コ一人贝	-9199
239	-9200
》,《	-9201
66,⿸	-9202
▁base	-9203
▁fall	-9204
270⿱	-9205
antasy	-9206
▁touch	-9207
,1922	-9208
,1929	-9209
22:00	-9210
stephen	-9211
▁health	-9212
▁social	-9213
8661,⿱⿱	-9214
%⿺	-9215
来贝	-9216
22,	-9217
bun	-9218
eri	-9219
kde	-9220
ols	-9221
uts	-9222
▁ni	-9223
、⿱⿻	-9224
、⿵⿵	-9225
一由心	-9226
1⿲	-9227
𠘧又心	-9228
%⿰⿱⿱	-9229
10⿰⿱	-9230
1645	-9231
1862	-9232
1868	-9233
46⿹	-9234
600⿱	-9235
8·⿰	-9236
bank	-9237
carl	-9238
iser	-9239
mrna	-9240
▁any	-9241
▁bat	-9242
▁cry	-9243
▁kir	-9244
▁sho	-9245
十口儿刂	-9246
,90	-9247
19,	-9248
20,	-9249
2》⿱	-9250
31⿸	-9251
62⿰	-9252
“⿻⿺	-9253
》⿰⿻	-9254
aster	-9255
mount	-9256
organ	-9257
ultim	-9258
▁1866	-9259
▁1882	-9260
▁brit	-9261
▁⿰⿸⿱⿱	-9262
8000	-9263
walter	-9264
▁hotel	-9265
▁jones	-9266
,1912	-9267
1300⿱	-9268
500⿱⿱	-9269
▁martin	-9270
▁prince	-9271
▁austral	-9272
▁mission	-9273
cz	-9274
dk	-9275
jp	-9276
lm	-9277
pb	-9278
⿺⿻	-9279
、2	-9280
疒豆	-9281
31⿱	-9282
33⿱	-9283
52⿱	-9284
7,⿱	-9285
gil	-9286
hem	-9287
lid	-9288
loy	-9289
lte	-9290
pix	-9291
sas	-9292
tps	-9293
▁ic	-9294
月月刂	-9295
1888	-9296
1891	-9297
auto	-9298
avex	-9299
flor	-9300
stin	-9301
take	-9302
▁fan	-9303
▁key	-9304
▁lam	-9305
▁pos	-9306
▁syn	-9307
1,8	-9308
251	-9309
365	-9310
;0%	-9311
;《⿰	-9312
“⿰⿷	-9313
、3⿰	-9314
』,⿰	-9315
』,⿱	-9316
ology	-9317
▁auth	-9318
▁main	-9319
,11⿱	-9320
,13⿱	-9321
1793	-9322
1825	-9323
1853	-9324
22⿰⿱	-9325
liance	-9326
▁graph	-9327
▁avenue	-9328
▁gundam	-9329
▁london	-9330
▁master	-9331
▁building	-9332
/7	-9333
=2	-9334
口頁	-9335
戋皿	-9336
氵巳	-9337
虫甘	-9338
金白	-9339
/07	-9340
16,	-9341
20,	-9342
23,	-9343
25,	-9344
_31	-9345
alt	-9346
fel	-9347
hms	-9348
rib	-9349
sia	-9350
▁86	-9351
▁mv	-9352
尢丶山	-9353
[⿰	-9354
="3"	-9355
bird	-9356
dark	-9357
gaon	-9358
ners	-9359
▁136	-9360
▁167	-9361
▁17⿱	-9362
▁cli	-9363
▁mul	-9364
▁sem	-9365
▁uni	-9366
!」。	-9367
222	-9368
337	-9369
,500⿱	-9370
46⿸⿸	-9371
shire	-9372
▁beat	-9373
▁disc	-9374
▁four	-9375
▁sign	-9376
2⿱⿰⿱	-9377
arthur	-9378
depend	-9379
sunday	-9380
firefox	-9381
▁jackson	-9382
▁interactive	-9383
]、	-9384
xm	-9385
▁丈	-9386
49⿱	-9387
:⿱⿳	-9388
:⿸⿸	-9389
ape	-9390
def	-9391
dns	-9392
gsm	-9393
hay	-9394
pia	-9395
rfc	-9396
“⿰⿱	-9397
▁45	-9398
口寸灬	-9399
;《	-9400
0000	-9401
atus	-9402
lake	-9403
moon	-9404
oday	-9405
omet	-9406
ough	-9407
sive	-9408
turn	-9409
▁115	-9410
▁bul	-9411
▁cru	-9412
198	-9413
356	-9414
⿱⿳⿳	-9415
、“⿰	-9416
『⿱⿱	-9417
quest	-9418
▁gear	-9419
1790	-9420
1834	-9421
》、《⿹	-9422
「⿱⿱⿰	-9423
albert	-9424
double	-9425
little	-9426
▁produ	-9427
;2006	-9428
8661,⿸	-9429
▁joseph	-9430
8661⿶⿳⿰	-9431
▁android	-9432
▁capital	-9433
▁division	-9434
nf	-9435
xa	-9436
王申	-9437
石本	-9438
126	-9439
15,	-9440
340	-9441
5⿷	-9442
hit	-9443
ief	-9444
pay	-9445
▁89	-9446
▁gt	-9447
▁「⿻	-9448
女又巾	-9449
2/	-9450
9⿻	-9451
“⿲	-9452
,⿱⿵⿱	-9453
1870	-9454
abri	-9455
look	-9456
step	-9457
▁mes	-9458
▁vic	-9459
15⿻	-9460
235	-9461
279	-9462
430	-9463
850	-9464
after	-9465
group	-9466
happy	-9467
▁1883	-9468
▁lady	-9469
▁mach	-9470
▁pass	-9471
▁vers	-9472
▁well	-9473
550⿱	-9474
socket	-9475
taiwan	-9476
100⿰⿱	-9477
3500⿱	-9478
▁battle	-9479
▁garden	-9480
▁global	-9481
▁taiwan	-9482
vocaloid	-9483
▁collection	-9484
";	-9485
"》	-9486
,「	-9487
eh	-9488
冂丨	-9489
必皿	-9490
46,	-9491
8⿳	-9492
_34	-9493
_36	-9494
agu	-9495
bmt	-9496
gic	-9497
jes	-9498
our	-9499
冖车阝	-9500
;6	-9501
1⿰⿱⿰	-9502
ader	-9503
mage	-9504
rial	-9505
▁!⿰⿱	-9506
▁978	-9507
▁dom	-9508
▁pap	-9509
▁sen	-9510
火火冖火	-9511
,30	-9512
181	-9513
228	-9514
241	-9515
318	-9516
345	-9517
;⿰⿳	-9518
2000⿱	-9519
gnome	-9520
inder	-9521
scape	-9522
▁bill	-9523
▁boys	-9524
▁chap	-9525
▁fair	-9526
1842	-9527
▁about	-9528
▁field	-9529
,1926	-9530
▁committee	-9531
dg	-9532
xp	-9533
疒羊	-9534
12。	-9535
222	-9536
42⿱	-9537
59⿰	-9538
758	-9539
abb	-9540
cad	-9541
cit	-9542
elo	-9543
eos	-9544
inn	-9545
nfl	-9546
pci	-9547
wen	-9548
{⿰⿻	-9549
、11	-9550
夫丷页	-9551
+⿱	-9552
;5	-9553
」:	-9554
1368	-9555
1521	-9556
1580	-9557
1586	-9558
1879	-9559
19⿱⿳	-9560
kiss	-9561
sars	-9562
thor	-9563
▁htc	-9564
▁sat	-9565
▁say	-9566
▁tak	-9567
▁tar	-9568
10⿺	-9569
265	-9570
327	-9571
57⿰	-9572
;⿰⿰	-9573
—⿱⿱	-9574
《⿰⿰	-9575
spect	-9576
▁cont	-9577
▁rose	-9578
▁unit	-9579
1810	-9580
1838	-9581
7000	-9582
、10⿱	-9583
》:“⿱	-9584
「⿱⿵⿱	-9585
mobile	-9586
▁start	-9587
1,600	-9588
1800⿱	-9589
geforce	-9590
virtual	-9591
8661⿱⿳𭕄	-9592
kd	-9593
▁斗	-9594
、8	-9595
女丑	-9596
扌柬	-9597
艹且	-9598
谷阝	-9599
𠂉𠃓	-9600
17,	-9601
90⿰	-9602
adv	-9603
bda	-9604
dez	-9605
fol	-9606
gri	-9607
had	-9608
uto	-9609
口口瓦	-9610
10⿱⿳	-9611
1875	-9612
haus	-9613
mill	-9614
▁bir	-9615
▁bom	-9616
▁⿳⿱⿻	-9617
!」⿱	-9618
20%	-9619
242	-9620
247	-9621
273	-9622
329	-9623
32⿸	-9624
384	-9625
6⿱⿰	-9626
720	-9627
80%	-9628
break	-9629
▁hard	-9630
▁java	-9631
20%。	-9632
280⿱	-9633
800⿰	-9634
▁basic	-9635
▁board	-9636
▁movie	-9637
▁shell	-9638
▁where	-9639
20:30	-9640
、2015	-9641
」,⿰⿱⿱	-9642
8661、⿰	-9643
1,000⿰	-9644
▁holdings	-9645
▁transport	-9646
▁background	-9647
',	-9648
|⿱	-9649
㐅刂	-9650
山见	-9651
纟非	-9652
辶入	-9653
门三	-9654
11。	-9655
136	-9656
583	-9657
79⿰	-9658
95⿱	-9659
_32	-9660
ats	-9661
cir	-9662
fet	-9663
ido	-9664
itv	-9665
sla	-9666
tun	-9667
zan	-9668
——⿱	-9669
、「⿱	-9670
火火阝	-9671
6⿺	-9672
;9	-9673
;⿲	-9674
1853	-9675
boss	-9676
fred	-9677
irit	-9678
ophy	-9679
shar	-9680
than	-9681
▁bri	-9682
、《⿰⿱	-9683
2,2	-9684
226	-9685
336	-9686
470	-9687
767	-9688
;⿺⿱	-9689
、17	-9690
00⿱⿰⿱	-9691
8⿶⿳⿰	-9692
▁stra	-9693
▁thom	-9694
108⿱	-9695
110⿰	-9696
1776	-9697
50%。	-9698
》,《⿰	-9699
summer	-9700
▁angel	-9701
》,⿱⿱⿱	-9702
8661⿱⿴	-9703
▁energy	-9704
▁report	-9705
1,500⿱	-9706
▁portable	-9707
1⿺	-9708
kn	-9709
wp	-9710
“⿻	-9711
业㡀	-9712
钅巴	-9713
00。	-9714
103	-9715
386	-9716
54⿰	-9717
cks	-9718
gpu	-9719
hey	-9720
hin	-9721
kre	-9722
oni	-9723
see	-9724
sex	-9725
▁bi	-9726
▁kg	-9727
一丂页	-9728
木木糸	-9729
覀示瓜	-9730
1⿴	-9731
𠃊目八	-9732
ales	-9733
edge	-9734
hall	-9735
inae	-9736
nect	-9737
oshi	-9738
quad	-9739
▁pur	-9740
,26	-9741
237	-9742
355	-9743
、14	-9744
「⿰⿷	-9745
8⿱⿱⿻	-9746
magaz	-9747
maria	-9748
orial	-9749
▁1830	-9750
▁1857	-9751
▁area	-9752
,19⿱	-9753
75%⿰	-9754
、⿳⿱⿻	-9755
▁level	-9756
▁sport	-9757
▁villa	-9758
,1925	-9759
francis	-9760
▁friend	-9761
▁visual	-9762
▁central	-9763
!》	-9764
2⿹	-9765
nk	-9766
火欠	-9767
129	-9768
33⿰	-9769
450	-9770
awa	-9771
edu	-9772
fig	-9773
gui	-9774
nit	-9775
ots	-9776
syn	-9777
uty	-9778
vhs	-9779
䒑土心	-9780
匕水頁	-9781
/⿳	-9782
0:	-9783
3》	-9784
5:	-9785
5⿺	-9786
1562	-9787
1865	-9788
1887	-9789
1893	-9790
500⿰	-9791
beat	-9792
cape	-9793
crea	-9794
girl	-9795
ique	-9796
sage	-9797
smap	-9798
▁bin	-9799
▁bit	-9800
▁ten	-9801
213	-9802
234	-9803
37⿸	-9804
gency	-9805
speed	-9806
▁clar	-9807
▁econ	-9808
▁ross	-9809
25%⿰	-9810
:「⿱⿰	-9811
ential	-9812
samuel	-9813
▁secur	-9814
,1919	-9815
18:00	-9816
、2008	-9817
8661⿳⿱	-9818
8960,⿱	-9819
▁august	-9820
▁object	-9821
▁secret	-9822
▁publish	-9823
cx	-9824
lf	-9825
rn	-9826
tm	-9827
乃小	-9828
大火	-9829
里灬	-9830
26,	-9831
290	-9832
41⿰	-9833
asi	-9834
cci	-9835
ced	-9836
rop	-9837
ulu	-9838
ury	-9839
▁py	-9840
丿丿火	-9841
禾儿頁	-9842
𠁣𠃛隹	-9843
0⿰⿸	-9844
5·⿸	-9845
5⿵⿱	-9846
5⿺⿱	-9847
adhd	-9848
ists	-9849
mack	-9850
mers	-9851
ught	-9852
▁12⿱	-9853
▁157	-9854
▁add	-9855
▁lan	-9856
▁sig	-9857
244	-9858
255	-9859
339	-9860
61⿰	-9861
」⿵⿵	-9862
,⿱⿶⿱⿰	-9863
gamer	-9864
https	-9865
shine	-9866
tdown	-9867
▁3166	-9868
▁been	-9869
▁card	-9870
▁feat	-9871
,⿱⿰⿳	-9872
1650	-9873
1780	-9874
1818	-9875
23⿰⿱	-9876
700⿰	-9877
actory	-9878
▁scott	-9879
8661⿰⿹	-9880
ospital	-9881
vernment	-9882
operation	-9883
bj	-9884
vf	-9885
文口	-9886
钅目	-9887
%;⿱	-9888
18,	-9889
230	-9890
31,	-9891
37,	-9892
54⿱	-9893
8⿹	-9894
caf	-9895
fed	-9896
gol	-9897
hat	-9898
nay	-9899
pga	-9900
tgv	-9901
tvn	-9902
▁9⿱	-9903
▁nm	-9904
一由寸	-9905
八刀心	-9906
匚儿斗	-9907
:、	-9908
1547	-9909
1867	-9910
1873	-9911
1874	-9912
shan	-9913
▁ash	-9914
▁tan	-9915
▁tex	-9916
㇇、⿱	-9917
/⿱⿰	-9918
224	-9919
249	-9920
274	-9921
344	-9922
530	-9923
5⿱⿰	-9924
、4⿰	-9925
0⿱⿱⿱	-9926
chaft	-9927
eller	-9928
jason	-9929
▁1840	-9930
▁1853	-9931
▁wood	-9932
130⿰	-9933
135⿱	-9934
1775	-9935
1791	-9936
《》⿰⿱	-9937
▁apple	-9938
▁louis	-9939
,1923	-9940
3,500	-9941
、2012	-9942
》、《⿱⿳	-9943
magazine	-9944
▁computer	-9945
hg	-9946
qt	-9947
wy	-9948
▁乡	-9949
囗屯	-9950
,⿰⿰	-9951
123	-9952
33,	-9953
550	-9954
86,	-9955
ams	-9956
boo	-9957
fda	-9958
npc	-9959
pag	-9960
tnt	-9961
tus	-9962
▁31	-9963
、⿰⿸	-9964
宀八串	-9965
镸彡毛	-9966
」⿳	-9967
11⿰⿱	-9968
ardo	-9969
aria	-9970
brit	-9971
juan	-9972
mber	-9973
note	-9974
pack	-9975
poem	-9976
▁124	-9977
▁bad	-9978
▁gil	-9979
▁smk	-9980
269	-9981
278	-9982
390	-9983
42⿸	-9984
92⿰	-9985
950	-9986
⿰⿰⿱	-9987
、7⿱	-9988
「⿰⿰	-9989
𠂉大巨木	-9990
,1970	-9991
hyper	-9992
istry	-9993
scope	-9994
▁ball	-9995
▁ever	-9996
▁flor	-9997
▁sand	-9998
▁wall	-9999
14⿱⿱	-10000
15%⿰	-10001
1816	-10002
1821	-10003
24⿰⿱	-10004
5⿰⿱⿱	-10005
650⿱	-10006
》,《⿱	-10007
」、「⿺	-10008
apache	-10009
||0||0	-10010
▁relea	-10011
,⿰⿳⿱⿻	-10012
special	-10013
▁iphone	-10014
▁season	-10015
▁stadium	-10016
▁formation	-10017
:;	-10018
vv	-10019
木斥	-10020
灬又	-10021
豸才	-10022
龙耳	-10023
,《⿱	-10024
0、	-10025
134	-10026
15。	-10027
17。	-10028
35,	-10029
39⿱	-10030
_1。	-10031
apt	-10032
aqu	-10033
ccd	-10034
fat	-10035
hom	-10036
kas	-10037
ket	-10038
lad	-10039
nic	-10040
nig	-10041
||2	-10042
▁cu	-10043
▁dy	-10044
aven	-10045
ione	-10046
jess	-10047
kins	-10048
lind	-10049
oman	-10050
vard	-10051
with	-10052
▁mhz	-10053
▁mol	-10054
▁sar	-10055
▁wea	-10056
未攵厂牛	-10057
,50	-10058
161	-10059
272	-10060
;12	-10061
、8⿱	-10062
、⿳⿰	-10063
》;⿰	-10064
brand	-10065
great	-10066
kings	-10067
state	-10068
sters	-10069
vanni	-10070
▁1856	-10071
▁1859	-10072
亠丷厂生刂	-10073
1837	-10074
《》、《	-10075
「⿰⿱⿹	-10076
▁stone	-10077
izabeth	-10078
▁author	-10079
▁method	-10080
dx	-10081
口亚	-10082
0⿱⿱	-10083
226	-10084
32,	-10085
84,	-10086
87,	-10087
_6⿱	-10088
bud	-10089
emo	-10090
him	-10091
som	-10092
utt	-10093
▁av	-10094
▁mp	-10095
▁“⿺	-10096
覀示刂	-10097
𠂇巾阝	-10098
1535	-10099
1878	-10100
300⿰	-10101
="80	-10102
elly	-10103
espn	-10104
etta	-10105
goro	-10106
hist	-10107
icip	-10108
oper	-10109
teau	-10110
this	-10111
tier	-10112
▁126	-10113
▁bio	-10114
▁bre	-10115
▁fal	-10116
▁mcc	-10117
▁psy	-10118
》,⿱⿱	-10119
11⿻	-10120
191	-10121
317	-10122
:「⿴	-10123
—⿰⿱	-10124
,1935	-10125
atory	-10126
brian	-10127
smart	-10128
1795	-10129
1829	-10130
25⿰⿱	-10131
320⿱	-10132
、、、⿰	-10133
》⿱⿰⿻	-10134
logies	-10135
second	-10136
▁water	-10137
8661⿰⿻	-10138
8661⿳𭕄	-10139
directx	-10140
▁single	-10141
dreamcast	-10142
▁services	-10143
christopher	-10144
▁communication	-10145
wd	-10146
⿻⿺	-10147
王玉	-10148
目于	-10149
5,⿰	-10150
660	-10151
999	-10152
_7⿰	-10153
bmw	-10154
mam	-10155
vip	-10156
▁!⿰	-10157
▁97	-10158
▁ps	-10159
扌丸𧘇	-10160
/⿺	-10161
1592	-10162
cccc	-10163
cine	-10164
like	-10165
wart	-10166
▁dna	-10167
▁ios	-10168
▁map	-10169
▁pac	-10170
▁sca	-10171
"⿱⿰	-10172
232	-10173
275	-10174
301	-10175
314	-10176
70⿸	-10177
;11	-10178
、「⿰	-10179
21、19	-10180
kevin	-10181
metal	-10182
naver	-10183
sound	-10184
where	-10185
100⿵	-10186
113⿱	-10187
2025	-10188
「」,⿱	-10189
common	-10190
▁comic	-10191
▁exper	-10192
pentium	-10193
▁concert	-10194
▁richard	-10195
▁children	-10196
dn	-10197
ez	-10198
》⿴	-10199
一未	-10200
122	-10201
128	-10202
310	-10203
83⿰	-10204
abd	-10205
cio	-10206
dae	-10207
ert	-10208
glo	-10209
kay	-10210
ses	-10211
udo	-10212
uma	-10213
▁44	-10214
'⿰	-10215
;4	-10216
[⿱	-10217
150⿱	-10218
1577	-10219
1840	-10220
1861	-10221
8·⿱	-10222
cean	-10223
cook	-10224
ears	-10225
lica	-10226
sign	-10227
spot	-10228
sung	-10229
thew	-10230
▁att	-10231
▁cpu	-10232
▁les	-10233
▁old	-10234
▁pea	-10235
▁ray	-10236
▁tol	-10237
!⿰⿱	-10238
,80	-10239
20⿻	-10240
60%	-10241
、9⿱	-10242
》;⿱	-10243
8⿱⿰⿷	-10244
ature	-10245
itude	-10246
viron	-10247
▁flow	-10248
▁lake	-10249
▁week	-10250
128⿱	-10251
1787	-10252
1804	-10253
1819	-10254
28⿰⿱	-10255
3⿱⿰⿱	-10256
70⿱⿱	-10257
:⿰⿱⿰	-10258
="801"	-10259
▁queen	-10260
8661、⿱	-10261
▁review	-10262
8661⿱⿵⿵	-10263
▁complex	-10264
▁profess	-10265
▁species	-10266
ification	-10267
▁hospital	-10268
▁original	-10269
▁generation	-10270
/"	-10271
3⿹	-10272
gf	-10273
oy	-10274
vb	-10275
几歹	-10276
火乐	-10277
金戉	-10278
金本	-10279
阝止	-10280
16。	-10281
750	-10282
7⿱⿱	-10283
ask	-10284
dlc	-10285
fia	-10286
sty	-10287
tiv	-10288
日一页	-10289
,<	-10290
5⿵	-10291
𠂇子攵	-10292
1544	-10293
1573	-10294
1723	-10295
1724	-10296
1852	-10297
1860	-10298
alle	-10299
bios	-10300
born	-10301
fish	-10302
mini	-10303
phal	-10304
wave	-10305
▁akb	-10306
▁ang	-10307
▁bak	-10308
▁gnu	-10309
、《⿱⿱	-10310
人一口阝	-10311
弋一止贝	-10312
,29	-10313
268	-10314
440	-10315
47⿸	-10316
——《	-10317
𠂊田灬方	-10318
▁view	-10319
▁when	-10320
▁yout	-10321
1835	-10322
360⿸	-10323
60⿰⿱	-10324
6⿰⿱⿱	-10325
ccccff	-10326
ension	-10327
themat	-10328
▁stars	-10329
100⿱⿳	-10330
patrick	-10331
therine	-10332
▁effect	-10333
▁person	-10334
▁studies	-10335
iy	-10336
忄千	-10337
歹央	-10338
民日	-10339
氵里	-10340
王韦	-10341
竹世	-10342
讠牙	-10343
革末	-10344
",⿸	-10345
/20	-10346
127	-10347
6⿱⿳	-10348
72⿰	-10349
77,	-10350
;⿵⿵	-10351
_41	-10352
cca	-10353
jin	-10354
kam	-10355
rup	-10356
》,⿺	-10357
口贝阝	-10358
艹冖虫	-10359
1466	-10360
1556	-10361
1863	-10362
1881	-10363
="30	-10364
ible	-10365
lete	-10366
mate	-10367
shot	-10368
toon	-10369
ulus	-10370
▁1⿰⿱	-10371
▁802	-10372
▁blu	-10373
▁dar	-10374
▁hay	-10375
▁pot	-10376
,23	-10377
,24	-10378
248	-10379
259	-10380
3,6	-10381
346	-10382
40%	-10383
520	-10384
66⿵⿰	-10385
disco	-10386
erial	-10387
frame	-10388
garet	-10389
1794	-10390
180⿸	-10391
“⿱⿵⿱	-10392
《⿱⿱⿰	-10393
fornia	-10394
▁davis	-10395
8665⿰⿰	-10396
8665⿹⿶	-10397
▁taylor	-10398
▁charles	-10399
▁internet	-10400
▁christian	-10401
▁playstation	-10402
oz	-10403
▁卜	-10404
石隹	-10405
耒巴	-10406
192	-10407
28,	-10408
360	-10409
38,	-10410
420	-10411
43⿱	-10412
56⿱	-10413
_40	-10414
_7⿱	-10415
apo	-10416
bly	-10417
enz	-10418
gem	-10419
icy	-10420
ize	-10421
▁,⿹	-10422
▁05	-10423
▁sl	-10424
冂一谷	-10425
1574	-10426
5⿰⿰	-10427
7⿱⿰⿱	-10428
anim	-10429
brid	-10430
idea	-10431
▁130	-10432
▁aff	-10433
▁cat	-10434
▁fra	-10435
▁gun	-10436
▁hit	-10437
▁sql	-10438
▁《》⿰	-10439
㇇、⿰	-10440
火火冖水	-10441
,《⿳	-10442
26,	-10443
286	-10444
34⿸	-10445
640	-10446
:⿵⿰	-10447
、⿺⿻	-10448
amber	-10449
ishop	-10450
uglas	-10451
▁baby	-10452
▁gall	-10453
▁rain	-10454
冂一谷又土	-10455
1828	-10456
1831	-10457
27⿰⿱	-10458
⿰⿱𭕄⿻	-10459
spring	-10460
▁offic	-10461
,1914	-10462
,1917	-10463
,1921	-10464
1,700	-10465
central	-10466
/1	-10467
yz	-10468
▁犬	-10469
豕豕	-10470
,⿻㇀	-10471
108	-10472
42⿰	-10473
46⿷	-10474
607	-10475
62⿰	-10476
68⿱	-10477
78⿱	-10478
aba	-10479
guy	-10480
isi	-10481
kai	-10482
nec	-10483
nos	-10484
och	-10485
pul	-10486
rca	-10487
von	-10488
zar	-10489
▁9⿰	-10490
▁ak	-10491
▁hk	-10492
▁pp	-10493
▁pu	-10494
;8	-10495
%;15	-10496
="50	-10497
="70	-10498
ease	-10499
from	-10500
olic	-10501
pper	-10502
read	-10503
some	-10504
walk	-10505
xiii	-10506
ysis	-10507
||||	-10508
▁114	-10509
▁11⿱	-10510
▁147	-10511
▁dun	-10512
▁kor	-10513
凵丨凵示	-10514
!》⿰	-10515
,27	-10516
243	-10517
263	-10518
388	-10519
46⿸	-10520
540	-10521
59⿰	-10522
6⿰⿰	-10523
88⿰	-10524
%;65⿱	-10525
2000⿰	-10526
50⿱⿰⿱	-10527
clear	-10528
iment	-10529
infin	-10530
inton	-10531
lines	-10532
stant	-10533
▁case	-10534
101⿰	-10535
103⿱	-10536
40⿰⿱	-10537
▁block	-10538
▁broad	-10539
▁flash	-10540
▁seven	-10541
21:30	-10542
600⿱⿱	-10543
、⿰⿸⿱⿱	-10544
8661,⿺	-10545
produce	-10546
2000⿱⿱	-10547
▁against	-10548
▁version	-10549
▁enterprise	-10550
2:	-10551
:⿵	-10552
丷田	-10553
虫冉	-10554
饣耳	-10555
%,⿳	-10556
10⿸	-10557
18。	-10558
41⿱	-10559
51⿰	-10560
6,⿱	-10561
72⿱	-10562
76⿱	-10563
]、[	-10564
abl	-10565
atr	-10566
awn	-10567
tec	-10568
▁75	-10569
▁cc	-10570
▁oh	-10571
⺊口乚	-10572
」,⿸	-10573
㇀⿰	-10574
丷田日	-10575
习习廾	-10576
」⿷	-10577
1847	-10578
1851	-10579
dale	-10580
fair	-10581
itar	-10582
ized	-10583
pers	-10584
▁hon	-10585
▁rat	-10586
233	-10587
455	-10588
60⿵	-10589
46,⿰	-10590
5,⿰⿱	-10591
ching	-10592
heart	-10593
itive	-10594
ronic	-10595
stern	-10596
▁1849	-10597
▁edge	-10598
▁list	-10599
104⿱	-10600
106⿱	-10601
140⿰	-10602
1813	-10603
185⿱	-10604
18⿱⿰	-10605
derick	-10606
10000	-10607
3,200	-10608
8661⿻㇀	-10609
digital	-10610
▁airport	-10611
▁technologies	-10612
3⿺	-10613
yi	-10614
言斤	-10615
金土	-10616
阝垂	-10617
非虫	-10618
𠂉丹	-10619
265	-10620
365	-10621
4,⿰	-10622
48⿵	-10623
66,	-10624
83⿱	-10625
_2。	-10626
aac	-10627
ees	-10628
etf	-10629
lib	-10630
oly	-10631
pho	-10632
pip	-10633
rim	-10634
rod	-10635
spr	-10636
ugo	-10637
yam	-10638
▁09	-10639
▁⿳⿳	-10640
、30	-10641
木木止	-10642
10⿱⿱	-10643
50⿱⿱	-10644
bern	-10645
bser	-10646
bury	-10647
fest	-10648
ffic	-10649
hein	-10650
quar	-10651
▁101	-10652
▁113	-10653
▁ace	-10654
▁him	-10655
▁ven	-10656
▁」,⿰	-10657
,⿰⿺	-10658
0⿱⿻	-10659
1⿱⿻	-10660
231	-10661
385	-10662
490	-10663
;⿹⿶	-10664
8⿱⿰⿴	-10665
:00⿱⿱	-10666
allen	-10667
opera	-10668
phone	-10669
smith	-10670
▁chen	-10671
▁poly	-10672
▁sony	-10673
1806	-10674
1823	-10675
、、、、	-10676
》,⿰⿸	-10677
="301"	-10678
,1911	-10679
,1915	-10680
8960,⿰	-10681
youtuber	-10682
▁through	-10683
▁facebook	-10684
▁pictures	-10685
灬大	-10686
讠夬	-10687
金朱	-10688
/16	-10689
36,	-10690
52⿰	-10691
589	-10692
76⿰	-10693
dsp	-10694
gre	-10695
ppm	-10696
sti	-10697
uli	-10698
yak	-10699
丷夫己	-10700
口木火	-10701
—⿸	-10702
1502	-10703
1850	-10704
1866	-10705
="10	-10706
agen	-10707
amin	-10708
four	-10709
otal	-10710
pton	-10711
reme	-10712
wick	-10713
wing	-10714
▁116	-10715
▁arm	-10716
▁get	-10717
▁gor	-10718
▁ill	-10719
▁mir	-10720
▁utc	-10721
羊䒑口阝	-10722
,5⿰	-10723
257	-10724
25⿻	-10725
294	-10726
30%	-10727
311	-10728
465	-10729
:“⿹	-10730
:⿰⿳	-10731
:⿹⿶	-10732
「⿵⿱	-10733
66」⿰	-10734
girls	-10735
harry	-10736
ilton	-10737
liner	-10738
roman	-10739
simon	-10740
▁1815	-10741
▁afri	-10742
▁indi	-10743
▁zero	-10744
,2⿰⿱	-10745
112⿱	-10746
165⿱	-10747
1785	-10748
1822	-10749
="701"	-10750
golden	-10751
graphy	-10752
radeon	-10753
▁creek	-10754
▁piece	-10755
,1913	-10756
400⿱⿱	-10757
、2010	-10758
「⿱⿰⿱⿱	-10759
▁modern	-10760
4,000⿱	-10761
▁youtube	-10762
10,000⿱	-10763
reference	-10764
▁countdown	-10765
▁弓	-10766
《⿸	-10767
虫丘	-10768
!》⿰	-10769
05⿱	-10770
14。	-10771
195	-10772
196	-10773
255	-10774
390	-10775
47,	-10776
51⿱	-10777
5⿲	-10778
621	-10779
69⿰	-10780
_37	-10781
abs	-10782
ech	-10783
kab	-10784
kov	-10785
lav	-10786
sac	-10787
syl	-10788
▁48	-10789
/4	-10790
2⿴	-10791
4⿵	-10792
1872	-10793
18⿱⿳	-10794
48⿰⿱	-10795
agar	-10796
hero	-10797
ient	-10798
illo	-10799
matt	-10800
mine	-10801
mult	-10802
nine	-10803
plat	-10804
ryan	-10805
spon	-10806
、“⿱⿰	-10807
」,⿰⿱	-10808
,《⿵	-10809
18⿻	-10810
264	-10811
267	-10812
299	-10813
36⿸	-10814
460	-10815
63⿰	-10816
66⿰	-10817
70⿵	-10818
、5⿰	-10819
」「⿰	-10820
japan	-10821
utsch	-10822
▁here	-10823
▁ring	-10824
1801	-10825
「」,⿰	-10826
motion	-10827
school	-10828
▁alpha	-10829
]]、[[	-10830
」、「⿱⿰	-10831
chinese	-10832
▁virgin	-10833
▁archite	-10834
▁unicode	-10835
vironment	-10836
+8	-10837
1:	-10838
大車	-10839
山由	-10840
艹氏	-10841
雨非	-10842
208	-10843
225	-10844
62⿱	-10845
bos	-10846
pod	-10847
rhy	-10848
try	-10849
▁mr	-10850
▁um	-10851
▁ze	-10852
」,⿺	-10853
山大車	-10854
镸彡冉	-10855
3⿴	-10856
6:	-10857
:;	-10858
、。	-10859
1801	-10860
1858	-10861
201"	-10862
5·⿳	-10863
62⿱⿳	-10864
700⿱	-10865
8⿱⿲	-10866
="60	-10867
ives	-10868
qual	-10869
serv	-10870
shop	-10871
thal	-10872
vich	-10873
▁137	-10874
▁18⿱	-10875
▁300	-10876
▁nam	-10877
丰丰豆阝	-10878
3,5	-10879
366	-10880
4,9	-10881
512	-10882
——⿴	-10883
、⿹⿻	-10884
、「⿱	-10885
▁1858	-10886
▁eric	-10887
▁mary	-10888
▁phys	-10889
▁pier	-10890
▁used	-10891
1798	-10892
750⿱	-10893
」,⿰⿳	-10894
="201"	-10895
minist	-10896
social	-10897
1,100	-10898
2,700	-10899
chester	-10900
vention	-10901
▁differ	-10902
▁search	-10903
▁firefox	-10904
ih	-10905
sz	-10906
uz	-10907
「⿻	-10908
氵日	-10909
禺頁	-10910
艹豆	-10911
钅朱	-10912
/05	-10913
45,	-10914
48,	-10915
53⿱	-10916
82,	-10917
82⿱	-10918
amy	-10919
bed	-10920
dat	-10921
fen	-10922
jas	-10923
rel	-10924
wik	-10925
▁38	-10926
▁56	-10927
▁kn	-10928
▁mx	-10929
▁sr	-10930
口止重	-10931
日一毛	-10932
1529	-10933
1590	-10934
ages	-10935
dram	-10936
fate	-10937
gene	-10938
kill	-10939
mach	-10940
sole	-10941
thes	-10942
ween	-10943
▁cle	-10944
▁ker	-10945
▁ran	-10946
、⿱⿰⿱	-10947
、⿱⿵⿱	-10948
13⿻	-10949
20⿺	-10950
297	-10951
3,9	-10952
307	-10953
331	-10954
334	-10955
39⿸	-10956
425	-10957
52⿸	-10958
580	-10959
625	-10960
68⿰	-10961
;「⿰	-10962
》⿱⿳	-10963
66⿰⿰	-10964
apore	-10965
lated	-10966
lucas	-10967
model	-10968
santa	-10969
▁call	-10970
▁dark	-10971
▁mich	-10972
▁shop	-10973
▁stop	-10974
▁《⿱⿱⿱	-10975
100⿻	-10976
118⿱	-10977
128⿰	-10978
17⿱⿱	-10979
1826	-10980
2023	-10981
2030	-10982
="601"	-10983
▁event	-10984
▁henry	-10985
,1916	-10986
archive	-10987
▁action	-10988
▁dragon	-10989
netscape	-10990
showcase	-10991
!⿱	-10992
jk	-10993
pw	-10994
▁爪	-10995
口言	-10996
石木	-10997
/4⿰	-10998
13。	-10999
21。	-11000
22。	-11001
270	-11002
42,	-11003
44,	-11004
460	-11005
81,	-11006
880	-11007
92⿱	-11008
_9⿰	-11009
cob	-11010
det	-11011
omi	-11012
pap	-11013
pit	-11014
rai	-11015
saf	-11016
tet	-11017
tis	-11018
ufo	-11019
▁,⿻	-11020
▁49	-11021
、⿸⿸	-11022
「⿱⿱	-11023
口止石	-11024
6⿵	-11025
』,	-11026
1538	-11027
1541	-11028
1642	-11029
:00⿸	-11030
acle	-11031
lisa	-11032
orig	-11033
talk	-11034
ugar	-11035
vate	-11036
▁20⿱	-11037
▁hop	-11038
▁jam	-11039
▁mos	-11040
糸言糸手	-11041
10⿵	-11042
223	-11043
296	-11044
30,	-11045
305	-11046
387	-11047
50⿻	-11048
:『⿰	-11049
」⿺⿱	-11050
46,⿱	-11051
athan	-11052
cyclo	-11053
lands	-11054
roger	-11055
twice	-11056
▁1793	-11057
▁1854	-11058
▁acid	-11059
▁bern	-11060
▁cook	-11061
▁fund	-11062
▁jump	-11063
▁tree	-11064
▁||||	-11065
,“⿱⿰	-11066
1805	-11067
1807	-11068
3500	-11069
instit	-11070
▁chang	-11071
▁paris	-11072
,⿰⿸⿱⿱	-11073
06:00	-11074
》,⿶⿳⿰	-11075
8661《⿱	-11076
perfect	-11077
▁contin	-11078
▁factory	-11079
ashington	-11080
▁alexander	-11081
▁government	-11082
▁revolution	-11083
lb	-11084
vp	-11085
▁}	-11086
口自	-11087
土丘	-11088
木巴	-11089
氵尺	-11090
钅必	-11091
,,⿱	-11092
/14	-11093
/17	-11094
14,	-11095
1⿱⿻	-11096
30。	-11097
43⿰	-11098
50,	-11099
70⿰	-11100
95⿰	-11101
>⿰⿱	-11102
bah	-11103
bio	-11104
hum	-11105
hxd	-11106
iah	-11107
imp	-11108
meg	-11109
rer	-11110
vre	-11111
wak	-11112
▁""	-11113
▁06	-11114
▁db	-11115
▁『⿰	-11116
儿丨金	-11117
夫夫车	-11118
1⿵	-11119
5%	-11120
1400	-11121
1601	-11122
1⿰⿱⿱	-11123
="90	-11124
bard	-11125
caro	-11126
date	-11127
deep	-11128
hand	-11129
jtbc	-11130
ller	-11131
logo	-11132
radi	-11133
seed	-11134
user	-11135
viii	-11136
wolf	-11137
▁"⿰⿱	-11138
▁bow	-11139
▁bud	-11140
▁gon	-11141
▁hal	-11142
▁jer	-11143
22,	-11144
302	-11145
338	-11146
349	-11147
377	-11148
423	-11149
:“⿳	-11150
:⿵⿵	-11151
brain	-11152
court	-11153
▁chem	-11154
▁mess	-11155
▁side	-11156
▁stat	-11157
▁wong	-11158
107⿱	-11159
30%。	-11160
《⿶⿳⿰	-11161
」,「⿰	-11162
alfred	-11163
johnny	-11164
2,800	-11165
;2009	-11166
、2004	-11167
1913⿰⿱⿰	-11168
8665⿱⿳	-11169
▁galaxy	-11170
▁miller	-11171
▁silver	-11172
▁fantasy	-11173
▁support	-11174
+⿱	-11175
几止	-11176
日火	-11177
179	-11178
19。	-11179
223	-11180
239	-11181
264	-11182
357	-11183
39,	-11184
53⿰	-11185
83,	-11186
aar	-11187
acg	-11188
gus	-11189
lcd	-11190
ncc	-11191
▁08	-11192
▁39	-11193
▁ss	-11194
、“⿺	-11195
1517	-11196
1646	-11197
1661	-11198
46⿺	-11199
66、	-11200
8⿱⿳	-11201
anny	-11202
fast	-11203
full	-11204
odon	-11205
ound	-11206
perl	-11207
rose	-11208
then	-11209
▁13⿱	-11210
一厶土阝	-11211
21,	-11212
23,	-11213
410	-11214
427	-11215
570	-11216
655	-11217
77⿰	-11218
;《⿱	-11219
」,⿳	-11220
5·⿱⿱	-11221
exile	-11222
incip	-11223
ische	-11224
▁1847	-11225
▁beta	-11226
▁demo	-11227
▁made	-11228
▁plat	-11229
▁shar	-11230
▁true	-11231
▁《⿰⿱⿱	-11232
1796	-11233
40%。	-11234
》,⿸⿸	-11235
8661「	-11236
="901"	-11237
sailor	-11238
triple	-11239
▁years	-11240
;2005	-11241
;2008	-11242
、2013	-11243
、2014	-11244
intendo	-11245
▁proble	-11246
20,000	-11247
6,000⿱	-11248
▁produce	-11249
aj	-11250
nv	-11251
、4	-11252
勹言	-11253
土隶	-11254
女臣	-11255
月井	-11256
木柬	-11257
气乃	-11258
艹果	-11259
衤夬	-11260
讠几	-11261
钅甘	-11262
%,⿵	-11263
184	-11264
210	-11265
37⿱	-11266
65⿰	-11267
aks	-11268
apm	-11269
cri	-11270
eco	-11271
edy	-11272
emy	-11273
iza	-11274
kur	-11275
odd	-11276
was	-11277
zel	-11278
▁42	-11279
▁55	-11280
▁67	-11281
▁ki	-11282
▁wi	-11283
、⿰⿳	-11284
、⿰⿷	-11285
》⿱⿻	-11286
!⿺	-11287
:6	-11288
/201	-11289
0⿱⿻	-11290
1478	-11291
1559	-11292
1869	-11293
brun	-11294
como	-11295
hill	-11296
igan	-11297
kick	-11298
lein	-11299
omer	-11300
▁abd	-11301
▁age	-11302
▁kit	-11303
▁⿰⿱⿻	-11304
㇇,⿸	-11305
21⿻	-11306
284	-11307
3,7	-11308
304	-11309
306	-11310
367	-11311
4,0	-11312
43,	-11313
55⿸	-11314
71⿰	-11315
8⿰⿰	-11316
·⿰⿸	-11317
berto	-11318
drive	-11319
odore	-11320
touch	-11321
▁1842	-11322
▁fish	-11323
▁lost	-11324
▁mass	-11325
1803	-11326
31⿰⿱	-11327
480⿱	-11328
medium	-11329
square	-11330
▁appro	-11331
▁brand	-11332
▁every	-11333
▁prize	-11334
,1905	-11335
200⿰⿱	-11336
《⿱⿰⿱⿱	-11337
》、《⿸⿸	-11338
ability	-11339
▁agency	-11340
▁edward	-11341
▁velvet	-11342
▁conference	-11343
'⿱	-11344
》⿵	-11345
「⿸	-11346
月甫	-11347
王页	-11348
金皮	-11349
钅土	-11350
钅皮	-11351
0,⿱	-11352
_45	-11353
cbe	-11354
das	-11355
hib	-11356
hua	-11357
lev	-11358
▁01	-11359
▁bl	-11360
▁cs	-11361
▁》⿱	-11362
》,⿸	-11363
8⿺	-11364
—⿻	-11365
%,⿰⿱	-11366
001"	-11367
1550	-11368
1856	-11369
bart	-11370
cler	-11371
iful	-11372
iron	-11373
nett	-11374
nova	-11375
ting	-11376
true	-11377
▁ann	-11378
▁non	-11379
▁ris	-11380
05⿱	-11381
254	-11382
281	-11383
319	-11384
347	-11385
41,	-11386
41⿸	-11387
475	-11388
546	-11389
7⿰⿰	-11390
𠂊田一屯	-11391
count	-11392
hydro	-11393
multi	-11394
▁1855	-11395
▁hart	-11396
▁inte	-11397
▁radi	-11398
117⿱	-11399
123⿱	-11400
12⿱⿰	-11401
145⿱	-11402
90%。	-11403
:⿱⿰⿱	-11404
」,「⿱	-11405
8665⿲	-11406
alysis	-11407
august	-11408
cument	-11409
▁liber	-11410
▁wilson	-11411
▁command	-11412
▁concept	-11413
▁department	-11414
▁application	-11415
"、	-11416
ew	-11417
jc	-11418
kf	-11419
rm	-11420
▁隶	-11421
丿干	-11422
车乚	-11423
钅不	-11424
235	-11425
50。	-11426
59⿱	-11427
67⿱	-11428
8,⿰	-11429
:⿰⿷	-11430
cop	-11431
gie	-11432
leo	-11433
lil	-11434
num	-11435
obe	-11436
pak	-11437
ska	-11438
sou	-11439
url	-11440
▁3,	-11441
▁34	-11442
▁fl	-11443
▁mb	-11444
▁va	-11445
▁「⿺	-11446
、⿹⿶	-11447
》“	-11448
𠂒口阝	-11449
1622	-11450
1795	-11451
1855	-11452
1859	-11453
200⿻	-11454
46⿴	-11455
="40	-11456
_10⿰	-11457
bber	-11458
dear	-11459
dral	-11460
ikon	-11461
iler	-11462
itas	-11463
otto	-11464
stri	-11465
sult	-11466
▁vin	-11467
▁wel	-11468
㇇,⿺	-11469
,6⿰	-11470
236	-11471
309	-11472
321	-11473
343	-11474
5%。	-11475
560	-11476
67⿰	-11477
73⿰	-11478
』⿰⿱	-11479
21、18	-11480
ample	-11481
cient	-11482
shell	-11483
twins	-11484
villa	-11485
▁1843	-11486
▁1852	-11487
▁army	-11488
▁comb	-11489
▁kiss	-11490
▁make	-11491
10⿱⿰	-11492
19⿱⿱	-11493
26⿰⿱	-11494
80%。	-11495
》:“⿰	-11496
66,⿱⿱	-11497
="001"	-11498
amazon	-11499
itical	-11500
utiful	-11501
▁death	-11502
▁never	-11503
00:00	-11504
10⿰⿱⿱	-11505
1700⿱	-11506
4500⿱	-11507
;2012	-11508
advance	-11509
jacques	-11510
▁record	-11511
▁termin	-11512
▁security	-11513
=3	-11514
eo	-11515
kc	-11516
水水	-11517
犭弗	-11518
121	-11519
175	-11520
25。	-11521
260	-11522
303	-11523
6、6	-11524
79⿱	-11525
82⿰	-11526
_35	-11527
_8⿰	-11528
bom	-11529
dem	-11530
dev	-11531
dit	-11532
exo	-11533
hab	-11534
ipo	-11535
lux	-11536
pus	-11537
rev	-11538
sap	-11539
sis	-11540
sli	-11541
sul	-11542
zza	-11543
▁gl	-11544
『⿻	-11545
1493	-11546
1511	-11547
1643	-11548
1700	-11549
1835	-11550
5⿹⿶	-11551
_11⿰	-11552
_12⿰	-11553
adow	-11554
andr	-11555
anto	-11556
etic	-11557
juli	-11558
osph	-11559
urse	-11560
wise	-11561
ynam	-11562
yosh	-11563
▁ice	-11564
▁sav	-11565
▁use	-11566
,“⿴	-11567
16⿻	-11568
25,	-11569
252	-11570
258	-11571
27,	-11572
271	-11573
293	-11574
379	-11575
386	-11576
82⿰	-11577
21、17	-11578
66⿱⿴	-11579
cover	-11580
cular	-11581
illon	-11582
ordan	-11583
▁1851	-11584
▁dead	-11585
▁hear	-11586
▁jean	-11587
▁link	-11588
▁room	-11589
1080	-11590
11⿰⿰	-11591
1799	-11592
1802	-11593
:⿱⿵⿱	-11594
、《⿰⿱	-11595
46⿰⿱⿱	-11596
gether	-11597
▁georg	-11598
▁metal	-11599
▁plaza	-11600
▁these	-11601
▁women	-11602
2,300	-11603
;2013	-11604
、2016	-11605
、⿱⿶⿳⿰	-11606
express	-11607
thedral	-11608
▁victor	-11609
10000⿱	-11610
3000⿱⿱	-11611
victoria	-11612
▁machine	-11613
▁alliance	-11614
▁brothers	-11615
▁exchange	-11616
▁commission	-11617
oi	-11618
xf	-11619
一又	-11620
日方	-11621
木比	-11622
气川	-11623
目目	-11624
竹戋	-11625
钅巨	-11626
",⿺	-11627
135	-11628
156	-11629
34,	-11630
41,	-11631
502	-11632
6,⿰	-11633
67⿰	-11634
870	-11635
92⿰	-11636
];⿰	-11637
_33	-11638
cre	-11639
eda	-11640
fle	-11641
mom	-11642
mum	-11643
ntt	-11644
ril	-11645
umo	-11646
▁,⿴	-11647
《⿱⿰	-11648
"⿶⿳⿰	-11649
12⿰⿱	-11650
1505	-11651
beau	-11652
boot	-11653
clar	-11654
inus	-11655
itis	-11656
loss	-11657
quin	-11658
tury	-11659
▁fox	-11660
▁kat	-11661
▁lat	-11662
▁pin	-11663
▁ton	-11664
1%⿰	-11665
2:⿱	-11666
2》⿻	-11667
3,4	-11668
322	-11669
40⿵	-11670
499	-11671
53⿸	-11672
5⿱⿳	-11673
、“⿱	-11674
colle	-11675
ingen	-11676
kreis	-11677
opter	-11678
▁bell	-11679
▁talk	-11680
▁word	-11681
180⿰	-11682
420⿱	-11683
·⿱⿰⿱	-11684
200⿱⿰⿱	-11685
="501"	-11686
lamigo	-11687
▁peter	-11688
▁royal	-11689
12:00	-11690
;2007	-11691
british	-11692
frances	-11693
▁nature	-11694
european	-11695
ultimate	-11696
noinclude	-11697
,⿲	-11698
iw	-11699
qr	-11700
土亚	-11701
户非	-11702
氵来	-11703
竹艮	-11704
"|⿱	-11705
133	-11706
238	-11707
29。	-11708
49,	-11709
98⿰	-11710
bac	-11711
ela	-11712
fit	-11713
gis	-11714
lak	-11715
mak	-11716
nal	-11717
tee	-11718
ype	-11719
▁47	-11720
▁il	-11721
口口页	-11722
竹艮皿	-11723
;“	-11724
/10⿱	-11725
15⿱⿳	-11726
16⿰⿱	-11727
2,⿱⿱	-11728
5,⿸	-11729
5⿰⿹	-11730
bson	-11731
cash	-11732
cock	-11733
dell	-11734
dota	-11735
earl	-11736
ians	-11737
laur	-11738
nike	-11739
oria	-11740
rier	-11741
song	-11742
▁2⿰⿱	-11743
▁3⿰⿱	-11744
▁ath	-11745
▁nhk	-11746
▁sir	-11747
▁⿰⿸⿸	-11748
目目隹又	-11749
262	-11750
3,3	-11751
333	-11752
42,	-11753
48⿸	-11754
535	-11755
615	-11756
65⿸	-11757
680	-11758
70%	-11759
740	-11760
74⿰	-11761
78⿰	-11762
,000⿸	-11763
21、13	-11764
amond	-11765
earth	-11766
jimmy	-11767
pedia	-11768
▁engl	-11769
▁them	-11770
▁then	-11771
▁wolf	-11772
116⿱	-11773
175⿱	-11774
33⿰⿱	-11775
;⿱⿰⿱	-11776
、⿰⿸⿸	-11777
="401"	-11778
forman	-11779
struct	-11780
ussell	-11781
wonder	-11782
▁allen	-11783
▁chart	-11784
▁march	-11785
,1910	-11786
、2007	-11787
《⿱⿶⿱⿰	-11788
」,⿱⿰⿴	-11789
8661⿹⿶	-11790
present	-11791
▁access	-11792
▁follow	-11793
▁culture	-11794
fy	-11795
rk	-11796
口黑	-11797
彳来	-11798
毛求	-11799
王禹	-11800
車乚	-11801
1,3	-11802
138	-11803
20。	-11804
256	-11805
26。	-11806
28。	-11807
307	-11808
32。	-11809
74⿱	-11810
98⿱	-11811
aku	-11812
aru	-11813
cip	-11814
dri	-11815
hun	-11816
jak	-11817
kra	-11818
lol	-11819
mbh	-11820
phi	-11821
tek	-11822
thi	-11823
▁43	-11824
▁59	-11825
▁69	-11826
▁ig	-11827
▁rd	-11828
▁》⿰	-11829
、、⿰	-11830
》⿵⿰	-11831
立十糸	-11832
“⿶	-11833
『⿸	-11834
1500	-11835
1799	-11836
orus	-11837
risc	-11838
scan	-11839
▁asp	-11840
▁din	-11841
㇇⿱⿳	-11842
丨丨比几	-11843
丨丨比米	-11844
31,	-11845
389	-11846
399	-11847
590	-11848
610	-11849
《⿻⿺	-11850
」「⿱	-11851
,2011	-11852
46、⿰	-11853
broad	-11854
icago	-11855
macos	-11856
order	-11857
rence	-11858
▁1814	-11859
▁lang	-11860
▁miss	-11861
▁such	-11862
111⿱	-11863
1811	-11864
《⿱⿱⿻	-11865
66,⿰⿱	-11866
ctions	-11867
debian	-11868
future	-11869
secret	-11870
▁catal	-11871
▁magic	-11872
▁major	-11873
▁study	-11874
19:30	-11875
2,100	-11876
2200⿱	-11877
、2000	-11878
torrent	-11879
▁philip	-11880
▁vision	-11881
8661⿱⿱⿰	-11882
▁between	-11883
▁engineering	-11884
▁environment	-11885
▁?	-11886
▁央	-11887
亠矛	-11888
人工	-11889
米果	-11890
艹必	-11891
虫斗	-11892
钅戉	-11893
01⿰	-11894
10、	-11895
139	-11896
144	-11897
168	-11898
249	-11899
840	-11900
[[⿰	-11901
_38	-11902
avi	-11903
azz	-11904
coo	-11905
exe	-11906
geo	-11907
iva	-11908
lau	-11909
mpa	-11910
nin	-11911
oem	-11912
uly	-11913
wei	-11914
wes	-11915
▁07	-11916
▁76	-11917
▁bc	-11918
▁mw	-11919
亠矛𧘇	-11920
冂丶阝	-11921
目八阝	-11922
立十手	-11923
/3	-11924
/10。	-11925
1369	-11926
1490	-11927
1733	-11928
1830	-11929
5⿰⿻	-11930
gary	-11931
gers	-11932
iata	-11933
ield	-11934
izon	-11935
lier	-11936
lisp	-11937
make	-11938
oods	-11939
osis	-11940
reas	-11941
sens	-11942
stit	-11943
▁gas	-11944
▁ibm	-11945
▁lor	-11946
▁oct	-11947
▁sel	-11948
▁sor	-11949
▁sul	-11950
1⿱⿳	-11951
283	-11952
295	-11953
30⿵	-11954
369	-11955
456	-11956
529	-11957
76⿰	-11958
87⿰	-11959
9⿰⿰	-11960
——“	-11961
「⿱⿹	-11962
peria	-11963
stadt	-11964
start	-11965
▁1846	-11966
▁gate	-11967
▁stri	-11968
▁wild	-11969
155⿱	-11970
1809	-11971
1、2、	-11972
4⿱⿰⿱	-11973
⿰⿱⿱⿻	-11974
、11⿱	-11975
bourne	-11976
▁retri	-11977
▁santa	-11978
100%。	-11979
2,600	-11980
4000⿰	-11981
▁castle	-11982
▁france	-11983
lovelive	-11984
margaret	-11985
▁australia	-11986
▁federation	-11987
2]	-11988
>⿸	-11989
lz	-11990
▁戊	-11991
、1	-11992
一阝	-11993
礻韦	-11994
舟中	-11995
虫皿	-11996
钅川	-11997
%,⿺	-11998
+26	-11999
/21	-12000
17、	-12001
36。	-12002
465	-12003
57⿰	-12004
68⿰	-12005
81⿱	-12006
91⿰	-12007
:⿺⿱	-12008
abi	-12009
amc	-12010
fps	-12011
oct	-12012
oll	-12013
ssl	-12014
thm	-12015
ues	-12016
xxx	-12017
{⿵⿱	-12018
▁99	-12019
▁ul	-12020
▁wu	-12021
▁」⿹	-12022
木斤白	-12023
2⿲	-12024
1487	-12025
1589	-12026
1727	-12027
1814	-12028
1837	-12029
1854	-12030
8⿵⿰	-12031
ansi	-12032
cogn	-12033
hold	-12034
icks	-12035
lich	-12036
load	-12037
most	-12038
room	-12039
uary	-12040
▁mix	-12041
▁tam	-12042
▁《⿰⿸	-12043
▁「⿱⿰	-12044
、⿶⿳⿰	-12045
乛耳攵心	-12046
276	-12047
291	-12048
308	-12049
447	-12050
485	-12051
49⿸	-12052
802	-12053
86⿰	-12054
960	-12055
、1,	-12056
《⿰⿷	-12057
melon	-12058
moham	-12059
shall	-12060
track	-12061
▁1824	-12062
▁1844	-12063
▁away	-12064
▁cafe	-12065
▁mind	-12066
▁path	-12067
100⿸	-12068
114⿱	-12069
160⿰	-12070
1770	-12071
1817	-12072
20⿱⿳	-12073
370⿱	-12074
45⿱⿱	-12075
:“⿰⿻	-12076
8661⿶	-12077
="101"	-12078
chrome	-12079
lambda	-12080
public	-12081
virgin	-12082
▁arena	-12083
▁thing	-12084
▁watch	-12085
,1909	-12086
3,800	-12087
》,⿰⿱⿱	-12088
bigbang	-12089
freebsd	-12090
ulation	-12091
▁future	-12092
▁taipei	-12093
5000⿱⿱	-12094
▁classic	-12095
dependent	-12096
▁television	-12097
fw	-12098
hf	-12099
kl	-12100
rw	-12101
xo	-12102
、⿲	-12103
弓耳	-12104
扌垂	-12105
王月	-12106
!》⿱	-12107
%;⿵	-12108
/06	-12109
319	-12110
57⿱	-12111
73⿱	-12112
93⿰	-12113
_8⿱	-12114
cau	-12115
hil	-12116
his	-12117
kia	-12118
lov	-12119
rex	-12120
tat	-12121
til	-12122
▁4,	-12123
▁bb	-12124
冂卄禾	-12125
'⿱	-12126
1⿷	-12127
:2	-12128
1475	-12129
1648	-12130
45⿱⿳	-12131
5·⿻	-12132
5⿱⿺	-12133
_12⿱	-12134
bahn	-12135
burn	-12136
coco	-12137
coun	-12138
easy	-12139
ello	-12140
emba	-12141
feld	-12142
icao	-12143
kamp	-12144
made	-12145
nest	-12146
self	-12147
thus	-12148
wifi	-12149
▁amd	-12150
▁dos	-12151
▁kim	-12152
▁」,⿱	-12153
一中冖石	-12154
,28	-12155
/⿺⿱	-12156
14⿻	-12157
34,	-12158
368	-12159
581	-12160
585	-12161
860	-12162
:「⿵	-12163
“⿵⿱	-12164
』、『	-12165
21、16	-12166
51⿱⿰⿱	-12167
angle	-12168
encer	-12169
jamin	-12170
other	-12171
worms	-12172
▁1789	-12173
▁1820	-12174
▁1825	-12175
▁1845	-12176
▁want	-12177
,177	-12178
127⿱	-12179
1781	-12180
95%⿰	-12181
》⿱⿱⿰	-12182
23:00⿰	-12183
associ	-12184
berger	-12185
gcolor	-12186
winner	-12187
▁anton	-12188
▁blood	-12189
▁break	-12190
▁dynam	-12191
▁moore	-12192
▁obser	-12193
▁quest	-12194
2100⿱	-12195
4,800	-12196
;2011	-12197
;2016	-12198
、2006	-12199
anthony	-12200
▁during	-12201
▁source	-12202
▁english	-12203
▁solution	-12204
▁christmas	-12205
▁community	-12206
=1	-12207
],	-12208
gd	-12209
hm	-12210
wb	-12211
▁言	-12212
竹肃	-12213
酉甘	-12214
%;⿰	-12215
0%。	-12216
08⿰	-12217
169	-12218
202	-12219
213	-12220
8,	-12221
bye	-12222
cut	-12223
hur	-12224
nts	-12225
plo	-12226
uci	-12227
vpn	-12228
▁81	-12229
▁「⿴	-12230
一八皮	-12231
火火刂	-12232
1457	-12233
1598	-12234
1628	-12235
1841	-12236
8⿳⿱	-12237
bing	-12238
epic	-12239
hack	-12240
kien	-12241
loyd	-12242
nord	-12243
para	-12244
phys	-12245
pire	-12246
sand	-12247
that	-12248
▁/><	-12249
▁apr	-12250
▁dia	-12251
▁flo	-12252
,60	-12253
,70	-12254
,「⿴	-12255
332	-12256
476	-12257
5,0	-12258
56⿸	-12259
670	-12260
787	-12261
:⿳⿱	-12262
、24	-12263
、25	-12264
、30	-12265
」⿱⿲	-12266
orton	-12267
rench	-12268
sweet	-12269
▁gmbh	-12270
▁khan	-12271
▁kill	-12272
▁nasa	-12273
▁stru	-12274
▁text	-12275
▁ther	-12276
▁very	-12277
▁《⿱⿰⿱	-12278
,30⿱	-12279
,「⿱⿰	-12280
121⿱	-12281
1570	-12282
1784	-12283
1788	-12284
1808	-12285
21⿱⿱	-12286
22⿱⿱	-12287
2600	-12288
8⿰⿱⿱	-12289
;⿰⿱⿰	-12290
——⿱⿰	-12291
michel	-12292
▁guide	-12293
▁ident	-12294
▁match	-12295
▁medic	-12296
▁photo	-12297
,1907	-12298
,1908	-12299
2,400	-12300
;2015	-12301
》、《⿺⿱	-12302
journal	-12303
▁forest	-12304
▁walker	-12305
fication	-12306
▁england	-12307
fp	-12308
nx	-12309
ym	-12310
{「	-12311
▁才	-12312
"》⿰	-12313
05⿰	-12314
176	-12315
204	-12316
205	-12317
24。	-12318
269	-12319
410	-12320
43,	-12321
58⿱	-12322
64,	-12323
757	-12324
dir	-12325
iae	-12326
idi	-12327
lit	-12328
orf	-12329
owa	-12330
rik	-12331
sud	-12332
▁04	-12333
▁57	-12334
▁79	-12335
▁fx	-12336
▁《》	-12337
冂口木	-12338
,『	-12339
7⿺	-12340
;<	-12341
『⿺	-12342
",⿰⿱	-12343
100⿻	-12344
1496	-12345
1570	-12346
1578	-12347
1810	-12348
20⿱⿱	-12349
bara	-12350
bust	-12351
dead	-12352
eman	-12353
enda	-12354
fall	-12355
igen	-12356
onic	-12357
trna	-12358
vier	-12359
wall	-12360
wide	-12361
▁boo	-12362
▁cha	-12363
▁cit	-12364
▁cro	-12365
▁opt	-12366
▁sex	-12367
▁tit	-12368
,“⿵	-12369
1⿵⿰	-12370
414	-12371
44⿸	-12372
757	-12373
95⿰	-12374
》「⿱	-12375
「⿱⿴	-12376
」⿰⿰	-12377
𠂊田灬工	-12378
5,⿱⿱	-12379
ernst	-12380
ester	-12381
genie	-12382
human	-12383
quant	-12384
turbo	-12385
▁1792	-12386
▁1839	-12387
▁1841	-12388
▁amaz	-12389
▁bran	-12390
▁hope	-12391
108⿰	-12392
1453	-12393
》、⿰⿱	-12394
66⿱⿰⿱	-12395
ancial	-12396
carlos	-12397
contin	-12398
stream	-12399
▁autom	-12400
▁labor	-12401
▁money	-12402
▁robin	-12403
▁spect	-12404
▁track	-12405
2700⿱	-12406
solaris	-12407
▁attack	-12408
▁chrome	-12409
▁memory	-12410
▁medical	-12411
▁pacific	-12412
,000,000⿰	-12413
▁analysis	-12414
▁anderson	-12415
references	-12416
=0	-12417
dz	-12418
yr	-12419
▁臣	-12420
▁见	-12421
艹虫	-12422
,10	-12423
11、	-12424
203	-12425
262	-12426
61⿰	-12427
afl	-12428
cot	-12429
eug	-12430
gym	-12431
ims	-12432
khz	-12433
lai	-12434
nah	-12435
ned	-12436
opa	-12437
psv	-12438
raj	-12439
sau	-12440
sho	-12441
||3	-12442
▁ng	-12443
▁zu	-12444
:。	-12445
“3	-12446
1637	-12447
1820	-12448
1826	-12449
6⿱⿰⿱	-12450
_11⿱	-12451
bass	-12452
cord	-12453
ifer	-12454
ired	-12455
jpeg	-12456
soul	-12457
stay	-12458
stro	-12459
tail	-12460
unit	-12461
wang	-12462
▁dei	-12463
▁sus	-12464
,40	-12465
,⿳⿰	-12466
2,8	-12467
22⿻	-12468
23⿻	-12469
359	-12470
4》⿰	-12471
515	-12472
69⿰	-12473
:;⿱	-12474
、⿳⿳	-12475
」⿸⿸	-12476
andre	-12477
bobby	-12478
ctive	-12479
magic	-12480
sarah	-12481
▁1807	-12482
▁beca	-12483
▁left	-12484
▁lind	-12485
,1⿰⿱	-12486
330⿱	-12487
850⿱	-12488
」,⿰⿸	-12489
,000⿰⿱	-12490
8665⿷	-12491
london	-12492
member	-12493
orange	-12494
shinee	-12495
termin	-12496
▁small	-12497
▁storm	-12498
1200⿰	-12499
3,300	-12500
version	-12501
▁europe	-12502
▁integr	-12503
▁moment	-12504
▁planet	-12505
formance	-12506
giovanni	-12507
;⿴	-12508
jd	-12509
·⿳	-12510
、<	-12511
二儿	-12512
女朱	-12513
戊臣	-12514
月甲	-12515
06⿰	-12516
20⿸	-12517
23:	-12518
2⿰⿰	-12519
306	-12520
399	-12521
40,	-12522
453	-12523
74⿰	-12524
805	-12525
89,	-12526
907	-12527
_42	-12528
aer	-12529
dur	-12530
haw	-12531
hud	-12532
jen	-12533
pub	-12534
rem	-12535
tsa	-12536
udp	-12537
wea	-12538
▁ah	-12539
、《⿻	-12540
山而页	-12541
8⿵	-12542
1454	-12543
1481	-12544
1569	-12545
1575	-12546
1585	-12547
1610	-12548
1616	-12549
1647	-12550
1789	-12551
1805	-12552
1845	-12553
_19⿰	-12554
asis	-12555
cham	-12556
chus	-12557
enix	-12558
eved	-12559
fume	-12560
hart	-12561
idas	-12562
iden	-12563
late	-12564
lost	-12565
path	-12566
pont	-12567
tage	-12568
upac	-12569
uten	-12570
zone	-12571
▁fis	-12572
▁lie	-12573
▁pon	-12574
▁rub	-12575
人人龰心	-12576
,35	-12577
,“⿳	-12578
24,	-12579
253	-12580
28,	-12581
282	-12582
292	-12583
342	-12584
4,6	-12585
519	-12586
586	-12587
81⿰	-12588
985	-12589
99⿰	-12590
」⿰⿻	-12591
,2007	-12592
,2017	-12593
,2018	-12594
istic	-12595
major	-12596
maker	-12597
▁1787	-12598
▁1800	-12599
▁cali	-12600
▁carp	-12601
▁draw	-12602
▁gram	-12603
▁vent	-12604
0⿰⿱⿱	-12605
109⿱	-12606
124⿱	-12607
1250	-12608
1777	-12609
2100	-12610
2400	-12611
360⿰	-12612
380⿱	-12613
85%⿰	-12614
9000	-12615
animax	-12616
church	-12617
commun	-12618
dition	-12619
opengl	-12620
▁maker	-12621
▁songs	-12622
150⿰⿱	-12623
;2014	-12624
science	-12625
▁univers	-12626
▁village	-12627
▁sciences	-12628
▁messenger	-12629
▁productions	-12630
":	-12631
"}	-12632
nl	-12633
rl	-12634
{⿻	-12635
二女	-12636
亡阝	-12637
口甘	-12638
干干	-12639
广阝	-12640
,⿰⿹	-12641
/19	-12642
12、	-12643
131	-12644
174	-12645
206	-12646
40⿸	-12647
466	-12648
48⿸	-12649
549	-12650
cch	-12651
cke	-12652
cup	-12653
etc	-12654
fam	-12655
fro	-12656
iri	-12657
kus	-12658
sns	-12659
toy	-12660
vio	-12661
▁65	-12662
▁95	-12663
▁hp	-12664
▁⿳⿻	-12665
乀丿虫	-12666
"⿳	-12667
//	-12668
3⿲	-12669
」"	-12670
",19	-12671
100。	-12672
120⿱	-12673
1631	-12674
1640	-12675
1659	-12676
39⿱⿳	-12677
_13⿰	-12678
apur	-12679
bone	-12680
boys	-12681
cern	-12682
dash	-12683
eign	-12684
lins	-12685
mera	-12686
mira	-12687
mono	-12688
stop	-12689
thea	-12690
▁ado	-12691
▁fel	-12692
▁got	-12693
▁low	-12694
▁⿱⿱⿲	-12695
▁《》⿱	-12696
㇇⿱⿻	-12697
!⿱⿱	-12698
,8⿰	-12699
30⿻	-12700
373	-12701
469	-12702
479	-12703
486	-12704
50⿺	-12705
556	-12706
69⿸	-12707
760	-12708
780	-12709
7⿱⿰	-12710
840	-12711
85⿰	-12712
:⿲㇇	-12713
、8⿰	-12714
《⿳𭕄	-12715
《⿵⿱	-12716
21、14	-12717
dance	-12718
emule	-12719
ensen	-12720
ibili	-12721
iting	-12722
suica	-12723
valve	-12724
voice	-12725
▁1000	-12726
▁1831	-12727
▁cong	-12728
▁scho	-12729
▁wave	-12730
119⿱	-12731
156⿱	-12732
38⿰⿱	-12733
60%。	-12734
、12⿱	-12735
▁della	-12736
▁happy	-12737
▁infor	-12738
▁liter	-12739
▁smart	-12740
▁trade	-12741
;2001	-12742
8665⿳𭕄	-12743
versary	-12744
▁compet	-12745
▁factor	-12746
▁legend	-12747
▁police	-12748
▁surface	-12749
10,000⿰	-12750
macintosh	-12751
▁republic	-12752
▁retrieved	-12753
fk	-12754
jj	-12755
qf	-12756
uy	-12757
xc	-12758
·⿺	-12759
▁%	-12760
》、	-12761
冫牙	-12762
火屯	-12763
石𠃓	-12764
禾末	-12765
"/"	-12766
/22	-12767
06⿱	-12768
304	-12769
308	-12770
93⿱	-12771
],⿰	-12772
_9⿱	-12773
ads	-12774
amx	-12775
atm	-12776
atv	-12777
cct	-12778
dge	-12779
dog	-12780
dsi	-12781
eli	-12782
fon	-12783
gia	-12784
igg	-12785
iod	-12786
kol	-12787
tab	-12788
tru	-12789
utf	-12790
vik	-12791
▁82	-12792
▁;⿰	-12793
▁aa	-12794
▁ny	-12795
▁sg	-12796
▁“⿴	-12797
▁」⿴	-12798
、⿵⿰	-12799
八刀土	-12800
勹巳刂	-12801
目八缶	-12802
4⿲	-12803
;「	-12804
1371	-12805
15⿰⿱	-12806
1651	-12807
16⿱⿳	-12808
1730	-12809
1736	-12810
1817	-12811
1823	-12812
1843	-12813
250⿱	-12814
:00、	-12815
="1"	-12816
alis	-12817
brea	-12818
care	-12819
cont	-12820
dave	-12821
kawa	-12822
lymp	-12823
mass	-12824
oker	-12825
ours	-12826
spar	-12827
▁19⿱	-12828
▁abb	-12829
▁civ	-12830
▁cut	-12831
▁kra	-12832
▁mit	-12833
▁rfc	-12834
▁tag	-12835
▁xml	-12836
糸言糸子	-12837
17⿻	-12838
19⿻	-12839
29,	-12840
298	-12841
328	-12842
35,	-12843
381	-12844
457	-12845
487	-12846
533	-12847
54⿸	-12848
589	-12849
658	-12850
80⿸	-12851
83⿰	-12852
⿱⿳⿻	-12853
billy	-12854
brook	-12855
ellen	-12856
honey	-12857
inary	-12858
tommy	-12859
▁1791	-12860
▁1802	-12861
▁1806	-12862
▁1832	-12863
▁anti	-12864
▁body	-12865
▁fern	-12866
▁full	-12867
▁ieee	-12868
▁lear	-12869
▁leon	-12870
▁mall	-12871
,12⿰	-12872
0⿱⿰⿱	-12873
1150	-12874
1610	-12875
1689	-12876
1827	-12877
40⿱⿳	-12878
51%⿰	-12879
80⿱⿱	-12880
johann	-12881
native	-12882
object	-12883
rapper	-12884
▁azure	-12885
▁beach	-12886
▁index	-12887
▁techn	-12888
▁tokyo	-12889
2,200	-12890
;1999	-12891
、2009	-12892
control	-12893
yoshiki	-12894
▁before	-12895
▁comput	-12896
1,200⿱	-12897
▁orchest	-12898
▁railway	-12899
▁without	-12900
friedrich	-12901
▁material	-12902
▁movement	-12903
▁friedrich	-12904
9"	-12905
nb	-12906
rr	-12907
tk	-12908
vm	-12909
山山	-12910
廴由	-12911
,⿲㇇	-12912
137	-12913
173	-12914
207	-12915
20、	-12916
214	-12917
21⿴	-12918
229	-12919
259	-12920
2⿱⿻	-12921
30%	-12922
405	-12923
409	-12924
452	-12925
48、	-12926
705	-12927
78⿰	-12928
84⿱	-12929
99⿱	-12930
[[⿱	-12931
_3。	-12932
_49	-12933
bak	-12934
csm	-12935
esh	-12936
kot	-12937
phe	-12938
rgb	-12939
sie	-12940
tak	-12941
tap	-12942
uff	-12943
uru	-12944
{「}	-12945
▁3、	-12946
▁ia	-12947
▁kr	-12948
▁ts	-12949
▁zo	-12950
、“⿳	-12951
、“⿴	-12952
立十纟	-12953
车斤土	-12954
0,⿸	-12955
12,⿰	-12956
1735	-12957
1846	-12958
21⿰⿱	-12959
:⿱⿵⿱	-12960
anus	-12961
ario	-12962
bron	-12963
chat	-12964
ilog	-12965
info	-12966
rett	-12967
sist	-12968
stic	-12969
ties	-12970
utch	-12971
▁bru	-12972
▁chu	-12973
▁dor	-12974
▁geo	-12975
▁ghz	-12976
▁hom	-12977
▁hum	-12978
▁lyn	-12979
⿰⿳⿱⿻	-12980
,⿳⿻	-12981
25⿵	-12982
261	-12983
341	-12984
3⿵⿰	-12985
4,4	-12986
419	-12987
439	-12988
——⿳	-12989
“⿵⿰	-12990
𠂊田灬弗	-12991
0,⿰⿱	-12992
inity	-12993
ledge	-12994
reams	-12995
train	-12996
ument	-12997
watch	-12998
▁1809	-12999
▁1833	-13000
▁eyes	-13001
▁look	-13002
▁must	-13003
▁take	-13004
▁wang	-13005
,10⿰	-13006
,24⿱	-13007
122⿱	-13008
1760	-13009
1783	-13010
25%。	-13011
340⿱	-13012
350⿰	-13013
70%。	-13014
」,⿵⿰	-13015
」、「⿳	-13016
」、「⿴	-13017
bridge	-13018
dennis	-13019
design	-13020
donald	-13021
market	-13022
sident	-13023
sports	-13024
steven	-13025
thesis	-13026
▁olymp	-13027
▁texas	-13028
▁trust	-13029
1,900	-13030
2300⿱	-13031
;2004	-13032
、2011	-13033
、2017	-13034
8960⿱⿰	-13035
borough	-13036
palazzo	-13037
running	-13038
western	-13039
▁estate	-13040
▁ground	-13041
▁gallery	-13042
▁premium	-13043
lucasarts	-13044
▁european	-13045
hb	-13046
qi	-13047
一隹	-13048
氵龙	-13049
白木	-13050
金不	-13051
/01	-13052
01⿱	-13053
08⿱	-13054
18、	-13055
215	-13056
266	-13057
43。	-13058
46。	-13059
479	-13060
495	-13061
60。	-13062
630	-13063
770	-13064
80,	-13065
889	-13066
97⿱	-13067
_44	-13068
afi	-13069
bia	-13070
dfa	-13071
gli	-13072
jst	-13073
mut	-13074
nav	-13075
pto	-13076
rez	-13077
▁2、	-13078
▁fc	-13079
、40	-13080
」⿱⿰	-13081
6⿴	-13082
9⿺	-13083
:3	-13084
11⿱⿳	-13085
17⿱⿳	-13086
1829	-13087
1838	-13088
5,⿺	-13089
ador	-13090
ante	-13091
avbw	-13092
blan	-13093
coln	-13094
cult	-13095
etti	-13096
flex	-13097
ieve	-13098
izer	-13099
neth	-13100
palm	-13101
rang	-13102
rica	-13103
sher	-13104
soho	-13105
tang	-13106
▁11⿰	-13107
▁cri	-13108
▁eos	-13109
▁jon	-13110
▁kam	-13111
▁kon	-13112
▁tun	-13113
丷八白木	-13114
2:⿰	-13115
303	-13116
3》⿱	-13117
43⿸	-13118
44,	-13119
63,	-13120
9⿱⿳	-13121
]]。	-13122
“⿱⿴	-13123
、6⿰	-13124
《》⿸	-13125
》,⿳	-13126
》⿱⿺	-13127
𠂊田灬身	-13128
1000⿱	-13129
5⿱⿱⿰	-13130
ardis	-13131
bruce	-13132
ccess	-13133
cyber	-13134
layer	-13135
ledis	-13136
mania	-13137
mauri	-13138
mouth	-13139
netic	-13140
stock	-13141
▁1801	-13142
▁boss	-13143
▁caro	-13144
▁five	-13145
▁hero	-13146
▁lane	-13147
▁meet	-13148
▁regu	-13149
▁seed	-13150
▁synd	-13151
▁trax	-13152
▁wars	-13153
▁wing	-13154
1,00	-13155
126⿱	-13156
132⿱	-13157
1648	-13158
30⿱⿳	-13159
》⿰⿱⿹	-13160
100⿱⿰⿱	-13161
icipal	-13162
lywood	-13163
pascal	-13164
spacex	-13165
▁being	-13166
▁books	-13167
▁india	-13168
▁table	-13169
▁virus	-13170
,1904	-13171
150⿱⿳	-13172
、2001	-13173
66⿱⿶⿱⿰	-13174
8661⿱⿵	-13175
▁artist	-13176
7,000⿱	-13177
8665⿰⿱⿰	-13178
bilibili	-13179
▁bgcolor	-13180
▁document	-13181
▁thompson	-13182
▁authority	-13183
▁orchestra	-13184
%⿵	-13185
,1	-13186
hh	-13187
wu	-13188
▁禹	-13189
」}	-13190
木乍	-13191
目冘	-13192
虫乚	-13193
𠂇冂	-13194
,,⿰	-13195
/04	-13196
159	-13197
16、	-13198
20%	-13199
212	-13200
282	-13201
299	-13202
305	-13203
69⿱	-13204
7,⿰	-13205
890	-13206
aco	-13207
arn	-13208
bab	-13209
cgi	-13210
eni	-13211
fac	-13212
gay	-13213
hid	-13214
jud	-13215
nod	-13216
tml	-13217
ulf	-13218
wto	-13219
▁',	-13220
▁68	-13221
▁;⿱	-13222
▁bs	-13223
、⿲㇇	-13224
重力灬	-13225
!?	-13226
"⿴	-13227
;1	-13228
「1	-13229
』⿺	-13230
12⿱⿳	-13231
13⿰⿱	-13232
14⿰⿱	-13233
14⿱⿳	-13234
1508	-13235
1581	-13236
1621	-13237
1625	-13238
1636	-13239
1701	-13240
1748	-13241
1797	-13242
1824	-13243
1844	-13244
1857	-13245
2⿰⿱⿱	-13246
500⿻	-13247
_18⿰	-13248
avor	-13249
bast	-13250
brad	-13251
ched	-13252
hiro	-13253
ifpi	-13254
jenn	-13255
keca	-13256
lina	-13257
mala	-13258
mind	-13259
momo	-13260
sata	-13261
▁110	-13262
▁256	-13263
▁agg	-13264
▁bag	-13265
▁bes	-13266
▁bot	-13267
▁hip	-13268
▁ing	-13269
▁kbs	-13270
▁kin	-13271
▁mtv	-13272
▁six	-13273
▁“⿱⿰	-13274
▁《⿳⿱	-13275
▁」⿵⿵	-13276
㇇⿰⿰	-13277
15⿺	-13278
383	-13279
3⿱⿳	-13280
4,5	-13281
51,	-13282
524	-13283
537	-13284
660	-13285
690	-13286
8⿱⿰	-13287
《⿸⿱	-13288
cript	-13289
dynam	-13290
ished	-13291
matan	-13292
three	-13293
tocol	-13294
▁1795	-13295
▁1821	-13296
▁1835	-13297
▁bang	-13298
▁mont	-13299
▁mult	-13300
▁soft	-13301
▁step	-13302
㇇,⿰⿱	-13303
1640	-13304
200⿻	-13305
23⿱⿱	-13306
80⿰⿱	-13307
:,⿱⿱	-13308
21:30⿰	-13309
8⿱⿶⿱⿰	-13310
elling	-13311
howard	-13312
manuel	-13313
strong	-13314
▁asian	-13315
▁peace	-13316
▁yours	-13317
100⿱⿰	-13318
10:00	-13319
120⿱⿳	-13320
500⿱⿳	-13321
;2010	-13322
8960⿳⿳	-13323
surface	-13324
▁common	-13325
15,000	-13326
8,000⿱	-13327
gamecube	-13328
mackdown	-13329
nintendo	-13330
▁console	-13331
▁kingdom	-13332
▁transit	-13333
landkreis	-13334
niversary	-13335
▁partners	-13336
▁investment	-13337
"」	-13338
/。	-13339
bk	-13340
fd	-13341
qa	-13342
“⿺	-13343
亻丁	-13344
爿羊	-13345
疒𠃓	-13346
白匕	-13347
艹千	-13348
金衣	-13349
"⿰⿸	-13350
,“⿻	-13351
,⿱⿺	-13352
04⿰	-13353
183	-13354
48。	-13355
779	-13356
790	-13357
97⿰	-13358
doc	-13359
fic	-13360
gai	-13361
hed	-13362
irs	-13363
isk	-13364
kie	-13365
msn	-13366
nem	-13367
nus	-13368
ono	-13369
osi	-13370
oth	-13371
ptt	-13372
qui	-13373
sbl	-13374
tma	-13375
{」}	-13376
▁0⿰	-13377
▁cv	-13378
4、	-13379
5⿴	-13380
]⿱	-13381
1100	-13382
1655	-13383
1796	-13384
1821	-13385
1832	-13386
18⿰⿱	-13387
19,⿰	-13388
20⿰⿱	-13389
5⿰⿱⿱	-13390
66」	-13391
_17⿰	-13392
cale	-13393
ctic	-13394
dney	-13395
elds	-13396
ging	-13397
gree	-13398
isen	-13399
ladi	-13400
mich	-13401
mmor	-13402
mund	-13403
opus	-13404
rail	-13405
rell	-13406
snow	-13407
symb	-13408
thyl	-13409
tour	-13410
▁12⿰	-13411
▁dog	-13412
▁eye	-13413
▁fem	-13414
▁gre	-13415
▁kan	-13416
▁log	-13417
▁tab	-13418
》,⿰⿱	-13419
白丿十阝	-13420
29⿻	-13421
36,	-13422
415	-13423
449	-13424
51⿸	-13425
56,	-13426
565	-13427
575	-13428
675	-13429
707	-13430
79⿰	-13431
85⿸	-13432
;⿵⿰	-13433
、《⿻	-13434
based	-13435
canon	-13436
cctld	-13437
chang	-13438
front	-13439
laura	-13440
▁1776	-13441
▁1794	-13442
▁each	-13443
▁even	-13444
▁gaga	-13445
▁gent	-13446
▁ital	-13447
▁many	-13448
▁prix	-13449
▁sent	-13450
▁stan	-13451
▁unix	-13452
▁」⿱⿱⿱	-13453
㇇⿶⿳⿰	-13454
亠丷厂彡頁	-13455
,21⿱	-13456
100⿺	-13457
15%。	-13458
1545	-13459
1550	-13460
1772	-13461
225⿱	-13462
2300	-13463
39⿰⿱	-13464
“⿱⿵⿵	-13465
」⿰⿱⿰	-13466
="2"|⿻	-13467
harmon	-13468
mmorpg	-13469
person	-13470
street	-13471
yellow	-13472
▁films	-13473
▁later	-13474
▁lewis	-13475
▁speed	-13476
▁youth	-13477
150⿱⿱	-13478
200⿱⿳	-13479
;1998	-13480
▁andrew	-13481
▁points	-13482
▁rights	-13483
▁window	-13484
》、《⿱⿰⿱	-13485
computer	-13486
jonathan	-13487
kecamatan	-13488
▁administ	-13489
▁campbell	-13490
▁memorial	-13491
▁reaction	-13492
▁evolution	-13493
jn	-13494
wr	-13495
yf	-13496
—⿱	-13497
▁]	-13498
口羊	-13499
礻乃	-13500
钅乙	-13501
_	-13502
147	-13503
178	-13504
194	-13505
252	-13506
302	-13507
338	-13508
355	-13509
444	-13510
454	-13511
580	-13512
590	-13513
61⿱	-13514
73⿰	-13515
96⿰	-13516
96⿱	-13517
abo	-13518
csi	-13519
icu	-13520
mae	-13521
nct	-13522
wig	-13523
▁53	-13524
▁54	-13525
▁dj	-13526
▁vr	-13527
▁wy	-13528
2⿷	-13529
8:	-13530
9:	-13531
"⿱⿱⿱	-13532
0001	-13533
000。	-13534
1472	-13535
15,⿰	-13536
1649	-13537
1839	-13538
1848	-13539
360⿱	-13540
_14⿰	-13541
ceae	-13542
chap	-13543
colo	-13544
cosm	-13545
font	-13546
gear	-13547
ishi	-13548
izen	-13549
jang	-13550
jose	-13551
macs	-13552
mium	-13553
mule	-13554
nell	-13555
orum	-13556
root	-13557
sncf	-13558
sons	-13559
vais	-13560
vert	-13561
▁acp	-13562
▁avi	-13563
▁dim	-13564
▁jay	-13565
▁jun	-13566
▁lum	-13567
㇇,⿻	-13568
,7⿰	-13569
1,⿰	-13570
3%⿰	-13571
34⿻	-13572
374	-13573
40,	-13574
411	-13575
489	-13576
5,9	-13577
510	-13578
62,	-13579
624	-13580
62⿸	-13581
727	-13582
84⿰	-13583
97⿰	-13584
·“⿱	-13585
21、15	-13586
5⿰⿱⿰	-13587
amiga	-13588
andro	-13589
child	-13590
ctors	-13591
isode	-13592
liber	-13593
local	-13594
never	-13595
ophie	-13596
opsis	-13597
score	-13598
stars	-13599
stiny	-13600
▁file	-13601
▁grow	-13602
▁para	-13603
▁rate	-13604
▁snow	-13605
10⿰⿰	-13606
1730	-13607
1740	-13608
1779	-13609
1786	-13610
2024	-13611
205⿱	-13612
290⿱	-13613
5⿱⿰⿱	-13614
70⿰⿱	-13615
75⿱⿳	-13616
900⿰	-13617
》⿱⿱⿻	-13618
lantis	-13619
legacy	-13620
single	-13621
▁third	-13622
11:00	-13623
12⿰⿱⿱	-13624
15⿰⿱⿱	-13625
4,200	-13626
、2003	-13627
kenneth	-13628
matthew	-13629
myspace	-13630
reatest	-13631
wilhelm	-13632
working	-13633
▁change	-13634
▁french	-13635
▁histor	-13636
▁respon	-13637
▁temple	-13638
gamespot	-13639
▁monster	-13640
▁tolkien	-13641
blackpink	-13642
elizabeth	-13643
struction	-13644
▁interface	-13645
▁professional	-13646
%⿻	-13647
,⿷	-13648
fg	-13649
iq	-13650
土艮	-13651
王頁	-13652
疒山	-13653
纟寸	-13654
158	-13655
165	-13656
396	-13657
440	-13658
47。	-13659
58⿰	-13660
70,	-13661
71⿱	-13662
85,	-13663
_39	-13664
_46	-13665
abe	-13666
alb	-13667
bam	-13668
ctv	-13669
equ	-13670
gau	-13671
gos	-13672
lac	-13673
lug	-13674
pie	-13675
rss	-13676
soc	-13677
sos	-13678
ssa	-13679
sys	-13680
tty	-13681
tum	-13682
vga	-13683
xiv	-13684
yar	-13685
▁gn	-13686
▁ox	-13687
▁uk	-13688
夫夫車	-13689
"、	-13690
/⿴	-13691
1⿹	-13692
4。	-13693
:/	-13694
:⿲	-13695
1567	-13696
1576	-13697
1584	-13698
1604	-13699
1615	-13700
1624	-13701
1629	-13702
1662	-13703
1725	-13704
1788	-13705
1792	-13706
1808	-13707
33,⿰	-13708
8⿵⿵	-13709
:15⿰	-13710
_15⿰	-13711
aign	-13712
cari	-13713
dick	-13714
ench	-13715
kind	-13716
kong	-13717
lars	-13718
ntfs	-13719
quet	-13720
spec	-13721
timo	-13722
▁dat	-13723
▁glo	-13724
▁kom	-13725
▁nac	-13726
▁pil	-13727
▁ren	-13728
▁rev	-13729
▁⿵⿱⿱	-13730
▁《⿱⿲	-13731
▁《⿵⿰	-13732
」、「⿰	-13733
1%。	-13734
1/3	-13735
12⿺	-13736
348	-13737
40⿻	-13738
412	-13739
435	-13740
445	-13741
484	-13742
626	-13743
68⿸	-13744
;“⿰	-13745
;「⿱	-13746
,500⿰	-13747
19、21	-13748
adise	-13749
cloud	-13750
henri	-13751
reich	-13752
skype	-13753
vista	-13754
▁1775	-13755
▁1788	-13756
▁1805	-13757
▁bart	-13758
▁writ	-13759
▁xbox	-13760
"⿰⿱⿱	-13761
/⿰⿱⿱	-13762
103⿰	-13763
10⿱⿳	-13764
120⿸	-13765
137⿱	-13766
1680	-13767
1778	-13768
》:「⿱	-13769
000⿱⿰⿱	-13770
norman	-13771
people	-13772
reddit	-13773
▁april	-13774
▁front	-13775
▁malay	-13776
▁short	-13777
▁truth	-13778
▁ultra	-13779
▁while	-13780
7500⿱	-13781
》、《⿰⿸	-13782
8661《⿰	-13783
antonio	-13784
charlie	-13785
hanghai	-13786
jessica	-13787
▁advent	-13788
▁affair	-13789
▁display	-13790
▁standard	-13791
▁syndrome	-13792
▁promotion	-13793
▁organization	-13794
gk	-13795
山鬼	-13796
扌东	-13797
犭九	-13798
𠂆一	-13799
04⿱	-13800
0⿲	-13801
157	-13802
163	-13803
171	-13804
218	-13805
279	-13806
361	-13807
560	-13808
666	-13809
737	-13810
897	-13811
986	-13812
;"|	-13813
>⿱⿱	-13814
ako	-13815
aph	-13816
bae	-13817
dic	-13818
drm	-13819
gat	-13820
igi	-13821
kid	-13822
kun	-13823
moo	-13824
nac	-13825
nds	-13826
nen	-13827
oun	-13828
phd	-13829
rip	-13830
tax	-13831
tls	-13832
tob	-13833
zio	-13834
▁03	-13835
▁ax	-13836
、25	-13837
1%	-13838
4⿴	-13839
:0	-13840
1618	-13841
1634	-13842
1639	-13843
1804	-13844
1849	-13845
2100	-13846
2500	-13847
37,⿰	-13848
400⿰	-13849
cted	-13850
dual	-13851
ells	-13852
exec	-13853
hila	-13854
ieux	-13855
iptv	-13856
ires	-13857
isch	-13858
iste	-13859
pine	-13860
sche	-13861
tern	-13862
tham	-13863
vian	-13864
▁250	-13865
▁bun	-13866
▁nex	-13867
▁oli	-13868
▁vor	-13869
丷干丸虫	-13870
井一八言	-13871
囗⺌日瓦	-13872
士冖一木	-13873
10:	-13874
11⿴	-13875
371	-13876
437	-13877
545	-13878
553	-13879
559	-13880
620	-13881
730	-13882
·⿰⿻	-13883
、23	-13884
、26	-13885
《》⿺	-13886
》、⿻	-13887
」⿱⿳	-13888
13、21	-13889
22:00	-13890
arius	-13891
blood	-13892
delta	-13893
ghost	-13894
itary	-13895
lumia	-13896
party	-13897
pixel	-13898
seven	-13899
swing	-13900
uchus	-13901
▁1813	-13902
▁1822	-13903
▁anth	-13904
▁hell	-13905
▁lord	-13906
111⿰	-13907
125⿰	-13908
158⿱	-13909
310⿱	-13910
390⿱	-13911
410⿱	-13912
「⿱⿵⿵	-13913
bishop	-13914
cephal	-13915
easure	-13916
gogoro	-13917
tholic	-13918
2600⿱	-13919
3,600	-13920
300⿱⿳	-13921
alphago	-13922
raymond	-13923
▁double	-13924
▁islands	-13925
||0||0||0||	-13926
+0	-13927
rg	-13928
▁己	-13929
《⿵	-13930
口食	-13931
王己	-13932
,⿰⿷	-13933
02⿰	-13934
07⿰	-13935
172	-13936
277	-13937
27、	-13938
370	-13939
494	-13940
528	-13941
567	-13942
_4。	-13943
_53	-13944
bou	-13945
dre	-13946
jis	-13947
mcc	-13948
mlb	-13949
mud	-13950
sue	-13951
suv	-13952
tau	-13953
tia	-13954
ufc	-13955
wow	-13956
wrc	-13957
zin	-13958
▁1、	-13959
▁5,	-13960
▁[⿰	-13961
、“⿵	-13962
、⿳⿱	-13963
乡隹土	-13964
厶口阝	-13965
7:	-13966
》「	-13967
06⿱⿳	-13968
08⿱⿳	-13969
1579	-13970
1739	-13971
1809	-13972
1813	-13973
1822	-13974
1831	-13975
35,⿰	-13976
_14⿱	-13977
arin	-13978
bran	-13979
eria	-13980
hind	-13981
jung	-13982
lett	-13983
lion	-13984
luci	-13985
onex	-13986
opol	-13987
ount	-13988
phot	-13989
pose	-13990
race	-13991
rosa	-13992
scar	-13993
sohc	-13994
usen	-13995
wild	-13996
yama	-13997
▁ali	-13998
▁das	-13999
▁dri	-14000
▁fur	-14001
▁inf	-14002
▁jos	-14003
▁nas	-14004
▁pow	-14005
▁rus	-14006
▁sha	-14007
▁sou	-14008
▁tre	-14009
▁wer	-14010
▁⿰⿱⿺	-14011
㇇⿵⿰	-14012
00⿱	-14013
11:	-14014
24⿻	-14015
2⿵⿰	-14016
378	-14017
424	-14018
468	-14019
525	-14020
536	-14021
58⿸	-14022
990	-14023
9⿱⿰	-14024
:⿰⿻	-14025
、7⿰	-14026
》“⿱	-14027
,2009	-14028
0⿰⿱⿱	-14029
46、⿱	-14030
ocean	-14031
quick	-14032
urban	-14033
urney	-14034
vince	-14035
▁1828	-14036
▁1837	-14037
▁carl	-14038
▁lion	-14039
,16⿰	-14040
,50⿱	-14041
141⿱	-14042
144⿱	-14043
154⿱	-14044
1629	-14045
1644	-14046
1752	-14047
1756	-14048
34⿰⿱	-14049
、14⿱	-14050
abriel	-14051
cholas	-14052
ipedia	-14053
taipei	-14054
▁multi	-14055
▁opera	-14056
▁today	-14057
101⿰⿱	-14058
8661,⿻	-14059
8665⿺⿻	-14060
college	-14061
lations	-14062
perfume	-14063
▁heaven	-14064
▁member	-14065
▁proper	-14066
2,500⿱	-14067
benjamin	-14068
▁chamber	-14069
15,000⿱	-14070
▁broadcast	-14071
▁cathedral	-14072
▁character	-14073
!」	-14074
>⿺	-14075
lx	-14076
tx	-14077
·⿹	-14078
』⿻	-14079
丿手	-14080
女以	-14081
瓦千	-14082
金卯	-14083
%、⿱	-14084
/02	-14085
03⿱	-14086
0》	-14087
167	-14088
219	-14089
242	-14090
334	-14091
33。	-14092
467	-14093
469	-14094
559	-14095
60,	-14096
650	-14097
756	-14098
:⿰⿸	-14099
bib	-14100
cbc	-14101
dav	-14102
ecc	-14103
fur	-14104
ged	-14105
gtk	-14106
hap	-14107
hes	-14108
ktv	-14109
lip	-14110
lun	-14111
mia	-14112
mta	-14113
sad	-14114
sak	-14115
six	-14116
spa	-14117
zig	-14118
▁"⿸	-14119
▁58	-14120
▁98	-14121
▁hi	-14122
▁ry	-14123
八厶心	-14124
覀土阝	-14125
!⿸	-14126
5。	-14127
:7	-14128
|⿰	-14129
·「	-14130
07⿱⿳	-14131
1200	-14132
1464	-14133
1681	-14134
1683	-14135
17,⿰	-14136
1819	-14137
231⿱	-14138
35⿱⿳	-14139
46,⿰	-14140
51⿱⿳	-14141
5·⿺	-14142
66⿷	-14143
atar	-14144
cass	-14145
eaux	-14146
endy	-14147
feed	-14148
ffee	-14149
iper	-14150
issa	-14151
khan	-14152
laus	-14153
pris	-14154
rama	-14155
riaa	-14156
sant	-14157
sara	-14158
sequ	-14159
sham	-14160
wish	-14161
yang	-14162
·⿰⿱⿱	-14163
▁bos	-14164
▁did	-14165
▁jim	-14166
▁nan	-14167
▁nar	-14168
▁rpg	-14169
▁sna	-14170
▁wan	-14171
、⿰⿱⿰	-14172
丿𠃌攵贝	-14173
26⿻	-14174
28⿻	-14175
363	-14176
406	-14177
514	-14178
659	-14179
96⿰	-14180
999	-14181
:⿰⿷	-14182
;⿳⿱	-14183
%,⿱⿱⿱	-14184
,2019	-14185
8·⿰⿳	-14186
atenu	-14187
immer	-14188
ithub	-14189
iupac	-14190
kinki	-14191
owski	-14192
ralph	-14193
round	-14194
ustin	-14195
▁1829	-14196
▁1836	-14197
▁auto	-14198
▁gard	-14199
▁gene	-14200
▁glor	-14201
▁lisp	-14202
▁mail	-14203
▁mort	-14204
▁page	-14205
▁said	-14206
,25⿱	-14207
133⿱	-14208
146⿱	-14209
153⿱	-14210
1609	-14211
25⿱⿳	-14212
37⿱⿳	-14213
78⿰⿱	-14214
8:00	-14215
ashion	-14216
pledis	-14217
▁child	-14218
▁clark	-14219
▁cover	-14220
▁gener	-14221
▁would	-14222
fortran	-14223
ulevard	-14224
▁aggreg	-14225
▁german	-14226
▁spirit	-14227
30,000	-14228
▁country	-14229
▁forever	-14230
▁manager	-14231
▁natural	-14232
2007/08	-14233
stitution	-14234
▁aircraft	-14235
▁students	-14236
▁animation	-14237
▁francisco	-14238
,<	-14239
zn	-14240
▁冉	-14241
《⿺	-14242
冂山	-14243
爿未	-14244
禾干	-14245
米巴	-14246
虫内	-14247
007	-14248
09⿰	-14249
15⿸	-14250
221	-14251
234	-14252
31。	-14253
333	-14254
40%	-14255
402	-14256
430	-14257
475	-14258
530	-14259
9,⿰	-14260
91⿱	-14261
94⿱	-14262
:54	-14263
;⿱⿰	-14264
aur	-14265
bie	-14266
cfm	-14267
eso	-14268
fta	-14269
gap	-14270
gba	-14271
gov	-14272
kap	-14273
ltd	-14274
mau	-14275
nap	-14276
ngo	-14277
nhl	-14278
oid	-14279
pom	-14280
saw	-14281
sip	-14282
smo	-14283
uka	-14284
xii	-14285
▁02	-14286
▁ai	-14287
▁」⿻	-14288
」,⿹	-14289
丿皿卩	-14290
土土阝	-14291
彑𧰨土	-14292
“1	-14293
、,	-14294
1469	-14295
1566	-14296
1614	-14297
1680	-14298
1763	-14299
1778	-14300
1783	-14301
1790	-14302
1825	-14303
1842	-14304
23,⿰	-14305
31⿰⿱	-14306
5%,⿰	-14307
="2"	-14308
cope	-14309
dean	-14310
ente	-14311
gian	-14312
gust	-14313
hide	-14314
isis	-14315
lard	-14316
sean	-14317
stel	-14318
wake	-14319
▁109	-14320
▁21⿱	-14321
▁600	-14322
▁abs	-14323
▁aud	-14324
▁cin	-14325
▁fat	-14326
▁ibn	-14327
▁llc	-14328
▁pub	-14329
▁ree	-14330
,"⿰	-14331
,"⿱	-14332
,22	-14333
,「⿳	-14334
01⿱	-14335
418	-14336
516	-14337
547	-14338
57,	-14339
58,	-14340
60⿻	-14341
8⿱⿳	-14342
970	-14343
98⿰	-14344
」·⿰	-14345
66,⿺	-14346
alter	-14347
avbwu	-14348
brown	-14349
build	-14350
death	-14351
franz	-14352
gress	-14353
omics	-14354
polis	-14355
ready	-14356
shock	-14357
sonic	-14358
▁1786	-14359
▁1803	-14360
▁1816	-14361
▁1834	-14362
▁blan	-14363
▁bust	-14364
▁care	-14365
▁dome	-14366
▁duke	-14367
▁laur	-14368
▁quar	-14369
▁shan	-14370
▁ship	-14371
▁turn	-14372
㇇⿱⿰⿱	-14373
138⿱	-14374
1660	-14375
1720	-14376
182⿱	-14377
209⿱	-14378
29⿰⿱	-14379
35⿰⿱	-14380
440⿱	-14381
45%⿰	-14382
71⿰⿱	-14383
74⿰⿱	-14384
20:30⿰	-14385
23:30⿰	-14386
doctor	-14387
family	-14388
ighter	-14389
oracle	-14390
vember	-14391
▁astro	-14392
▁coast	-14393
▁image	-14394
▁pract	-14395
▁prime	-14396
▁simon	-14397
▁since	-14398
▁still	-14399
▁suite	-14400
,1897	-14401
,1900	-14402
,1902	-14403
,2020	-14404
14:00	-14405
17:00	-14406
300⿰⿱	-14407
401⿰⿱	-14408
800⿱⿱	-14409
;1992	-14410
;2002	-14411
;2003	-14412
、2002	-14413
、2018	-14414
」⿱⿶⿱⿰	-14415
ination	-14416
service	-14417
▁choice	-14418
▁circle	-14419
▁contra	-14420
▁fellow	-14421
▁living	-14422
▁travel	-14423
▁wright	-14424
、、、、、、	-14425
▁primary	-14426
▁mathemat	-14427
▁released	-14428
▁together	-14429
▁performance	-14430
;,	-14431
pj	-14432
sj	-14433
zf	-14434
」⿵	-14435
且隹	-14436
月龙	-14437
王龙	-14438
",⿹	-14439
/03	-14440
/2⿰	-14441
02⿱	-14442
142	-14443
152	-14444
15、	-14445
197	-14446
232	-14447
296	-14448
335	-14449
352	-14450
367	-14451
397	-14452
605	-14453
63⿱	-14454
869	-14455
87、	-14456
88,	-14457
_1⿻	-14458
aci	-14459
cid	-14460
cul	-14461
dsm	-14462
ein	-14463
fem	-14464
gne	-14465
hex	-14466
hir	-14467
jag	-14468
ked	-14469
nfc	-14470
tok	-14471
twc	-14472
{⿱⿰	-14473
▁4、	-14474
▁ay	-14475
▁pm	-14476
▁rt	-14477
▁sq	-14478
▁ye	-14479
、、⿱	-14480
、《⿸	-14481
丷夫言	-14482
口止夫	-14483
7⿵	-14484
>⿰	-14485
“9	-14486
『⿴	-14487
,,,,	-14488
12⿱⿱	-14489
14,⿰	-14490
1451	-14491
1526	-14492
1572	-14493
1620	-14494
1667	-14495
1744	-14496
1759	-14497
17⿰⿱	-14498
1811	-14499
4%,⿱	-14500
46⿵	-14501
_10⿱	-14502
borg	-14503
cana	-14504
cdon	-14505
cene	-14506
fron	-14507
inum	-14508
mode	-14509
nico	-14510
pace	-14511
sour	-14512
▁apa	-14513
▁caf	-14514
▁ges	-14515
▁int	-14516
▁jav	-14517
▁usa	-14518
▁veh	-14519
▁wol	-14520
▁《⿲㇇	-14521
/⿱⿳	-14522
04⿰	-14523
352	-14524
353	-14525
37,	-14526
395	-14527
3:⿱	-14528
52,	-14529
555	-14530
583	-14531
637	-14532
64,	-14533
66⿸	-14534
766	-14535
945	-14536
:「⿳	-14537
、21	-14538
「」,	-14539
,2004	-14540
,2006	-14541
asian	-14542
cbook	-14543
chies	-14544
illie	-14545
jerry	-14546
keith	-14547
kkbox	-14548
nokia	-14549
prime	-14550
▁arms	-14551
▁both	-14552
▁gang	-14553
▁mack	-14554
▁same	-14555
▁sens	-14556
100:	-14557
136⿱	-14558
1492	-14559
1624	-14560
1755	-14561
1769	-14562
195⿱	-14563
20⿱⿰	-14564
24⿱⿱	-14565
42⿰⿱	-14566
500⿻	-14567
66⿰⿱	-14568
950⿱	-14569
、、、⿱	-14570
22:30⿰	-14571
castle	-14572
engine	-14573
ically	-14574
planet	-14575
psycho	-14576
sainte	-14577
▁assem	-14578
▁brook	-14579
▁certi	-14580
▁disco	-14581
▁early	-14582
▁forum	-14583
▁korea	-14584
▁theor	-14585
,1906	-14586
12000	-14587
;1985	-14588
、2005	-14589
crystal	-14590
douglas	-14591
▁canada	-14592
▁commer	-14593
▁daniel	-14594
▁flight	-14595
▁format	-14596
▁golden	-14597
▁mechan	-14598
▁motion	-14599
▁return	-14600
▁wonder	-14601
▁century	-14602
▁defense	-14603
▁friends	-14604
▁million	-14605
▁patrick	-14606
▁training	-14607
california	-14608
▁anniversary	-14609
▁architecture	-14610
+3	-14611
6⿺	-14612
:「	-14613
zk	-14614
》;	-14615
匕十	-14616
氵丰	-14617
竹肅	-14618
讠卜	-14619
讠工	-14620
10%	-14621
161	-14622
19、	-14623
209	-14624
228	-14625
311	-14626
332	-14627
38。	-14628
404	-14629
40。	-14630
443	-14631
44。	-14632
499	-14633
63⿰	-14634
842	-14635
_1,	-14636
_57	-14637
adi	-14638
aig	-14639
bai	-14640
chs	-14641
cow	-14642
dee	-14643
eap	-14644
edo	-14645
esi	-14646
fis	-14647
gdi	-14648
gly	-14649
haz	-14650
kis	-14651
lax	-14652
nip	-14653
oma	-14654
sai	-14655
scr	-14656
sme	-14657
tas	-14658
tot	-14659
uit	-14660
yas	-14661
zon	-14662
▁52	-14663
▁72	-14664
▁dc	-14665
▁dd	-14666
▁kh	-14667
▁ok	-14668
▁ol	-14669
▁ww	-14670
▁「⿳	-14671
口止皮	-14672
小丿衣	-14673
3⿷	-14674
=⿰	-14675
、"	-14676
0⿸⿸	-14677
13⿱⿳	-14678
1737	-14679
1794	-14680
25,⿰	-14681
25⿱⿱	-14682
45,⿰	-14683
9⿱⿰⿱	-14684
_16⿰	-14685
cmos	-14686
drop	-14687
ebay	-14688
enni	-14689
ento	-14690
erie	-14691
igbt	-14692
ivan	-14693
lons	-14694
medi	-14695
name	-14696
niko	-14697
ooth	-14698
phan	-14699
saab	-14700
teen	-14701
vine	-14702
wire	-14703
▁16⿰	-14704
▁30⿱	-14705
▁4⿰⿱	-14706
▁bol	-14707
▁dal	-14708
▁kel	-14709
▁mck	-14710
▁mig	-14711
▁moh	-14712
▁opp	-14713
▁ped	-14714
▁plc	-14715
丨丨比金	-14716
,45	-14717
,《⿹	-14718
04⿱	-14719
12⿴	-14720
2%⿰	-14721
25%	-14722
32⿻	-14723
39,	-14724
392	-14725
44⿻	-14726
477	-14727
483	-14728
4⿵⿰	-14729
54,	-14730
579	-14731
656	-14732
67,	-14733
765	-14734
89⿰	-14735
903	-14736
:『⿱	-14737
、29	-14738
》“⿰	-14739
𠂊田一巴	-14740
,2013	-14741
16⿱⿰⿱	-14742
21、12	-14743
66」。	-14744
cinem	-14745
ersen	-14746
iable	-14747
ivity	-14748
kanon	-14749
mysql	-14750
vogue	-14751
▁1810	-14752
▁come	-14753
▁cris	-14754
▁hunt	-14755
▁sequ	-14756
▁shot	-14757
,《⿸⿸	-14758
,《⿺⿱	-14759
1,37	-14760
1040	-14761
104⿰	-14762
105⿰	-14763
131⿱	-14764
164⿱	-14765
172⿱	-14766
:「⿱⿳	-14767
——“⿰	-14768
》:「⿰	-14769
flight	-14770
▁audio	-14771
▁civil	-14772
▁frank	-14773
▁medal	-14774
▁remix	-14775
09:00	-14776
1900⿱	-14777
2400⿱	-14778
6000⿰	-14779
:2012	-14780
、1997	-14781
america	-14782
electro	-14783
isation	-14784
politan	-14785
sunrise	-14786
thunder	-14787
▁around	-14788
▁harris	-14789
3,000⿰	-14790
4000⿱⿱	-14791
urnament	-14792
▁another	-14793
▁justice	-14794
▁princip	-14795
▁problem	-14796
20,000⿱	-14797
▁gamespot	-14798
▁graphics	-14799
▁medicine	-14800
▁networks	-14801
▁protocol	-14802
▁financial	-14803
▁selection	-14804
/8	-14805
4⿺	-14806
lh	-14807
uw	-14808
》⿹	-14809
八月	-14810
田攵	-14811
阝食	-14812
"》。	-14813
1⿱⿰	-14814
231	-14815
237	-14816
275	-14817
285	-14818
313	-14819
398	-14820
493	-14821
50、	-14822
617	-14823
720	-14824
76,	-14825
802	-14826
_54	-14827
bid	-14828
ems	-14829
esp	-14830
iau	-14831
kos	-14832
lem	-14833
lic	-14834
pil	-14835
rud	-14836
tit	-14837
uan	-14838
uta	-14839
uti	-14840
wah	-14841
||4	-14842
▁hs	-14843
▁』⿰	-14844
㇇、	-14845
人人且	-14846
耳耳頁	-14847
2⿹	-14848
>⿱	-14849
,700	-14850
0⿰⿱⿰	-14851
1407	-14852
1613	-14853
16⿱⿱	-14854
1729	-14855
1793	-14856
1815	-14857
22⿰⿱	-14858
5⿱⿲	-14859
:⿱⿰⿱	-14860
abad	-14861
abel	-14862
auri	-14863
bble	-14864
chal	-14865
chia	-14866
cool	-14867
duct	-14868
feat	-14869
frid	-14870
gogo	-14871
half	-14872
ichi	-14873
inga	-14874
isan	-14875
know	-14876
lash	-14877
pool	-14878
pter	-14879
raid	-14880
rill	-14881
riot	-14882
sper	-14883
spor	-14884
tell	-14885
visa	-14886
▁106	-14887
▁hav	-14888
▁hur	-14889
▁kde	-14890
▁que	-14891
▁saf	-14892
▁tvb	-14893
▁⿱⿻⿱	-14894
10⿴	-14895
31⿻	-14896
361	-14897
38⿻	-14898
404	-14899
408	-14900
428	-14901
42⿻	-14902
436	-14903
587	-14904
61,	-14905
94⿰	-14906
:⿰⿹	-14907
:「⿹	-14908
,2014	-14909
1000⿰	-14910
19:00	-14911
21:00	-14912
candy	-14913
craig	-14914
fried	-14915
gmail	-14916
image	-14917
imper	-14918
lipop	-14919
matic	-14920
prote	-14921
robin	-14922
share	-14923
stage	-14924
times	-14925
umont	-14926
▁1838	-14927
▁burn	-14928
▁came	-14929
▁cole	-14930
▁fine	-14931
▁ling	-14932
▁pour	-14933
▁roth	-14934
▁ward	-14935
,22⿱	-14936
,40⿱	-14937
1440	-14938
1774	-14939
1782	-14940
215⿱	-14941
2800	-14942
32⿰⿱	-14943
460⿱	-14944
520⿱	-14945
7⿰⿱⿱	-14946
99⿰⿱	-14947
《》,⿺	-14948
「」⿰⿱	-14949
ascore	-14950
ession	-14951
hunter	-14952
lantic	-14953
marine	-14954
▁alone	-14955
▁falls	-14956
▁hello	-14957
▁navig	-14958
▁stock	-14959
▁using	-14960
▁value	-14961
,⿱⿰⿱⿴	-14962
20⿰⿱⿱	-14963
2800⿱	-14964
4,500	-14965
:“⿱⿱⿱	-14966
;1997	-14967
coaster	-14968
graphic	-14969
natural	-14970
profess	-14971
▁pascal	-14972
▁spring	-14973
▁xperia	-14974
12,000	-14975
40,000	-14976
ribution	-14977
▁protein	-14978
▁virtual	-14979
▁western	-14980
▁wilhelm	-14981
frederick	-14982
▁ericsson	-14983
3:	-14984
vu	-14985
zj	-14986
·⿻	-14987
—⿰	-14988
兆頁	-14989
虫且	-14990
辶甫	-14991
金乙	-14992
+⿱⿱	-14993
,14	-14994
,⿱⿲	-14995
145	-14996
153	-14997
268	-14998
276	-14999
345	-15000
34。	-15001
384	-15002
498	-15003
505	-15004
622	-15005
75,	-15006
_43	-15007
aud	-15008
dll	-15009
eye	-15010
fcc	-15011
gcc	-15012
ift	-15013
maz	-15014
neu	-15015
png	-15016
prs	-15017
pun	-15018
rob	-15019
smg	-15020
tos	-15021
yon	-15022
▁ji	-15023
▁md	-15024
▁rs	-15025
▁xx	-15026
▁『⿱	-15027
、⿰⿹	-15028
》⿰⿸	-15029
匚王力	-15030
户攵木	-15031
9⿵	-15032
「'	-15033
/10⿰	-15034
1619	-15035
1623	-15036
1627	-15037
1638	-15038
1757	-15039
1775	-15040
1787	-15041
1833	-15042
31,⿰	-15043
:45⿰	-15044
alia	-15045
caen	-15046
eden	-15047
esia	-15048
gaud	-15049
imdb	-15050
luis	-15051
ores	-15052
phin	-15053
quid	-15054
raph	-15055
safe	-15056
wool	-15057
▁eth	-15058
▁los	-15059
▁lud	-15060
▁mam	-15061
▁nin	-15062
▁occ	-15063
▁pul	-15064
▁sau	-15065
▁spr	-15066
▁tin	-15067
▁vit	-15068
▁⿸⿸⿸	-15069
火火冖糸	-15070
,“⿹	-15071
/⿱⿻	-15072
1,⿱	-15073
13⿺	-15074
15:	-15075
15⿵	-15076
2⿱⿻	-15077
2》。	-15078
354	-15079
362	-15080
452	-15081
453	-15082
459	-15083
467	-15084
566	-15085
629	-15086
683	-15087
:10	-15088
;⿰⿹	-15089
;⿲㇇	-15090
、⿰⿴	-15091
《""	-15092
40⿱⿰⿱	-15093
5⿱⿻⿱	-15094
60⿱⿰⿱	-15095
8⿰⿱⿴	-15096
cated	-15097
forge	-15098
ience	-15099
kirch	-15100
labor	-15101
livan	-15102
manga	-15103
money	-15104
remix	-15105
ually	-15106
▁1823	-15107
▁cash	-15108
▁cube	-15109
▁mine	-15110
▁ryan	-15111
▁sher	-15112
▁solo	-15113
,100	-15114
,⿱⿱⿲	-15115
115⿰	-15116
148⿱	-15117
1763	-15118
1765	-15119
25⿰⿰	-15120
47⿰⿱	-15121
510⿱	-15122
750⿰	-15123
7⿱⿰⿱	-15124
——《⿰	-15125
、13⿱	-15126
、⿱⿳𭕄	-15127
「」、「	-15128
」、「⿵	-15129
66⿰⿱⿰	-15130
adrian	-15131
chiesa	-15132
gangan	-15133
lastic	-15134
marcus	-15135
metery	-15136
modern	-15137
piazza	-15138
rachel	-15139
ricula	-15140
techno	-15141
▁based	-15142
▁behav	-15143
▁cloud	-15144
▁plant	-15145
,1898	-15146
2,900	-15147
23:00	-15148
4,600	-15149
6,000	-15150
6500⿱	-15151
700⿱⿱	-15152
;1988	-15153
8960⿵⿱	-15154
english	-15155
network	-15156
stanley	-15157
▁contro	-15158
▁knight	-15159
▁middle	-15160
▁nation	-15161
▁played	-15162
▁scheme	-15163
▁select	-15164
▁temper	-15165
2011⿱⿳	-15166
original	-15167
▁connect	-15168
▁perfect	-15169
catherine	-15170
francesco	-15171
▁virginia	-15172
▁aggregate	-15173
▁operation	-15174
▁publishing	-15175
"]	-15176
"⿵	-15177
4⿹	-15178
sx	-15179
亻夫	-15180
口瓜	-15181
木予	-15182
氵民	-15183
禺页	-15184
竹巴	-15185
言山	-15186
金必	-15187
%、⿰	-15188
/24	-15189
/25	-15190
132	-15191
162	-15192
164	-15193
2,4	-15194
224	-15195
233	-15196
236	-15197
253	-15198
298	-15199
331	-15200
35。	-15201
392	-15202
3、6	-15203
5%,	-15204
51。	-15205
55,	-15206
555	-15207
564	-15208
624	-15209
709	-15210
891	-15211
89。	-15212
8·	-15213
903	-15214
94⿰	-15215
993	-15216
9⿱⿳	-15217
abu	-15218
acs	-15219
add	-15220
atc	-15221
cie	-15222
cmg	-15223
dft	-15224
fff	-15225
ffy	-15226
gif	-15227
hof	-15228
jpg	-15229
lla	-15230
mei	-15231
oko	-15232
olm	-15233
oxy	-15234
pic	-15235
rsa	-15236
woo	-15237
wwf	-15238
▁ft	-15239
▁gh	-15240
▁“⿳	-15241
业㡀甫	-15242
人人心	-15243
力口衣	-15244
士示隶	-15245
氵𠃓火	-15246
5、	-15247
<⿱	-15248
,“⿰⿱	-15249
/100	-15250
09⿱⿳	-15251
1127	-15252
1382	-15253
1532	-15254
1546	-15255
1564	-15256
1593	-15257
1607	-15258
1641	-15259
1654	-15260
1709	-15261
1765	-15262
1776	-15263
1806	-15264
1834	-15265
1836	-15266
19⿰⿱	-15267
20⿱⿳	-15268
233⿱	-15269
23⿰⿱	-15270
46⿳	-15271
47,⿰	-15272
5,⿹	-15273
5⿳𭕄	-15274
abil	-15275
acty	-15276
bbit	-15277
enzo	-15278
fier	-15279
keep	-15280
lied	-15281
mbps	-15282
mons	-15283
node	-15284
regu	-15285
spin	-15286
ults	-15287
urie	-15288
▁000	-15289
▁112	-15290
▁aer	-15291
▁eco	-15292
▁fle	-15293
▁ful	-15294
▁gaz	-15295
▁kil	-15296
▁sdk	-15297
▁tel	-15298
▁usb	-15299
▁《⿵⿵	-15300
」、「⿱	-15301
,⿻⿱	-15302
16⿺	-15303
1、⿱	-15304
2%。	-15305
2,⿰	-15306
2⿱⿳	-15307
401	-15308
417	-15309
446	-15310
448	-15311
46⿻	-15312
495	-15313
557	-15314
71,	-15315
72⿸	-15316
790	-15317
95%	-15318
:13	-15319
·⿺⿱	-15320
》「⿰	-15321
」·⿱	-15322
,2010	-15323
,2016	-15324
21、11	-15325
basil	-15326
being	-15327
belle	-15328
cking	-15329
enton	-15330
extra	-15331
opard	-15332
serve	-15333
unier	-15334
utive	-15335
virus	-15336
▁100⿱	-15337
▁1811	-15338
▁1817	-15339
▁1826	-15340
▁cool	-15341
▁corp	-15342
▁expo	-15343
▁fast	-15344
▁gray	-15345
▁phot	-15346
▁roll	-15347
▁spir	-15348
1/4⿰	-15349
12⿰⿰	-15350
1350	-15351
1499	-15352
1580	-15353
1630	-15354
1745	-15355
177⿱	-15356
1797	-15357
183⿱	-15358
193⿱	-15359
30⿱⿰	-15360
430⿱	-15361
4500	-15362
530⿱	-15363
9⿰⿱⿱	-15364
、20⿱	-15365
》⿱⿰⿱	-15366
》、⿱⿱	-15367
」⿱⿱⿰	-15368
20:00⿰	-15369
46⿶⿳⿰	-15370
angela	-15371
github	-15372
museum	-15373
quency	-15374
tempor	-15375
utsche	-15376
▁gamer	-15377
▁hydro	-15378
▁klein	-15379
▁licen	-15380
▁range	-15381
▁sever	-15382
▁wanna	-15383
▁woman	-15384
》、《》、《	-15385
,1894	-15386
0%,⿱⿱	-15387
10:30	-15388
129⿰⿰	-15389
17:30	-15390
2500⿰	-15391
austral	-15392
bernard	-15393
powerpc	-15394
venteen	-15395
▁origin	-15396
▁philos	-15397
▁stream	-15398
▁survey	-15399
▁update	-15400
▁waters	-15401
50,000	-15402
8960⿱⿱⿱	-15403
advanced	-15404
standard	-15405
▁stewart	-15406
▁yourself	-15407
generation	-15408
▁different	-15409
▁macintosh	-15410
▁municipal	-15411
▁convention	-15412
▁industrial	-15413
"+	-15414
'。	-15415
/、	-15416
kj	-15417
kp	-15418
wc	-15419
八方	-15420
匚口	-15421
口人	-15422
女册	-15423
火斤	-15424
王几	-15425
艹目	-15426
虍乎	-15427
酉丁	-15428
/30	-15429
12⿸	-15430
149	-15431
154	-15432
23、	-15433
23。	-15434
263	-15435
274	-15436
385	-15437
41。	-15438
441	-15439
456	-15440
561	-15441
606	-15442
80。	-15443
82。	-15444
908	-15445
:⿵⿵	-15446
_50	-15447
_58	-15448
aes	-15449
ail	-15450
apy	-15451
asv	-15452
aux	-15453
bmp	-15454
cco	-15455
dha	-15456
emd	-15457
fab	-15458
fir	-15459
fus	-15460
git	-15461
jah	-15462
jax	-15463
koh	-15464
leh	-15465
mim	-15466
pda	-15467
psr	-15468
seg	-15469
zet	-15470
▁⿻⿱	-15471
㇀⿱	-15472
一丂瓜	-15473
扌丸贝	-15474
虫虫皿	-15475
豕豕火	-15476
9⿴	-15477
:4	-15478
:5	-15479
—⿺	-15480
“。	-15481
11,⿰	-15482
1131	-15483
1278	-15484
1554	-15485
1563	-15486
1588	-15487
160⿱	-15488
1731	-15489
1742	-15490
1766	-15491
22,⿰	-15492
27,⿰	-15493
350⿱	-15494
46、	-15495
48⿰⿸	-15496
6%,⿰	-15497
;⿱⿱⿱	-15498
_1,⿱	-15499
____	-15500
ania	-15501
anov	-15502
apec	-15503
arma	-15504
cara	-15505
cnbc	-15506
dier	-15507
econ	-15508
ered	-15509
fern	-15510
five	-15511
gest	-15512
glor	-15513
hdmi	-15514
iven	-15515
kate	-15516
onia	-15517
page	-15518
prom	-15519
shah	-15520
shaw	-15521
utes	-15522
vity	-15523
▁800	-15524
▁aqu	-15525
▁cre	-15526
▁dip	-15527
▁fro	-15528
▁kay	-15529
▁led	-15530
▁put	-15531
▁rna	-15532
▁rud	-15533
▁sac	-15534
▁som	-15535
▁tow	-15536
▁《⿻㇀	-15537
"⿱⿳	-15538
,9⿰	-15539
,⿻⿵	-15540
03⿱	-15541
14⿺	-15542
33,	-15543
358	-15544
36⿻	-15545
422	-15546
442	-15547
47,	-15548
506	-15549
53,	-15550
532	-15551
554	-15552
611	-15553
67⿸	-15554
;⿸⿱	-15555
“⿱⿹	-15556
《⿱⿵	-15557
「」⿻	-15558
𠂊田灬予	-15559
12⿱⿰⿱	-15560
18:30	-15561
62⿱⿰⿱	-15562
abase	-15563
berts	-15564
donna	-15565
ellis	-15566
ernel	-15567
excel	-15568
icken	-15569
larry	-15570
staff	-15571
terry	-15572
▁1812	-15573
▁bass	-15574
▁give	-15575
▁jane	-15576
▁juli	-15577
▁kent	-15578
▁lead	-15579
▁sets	-15580
㇇,⿱⿱	-15581
,11⿰	-15582
/⿱⿰⿻	-15583
1,09	-15584
1,19	-15585
1,24	-15586
1340	-15587
134⿱	-15588
1530	-15589
1537	-15590
161⿱	-15591
163⿱	-15592
166⿱	-15593
176⿱	-15594
23⿰⿰	-15595
50⿱⿳	-15596
76⿰⿱	-15597
:「⿰⿳	-15598
、、⿰⿱	-15599
22:00⿰	-15600
500⿱⿰⿱	-15601
ennedy	-15602
justin	-15603
mother	-15604
oliver	-15605
player	-15606
rhythm	-15607
▁alter	-15608
▁fight	-15609
▁local	-15610
▁metro	-15611
▁think	-15612
,1876	-15613
,「⿱⿱⿱	-15614
、1998	-15615
8661⿲⿱	-15616
ankings	-15617
gaudens	-15618
▁albert	-15619
▁beauty	-15620
▁carter	-15621
▁howard	-15622
▁rogers	-15623
2,000⿰	-15624
champion	-15625
▁british	-15626
▁continu	-15627
▁present	-15628
100,000	-15629
minecraft	-15630
president	-15631
▁congress	-15632
bittorrent	-15633
▁singapore	-15634
▁tournament	-15635
vn	-15636
▁束	-15637
、⿷	-15638
亻千	-15639
田疋	-15640
白巴	-15641
虫亡	-15642
衤氏	-15643
言工	-15644
++⿱	-15645
,“⿺	-15646
148	-15647
193	-15648
246	-15649
258	-15650
27。	-15651
366	-15652
455	-15653
458	-15654
554	-15655
56,	-15656
6%,	-15657
710	-15658
730	-15659
777	-15660
77。	-15661
81。	-15662
838	-15663
906	-15664
_59	-15665
_7。	-15666
ais	-15667
cub	-15668
dag	-15669
dax	-15670
eve	-15671
ggs	-15672
gpp	-15673
iku	-15674
imf	-15675
iot	-15676
jit	-15677
kee	-15678
loo	-15679
nis	-15680
ply	-15681
snk	-15682
ssd	-15683
vod	-15684
▁rx	-15685
▁《⿲	-15686
亠父力	-15687
凵丨又	-15688
又又页	-15689
龶月见	-15690
">	-15691
"⿵	-15692
+4	-15693
4⿷	-15694
"⿰⿱⿱	-15695
,“⿱⿱	-15696
,⿰⿱⿹	-15697
101⿰	-15698
1277	-15699
13,⿰	-15700
1300	-15701
1403	-15702
1404	-15703
1524	-15704
1599	-15705
15⿱⿱	-15706
1603	-15707
1617	-15708
1626	-15709
1762	-15710
1786	-15711
1802	-15712
2%,⿱	-15713
21,⿰	-15714
25⿰⿱	-15715
320⿱	-15716
450⿱	-15717
56,⿰	-15718
750⿱	-15719
:35⿰	-15720
aero	-15721
aiko	-15722
atch	-15723
atti	-15724
beck	-15725
cchi	-15726
exid	-15727
horn	-15728
jtwc	-15729
kala	-15730
lean	-15731
lies	-15732
mura	-15733
pier	-15734
pler	-15735
ritz	-15736
thom	-15737
twin	-15738
ucla	-15739
vvvf	-15740
when	-15741
your	-15742
▁5⿰⿱	-15743
▁ala	-15744
▁bee	-15745
▁lab	-15746
▁nak	-15747
▁pip	-15748
▁rom	-15749
十冖田疋	-15750
,「⿹	-15751
33⿻	-15752
357	-15753
405	-15754
426	-15755
429	-15756
432	-15757
451	-15758
474	-15759
509	-15760
517	-15761
534	-15762
538	-15763
539	-15764
562	-15765
599	-15766
75⿸	-15767
93⿰	-15768
:⿰⿰	-15769
·「⿱	-15770
「⿱⿵	-15771
,1990	-15772
0⿰⿱⿰	-15773
0、⿰⿱	-15774
14、21	-15775
66⿰⿳	-15776
burgh	-15777
chief	-15778
eline	-15779
ength	-15780
helen	-15781
itzer	-15782
rance	-15783
rique	-15784
serge	-15785
shift	-15786
solid	-15787
story	-15788
thumb	-15789
tiger	-15790
wanna	-15791
▁1600	-15792
▁1644	-15793
▁1799	-15794
▁nico	-15795
▁walk	-15796
▁whit	-15797
冂二月犬鬼	-15798
,3⿰⿱	-15799
1,99	-15800
1/3⿰	-15801
1050	-15802
126⿰	-15803
152⿱	-15804
1540	-15805
157⿱	-15806
1603	-15807
1710	-15808
1746	-15809
1768	-15810
1771	-15811
1⿱⿱⿰	-15812
214⿰	-15813
2200	-15814
220⿰	-15815
3200	-15816
3300	-15817
3⿰⿱⿰	-15818
44⿰⿱	-15819
49%⿰	-15820
55⿰⿱	-15821
921⿻	-15822
、2⿰⿱	-15823
illips	-15824
saurus	-15825
tardis	-15826
vatory	-15827
willer	-15828
winter	-15829
▁baron	-15830
▁cells	-15831
▁corre	-15832
▁glass	-15833
▁hills	-15834
▁imper	-15835
▁kelly	-15836
▁marsh	-15837
▁motor	-15838
▁title	-15839
▁turbo	-15840
,1901	-15841
110⿰⿱	-15842
11⿰⿱⿱	-15843
3200⿱	-15844
;2000	-15845
」⿱⿶⿳⿰	-15846
0⿰⿱⿱⿱⿰	-15847
8661,⿹	-15848
8661“⿰	-15849
adokawa	-15850
allenge	-15851
connect	-15852
maurice	-15853
mission	-15854
pacific	-15855
rainbow	-15856
▁apache	-15857
▁device	-15858
▁empire	-15859
▁import	-15860
▁pocket	-15861
▁psycho	-15862
▁simula	-15863
▁watson	-15864
20000⿱	-15865
business	-15866
▁african	-15867
▁because	-15868
▁current	-15869
▁january	-15870
▁cemetery	-15871
▁november	-15872
electronic	-15873
▁represent	-15874
cinemascore	-15875
▁washington	-15876
▁distribution	-15877
%⿹	-15878
/6	-15879
bg	-15880
tj	-15881
尢王	-15882
山卯	-15883
艹乡	-15884
酉乍	-15885
,“⿸	-15886
,「⿰	-15887
1%⿱	-15888
186	-15889
1;"	-15890
2,3	-15891
254	-15892
272	-15893
273	-15894
288	-15895
353	-15896
369	-15897
378	-15898
37。	-15899
42。	-15900
45。	-15901
59,	-15902
5、	-15903
627	-15904
63,	-15905
65,	-15906
71⿰	-15907
763	-15908
833	-15909
839	-15910
874	-15911
898	-15912
899	-15913
_2,	-15914
_47	-15915
anu	-15916
epp	-15917
eur	-15918
ftp	-15919
hoe	-15920
hpa	-15921
kak	-15922
lpl	-15923
nez	-15924
nir	-15925
nut	-15926
opt	-15927
oso	-15928
pcr	-15929
plc	-15930
uhf	-15931
vac	-15932
xin	-15933
▁1:	-15934
▁63	-15935
▁96	-15936
▁ds	-15937
▁ky	-15938
幺幺子	-15939
3⿹	-15940
<⿰	-15941
=⿱	-15942
]。	-15943
』⿸	-15944
,⿱⿻⿱	-15945
/200	-15946
06,⿰	-15947
0⿵⿰	-15948
1111	-15949
1542	-15950
1587	-15951
16,⿰	-15952
1630	-15953
1650	-15954
1658	-15955
1713	-15956
1728	-15957
1756	-15958
4%,⿰	-15959
49,⿰	-15960
53,⿰	-15961
54,⿰	-15962
_13⿱	-15963
agne	-15964
ande	-15965
ares	-15966
cala	-15967
chor	-15968
desk	-15969
gren	-15970
icky	-15971
imes	-15972
joey	-15973
kent	-15974
loud	-15975
olph	-15976
pcie	-15977
pure	-15978
tale	-15979
tery	-15980
vide	-15981
wald	-15982
▁cam	-15983
▁haw	-15984
▁jud	-15985
▁kap	-15986
▁pak	-15987
▁rad	-15988
▁ron	-15989
▁《⿱⿻	-15990
㇇⿳𭕄	-15991
11⿺	-15992
351	-15993
364	-15994
393	-15995
3:⿰	-15996
403	-15997
407	-15998
41⿻	-15999
438	-16000
466	-16001
569	-16002
60,	-16003
614	-16004
632	-16005
64⿸	-16006
69,	-16007
91⿰	-16008
;⿱⿴	-16009
·“⿰	-16010
』」。	-16011
13⿱⿰⿱	-16012
15、21	-16013
20⿱⿰⿱	-16014
21、10	-16015
22、21	-16016
66,⿹	-16017
anime	-16018
barry	-16019
emily	-16020
entin	-16021
intro	-16022
jacob	-16023
karen	-16024
nancy	-16025
oscar	-16026
oshop	-16027
pseud	-16028
pture	-16029
rator	-16030
rical	-16031
sigma	-16032
tagne	-16033
think	-16034
upper	-16035
urant	-16036
▁1783	-16037
▁1797	-16038
▁hugh	-16039
▁imag	-16040
▁jaco	-16041
▁near	-16042
▁need	-16043
▁peak	-16044
▁site	-16045
▁yang	-16046
,⿰⿰⿴	-16047
,⿰⿱⿻	-16048
1,69	-16049
102⿰	-16050
147⿱	-16051
1497	-16052
149⿱	-16053
150⿸	-16054
1654	-16055
1670	-16056
1688	-16057
169⿱	-16058
1773	-16059
201⿱	-16060
35⿱⿳	-16061
560⿱	-16062
65⿰⿱	-16063
93⿰⿱	-16064
、15⿱	-16065
》《⿰⿱	-16066
』、『⿱	-16067
corpor	-16068
enberg	-16069
gerald	-16070
island	-16071
langon	-16072
luster	-16073
spirit	-16074
▁alive	-16075
▁birth	-16076
▁cheng	-16077
▁chung	-16078
▁griff	-16079
▁logic	-16080
▁marie	-16081
,1899	-16082
,1903	-16083
1000⿻	-16084
23:30	-16085
400⿰⿱	-16086
:2014	-16087
66⿱⿰⿱⿱	-16088
8960⿵⿰	-16089
another	-16090
deutsch	-16091
limited	-16092
samsung	-16093
▁assist	-16094
▁murray	-16095
▁parker	-16096
▁python	-16097
▁scient	-16098
》、《⿰⿱⿱	-16099
8661⿱⿰⿴	-16100
rockstar	-16101
showtime	-16102
▁affairs	-16103
▁foreign	-16104
▁release	-16105
20,000⿰	-16106
beautiful	-16107
▁electric	-16108
▁electron	-16109
▁nacional	-16110
openoffice	-16111
▁reference	-16112
!"	-16113
"<	-16114
+4	-16115
2⿴	-16116
>2	-16117
qb	-16118
sq	-16119
wl	-16120
▁乍	-16121
《》	-16122
七木	-16123
口卜	-16124
口我	-16125
彐𧰨	-16126
艹长	-16127
金且	-16128
金田	-16129
03⿰	-16130
181	-16131
191	-16132
251	-16133
257	-16134
267	-16135
278	-16136
343	-16137
4,6	-16138
403	-16139
447	-16140
50%	-16141
568	-16142
569	-16143
767	-16144
769	-16145
810	-16146
845	-16147
84。	-16148
852	-16149
859	-16150
85。	-16151
863	-16152
86。	-16153
923	-16154
_48	-16155
_52	-16156
agm	-16157
bau	-16158
cox	-16159
cyp	-16160
ddg	-16161
emp	-16162
fid	-16163
gur	-16164
iao	-16165
ieu	-16166
jab	-16167
kok	-16168
ngt	-16169
ntv	-16170
pcb	-16171
pdp	-16172
ppi	-16173
rag	-16174
tsh	-16175
why	-16176
·⿹⿶	-16177
▁74	-16178
▁ae	-16179
、26	-16180
》⿵⿵	-16181
月刂见	-16182
氵七木	-16183
虍几食	-16184
!⿻	-16185
/⿵	-16186
4/	-16187
;⿷	-16188
—⿹	-16189
》⿲	-16190
1276	-16191
1370	-16192
1412	-16193
1460	-16194
1591	-16195
1602	-16196
1753	-16197
1770	-16198
2⿰⿱⿰	-16199
30⿱⿱	-16200
4000	-16201
_17⿱	-16202
_18⿱	-16203
_24⿰	-16204
amoo	-16205
btob	-16206
chip	-16207
cong	-16208
ener	-16209
eppe	-16210
etto	-16211
hman	-16212
homo	-16213
ilus	-16214
kath	-16215
midi	-16216
mong	-16217
mort	-16218
nock	-16219
omni	-16220
rane	-16221
rust	-16222
stea	-16223
vill	-16224
▁210	-16225
▁ess	-16226
▁gem	-16227
▁gio	-16228
▁jet	-16229
▁lis	-16230
▁mbc	-16231
▁neo	-16232
▁own	-16233
▁pav	-16234
▁roy	-16235
▁saw	-16236
▁tib	-16237
▁too	-16238
▁via	-16239
▁yet	-16240
,75	-16241
25⿺	-16242
30⿺	-16243
488	-16244
5,6	-16245
505	-16246
543	-16247
574	-16248
582	-16249
6,9	-16250
612	-16251
61⿸	-16252
710	-16253
762	-16254
885	-16255
920	-16256
969	-16257
:12	-16258
》:⿱	-16259
」;⿸	-16260
,2000	-16261
16、21	-16262
aaron	-16263
arian	-16264
aries	-16265
chain	-16266
chron	-16267
liday	-16268
miral	-16269
monte	-16270
proto	-16271
radar	-16272
▁100⿰	-16273
▁1796	-16274
▁1804	-16275
▁cass	-16276
▁deep	-16277
▁hack	-16278
▁lock	-16279
▁mand	-16280
▁math	-16281
▁ming	-16282
▁pala	-16283
▁race	-16284
▁tool	-16285
▁vari	-16286
⺌冖口田刂	-16287
,1⿱⿱	-16288
1,49	-16289
1,77	-16290
129⿰	-16291
135⿰	-16292
143⿱	-16293
1450	-16294
1559	-16295
1560	-16296
1620	-16297
1697	-16298
174⿱	-16299
1751	-16300
1757	-16301
2700	-16302
580⿱	-16303
:「⿰⿻	-16304
“211	-16305
、17⿱	-16306
「⿱⿱⿻	-16307
」,⿸⿸	-16308
66⿳⿱⿻	-16309
enburg	-16310
flower	-16311
linear	-16312
wright	-16313
▁adams	-16314
▁blues	-16315
▁could	-16316
▁grant	-16317
▁price	-16318
▁singh	-16319
▁stein	-16320
▁symph	-16321
▁total	-16322
,1895	-16323
,1896	-16324
,200⿱	-16325
115⿰⿰	-16326
145⿰⿱	-16327
16:00	-16328
20000	-16329
3,700	-16330
7000⿰	-16331
:2013	-16332
;1995	-16333
《》,⿱⿱	-16334
liament	-16335
timothy	-16336
▁chiang	-16337
▁corner	-16338
▁editor	-16339
▁hunter	-16340
kadokawa	-16341
montbard	-16342
philippe	-16343
southern	-16344
▁element	-16345
▁nations	-16346
▁premier	-16347
▁vehicle	-16348
50,000⿱	-16349
institute	-16350
▁approach	-16351
▁creative	-16352
▁economic	-16353
▁industry	-16354
▁princess	-16355
▁robinson	-16356
▁transfer	-16357
▁mountains	-16358
▁laboratory	-16359
▁communications	-16360
"=	-16361
%⿳	-16362
/,	-16363
uo	-16364
、,	-16365
「⿺	-16366
」、	-16367
亻及	-16368
月瓜	-16369
气亚	-16370
罒不	-16371
金目	-16372
钅卯	-16373
"」⿰	-16374
',⿱	-16375
07⿱	-16376
0⿱⿻	-16377
1,6	-16378
141	-16379
243	-16380
24、	-16381
283	-16382
29、	-16383
36、	-16384
395	-16385
39。	-16386
3⿱⿰	-16387
461	-16388
5%⿱	-16389
535	-16390
551	-16391
565	-16392
73,	-16393
759	-16394
81⿰	-16395
843	-16396
85、	-16397
867	-16398
930	-16399
979	-16400
:;}	-16401
_1⿸	-16402
dbc	-16403
dot	-16404
edi	-16405
fnc	-16406
ghq	-16407
gom	-16408
gto	-16409
hag	-16410
htm	-16411
ibu	-16412
ici	-16413
isy	-16414
jus	-16415
kpl	-16416
liz	-16417
lut	-16418
mbe	-16419
ove	-16420
pam	-16421
pau	-16422
pez	-16423
pow	-16424
tik	-16425
tip	-16426
tol	-16427
uil	-16428
uve	-16429
wav	-16430
wol	-16431
zam	-16432
▁73	-16433
8。	-16434
__	-16435
0⿰⿱⿱	-16436
0》⿰	-16437
1385	-16438
1506	-16439
1523	-16440
1595	-16441
1609	-16442
1612	-16443
1652	-16444
1745	-16445
1750	-16446
1752	-16447
1768	-16448
1780	-16449
1812	-16450
1816	-16451
1818	-16452
1828	-16453
2%,⿰	-16454
200。	-16455
24,⿰	-16456
32,⿰	-16457
34,⿰	-16458
38,⿰	-16459
5%,⿱	-16460
800⿰	-16461
85⿱⿳	-16462
_15⿱	-16463
_21⿰	-16464
_22⿰	-16465
adox	-16466
amon	-16467
ardi	-16468
bugs	-16469
edin	-16470
enia	-16471
etch	-16472
gade	-16473
gara	-16474
grey	-16475
hail	-16476
ican	-16477
ipro	-16478
kine	-16479
lear	-16480
nano	-16481
niss	-16482
reed	-16483
rico	-16484
sino	-16485
snap	-16486
tiff	-16487
trib	-16488
uron	-16489
▁25⿱	-16490
▁abc	-16491
▁bed	-16492
▁fig	-16493
▁jar	-16494
▁joy	-16495
▁kee	-16496
▁lte	-16497
▁nok	-16498
▁pep	-16499
▁sed	-16500
▁sep	-16501
▁sie	-16502
▁sli	-16503
▁sti	-16504
▁woo	-16505
▁⿱⿰⿳	-16506
㇇⿹⿶	-16507
0,⿰	-16508
13⿴	-16509
2、⿱	-16510
409	-16511
431	-16512
46,	-16513
462	-16514
47⿻	-16515
492	-16516
50,	-16517
541	-16518
542	-16519
687	-16520
7,9	-16521
82,	-16522
965	-16523
;⿰⿻	-16524
」⿵⿱	-16525
,2001	-16526
09:00	-16527
18:00	-16528
30⿱⿰⿱	-16529
66⿳𭕄	-16530
activ	-16531
cache	-16532
champ	-16533
colin	-16534
danny	-16535
ended	-16536
igher	-16537
kabup	-16538
lotte	-16539
onkey	-16540
peace	-16541
phant	-16542
reaty	-16543
stery	-16544
terra	-16545
tland	-16546
ustom	-16547
▁1777	-16548
▁1790	-16549
▁1798	-16550
▁1819	-16551
▁bird	-16552
▁cost	-16553
▁food	-16554
▁fred	-16555
▁gonz	-16556
▁rand	-16557
▁《⿰⿱⿰	-16558
1604	-16559
1622	-16560
1647	-16561
1665	-16562
167⿱	-16563
170⿰	-16564
1721	-16565
1764	-16566
22⿰⿰	-16567
35%⿰	-16568
450⿰	-16569
46⿰⿱	-16570
640⿱	-16571
76⿱⿳	-16572
:⿶⿳⿰	-16573
]]⿰⿱	-16574
、⿱⿰⿳	-16575
、⿱⿱⿲	-16576
、、⿱⿱	-16577
》1⿱⿱	-16578
」,⿺⿱	-16579
」、⿰⿱	-16580
access	-16581
aqours	-16582
centre	-16583
cision	-16584
flying	-16585
inding	-16586
indust	-16587
itions	-16588
lative	-16589
league	-16590
lement	-16591
select	-16592
shadow	-16593
▁6,000	-16594
▁adobe	-16595
▁daily	-16596
▁defin	-16597
▁johan	-16598
▁month	-16599
▁silva	-16600
▁squad	-16601
▁treat	-16602
,100⿱	-16603
」,⿱⿰⿱	-16604
」、「⿱⿳	-16605
8960、⿰	-16606
chicago	-16607
lincoln	-16608
lisieux	-16609
mbridge	-16610
▁comics	-16611
▁doctor	-16612
▁letter	-16613
▁racing	-16614
▁switch	-16615
▁volume	-16616
▁winter	-16617
1,400⿱	-16618
1200⿱⿱	-16619
1500⿱⿱	-16620
beauvais	-16621
northern	-16622
utricula	-16623
▁highway	-16624
▁include	-16625
▁schools	-16626
kabupaten	-16627
smackdown	-16628
▁hamilton	-16629
▁informer	-16630
▁universe	-16631
utricularia	-16632
][	-16633
{⿺	-16634
口皿	-16635
口龙	-16636
土龙	-16637
竹罒	-16638
钅了	-16639
钅来	-16640
龙石	-16641
0⿱⿳	-16642
182	-16643
245	-16644
25⿸	-16645
295	-16646
3,5	-16647
363	-16648
406	-16649
426	-16650
429	-16651
451	-16652
503	-16653
56。	-16654
598	-16655
762	-16656
768	-16657
806	-16658
835	-16659
844	-16660
894	-16661
aby	-16662
aub	-16663
cdc	-16664
dub	-16665
eto	-16666
fix	-16667
gee	-16668
hoo	-16669
hub	-16670
hus	-16671
mai	-16672
mmc	-16673
nbl	-16674
rox	-16675
tig	-16676
umn	-16677
upe	-16678
zak	-16679
·⿵⿵	-16680
▁6,	-16681
▁7,	-16682
▁:⿰	-16683
▁[⿱	-16684
▁gp	-16685
▁ml	-16686
▁sv	-16687
㐅乂土	-16688
乀丿月	-16689
几木刂	-16690
山己见	-16691
,[	-16692
6、	-16693
6。	-16694
“2	-16695
𠂉口皿	-16696
05⿱⿳	-16697
1522	-16698
1540	-16699
1670	-16700
1726	-16701
1740	-16702
1784	-16703
29,⿰	-16704
380⿱	-16705
76,⿰	-16706
8%,⿱	-16707
amph	-16708
buzz	-16709
chon	-16710
clay	-16711
ctus	-16712
dwig	-16713
each	-16714
enna	-16715
ilia	-16716
inda	-16717
init	-16718
inos	-16719
magn	-16720
mans	-16721
marc	-16722
midt	-16723
mour	-16724
neil	-16725
odor	-16726
ohor	-16727
olin	-16728
orph	-16729
ptor	-16730
quer	-16731
quis	-16732
sula	-16733
temu	-16734
they	-16735
thia	-16736
week	-16737
wich	-16738
writ	-16739
▁17⿰	-16740
▁639	-16741
▁900	-16742
▁ach	-16743
▁bai	-16744
▁bmg	-16745
▁ein	-16746
▁ken	-16747
▁kid	-16748
▁kur	-16749
▁nit	-16750
▁」、「	-16751
㇇⿰⿻	-16752
396	-16753
434	-16754
45⿻	-16755
464	-16756
471	-16757
472	-16758
548	-16759
563	-16760
597	-16761
6,4	-16762
6,7	-16763
63⿸	-16764
688	-16765
7,6	-16766
75%	-16767
770	-16768
78,	-16769
820	-16770
870	-16771
;“⿱	-16772
、⿰⿺	-16773
》:⿰	-16774
》《⿻	-16775
『⿱⿰	-16776
,2005	-16777
11⿱⿰⿱	-16778
arman	-16779
chart	-16780
civil	-16781
cracy	-16782
crown	-16783
guard	-16784
index	-16785
kelly	-16786
lasma	-16787
miles	-16788
minor	-16789
orrow	-16790
oware	-16791
ports	-16792
yonex	-16793
▁batt	-16794
▁crow	-16795
▁goes	-16796
▁html	-16797
▁jeff	-16798
▁mira	-16799
▁nich	-16800
▁pick	-16801
▁quad	-16802
▁read	-16803
1,17	-16804
1,35	-16805
100%	-16806
14⿰⿰	-16807
1565	-16808
1577	-16809
1590	-16810
1621	-16811
1625	-16812
1638	-16813
1667	-16814
1707	-16815
1714	-16816
1758	-16817
1766	-16818
184⿱	-16819
187⿱	-16820
213⿱	-16821
240⿰	-16822
2⿱⿱⿰	-16823
36⿰⿱	-16824
80%⿱	-16825
:「⿵⿰	-16826
、⿸⿸⿸	-16827
《⿱⿰⿷	-16828
》,⿱⿻	-16829
」;⿰⿱	-16830
800⿱⿰⿱	-16831
adidas	-16832
asonic	-16833
barbus	-16834
gordon	-16835
number	-16836
paypal	-16837
taylor	-16838
ulouse	-16839
▁extra	-16840
▁going	-16841
,1885	-16842
07:00	-16843
18:30	-16844
5500⿱	-16845
genesis	-16846
jeffrey	-16847
▁arthur	-16848
▁examin	-16849
▁forces	-16850
▁foster	-16851
▁illust	-16852
▁policy	-16853
▁region	-16854
▁result	-16855
▁santos	-16856
▁senior	-16857
12000⿱	-16858
22:00⿰	-16859
4,000⿰	-16860
,000,000	-16861
district	-16862
heinrich	-16863
johannes	-16864
▁freedom	-16865
▁russell	-16866
▁spencer	-16867
▁success	-16868
2008/09	-16869
5,000⿱⿱	-16870
▁official	-16871
▁response	-16872
10,000⿱⿱	-16873
department	-16874
▁universal	-16875
▁california	-16876
▁metacritic	-16877
0⿸	-16878
1⿳	-16879
5:	-16880
7"	-16881
:⿲	-16882
rz	-16883
tn	-16884
vh	-16885
vz	-16886
wm	-16887
xb	-16888
」;	-16889
井丶	-16890
匕示	-16891
土更	-16892
广厶	-16893
弋甘	-16894
水皿	-16895
耒㠯	-16896
言卜	-16897
,,,	-16898
,「⿱	-16899
0,⿰	-16900
14、	-16901
151	-16902
227	-16903
247	-16904
28、	-16905
2⿱⿰	-16906
31、	-16907
323	-16908
375	-16909
379	-16910
4%,	-16911
457	-16912
464	-16913
480	-16914
496	-16915
556	-16916
571	-16917
6%⿱	-16918
620	-16919
668	-16920
680	-16921
79,	-16922
79。	-16923
854	-16924
878	-16925
886	-16926
90。	-16927
],⿱	-16928
_5。	-16929
_63	-16930
aca	-16931
atl	-16932
chn	-16933
coa	-16934
dvb	-16935
dvi	-16936
etz	-16937
fie	-16938
gna	-16939
ikh	-16940
iya	-16941
jal	-16942
lap	-16943
mrs	-16944
oha	-16945
oke	-16946
seo	-16947
sui	-16948
tae	-16949
vig	-16950
wit	-16951
yne	-16952
zni	-16953
zor	-16954
▁ec	-16955
▁hz	-16956
▁ix	-16957
▁xl	-16958
▁ya	-16959
▁⿳⿰	-16960
▁」⿳	-16961
、、、	-16962
」⿵⿰	-16963
匕示頁	-16964
0⿹	-16965
7、	-16966
:⿷	-16967
「3	-16968
𠁣𠃛一	-16969
104⿰	-16970
130⿱	-16971
1442	-16972
1448	-16973
1501	-16974
1597	-16975
16,⿱	-16976
1685	-16977
1732	-16978
1754	-16979
18,⿰	-16980
1803	-16981
36,⿰	-16982
7,⿱⿱	-16983
81,⿰	-16984
8⿻㇀	-16985
:25⿰	-16986
:30、	-16987
addy	-16988
atom	-16989
chro	-16990
edit	-16991
flag	-16992
grup	-16993
hara	-16994
hell	-16995
hugh	-16996
hugo	-16997
ingo	-16998
isco	-16999
ived	-17000
mens	-17001
mune	-17002
nand	-17003
null	-17004
olla	-17005
opro	-17006
siri	-17007
thel	-17008
thin	-17009
tron	-17010
ulum	-17011
wiss	-17012
▁"⿱⿱	-17013
▁209	-17014
▁885	-17015
▁aur	-17016
▁ava	-17017
▁fam	-17018
▁fir	-17019
▁gau	-17020
▁gig	-17021
▁hab	-17022
▁ner	-17023
▁pix	-17024
▁raw	-17025
▁rhy	-17026
▁sas	-17027
▁」⿱⿰	-17028
、《⿱⿰	-17029
,99	-17030
15%	-17031
2,⿱	-17032
3,⿰	-17033
38,	-17034
397	-17035
4,3	-17036
421	-17037
43⿻	-17038
5,4	-17039
502	-17040
571	-17041
577	-17042
588	-17043
594	-17044
641	-17045
667	-17046
68,	-17047
6⿵⿰	-17048
712	-17049
73⿸	-17050
76,	-17051
930	-17052
——⿵	-17053
“⿸⿱	-17054
、40	-17055
《21	-17056
𠂊田一方	-17057
17、21	-17058
18、21	-17059
20:00	-17060
aguar	-17061
ances	-17062
daily	-17063
eddie	-17064
elena	-17065
icial	-17066
kitty	-17067
laugh	-17068
leron	-17069
lower	-17070
manag	-17071
mario	-17072
quake	-17073
quart	-17074
ribut	-17075
rotem	-17076
seine	-17077
sible	-17078
souri	-17079
sunny	-17080
susan	-17081
unity	-17082
xhtml	-17083
▁1779	-17084
▁1782	-17085
▁1808	-17086
▁cher	-17087
▁crit	-17088
▁dual	-17089
▁enix	-17090
▁fitz	-17091
▁half	-17092
▁happ	-17093
▁june	-17094
▁less	-17095
▁much	-17096
▁nova	-17097
▁rest	-17098
▁sans	-17099
▁scan	-17100
▁self	-17101
▁shah	-17102
▁spin	-17103
▁symb	-17104
▁viet	-17105
,20⿰	-17106
,《⿱⿳	-17107
112⿰	-17108
1260	-17109
129⿱	-17110
159⿱	-17111
15⿱⿰	-17112
162⿱	-17113
1675	-17114
1679	-17115
1683	-17116
1684	-17117
188⿱	-17118
194⿱	-17119
1、2⿰	-17120
203⿱	-17121
207⿱	-17122
45⿰⿱	-17123
570⿱	-17124
72⿰⿱	-17125
77⿰⿱	-17126
88⿰⿱	-17127
[[⿰⿱	-17128
、16⿱	-17129
「⿱⿰⿷	-17130
」⿱⿰⿻	-17131
%,2011	-17132
19:30⿰	-17133
caster	-17134
cember	-17135
claude	-17136
heaven	-17137
living	-17138
ludwig	-17139
novell	-17140
▁abdul	-17141
▁circu	-17142
▁evans	-17143
▁gross	-17144
▁steel	-17145
▁units	-17146
03:00	-17147
152⿰⿱	-17148
25000	-17149
3,100	-17150
3,400	-17151
3,900	-17152
;1994	-17153
》、《⿹⿶	-17154
8661,⿴	-17155
8661“⿱	-17156
captain	-17157
johnson	-17158
lington	-17159
outlook	-17160
saunier	-17161
symbian	-17162
▁astron	-17163
▁branch	-17164
▁chance	-17165
▁compan	-17166
▁growth	-17167
▁kirara	-17168
▁models	-17169
▁radeon	-17170
▁socket	-17171
▁things	-17172
6000⿱⿱	-17173
8661⿰⿱⿴	-17174
division	-17175
standing	-17176
▁destiny	-17177
▁diamond	-17178
▁douglas	-17179
▁quarter	-17180
▁stephen	-17181
cherbourg	-17182
wikipedia	-17183
▁airlines	-17184
▁campaign	-17185
▁catholic	-17186
▁sunshine	-17187
▁elizabeth	-17188
▁protection	-17189
▁institution	-17190
0⿹	-17191
2"	-17192
ej	-17193
rv	-17194
wg	-17195
▁舟	-17196
月羊	-17197
罒衣	-17198
臼人	-17199
舟山	-17200
',⿰	-17201
+10	-17202
/23	-17203
00、	-17204
2%⿱	-17205
22、	-17206
244	-17207
317	-17208
342	-17209
415	-17210
462	-17211
468	-17212
527	-17213
552	-17214
553	-17215
60⿸	-17216
73。	-17217
760	-17218
76。	-17219
78,	-17220
8%,	-17221
893	-17222
8、	-17223
90%	-17224
926	-17225
_55	-17226
aia	-17227
aug	-17228
bgm	-17229
dea	-17230
fai	-17231
fos	-17232
frs	-17233
hik	-17234
hos	-17235
kha	-17236
mex	-17237
opo	-17238
pti	-17239
roe	-17240
slo	-17241
sna	-17242
ugu	-17243
uid	-17244
wee	-17245
zia	-17246
·⿱⿳	-17247
·⿱⿻	-17248
▁2⿻	-17249
▁bf	-17250
▁pb	-17251
▁ud	-17252
▁“⿹	-17253
▁⿷⿱	-17254
▁》。	-17255
《⿱⿳	-17256
丶艮阝	-17257
习习中	-17258
勹日阝	-17259
宀八土	-17260
尹口頁	-17261
彐水皿	-17262
'。	-17263
4》	-17264
%;⿱⿱	-17265
0》⿱	-17266
1450	-17267
1514	-17268
1527	-17269
1545	-17270
1560	-17271
1633	-17272
1660	-17273
1673	-17274
1682	-17275
1688	-17276
1734	-17277
1758	-17278
1769	-17279
26,⿰	-17280
8⿱⿰⿱	-17281
9%,⿰	-17282
:05⿰	-17283
_19⿱	-17284
acki	-17285
away	-17286
cies	-17287
corn	-17288
eech	-17289
epie	-17290
food	-17291
fuse	-17292
gard	-17293
gius	-17294
guez	-17295
iast	-17296
idos	-17297
igny	-17298
irus	-17299
ised	-17300
jane	-17301
lari	-17302
nago	-17303
nana	-17304
pect	-17305
pete	-17306
ropo	-17307
sang	-17308
sile	-17309
spir	-17310
tero	-17311
trop	-17312
ubli	-17313
yuan	-17314
zier	-17315
▁107	-17316
▁15⿰	-17317
▁bod	-17318
▁cop	-17319
▁dot	-17320
▁flu	-17321
▁gla	-17322
▁haz	-17323
▁ire	-17324
▁kal	-17325
▁mys	-17326
▁pel	-17327
▁《⿰⿳	-17328
▁《⿰⿹	-17329
"、"	-17330
,65	-17331
20⿴	-17332
35⿻	-17333
372	-17334
416	-17335
433	-17336
443	-17337
46⿵	-17338
48,	-17339
5,5	-17340
511	-17341
518	-17342
523	-17343
552	-17344
56⿻	-17345
584	-17346
621	-17347
634	-17348
644	-17349
7,3	-17350
71⿸	-17351
87,	-17352
896	-17353
90⿵	-17354
、⿻⿱	-17355
,1976	-17356
66,⿴	-17357
66」⿱	-17358
antha	-17359
autom	-17360
centr	-17361
coach	-17362
iling	-17363
iplex	-17364
jalan	-17365
krist	-17366
latus	-17367
lette	-17368
nexus	-17369
pping	-17370
smile	-17371
▁"⿰⿱⿱	-17372
▁1500	-17373
▁1780	-17374
▁1818	-17375
▁1827	-17376
▁anne	-17377
▁boot	-17378
▁clay	-17379
▁elli	-17380
▁hypo	-17381
▁july	-17382
▁kind	-17383
▁maxi	-17384
▁rule	-17385
▁ting	-17386
▁tong	-17387
1,39	-17388
1067	-17389
106⿰	-17390
116⿰	-17391
136⿰	-17392
142⿱	-17393
151⿱	-17394
1662	-17395
171⿱	-17396
1762	-17397
197⿱	-17398
1:1⿰	-17399
2050	-17400
217⿱	-17401
285⿱	-17402
35⿱⿱	-17403
41⿰⿱	-17404
470⿱	-17405
55%⿰	-17406
5⿰⿱⿰	-17407
60⿱⿰	-17408
91⿰⿱	-17409
[[⿱⿱	-17410
“⿰⿱⿰	-17411
《》,⿸	-17412
》,⿰⿳	-17413
」,⿱⿻	-17414
8661《	-17415
bandar	-17416
monkey	-17417
pocket	-17418
simple	-17419
strate	-17420
unesco	-17421
wilson	-17422
▁baker	-17423
▁chain	-17424
▁corps	-17425
▁leung	-17426
▁quant	-17427
▁shock	-17428
▁smile	-17429
㇇⿱⿶⿱⿰	-17430
,1860	-17431
11:30	-17432
11⿱⿰⿱	-17433
120⿰⿱	-17434
148⿰⿱	-17435
16:9⿰	-17436
》、《⿲㇇	-17437
ligence	-17438
rowspan	-17439
sources	-17440
verilog	-17441
▁better	-17442
▁graham	-17443
▁height	-17444
▁jordan	-17445
▁leader	-17446
▁safety	-17447
▁strong	-17448
1000⿱⿳	-17449
shanghai	-17450
toulouse	-17451
▁amazing	-17452
▁antonio	-17453
▁deutsch	-17454
▁evangel	-17455
▁morning	-17456
▁partner	-17457
2009/10	-17458
commodore	-17459
francisco	-17460
▁complete	-17461
▁cultural	-17462
▁dynamics	-17463
▁learning	-17464
▁products	-17465
▁languages	-17466
association	-17467
▁championships	-17468
:“	-17469
>"	-17470
>[	-17471
mz	-17472
▁兆	-17473
、'	-17474
勹匕	-17475
广鬼	-17476
日巨	-17477
牛毛	-17478
犭甲	-17479
"|⿰	-17480
,⿱⿹	-17481
1,0	-17482
1,5	-17483
292	-17484
3%,	-17485
3,4	-17486
30⿸	-17487
312	-17488
314	-17489
359	-17490
371	-17491
4,9	-17492
49。	-17493
508	-17494
570	-17495
581	-17496
602	-17497
656	-17498
667	-17499
669	-17500
70。	-17501
755	-17502
775	-17503
892	-17504
933	-17505
998	-17506
bec	-17507
bry	-17508
cet	-17509
dop	-17510
exp	-17511
gag	-17512
hst	-17513
icc	-17514
ilt	-17515
iry	-17516
nsa	-17517
oon	-17518
pbs	-17519
sae	-17520
sms	-17521
tpp	-17522
upt	-17523
wad	-17524
wiz	-17525
xon	-17526
“⿱⿰	-17527
▁kb	-17528
▁wr	-17529
日女阝	-17530
艹冖土	-17531
3/	-17532
7⿴	-17533
·“	-17534
·⿷	-17535
—⿳	-17536
“0	-17537
《'	-17538
《⿶	-17539
/40⿰	-17540
1388	-17541
1555	-17542
1557	-17543
1606	-17544
1635	-17545
1657	-17546
1684	-17547
1741	-17548
1781	-17549
1798	-17550
39,⿰	-17551
41,⿰	-17552
48,⿰	-17553
86,⿰	-17554
_23⿰	-17555
alta	-17556
alto	-17557
aman	-17558
amer	-17559
apol	-17560
arab	-17561
cele	-17562
chno	-17563
cocc	-17564
cott	-17565
dock	-17566
elia	-17567
gger	-17568
ggie	-17569
gill	-17570
hash	-17571
hood	-17572
iran	-17573
iris	-17574
kers	-17575
kids	-17576
lain	-17577
lala	-17578
lift	-17579
lung	-17580
meta	-17581
mmet	-17582
nerv	-17583
olds	-17584
pert	-17585
ride	-17586
sapp	-17587
shel	-17588
sier	-17589
sire	-17590
thic	-17591
tium	-17592
ulty	-17593
unge	-17594
uple	-17595
vari	-17596
whit	-17597
zard	-17598
zion	-17599
▁,⿵⿵	-17600
▁14⿰	-17601
▁bac	-17602
▁gay	-17603
▁kot	-17604
▁pau	-17605
▁ske	-17606
▁⿱⿻⿻	-17607
⿰⿸⿱⿱	-17608
㇀⿰⿱	-17609
尸示寸火	-17610
""⿰	-17611
",⿺	-17612
,76	-17613
02⿱	-17614
14⿴	-17615
2/3	-17616
21:	-17617
382	-17618
481	-17619
4:⿰	-17620
501	-17621
513	-17622
527	-17623
576	-17624
593	-17625
5⿵⿰	-17626
628	-17627
64⿻	-17628
652	-17629
657	-17630
668	-17631
7%⿰	-17632
715	-17633
751	-17634
796	-17635
8%。	-17636
936	-17637
;⿳𭕄	-17638
·⿰⿰	-17639
、22	-17640
、⿷⿱	-17641
》⿰⿹	-17642
,1992	-17643
,2003	-17644
aller	-17645
asaki	-17646
atari	-17647
chuck	-17648
crypt	-17649
diana	-17650
march	-17651
maxim	-17652
oplan	-17653
ories	-17654
paint	-17655
spark	-17656
stroy	-17657
uffle	-17658
▁1636	-17659
▁1680	-17660
▁1784	-17661
▁adam	-17662
▁ange	-17663
▁dawn	-17664
▁dete	-17665
▁hans	-17666
▁hend	-17667
▁karl	-17668
▁loop	-17669
▁mars	-17670
▁nord	-17671
▁pent	-17672
▁rice	-17673
▁rome	-17674
▁sara	-17675
,23⿱	-17676
,4⿰⿱	-17677
,⿰⿱⿳	-17678
,⿸⿸⿸	-17679
1,47	-17680
1066	-17681
1280	-17682
1380	-17683
13⿰⿰	-17684
1460	-17685
1558	-17686
1593	-17687
1641	-17688
1690	-17689
1692	-17690
1747	-17691
181⿱	-17692
230⿰	-17693
236⿱	-17694
256⿰	-17695
365⿱	-17696
51⿰⿱	-17697
63⿰⿱	-17698
660⿱	-17699
6⿱⿰⿱	-17700
747⿰	-17701
85⿰⿱	-17702
86⿰⿱	-17703
95⿰⿱	-17704
:《⿱⿱	-17705
——“⿱	-17706
、12⿰	-17707
《⿱⿵⿵	-17708
「201	-17709
「⿰⿳⿱	-17710
ardust	-17711
coming	-17712
friday	-17713
istics	-17714
jeremy	-17715
marvel	-17716
middle	-17717
nation	-17718
series	-17719
stefan	-17720
sultan	-17721
terfly	-17722
walker	-17723
▁among	-17724
▁conne	-17725
▁devil	-17726
▁faith	-17727
▁limit	-17728
▁perry	-17729
▁robot	-17730
▁words	-17731
▁⿰⿱⿱⿱⿰	-17732
01:00	-17733
105⿱⿳	-17734
15000	-17735
7,000	-17736
8,000	-17737
:2015	-17738
;2017	-17739
、1994	-17740
、1996	-17741
cdonald	-17742
eastern	-17743
forever	-17744
gregory	-17745
macbook	-17746
monster	-17747
▁bomber	-17748
▁domain	-17749
▁matter	-17750
▁orange	-17751
▁provid	-17752
▁recogn	-17753
1,800⿱	-17754
deutsche	-17755
nicholas	-17756
▁2007/08	-17757
▁account	-17758
▁busters	-17759
▁disease	-17760
▁finance	-17761
▁meeting	-17762
▁olympic	-17763
▁product	-17764
▁tonight	-17765
discovery	-17766
universit	-17767
▁advanced	-17768
▁practice	-17769
collection	-17770
▁condition	-17771
▁solutions	-17772
+9	-17773
5⿺	-17774
fj	-17775
gq	-17776
gx	-17777
wz	-17778
xl	-17779
}⿰	-17780
《⿴	-17781
囗寸	-17782
山来	-17783
日电	-17784
钅女	-17785
钅彡	-17786
,11	-17787
/26	-17788
005	-17789
11/	-17790
15%	-17791
248	-17792
291	-17793
339	-17794
341	-17795
414	-17796
424	-17797
490	-17798
53,	-17799
548	-17800
5;	-17801
64。	-17802
67,	-17803
706	-17804
78。	-17805
791	-17806
83。	-17807
857	-17808
858	-17809
862	-17810
888	-17811
88。	-17812
938	-17813
988	-17814
>、<	-17815
aid	-17816
[...]
