<pad>	0
<unk>	0
[CLS]	0
[SEP]	0
[MASK]	0
(	0
)	0
”	0
-	0
.	0
–	0
£	0
€	0
⿰	-0
⿱	-1
cd	-2
cdp	-3
⿰⿱	-4
,	-5
⿸	-6
⿱⿱	-7
88	-8
勹丶	-9
⿱⿱	-10
⿺	-11
。	-12
⿻	-13
⿱⿰	-14
一八	-15
⿵	-16
,⿰	-17
一口	-18
⿴	-19
⿳	-20
一龰	-21
⿹	-22
885	-23
,⿱	-24
⿱⿰	-25
▁⿰	-26
⿰⿱⿱	-27
土寸	-28
89	-29
一厶	-30
、	-31
目八	-32
口口	-33
口丨	-34
⿱⿴	-35
66	-36
二丨	-37
日一	-38
⿰⿱	-39
十口	-40
丁口	-41
⿱⿻	-42
866	-43
1	-44
𠘧又	-45
人一	-46
亠口	-47
▁⿱	-48
𠂇月	-49
一人	-50
一厶土	-51
一廾	-52
ca	-53
⿱⿻	-54
人人	-55
⿱⿱⿱	-56
夂口	-57
口一	-58
𠁣𠃛	-59
亠丷	-60
⿰⿸	-61
戊𠃌	-62
cac	-63
禾口	-64
一止	-65
丿𠃌	-66
龷八	-67
bb	-68
一丁	-69
乛亅	-70
亠土	-71
20	-72
甲一	-73
㐅乂	-74
耂日	-75
乀丿	-76
囗玉	-77
⺌日	-78
囗⺌日	-79
二厶	-80
丿丿	-81
⿹⿻	-82
土也	-83
bbf	-84
八厶	-85
凵丨	-86
八刀	-87
冂口	-88
一兀	-89
人丶	-90
幺幺	-91
厶口	-92
⺌冖	-93
人⺀	-94
8665	-95
⺊一	-96
凵丨凵	-97
人一口	-98
立口	-99
一大	-100
⿱⿳	-101
⿲	-102
弓丨	-103
⿷	-104
䒑土	-105
丷干	-106
⺊口	-107
土厶	-108
亻也	-109
⿵⿰	-110
⺌冖口	-111
𠂊冫	-112
䒑自	-113
亠口小	-114
8661	-115
立口阝	-116
𠂉大	-117
cb	-118
一八斤	-119
丨丨	-120
目儿	-121
日十	-122
⿸⿸	-123
夕口	-124
乚丿	-125
𠂉母	-126
、⿰	-127
耳又	-128
止匕	-129
⿱⿰⿱	-130
⿳⿰	-131
弓丨丿	-132
立日	-133
⿱⿳	-134
896	-135
亻乍	-136
冂一口	-137
夕夕	-138
一厶土刂	-139
⿶⿳⿰	-140
彐一八	-141
口止	-142
一卜	-143
丿士	-144
土龰	-145
⿺⿱	-146
力口	-147
小丿	-148
亠父	-149
⿰⿳	-150
宀豕	-151
且一	-152
龶月	-153
bc	-154
儿口	-155
宀八	-156
立朩	-157
19	-158
𠂊小	-159
幺夂	-160
月刂	-161
冖子	-162
亻立	-163
木木	-164
衤皮	-165
亠巾	-166
冫欠	-167
⿵⿵	-168
人丨	-169
丿丨	-170
囗大	-171
且一八	-172
口儿	-173
,⿸	-174
2	-175
⿳𭕄	-176
一止攵	-177
干丷	-178
一心	-179
⺆冫	-180
彐冖	-181
:	-182
⿵⿵	-183
𠂊田	-184
》	-185
十罒	-186
千口	-187
十罒一心	-188
由八	-189
、⿱	-190
甲一一	-191
·	-192
冖車	-193
丿尸	-194
▁⿸	-195
亻弋	-196
丿糸	-197
亠乂	-198
,⿱⿱	-199
䒑业	-200
禾刂	-201
立朩斤	-202
⿶⿱⿰	-203
白小	-204
廴聿	-205
200	-206
𠂇巾	-207
宀㠯	-208
宀女	-209
匕匕	-210
丿尸斤	-211
子攵	-212
𠃋丿	-213
𠃋丿人	-214
𠂆一口	-215
匚㐅	-216
㐅乂子	-217
⿶⿳⿰	-218
⿱⿶⿱⿰	-219
bd	-220
cc	-221
井一八	-222
𠂆又	-223
日乚	-224
覀女	-225
廿又	-226
一二	-227
日一寸	-228
77	-229
十口儿	-230
人丶龴	-231
弋工	-232
士口	-233
䒑土大	-234
木目	-235
,⿰⿱	-236
19	-237
歹刂	-238
耂子攵	-239
亻寸	-240
《	-241
土口	-242
日寸	-243
201	-244
亠丷一	-245
爫冖	-246
口八	-247
冂卄	-248
884	-249
3	-250
」	-251
王里	-252
扌立	-253
口王	-254
「	-255
▁19	-256
夕卜	-257
尢丶	-258
人王	-259
日月	-260
,⿺	-261
⿰⿰	-262
龶𧘇	-263
コ一	-264
冖巾	-265
一八月	-266
亻吏	-267
王求	-268
𠂊田灬	-269
⿰⿻	-270
⿱⿱⿱	-271
忄生	-272
禾斗	-273
冂刂	-274
牛冂刂	-275
一口田	-276
𠂒儿	-277
勹巳	-278
丷八	-279
女攵	-280
耂日阝	-281
⿵⿰	-282
一巛	-283
一巛工	-284
“	-285
十又	-286
立十	-287
冖车	-288
刀口	-289
𠂊冫寸	-290
𠂒口	-291
一厶儿	-292
⿹⿶	-293
囗口	-294
一由八	-295
人一朩	-296
幺幺丱	-297
一土	-298
⿰⿹	-299
土土	-300
糸言	-301
糸言糸	-302
习习	-303
小丿目	-304
匕日	-305
⿵⿱	-306
五口	-307
日生	-308
辶文	-309
尸匕	-310
䒑土寸	-311
▁⿱⿱	-312
;	-313
爫冖又	-314
重力	-315
一八土	-316
辶言	-317
女口	-318
又寸	-319
王丷	-320
卩又	-321
4	-322
𠁣𠃛日	-323
艹央	-324
亻丨	-325
口木	-326
䒑土我	-327
宀八工	-328
幺幺人	-329
▁⿺	-330
口丂	-331
曲豆	-332
⿻⿻	-333
龷八巳	-334
⿳⿱	-335
肀一	-336
丿冂口	-337
儿丨	-338
日大	-339
立日心	-340
⺌冖口田	-341
,⿱	-342
5	-343
亠丷厂	-344
囗儿	-345
⿹⿶	-346
犬灬	-347
𠂊冫犬灬	-348
土龰巳	-349
⺌冖口巾	-350
⿲㇇	-351
▁⿰⿱	-352
日一里	-353
00	-354
⿰⿱⿰	-355
一廾刂	-356
入入	-357
85	-358
冎口	-359
⿱⿲	-360
ス工	-361
戈十	-362
亠口小彡	-363
𠂊巴	-364
一冉	-365
𠂇又	-366
禾女	-367
米大	-368
己攵	-369
肀一一	-370
⿱⿰⿴	-371
夂⺀	-372
大丶	-373
口贝	-374
甲一戈	-375
立女	-376
辶隹	-377
日十月	-378
夂力	-379
丿冂	-380
丷豕	-381
er	-382
目八刂	-383
木丶	-384
儿土	-385
禾日	-386
釆田	-387
一巾	-388
土儿土	-389
白水	-390
an	-391
8665⿰	-392
隹又	-393
,⿰	-394
cbb	-395
冂入	-396
6	-397
𠂇口	-398
𠂉丶	-399
二厶力	-400
口心	-401
丷口心	-402
方攵	-403
乂丶	-404
一廾刂土	-405
丿囗	-406
勹虫	-407
力八	-408
一廾彡	-409
⿱⿲	-410
宀丰	-411
冂人	-412
𫝀口	-413
丿夫	-414
龷由八	-415
止匕二	-416
门日	-417
𫝀口㐄	-418
口口隹	-419
木几	-420
⿵⿱	-421
勹口	-422
一业	-423
凵㐅	-424
in	-425
200	-426
⺌兀	-427
亠几	-428
ee	-429
or	-430
⿰⿳	-431
爫冉	-432
氏丶	-433
火火	-434
8665⿱	-435
尹口	-436
7	-437
8661⿰	-438
十口攵	-439
,⿹	-440
,⿻	-441
丿大	-442
辶寸	-443
禾中	-444
丶艮	-445
隹木	-446
亠丷冖巾	-447
且厶	-448
⿱⿰⿴	-449
宀丰口	-450
卌一	-451
𠂉卌一	-452
虍几	-453
氵工	-454
上卜	-455
宀匕	-456
䒑未	-457
戊一	-458
辶井	-459
王见	-460
禾重	-461
,⿴	-462
日乂	-463
宀子	-464
一𫝀	-465
▁201	-466
口力	-467
on	-468
十豆	-469
ce	-470
·⿰	-471
八口	-472
糸言糸弓	-473
宀示	-474
人彡	-475
礻土	-476
丿十	-477
氵州	-478
⺌月	-479
𠂉大口	-480
夕寸	-481
8	-482
丷夫	-483
⿱⿴	-484
几丶	-485
9	-486
巳巳	-487
癶豆	-488
口卩	-489
亻本	-490
刀丿	-491
10	-492
⺌彐	-493
䒑业日	-494
尸禹	-495
𠂇工	-496
虍豕	-497
止𣥂	-498
𠂉丶皿	-499
ea	-500
日夂	-501
𠂉日夂	-502
刀牛	-503
丿囗夂	-504
十口月	-505
▁⿻	-506
田一	-507
⺊口戈	-508
土羊	-509
丘八	-510
覀示	-511
幺木	-512
幺白	-513
幺白幺木	-514
4⿱	-515
弋一止	-516
一厶月	-517
コ一亅	-518
𠂉子	-519
8661	-520
龷日	-521
亻言	-522
礻申	-523
米女攵	-524
201	-525
𠂉十	-526
⿱⿴⿱	-527
丆口	-528
罒夕	-529
▁200	-530
亠幺	-531
二人	-532
亠口冖	-533
▁1	-534
凵㐅禸	-535
氵皮	-536
辶斤	-537
戊一口	-538
夂朩	-539
丿囗夂心	-540
一白	-541
𠃌口	-542
口龰	-543
丿冂米大	-544
12	-545
bf	-546
𠂉卌一灬	-547
人匕	-548
la	-549
土儿土丸	-550
亠丷日	-551
亻牛	-552
⿰⿱⿱	-553
二阝	-554
刀二阝	-555
厶厶	-556
心夂	-557
阝人	-558
立月	-559
人人龰	-560
冖儿	-561
歹匕	-562
日木	-563
𠁣𠃛柬	-564
口口犬	-565
言十	-566
日日	-567
𠂊田一	-568
宀必	-569
丩攵	-570
一口𧘇	-571
⿳⿰	-572
⿸⿴	-573
尸一口	-574
女也	-575
亻尹	-576
木子	-577
8964	-578
木艮	-579
爫木	-580
木寸	-581
肀一一田一	-582
土𠃓	-583
八夂	-584
且一小	-585
中一	-586
日罒	-587
日罒又	-588
宀必山	-589
衤刀	-590
乚丿十	-591
纟戋	-592
辶大	-593
甫寸	-594
立日儿	-595
⿶	-596
st	-597
ar	-598
亠八	-599
贝刂	-600
11	-601
⿺⿱	-602
纟及	-603
身寸	-604
冖儿木	-605
宀八九	-606
en	-607
8661⿱	-608
⿱⿵⿱	-609
丁口欠	-610
丨丿	-611
·⿱	-612
二丨凵	-613
丷三	-614
纟且	-615
口虫	-616
亻门	-617
⿱⿱⿰	-618
彳艮	-619
井一八贝	-620
土口𧘇	-621
扌丁	-622
bcb	-623
山而	-624
宀谷	-625
火火冖	-626
士衣	-627
厶厶人彡	-628
厂生	-629
刀丿心	-630
𠂊厂	-631
⿱⿹	-632
bea	-633
⿰⿱⿴	-634
戊一女	-635
白王	-636
⿰⿱⿹	-637
丷八十	-638
甘木	-639
勹口攵	-640
犬頁	-641
米犬頁	-642
夕㐄	-643
禾子	-644
亻隹	-645
工力	-646
囗丨	-647
丿口	-648
口丿口	-649
,⿱⿰	-650
⿱⿸	-651
0⿱	-652
又土	-653
5⿱	-654
辶束	-655
雨田	-656
讠十	-657
夂彡	-658
艹禺	-659
口十	-660
、⿰⿱	-661
扌隹	-662
女子	-663
8960	-664
𠃌丨	-665
⿺⿻	-666
丿七	-667
丿虫	-668
井一冉	-669
⿳⿱	-670
al	-671
宀头	-672
夂几	-673
田力	-674
又又	-675
⿱⿻⿱	-676
雨而	-677
山一	-678
束攵	-679
肀一一日	-680
勹冫	-681
肀口	-682
辶車	-683
一氺	-684
一氺丶	-685
纟隹	-686
口夫	-687
《⿰	-688
⿱⿶⿳⿰	-689
工攵	-690
人丶龴頁	-691
⿱⿱⿻	-692
車凵	-693
一内	-694
八人	-695
》⿰	-696
宀女木	-697
th	-698
扌斤	-699
革力	-700
且力	-701
亻白	-702
亻隹心	-703
辶不	-704
上小	-705
厶大	-706
白丿十	-707
厶大彡	-708
丿𠃌刂	-709
士口冖	-710
𠘧又手	-711
「⿰	-712
,⿵	-713
一尢	-714
尹口羊	-715
一厶土攵	-716
士心	-717
勹厶	-718
de	-719
ch	-720
夂丰	-721
土龰戉	-722
5⿰	-723
八乂	-724
糸言糸攵	-725
丿廾	-726
⺌冖口土	-727
上小又	-728
⿰⿷	-729
扌丸	-730
禾乃	-731
䒑自寸	-732
刀田	-733
▁s	-734
夂卜	-735
彑氺	-736
⺌冖口黑	-737
𠂉也	-738
一口田刂	-739
⿱⿹	-740
▁⿴	-741
《⿱	-742
人㔾	-743
龷八氺	-744
⿱⿰⿱	-745
乛头	-746
亻专	-747
匚儿	-748
⿸⿸	-749
8665⿵⿵	-750
le	-751
亻更	-752
士𠃜	-753
“⿰	-754
at	-755
田心	-756
勹又	-757
耂丂	-758
耂匕	-759
⿱𭕄	-760
井一八土	-761
虍豕刂	-762
mu	-763
一自	-764
人丶龴页	-765
for	-766
阝艮	-767
⿱⿵	-768
豆頁	-769
199	-770
亻乃	-771
⿱⿰⿱⿱	-772
一𧘇	-773
井一𧘇	-774
彐心	-775
20	-776
扌非	-777
巳寸	-778
囗丨𧰨	-779
囗才	-780
㐅朩	-781
⺊口灬	-782
一自夂	-783
牛冂刂衣	-784
冖一	-785
⿱⿺	-786
亻象	-787
日月皿	-788
戊一口心	-789
木目心	-790
,⿳	-791
18	-792
土土寸	-793
儿言	-794
木示	-795
亠口子	-796
⿲⿱	-797
一丨	-798
「⿱	-799
一曲	-800
一曲日	-801
氵夬	-802
几㐅	-803
气米	-804
廿巾	-805
冖一豕	-806
立里	-807
ro	-808
丰阝	-809
酉己	-810
𠂉一	-811
爿戈	-812
厂力	-813
爿戈臣	-814
扌巴	-815
▁m	-816
、⿻	-817
丷酉	-818
▁⿹	-819
丿二丨	-820
阝方	-821
刀丫	-822
纟内	-823
氵羊	-824
⿳⿱⿻	-825
自心	-826
阝日	-827
彳聿	-828
⿸⿱	-829
亠父攵	-830
凵㐅禸隹	-831
⿱⿰⿻	-832
讠人	-833
龶糸	-834
,⿱⿱⿱	-835
米斗	-836
犭犬	-837
亻弗	-838
𠂇工月	-839
亠口冖丁	-840
⿻㇀	-841
𡗗氺	-842
46	-843
co	-844
广隶	-845
一兀寸	-846
夂㐄	-847
礻见	-848
口耳	-849
讠己	-850
▁《	-851
▁⿱⿰	-852
釆大	-853
丿冂釆大	-854
cbd	-855
纟己	-856
、⿱⿱	-857
厶虫	-858
龵目	-859
女母	-860
⿱⿵⿵	-861
厶八夂	-862
》⿱	-863
is	-864
囗大心	-865
冂儿	-866
䒑山	-867
目廾	-868
艹冖	-869
"	-870
87	-871
辶由	-872
冂一	-873
“⿱	-874
弓长	-875
扌比	-876
尸一口刂	-877
勹口攵言	-878
卅冖巾	-879
宀寸	-880
羊目	-881
丨丨比	-882
8665⿰⿱	-883
氵又	-884
辶艮	-885
▁p	-886
」⿰	-887
▁⿳	-888
15	-889
言己	-890
比白	-891
▁由	-892
斤斤	-893
re	-894
⿱⿵⿱	-895
▁199	-896
mula	-897
力力	-898
十冖	-899
十冖糸	-900
口又	-901
formula	-902
辶车	-903
氵隹	-904
⿰⿹	-905
彐氺	-906
it	-907
亻我	-908
,19	-909
禾禾	-910
禾禾止	-911
𠂊冫寸犬	-912
口又一	-913
8⿷	-914
爿士衣	-915
一龰頁	-916
▁⿵⿵	-917
上小又目	-918
尸口	-919
𠃊人	-920
𠃊米	-921
口力刂	-922
𠂇厶	-923
亻衣	-924
亡月	-925
亡月王	-926
车专	-927
刀口灬	-928
/	-929
阝示	-930
爫一	-931
二乚	-932
木又	-933
礻且	-934
艹田	-935
口龶	-936
白巾	-937
𠂊田灬禾	-938
16	-939
▁b	-940
⿺⿸	-941
𠂇又丶	-942
」。	-943
⿱⿳𭕄	-944
口口欠	-945
䒑亡	-946
户方	-947
立十力	-948
七刀	-949
、⿸	-950
𠘧口	-951
⿳𭕄	-952
日比	-953
冫夬	-954
冫欠贝	-955
𠂇火	-956
冂二	-957
⺆冫攵	-958
一亅	-959
忄夬	-960
66⿰	-961
石皮	-962
17	-963
艹来	-964
冖方	-965
亠丷冖方	-966
am	-967
人一口手	-968
夂丶	-969
𠂉一乁	-970
虍豆	-971
虍豆戈	-972
13	-973
耳口王	-974
亻以	-975
谷卩	-976
阝東	-977
白方攵	-978
𠁣𠃛口	-979
心丿	-980
一生	-981
臼儿	-982
5⿱	-983
un	-984
宀八犬	-985
コ又	-986
;⿰	-987
口木土	-988
中一贝	-989
女又	-990
8665⿺	-991
丿大口	-992
丷夫㔾	-993
⺄十	-994
一丂	-995
𠂊亅	-996
世木	-997
el	-998
䒑土永	-999
里予	-1000
⿱⿺	-1001
▁⿱⿱⿱	-1002
、《	-1003
;⿱	-1004
,⿵⿵	-1005
▁h	-1006
厂干	-1007
尢丶丿	-1008
𡗗日	-1009
罒乑	-1010
戈戈	-1011
工頁	-1012
冫隹	-1013
戈刂	-1014
力口木	-1015
⿰⿸	-1016
il	-1017
zh	-1018
10	-1019
▁t	-1020
コ一女	-1021
人㔾刂	-1022
氵由	-1023
冂丶	-1024
十贝	-1025
尹口阝	-1026
8	-1027
8665	-1028
十口刂	-1029
夫见	-1030
土八夂	-1031
龴疋	-1032
亠𠃊	-1033
几攵	-1034
山一几攵	-1035
隹口	-1036
扌户	-1037
㐅㐅	-1038
勹缶	-1039
十豆口	-1040
勹灬	-1041
▁a	-1042
𠂉大豆	-1043
𠂊田一日	-1044
土儿土丸灬	-1045
耳阝	-1046
二丨刂	-1047
宀丁	-1048
𠂇厶隹	-1049
𠂉乙	-1050
es	-1051
14	-1052
丬士衣	-1053
口寸	-1054
竹朿	-1055
ion	-1056
人氺	-1057
艹乂	-1058
门口	-1059
木羊	-1060
,⿱⿱	-1061
辶豕	-1062
一龰页	-1063
ic	-1064
宀八方	-1065
广予	-1066
屯頁	-1067
肀一一田一刂	-1068
口止巨	-1069
⿰⿻	-1070
𠘧又耳	-1071
15	-1072
氏日	-1073
隹隹又	-1074
䒑口	-1075
羊䒑口	-1076
木木手	-1077
匚㐅欠	-1078
⿰⿳⿱⿻	-1079
ra	-1080
氵酉	-1081
18	-1082
宀木	-1083
幺幺灬	-1084
12	-1085
冖𧘇	-1086
16	-1087
王王	-1088
口口木	-1089
⿸⿱⿱	-1090
目八攵	-1091
丿皿	-1092
艹非	-1093
⿻⿺	-1094
又见	-1095
▁一	-1096
,200	-1097
▁o	-1098
金艮	-1099
𠃌丨一	-1100
羊工	-1101
尸毛	-1102
▁g	-1103
17	-1104
亠丷厂生	-1105
牙隹	-1106
丿之	-1107
纟工	-1108
𠂊彐心	-1109
丬夕	-1110
》、《	-1111
㇇⿰	-1112
丷夫力	-1113
0⿰	-1114
,⿰⿱⿱	-1115
冖隹	-1116
幺大	-1117
▁⿵	-1118
氵㔾	-1119
夫夫	-1120
弓冫	-1121
氵隹十	-1122
▁d	-1123
the	-1124
工页	-1125
彡頁	-1126
氵聿	-1127
又戈	-1128
辶力	-1129
⿱⿸	-1130
00⿱	-1131
ri	-1132
人人十	-1133
囗人	-1134
𠘧又酉	-1135
夫夫日	-1136
衤里	-1137
車斤	-1138
乛耳	-1139
乛耳攵	-1140
丰丰	-1141
25	-1142
冂㐅	-1143
巾白	-1144
彐冖巾	-1145
爫子	-1146
爿犬	-1147
口虫隹	-1148
8661⿸⿸	-1149
䒑八	-1150
䒑八皿	-1151
士示	-1152
广车	-1153
戊一𣥂	-1154
一厶月攵	-1155
士示欠	-1156
夂田	-1157
▁f	-1158
▁小	-1159
▁w	-1160
龶贝	-1161
幺幺灬頁	-1162
895	-1163
us	-1164
亻十	-1165
0	-1166
习习白	-1167
户口	-1168
金刂	-1169
乡隹	-1170
辶𠂤	-1171
et	-1172
丬夕大	-1173
扌白	-1174
囗韦	-1175
、⿱⿰	-1176
𠂉母攵	-1177
刀金刂	-1178
丿乚	-1179
,⿸⿸	-1180
米女	-1181
口夫隹	-1182
木土	-1183
13	-1184
王不	-1185
▁本	-1186
匕月	-1187
li	-1188
𠂊贝	-1189
日小	-1190
」⿱	-1191
扌丸灬	-1192
戊𠃌皿	-1193
亻二	-1194
𠂉巾	-1195
戈十車	-1196
ing	-1197
⿱⿰⿷	-1198
𠂊田灬日	-1199
lo	-1200
人止	-1201
歹刂灬	-1202
▁194	-1203
勹丿	-1204
⿱⿱⿻	-1205
80	-1206
0⿰	-1207
⿴⿱	-1208
几口	-1209
as	-1210
一乚丿	-1211
一乚丿兀	-1212
一彑	-1213
⿰⿵	-1214
丷干丸	-1215
囗人皿	-1216
王丶	-1217
犭虫	-1218
▁195	-1219
刀丿丶	-1220
匕匕心	-1221
凵土	-1222
197	-1223
,⿰⿳	-1224
亠口子攵	-1225
21	-1226
大口	-1227
𠃑大口	-1228
罒非	-1229
▁⿰⿱⿱	-1230
刀丿丶木	-1231
—	-1232
日皿	-1233
求攵	-1234
and	-1235
文刂	-1236
30	-1237
:⿰	-1238
14	-1239
土儿土丸力	-1240
一𣥂	-1241
▁n	-1242
予頁	-1243
大丷	-1244
大丷日小	-1245
人人一	-1246
ur	-1247
日业	-1248
⿱⿻⿻	-1249
66⿱	-1250
,⿱⿻	-1251
凵田	-1252
30	-1253
▁c	-1254
人人夂	-1255
木才	-1256
⿳⿻	-1257
艹乙	-1258
月犬	-1259
⿰⿱⿵	-1260
冂二月犬	-1261
⿹⿻	-1262
冖又	-1263
コ一冖又	-1264
土皮	-1265
禾必	-1266
8661⿵⿰	-1267
23	-1268
、⿰	-1269
阝东	-1270
22	-1271
:“	-1272
尸由	-1273
𠂉大口日	-1274
木木示	-1275
000	-1276
土止	-1277
耂匕日	-1278
、⿺	-1279
亻又	-1280
24	-1281
、⿳	-1282
冫水	-1283
子小	-1284
木木疋	-1285
弗贝	-1286
夫丷	-1287
8665⿱⿱	-1288
一丰	-1289
田皿	-1290
木及	-1291
八大	-1292
冂八大	-1293
日央	-1294
月月	-1295
21	-1296
广土	-1297
丷酉寸	-1298
口口口	-1299
8661⿵	-1300
耳又乑	-1301
df	-1302
,⿸	-1303
▁"	-1304
▁2	-1305
60	-1306
山夕	-1307
,⿰⿸	-1308
𠁣𠃛耳	-1309
土土兀	-1310
ed	-1311
几丶木	-1312
𠂊厂㔾	-1313
口及	-1314
195	-1315
冂二月犬土	-1316
𠃋丿人刂	-1317
口止艮	-1318
朿刂	-1319
爫罒	-1320
目艮	-1321
木斤	-1322
屯页	-1323
又隹	-1324
禾火	-1325
,⿶⿳⿰	-1326
干刂	-1327
⿸⿱	-1328
龶母	-1329
王缶	-1330
日大巾	-1331
㇇	-1332
雨彐	-1333
冖几	-1334
不口	-1335
禾厶	-1336
𠂉疋	-1337
辶禺	-1338
28	-1339
石角	-1340
木隹	-1341
口隹	-1342
幺幺斤	-1343
亻木	-1344
山石	-1345
▁197	-1346
》。	-1347
ac	-1348
𩰋𩰊	-1349
26	-1350
辶兆	-1351
丨又	-1352
臼丨又	-1353
戈廾	-1354
冂口攵	-1355
扌戈	-1356
▁⿸⿸	-1357
白小彡	-1358
▁⿱⿰⿴	-1359
㇇⿱	-1360
11	-1361
194	-1362
宀于	-1363
田糸	-1364
、⿹	-1365
丬犬	-1366
雨隹	-1367
缶夬	-1368
十廾	-1369
27	-1370
辶巛	-1371
乛工	-1372
乛工一	-1373
士乛工一	-1374
艹两	-1375
⿱⿰⿸	-1376
宀且	-1377
犭㔾	-1378
厶又	-1379
爫龴	-1380
2⿱	-1381
广大	-1382
8⿰	-1383
車㔾	-1384
丶尸	-1385
id	-1386
广車	-1387
ow	-1388
8977	-1389
艹重	-1390
宀八牙	-1391
木木鬼	-1392
耳耳	-1393
彑𧰨	-1394
辶白	-1395
ig	-1396
▁」	-1397
女生	-1398
夕㔾	-1399
大隹	-1400
刀巴	-1401
丰寸	-1402
扌甫	-1403
勹臼	-1404
讠上	-1405
艹隹	-1406
艹隹臼	-1407
ol	-1408
▁of	-1409
31	-1410
囗㐅	-1411
▁193	-1412
,⿰⿱	-1413
3⿱	-1414
中心	-1415
大丶心	-1416
:⿱	-1417
、⿱	-1418
戈十车	-1419
}	-1420
䒑夫	-1421
辶米	-1422
阝車	-1423
山隹	-1424
子皿	-1425
▁以	-1426
/⿻	-1427
丿囗㐅	-1428
86	-1429
口乎	-1430
𠂒口非	-1431
木白	-1432
:「	-1433
丷酉大	-1434
臣又	-1435
止月	-1436
钅艮	-1437
𡗗禾	-1438
冂大	-1439
𠂊冂大	-1440
▁k	-1441
29	-1442
ter	-1443
子乚	-1444
氵甫	-1445
十豆寸	-1446
》⿻	-1447
土丶	-1448
氵气	-1449
⺊尸	-1450
火乍	-1451
25	-1452
ma	-1453
土厶卩	-1454
又又木	-1455
果页	-1456
丷夫氺	-1457
⿰⿵	-1458
爫缶	-1459
纟田	-1460
止𣥂頁	-1461
8661⿰⿱	-1462
一丨虫	-1463
𠃌冫	-1464
弋丿	-1465
𠂤止	-1466
5	-1467
厂㔾	-1468
br	-1469
2010	-1470
丿土	-1471
丿土攵	-1472
田月	-1473
os	-1474
、⿴	-1475
▁co	-1476
han	-1477
日十韦	-1478
车斤	-1479
贝攵	-1480
月生	-1481
宀玉	-1482
丰丰豆	-1483
▁3	-1484
勹日	-1485
⿲㇇	-1486
▁the	-1487
ut	-1488
⿷⿱	-1489
㡀攵	-1490
黑犬	-1491
亻戈	-1492
ir	-1493
川頁	-1494
亠口冖豕	-1495
火火冖木	-1496
女又力	-1497
大镸	-1498
ia	-1499
大隹寸	-1500
禾女鬼	-1501
𠃊米斤	-1502
84	-1503
气羊	-1504
口丩	-1505
户口攵	-1506
比十	-1507
十目	-1508
,⿱⿰⿴	-1509
6⿱	-1510
户隹	-1511
5⿰⿱	-1512
隹灬	-1513
氵九	-1514
1⿱	-1515
勹甫	-1516
196	-1517
氵九木	-1518
8665⿹	-1519
⿰⿳⿱	-1520
人人木隹	-1521
习习隹	-1522
丨丿彐	-1523
阝且	-1524
黑土	-1525
王朱	-1526
亠𧘇	-1527
8⿱	-1528
▁v	-1529
2⿰	-1530
戈十衣	-1531
亡口	-1532
50	-1533
木𠃓	-1534
亻山	-1535
口未	-1536
▁2013	-1537
木灬	-1538
夕㐄木	-1539
日大土	-1540
·⿱⿱	-1541
▁自	-1542
⺌冖口手	-1543
▁2012	-1544
——	-1545
,201	-1546
5⿸	-1547
亠口冖几	-1548
扌斤口	-1549
爫工	-1550
爫工彐心	-1551
83	-1552
ent	-1553
𠂊田一羊	-1554
23	-1555
氵也	-1556
▁st	-1557
27	-1558
亻谷	-1559
▁2008	-1560
ve	-1561
凵丨月	-1562
田丁	-1563
心皿	-1564
心皿丁	-1565
▁196	-1566
24	-1567
,⿺⿱	-1568
灬皿	-1569
肀一灬皿	-1570
言川	-1571
几丶心	-1572
扌丸力	-1573
厂丁	-1574
1,	-1575
彡页	-1576
%⿰	-1577
,《	-1578
um	-1579
幺力	-1580
门耳	-1581
石更	-1582
⿰⿰	-1583
di	-1584
土厶皿	-1585
,⿺	-1586
𠂉母攵糸	-1587
禾且	-1588
一田	-1589
一田一	-1590
予页	-1591
亠口冖毛	-1592
山豆	-1593
爫木彡	-1594
龶夂	-1595
止𣥂页	-1596
𠂊田灬羊	-1597
2008	-1598
亠口子阝	-1599
丷酉大阝	-1600
▁2010	-1601
十豆彡	-1602
29	-1603
女未	-1604
火火冖力	-1605
8661⿻	-1606
▁in	-1607
不皿	-1608
艹冖力	-1609
目八才	-1610
扌乚	-1611
em	-1612
▁2011	-1613
礻乚	-1614
ver	-1615
om	-1616
舟见	-1617
䒑土食	-1618
2012	-1619
扌疌	-1620
大示	-1621
1⿱	-1622
▁4	-1623
大巳	-1624
覀大巳	-1625
▁2014	-1626
糸攵	-1627
▁⿱⿻	-1628
山一糸攵	-1629
▁⿱⿳	-1630
193	-1631
衤甫	-1632
丨日	-1633
▁j	-1634
·⿸	-1635
op	-1636
2⿱	-1637
亚日	-1638
sa	-1639
、「	-1640
%。	-1641
im	-1642
ct	-1643
戈十隹	-1644
王王必	-1645
囗木	-1646
亠口了	-1647
車欠	-1648
亻五	-1649
▁l	-1650
2009	-1651
䒑土皿	-1652
歹刂衣	-1653
1⿰	-1654
九朩	-1655
丁頁	-1656
𠄎丿	-1657
辶千	-1658
2011	-1659
疋虫	-1660
,⿱⿳	-1661
ot	-1662
66	-1663
〢又	-1664
二丨力	-1665
26	-1666
▁目	-1667
8960⿰	-1668
⿴⿰	-1669
2007	-1670
串心	-1671
川页	-1672
▁⿺⿱	-1673
丰刀	-1674
言寸	-1675
扌巨	-1676
耂子	-1677
3⿱	-1678
7⿱	-1679
ation	-1680
丁页	-1681
⿰⿱⿺	-1682
」,	-1683
ge	-1684
一日	-1685
厶厶一日	-1686
彐火	-1687
ba	-1688
,“	-1689
「⿰⿱	-1690
日干	-1691
巳廾	-1692
土丷	-1693
山己	-1694
▁⿰⿸	-1695
车九	-1696
5⿰	-1697
㇇⿱	-1698
中一㠯	-1699
2006	-1700
尺⺀	-1701
亻乙	-1702
囗禾	-1703
《⿰⿱	-1704
尸示	-1705
爿士	-1706
尸示寸	-1707
乚丿贝	-1708
000⿱	-1709
山豆几	-1710
ex	-1711
三丨	-1712
牛攵	-1713
2⿰	-1714
口口隹欠	-1715
▁2009	-1716
亻禺	-1717
82	-1718
na	-1719
:⿰	-1720
」,⿰	-1721
歺又	-1722
⿱⿰⿳	-1723
巳灬	-1724
40	-1725
𦣞巳灬	-1726
冫中	-1727
氵干	-1728
▁《⿰	-1729
2013	-1730
▁formula	-1731
言方	-1732
、⿵	-1733
𠂊田大	-1734
𠂉力	-1735
镸彡	-1736
亠口子丸	-1737
歹朱	-1738
ss	-1739
3⿰	-1740
▁i	-1741
ph	-1742
人朩	-1743
艹人朩	-1744
止匕糸	-1745
扌广	-1746
2000	-1747
車九	-1748
1⿰	-1749
𠂉一罒	-1750
彳重	-1751
贝才	-1752
纟丑	-1753
」,⿱	-1754
厶又乚	-1755
▁2007	-1756
《⿻	-1757
oo	-1758
▁為	-1759
▁de	-1760
言果	-1761
▁⿹⿶	-1762
22	-1763
弓土	-1764
丿巾	-1765
⿳⿳	-1766
厶儿	-1767
广由	-1768
戊一火	-1769
彳皮	-1770
!	-1771
乛水	-1772
乛水一	-1773
歹匕廾	-1774
艹罒	-1775
氵冘	-1776
𠘧又皿	-1777
土龰㐅	-1778
木不	-1779
▁5	-1780
sp	-1781
夕㐄阝	-1782
▁6	-1783
2014	-1784
▁2015	-1785
夂口頁	-1786
口月	-1787
工贝	-1788
▁2006	-1789
ad	-1790
▁9	-1791
,2009	-1792
山己几	-1793
臣又土	-1794
土龰卜	-1795
言斥	-1796
宀申	-1797
一丨犬	-1798
讠井	-1799
冖木	-1800
言丁	-1801
8⿱	-1802
3⿰	-1803
扌斥	-1804
199	-1805
4⿰	-1806
亻子	-1807
8665⿸	-1808
▁日	-1809
幺𠃌	-1810
艹见	-1811
》⿰	-1812
▁20	-1813
28	-1814
纟东	-1815
幺幺心	-1816
·⿰⿱	-1817
5⿱	-1818
」、「	-1819
日子	-1820
冂二目	-1821
户隹頁	-1822
2005	-1823
十冖子	-1824
口巴	-1825
车欠	-1826
礻羊	-1827
▁7	-1828
81	-1829
歺又食	-1830
又丶	-1831
ap	-1832
9⿱	-1833
㡀攵巾	-1834
目儿丶	-1835
匕口	-1836
⿰⿺	-1837
匕口灬	-1838
66⿺	-1839
䒑山刂	-1840
亠口子丸灬	-1841
丿厶	-1842
4⿱	-1843
▁<	-1844
hk	-1845
止匕木	-1846
?	-1847
钅中	-1848
土甫	-1849
,000	-1850
女且	-1851
木兆	-1852
爫臼	-1853
丶丶	-1854
丶丶丶	-1855
小大	-1856
0	-1857
白小頁	-1858
,⿵⿰	-1859
阝车	-1860
》,	-1861
虫虫	-1862
▁巴	-1863
米立	-1864
ul	-1865
▁《⿱	-1866
4⿰	-1867
罒心	-1868
宀丰罒心	-1869
牛也	-1870
sh	-1871
丷干犬	-1872
亻犬	-1873
10⿱	-1874
木卯	-1875
45	-1876
工口寸	-1877
00⿰	-1878
辶了	-1879
▁!	-1880
8⿰	-1881
50	-1882
扌兆	-1883
、“	-1884
凵丨欠	-1885
▁r	-1886
日土	-1887
ta	-1888
8959	-1889
tw	-1890
田一口	-1891
,⿰⿻	-1892
大电	-1893
木攵	-1894
▁「	-1895
,「	-1896
35	-1897
讠方	-1898
𠃌丿	-1899
千口攵	-1900
ind	-1901
亻申	-1902
衤卜	-1903
夂口页	-1904
0⿱	-1905
70	-1906
2004	-1907
▁“	-1908
▁2016	-1909
▁为	-1910
▁ch	-1911
="	-1912
口止兆	-1913
日大㣺	-1914
》,⿰	-1915
ne	-1916
一大阝	-1917
艹罒冖	-1918
土口隹	-1919
立十土	-1920
se	-1921
▁ca	-1922
丨丨一	-1923
ay	-1924
氵匚	-1925
▁e	-1926
人人刂	-1927
hans	-1928
ip	-1929
te	-1930
勹口攵手	-1931
▁⿰⿳	-1932
讠川	-1933
𠂒儿贝	-1934
qu	-1935
氵白	-1936
钅戋	-1937
⿺⿵	-1938
八刀頁	-1939
:⿱	-1940
日王	-1941
2001	-1942
ck	-1943
大寸	-1944
丰阝巾	-1945
丿田	-1946
儿厶	-1947
廿木	-1948
千口乚	-1949
车两	-1950
ub	-1951
王文	-1952
▁2005	-1953
臼工	-1954
冖儿干	-1955
46⿰	-1956
艹方	-1957
8661⿱⿱	-1958
37	-1959
口龶力	-1960
灬史	-1961
▁10	-1962
艹之	-1963
車甫	-1964
臼土	-1965
爫子乚	-1966
36	-1967
一史	-1968
人干	-1969
田田	-1970
扌石	-1971
革月	-1972
艹罒冖夕	-1973
39	-1974
匕匕灬	-1975
47	-1976
十冖子力	-1977
、⿰⿱⿱	-1978
王白	-1979
up	-1980
冖见	-1981
bo	-1982
▁and	-1983
ie	-1984
木木幺	-1985
凵乚	-1986
广发	-1987
王文王	-1988
▁re	-1989
金十	-1990
《⿱⿱	-1991
木彡	-1992
丰刀大	-1993
木示隶	-1994
ard	-1995
6⿱	-1996
ine	-1997
40	-1998
忄不	-1999
土欠	-2000
土夬	-2001
49	-2002
臣又糸	-2003
▁⿱⿵⿱	-2004
冖牛	-2005
8661⿸	-2006
av	-2007
ak	-2008
廿灬	-2009
》,⿱	-2010
,⿱⿰⿱	-2011
一火	-2012
谷欠	-2013
▁2017	-2014
》、《⿰	-2015
龙衣	-2016
亻中	-2017
2015	-2018
;}	-2019
,⿹	-2020
5⿰	-2021
ang	-2022
旡旡	-2023
果頁	-2024
,199	-2025
旡旡日	-2026
und	-2027
“⿻	-2028
▁2018	-2029
2011	-2030
王皮	-2031
▁⿰⿱⿰	-2032
戈𠂇	-2033
口一𧘇	-2034
ag	-2035
ou	-2036
丰丰彐心	-2037
竹聿	-2038
▁民	-2039
千臼	-2040
〢又土	-2041
2003	-2042
矛木	-2043
「⿻	-2044
凵丨月土	-2045
厂里	-2046
48	-2047
79	-2048
石广	-2049
车由	-2050
ber	-2051
車斤日	-2052
宀由	-2053
女己	-2054
▁。	-2055
100	-2056
丿丨刂	-2057
▁二	-2058
工丂	-2059
75	-2060
▁2004	-2061
讠寸	-2062
土川	-2063
阝月	-2064
舟皿	-2065
糸言糸心	-2066
art	-2067
8665⿰⿱⿱	-2068
2,	-2069
ii	-2070
弓厶	-2071
》⿱	-2072
▁⿶⿳⿰	-2073
𠂉丶见	-2074
⿱⿱⿰	-2075
勹田	-2076
斤欠	-2077
6⿰	-2078
丘山	-2079
"⿰	-2080
20⿱	-2081
土方	-2082
𠂊田灬里	-2083
衤由	-2084
戈十木	-2085
30⿱	-2086
876	-2087
,⿻	-2088
土鬼	-2089
厂㔾页	-2090
亠父阝	-2091
8665⿻	-2092
、⿰⿸	-2093
」⿰	-2094
冂㐅刂	-2095
33	-2096
白小心	-2097
又欠	-2098
▁zh	-2099
▁8	-2100
』	-2101
屯阝	-2102
亻方	-2103
人丶龴阝	-2104
190	-2105
匕頁	-2106
扌𠃓	-2107
,⿵⿱	-2108
so	-2109
⺊贝	-2110
65	-2111
mp	-2112
口斤	-2113
讠斥	-2114
钅十	-2115
禾禾日	-2116
刀贝	-2117
疒了	-2118
all	-2119
▁比	-2120
卜皿	-2121
土卜皿	-2122
2001	-2123
丿言	-2124
ik	-2125
艹戊	-2126
6⿰	-2127
犭言	-2128
犭言犬	-2129
千口予	-2130
60	-2131
『	-2132
几又	-2133
大弓	-2134
2002	-2135
ist	-2136
丷夫手	-2137
▁y	-2138
忄隹	-2139
ica	-2140
ht	-2141
丷夫刀	-2142
衤谷	-2143
》、《⿱	-2144
⿳⿳	-2145
35	-2146
“⿰⿱	-2147
1990	-2148
广木	-2149
覀土	-2150
宀丰口刂	-2151
口口丨	-2152
8⿰	-2153
one	-2154
𠁣𠃛才	-2155
氵𠃓	-2156
▁2003	-2157
〢又糸	-2158
,⿹⿶	-2159
mo	-2160
厂彡頁	-2161
匕刂	-2162
“⿸	-2163
虍业	-2164
讠丁	-2165
ows	-2166
ccdp	-2167
69	-2168
月巴	-2169
5⿱⿱	-2170
▁人	-2171
犭火	-2172
「⿱⿱	-2173
34	-2174
彳氵	-2175
土不	-2176
:"	-2177
勹米	-2178
巛果	-2179
一八言	-2180
10⿰	-2181
ci	-2182
氵永	-2183
业䒑夫	-2184
▁东	-2185
女又心	-2186
卩丶	-2187
𠂎丶	-2188
田一口犬	-2189
口口田一口犬	-2190
ers	-2191
;⿸	-2192
毌贝	-2193
2016	-2194
·⿹	-2195
「⿸	-2196
55	-2197
白儿	-2198
由阝	-2199
▁190	-2200
目八女	-2201
⿻⿱	-2202
90	-2203
月永	-2204
8⿱	-2205
ran	-2206
indows	-2207
ff	-2208
爫女	-2209
8960	-2210
辶万	-2211
釆心	-2212
王册	-2213
人一朩斗	-2214
子瓜	-2215
▁白	-2216
亚心	-2217
巛火	-2218
7⿰	-2219
耒毛	-2220
犭王	-2221
土土卜	-2222
▁2002	-2223
⿰⿱⿱⿱⿰	-2224
man	-2225
井一八⺀	-2226
虍心	-2227
讠果	-2228
女彐	-2229
由丂	-2230
ack	-2231
几木	-2232
8960⿱	-2233
7⿱	-2234
彐寸	-2235
cn	-2236
扌由	-2237
ab	-2238
》⿰⿱	-2239
43	-2240
米且	-2241
、⿺⿱	-2242
虫朱	-2243
8665⿰⿱⿺	-2244
井一八木	-2245
▁2000	-2246
⿱⿴⿱	-2247
8665⿵	-2248
一厶廾	-2249
ity	-2250
76	-2251
口内	-2252
竹龙	-2253
70	-2254
pe	-2255
𠂉大巨	-2256
1999	-2257
口土	-2258
人一朩又	-2259
:“⿰	-2260
束刂	-2261
▁也	-2262
▁hd	-2263
,1	-2264
80	-2265
竹毛	-2266
ps	-2267
一刂	-2268
⿻⿵	-2269
cen	-2270
ill	-2271
▁東	-2272
32	-2273
▁to	-2274
日女	-2275
15⿱	-2276
纟氏	-2277
1980	-2278
▁12	-2279
56	-2280
门才	-2281
42	-2282
𠃊人欠	-2283
氵皮女	-2284
vi	-2285
朿朿	-2286
ke	-2287
▁2019	-2288
▁⿵⿰	-2289
59	-2290
·⿺	-2291
▁li	-2292
1998	-2293
▁ro	-2294
·⿻	-2295
非一	-2296
,⿴	-2297
ry	-2298
扌夫	-2299
《》	-2300
est	-2301
ant	-2302
车甫	-2303
丷八月	-2304
习习立	-2305
▁la	-2306
扌以	-2307
44	-2308
《⿸	-2309
▁2001	-2310
38	-2311
ong	-2312
1997	-2313
丶丶丶皿	-2314
匚王	-2315
31	-2316
女𦣞	-2317
od	-2318
丿𠃌攵	-2319
又阝	-2320
灬心	-2321
二厶鬼	-2322
尸巾	-2323
尸巾刂	-2324
oh	-2325
▁十	-2326
月贝	-2327
日十彡	-2328
一大㣺	-2329
,⿱⿴	-2330
亠幺田	-2331
66⿰⿱	-2332
小隹	-2333
氵王	-2334
“⿱⿱	-2335
土隹	-2336
冖且	-2337
▁⿱⿰⿱	-2338
com	-2339
90	-2340
▁al	-2341
41	-2342
tv	-2343
》⿸	-2344
垂阝	-2345
·⿰⿱⿱	-2346
大冖牛	-2347
匕页	-2348
口口山	-2349
2009	-2350
int	-2351
8661⿺	-2352
車由	-2353
ga	-2354
癶豆阝	-2355
67	-2356
亻寸肉	-2357
犭讠	-2358
犭讠犬	-2359
/⿰	-2360
▁我	-2361
⿰⿸⿸	-2362
⿰⿱⿻	-2363
2017	-2364
𠂊彐	-2365
▁th	-2366
,⿲	-2367
𠃜目	-2368
7⿰	-2369
釆丂	-2370
丿囗釆丂	-2371
艹肅	-2372
扌甲	-2373
▁x	-2374
言羊	-2375
木木石	-2376
▁for	-2377
止匕角	-2378
mar	-2379
57	-2380
ly	-2381
丿二丨刂	-2382
丷八牛	-2383
𠂤十	-2384
女兆	-2385
▁11	-2386
100⿱	-2387
纟屯	-2388
5⿺	-2389
99	-2390
𠂊丶	-2391
亻九	-2392
乛水一灬	-2393
ign	-2394
lor	-2395
,⿰⿱⿰	-2396
肀月	-2397
12⿱	-2398
艹亡	-2399
pa	-2400
月刂心	-2401
歹戋	-2402
亠里	-2403
車車	-2404
亠里𧘇	-2405
5⿹	-2406
uni	-2407
3,	-2408
女乃	-2409
;⿱	-2410
ds	-2411
、⿱⿳	-2412
no	-2413
⿹⿱	-2414
乛亅丿	-2415
宀火	-2416
lay	-2417
覀贝	-2418
me	-2419
ear	-2420
62	-2421
0⿻	-2422
」。	-2423
,⿰⿰	-2424
⿱⿵	-2425
礻巳	-2426
辶隶	-2427
木乚	-2428
8665⿰⿺	-2429
土厶力	-2430
bs	-2431
角虫	-2432
▁事	-2433
氵欠	-2434
▁年	-2435
讠内	-2436
月几	-2437
66⿱⿻	-2438
▁⿲㇇	-2439
lu	-2440
%,	-2441
厂万	-2442
▁长	-2443
丿丿心	-2444
mi	-2445
ft	-2446
▁1949	-2447
2018	-2448
fi	-2449
||	-2450
」⿰⿱	-2451
、⿱⿱⿱	-2452
:00	-2453
忄亡	-2454
▁1998	-2455
⺊又	-2456
fa	-2457
▁山	-2458
hr	-2459
,⿳𭕄	-2460
▁1999	-2461
一中	-2462
一中冖	-2463
,⿱⿺	-2464
1970	-2465
木木夕	-2466
windows	-2467
亻弋衣	-2468
非心	-2469
64	-2470
9⿰	-2471
亠丷厂彡页	-2472
十廾贝	-2473
46	-2474
1996	-2475
mm	-2476
]	-2477
木朱	-2478
▁pro	-2479
;⿱⿱	-2480
;⿰	-2481
51	-2482
da	-2483
78	-2484
▁sh	-2485
000⿰	-2486
氵中	-2487
53	-2488
」⿱	-2489
ont	-2490
68	-2491
rea	-2492
亻韦	-2493
·⿳	-2494
9⿱	-2495
12⿰	-2496
ell	-2497
又丶虫	-2498
艹肃	-2499
八刀皿	-2500
▁⿰⿷	-2501
son	-2502
ty	-2503
彳金	-2504
牙阝	-2505
八刀页	-2506
口贝力	-2507
刀牛虫	-2508
[	-2509
iv	-2510
口屯	-2511
止匕隹	-2512
言刂	-2513
氵欠皿	-2514
车斤日	-2515
▁18	-2516
ian	-2517
火丁	-2518
per	-2519
口欠	-2520
50⿱	-2521
ort	-2522
9⿰	-2523
一丂阝	-2524
八口𧘇	-2525
01	-2526
1994	-2527
忄白	-2528
▁朱	-2529
九丶	-2530
《⿰	-2531
1995	-2532
⿹⿻⿱	-2533
63	-2534
《⿱⿰	-2535
▁⿲	-2536
彳钅	-2537
▁⿳⿱	-2538
予象	-2539
立𧰨	-2540
nba	-2541
lin	-2542
⿱⿶⿱⿰	-2543
1,	-2544
▁永	-2545
▁⿳𭕄	-2546
▁lo	-2547
▁1990	-2548
非文	-2549
54	-2550
艹禺力	-2551
▁ar	-2552
:「⿰	-2553
09	-2554
⿰⿴	-2555
189	-2556
士冖	-2557
月刂刀	-2558
les	-2559
亻丨攵	-2560
▁1997	-2561
人一朩攵	-2562
艹矛	-2563
0⿰⿱	-2564
ree	-2565
72	-2566
王白石	-2567
<	-2568
to	-2569
:“⿱	-2570
⿰⿸⿱⿱	-2571
52	-2572
jr	-2573
▁于	-2574
73	-2575
十月	-2576
十月丶	-2577
"⿰	-2578
「⿱⿰	-2579
61	-2580
覀木	-2581
龷八㣺	-2582
hant	-2583
▁u	-2584
⿳⿻	-2585
20⿱	-2586
石页	-2587
1900	-2588
▁16	-2589
58	-2590
田田土	-2591
「⿺	-2592
一大口	-2593
土里	-2594
冫欠口	-2595
·⿱⿵⿱	-2596
乃子	-2597
gu	-2598
▁en	-2599
幺大隹	-2600
1992	-2601
鬼斗	-2602
、⿱⿻	-2603
コ一丿	-2604
71	-2605
1960	-2606
io	-2607
虫工	-2608
▁生	-2609
1993	-2610
74	-2611
䒑土女	-2612
立十言	-2613
田比	-2614
㐅乂木	-2615
11⿰	-2616
宀禺	-2617
㐅乂木大	-2618
木卜	-2619
门王	-2620
ate	-2621
be	-2622
,⿰⿹	-2623
33	-2624
1991	-2625
ud	-2626
扌口	-2627
ho	-2628
▁col	-2629
▁米	-2630
土贝	-2631
,⿳⿱	-2632
、⿸⿸	-2633
亻火	-2634
艹本	-2635
力力月	-2636
目隹	-2637
46⿱	-2638
扌爪	-2639
宀八乙	-2640
"⿱	-2641
而寸	-2642
《⿺	-2643
氵丁	-2644
丬士	-2645
㇇⿸	-2646
ext	-2647
耒井	-2648
40⿱	-2649
▁1996	-2650
石頁	-2651
▁⿰⿻	-2652
斤丶	-2653
500	-2654
;⿰⿱	-2655
▁17	-2656
⺌月刂	-2657
一廾瓦	-2658
𠁣𠃛王	-2659
8661。	-2660
36	-2661
185	-2662
——⿰	-2663
扌皮	-2664
氵巨	-2665
氵巨木	-2666
䒑土灬	-2667
辶韦	-2668
▁1980	-2669
讠羊	-2670
《⿱	-2671
尸水	-2672
2,	-2673
▁,	-2674
dv	-2675
2⿰⿱	-2676
ux	-2677
11⿱	-2678
纟文	-2679
钅甫	-2680
金重	-2681
⿰⿱⿰	-2682
8661⿰⿱⿰	-2683
05	-2684
宀八乍	-2685
▁is	-2686
ha	-2687
乀丿口	-2688
18⿱	-2689
ment	-2690
188	-2691
sao	-2692
si	-2693
日大力	-2694
丘阝	-2695
▁1950	-2696
100	-2697
45	-2698
06	-2699
丰刀糸	-2700
ure	-2701
丿木	-2702
2019	-2703
▁1945	-2704
氵女	-2705
水日	-2706
▁1993	-2707
go	-2708
匚儿力	-2709
口非	-2710
gle	-2711
宀必虫	-2712
、⿲㇇	-2713
po	-2714
net	-2715
“⿺	-2716
▁1994	-2717
、⿵⿵	-2718
▁1995	-2719
sk	-2720
〢又贝	-2721
07	-2722
亠田	-2723
▁,⿱	-2724
𠁣𠃛虫	-2725
va	-2726
ore	-2727
8665⿱⿰	-2728
,⿱⿵⿱	-2729
",	-2730
亡心	-2731
禾刂木	-2732
1989	-2733
,000⿱	-2734
▁1992	-2735
》。	-2736
丿糸心	-2737
1950	-2738
▁/	-2739
39	-2740
▁车	-2741
、⿰⿳	-2742
𠂤巾	-2743
▁九	-2744
且厶心	-2745
尸雨	-2746
ms	-2747
ru	-2748
木干	-2749
13⿱	-2750
ame	-2751
千口甘	-2752
ond	-2753
85	-2754
士冖豆	-2755
目目隹	-2756
刀口阝	-2757
ick	-2758
ti	-2759
亻士	-2760
,《⿰	-2761
16⿱	-2762
1⿰⿱	-2763
·⿵⿵	-2764
、⿰⿱	-2765
氵户	-2766
:⿸	-2767
_1	-2768
gro	-2769
yle	-2770
66	-2771
14⿱	-2772
we	-2773
/⿱	-2774
▁瓦	-2775
乃又	-2776
end	-2777
乃又皿	-2778
𠂉丶金	-2779
卩示	-2780
ess	-2781
目垂	-2782
▁ma	-2783
ok	-2784
、⿹⿶	-2785
▁|	-2786
04	-2787
扌斤言	-2788
户攵	-2789
贝贝	-2790
08	-2791
ina	-2792
厂万力	-2793
·⿱⿳	-2794
钅欠	-2795
▁1991	-2796
▁mo	-2797
▁so	-2798
▁世	-2799
1988	-2800
、⿱⿰⿱	-2801
▁mu	-2802
:⿻	-2803
⺌冖口贝	-2804
,19	-2805
03	-2806
亠丷厂彡	-2807
,“⿰	-2808
⺌贝	-2809
不一	-2810
0⿸	-2811
34	-2812
km	-2813
自犬	-2814
8665⿱⿱⿱	-2815
口尺	-2816
▁⿷	-2817
“⿴	-2818
tion	-2819
▁189	-2820
pro	-2821
8665⿳	-2822
:⿰⿱	-2823
立十月	-2824
丨丿巾	-2825
▁1988	-2826
,⿱⿶⿱⿰	-2827
95	-2828
饣欠	-2829
,⿲㇇	-2830
,《⿱	-2831
]]	-2832
▁史	-2833
▁=	-2834
⿻⿱	-2835
冫欠女	-2836
▁⿰⿰	-2837
▁15	-2838
8⿰⿱	-2839
月非	-2840
{⿱	-2841
皮頁	-2842
⿸⿱⿱	-2843
02	-2844
▁1989	-2845
ld	-2846
8665⿰⿸	-2847
,⿱⿱⿱	-2848
王廾	-2849
·⿱⿻	-2850
center	-2851
oogle	-2852
cho	-2853
力口贝	-2854
耳又女	-2855
⿱⿰⿱⿴	-2856
月力	-2857
金欠	-2858
;⿺	-2859
户月	-2860
my	-2861
ens	-2862
37	-2863
land	-2864
gc	-2865
忄艮	-2866
▁z	-2867
▁广	-2868
“⿱⿰	-2869
亻丨攵心	-2870
ton	-2871
口巾	-2872
25⿱	-2873
200⿱	-2874
忄乙	-2875
「⿴	-2876
:「⿱	-2877
扌丑	-2878
,⿳	-2879
コ一人	-2880
讠刂	-2881
《⿴	-2882
匚一	-2883
1986	-2884
」⿺	-2885
爪巴	-2886
衤果	-2887
ory	-2888
㇇。	-2889
▁ra	-2890
⿱⿻⿱	-2891
1987	-2892
己心	-2893
ep	-2894
广比	-2895
ster	-2896
贝贝女	-2897
口口一	-2898
stat	-2899
月干	-2900
牛生	-2901
if	-2902
𠘧又糸	-2903
▁八	-2904
▁on	-2905
je	-2906
,⿰⿷	-2907
92	-2908
77	-2909
▁又	-2910
ction	-2911
ohn	-2912
96	-2913
ts	-2914
ris	-2915
ka	-2916
ib	-2917
目大	-2918
▁an	-2919
竹目大	-2920
cp	-2921
“⿰	-2922
▁工	-2923
32	-2924
,⿵	-2925
ark	-2926
小丿力	-2927
𠁣𠃛人	-2928
口口隹力	-2929
▁le	-2930
span	-2931
、⿷	-2932
八刀贝	-2933
;⿱⿰	-2934
dice	-2935
尸示寸心	-2936
do	-2937
wor	-2938
1985	-2939
ll	-2940
▁1985	-2941
20⿰	-2942
⿱⿰⿰	-2943
1984	-2944
丷田一口	-2945
ram	-2946
亠口𧘇	-2947
▁1984	-2948
du	-2949
厂彡	-2950
▁id	-2951
」、「⿰	-2952
一巛工力	-2953
8960⿳	-2954
dvd	-2955
ith	-2956
冫欠皿	-2957
身弓	-2958
75	-2959
iz	-2960
乍心	-2961
▁1986	-2962
气弗	-2963
▁車	-2964
▁[	-2965
立十讠	-2966
55	-2967
木象	-2968
石专	-2969
▁1960	-2970
戊丶	-2971
iss	-2972
ara	-2973
16⿰	-2974
back	-2975
匕禾	-2976
ung	-2977
98	-2978
▁1982	-2979
,2010	-2980
tt	-2981
丂戈	-2982
禾丂戈	-2983
38	-2984
93	-2985
𠘧又月	-2986
,⿱⿲	-2987
{}	-2988
礻斤	-2989
ational	-2990
▁贝	-2991
人目	-2992
冂一八	-2993
%,⿱⿱	-2994
木木火	-2995
」⿻	-2996
▁ne	-2997
ook	-2998
▁1983	-2999
189	-3000
yo	-3001
广龙	-3002
97	-3003
ug	-3004
▁1987	-3005
⿷⿱	-3006
1945	-3007
sm	-3008
⿻⿻	-3009
,2011	-3010
土龰干	-3011
8960⿰⿱	-3012
ire	-3013
car	-3014
4,	-3015
——⿱	-3016
甘欠	-3017
乀丿寸	-3018
▁style	-3019
门虫	-3020
500	-3021
冫欠瓦	-3022
▁1970	-3023
3,	-3024
17⿱	-3025
幺冖牛	-3026
94	-3027
ish	-3028
、“⿰	-3029
,⿷	-3030
"。	-3031
艹夫	-3032
con	-3033
2005	-3034
㇇⿰⿱	-3035
▁1946	-3036
▁sp	-3037
log	-3038
now	-3039
》⿱⿱	-3040
「⿳	-3041
1983	-3042
▁bo	-3043
ground	-3044
sil	-3045
▁」⿰	-3046
八厶𧘇	-3047
%⿱	-3048
、⿵⿰	-3049
,2005	-3050
▁1978	-3051
dna	-3052
8661⿱⿰	-3053
1982	-3054
ary	-3055
丿士几	-3056
ite	-3057
」⿹	-3058
8⿱⿵	-3059
亻為	-3060
户攵聿	-3061
缶工	-3062
▁or	-3063
"⿱	-3064
⿸⿸⿸	-3065
口甫	-3066
cy	-3067
{⿰	-3068
氵文	-3069
ence	-3070
mv	-3071
,⿱⿻	-3072
夕㔾心	-3073
5⿰⿱⿱	-3074
pp	-3075
1979	-3076
google	-3077
目民	-3078
艹巴	-3079
cl	-3080
▁皮	-3081
ther	-3082
亻为	-3083
;19	-3084
、⿱⿱	-3085
一巛工頁	-3086
vers	-3087
𠂇月阝	-3088
▁⿰⿱⿴	-3089
5。	-3090
▁188	-3091
300	-3092
▁0	-3093
木東	-3094
,3	-3095
犭瓜	-3096
66。	-3097
60⿱	-3098
▁wor	-3099
88	-3100
止龰	-3101
2010	-3102
ice	-3103
、⿻	-3104
米丂	-3105
der	-3106
dr	-3107
44	-3108
▁⿱⿴	-3109
《⿵	-3110
㐅乂木大手	-3111
▁istat	-3112
▁重	-3113
mer	-3114
;⿵⿵	-3115
,“⿱	-3116
au	-3117
65	-3118
1949	-3119
hi	-3120
「」	-3121
▁con	-3122
▁1979	-3123
8665⿸⿸	-3124
隹乃	-3125
fe	-3126
車干	-3127
皮页	-3128
lar	-3129
▁1958	-3130
氵戋	-3131
mb	-3132
」⿸	-3133
hd	-3134
“⿱	-3135
丿囗米丂	-3136
▁ex	-3137
▁1937	-3138
匚非	-3139
300	-3140
15⿰	-3141
▁ri	-3142
:⿱⿱	-3143
13⿰	-3144
艮土	-3145
48	-3146
play	-3147
▁1948	-3148
丰丰彐	-3149
_2	-3150
ml	-3151
;⿻	-3152
;"	-3153
color	-3154
ah	-3155
46	-3156
49	-3157
ive	-3158
匚甲	-3159
父巴	-3160
1981	-3161
丿二丨小	-3162
▁⿱⿶⿱⿰	-3163
土申	-3164
:30	-3165
1978	-3166
▁1947	-3167
辶尺	-3168
ni	-3169
align	-3170
che	-3171
background	-3172
ley	-3173
》⿺	-3174
cor	-3175
tr	-3176
43	-3177
su	-3178
188	-3179
%,⿰	-3180
bi	-3181
fo	-3182
ames	-3183
《⿳	-3184
▁1981	-3185
gen	-3186
120	-3187
爿一	-3188
片爿一	-3189
,18	-3190
,「⿰	-3191
厶牛	-3192
▁me	-3193
,000⿰	-3194
▁及	-3195
、⿰⿱⿰	-3196
且一八頁	-3197
14⿰	-3198
codice	-3199
ance	-3200
人一口皿	-3201
2006	-3202
▁187	-3203
91	-3204
九日	-3205
又力	-3206
0⿻	-3207
are	-3208
47	-3209
」、「⿱	-3210
cr	-3211
且一八页	-3212
八丂	-3213
text	-3214
ven	-3215
▁1955	-3216
▁“⿰	-3217
口口几	-3218
66⿸	-3219
jo	-3220
ai	-3221
亡目	-3222
口且	-3223
▁be	-3224
▁《⿰⿱	-3225
▁am	-3226
,2006	-3227
pt	-3228
▁1956	-3229
「⿰	-3230
21、	-3231
2008	-3232
2000	-3233
纟千	-3234
3⿰⿱	-3235
目夂	-3236
𠁣𠃛甲	-3237
冂人目夂	-3238
8665⿺⿱	-3239
cm	-3240
ical	-3241
ner	-3242
疒艮	-3243
一八欠	-3244
,2	-3245
▁⿻⿺	-3246
▁「⿰	-3247
he	-3248
▁186	-3249
▁⿰⿹	-3250
𠁣𠃛月	-3251
▁ngc	-3252
▁1952	-3253
,2012	-3254
▁coun	-3255
1930	-3256
use	-3257
1975	-3258
sy	-3259
竹由	-3260
1940	-3261
vo	-3262
氵谷	-3263
cha	-3264
%,⿱	-3265
ust	-3266
4,	-3267
dy	-3268
▁女	-3269
、“⿱	-3270
大隹田	-3271
⺌冖口木	-3272
_3	-3273
▁at	-3274
her	-3275
▁colspan	-3276
女干	-3277
300⿱	-3278
42	-3279
⿱⿱⿲	-3280
匚斤	-3281
ger	-3282
▁sy	-3283
▁⿻㇀	-3284
▁月	-3285
pre	-3286
1920	-3287
▁1954	-3288
、⿳⿱	-3289
ec	-3290
人一朩土	-3291
0—	-3292
iki	-3293
1958	-3294
2012	-3295
▁1930	-3296
宀八力	-3297
⿱⿵⿵	-3298
silver	-3299
▁ii	-3300
“⿳	-3301
▁1941	-3302
john	-3303
▁1938	-3304
⿵⿱⿱	-3305
》⿻	-3306
言隹	-3307
立十瓜	-3308
石几	-3309
1973	-3310
illi	-3311
扌彐	-3312
5⿳	-3313
ies	-3314
、19	-3315
▁1940	-3316
亻弋黑	-3317
𠂊田一禾	-3318
1976	-3319
ube	-3320
0—6⿱	-3321
;0—6⿱	-3322
一自戈	-3323
、⿲	-3324
▁inter	-3325
氵十	-3326
巛果刂	-3327
400	-3328
min	-3329
火火冖虫	-3330
木口	-3331
1972	-3332
old	-3333
弓瓜	-3334
》、《	-3335
▁185	-3336
5"	-3337
《⿸⿸	-3338
2007	-3339
pi	-3340
疋月	-3341
金甫	-3342
▁⿰⿱⿹	-3343
1⿰⿱	-3344
ood	-3345
立十束	-3346
▁comp	-3347
▁土	-3348
lan	-3349
1974	-3350
ste	-3351
▁⿱⿲	-3352
,⿱⿻⿱	-3353
8661⿴	-3354
66⿻	-3355
㇇⿻	-3356
,⿱⿰	-3357
21⿱	-3358
18⿰	-3359
hy	-3360
,2007	-3361
mon	-3362
冫欠心	-3363
="5"	-3364
az	-3365
46⿸	-3366
19⿱	-3367
艹牙	-3368
人一口頁	-3369
500⿱	-3370
非車	-3371
+	-3372
800	-3373
mic	-3374
「⿱	-3375
10⿰	-3376
▁,⿰	-3377
station	-3378
▁14	-3379
门木	-3380
▁“⿱	-3381
1⿻	-3382
pc	-3383
1"	-3384
丨丨比土	-3385
national	-3386
56	-3387
犬廾	-3388
艹犬廾	-3389
尢力	-3390
5⿴	-3391
2013	-3392
宀牛	-3393
臣卜	-3394
▁1939	-3395
24⿱	-3396
sic	-3397
1966	-3398
火东	-3399
王攵	-3400
64	-3401
5,	-3402
ght	-3403
own	-3404
1977	-3405
竹目大糸	-3406
▁1966	-3407
▁man	-3408
门甲	-3409
,5	-3410
bert	-3411
1969	-3412
185	-3413
宀臣	-3414
镸聿	-3415
ale	-3416
vel	-3417
inter	-3418
low	-3419
ser	-3420
酉州	-3421
ide	-3422
木木彡	-3423
口一心	-3424
,2008	-3425
户犬	-3426
王鬼	-3427
:⿰⿱	-3428
覀米	-3429
幺幺田	-3430
univers	-3431
▁1927	-3432
犭里	-3433
ime	-3434
1968	-3435
·⿱⿱⿱	-3436
ome	-3437
纟韦	-3438
ight	-3439
▁ser	-3440
▁1975	-3441
丿米	-3442
▁ua	-3443
1967	-3444
app	-3445
八丂皿	-3446
耂日灬	-3447
400	-3448
、⿰⿹	-3449
ls	-3450
22⿱	-3451
30⿰	-3452
1956	-3453
▁1942	-3454
氵山	-3455
氵必	-3456
1964	-3457
丆且	-3458
tor	-3459
▁」⿱	-3460
45⿱	-3461
600	-3462
▁1953	-3463
丿米丨	-3464
1941	-3465
,4	-3466
▁1973	-3467
8960⿺	-3468
、⿸	-3469
8665⿱⿻	-3470
▁it	-3471
,2001	-3472
mac	-3473
、⿰⿷	-3474
can	-3475
▁1965	-3476
gn	-3477
▁ho	-3478
大田	-3479
1944	-3480
非衣	-3481
mit	-3482
▁mar	-3483
2⿻	-3484
氏丶阝	-3485
,9	-3486
▁1968	-3487
」,⿰⿱	-3488
ron	-3489
sc	-3490
1000	-3491
,12	-3492
,「⿱	-3493
face	-3494
80⿱	-3495
▁非	-3496
▁丹	-3497
89	-3498
fc	-3499
99	-3500
1971	-3501
ana	-3502
bar	-3503
book	-3504
ki	-3505
66⿱⿱	-3506
月方	-3507
uper	-3508
dio	-3509
▁13	-3510
▁1959	-3511
▁1977	-3512
▁1935	-3513
·⿱⿰	-3514
187	-3515
▁you	-3516
100⿰	-3517
⿱⿰⿻	-3518
1946	-3519
8960⿸	-3520
2。	-3521
rom	-3522
▁1951	-3523
▁1936	-3524
▁1944	-3525
1959	-3526
53	-3527
▁1957	-3528
扌卜	-3529
言永	-3530
[[	-3531
stem	-3532
亻丈	-3533
冖果	-3534
ins	-3535
彑冖果	-3536
1965	-3537
文而	-3538
1948	-3539
wa	-3540
土立	-3541
𠃋丿人力	-3542
chool	-3543
▁1972	-3544
ko	-3545
54	-3546
,⿵⿵	-3547
igh	-3548
虍几彡	-3549
▁1931	-3550
177	-3551
▁1969	-3552
2004	-3553
1000⿱	-3554
,5	-3555
_4	-3556
▁car	-3557
▁「⿱	-3558
▁1920	-3559
▁1928	-3560
亠果	-3561
亠果𧘇	-3562
box	-3563
土及	-3564
—⿱	-3565
76	-3566
▁1943	-3567
1957	-3568
」⿶⿳⿰	-3569
,⿹⿻	-3570
ny	-3571
8⿻	-3572
▁184	-3573
col	-3574
」⿱⿱	-3575
ae	-3576
1952	-3577
艹户	-3578
10⿱	-3579
艹心	-3580
2⿰⿱	-3581
mat	-3582
𠂊田灬由	-3583
⿺⿸	-3584
iii	-3585
3⿻	-3586
ix	-3587
5⿻	-3588
氵世	-3589
牛土	-3590
月𠃓	-3591
57	-3592
og	-3593
门人	-3594
⿰⿳⿱	-3595
fer	-3596
200⿱	-3597
女亚	-3598
150	-3599
;⿴	-3600
4⿰⿱	-3601
met	-3602
▁《⿻	-3603
1942	-3604
1963	-3605
ue	-3606
har	-3607
“⿹	-3608
35⿱	-3609
士冖一	-3610
丷豕土	-3611
月豕	-3612
▁1932	-3613
hz	-3614
·⿰	-3615
口电	-3616
70⿱	-3617
,6	-3618
59	-3619
▁1964	-3620
口止止	-3621
ower	-3622
▁1976	-3623
▁1974	-3624
ya	-3625
ble	-3626
17⿰	-3627
火柬	-3628
,17	-3629
gr	-3630
td	-3631
▁no	-3632
51	-3633
口止戋	-3634
linux	-3635
▁te	-3636
扌发	-3637
▁un	-3638
八厶頁	-3639
、⿳𭕄	-3640
——	-3641
5⿻	-3642
eng	-3643
playstation	-3644
vil	-3645
▁1971	-3646
▁已	-3647
2⿸	-3648
1947	-3649
pm	-3650
63	-3651
ward	-3652
1937	-3653
tu	-3654
▁1961	-3655
厶厶土	-3656
new	-3657
org	-3658
》:	-3659
「⿹	-3660
1961	-3661
8⿻	-3662
vis	-3663
▁木	-3664
,⿱⿱⿰	-3665
》⿰⿱⿱	-3666
米糸	-3667
red	-3668
rist	-3669
41	-3670
95	-3671
,0	-3672
soft	-3673
纟方	-3674
㡀攵廾	-3675
歹千	-3676
,"	-3677
米糸廾	-3678
1954	-3679
4⿻	-3680
▁:	-3681
羊乚	-3682
火户	-3683
:⿺	-3684
ass	-3685
ham	-3686
23⿱	-3687
」,⿸	-3688
▁1933	-3689
▁1962	-3690
ys	-3691
ks	-3692
▁school	-3693
3⿸	-3694
,2013	-3695
gb	-3696
ler	-3697
rit	-3698
2014	-3699
{⿸	-3700
2003	-3701
tra	-3702
匕禾頁	-3703
▁1963	-3704
木东	-3705
▁as	-3706
丿土攵心	-3707
row	-3708
▁ed	-3709
,10	-3710
sch	-3711
犭且	-3712
丨丨一刂	-3713
dp	-3714
里予土	-3715
▁1934	-3716
▁1967	-3717
丿丿丶	-3718
66,⿰	-3719
150⿱	-3720
,2002	-3721
▁po	-3722
▁韦	-3723
ata	-3724
、⿰⿰	-3725
1939	-3726
res	-3727
1962	-3728
中𧘇	-3729
亠中𧘇	-3730
宀八缶	-3731
豸艮土	-3732
8661⿰⿳	-3733
禾隹	-3734
▁qu	-3735
1955	-3736
_5	-3737
by	-3738
▁田	-3739
」,⿱⿱	-3740
匚巾	-3741
“⿵	-3742
、⿶⿳⿰	-3743
▁new	-3744
eam	-3745
·⿱	-3746
鬼未	-3747
:⿱⿱	-3748
『⿰	-3749
58	-3750
bur	-3751
bu	-3752
禺心	-3753
千口甫	-3754
67	-3755
丘丿	-3756
石欠	-3757
氵末	-3758
age	-3759
:""	-3760
⿻⿵	-3761
1936	-3762
,2004	-3763
▁windows	-3764
口里	-3765
69	-3766
5⿱⿳	-3767
,7	-3768
akb	-3769
1943	-3770
amp	-3771
《⿹	-3772
禾刂牛	-3773
ics	-3774
52	-3775
ja	-3776
立口刂	-3777
▁with	-3778
'	-3779
our	-3780
巛田	-3781
、⿱⿵⿱	-3782
耳卯	-3783
「⿱⿳	-3784
▁1929	-3785
臣又月	-3786
—⿰	-3787
耳火	-3788
▁do	-3789
▁《⿱⿱	-3790
冫東	-3791
月中	-3792
asa	-3793
,16	-3794
50⿰	-3795
ial	-3796
,⿰⿱⿹	-3797
,“	-3798
1999	-3799
port	-3800
tain	-3801
68	-3802
ern	-3803
max	-3804
400⿱	-3805
亻卜	-3806
74	-3807
icon	-3808
illiam	-3809
·⿹⿶	-3810
《⿺⿱	-3811
dc	-3812
za	-3813
led	-3814
▁ph	-3815
冂卄頁	-3816
艹甘	-3817
讠隹	-3818
▁身	-3819
een	-3820
▁+	-3821
田皿頁	-3822
甫方攵	-3823
8661,⿰	-3824
rich	-3825
《》⿰	-3826
氵心	-3827
▁1925	-3828
edia	-3829
pl	-3830
冂口月	-3831
𠂊冫寸水	-3832
,6	-3833
ani	-3834
val	-3835
ju	-3836
亻弋贝	-3837
5·⿰	-3838
8⿱⿱	-3839
,7	-3840
0。	-3841
一白弓	-3842
28⿱	-3843
「⿵	-3844
ino	-3845
600	-3846
木更	-3847
73	-3848
0⿱⿱	-3849
▁⿱⿹	-3850
凵㐅儿	-3851
,9	-3852
钅内	-3853
20⿰	-3854
ero	-3855
1938	-3856
月重	-3857
ann	-3858
1951	-3859
tp	-3860
册刂	-3861
广户	-3862
5⿵	-3863
氵文刂	-3864
1⿸	-3865
eld	-3866
《⿱⿳	-3867
》、《⿰⿱	-3868
cu	-3869
let	-3870
亠口了灬	-3871
1。	-3872
micro	-3873
8661⿹	-3874
臣人	-3875
%;	-3876
ere	-3877
king	-3878
月女	-3879
90⿱	-3880
,2014	-3881
▁⿸⿱	-3882
8665⿱⿲	-3883
2002	-3884
彐一八車	-3885
▁sa	-3886
、⿰⿻	-3887
纟丩	-3888
申𠃓	-3889
way	-3890
▁county	-3891
礻氏	-3892
char	-3893
▁world	-3894
歺又米	-3895
pr	-3896
line	-3897
8665⿱⿴	-3898
university	-3899
疒皮	-3900
ash	-3901
心心	-3902
,⿸⿸	-3903
rna	-3904
▁gro	-3905
sd	-3906
⿻㇀	-3907
亻弋山	-3908
丷十	-3909
nor	-3910
ini	-3911
⿰⿻⿵	-3912
2020	-3913
bor	-3914
▁1924	-3915
▁1926	-3916
lat	-3917
▁tra	-3918
1、	-3919
▁we	-3920
26⿱	-3921
1953	-3922
月土	-3923
att	-3924
▁se	-3925
丶丶丶匕	-3926
dd	-3927
ス工页	-3928
gi	-3929
木丈	-3930
nowiki	-3931
覀土瓦	-3932
⿰⿱⿰⿱	-3933
ead	-3934
8960⿱⿱	-3935
ava	-3936
ker	-3937
㇇⿺	-3938
||0	-3939
虍力	-3940
礻阝	-3941
del	-3942
彐氺刂	-3943
⿰⿹⿶	-3944
幺月	-3945
12⿱	-3946
幺月乚	-3947
25⿰	-3948
rid	-3949
utube	-3950
1935	-3951
ze	-3952
灬也	-3953
79	-3954
』⿰	-3955
、⿱⿶⿱⿰	-3956
:3	-3957
8661⿳	-3958
ari	-3959
itt	-3960
⿰⿱⿶	-3961
士冖一禾	-3962
1⿱⿱	-3963
丶丶丶匕彡	-3964
pet	-3965
⺌冖口牙	-3966
,⿱⿹	-3967
金隹	-3968
gra	-3969
木冖	-3970
木缶	-3971
木缶木冖	-3972
24⿰	-3973
avid	-3974
800	-3975
ise	-3976
▁system	-3977
sw	-3978
6,	-3979
未攵	-3980
don	-3981
62	-3982
▁cor	-3983
▁未	-3984
1/	-3985
▁love	-3986
▁子	-3987
⿱⿶	-3988
,11	-3989
</	-3990
口于	-3991
ose	-3992
7⿻	-3993
166	-3994
女我	-3995
月夫	-3996
ich	-3997
bbc	-3998
utc	-3999
丷夫目	-4000
▁母	-4001
2、	-4002
web	-4003
」,⿺	-4004
iso	-4005
72	-4006
▁km	-4007
ition	-4008
1⿱⿰⿱	-4009
5⿸	-4010
▁1912	-4011
12⿰	-4012
口木𧘇	-4013
21⿰	-4014
日十戈	-4015
19⿰	-4016
8,	-4017
;⿹	-4018
!」	-4019
bra	-4020
『⿱	-4021
⿰⿱⿳	-4022
6⿻	-4023
ng	-4024
宀龙	-4025
ace	-4026
"。	-4027
▁1919	-4028
阝龙	-4029
▁甘	-4030
uro	-4031
pg	-4032
山我	-4033
▁by	-4034
▁1922	-4035
▁os	-4036
▁发	-4037
王厶	-4038
》,⿱	-4039
、、	-4040
2015	-4041
tvb	-4042
star	-4043
▁牛	-4044
4⿸	-4045
𠂇口心	-4046
·⿰⿳	-4047
火頁	-4048
ans	-4049
27⿱	-4050
九力	-4051
▁go	-4052
▁di	-4053
lass	-4054
5,	-4055
▁one	-4056
5⿰⿱	-4057
bl	-4058
,8	-4059
5⿰⿸	-4060
,,	-4061
一廾阝	-4062
00	-4063
illa	-4064
15⿰	-4065
cal	-4066
ject	-4067
,⿱⿰⿻	-4068
,2000	-4069
facebook	-4070
eed	-4071
ene	-4072
丬夕水	-4073
1933	-4074
𠂇火皿	-4075
,⿰⿱⿱	-4076
youtube	-4077
//	-4078
▁⿱⿱⿰	-4079
舟白	-4080
▁21	-4081
氵斤	-4082
18⿱	-4083
fran	-4084
》,⿸	-4085
「⿱⿱⿱	-4086
3⿰⿱	-4087
ild	-4088
ult	-4089
「⿳⿱	-4090
ute	-4091
、《	-4092
雨文	-4093
par	-4094
〢又月	-4095
」;	-4096
、⿻⿺	-4097
亻朱	-4098
▁pa	-4099
扌末	-4100
ces	-4101
,2003	-4102
:⿸	-4103
▁179	-4104
66⿰⿱⿱	-4105
㇇⿱⿱	-4106
wh	-4107
丘丶	-4108
日隹	-4109
40⿰	-4110
▁1917	-4111
8661,⿱	-4112
山甲	-4113
pen	-4114
,4	-4115
氵夕	-4116
des	-4117
gue	-4118
▁1923	-4119
彐一八车	-4120
甘阝	-4121
120⿱	-4122
饣虫	-4123
",⿰	-4124
⿳⿲	-4125
af	-4126
las	-4127
ns	-4128
门柬	-4129
13⿱	-4130
que	-4131
▁1913	-4132
pu	-4133
700	-4134
hel	-4135
八厶页	-4136
ano	-4137
ase	-4138
》、	-4139
门文	-4140
▁my	-4141
5⿸	-4142
61	-4143
艹斤	-4144
cer	-4145
ena	-4146
por	-4147
▁air	-4148
1918	-4149
▁per	-4150
,20	-4151
saint	-4152
▁1918	-4153
uss	-4154
22⿰	-4155
,3	-4156
gh	-4157
自木	-4158
66,⿱	-4159
,⿰⿵	-4160
32⿱	-4161
里儿土	-4162
ef	-4163
𠂊冫寸酉	-4164
夂卜口	-4165
5⿱⿻	-4166
roid	-4167
》⿶⿳⿰	-4168
2000⿱	-4169
mc	-4170
虍文	-4171
air	-4172
▁fo	-4173
几丶革	-4174
》、《⿻	-4175
▁colle	-4176
inc	-4177
弋心	-4178
any	-4179
86	-4180
ium	-4181
win	-4182
▁1921	-4183
口比	-4184
78	-4185
▁lin	-4186
1934	-4187
,⿱⿶⿳⿰	-4188
mg	-4189
钅隹	-4190
erica	-4191
⿱⿻⿻	-4192
、、	-4193
▁1911	-4194
ane	-4195
ital	-4196
、⿻㇀	-4197
cent	-4198
9⿻	-4199
21⿱	-4200
匕禾页	-4201
》,⿱⿱	-4202
」,⿱	-4203
▁live	-4204
aw	-4205
羊丑	-4206
酉鬼	-4207
1932	-4208
石水	-4209
⿱⿶⿳⿰	-4210
糸言糸虫	-4211
166	-4212
ric	-4213
▁wh	-4214
虫丰	-4215
_6	-4216
sur	-4217
super	-4218
3、	-4219
木隶	-4220
://	-4221
非车	-4222
𠂎卩	-4223
𠂊小心	-4224
ank	-4225
96	-4226
:'	-4227
1929	-4228
fr	-4229
5·⿱	-4230
17⿱	-4231
phone	-4232
、1	-4233
竹立	-4234
」,⿰	-4235
」、「	-4236
一龰匕	-4237
》⿵	-4238
7,	-4239
vin	-4240
木乚糸	-4241
𠘧又石	-4242
:⿱⿰	-4243
1931	-4244
▁enter	-4245
彑氺刂	-4246
8661⿱⿲	-4247
16⿱	-4248
eal	-4249
bal	-4250
▁du	-4251
八刀山	-4252
,⿻㇀	-4253
ast	-4254
ream	-4255
32⿰	-4256
cs	-4257
木果	-4258
code	-4259
++	-4260
▁ass	-4261
mr	-4262
、21	-4263
83	-4264
▁1914	-4265
▁bea	-4266
:,	-4267
▁183	-4268
▁pre	-4269
月长	-4270
bit	-4271
⿰⿱⿹	-4272
立十玉	-4273
3000	-4274
sn	-4275
一儿	-4276
▁can	-4277
87	-4278
cial	-4279
ings	-4280
亠口子丸土	-4281
▁music	-4282
,⿱⿵	-4283
8661⿱⿻	-4284
言乍	-4285
》,⿰⿱	-4286
虍隹	-4287
▁mag	-4288
·⿸⿸	-4289
ier	-4290
nhk	-4291
、⿺	-4292
ios	-4293
▁《⿸	-4294
㇇⿴	-4295
98	-4296
▁180	-4297
《⿱⿱⿱	-4298
大十	-4299
木冘	-4300
game	-4301
未攵厂里	-4302
%⿸	-4303
mun	-4304
▁sch	-4305
父斤	-4306
贝长	-4307
1:	-4308
,⿶⿳⿰	-4309
2016	-4310
▁el	-4311
form	-4312
8⿸	-4313
1998	-4314
23⿰	-4315
1927	-4316
1900	-4317
𠂊田灬屯	-4318
》,⿰	-4319
97	-4320
8665⿰⿹	-4321
xx	-4322
、⿹	-4323
ey	-4324
aa	-4325
vol	-4326
84	-4327
0⿱⿰⿱	-4328
6⿰⿱	-4329
700	-4330
、⿳	-4331
logy	-4332
1928	-4333
丿丿皿	-4334
谷欠心	-4335
65⿱	-4336
1912	-4337
46⿱	-4338
1919	-4339
3。	-4340
竹二	-4341
饣几	-4342
82	-4343
钅甲	-4344
ky	-4345
扌予	-4346
▁all	-4347
hu	-4348
▁dis	-4349
119	-4350
⿸⿱⿰	-4351
𠂇工月土	-4352
16⿰	-4353
,2015	-4354
厂犬	-4355
衤彡	-4356
ald	-4357
ray	-4358
!⿰	-4359
一止心	-4360
ella	-4361
、《⿰	-4362
▁des	-4363
「⿺⿱	-4364
microsoft	-4365
巾长	-4366
》⿱⿻	-4367
iu	-4368
冂人禸	-4369
▁play	-4370
艹巨	-4371
1997	-4372
5⿱⿰	-4373
、"	-4374
▁art	-4375
▁university	-4376
eat	-4377
46⿰⿱	-4378
▁part	-4379
_10	-4380
▁⿵⿱	-4381
木矛木	-4382
》⿹	-4383
阝人土	-4384
rans	-4385
11⿰	-4386
戈十口	-4387
、⿱⿰	-4388
5⿱⿱⿱	-4389
py	-4390
14⿰	-4391
177	-4392
bla	-4393
{⿱⿻	-4394
div	-4395
,⿱⿵⿵	-4396
▁group	-4397
女女	-4398
act	-4399
71	-4400
言朱	-4401
lect	-4402
▁bar	-4403
ben	-4404
gar	-4405
ual	-4406
、19	-4407
xbox	-4408
コ儿	-4409
白コ儿	-4410
ww	-4411
▁q	-4412
▁入	-4413
十豆口灬	-4414
虫我	-4415
_7	-4416
11⿱	-4417
氵弗	-4418
180	-4419
9,	-4420
mk	-4421
ford	-4422
▁⿱⿶⿳⿰	-4423
600⿱	-4424
>⿰	-4425
yn	-4426
艹朱	-4427
▁stu	-4428
匚隹	-4429
甲一阝	-4430
》⿹⿶	-4431
unt	-4432
chael	-4433
▁ge	-4434
「⿵⿰	-4435
0⿳	-4436
ution	-4437
小土	-4438
▁su	-4439
、3	-4440
ning	-4441
81	-4442
ville	-4443
_13	-4444
ese	-4445
work	-4446
》,⿺	-4447
kg	-4448
革巴	-4449
1925	-4450
mag	-4451
1922	-4452
止止	-4453
atp	-4454
mark	-4455
▁par	-4456
250	-4457
off	-4458
宀八弓	-4459
fin	-4460
▁us	-4461
又艮	-4462
礻也	-4463
1926	-4464
石夕	-4465
:⿹	-4466
日立	-4467
▁⿰⿵	-4468
ス工力	-4469
orge	-4470
口米	-4471
爿女	-4472
𠂊田一里	-4473
david	-4474
william	-4475
火巨	-4476
豆寸	-4477
den	-4478
java	-4479
800⿱	-4480
8960⿰⿱⿱	-4481
攵灬	-4482
𠂊彐攵灬	-4483
▁甲	-4484
4⿰⿱	-4485
war	-4486
tri	-4487
▁pl	-4488
口夫艮	-4489
110	-4490
1914	-4491
▁、	-4492
17⿰	-4493
van	-4494
▁cl	-4495
⿱⿰⿹	-4496
8⿰⿱	-4497
29⿱	-4498
、⿱⿲	-4499
undam	-4500
》,	-4501
▁gen	-4502
2⿱⿱	-4503
0⿺	-4504
ism	-4505
0⿰	-4506
▁cont	-4507
sky	-4508
▁bu	-4509
33⿱	-4510
5%	-4511
阝禺	-4512
gdp	-4513
2017	-4514
竹目大厶	-4515
》⿸	-4516
凵丨隹	-4517
·⿰⿷	-4518
▁1916	-4519
93	-4520
▁mon	-4521
木矛木心	-4522
gy	-4523
罒方	-4524
▁ad	-4525
1910	-4526
1924	-4527
fs	-4528
;⿱⿰⿴	-4529
、⿰⿱⿹	-4530
金丁	-4531
金柬	-4532
era	-4533
虫文	-4534
ret	-4535
▁gu	-4536
comp	-4537
▁177	-4538
」,⿴	-4539
10⿱⿱	-4540
》、《⿱⿱	-4541
8661⿰⿱⿹	-4542
0⿹	-4543
top	-4544
,15	-4545
31⿱	-4546
2⿸	-4547
4。	-4548
、6	-4549
lam	-4550
𠁣𠃛木	-4551
:“⿺	-4552
3000⿱	-4553
berg	-4554
1917	-4555
,1998	-4556
▁飛	-4557
ita	-4558
:⿳	-4559
⿰⿷	-4560
8⿺	-4561
父卩	-4562
▁80	-4563
=	-4564
▁心	-4565
san	-4566
▁up	-4567
pri	-4568
,⿸⿱	-4569
3⿱⿱	-4570
亡女	-4571
礻乍	-4572
900	-4573
▁et	-4574
白七	-4575
▁ce	-4576
、⿱⿱⿰	-4577
fl	-4578
礻必	-4579
禾几	-4580
辶豆	-4581
,⿰⿳	-4582
臣又豆	-4583
cher	-4584
▁几	-4585
50⿱	-4586
女方	-4587
▁gir	-4588
6⿸	-4589
ange	-4590
▁gra	-4591
▁pri	-4592
㇇,⿰	-4593
1921	-4594
android	-4595
18⿰	-4596
▁</	-4597
26⿰	-4598
「⿰⿸	-4599
𠂉一罒金	-4600
1/	-4601
凵丨阝	-4602
:《	-4603
5,⿰	-4604
ement	-4605
,⿱⿰⿸	-4606
5。	-4607
▁'	-4608
1996	-4609
▁fran	-4610
ov	-4611
mont	-4612
▁day	-4613
,000⿻	-4614
ku	-4615
ico	-4616
bn	-4617
〢又立	-4618
2⿱⿰⿱	-4619
;⿱⿰⿸	-4620
8661⿰⿸	-4621
ony	-4622
▁ha	-4623
apan	-4624
36⿱	-4625
55⿱	-4626
ama	-4627
▁1915	-4628
冫东	-4629
wan	-4630
6,	-4631
250⿱	-4632
unix	-4633
▁eng	-4634
kar	-4635
▁[[	-4636
▁au	-4637
▁tech	-4638
▁专	-4639
48⿱	-4640
《》。	-4641
pop	-4642
车干	-4643
火火冖玉	-4644
▁from	-4645
▁且	-4646
亻鬼	-4647
113	-4648
bel	-4649
▁30	-4650
2018	-4651
1923	-4652
1,000	-4653
金由	-4654
𠂊彐阝	-4655
37⿱	-4656
「⿰⿱⿱	-4657
ross	-4658
;⿱⿱⿱	-4659
tainment	-4660
hen	-4661
:00⿰	-4662
med	-4663
1995	-4664
▁international	-4665
[[	-4666
土文	-4667
tom	-4668
▁"⿰	-4669
木木毛	-4670
oly	-4671
日大日	-4672
1994	-4673
sg	-4674
▁mi	-4675
《》⿱	-4676
nh	-4677
",⿱	-4678
key	-4679
▁em	-4680
▁are	-4681
▁《⿱⿰	-4682
▁comm	-4683
oricon	-4684
ibm	-4685
mor	-4686
ling	-4687
▁that	-4688
▁recor	-4689
金金	-4690
wi	-4691
」⿱⿰	-4692
1500	-4693
丹彡	-4694
21⿰	-4695
lock	-4696
1⿸	-4697
_8	-4698
▁⿶	-4699
木木非	-4700
92	-4701
火土	-4702
cpu	-4703
vie	-4704
㐅朩刂	-4705
stit	-4706
ons	-4707
𠁣𠃛文	-4708
ars	-4709
:“⿸	-4710
⿰⿰⿴	-4711
艹于	-4712
▁park	-4713
,1997	-4714
山谷	-4715
隹十	-4716
48⿰	-4717
▁he	-4718
1993	-4719
0⿶⿳⿰	-4720
rat	-4721
wal	-4722
{⿸⿸	-4723
,⿱⿰⿴	-4724
金丑	-4725
:⿺	-4726
一也	-4727
1990	-4728
10⿰⿱	-4729
1913	-4730
zo	-4731
ren	-4732
月刂灬	-4733
,1999	-4734
▁曲	-4735
,⿺⿱	-4736
press	-4737
𠂉大隹	-4738
7⿰⿱	-4739
1911	-4740
:⿻	-4741
nt	-4742
ref	-4743
工水	-4744
lex	-4745
200⿰	-4746
言柬	-4747
bas	-4748
irst	-4749
5000⿱	-4750
dj	-4751
intel	-4752
▁entertainment	-4753
:⿴	-4754
8⿱⿰⿱	-4755
dis	-4756
66⿴	-4757
itter	-4758
,000⿱⿱	-4759
ety	-4760
open	-4761
146	-4762
,⿰⿸	-4763
101	-4764
25⿰	-4765
《⿰⿸	-4766
fm	-4767
人斗	-4768
耒禺	-4769
竹本	-4770
500⿰	-4771
ken	-4772
▁⿺⿵	-4773
38⿱	-4774
火页	-4775
urn	-4776
▁1910	-4777
▁award	-4778
4、	-4779
ump	-4780
,1990	-4781
朿⺀	-4782
rew	-4783
ring	-4784
▁not	-4785
央皿	-4786
氵木	-4787
112	-4788
ily	-4789
42⿱	-4790
cation	-4791
一攵	-4792
mel	-4793
sam	-4794
艹内	-4795
钅月	-4796
94	-4797
130	-4798
eg	-4799
木巨	-4800
1200	-4801
▁college	-4802
▁°	-4803
cle	-4804
▁⿹⿻	-4805
ula	-4806
▁er	-4807
html	-4808
▁res	-4809
wii	-4810
女口心	-4811
60⿰	-4812
《⿳⿱	-4813
1905	-4814
120	-4815
ria	-4816
urt	-4817
outh	-4818
牛冂刂手	-4819
nd	-4820
」⿵	-4821
5⿰⿱	-4822
,《⿰⿱	-4823
▁im	-4824
宀丰口谷	-4825
140	-4826
robert	-4827
erson	-4828
龙土	-4829
eral	-4830
9⿰⿱	-4831
ql	-4832
gon	-4833
sta	-4834
千口刂	-4835
live	-4836
gin	-4837
vid	-4838
ctor	-4839
mited	-4840
big	-4841
ney	-4842
omas	-4843
▁inc	-4844
"⿻	-4845
8。	-4846
▁巨	-4847
口肅	-4848
示示	-4849
ull	-4850
、《⿱	-4851
▁har	-4852
、1⿱	-4853
ensis	-4854
▁来	-4855
2:	-4856
700⿱	-4857
ala	-4858
asc	-4859
「⿸⿸	-4860
▁角	-4861
cra	-4862
very	-4863
▁川	-4864
艹甫	-4865
金内	-4866
,《⿻	-4867
istat	-4868
iphone	-4869
_1⿰	-4870
1991	-4871
66⿰⿹	-4872
bm	-4873
_12	-4874
bus	-4875
ora	-4876
⿻⿹	-4877
www	-4878
ista	-4879
▁her	-4880
▁ver	-4881
,⿰⿱⿴	-4882
人示	-4883
19⿱	-4884
alex	-4885
eta	-4886
▁」。	-4887
lude	-4888
type	-4889
氵立	-4890
ami	-4891
34⿱	-4892
▁bro	-4893
,⿱⿰⿱⿱	-4894
▁乐	-4895
25⿱	-4896
▁net	-4897
1,0	-4898
under	-4899
扌乃	-4900
氵且	-4901
bro	-4902
▁htt	-4903
、⿱⿰⿷	-4904
kh	-4905
osh	-4906
sen	-4907
一丂頁	-4908
sl	-4909
ath	-4910
75⿱	-4911
james	-4912
氵目	-4913
ado	-4914
mal	-4915
▁boy	-4916
ink	-4917
osa	-4918
▁app	-4919
:「⿰⿱	-4920
ev	-4921
禾儿	-4922
ike	-4923
』⿱	-4924
千口自心	-4925
oci	-4926
27⿰	-4927
ander	-4928
tc	-4929
150	-4930
orn	-4931
ple	-4932
tel	-4933
▁john	-4934
金巨	-4935
1945	-4936
ball	-4937
▁del	-4938
》⿰⿸	-4939
》、⿰	-4940
▁city	-4941
“⿱⿱⿱	-4942
,2016	-4943
8⿸	-4944
cast	-4945
reen	-4946
48⿱	-4947
▁1905	-4948
5、	-4949
110	-4950
pan	-4951
reg	-4952
1915	-4953
dan	-4954
sun	-4955
一兀頁	-4956
yu	-4957
木鬼	-4958
men	-4959
▁⿱⿵	-4960
》⿰⿱	-4961
28⿰	-4962
sr	-4963
:⿵	-4964
《⿵⿰	-4965
,1996	-4966
5⿱⿱	-4967
7⿸	-4968
!⿱	-4969
160	-4970
▁1906	-4971
160⿱	-4972
"|	-4973
_9	-4974
爫寸	-4975
田八夂	-4976
10⿸	-4977
5000	-4978
"⿸	-4979
▁tv	-4980
ript	-4981
丿丿丶心	-4982
,2	-4983
⿱⿻⿹	-4984
paul	-4985
8661⿱⿱⿱	-4986
db	-4987
fri	-4988
unes	-4989
《⿰⿱⿱	-4990
cv	-4991
ati	-4992
roy	-4993
sim	-4994
月工	-4995
lis	-4996
▁2⿱	-4997
扌丸土	-4998
;⿳	-4999
▁act	-5000
5⿱⿱	-5001
▁片	-5002
比土	-5003
1⿱⿱	-5004
30⿱	-5005
ake	-5006
▁lea	-5007
▁1909	-5008
」⿰⿱	-5009
1992	-5010
▁nor	-5011
44⿱	-5012
阝井	-5013
▁ea	-5014
1907	-5015
日未	-5016
fox	-5017
reat	-5018
弓丨丿刂	-5019
""	-5020
讠朱	-5021
cat	-5022
cla	-5023
:30⿰	-5024
cate	-5025
,⿰⿻	-5026
27⿱	-5027
_14	-5028
get	-5029
rol	-5030
ugh	-5031
itch	-5032
erican	-5033
michael	-5034
▁associ	-5035
gan	-5036
sal	-5037
▁com	-5038
▁val	-5039
20⿱⿱	-5040
▁company	-5041
木甘	-5042
、⿴	-5043
」,	-5044
dos	-5045
》《	-5046
bill	-5047
39⿱	-5048
,“⿰	-5049
王王巴	-5050
free	-5051
lace	-5052
▁⿱⿰⿱⿱	-5053
口龶阝	-5054
00⿱⿱	-5055
▁mat	-5056
▁tour	-5057
▁limited	-5058
chi	-5059
91	-5060
㇇,⿱	-5061
8960⿻	-5062
ob	-5063
扌止	-5064
out	-5065
1908	-5066
7。	-5067
24⿰	-5068
ship	-5069
:「⿺	-5070
8665⿴	-5071
》;	-5072
▁1900	-5073
人彡戈	-5074
love	-5075
▁games	-5076
ji	-5077
los	-5078
▁war	-5079
▁⿱⿱⿻	-5080
,13	-5081
1904	-5082
ova	-5083
rin	-5084
mann	-5085
105	-5086
▁high	-5087
8661⿱⿰⿱	-5088
xy	-5089
cis	-5090
2019	-5091
urus	-5092
丷干丸土	-5093
,⿱⿳𭕄	-5094
;⿰⿱⿱	-5095
nu	-5096
▁;	-5097
%⿱⿱	-5098
丿皿乑	-5099
·⿴	-5100
reet	-5101
earch	-5102
ous	-5103
pat	-5104
王王比	-5105
》、《⿸	-5106
gs	-5107
▁25	-5108
vice	-5109
「⿱⿰⿱	-5110
0,	-5111
『⿰	-5112
dom	-5113
、2	-5114
5,⿱	-5115
▁bla	-5116
>⿱	-5117
146	-5118
lue	-5119
⿱⿳𭕄	-5120
part	-5121
,2017	-5122
氵及	-5123
enn	-5124
禾火心	-5125
3⿸	-5126
lie	-5127
ubl	-5128
▁mac	-5129
46⿱	-5130
power	-5131
求衣	-5132
▁mor	-5133
▁sec	-5134
1,5	-5135
▁手	-5136
day	-5137
亠田久	-5138
』。	-5139
tive	-5140
35⿰	-5141
竹生	-5142
15⿱	-5143
▁50	-5144
·⿲	-5145
100⿱	-5146
、⿱⿹	-5147
1909	-5148
twitter	-5149
角斗	-5150
nat	-5151
、5	-5152
1916	-5153
,1995	-5154
石石	-5155
「」⿰	-5156
8665⿵⿰	-5157
木丂	-5158
kin	-5159
𠂊冫寸木	-5160
8%	-5161
ban	-5162
ile	-5163
wood	-5164
▁records	-5165
氵于	-5166
火言	-5167
7,	-5168
29⿰	-5169
wo	-5170
𡗗臼	-5171
·⿸⿱	-5172
gt	-5173
火又	-5174
艹鬼	-5175
40⿱	-5176
8⿱⿰	-5177
bour	-5178
勹二	-5179
束欠	-5180
纟申	-5181
pal	-5182
囗口禾	-5183
▁1907	-5184
christ	-5185
gl	-5186
阝皮	-5187
bon	-5188
vir	-5189
▁《⿺	-5190
0,⿰	-5191
gram	-5192
⿱⿱⿴⿱	-5193
丿囗㐅儿	-5194
火言火又	-5195
、《⿰	-5196
▁mark	-5197
⿰⿱⿱⿱	-5198
19⿰	-5199
8⿰⿱	-5200
ral	-5201
5⿵⿵	-5202
▁100	-5203
,1⿱	-5204
,1980	-5205
cket	-5206
:「⿸	-5207
1906	-5208
8661,	-5209
eration	-5210
▁es	-5211
7、	-5212
eet	-5213
fla	-5214
http	-5215
unicode	-5216
耳心	-5217
目八力	-5218
▁was	-5219
:“⿱⿱	-5220
14⿱	-5221
,1994	-5222
8、	-5223
▁口	-5224
_15	-5225
mus	-5226
▁exp	-5227
▁spe	-5228
angel	-5229
2,000	-5230
口肃	-5231
竹干	-5232
eau	-5233
vent	-5234
viro	-5235
《》⿻	-5236
虫牙	-5237
bri	-5238
ress	-5239
1901	-5240
土于	-5241
▁lu	-5242
light	-5243
4%	-5244
士冖业	-5245
tl	-5246
rand	-5247
▁ter	-5248
▁1904	-5249
include	-5250
amd	-5251
8,	-5252
103	-5253
、⿱⿴	-5254
」、「⿰⿱	-5255
mid	-5256
,⿶	-5257
ator	-5258
rick	-5259
▁class	-5260
1%	-5261
金屯	-5262
mot	-5263
▁jr	-5264
0,⿱	-5265
inal	-5266
1860	-5267
vd	-5268
▁da	-5269
▁time	-5270
▁japan	-5271
">	-5272
9。	-5273
丬夕酉	-5274
▁bra	-5275
▁fil	-5276
▁wal	-5277
350	-5278
6。	-5279
gm	-5280
cus	-5281
rey	-5282
》⿴	-5283
11⿰⿱	-5284
木己	-5285
13⿰	-5286
vic	-5287
▁sing	-5288
▁star	-5289
charles	-5290
"、"	-5291
gundam	-5292
3%	-5293
6%	-5294
▁house	-5295
艹艮	-5296
言内	-5297
7⿰⿱	-5298
▁pe	-5299
▁road	-5300
hp	-5301
pha	-5302
sco	-5303
ura	-5304
gory	-5305
115	-5306
、2⿱	-5307
,1993	-5308
▁ta	-5309
1、	-5310
43⿱	-5311
duction	-5312
木册	-5313
116	-5314
丿丿刂	-5315
ates	-5316
chem	-5317
well	-5318
“⿺⿱	-5319
sport	-5320
00⿻	-5321
▁min	-5322
106	-5323
4⿱⿱	-5324
apple	-5325
,2018	-5326
2%	-5327
白鬼	-5328
讠柬	-5329
aut	-5330
cil	-5331
ves	-5332
·⿵	-5333
_11	-5334
▁cd	-5335
,1985	-5336
kb	-5337
lt	-5338
丷丨	-5339
土丹	-5340
core	-5341
high	-5342
west	-5343
▁center	-5344
7%	-5345
><	-5346
hs	-5347
▁—	-5348
abc	-5349
oli	-5350
⿺⿱⿱	-5351
field	-5352
,⿱⿱⿻	-5353
川一	-5354
ery	-5355
kbs	-5356
une	-5357
3:	-5358
130⿱	-5359
/10	-5360
29⿱	-5361
mas	-5362
9⿸	-5363
64⿱	-5364
4000	-5365
,1986	-5366
氵发	-5367
85⿱	-5368
{⿰⿱	-5369
elle	-5370
52⿱	-5371
:“⿰⿱	-5372
hal	-5373
mtv	-5374
41⿱	-5375
110⿱	-5376
300⿰	-5377
","	-5378
𠘧又金	-5379
enviro	-5380
dl	-5381
木工	-5382
|	-5383
▁60	-5384
▁ltd	-5385
737	-5386
、⿵⿱	-5387
,⿱⿰⿷	-5388
george	-5389
zy	-5390
囗甫	-5391
弓米	-5392
弓米弓	-5393
1913	-5394
mart	-5395
》、《⿱⿰	-5396
rpm	-5397
▁vo	-5398
36⿰	-5399
▁association	-5400
丬女	-5401
mbc	-5402
丷干臼	-5403
09	-5404
5⿱⿴	-5405
able	-5406
」,⿹	-5407
▁club	-5408
▁kong	-5409
▁life	-5410
mil	-5411
5⿵⿰	-5412
▁sci	-5413
▁media	-5414
rh	-5415
饣我	-5416
its	-5417
▁out	-5418
125	-5419
▁1908	-5420
,1992	-5421
,“⿱	-5422
▁23	-5423
66,	-5424
66⿳	-5425
cade	-5426
31⿰	-5427
▁street	-5428
0。	-5429
广里	-5430
氵兆	-5431
▁24	-5432
▁fr	-5433
1902	-5434
,1991	-5435
9%	-5436
一乚	-5437
sir	-5438
一乚丶	-5439
cess	-5440
chin	-5441
▁1895	-5442
ited	-5443
mith	-5444
:⿱⿱⿱	-5445
,1984	-5446
4000⿱	-5447
richard	-5448
lea	-5449
、4	-5450
▁iii	-5451
/⿰⿱	-5452
:19	-5453
《⿱⿰⿱	-5454
,1989	-5455
更生	-5456
cap	-5457
ius	-5458
▁22	-5459
music	-5460
钅垂	-5461
ota	-5462
sbs	-5463
⿸⿸⿸	-5464
force	-5465
1890	-5466
金甲	-5467
女又弓	-5468
》、⿱	-5469
匕水	-5470
女户	-5471
23⿰	-5472
gal	-5473
▁jo	-5474
人目又	-5475
inst	-5476
33⿰	-5477
world	-5478
▁power	-5479
,1949	-5480
category	-5481
66⿲	-5482
ents	-5483
▁ber	-5484
1500⿱	-5485
氵虫	-5486
钅里	-5487
▁⿱⿺	-5488
、6	-5489
▁char	-5490
1898	-5491
▁national	-5492
fu	-5493
tal	-5494
team	-5495
108	-5496
「⿱⿻	-5497
》⿺	-5498
石申	-5499
time	-5500
1895	-5501
,1988	-5502
ors	-5503
peter	-5504
▁hall	-5505
;⿱⿱	-5506
nes	-5507
iucn	-5508
▁bur	-5509
▁dist	-5510
die	-5511
thy	-5512
arch	-5513
]]⿰	-5514
001	-5515
eep	-5516
ira	-5517
▁1901	-5518
▁game	-5519
uri	-5520
bile	-5521
360	-5522
1896	-5523
cf	-5524
bsd	-5525
oss	-5526
、7	-5527
21、21	-5528
114	-5529
idth	-5530
▁⿱⿰⿻	-5531
66⿱⿰	-5532
米子	-5533
户攵口	-5534
」⿴	-5535
109	-5536
1903	-5537
▁2⿰	-5538
立十木	-5539
、10	-5540
140⿱	-5541
ye	-5542
艹止	-5543
mad	-5544
▁3⿰	-5545
104	-5546
rs	-5547
⿲⿱	-5548
5⿶⿳⿰	-5549
▁techno	-5550
nbc	-5551
ten	-5552
▁med	-5553
,14	-5554
12⿸	-5555
56⿱	-5556
[[⿰	-5557
gp	-5558
▁瓜	-5559
06	-5560
1000	-5561
▁wil	-5562
》,⿻	-5563
▁show	-5564
ission	-5565
uk	-5566
艮心	-5567
0、⿰	-5568
ated	-5569
attle	-5570
,189	-5571
1899	-5572
、⿱⿰⿸	-5573
,1982	-5574
ication	-5575
厂人	-5576
衤末	-5577
钅由	-5578
ele	-5579
oph	-5580
zer	-5581
▁mod	-5582
▁von	-5583
64⿰	-5584
iller	-5585
||0||	-5586
_16	-5587
phy	-5588
▁bus	-5589
,⿺⿻	-5590
47⿱	-5591
——⿺	-5592
「」。	-5593
"⿹	-5594
口永	-5595
mod	-5596
uis	-5597
▁bas	-5598
oseph	-5599
bin	-5600
spe	-5601
▁"⿱	-5602
ston	-5603
107	-5604
747	-5605
、《⿱	-5606
▁1903	-5607
▁super	-5608
▁island	-5609
ato	-5610
dar	-5611
▁van	-5612
900	-5613
▁申	-5614
」⿺	-5615
厶廾	-5616
ater	-5617
▁⿰⿳⿱	-5618
《⿲㇇	-5619
66⿰⿸	-5620
▁sport	-5621
/⿰	-5622
60⿱	-5623
cas	-5624
,⿻⿺	-5625
、⿱⿰⿻	-5626
8661⿰⿱⿱	-5627
,"	-5628
dm	-5629
艹末	-5630
250	-5631
non	-5632
sel	-5633
⺌冖口衣	-5634
ridge	-5635
6、	-5636
115	-5637
nam	-5638
▁1⿱	-5639
▁ag	-5640
phil	-5641
170	-5642
black	-5643
zi	-5644
木戋	-5645
:⿱⿰	-5646
ach	-5647
ded	-5648
▁ty	-5649
火田	-5650
舟甲	-5651
bre	-5652
map	-5653
only	-5654
▁der	-5655
"⿰⿱	-5656
▁1898	-5657
▁open	-5658
𠘧又木	-5659
1,3	-5660
▁team	-5661
⿱⿰⿻⿱	-5662
dh	-5663
土斤	-5664
扌弗	-5665
dire	-5666
/⿱⿱	-5667
80⿰	-5668
85⿱	-5669
/2	-5670
clo	-5671
丿廾土	-5672
子皿力	-5673
1949	-5674
▁⿱⿰⿸	-5675
▁google	-5676
犭艮	-5677
,18	-5678
dor	-5679
:[	-5680
“"	-5681
▁san	-5682
“⿱⿳	-5683
1,500	-5684
▁instit	-5685
4⿸	-5686
rt	-5687
117	-5688
26⿰	-5689
49⿱	-5690
,1950	-5691
▁飞	-5692
ving	-5693
▁your	-5694
/3	-5695
;⿸	-5696
金里	-5697
mes	-5698
oto	-5699
15⿸	-5700
▁soci	-5701
,1987	-5702
1000⿰	-5703
ids	-5704
ros	-5705
tbs	-5706
㇇⿹	-5707
rown	-5708
6⿱⿱	-5709
,⿳⿱	-5710
5·	-5711
emi	-5712
sec	-5713
;⿵	-5714
angu	-5715
ding	-5716
less	-5717
urch	-5718
▁met	-5719
,2⿱	-5720
101	-5721
▁『	-5722
乙水	-5723
var	-5724
1911	-5725
sony	-5726
▁tri	-5727
20⿸	-5728
1⿰⿱⿱	-5729
▁』	-5730
gam	-5731
1800	-5732
山民	-5733
tro	-5734
㇇⿳	-5735
38⿰	-5736
」;⿰	-5737
▁this	-5738
:⿹	-5739
丨丨比灬	-5740
13⿸	-5741
54⿱	-5742
ublic	-5743
8665⿱⿹	-5744
ei	-5745
119	-5746
gnu	-5747
np	-5748
ddf	-5749
ock	-5750
▁sw	-5751
“⿰⿱⿱	-5752
钅丁	-5753
mos	-5754
士口頁	-5755
rock	-5756
58⿱	-5757
board	-5758
▁trans	-5759
3,000	-5760
耳止	-5761
_2⿰	-5762
bbs	-5763
一大虫	-5764
220	-5765
pv	-5766
忄鬼	-5767
nasa	-5768
▁1902	-5769
:⿳	-5770
240	-5771
_17	-5772
bil	-5773
1989	-5774
;⿸⿸	-5775
ional	-5776
1870	-5777
口犬	-5778
65⿱	-5779
80⿱	-5780
mhz	-5781
anna	-5782
stra	-5783
▁pet	-5784
㇇⿳⿱	-5785
、⿰⿵	-5786
,1983	-5787
9⿰⿱	-5788
cia	-5789
din	-5790
ida	-5791
▁166	-5792
1,4	-5793
450	-5794
tim	-5795
bot	-5796
66⿵	-5797
fice	-5798
“⿰⿸	-5799
ittle	-5800
2⿱⿱	-5801
isa	-5802
▁ac	-5803
cont	-5804
jack	-5805
md	-5806
犬犬	-5807
金垂	-5808
1,⿱	-5809
8。	-5810
tar	-5811
66⿹	-5812
▁vir	-5813
thomas	-5814
88⿱	-5815
cbs	-5816
/⿹	-5817
burg	-5818
86⿰	-5819
8⿴	-5820
dra	-5821
,。	-5822
city	-5823
colspan	-5824
▁server	-5825
▁乙	-5826
氵朱	-5827
而女	-5828
api	-5829
via	-5830
▁承	-5831
60⿰	-5832
ceo	-5833
olf	-5834
▁3⿱	-5835
㐅乂玉	-5836
·⿱⿴	-5837
▁river	-5838
,1958	-5839
cg	-5840
忄束	-5841
酉禾	-5842
▁40	-5843
cctv	-5844
▁书	-5845
辶于	-5846
一兀页	-5847
fire	-5848
▁fri	-5849
:“⿻	-5850
▁song	-5851
1880	-5852
:「⿱⿱	-5853
▁engine	-5854
丿𠃌攵虫	-5855
11⿸	-5856
“⿸⿸	-5857
𠂊田一刂	-5858
▁best	-5859
▁cent	-5860
,1970	-5861
《"	-5862
▁reg	-5863
▁rock	-5864
180⿱	-5865
_1⿱	-5866
kan	-5867
sar	-5868
xml	-5869
1980	-5870
▁ste	-5871
30⿸	-5872
「⿵⿵	-5873
宀一	-5874
28⿰	-5875
_18	-5876
not	-5877
▁sim	-5878
、3⿱	-5879
▁《⿵	-5880
艹冖火	-5881
」、	-5882
euro	-5883
velop	-5884
▁mart	-5885
▁office	-5886
130	-5887
2,⿱	-5888
jan	-5889
lot	-5890
▁⿻⿻	-5891
3⿱⿰⿱	-5892
▁hot	-5893
▁law	-5894
》⿱⿰	-5895
」;⿱	-5896
2⿰⿱⿱	-5897
、⿱⿱⿻	-5898
itunes	-5899
,1946	-5900
木方	-5901
5⿱⿳	-5902
▁90	-5903
▁xp	-5904
102	-5905
30⿱⿱	-5906
50%⿰	-5907
▁codice	-5908
钅屯	-5909
ush	-5910
丷酉犬	-5911
1912	-5912
view	-5913
▁ant	-5914
▁sur	-5915
“⿱⿻	-5916
ali	-5917
mir	-5918
▁ba	-5919
,3⿱	-5920
vidia	-5921
▁http	-5922
▁year	-5923
rpg	-5924
▁,⿸	-5925
▁||	-5926
、0	-5927
ouch	-5928
214	-5929
51⿱	-5930
▁linux	-5931
international	-5932
亻两	-5933
衤寸	-5934
ird	-5935
fort	-5936
▁vol	-5937
72⿱	-5938
,「⿰⿱	-5939
mt	-5940
▁州	-5941
言且	-5942
usb	-5943
宀八巾	-5944
34⿰	-5945
house	-5946
▁william	-5947
」⿻	-5948
忄斤	-5949
钅刂	-5950
87⿱	-5951
itz	-5952
pol	-5953
「⿰⿱	-5954
thon	-5955
▁mem	-5956
,1960	-5957
▁studio	-5958
1987	-5959
▁500	-5960
▁mic	-5961
▁pag	-5962
▁2020	-5963
,《	-5964
言牙	-5965
讠韦	-5966
>	-5967
ference	-5968
讠乍	-5969
eee	-5970
jean	-5971
annel	-5972
▁christ	-5973
宀石	-5974
日乍	-5975
rue	-5976
▁4⿰	-5977
㇇,	-5978
《⿱⿻	-5979
ritic	-5980
▁门	-5981
50⿰	-5982
6⿰⿱	-5983
bay	-5984
hol	-5985
▁fi	-5986
▁cap	-5987
▁mer	-5988
57⿱	-5989
▁west	-5990
,1979	-5991
▁society	-5992
301	-5993
crh	-5994
、、⿰	-5995
9、	-5996
ua	-5997
lia	-5998
nal	-5999
ops	-6000
▁26	-6001
亻隹月	-6002
tech	-6003
▁adv	-6004
▁⿱⿰⿷	-6005
space	-6006
▁name	-6007
1885	-6008
ations	-6009
kw	-6010
𦣞页	-6011
gir	-6012
lon	-6013
{⿱⿱	-6014
07	-6015
▁sea	-6016
53⿱	-6017
stein	-6018
unior	-6019
vision	-6020
pn	-6021
rc	-6022
石乐	-6023
ork	-6024
𠁣𠃛心	-6025
show	-6026
sing	-6027
」,⿻	-6028
、⿵	-6029
86⿱	-6030
ffe	-6031
pin	-6032
eart	-6033
,⿲⿱	-6034
129	-6035
umber	-6036
▁free	-6037
,8	-6038
ett	-6039
idae	-6040
,“⿸	-6041
210	-6042
45⿰	-6043
350⿱	-6044
direct	-6045
,1981	-6046
▁science	-6047
月寸	-6048
目兆	-6049
人人攵	-6050
八厶儿	-6051
mary	-6052
pris	-6053
》《⿰	-6054
8⿱⿱⿱	-6055
▁1896	-6056
1897	-6057
革斤	-6058
27⿰	-6059
380	-6060
sum	-6061
一八石	-6062
▁pat	-6063
000⿱⿱	-6064
ict	-6065
爿士大	-6066
ural	-6067
,1945	-6068
1200⿱	-6069
of	-6070
」⿸	-6071
𦣞頁	-6072
dig	-6073
leg	-6074
▁vi	-6075
▁acc	-6076
▁rea	-6077
㇇⿸⿸	-6078
丿囗㐅比	-6079
70⿰	-6080
《⿻㇀	-6081
▁first	-6082
bt	-6083
46⿹	-6084
5%⿰	-6085
501	-6086
▁fa	-6087
:『	-6088
▁may	-6089
」⿰⿱⿱	-6090
▁store	-6091
8⿸	-6092
cos	-6093
tem	-6094
ule	-6095
4:	-6096
「"	-6097
1984	-6098
1985	-6099
chen	-6100
37⿰	-6101
59⿱	-6102
8⿱⿱	-6103
5/	-6104
氵亡	-6105
釆由	-6106
eth	-6107
ola	-6108
str	-6109
𠂇月土	-6110
phen	-6111
▁ear	-6112
88⿱	-6113
」⿰⿳	-6114
▁1899	-6115
▁干	-6116
氵屯	-6117
2/	-6118
29⿰	-6119
pot	-6120
木丶刂	-6121
𠂊彐隹	-6122
ures	-6123
10,	-6124
▁1897	-6125
日文	-6126
钅丑	-6127
21⿻	-6128
ftw	-6129
2》	-6130
230	-6131
ender	-6132
zilla	-6133
8661⿲	-6134
acritic	-6135
ila	-6136
《⿱⿲	-6137
》、《⿺	-6138
▁girls	-6139
▁state	-6140
▁project	-6141
urs	-6142
ever	-6143
gent	-6144
240	-6145
灬川	-6146
𠂊⺀	-6147
160	-6148
ones	-6149
——⿸	-6150
「⿰⿳	-6151
▁hill	-6152
1,000⿱	-6153
zz	-6154
矛攵	-6155
:15	-6156
sca	-6157
ions	-6158
▁ben	-6159
▁dra	-6160
》⿵⿰	-6161
20⿰⿱	-6162
internet	-6163
▁network	-6164
▁research	-6165
/⿱	-6166
ngc	-6167
囗口阝	-6168
𠂊⺀火	-6169
,5⿱	-6170
right	-6171
48⿻	-6172
arm	-6173
▁88	-6174
▁mc	-6175
▁「⿰⿱	-6176
1,6	-6177
113	-6178
》⿰⿳	-6179
▁league	-6180
american	-6181
4/	-6182
ax	-6183
火夬	-6184
pos	-6185
wil	-6186
▁《⿳	-6187
人人頁	-6188
here	-6189
rive	-6190
▁⿱⿳𭕄	-6191
5⿹	-6192
灬阝	-6193
66⿱	-6194
ave	-6195
ito	-6196
sig	-6197
ski	-6198
、“⿻	-6199
0⿱	-6200
1986	-6201
ally	-6202
▁lee	-6203
;⿰⿸	-6204
66⿹⿶	-6205
office	-6206
▁manag	-6207
▁micro	-6208
,1978	-6209
▁institute	-6210
!!	-6211
gg	-6212
▁井	-6213
apg	-6214
dia	-6215
釆田阝	-6216
1988	-6217
500⿱	-6218
280	-6219
48⿰	-6220
ison	-6221
ness	-6222
▁160	-6223
——⿱⿱	-6224
止自	-6225
黑攵	-6226
"⿰⿱	-6227
0⿵	-6228
巳八夂	-6229
立十刀	-6230
1947	-6231
chan	-6232
uman	-6233
山一黑攵	-6234
117	-6235
止自巳八夂	-6236
1,200	-6237
▁explor	-6238
pk	-6239
气山	-6240
rie	-6241
▁hy	-6242
▁sal	-6243
「⿲㇇	-6244
𠂊田灬比	-6245
1850	-6246
▁丘	-6247
fan	-6248
sat	-6249
女口糸	-6250
9,	-6251
alan	-6252
chel	-6253
▁dvd	-6254
116	-6255
》⿱⿱⿱	-6256
]⿰	-6257
金玉	-6258
3⿱⿱	-6259
厶口心	-6260
,⿰⿱⿰	-6261
ette	-6262
▁don	-6263
」,⿵	-6264
▁back	-6265
150⿰	-6266
rd	-6267
亡民	-6268
口丁	-6269
36⿰	-6270
64⿱	-6271
_19	-6272
town	-6273
260	-6274
62⿱	-6275
1848	-6276
▁china	-6277
mw	-6278
5%。	-6279
ada	-6280
eel	-6281
fre	-6282
ien	-6283
▁vis	-6284
112	-6285
128	-6286
▁land	-6287
,⿱⿳	-6288
1928	-6289
215	-6290
5⿱⿰⿴	-6291
12⿱⿱	-6292
1888	-6293
▁corpor	-6294
sv	-6295
永日	-6296
40⿰	-6297
eek	-6298
kit	-6299
pas	-6300
2⿻	-6301
centr	-6302
,《⿱⿱	-6303
1871	-6304
jam	-6305
tur	-6306
▁46	-6307
stri	-6308
▁fla	-6309
▁pla	-6310
,1956	-6311
8665⿱⿰⿴	-6312
▁cy	-6313
▁175	-6314
▁pop	-6315
▁plan	-6316
12⿰⿱	-6317
8665⿰⿳	-6318
eu	-6319
lc	-6320
nc	-6321
nn	-6322
尸九	-6323
日广	-6324
8⿲	-6325
hot	-6326
wwe	-6327
5⿰⿳	-6328
▁but	-6329
▁over	-6330
」⿹	-6331
竹尹	-6332
1,⿰	-6333
ain	-6334
pla	-6335
▁mm	-6336
、10	-6337
!!	-6338
post	-6339
▁fire	-6340
《⿰⿱⿰	-6341
▁junior	-6342
qq	-6343
▁yo	-6344
rome	-6345
▁bel	-6346
18⿸	-6347
“⿵⿵	-6348
1889	-6349
禾央	-6350
tai	-6351
艹冖玉	-6352
1914	-6353
ival	-6354
side	-6355
thing	-6356
▁谷	-6357
丿乀	-6358
亻田	-6359
18⿻	-6360
25⿻	-6361
▁、⿰	-6362
02	-6363
,500	-6364
▁1889	-6365
master	-6366
8661⿱⿶⿱⿰	-6367
3/	-6368
』⿰	-6369
《⿰⿱	-6370
ming	-6371
ough	-6372
114	-6373
2⿰⿰	-6374
[[⿱	-6375
table	-6376
1887	-6377
900⿱	-6378
onlyinclude	-6379
火𠃓	-6380
glo	-6381
ord	-6382
run	-6383
▁pc	-6384
、9	-6385
1898	-6386
1937	-6387
▁max	-6388
▁pol	-6389
90⿰	-6390
竹及	-6391
_20	-6392
ges	-6393
lee	-6394
you	-6395
band	-6396
dium	-6397
pent	-6398
▁jack	-6399
▁king	-6400
,187	-6401
——⿰⿱	-6402
8661⿱⿳	-6403
nm	-6404
扌母	-6405
ima	-6406
▁27	-6407
▁je	-6408
▁ju	-6409
匕水页	-6410
over	-6411
ters	-6412
118	-6413
68⿱	-6414
▁long	-6415
8665⿱⿰⿱	-6416
日斤	-6417
apa	-6418
bad	-6419
oney	-6420
,“⿰⿱	-6421
▁station	-6422
dt	-6423
180	-6424
jim	-6425
1982	-6426
stru	-6427
▁end	-6428
▁fer	-6429
155	-6430
2》⿰	-6431
3⿰⿰	-6432
」⿵⿰	-6433
quare	-6434
▁girl	-6435
66⿱⿱⿱	-6436
2500⿱	-6437
6000⿱	-6438
、9	-6439
350	-6440
yer	-6441
⺊尸页	-6442
just	-6443
mail	-6444
63⿱	-6445
13⿰⿱	-6446
1600	-6447
、⿱⿴⿱	-6448
sf	-6449
801	-6450
8⿵	-6451
cel	-6452
kon	-6453
习习欠	-6454
"⿸	-6455
main	-6456
ople	-6457
▁book	-6458
1884	-6459
▁commun	-6460
业阝	-6461
刀口力	-6462
1895	-6463
▁sco	-6464
人一口龙	-6465
1,7	-6466
14⿸	-6467
25⿸	-6468
、⿸⿱	-6469
》《⿱	-6470
▁develop	-6471
▁technology	-6472
22⿻	-6473
3,⿱	-6474
77⿱	-6475
mand	-6476
320	-6477
、4⿱	-6478
▁tran	-6479
]。	-6480
ek	-6481
二贝	-6482
acc	-6483
omo	-6484
sts	-6485
tha	-6486
▁《⿴	-6487
䒑未阝	-6488
rict	-6489
135	-6490
42⿰	-6491
66⿱	-6492
7⿱⿱	-6493
95⿱	-6494
small	-6495
▁camp	-6496
1861	-6497
1867	-6498
nvidia	-6499
401	-6500
nas	-6501
儿丨皿	-6502
▁169	-6503
▁sub	-6504
,⿰⿴	-6505
iness	-6506
jer	-6507
jon	-6508
丰寸灬	-6509
",⿱⿱	-6510
」,⿱⿱	-6511
15⿰⿱	-6512
ftware	-6513
"⿺	-6514
氵金	-6515
eno	-6516
ful	-6517
gor	-6518
lip	-6519
nik	-6520
ury	-6521
1939	-6522
,“⿻	-6523
9⿱⿱	-6524
8661⿲㇇	-6525
86⿻	-6526
sha	-6527
uch	-6528
▁hu	-6529
口王阝	-6530
1903	-6531
1,9	-6532
127	-6533
trans	-6534
sub	-6535
囗口示	-6536
木木阝	-6537
gust	-6538
sson	-6539
亠口小頁	-6540
78⿱	-6541
▁studi	-6542
,1959	-6543
,2019	-6544
▁corporation	-6545
彳方	-6546
sid	-6547
▁1⿰	-6548
,0	-6549
▁sil	-6550
▁whi	-6551
",⿱	-6552
▁form	-6553
▁night	-6554
▁church	-6555
▁explorer	-6556
lg	-6557
▁头	-6558
85⿰	-6559
ude	-6560
ume	-6561
▁159	-6562
《⿹⿶	-6563
ampion	-6564
▁vista	-6565
▁service	-6566
𠂉生	-6567
dex	-6568
八厶瓦	-6569
1946	-6570
▁sup	-6571
212	-6572
76⿱	-6573
:《⿰	-6574
aniel	-6575
++⿰	-6576
,17	-6577
104	-6578
▁66	-6579
1979	-6580
ille	-6581
▁por	-6582
丿𠃌攵灬	-6583
,4⿱	-6584
16⿸	-6585
46⿰	-6586
1864	-6587
tz	-6588
一户	-6589
贝戋	-6590
24⿻	-6591
46⿻	-6592
601	-6593
ets	-6594
丬夕木	-6595
、⿶	-6596
▁ext	-6597
▁oper	-6598
,188	-6599
▁pagasa	-6600
/⿻	-6601
yah	-6602
匚㐅瓦	-6603
800⿱	-6604
hard	-6605
vest	-6606
2⿱⿰	-6607
39⿰	-6608
north	-6609
,⿱⿴⿱	-6610
14⿰⿱	-6611
lation	-6612
otball	-6613
▁smith	-6614
ization	-6615
彳非	-6616
701	-6617
aga	-6618
als	-6619
jor	-6620
▁⿰⿴	-6621
糸言糸金	-6622
dream	-6623
100⿱⿱	-6624
▁革	-6625
2⿱⿳	-6626
_3⿰	-6627
bet	-6628
far	-6629
1920	-6630
」、⿰	-6631
1893	-6632
、⿱⿰⿱⿱	-6633
]]	-6634
肀二	-6635
109	-6636
12⿻	-6637
28⿻	-6638
癶豆几	-6639
1⿻	-6640
▁fun	-6641
▁⿱⿴⿱	-6642
▁《⿸⿸	-6643
▁」⿰⿱	-6644
ister	-6645
《》,⿰	-6646
volution	-6647
metacritic	-6648
尸米	-6649
礻止	-6650
22⿰	-6651
35⿱	-6652
bes	-6653
pra	-6654
sea	-6655
sql	-6656
㇇⿱⿰	-6657
330	-6658
41⿰	-6659
▁have	-6660
▁town	-6661
battle	-6662
▁magaz	-6663
,1955	-6664
「⿱⿶⿱⿰	-6665
/0	-6666
pf	-6667
木且	-6668
11⿻	-6669
140	-6670
jas	-6671
口止果	-6672
1950	-6673
atch	-6674
▁tur	-6675
》:“	-6676
▁1871	-6677
oro	-6678
1935	-6679
lang	-6680
uter	-6681
」,「	-6682
·⿱⿱⿰	-6683
+1	-6684
17⿻	-6685
nan	-6686
▁4⿱	-6687
士口页	-6688
1894	-6689
▁sol	-6690
:「⿻	-6691
▁1894	-6692
▁euro	-6693
▁news	-6694
▁program	-6695
;;	-6696
kt	-6697
5,	-6698
psp	-6699
▁29	-6700
𠂊小玉	-6701
1927	-6702
46。	-6703
fred	-6704
▁,⿱⿱	-6705
▁aga	-6706
》、《⿵	-6707
formation	-6708
口牙	-6709
,⿹⿶	-6710
eak	-6711
stu	-6712
3⿻	-6713
0⿺⿱	-6714
100⿰	-6715
126	-6716
52⿰	-6717
750	-6718
henry	-6719
1869	-6720
8960。	-6721
」,⿱⿱⿱	-6722
fun	-6723
thor	-6724
、⿰⿱⿱	-6725
!」⿰	-6726
grand	-6727
1865	-6728
1868	-6729
匚久	-6730
火虫	-6731
耳冘	-6732
1⿱⿳	-6733
不一阝	-6734
𠂊彐皮	-6735
1981	-6736
blue	-6737
dren	-6738
▁,⿰⿱	-6739
▁165	-6740
▁arch	-6741
,“⿱⿱	-6742
120⿰	-6743
,1937	-6744
▁magazine	-6745
▁士	-6746
一川	-6747
宀心	-6748
钅本	-6749
87⿰	-6750
emu	-6751
yan	-6752
——⿰	-6753
eric	-6754
17⿸	-6755
、、⿱	-6756
night	-6757
▁hist	-6758
▁vide	-6759
ws	-6760
xd	-6761
▁久	-6762
26⿻	-6763
29⿻	-6764
bat	-6765
/⿸	-6766
gold	-6767
44⿰	-6768
61⿱	-6769
69⿱	-6770
66、⿰	-6771
joseph	-6772
,1953	-6773
px	-6774
久火	-6775
革央	-6776
118	-6777
dro	-6778
eas	-6779
uel	-6780
una	-6781
▁sc	-6782
urce	-6783
「⿹⿶	-6784
▁will	-6785
1862	-6786
400⿰	-6787
▁langu	-6788
▁stand	-6789
mem	-6790
zen	-6791
戊一小	-6792
矛攵女	-6793
》⿳	-6794
▁tim	-6795
1886	-6796
18⿱⿱	-6797
50⿱⿱	-6798
」⿱⿱⿱	-6799
ao	-6800
金肅	-6801
30⿰	-6802
⿴⿱	-6803
000⿻	-6804
1948	-6805
ific	-6806
《⿰⿳	-6807
17⿰⿱	-6808
▁radio	-6809
7⿸	-6810
bh	-6811
0,	-6812
850	-6813
ori	-6814
▁mk	-6815
4⿻	-6816
best	-6817
poly	-6818
145	-6819
170⿱	-6820
1840	-6821
1879	-6822
,1952	-6823
ascript	-6824
°⿰	-6825
一由	-6826
15⿻	-6827
89⿱	-6828
nel	-6829
vii	-6830
▁gi	-6831
andy	-6832
tran	-6833
2,0	-6834
81⿱	-6835
「⿰⿹	-6836
▁fest	-6837
ildren	-6838
8/	-6839
]⿱	-6840
uf	-6841
▁>	-6842
16⿻	-6843
jav	-6844
、“	-6845
0、⿱	-6846
link	-6847
▁cla	-6848
▁she	-6849
▁web	-6850
22⿸	-6851
ondon	-6852
▁rich	-6853
1874	-6854
2,500	-6855
:45	-6856
rub	-6857
▁pr	-6858
「⿷	-6859
1970	-6860
龷由八阝	-6861
ental	-6862
frank	-6863
“⿱⿰⿱	-6864
,1968	-6865
,1975	-6866
,1976	-6867
▁sports	-6868
▁software	-6869
口垂	-6870
23⿻	-6871
35⿻	-6872
39⿰	-6873
;⿰⿱	-6874
blo	-6875
vat	-6876
▁si	-6877
1936	-6878
camp	-6879
▁hen	-6880
▁sun	-6881
▁⿱⿵⿵	-6882
213	-6883
67⿱	-6884
「⿱⿲	-6885
33⿻	-6886
36⿻	-6887
cry	-6888
yes	-6889
ffer	-6890
iana	-6891
real	-6892
▁hel	-6893
123	-6894
133	-6895
、12	-6896
chest	-6897
10%⿰	-6898
1872	-6899
%、	-6900
alt	-6901
deo	-6902
tre	-6903
1902	-6904
1909	-6905
1960	-6906
ipod	-6907
▁155	-6908
▁176	-6909
▁top	-6910
40⿸	-6911
550	-6912
》,⿵	-6913
▁plus	-6914
active	-6915
▁black	-6916
,1938	-6917
cw	-6918
毛毛	-6919
民攵	-6920
言夬	-6921
19⿻	-6922
31⿻	-6923
66⿻	-6924
84⿻	-6925
pur	-6926
▁70	-6927
8、⿰	-6928
▁fin	-6929
10⿻	-6930
144	-6931
,1948	-6932
▁express	-6933
、7	-6934
14⿻	-6935
83⿻	-6936
cin	-6937
hor	-6938
▁ir	-6939
民攵心	-6940
1910	-6941
5、⿰	-6942
ches	-6943
▁spa	-6944
▁way	-6945
218	-6946
50⿸	-6947
·⿱⿹	-6948
、5⿱	-6949
antas	-6950
style	-6951
「⿰⿱⿰	-6952
,1972	-6953
,1974	-6954
__	-6955
艹韦	-6956
75⿱	-6957
gbt	-6958
▁5⿱	-6959
日大手	-6960
05	-6961
eath	-6962
long	-6963
word	-6964
▁cup	-6965
▁his	-6966
amily	-6967
class	-6968
、⿰⿱⿴	-6969
▁party	-6970
,1961	-6971
,1966	-6972
mozilla	-6973
ui	-6974
45⿱	-6975
85⿻	-6976
:10	-6977
_2⿱	-6978
arr	-6979
bug	-6980
▁ep	-6981
豸艮心	-6982
1889	-6983
home	-6984
omen	-6985
thur	-6986
▁120	-6987
▁line	-6988
,10⿱	-6989
」、「⿻	-6990
88⿻	-6991
arc	-6992
fic	-6993
gps	-6994
▁af	-6995
1934	-6996
uble	-6997
1894	-6998
central	-6999
sb	-7000
火山	-7001
uck	-7002
1978	-7003
atic	-7004
iter	-7005
pier	-7006
untu	-7007
▁cra	-7008
▁iso	-7009
221	-7010
“⿳𭕄	-7011
8⿰⿱⿱	-7012
▁good	-7013
ington	-7014
、3	-7015
《⿻	-7016
77⿻	-7017
kel	-7018
▁tr	-7019
▁sta	-7020
▁sum	-7021
111	-7022
3⿱⿰	-7023
——⿻	-7024
▁1884	-7025
▁1885	-7026
▁1890	-7027
▁bank	-7028
15⿱⿱	-7029
hc	-7030
rx	-7031
一夕	-7032
_22	-7033
lum	-7034
set	-7035
tan	-7036
▁00	-7037
"⿺	-7038
"⿻	-7039
1890	-7040
1906	-7041
▁has	-7042
74⿱	-7043
𠂊田灬刂	-7044
▁york	-7045
1875	-7046
夂月	-7047
王民	-7048
27⿻	-7049
32⿻	-7050
75⿻	-7051
rap	-7052
1907	-7053
1933	-7054
1940	-7055
▁aut	-7056
175	-7057
270	-7058
▁jour	-7059
1830	-7060
2,⿰	-7061
▁iv	-7062
▁ko	-7063
㇇⿵	-7064
立十子	-7065
200⿰	-7066
▁div	-7067
▁nat	-7068
▁two	-7069
121	-7070
73⿱	-7071
comic	-7072
1892	-7073
▁point	-7074
":	-7075
uh	-7076
vc	-7077
xi	-7078
▁·	-7079
艹我	-7080
,⿵⿰	-7081
89⿻	-7082
aya	-7083
mvp	-7084
▁」⿸	-7085
1983	-7086
news	-7087
"⿱⿱	-7088
,1⿰	-7089
124	-7090
cross	-7091
3⿰⿱⿱	-7092
》、《⿴	-7093
visual	-7094
200⿱⿱	-7095
尸比	-7096
扌龙	-7097
门心	-7098
330	-7099
_23	-7100
kir	-7101
ved	-7102
8、⿱	-7103
,⿱⿸	-7104
84⿱	-7105
、⿱⿺	-7106
《⿵⿵	-7107
》⿸⿸	-7108
:⿰⿱⿱	-7109
▁model	-7110
▁video	-7111
,1935	-7112
,1977	-7113
▁council	-7114
弓也	-7115
39⿻	-7116
46⿰	-7117
47⿰	-7118
_3⿱	-7119
but	-7120
cnn	-7121
nie	-7122
she	-7123
uld	-7124
anth	-7125
▁170	-7126
650	-7127
media	-7128
▁found	-7129
8665⿶⿳⿰	-7130
6⿸	-7131
工口	-7132
木乐	-7133
木由	-7134
190	-7135
2%。	-7136
bol	-7137
ske	-7138
1。	-7139
300⿱	-7140
seum	-7141
test	-7142
▁10⿱	-7143
▁est	-7144
▁hol	-7145
▁dire	-7146
▁hong	-7147
▁paul	-7148
1876	-7149
ubuntu	-7150
,1965	-7151
,1973	-7152
▁awards	-7153
▁》	-7154
4,⿱	-7155
47⿻	-7156
4⿱⿱	-7157
aka	-7158
ips	-7159
mol	-7160
ohc	-7161
5⿻	-7162
dian	-7163
mond	-7164
wiki	-7165
▁now	-7166
▁win	-7167
、“⿰⿱	-7168
",⿰	-7169
122	-7170
55⿰	-7171
1873	-7172
、⿱⿵⿵	-7173
▁david	-7174
,1947	-7175
dk	-7176
lr	-7177
女疌	-7178
34⿻	-7179
66⿰	-7180
jun	-7181
may	-7182
peg	-7183
厶口火	-7184
:1	-7185
、「	-7186
1930	-7187
esis	-7188
roll	-7189
stin	-7190
1⿱⿰	-7191
87⿱	-7192
“⿻㇀	-7193
green	-7194
▁phone	-7195
,1957	-7196
2000⿰	-7197
5°	-7198
vs	-7199
▁肉	-7200
35⿰	-7201
pel	-7202
」「	-7203
east	-7204
1⿰⿰	-7205
4⿱⿰	-7206
:,⿱	-7207
“⿹⿶	-7208
《⿰⿹	-7209
」、⿱	-7210
▁1870	-7211
▁chin	-7212
,⿰⿳⿱	-7213
,1954	-7214
:1	-7215
扌八	-7216
45⿻	-7217
ili	-7218
umb	-7219
《⿷	-7220
1908	-7221
stan	-7222
yond	-7223
▁pal	-7224
▁《⿱⿳	-7225
》、《⿰	-7226
71⿱	-7227
elect	-7228
▁work	-7229
》、《⿳	-7230
8000⿱	-7231
rf	-7232
方土	-7233
320	-7234
70⿱	-7235
how	-7236
lus	-7237
、「⿰	-7238
二丨心	-7239
方方土	-7240
1886	-7241
anga	-7242
▁ham	-7243
⿱⿰⿱⿱	-7244
㇇⿺⿱	-7245
「」⿱	-7246
𠂊田灬兆	-7247
▁light	-7248
7000⿱	-7249
80⿰	-7250
82⿻	-7251
wel	-7252
火火木	-7253
1955	-7254
anda	-7255
ipad	-7256
tvbs	-7257
▁cal	-7258
77⿱	-7259
82⿱	-7260
flash	-7261
▁1860	-7262
⿺⿱⿻⿻	-7263
《》,⿱	-7264
▁force	-7265
,1940	-7266
,1963	-7267
▁design	-7268
·⿸	-7269
扌斗	-7270
13⿻	-7271
34⿰	-7272
37⿻	-7273
iko	-7274
ott	-7275
凵丨皮	-7276
cube	-7277
tual	-7278
1,2	-7279
▁1893	-7280
240⿱	-7281
2500	-7282
change	-7283
▁which	-7284
,1930	-7285
▁mobile	-7286
忄冘	-7287
24⿱	-7288
sey	-7289
sol	-7290
▁77	-7291
3⿺	-7292
1883	-7293
1905	-7294
,⿻⿻	-7295
43⿰	-7296
83⿱	-7297
cture	-7298
royal	-7299
▁gold	-7300
▁south	-7301
0%	-7302
fly	-7303
ior	-7304
mba	-7305
「⿲	-7306
1931	-7307
1941	-7308
bell	-7309
fess	-7310
uber	-7311
▁125	-7312
▁men	-7313
340	-7314
:《⿱	-7315
china	-7316
▁know	-7317
66⿶⿳⿰	-7318
▁elect	-7319
4,000	-7320
oe	-7321
ox	-7322
酉干	-7323
105	-7324
cro	-7325
dal	-7326
oug	-7327
sup	-7328
▁!!	-7329
贝贝缶	-7330
1971	-7331
1975	-7332
jump	-7333
217	-7334
:⿺⿱	-7335
、1⿰	-7336
▁1880	-7337
▁more	-7338
1882	-7339
victor	-7340
ras	-7341
ted	-7342
wer	-7343
▁87	-7344
刀丿止	-7345
1919	-7346
1932	-7347
down	-7348
▁mil	-7349
▁tem	-7350
1863	-7351
1881	-7352
1891	-7353
6/	-7354
uv	-7355
木王	-7356
37⿰	-7357
87⿻	-7358
ams	-7359
幺幺土	-7360
04	-7361
:<	-7362
enne	-7363
eter	-7364
iger	-7365
lgbt	-7366
lish	-7367
,6⿱	-7368
137	-7369
」⿰⿸	-7370
,000。	-7371
first	-7372
1877	-7373
1,800	-7374
ucation	-7375
『⿱	-7376
88⿰	-7377
bum	-7378
law	-7379
ois	-7380
php	-7381
日一頁	-7382
08	-7383
8,⿰	-7384
gran	-7385
life	-7386
▁tai	-7387
、15	-7388
hello	-7389
works	-7390
▁heart	-7391
,1962	-7392
23⿱	-7393
3%⿰	-7394
42⿻	-7395
43⿻	-7396
asp	-7397
nar	-7398
▁85	-7399
▁ve	-7400
▁hor	-7401
,“⿺	-7402
47⿰	-7403
louis	-7404
▁film	-7405
」、「⿱⿱	-7406
山及	-7407
幺小	-7408
氵耳	-7409
56⿻	-7410
bis	-7411
cam	-7412
cts	-7413
mur	-7414
sin	-7415
人示田	-7416
hong	-7417
▁bay	-7418
▁mot	-7419
60⿸	-7420
point	-7421
1859	-7422
25⿱⿱	-7423
40⿱⿱	-7424
:“⿱⿰	-7425
▁produ	-7426
,1941	-7427
,1971	-7428
vr	-7429
讠且	-7430
"⿱⿱	-7431
45⿰	-7432
_4⿰	-7433
pac	-7434
▁na	-7435
1943	-7436
1977	-7437
5⿱⿰⿱	-7438
ieee	-7439
ques	-7440
stro	-7441
▁dig	-7442
▁gar	-7443
▁red	-7444
▁tom	-7445
50%	-7446
white	-7447
▁pres	-7448
,⿳⿱⿻	-7449
80%⿰	-7450
▁dream	-7451
▁width	-7452
;}	-7453
vy	-7454
王久	-7455
6%。	-7456
60⿻	-7457
8⿱⿱	-7458
9%⿰	-7459
ddr	-7460
iti	-7461
put	-7462
▁1,	-7463
▁⿺⿻	-7464
▁」⿺	-7465
、18	-7466
1938	-7467
▁150	-7468
▁bet	-7469
▁nba	-7470
▁ram	-7471
㇇⿰⿸	-7472
,⿺⿵	-7473
11,	-7474
▁asia	-7475
1812	-7476
1866	-7477
90%⿰	-7478
亻非	-7479
65⿻	-7480
_28	-7481
shi	-7482
tho	-7483
▁“⿸	-7484
𠂉大聿	-7485
1929	-7486
:⿰⿱⿱	-7487
good	-7488
▁how	-7489
习习隹戈	-7490
,《⿸	-7491
12,	-7492
conom	-7493
ellow	-7494
ities	-7495
johan	-7496
1878	-7497
8661⿷	-7498
」,⿶⿳⿰	-7499
fn	-7500
tg	-7501
38⿻	-7502
52⿻	-7503
81⿻	-7504
▁ap	-7505
8⿱⿻	-7506
deon	-7507
rent	-7508
▁149	-7509
▁mid	-7510
45⿸	-7511
86⿱	-7512
、⿱⿵	-7513
》,⿴	-7514
ative	-7515
,185	-7516
1857	-7517
18⿰⿱	-7518
online	-7519
,1969	-7520
▁festival	-7521
▁development	-7522
hl	-7523
vf	-7524
、2	-7525
4%。	-7526
49⿻	-7527
73⿻	-7528
kat	-7529
pon	-7530
▁7⿱	-7531
丿士贝	-7532
1972	-7533
138	-7534
19⿸	-7535
craft	-7536
▁code	-7537
▁home	-7538
▁acade	-7539
,1967	-7540
8661,⿰⿱	-7541
lication	-7542
▁edition	-7543
44⿻	-7544
54⿻	-7545
62⿻	-7546
6⿱⿱	-7547
fal	-7548
」⿱⿱	-7549
1973	-7550
beta	-7551
list	-7552
pend	-7553
14,	-7554
5·⿰⿱	-7555
young	-7556
▁1861	-7557
▁alex	-7558
▁aust	-7559
20%⿰	-7560
▁centre	-7561
+⿰	-7562
hn	-7563
uc	-7564
扌夬	-7565
bob	-7566
gpl	-7567
jet	-7568
ody	-7569
《⿲	-7570
1892	-7571
1918	-7572
ines	-7573
▁bor	-7574
丷干丸手	-7575
ealth	-7576
16⿰⿱	-7577
edward	-7578
▁brown	-7579
▁number	-7580
耳𠃊	-7581
艹耳	-7582
金川	-7583
/12	-7584
▁28	-7585
▁、⿱	-7586
illy	-7587
▁139	-7588
▁ger	-7589
》⿵⿵	-7590
vices	-7591
▁phil	-7592
▁stor	-7593
▁build	-7594
▁sound	-7595
▁white	-7596
8661⿱⿶⿳⿰	-7597
107	-7598
10⿻	-7599
170	-7600
8%。	-7601
pdf	-7602
ska	-7603
1968	-7604
1969	-7605
bang	-7606
prin	-7607
▁def	-7608
▁who	-7609
216	-7610
54⿰	-7611
94⿱	-7612
adobe	-7613
▁hold	-7614
▁rail	-7615
▁real	-7616
1883	-7617
general	-7618
fx	-7619
▁牙	-7620
疒且	-7621
%,⿸	-7622
10。	-7623
32⿰	-7624
aim	-7625
dle	-7626
ped	-7627
"⿹	-7628
𠂊口比	-7629
0⿰⿹	-7630
1967	-7631
baby	-7632
▁fre	-7633
▁mas	-7634
刀丿丶米	-7635
159	-7636
“⿰⿳	-7637
10⿱⿰⿱	-7638
▁1887	-7639
、⿰⿳⿱	-7640
system	-7641
▁frame	-7642
2,000⿱	-7643
3,000⿱	-7644
、5	-7645
子子	-7646
石见	-7647
84⿰	-7648
jos	-7649
lim	-7650
nic	-7651
ror	-7652
1877	-7653
1917	-7654
:⿱⿱⿱	-7655
vern	-7656
▁127	-7657
▁glo	-7658
▁hop	-7659
▁tru	-7660
▁tele	-7661
▁systems	-7662
▁champion	-7663
▁management	-7664
vl	-7665
55⿻	-7666
="3	-7667
caa	-7668
ely	-7669
iga	-7670
《⿱⿱	-7671
甲一斤	-7672
、8	-7673
1964	-7674
ense	-7675
▁mak	-7676
▁《⿺⿱	-7677
179	-7678
「⿻㇀	-7679
46⿱⿰	-7680
unday	-7681
,15⿱	-7682
1841	-7683
70%⿰	-7684
》,⿵⿵	-7685
8661⿱⿱⿻	-7686
▁district	-7687
bw	-7688
oz	-7689
亻里	-7690
220	-7691
brt	-7692
mix	-7693
tam	-7694
▁8⿰	-7695
||	-7696
itan	-7697
miss	-7698
▁sky	-7699
▁」⿱⿱	-7700
▁1886	-7701
▁intel	-7702
金白	-7703
1%。	-7704
280	-7705
41⿻	-7706
63⿻	-7707
68⿻	-7708
94⿻	-7709
jar	-7710
mis	-7711
ona	-7712
rus	-7713
』、	-7714
1942	-7715
dohc	-7716
ites	-7717
ogra	-7718
▁gal	-7719
▁var	-7720
人人龰耳	-7721
,2⿰	-7722
202	-7723
thern	-7724
ultra	-7725
▁green	-7726
,1936	-7727
女予	-7728
36⿱	-7729
mig	-7730
who	-7731
木木女	-7732
1880	-7733
anti	-7734
isbn	-7735
,「⿸	-7736
246	-7737
370	-7738
4⿰⿰	-7739
chris	-7740
,1920	-7741
8661⿰⿰	-7742
王申	-7743
67⿻	-7744
76⿻	-7745
_27	-7746
lab	-7747
raw	-7748
rum	-7749
▁op	-7750
勹口灬	-7751
“⿷	-7752
1976	-7753
▁dav	-7754
▁god	-7755
,「⿻	-7756
139	-7757
165	-7758
2,4	-7759
29⿸	-7760
、20	-7761
▁1888	-7762
▁arts	-7763
▁union	-7764
project	-7765
;⿺	-7766
5,⿱	-7767
50⿻	-7768
9%。	-7769
1⿺	-7770
1956	-7771
▁14⿱	-7772
▁sin	-7773
》⿰⿱⿱	-7774
21⿸	-7775
『⿰⿱	-7776
▁type	-7777
11⿱⿱	-7778
1858	-7779
220⿱	-7780
450⿱	-7781
▁online	-7782
billboard	-7783
白田	-7784
3%。	-7785
55⿰	-7786
7%。	-7787
72⿻	-7788
_4⿱	-7789
abb	-7790
cum	-7791
kde	-7792
sci	-7793
1944	-7794
rain	-7795
▁tal	-7796
、“⿱⿱	-7797
134	-7798
277	-7799
、18	-7800
▁down	-7801
public	-7802
▁align	-7803
,1939	-7804
,1942	-7805
由月	-7806
106	-7807
64⿻	-7808
7%⿰	-7809
89⿰	-7810
dam	-7811
dol	-7812
has	-7813
ika	-7814
sars	-7815
▁pen	-7816
162	-7817
2,5	-7818
23⿸	-7819
28⿸	-7820
]]⿱	-7821
1852	-7822
issement	-7823
▁control	-7824
▁football	-7825
lv	-7826
tf	-7827
61⿻	-7828
64⿰	-7829
_24	-7830
alo	-7831
eva	-7832
igo	-7833
、“⿸	-7834
+⿰	-7835
</	-7836
1916	-7837
1925	-7838
1952	-7839
,3⿰	-7840
,7⿱	-7841
:⿱⿳	-7842
5⿱⿰⿸	-7843
66⿺⿱	-7844
ering	-7845
steve	-7846
▁blue	-7847
▁wind	-7848
40%⿰	-7849
」、「⿸	-7850
philip	-7851
,1944	-7852
qs	-7853
疒久	-7854
阝千	-7855
革末	-7856
901	-7857
_21	-7858
hon	-7859
iec	-7860
▁8⿱	-7861
8,⿱	-7862
elli	-7863
ious	-7864
206	-7865
777	-7866
92⿱	-7867
;⿱⿻	-7868
scott	-7869
▁stud	-7870
,12⿱	-7871
1300	-7872
6000	-7873
;⿶⿳⿰	-7874
」,⿵⿵	-7875
▁language	-7876
▁education	-7877
2%⿰	-7878
8⿷	-7879
95⿻	-7880
dun	-7881
htc	-7882
vas	-7883
▁6⿱	-7884
0⿱⿰	-7885
4⿱⿰⿱	-7886
jeff	-7887
▁cur	-7888
149	-7889
323	-7890
astro	-7891
、⿱⿰⿴	-7892
andrew	-7893
arrond	-7894
logical	-7895
▁microsoft	-7896
'⿰	-7897
xe	-7898
yl	-7899
冖水	-7900
目来	-7901
言非	-7902
/11	-7903
8,⿱	-7904
_26	-7905
bul	-7906
1924	-7907
bian	-7908
cell	-7909
cing	-7910
icle	-7911
lord	-7912
mike	-7913
▁cir	-7914
13,	-7915
147	-7916
89⿱	-7917
、2⿰	-7918
▁gran	-7919
230⿱	-7920
▁museum	-7921
javascript	-7922
22⿱	-7923
4%⿰	-7924
6%⿰	-7925
74⿻	-7926
fbi	-7927
nia	-7928
▁ke	-7929
、15	-7930
匚儿戈	-7931
2⿺	-7932
1904	-7933
loid	-7934
▁140	-7935
▁bal	-7936
▁blo	-7937
、⿱⿱⿱	-7938
156	-7939
24⿸	-7940
unter	-7941
▁color	-7942
500⿱⿱	-7943
8661⿵⿵	-7944
osaurus	-7945
arrondissement	-7946
2⿺	-7947
pd	-7948
工阝	-7949
71⿻	-7950
lig	-7951
tcp	-7952
wis	-7953
、16	-7954
木木米	-7955
1876	-7956
club	-7957
last	-7958
▁pas	-7959
▁“⿰⿱	-7960
,「⿺	-7961
51⿰	-7962
、13	-7963
▁1891	-7964
20⿻	-7965
30⿻	-7966
58⿻	-7967
59⿻	-7968
els	-7969
fed	-7970
ias	-7971
irt	-7972
zip	-7973
▁“⿻	-7974
⿰⿱⿴	-7975
1963	-7976
1974	-7977
bout	-7978
plan	-7979
380	-7980
“⿰⿰	-7981
,16⿱	-7982
105⿱	-7983
1854	-7984
30⿰⿱	-7985
united	-7986
5,000	-7987
▁production	-7988
!⿰	-7989
rb	-7990
51⿻	-7991
nis	-7992
禾几页	-7993
pean	-7994
ular	-7995
▁123	-7996
▁und	-7997
2,6	-7998
26⿸	-7999
49⿰	-8000
56⿰	-8001
“⿲㇇	-8002
bourg	-8003
onder	-8004
south	-8005
▁cell	-8006
」,⿱⿰	-8007
martin	-8008
;⿻	-8009
ij	-8010
文糸	-8011
,16	-8012
ade	-8013
cad	-8014
hop	-8015
⿳⿱⿻	-8016
、⿱⿳	-8017
file	-8018
step	-8019
▁box	-8020
325	-8021
、⿱⿸	-8022
arden	-8023
stone	-8024
▁1848	-8025
2021	-8026
250⿰	-8027
8960⿸⿸	-8028
▁market	-8029
kv	-8030
1%⿰	-8031
53⿻	-8032
:⿱⿻	-8033
tes	-8034
two	-8035
,⿱⿰⿱	-8036
1897	-8037
demo	-8038
ider	-8039
what	-8040
▁equ	-8041
冂二目力	-8042
10%	-8043
219	-8044
、11	-8045
▁moon	-8046
1846	-8047
600⿰	-8048
▁train	-8049
zu	-8050
8%⿰	-8051
▁cm	-8052
ncaa	-8053
▁156	-8054
▁clo	-8055
▁gam	-8056
▁ign	-8057
𠂊冫寸大	-8058
5⿱⿰⿱	-8059
agram	-8060
river	-8061
▁band	-8062
1400	-8063
60%⿰	-8064
python	-8065
▁press	-8066
,1927	-8067
口頁	-8068
大力	-8069
,12	-8070
55⿱	-8071
78⿻	-8072
fil	-8073
osp	-8074
1871	-8075
muel	-8076
▁tro	-8077
310	-8078
79⿱	-8079
90⿸	-8080
911	-8081
、⿲⿱	-8082
games	-8083
stand	-8084
steam	-8085
▁1863	-8086
▁data	-8087
1856	-8088
21⿰⿱	-8089
▁people	-8090
▁general	-8091
彳弗	-8092
0⿴	-8093
79⿻	-8094
92⿻	-8095
gun	-8096
ipv	-8097
、⿺⿱	-8098
車斤土	-8099
mpeg	-8100
onic	-8101
▁145	-8102
▁run	-8103
▁「⿱⿱	-8104
「⿰⿻	-8105
width	-8106
▁1868	-8107
▁james	-8108
▁american	-8109
kk	-8110
木斥	-8111
02⿻	-8112
0⿰⿱	-8113
99⿻	-8114
acy	-8115
ced	-8116
css	-8117
hbo	-8118
▁89	-8119
▁fu	-8120
禾儿頁	-8121
,,	-8122
5⿸⿸	-8123
8⿰⿸	-8124
body	-8125
stor	-8126
▁cho	-8127
▁kar	-8128
▁sig	-8129
▁str	-8130
136	-8131
154	-8132
、6⿱	-8133
prise	-8134
101⿱	-8135
1851	-8136
30%⿰	-8137
《⿱⿵⿱	-8138
,1933	-8139
100%⿰	-8140
1300⿱	-8141
8661⿺⿱	-8142
1:	-8143
mn	-8144
04⿻	-8145
_25	-8146
chy	-8147
cur	-8148
ghz	-8149
rix	-8150
sto	-8151
vit	-8152
▁!⿻	-8153
▁84	-8154
▁ru	-8155
",	-8156
inte	-8157
pala	-8158
▁die	-8159
▁mad	-8160
▁mel	-8161
亠口小页	-8162
75⿰	-8163
⿰⿱⿵	-8164
》⿰⿰	-8165
𠂊田一非	-8166
inger	-8167
▁1862	-8168
▁mode	-8169
▁vers	-8170
1855	-8171
1⿱⿰⿱	-8172
geforce	-8173
▁united	-8174
▁{	-8175
钅白	-8176
38⿰	-8177
57⿻	-8178
bby	-8179
kyo	-8180
▁br	-8181
▁ip	-8182
▁sm	-8183
▁ur	-8184
5⿺	-8185
6⿻	-8186
1922	-8187
1966	-8188
bach	-8189
46⿸⿸	-8190
chine	-8191
▁east	-8192
▁like	-8193
,「⿱⿱	-8194
▁information	-8195
▁豆	-8196
木石	-8197
疒巴	-8198
211	-8199
_30	-8200
rip	-8201
sus	-8202
▁ka	-8203
扌丸手	-8204
2020	-8205
appy	-8206
▁bon	-8207
▁den	-8208
205	-8209
335	-8210
96⿱	-8211
:⿸⿸	-8212
」⿱⿻	-8213
fried	-8214
2022	-8215
action	-8216
beyond	-8217
▁https	-8218
▁works	-8219
1,300	-8220
46⿷	-8221
aby	-8222
eme	-8223
iro	-8224
vey	-8225
▁ev	-8226
1901	-8227
1953	-8228
5、⿱	-8229
bank	-8230
fifa	-8231
gang	-8232
head	-8233
helm	-8234
imax	-8235
▁16⿱	-8236
▁pan	-8237
143	-8238
187	-8239
203	-8240
:⿰⿸	-8241
georg	-8242
uture	-8243
50⿰⿱	-8244
,1929	-8245
,1964	-8246
▁martin	-8247
5,000⿱	-8248
8665⿱⿵⿵	-8249
▁journal	-8250
▁special	-8251
▁末	-8252
钅重	-8253
:⿱⿳	-8254
neo	-8255
tag	-8256
tex	-8257
、[[	-8258
人人耳	-8259
1959	-8260
itor	-8261
▁fac	-8262
▁pie	-8263
▁see	-8264
糸言糸山	-8265
5%⿰	-8266
93⿱	-8267
、⿻⿻	-8268
level	-8269
▁1866	-8270
▁base	-8271
,18⿱	-8272
4⿰⿱⿱	-8273
little	-8274
▁dance	-8275
,1943	-8276
1000⿱⿱	-8277
▁advance	-8278
▁process	-8279
rp	-8280
于皿	-8281
_29	-8282
_5⿰	-8283
cli	-8284
fel	-8285
fra	-8286
loy	-8287
nex	-8288
tin	-8289
▁⿲⿱	-8290
夂口隹	-8291
1965	-8292
cole	-8293
ping	-8294
90%	-8295
▁1879	-8296
▁1881	-8297
▁1892	-8298
▁indu	-8299
1849	-8300
▁under	-8301
,1928	-8302
▁america	-8303
production	-8304
/9	-8305
{	-8306
03⿻	-8307
32⿱	-8308
nfl	-8309
rad	-8310
tic	-8311
1644	-8312
ides	-8313
rian	-8314
soci	-8315
stal	-8316
58⿰	-8317
72⿰	-8318
▁disc	-8319
▁pass	-8320
▁organ	-8321
▁right	-8322
▁saint	-8323
1,600	-8324
王耳	-8325
舟方	-8326
05⿻	-8327
28⿱	-8328
96⿻	-8329
iel	-8330
ole	-8331
ote	-8332
▁33	-8333
▁「⿸	-8334
、12	-8335
、17	-8336
小丿女	-8337
ants	-8338
next	-8339
shin	-8340
▁157	-8341
▁nav	-8342
/⿱⿰	-8343
157	-8344
169	-8345
53⿰	-8346
;⿱⿳	-8347
brary	-8348
1815	-8349
▁drive	-8350
;⿹	-8351
mf	-8352
、4	-8353
辶十	-8354
𭕄⿻	-8355
,15	-8356
,⿵⿱	-8357
,《⿰	-8358
77⿰	-8359
aaa	-8360
mph	-8361
▁86	-8362
▁fm	-8363
匚儿斗	-8364
口夫欠	-8365
1958	-8366
arts	-8367
168	-8368
207	-8369
ision	-8370
water	-8371
yahoo	-8372
▁1864	-8373
▁moun	-8374
▁only	-8375
,⿰⿱⿺	-8376
,《⿱⿰	-8377
daniel	-8378
▁north	-8379
firefox	-8380
8661⿱⿰⿱⿱	-8381
alexander	-8382
▁services	-8383
▁耳	-8384
26⿱	-8385
boy	-8386
gaz	-8387
len	-8388
rib	-8389
wta	-8390
▁83	-8391
十罒心	-8392
come	-8393
ease	-8394
self	-8395
▁big	-8396
糸言糸木	-8397
198	-8398
place	-8399
▁mont	-8400
▁great	-8401
▁story	-8402
▁gundam	-8403
8661⿰⿳⿱	-8404
▁williams	-8405
/4	-8406
jy	-8407
lp	-8408
一虫	-8409
97⿻	-8410
cht	-8411
esa	-8412
▁ob	-8413
幺大谷	-8414
立日欠	-8415
1923	-8416
oper	-8417
▁mal	-8418
▁tor	-8419
、、、、	-8420
凵丨一虫	-8421
𠂊田灬非	-8422
,500⿱	-8423
berry	-8424
▁1865	-8425
socket	-8426
,1925	-8427
8661⿳⿱	-8428
christian	-8429
亻羊	-8430
来贝	-8431
cba	-8432
joe	-8433
nov	-8434
{⿰⿻	-8435
||1	-8436
▁32	-8437
▁nt	-8438
4⿺	-8439
1961	-8440
anne	-8441
gala	-8442
▁had	-8443
0⿱⿱	-8444
420	-8445
66、⿱	-8446
ments	-8447
▁cast	-8448
▁mini	-8449
1820	-8450
,1951	-8451
stephen	-8452
▁academy	-8453
▁function	-8454
vv	-8455
豸里	-8456
/08	-8457
69⿻	-8458
elf	-8459
hip	-8460
vet	-8461
▁《⿹	-8462
1926	-8463
shan	-8464
voca	-8465
▁cer	-8466
,30	-8467
132	-8468
27⿸	-8469
anger	-8470
enger	-8471
1844	-8472
,1912	-8473
,1934	-8474
lection	-8475
pentium	-8476
▁series	-8477
oc	-8478
朱阝	-8479
谷阝	-8480
0⿷	-8481
aro	-8482
hiv	-8483
pci	-8484
镸彡毛	-8485
1862	-8486
1915	-8487
cdma	-8488
sent	-8489
▁pra	-8490
,,⿰	-8491
365	-8492
480	-8493
50⿵	-8494
ament	-8495
▁1882	-8496
60⿱⿱	-8497
▁cross	-8498
8661,⿸	-8499
channel	-8500
▁econom	-8501
▁little	-8502
8665⿱⿰⿳	-8503
wn	-8504
“⿸	-8505
巾隹	-8506
40⿻	-8507
618	-8508
90⿱	-8509
acs	-8510
gol	-8511
kam	-8512
▁ab	-8513
1954	-8514
cker	-8515
mega	-8516
266	-8517
▁1878	-8518
▁just	-8519
125⿱	-8520
1600⿱	-8521
3000⿰	-8522
tx	-8523
▁乡	-8524
疒豆	-8525
讠牙	-8526
钅巴	-8527
/09	-8528
103	-8529
8⿹	-8530
aki	-8531
bow	-8532
gla	-8533
lah	-8534
oda	-8535
psy	-8536
say	-8537
▁ja	-8538
▁sn	-8539
▁「⿻	-8540
口龶见	-8541
艹冖虫	-8542
""	-8543
flow	-8544
167	-8545
315	-8546
65⿰	-8547
91⿱	-8548
anton	-8549
ility	-8550
opher	-8551
▁1867	-8552
▁brit	-8553
▁hand	-8554
▁port	-8555
▁were	-8556
eleven	-8557
ential	-8558
themat	-8559
▁prote	-8560
▁chinese	-8561
1⿹	-8562
12。	-8563
758	-8564
91⿻	-8565
nad	-8566
usa	-8567
——⿱	-8568
▁7⿰	-8569
▁mg	-8570
⿱⿰⿸	-8571
300⿰	-8572
500⿰	-8573
fect	-8574
gate	-8575
pass	-8576
▁146	-8577
人一口页	-8578
153	-8579
5⿰⿰	-8580
“⿰⿹	-8581
》,《	-8582
▁1850	-8583
▁1872	-8584
▁1874	-8585
19⿰⿱	-8586
7000	-8587
pierre	-8588
▁space	-8589
,1931	-8590
300⿱⿱	-8591
▁states	-8592
operation	-8593
▁framework	-8594
xm	-8595
口自	-8596
102	-8597
ats	-8598
hea	-8599
iet	-8600
olo	-8601
、20	-8602
未攵厂	-8603
03	-8604
𠂇巾阝	-8605
1951	-8606
46⿹	-8607
heim	-8608
kins	-8609
ware	-8610
zero	-8611
▁fol	-8612
,25	-8613
178	-8614
204	-8615
80%	-8616
▁1883	-8617
1400⿱	-8618
▁theory	-8619
虫冉	-8620
金甘	-8621
01⿻	-8622
06⿻	-8623
125	-8624
bru	-8625
got	-8626
std	-8627
tus	-8628
▁,⿺	-8629
▁36	-8630
▁ly	-8631
▁⿱⿸	-8632
八刀木	-8633
0:	-8634
」⿳	-8635
="3"	-8636
dark	-8637
rest	-8638
▁115	-8639
▁hea	-8640
▁“⿱⿱	-8641
256	-8642
▁1876	-8643
▁post	-8644
土儿土丸𧘇	-8645
1842	-8646
1853	-8647
▁court	-8648
iconico	-8649
▁public	-8650
▁second	-8651
7/	-8652
gw	-8653
mh	-8654
tb	-8655
49⿰	-8656
93⿻	-8657
:50	-8658
fol	-8659
ils	-8660
kal	-8661
kim	-8662
▁nu	-8663
、14	-8664
carl	-8665
lady	-8666
leon	-8667
nick	-8668
▁far	-8669
》、《⿱	-8670
158	-8671
164	-8672
285	-8673
32,	-8674
720	-8675
99⿱	-8676
》,⿹	-8677
andra	-8678
worth	-8679
▁isbn	-8680
▁pack	-8681
,14⿱	-8682
▁taiwan	-8683
▁michael	-8684
阝止	-8685
7,⿱	-8686
80⿻	-8687
98⿻	-8688
rfc	-8689
vor	-8690
abri	-8691
asia	-8692
atus	-8693
cosp	-8694
▁182	-8695
▁ban	-8696
▁dol	-8697
▁vie	-8698
176	-8699
——⿹	-8700
ascii	-8701
front	-8702
video	-8703
、10⿱	-8704
+2	-8705
1]	-8706
:⿴	-8707
冂丨	-8708
日卯	-8709
11,	-8710
33⿱	-8711
9,⿱	-8712
_6⿰	-8713
jay	-8714
kes	-8715
uts	-8716
1⿲	-8717
8⿻	-8718
,⿱⿵⿱	-8719
1600	-8720
1957	-8721
brit	-8722
host	-8723
this	-8724
12⿻	-8725
314	-8726
35⿸	-8727
66,⿸	-8728
great	-8729
▁360⿰	-8730
▁beat	-8731
▁last	-8732
▁test	-8733
13⿱⿱	-8734
1789	-8735
1843	-8736
1,100	-8737
▁social	-8738
▁thomas	-8739
▁richard	-8740
▁building	-8741
▁foundation	-8742
dn	-8743
°。	-8744
亚土	-8745
爫见	-8746
缶本	-8747
讠非	-8748
𠂆万	-8749
="2	-8750
bir	-8751
bmw	-8752
isp	-8753
rim	-8754
▁35	-8755
𠘧又心	-8756
1962	-8757
adam	-8758
ango	-8759
auto	-8760
lake	-8761
▁sem	-8762
!」。	-8763
142	-8764
2,7	-8765
209	-8766
225	-8767
98⿱	-8768
46⿱⿱	-8769
radio	-8770
usion	-8771
▁clar	-8772
▁days	-8773
102⿱	-8774
1814	-8775
8960⿵	-8776
intosh	-8777
▁grand	-8778
▁maria	-8779
▁player	-8780
▁jackson	-8781
%;⿱	-8782
:35	-8783
_31	-8784
_5⿱	-8785
hit	-8786
sla	-8787
▁2,	-8788
▁45	-8789
▁kw	-8790
▁wa	-8791
月月刂	-8792
3000	-8793
6⿱⿰⿱	-8794
fied	-8795
juli	-8796
mage	-8797
more	-8798
sten	-8799
▁360	-8800
,8⿱	-8801
288	-8802
:“⿴	-8803
0⿱⿱⿱	-8804
▁face	-8805
1700	-8806
1845	-8807
190⿱	-8808
ration	-8809
vement	-8810
▁touch	-8811
,1932	-8812
10,000	-8813
ih	-8814
kr	-8815
mx	-8816
34⿱	-8817
></	-8818
blu	-8819
、13	-8820
!》	-8821
3⿵	-8822
ears	-8823
greg	-8824
▁126	-8825
15⿻	-8826
16:	-8827
312	-8828
、14	-8829
《⿰⿰	-8830
「⿰⿷	-8831
amber	-8832
1792	-8833
280⿱	-8834
「⿶⿳⿰	-8835
200⿱⿰⿱	-8836
script	-8837
▁album	-8838
▁final	-8839
▁there	-8840
8665⿵⿱	-8841
▁channel	-8842
cz	-8843
cca	-8844
、「⿱	-8845
丿大山	-8846
乡隹瓦	-8847
6⿺	-8848
7⿻	-8849
1921	-8850
reis	-8851
▁hal	-8852
▁mmc	-8853
▁sam	-8854
▁tol	-8855
㇇、⿱	-8856
火火冖火	-8857
,9⿱	-8858
15,	-8859
2,9	-8860
》:「	-8861
block	-8862
▁they	-8863
360⿱	-8864
antasy	-8865
global	-8866
▁earth	-8867
,1918	-8868
1500⿰	-8869
8661「⿰	-8870
▁square	-8871
▁stadium	-8872
instagram	-8873
1⿺	-8874
目疌	-8875
石木	-8876
辶入	-8877
/13	-8878
09⿻	-8879
0、	-8880
aps	-8881
nay	-8882
rot	-8883
▁ut	-8884
▁wo	-8885
人人艮	-8886
5⿺⿱	-8887
hist	-8888
ione	-8889
ways	-8890
345	-8891
97⿱	-8892
abeth	-8893
alpha	-8894
inder	-8895
venue	-8896
▁1873	-8897
▁mill	-8898
1836	-8899
260⿱	-8900
source	-8901
▁stage	-8902
rn	-8903
yg	-8904
⿺⿻	-8905
』⿱	-8906
%,⿻	-8907
10,	-8908
999	-8909
aba	-8910
chu	-8911
▁fe	-8912
口木火	-8913
flor	-8914
kara	-8915
park	-8916
sail	-8917
▁113	-8918
▁1⿰⿱	-8919
▁che	-8920
▁set	-8921
228	-8922
324	-8923
:“⿵	-8924
;10	-8925
“⿰⿻	-8926
、16	-8927
00⿱⿰⿱	-8928
▁core	-8929
,⿱⿰⿳	-8930
10%。	-8931
5⿰⿱⿱	-8932
▁their	-8933
2,800	-8934
▁family	-8935
▁george	-8936
children	-8937
niconico	-8938
,;	-8939
9⿸	-8940
:;	-8941
111	-8942
75⿰	-8943
imo	-8944
sem	-8945
tru	-8946
2、	-8947
𠘧又缶	-8948
46⿻	-8949
bird	-8950
endo	-8951
mini	-8952
▁dom	-8953
148	-8954
33⿸	-8955
57⿰	-8956
8⿶⿳⿰	-8957
verse	-8958
▁1857	-8959
▁soul	-8960
」,「⿰	-8961
▁young	-8962
3,500	-8963
2⿹	-8964
dg	-8965
虫斗	-8966
08⿻	-8967
3⿱⿳	-8968
42⿰	-8969
:⿸⿸	-8970
adv	-8971
def	-8972
hkt	-8973
mah	-8974
▁64	-8975
⿱⿰⿷	-8976
]⿰	-8977
5⿲㇇	-8978
cept	-8979
pson	-8980
quad	-8981
thod	-8982
▁167	-8983
▁400	-8984
▁say	-8985
,24	-8986
3》⿰	-8987
430	-8988
62⿰	-8989
《⿱⿹	-8990
』,⿱	-8991
after	-8992
graph	-8993
亠丷厂生刂	-8994
,20⿱	-8995
||0||0	-8996
▁premi	-8997
8661⿰⿻	-8998
chinese	-8999
▁bridge	-9000
▁direct	-9001
▁business	-9002
▁collection	-9003
束力	-9004
123	-9005
31⿱	-9006
33⿰	-9007
7⿱⿳	-9008
bom	-9009
cit	-9010
flo	-9011
、⿱⿻	-9012
》⿱⿱	-9013
」:	-9014
1868	-9015
1885	-9016
call	-9017
mnet	-9018
shar	-9019
▁136	-9020
▁ele	-9021
,4⿰	-9022
211	-9023
:,⿰	-9024
allen	-9025
enter	-9026
▁1840	-9027
270⿱	-9028
「⿱⿱⿰	-9029
▁after	-9030
▁henry	-9031
》,⿱⿱⿱	-9032
▁robert	-9033
▁library	-9034
▁transport	-9035
戋皿	-9036
扌柬	-9037
金土	-9038
0⿱⿱	-9039
42⿱	-9040
44⿰	-9041
6,⿱	-9042
:20	-9043
aly	-9044
elo	-9045
ots	-9046
unk	-9047
·⿱⿱	-9048
“⿰⿱	-9049
▁tw	-9050
9⿻	-9051
8·⿰	-9052
ruby	-9053
▁roy	-9054
十口儿刂	-9055
38⿸	-9056
;⿰⿳	-9057
“⿰⿷	-9058
、“⿰	-9059
《⿰⿻	-9060
』,⿰	-9061
▁mary	-9062
,13⿱	-9063
,17⿱	-9064
110⿰	-9065
」⿱⿰⿱	-9066
minist	-9067
8661、⿰	-9068
▁invest	-9069
uz	-9070
|⿰	-9071
口亚	-9072
31⿰	-9073
357	-9074
49⿱	-9075
70⿰	-9076
ket	-9077
rac	-9078
▁if	-9079
』⿻	-9080
1884	-9081
fami	-9082
ipal	-9083
▁chi	-9084
▁kir	-9085
▁our	-9086
▁vic	-9087
20⿻	-9088
、8⿱	-9089
𠂊田一屯	-9090
66⿵⿰	-9091
8⿱⿰⿷	-9092
maria	-9093
queen	-9094
▁anim	-9095
▁cana	-9096
▁every	-9097
▁jones	-9098
▁round	-9099
8661⿱⿴	-9100
cosplay	-9101
▁report	-9102
/"	-9103
』。	-9104
扌工	-9105
束頁	-9106
38⿱	-9107
7⿱⿱	-9108
gel	-9109
gie	-9110
gil	-9111
mul	-9112
pea	-9113
pse	-9114
umi	-9115
▁dr	-9116
▁gr	-9117
2/	-9118
1896	-9119
iner	-9120
ipei	-9121
▁130	-9122
▁dan	-9123
▁fed	-9124
208	-9125
326	-9126
;12	-9127
》;⿱	-9128
▁1869	-9129
㇇⿰⿱⿱	-9130
、⿰⿱⿻	-9131
▁place	-9132
:「⿱⿱⿱	-9133
]]、[[	-9134
▁capital	-9135
▁history	-9136
8665⿱⿶⿱⿰	-9137
▁internet	-9138
▁portable	-9139
日兆	-9140
,《⿱	-9141
230	-9142
8⿱⿳	-9143
ilo	-9144
▁6⿰	-9145
八刀心	-9146
女又巾	-9147
01	-9148
1875	-9149
1899	-9150
math	-9151
▁let	-9152
▁uni	-9153
コ一人贝	-9154
16,	-9155
346	-9156
acter	-9157
▁1877	-9158
▁brea	-9159
▁orig	-9160
depend	-9161
8665⿰⿰	-9162
fw	-9163
vb	-9164
,⿳𭕄	-9165
3,⿰	-9166
bda	-9167
cep	-9168
hom	-9169
nmb	-9170
pad	-9171
[⿰	-9172
1368	-9173
dist	-9174
pont	-9175
▁gun	-9176
▁hat	-9177
152	-9178
440	-9179
、3⿰	-9180
》;⿰	-9181
66」⿰	-9182
every	-9183
organ	-9184
rough	-9185
22:00	-9186
francis	-9187
▁studios	-9188
universal	-9189
▁formation	-9190
氵巳	-9191
目丁	-9192
门三	-9193
00。	-9194
129	-9195
99⿰	-9196
9⿱⿱	-9197
ost	-9198
som	-9199
▁ga	-9200
冂卄禾	-9201
3、	-9202
“⿲	-9203
%;15	-9204
400⿱	-9205
ophy	-9206
0⿰⿱	-9207
11⿻	-9208
192	-9209
2,3	-9210
327	-9211
46,⿰	-9212
1100	-9213
1795	-9214
1847	-9215
mobile	-9216
taiwan	-9217
▁order	-9218
,⿰⿳⿱⿻	-9219
8661「⿱	-9220
2000⿱⿱	-9221
nx	-9222
,⿻㇀	-9223
_32	-9224
itu	-9225
jac	-9226
rca	-9227
rop	-9228
▁5⿰	-9229
覀示瓜	-9230
1853	-9231
card	-9232
ends	-9233
girl	-9234
mult	-9235
solo	-9236
vich	-9237
will	-9238
▁124	-9239
▁129	-9240
▁15⿱	-9241
▁lam	-9242
▁tar	-9243
313	-9244
;⿰⿰	-9245
、7⿱	-9246
𠂊田灬方	-9247
aster	-9248
▁1853	-9249
▁1875	-9250
▁miss	-9251
,11⿱	-9252
15%⿰	-9253
16⿱⿱	-9254
210⿱	-9255
8000	-9256
iction	-9257
sunday	-9258
walter	-9259
▁times	-9260
,「	-9261
2:	-9262
js	-9263
jt	-9264
▁示	-9265
07⿻	-9266
69⿰	-9267
8⿳	-9268
:05	-9269
_7⿰	-9270
omy	-9271
oni	-9272
zar	-9273
、⿵⿵	-9274
夫丷页	-9275
cola	-9276
fair	-9277
sara	-9278
ting	-9279
wind	-9280
▁api	-9281
▁leg	-9282
未攵厂牛	-9283
390	-9284
6⿰⿰	-9285
:⿱⿻	-9286
、9⿱	-9287
opera	-9288
▁also	-9289
▁sign	-9290
▁zone	-9291
8960⿹	-9292
▁other	-9293
ospital	-9294
▁avenue	-9295
8661⿱⿳𭕄	-9296
>。	-9297
qt	-9298
疒羊	-9299
豸才	-9300
37⿱	-9301
742	-9302
:⿰⿷	-9303
guy	-9304
ols	-9305
sia	-9306
▁mb	-9307
一丂页	-9308
dram	-9309
lant	-9310
tele	-9311
▁12⿱	-9312
▁akb	-9313
▁phy	-9314
!」⿱	-9315
186	-9316
229	-9317
275	-9318
》⿺⿱	-9319
ffect	-9320
hyper	-9321
ronic	-9322
thers	-9323
▁lake	-9324
▁prin	-9325
1806	-9326
》,⿱⿰	-9327
1800⿱	-9328
chester	-9329
▁london	-9330
8661⿶⿳⿰	-9331
▁championship	-9332
kc	-9333
pb	-9334
tm	-9335
囗屯	-9336
大火	-9337
金皮	-9338
𠂉丹	-9339
agu	-9340
cir	-9341
kor	-9342
pid	-9343
▁py	-9344
data	-9345
edge	-9346
left	-9347
stad	-9348
▁bre	-9349
▁mom	-9350
▁sen	-9351
》⿶⿳⿰	-9352
5⿱⿰	-9353
850	-9354
“⿻⿺	-9355
basic	-9356
㇇⿱⿱⿱	-9357
1824	-9358
arthur	-9359
▁hotel	-9360
▁voice	-9361
,1922	-9362
,⿰⿸⿱⿱	-9363
vocaloid	-9364
▁holdings	-9365
▁communication	-9366
',	-9367
4°	-9368
、8	-9369
钅玉	-9370
𠂉𠃓	-9371
/07	-9372
47⿱	-9373
70⿻	-9374
bee	-9375
eri	-9376
fda	-9377
hav	-9378
rio	-9379
udo	-9380
vcd	-9381
▁39	-9382
▁55	-9383
▁“⿺	-9384
、11	-9385
立十糸	-9386
1800	-9387
1847	-9388
5⿰⿰	-9389
base	-9390
born	-9391
mrna	-9392
teau	-9393
▁any	-9394
▁pac	-9395
,《⿴	-9396
6⿱⿰	-9397
⿰⿰⿱	-9398
𠂉大巨木	-9399
2000⿱	-9400
metro	-9401
▁card	-9402
▁fall	-9403
》,《⿰	-9404
bility	-9405
double	-9406
▁water	-9407
,1926	-9408
1,400	-9409
1,700	-9410
1100⿱	-9411
21:00	-9412
、2008	-9413
」、「⿱⿰	-9414
8665⿰⿻	-9415
▁johnson	-9416
lm	-9417
㐅刂	-9418
乃小	-9419
米果	-9420
12,	-9421
gui	-9422
sty	-9423
▁ti	-9424
▁tu	-9425
丷夫己	-9426
10⿱⿳	-9427
blog	-9428
cook	-9429
mile	-9430
phal	-9431
qual	-9432
▁147	-9433
、《⿰⿱	-9434
,“⿴	-9435
18,	-9436
3,0	-9437
70%	-9438
;⿺⿱	-9439
japan	-9440
▁demo	-9441
14⿱⿱	-9442
1832	-9443
2⿱⿰⿱	-9444
2,300	-9445
vernment	-9446
▁digital	-9447
▁francis	-9448
vt	-9449
王玉	-9450
607	-9451
:25	-9452
imp	-9453
joy	-9454
▁kg	-9455
▁ni	-9456
▁yu	-9457
'⿰	-9458
0⿰⿸	-9459
1861	-9460
="10	-9461
cccc	-9462
engl	-9463
ible	-9464
tony	-9465
▁mhz	-9466
丨丨比阝	-9467
糸言糸手	-9468
,5⿰	-9469
329	-9470
640	-9471
▁head	-9472
▁mess	-9473
▁some	-9474
1790	-9475
▁about	-9476
5000⿰	-9477
patrick	-9478
▁virgin	-9479
火韦	-9480
",⿸	-9481
127	-9482
52⿱	-9483
54⿰	-9484
95⿱	-9485
bud	-9486
gas	-9487
gic	-9488
gri	-9489
lix	-9490
pho	-9491
sor	-9492
▁37	-9493
▁9⿱	-9494
="50	-9495
ando	-9496
idea	-9497
sage	-9498
▁10⿰	-9499
▁htc	-9500
▁sql	-9501
255	-9502
767	-9503
、4⿰	-9504
𠂊田灬工	-9505
kevin	-9506
mount	-9507
▁1858	-9508
103⿱	-9509
section	-9510
▁wilson	-9511
▁computer	-9512
3⿺	-9513
目于	-9514
126	-9515
340	-9516
_34	-9517
_9⿰	-9518
ccd	-9519
edu	-9520
fig	-9521
tnt	-9522
wen	-9523
·⿰⿱	-9524
▁!⿱	-9525
▁——	-9526
䒑土水	-9527
尢丶山	-9528
;3	-9529
10⿰⿱	-9530
1887	-9531
1⿰⿱⿰	-9532
901"	-9533
agen	-9534
cert	-9535
ergy	-9536
mers	-9537
mytv	-9538
oman	-9539
sign	-9540
▁802	-9541
▁bir	-9542
141	-9543
20⿵	-9544
30%	-9545
336	-9546
」⿵⿵	-9547
rison	-9548
urity	-9549
	-9550
⿱	-9551
⿰	-9552
一	-9553
口	-9554
8	-9555
c	-9556
d	-9557
p	-9558
⿹	-9559
⿻	-9560
⿸	-9561
土	-9562
日	-9563
人	-9564
丿	-9565
八	-9566
丶	-9567
⿵	-9568
,	-9569
亻	-9570
⿳	-9571
勹	-9572
▁	-9573
⿺	-9574
丨	-9575
白	-9576
⿴	-9577
亠	-9578
十	-9579
木	-9580
厶	-9581
1	-9582
氵	-9583
月	-9584
又	-9585
冂	-9586
。	-9587
5	-9588
宀	-9589
囗	-9590
寸	-9591
b	-9592
丷	-9593
幺	-9594
辶	-9595
6	-9596
e	-9597
a	-9598
冖	-9599
扌	-9600
禾	-9601
大	-9602
艹	-9603
二	-9604
立	-9605
儿	-9606
阝	-9607
9	-9608
目	-9609
刂	-9610
0	-9611
夂	-9612
f	-9613
龰	-9614
女	-9615
彳	-9616
䒑	-9617
匕	-9618
王	-9619
言	-9620
攵	-9621
丁	-9622
小	-9623
子	-9624
𠃌	-9625
止	-9626
𠂉	-9627
夕	-9628
力	-9629
心	-9630
田	-9631
巾	-9632
戈	-9633
𠂊	-9634
年	-9635
𠂇	-9636
工	-9637
7	-9638
2	-9639
广	-9640
、	-9641
⺌	-9642
隹	-9643
也	-9644
尸	-9645
冫	-9646
凵	-9647
斤	-9648
⿶	-9649
㐅	-9650
4	-9651
刀	-9652
乂	-9653
且	-9654
竹	-9655
弓	-9656
灬	-9657
罒	-9658
方	-9659
士	-9660
纟	-9661
讠	-9662
⺊	-9663
龷	-9664
牛	-9665
耳	-9666
廾	-9667
耂	-9668
𠘧	-9669
彐	-9670
亅	-9671
生	-9672
厂	-9673
戊	-9674
干	-9675
車	-9676
⿲	-9677
山	-9678
自	-9679
乚	-9680
卜	-9681
几	-9682
糸	-9683
由	-9684
龶	-9685
巳	-9686
米	-9687
乛	-9688
𠁣	-9689
𠃛	-9690
业	-9691
以	-9692
3	-9693
⿷	-9694
兀	-9695
朩	-9696
為	-9697
豕	-9698
甲	-9699
i	-9700
𠂆	-9701
⺀	-9702
o	-9703
爫	-9704
贝	-9705
匚	-9706
入	-9707
r	-9708
弋	-9709
车	-9710
n	-9711
彡	-9712
欠	-9713
玉	-9714
卩	-9715
示	-9716
乀	-9717
犬	-9718
为	-9719
s	-9720
t	-9721
龴	-9722
皮	-9723
母	-9724
礻	-9725
及	-9726
豆	-9727
火	-9728
井	-9729
虫	-9730
里	-9731
𭕄	-9732
忄	-9733
𧘇	-9734
衤	-9735
廿	-9736
重	-9737
頁	-9738
l	-9739
⺆	-9740
己	-9741
艮	-9742
夫	-9743
皿	-9744
雨	-9745
本	-9746
覀	-9747
乍	-9748
𠄌	-9749
石	-9750
羊	-9751
于	-9752
巴	-9753
:	-9754
丆	-9755
金	-9756
廴	-9757
m	-9758
𠂒	-9759
虍	-9760
钅	-9761
父	-9762
歹	-9763
文	-9764
比	-9765
聿	-9766
㇇	-9767
》	-9768
《	-9769
癶	-9770
习	-9771
h	-9772
门	-9773
民	-9774
丰	-9775
千	-9776
爿	-9777
u	-9778
曲	-9779
コ	-9780
州	-9781
氺	-9782
·	-9783
犭	-9784
㠯	-9785
」	-9786
「	-9787
见	-9788
斗	-9789
手	-9790
尢	-9791
丂	-9792
我	-9793
𠃋	-9794
世	-9795
页	-9796
冉	-9797
户	-9798
巛	-9799
“	-9800
中	-9801
非	-9802
求	-9803
g	-9804
卄	-9805
央	-9806
㐄	-9807
事	-9808
舟	-9809
𫝀	-9810
酉	-9811
衣	-9812
肀	-9813
未	-9814
角	-9815
𠃊	-9816
釆	-9817
吏	-9818
臣	-9819
氏	-9820
㔾	-9821
片	-9822
九	-9823
长	-9824
;	-9825
尹	-9826
发	-9827
身	-9828
"	-9829
上	-9830
束	-9831
丬	-9832
五	-9833
甫	-9834
丸	-9835
来	-9836
水	-9837
丱	-9838
東	-9839
臼	-9840
东	-9841
谷	-9842
内	-9843
才	-9844
k	-9845
头	-9846
夬	-9847
𡗗	-9848
不	-9849
黑	-9850
𣥂	-9851
ス	-9852
y	-9853
冎	-9854
而	-9855
申	-9856
疒	-9857
乡	-9858
专	-9859
v	-9860
史	-9861
革	-9862
w	-9863
乃	-9864
丘	-9865
已	-9866
必	-9867
亡	-9868
川	-9869
𠂤	-9870
予	-9871
𠃓	-9872
卌	-9873
牙	-9874
柬	-9875
气	-9876
禺	-9877
七	-9878
弗	-9879
彑	-9880
丩	-9881
禹	-9882
戋	-9883
缶	-9884
甘	-9885
禸	-9886
了	-9887
矛	-9888
疋	-9889
永	-9890
毌	-9891
乙	-9892
/	-9893
三	-9894
巨	-9895
屯	-9896
〢	-9897
𧰨	-9898
z	-9899
更	-9900
隶	-9901
朱	-9902
瓦	-9903
韦	-9904
x	-9905
书	-9906
龵	-9907
%	-9908
朿	-9909
兆	-9910
鬼	-9911
果	-9912
毛	-9913
j	-9914
𠃜	-9915
ユ	-9916
象	-9917
戉	-9918
乑	-9919
㇀	-9920
饣	-9921
乐	-9922
耒	-9923
丫	-9924
—	-9925
旡	-9926
_	-9927
承	-9928
卅	-9929
尺	-9930
丹	-9931
乎	-9932
之	-9933
乁	-9934
久	-9935
⺄	-9936
飛	-9937
丑	-9938
末	-9939
}	-9940
{	-9941
镸	-9942
斥	-9943
两	-9944
!	-9945
食	-9946
瓜	-9947
龙	-9948
𠃑	-9949
亚	-9950
肉	-9951
>	-9952
飞	-9953
<	-9954
q	-9955
𩰊	-9956
𩰋	-9957
㣺	-9958
'	-9959
豸	-9960
𦣞	-9961
=	-9962
|	-9963
㡀	-9964
𠂎	-9965
册	-9966
]	-9967
[	-9968
疌	-9969
+	-9970
冘	-9971
𠄎	-9972
串	-9973
?	-9974
卯	-9975
歺	-9976
肃	-9977
万	-9978
电	-9979
垂	-9980
爪	-9981
肅	-9982
『	-9983
』	-9984
°	-9985
丈	-9986
