<pad>	0
<unk>	0
[CLS]	0
[SEP]	0
[MASK]	0
(	0
)	0
”	0
-	0
.	0
–	0
£	0
€	0
▁⿰	-0
▁⿱	-1
cd	-2
cdp	-3
▁⿰⿱	-4
▁,	-5
▁⿸	-6
▁⿱⿱	-7
88	-8
勹丶	-9
▁⿺	-10
▁。	-11
▁⿻	-12
⿱⿱	-13
▁⿱⿰	-14
▁⿵	-15
一八	-16
▁⿴	-17
▁⿹	-18
一口	-19
▁⿳	-20
▁年	-21
一龰	-22
▁1	-23
885	-24
▁、	-25
▁⿰⿱⿱	-26
土寸	-27
▁一	-28
89	-29
一厶	-30
⿱⿰	-31
目八	-32
口口	-33
口丨	-34
⿱⿴	-35
66	-36
二丨	-37
日一	-38
十口	-39
▁⿱⿻	-40
▁人	-41
丁口	-42
▁2	-43
866	-44
𠘧又	-45
人一	-46
亠口	-47
𠂇月	-48
▁⿱⿱⿱	-49
一人	-50
一厶土	-51
一廾	-52
ca	-53
▁⿰⿸	-54
人人	-55
夂口	-56
⿱⿻	-57
⿰⿱	-58
口一	-59
𠁣𠃛	-60
亠丷	-61
戊𠃌	-62
cac	-63
禾口	-64
一止	-65
▁為	-66
丿𠃌	-67
▁以	-68
龷八	-69
bb	-70
一丁	-71
乛亅	-72
亠土	-73
▁月	-74
甲一	-75
▁日	-76
㐅乂	-77
耂日	-78
乀丿	-79
囗玉	-80
▁20	-81
▁为	-82
▁19	-83
⺌日	-84
囗⺌日	-85
二厶	-86
丿丿	-87
▁⿱⿳	-88
土也	-89
⿹⿻	-90
bbf	-91
八厶	-92
凵丨	-93
八刀	-94
冂口	-95
一兀	-96
人丶	-97
幺幺	-98
▁⿲	-99
厶口	-100
⺌冖	-101
人⺀	-102
8665	-103
⺊一	-104
▁⿷	-105
凵丨凵	-106
人一口	-107
立口	-108
▁⿵⿰	-109
▁⿸⿸	-110
一大	-111
弓丨	-112
䒑土	-113
丷干	-114
⺊口	-115
土厶	-116
亻也	-117
▁⿱⿰⿱	-118
𠂊冫	-119
⺌冖口	-120
䒑自	-121
亠口小	-122
8661	-123
立口阝	-124
𠂉大	-125
cb	-126
一八斤	-127
丨丨	-128
目儿	-129
日十	-130
▁⿺⿱	-131
夕口	-132
乚丿	-133
𠂉母	-134
耳又	-135
止匕	-136
▁⿰⿳	-137
⿳⿰	-138
弓丨丿	-139
▁生	-140
立日	-141
896	-142
▁⿵⿵	-143
亻乍	-144
▁⿶	-145
冂一口	-146
夕夕	-147
一厶土刂	-148
彐一八	-149
口止	-150
一卜	-151
▁:	-152
丿士	-153
▁于	-154
土龰	-155
力口	-156
小丿	-157
亠父	-158
▁⿳𭕄	-159
⿱⿳	-160
▁及	-161
宀豕	-162
且一	-163
龶月	-164
bc	-165
儿口	-166
宀八	-167
▁》	-168
▁《	-169
立朩	-170
𠂊小	-171
幺夂	-172
▁⿱⿶	-173
月刂	-174
▁由	-175
冖子	-176
亻立	-177
木木	-178
衤皮	-179
亠巾	-180
冫欠	-181
▁民	-182
▁本	-183
丿丨	-184
人丨	-185
囗大	-186
且一八	-187
口儿	-188
一止攵	-189
▁⿶⿳⿰	-190
干丷	-191
一心	-192
▁子	-193
⺆冫	-194
彐冖	-195
▁3	-196
𠂊田	-197
▁·	-198
十罒	-199
千口	-200
十罒一心	-201
由八	-202
▁自	-203
甲一一	-204
冖車	-205
丿尸	-206
亻弋	-207
丿糸	-208
▁」	-209
▁「	-210
亠乂	-211
䒑业	-212
禾刂	-213
立朩斤	-214
▁⿱⿶⿱⿰	-215
白小	-216
廴聿	-217
𠂇巾	-218
宀㠯	-219
▁也	-220
宀女	-221
匕匕	-222
▁200	-223
丿尸斤	-224
子攵	-225
𠃋丿	-226
𠃋丿人	-227
𠂆一口	-228
匚㐅	-229
㐅乂子	-230
bd	-231
cc	-232
井一八	-233
𠂆又	-234
日乚	-235
覀女	-236
廿又	-237
一二	-238
▁“	-239
日一寸	-240
77	-241
十口儿	-242
人丶龴	-243
▁201	-244
弋工	-245
士口	-246
䒑土大	-247
木目	-248
歹刂	-249
耂子攵	-250
亻寸	-251
▁小	-252
土口	-253
▁山	-254
日寸	-255
▁⿰⿰	-256
⿵⿵	-257
亠丷一	-258
爫冖	-259
口八	-260
冂卄	-261
884	-262
▁事	-263
▁入	-264
王里	-265
▁⿰⿻	-266
▁世	-267
扌立	-268
口王	-269
▁二	-270
夕卜	-271
尢丶	-272
人王	-273
▁4	-274
日月	-275
▁工	-276
▁口	-277
龶𧘇	-278
コ一	-279
冖巾	-280
一八月	-281
亻吏	-282
王求	-283
𠂊田灬	-284
忄生	-285
▁十	-286
▁5	-287
禾斗	-288
冂刂	-289
牛冂刂	-290
▁;	-291
一口田	-292
𠂒儿	-293
▁州	-294
勹巳	-295
丷八	-296
女攵	-297
耂日阝	-298
▁重	-299
一巛	-300
一巛工	-301
十又	-302
立十	-303
▁⿰⿹	-304
▁"	-305
冖车	-306
𠂊冫寸	-307
刀口	-308
𠂒口	-309
一厶儿	-310
▁发	-311
▁⿹⿶	-312
囗口	-313
一由八	-314
▁士	-315
幺幺丱	-316
人一朩	-317
一土	-318
土土	-319
糸言	-320
糸言糸	-321
▁6	-322
▁比	-323
习习	-324
小丿目	-325
匕日	-326
五口	-327
▁⿰⿱⿰	-328
日生	-329
辶文	-330
䒑土寸	-331
尸匕	-332
▁s	-333
爫冖又	-334
重力	-335
▁目	-336
一八土	-337
▁⿲㇇	-338
辶言	-339
女口	-340
王丷	-341
又寸	-342
卩又	-343
𠁣𠃛日	-344
艹央	-345
亻丨	-346
口木	-347
▁长	-348
⿵⿰	-349
⿵⿱	-350
䒑土我	-351
幺幺人	-352
宀八工	-353
口丂	-354
曲豆	-355
龷八巳	-356
肀一	-357
丿冂口	-358
⿻⿻	-359
儿丨	-360
日大	-361
▁⿱⿲	-362
立日心	-363
⺌冖口田	-364
00	-365
▁7	-366
▁a	-367
亠丷厂	-368
囗儿	-369
▁⿱⿰⿴	-370
犬灬	-371
𠂊冫犬灬	-372
土龰巳	-373
⺌冖口巾	-374
⿹⿶	-375
▁巴	-376
日一里	-377
一廾刂	-378
入入	-379
▁米	-380
冎口	-381
85	-382
ス工	-383
戈十	-384
亠口小彡	-385
𠂊巴	-386
一冉	-387
𠂇又	-388
禾女	-389
⿱⿱⿱	-390
米大	-391
肀一一	-392
己攵	-393
▁女	-394
夂⺀	-395
▁来	-396
大丶	-397
口贝	-398
甲一戈	-399
⿳⿱	-400
▁9	-401
辶隹	-402
立女	-403
日十月	-404
▁8	-405
▁心	-406
夂力	-407
▁東	-408
丿冂	-409
丷豕	-410
▁东	-411
er	-412
▁⿵⿱	-413
目八刂	-414
木丶	-415
儿土	-416
▁c	-417
禾日	-418
釆田	-419
一巾	-420
土儿土	-421
▁m	-422
白水	-423
▁t	-424
隹又	-425
▁10	-426
cbb	-427
冂入	-428
▁車	-429
𠂇口	-430
𠂉丶	-431
二厶力	-432
口心	-433
丷口心	-434
方攵	-435
乂丶	-436
一廾刂土	-437
丿囗	-438
勹虫	-439
力八	-440
一廾彡	-441
▁手	-442
𫝀口	-443
宀丰	-444
冂人	-445
丿夫	-446
▁已	-447
龷由八	-448
𫝀口㐄	-449
止匕二	-450
门日	-451
口口隹	-452
木几	-453
勹口	-454
一业	-455
凵㐅	-456
in	-457
⿱⿲	-458
⿱⿰⿴	-459
▁12	-460
⺌兀	-461
▁⿱⿴	-462
亠几	-463
ee	-464
or	-465
爫冉	-466
氏丶	-467
火火	-468
尹口	-469
十口攵	-470
丿大	-471
辶寸	-472
禾中	-473
丶艮	-474
▁b	-475
隹木	-476
亠丷冖巾	-477
且厶	-478
▁史	-479
▁f	-480
▁199	-481
宀丰口	-482
卌一	-483
𠂉卌一	-484
虍几	-485
氵工	-486
上卜	-487
䒑未	-488
宀匕	-489
戊一	-490
辶井	-491
▁身	-492
王见	-493
禾重	-494
日乂	-495
一𫝀	-496
宀子	-497
an	-498
口力	-499
▁车	-500
十豆	-501
on	-502
八口	-503
糸言糸弓	-504
宀示	-505
⿰⿳	-506
人彡	-507
▁示	-508
礻土	-509
丿十	-510
氵州	-511
⺌月	-512
𠂉大口	-513
丷夫	-514
夕寸	-515
几丶	-516
巳巳	-517
▁11	-518
癶豆	-519
ce	-520
口卩	-521
刀丿	-522
亻本	-523
▁p	-524
▁h	-525
⺌彐	-526
𠂇工	-527
䒑业日	-528
尸禹	-529
虍豕	-530
止𣥂	-531
𠂉丶皿	-532
ea	-533
日夂	-534
𠂉日夂	-535
刀牛	-536
丿囗夂	-537
十口月	-538
田一	-539
⺊口戈	-540
土羊	-541
▁⿱⿵⿱	-542
丘八	-543
覀示	-544
幺木	-545
幺白	-546
幺白幺木	-547
▁d	-548
弋一止	-549
一厶月	-550
コ一亅	-551
𠂉子	-552
龷日	-553
▁又	-554
亻言	-555
礻申	-556
米女攵	-557
𠂉十	-558
丆口	-559
罒夕	-560
亠幺	-561
二人	-562
亠口冖	-563
凵㐅禸	-564
▁非	-565
氵皮	-566
辶斤	-567
⿱⿴⿱	-568
戊一口	-569
夂朩	-570
一白	-571
丿囗夂心	-572
𠃌口	-573
口龰	-574
丿冂米大	-575
𠂉卌一灬	-576
人匕	-577
la	-578
bf	-579
土儿土丸	-580
亠丷日	-581
亻牛	-582
▁/	-583
▁曲	-584
▁角	-585
二阝	-586
刀二阝	-587
厶厶	-588
心夂	-589
阝人	-590
立月	-591
人人龰	-592
冖儿	-593
歹匕	-594
日木	-595
▁18	-596
𠁣𠃛柬	-597
口口犬	-598
▁片	-599
言十	-600
日日	-601
𠂊田一	-602
宀必	-603
丩攵	-604
▁⿳⿰	-605
▁⿳⿱	-606
一口𧘇	-607
▁白	-608
⿸⿴	-609
尸一口	-610
木寸	-611
女也	-612
▁未	-613
木子	-614
亻尹	-615
en	-616
▁⿱⿱⿰	-617
8964	-618
爫木	-619
木艮	-620
肀一一田一	-621
八夂	-622
土𠃓	-623
且一小	-624
中一	-625
日罒	-626
日罒又	-627
宀必山	-628
衤刀	-629
乚丿十	-630
纟戋	-631
辶大	-632
甫寸	-633
立日儿	-634
▁且	-635
亠八	-636
贝刂	-637
▁⿰⿱⿹	-638
纟及	-639
身寸	-640
冖儿木	-641
▁⿰⿱⿴	-642
▁n	-643
宀八九	-644
▁r	-645
▁g	-646
丁口欠	-647
丨丿	-648
二丨凵	-649
丷三	-650
纟且	-651
口虫	-652
亻门	-653
井一八贝	-654
土口𧘇	-655
彳艮	-656
扌丁	-657
▁15	-658
山而	-659
bcb	-660
宀谷	-661
火火冖	-662
士衣	-663
厶厶人彡	-664
厂生	-665
4⿱	-666
▁言	-667
刀丿心	-668
▁⿰⿷	-669
𠂊厂	-670
▁广	-671
戊一女	-672
白王	-673
丷八十	-674
甘木	-675
勹口攵	-676
⿱⿹	-677
夕㐄	-678
犬頁	-679
米犬頁	-680
禾子	-681
亻隹	-682
工力	-683
囗丨	-684
丿口	-685
口丿口	-686
bea	-687
▁八	-688
⿱⿸	-689
又土	-690
▁书	-691
▁土	-692
▁⿺⿻	-693
辶束	-694
雨田	-695
讠十	-696
夂彡	-697
艹禺	-698
口十	-699
▁⿱⿻⿱	-700
▁l	-701
▁⿱⿶⿳⿰	-702
扌隹	-703
女子	-704
8960	-705
𠃌丨	-706
丿七	-707
丿虫	-708
井一冉	-709
ar	-710
宀头	-711
夂几	-712
▁我	-713
▁⿱⿱⿻	-714
田力	-715
又又	-716
▁九	-717
雨而	-718
山一	-719
束攵	-720
▁i	-721
肀一一日	-722
肀口	-723
勹冫	-724
辶車	-725
一氺	-726
一氺丶	-727
▁16	-728
口夫	-729
纟隹	-730
工攵	-731
人丶龴頁	-732
▁⿱⿹	-733
車凵	-734
八人	-735
⿰⿱⿱	-736
一内	-737
▁乡	-738
▁己	-739
宀女木	-740
▁田	-741
扌斤	-742
革力	-743
且力	-744
▁17	-745
亻白	-746
亻隹心	-747
辶不	-748
上小	-749
厶大	-750
白丿十	-751
丿𠃌刂	-752
厶大彡	-753
▁母	-754
士口冖	-755
▁194	-756
𠘧又手	-757
▁瓦	-758
▁0	-759
一尢	-760
尹口羊	-761
士心	-762
一厶土攵	-763
勹厶	-764
夂丰	-765
▁⿱⿺	-766
土龰戉	-767
▁w	-768
八乂	-769
糸言糸攵	-770
es	-771
丿廾	-772
⿺⿱	-773
⺌冖口土	-774
上小又	-775
▁⿱⿵	-776
禾乃	-777
扌丸	-778
䒑自寸	-779
刀田	-780
彑氺	-781
夂卜	-782
⺌冖口黑	-783
▁198	-784
▁⿱⿰⿱⿱	-785
𠂉也	-786
一口田刂	-787
▁川	-788
▁⿻㇀	-789
▁门	-790
人㔾	-791
龷八氺	-792
乛头	-793
匚儿	-794
亻专	-795
▁195	-796
亻更	-797
士𠃜	-798
▁14	-799
田心	-800
勹又	-801
耂丂	-802
耂匕	-803
⿱𭕄	-804
井一八土	-805
虍豕刂	-806
一自	-807
人丶龴页	-808
阝艮	-809
豆頁	-810
▁才	-811
▁197	-812
亻乃	-813
▁木	-814
一𧘇	-815
井一𧘇	-816
▁13	-817
▁⿱⿰⿻	-818
彐心	-819
扌非	-820
▁⿲⿱	-821
巳寸	-822
▁牙	-823
囗丨𧰨	-824
囗才	-825
㐅朩	-826
⺊口灬	-827
▁央	-828
一自夂	-829
牛冂刂衣	-830
▁氏	-831
冖一	-832
亻象	-833
▁乐	-834
戊一口心	-835
日月皿	-836
木目心	-837
土土寸	-838
儿言	-839
ti	-840
木示	-841
亠口子	-842
一丨	-843
一曲	-844
一曲日	-845
▁甲	-846
氵夬	-847
▁⿳⿱⿻	-848
▁o	-849
几㐅	-850
气米	-851
▁e	-852
廿巾	-853
▁for	-854
冖一豕	-855
立里	-856
▁⿱⿵⿵	-857
丰阝	-858
酉己	-859
爿戈	-860
𠂉一	-861
扌巴	-862
厂力	-863
爿戈臣	-864
▁k	-865
丷酉	-866
丿二丨	-867
刀丫	-868
阝方	-869
纟内	-870
al	-871
氵羊	-872
▁—	-873
自心	-874
阝日	-875
彳聿	-876
亠父攵	-877
凵㐅禸隹	-878
讠人	-879
龶糸	-880
米斗	-881
犭犬	-882
亻弗	-883
𠂇工月	-884
亠口冖丁	-885
𡗗氺	-886
广隶	-887
mu	-888
▁止	-889
▁_	-890
一兀寸	-891
夂㐄	-892
口耳	-893
礻见	-894
讠己	-895
▁196	-896
釆大	-897
丿冂釆大	-898
⿸⿱	-899
cbd	-900
▁z	-901
纟己	-902
厶虫	-903
龵目	-904
女母	-905
厶八夂	-906
▁革	-907
▁193	-908
▁j	-909
囗大心	-910
冂儿	-911
䒑山	-912
目廾	-913
艹冖	-914
辶由	-915
▁承	-916
冂一	-917
弓长	-918
尸一口刂	-919
扌比	-920
勹口攵言	-921
卅冖巾	-922
宀寸	-923
is	-924
羊目	-925
丨丨比	-926
辶艮	-927
氵又	-928
▁30	-929
言己	-930
比白	-931
▁2009	-932
斤斤	-933
力力	-934
十冖	-935
mula	-936
十冖糸	-937
口又	-938
氵隹	-939
辶车	-940
▁formula	-941
▁专	-942
▁21	-943
彐氺	-944
le	-945
𠂊冫寸犬	-946
亻我	-947
禾禾	-948
禾禾止	-949
000	-950
口又一	-951
8⿷	-952
爿士衣	-953
一龰頁	-954
上小又目	-955
尸口	-956
𠃊人	-957
▁⿱⿳𭕄	-958
𠃊米	-959
口力刂	-960
𠂇厶	-961
亻衣	-962
亡月	-963
亡月王	-964
车专	-965
刀口灬	-966
爫一	-967
二乚	-968
阝示	-969
木又	-970
礻且	-971
口龶	-972
艹田	-973
白巾	-974
⿰⿹	-975
𠂊田灬禾	-976
⿱⿵⿱	-977
▁v	-978
⿺⿸	-979
𠂇又丶	-980
de	-981
▁2011	-982
口口欠	-983
䒑亡	-984
户方	-985
立十力	-986
▁永	-987
七刀	-988
𠘧口	-989
▁25	-990
日比	-991
▁丹	-992
冫夬	-993
冫欠贝	-994
𠂇火	-995
冂二	-996
⺆冫攵	-997
he	-998
一亅	-999
忄夬	-1000
▁2010	-1001
石皮	-1002
冖方	-1003
亠丷冖方	-1004
人一口手	-1005
艹来	-1006
夂丶	-1007
虍豆	-1008
虍豆戈	-1009
𠂉一乁	-1010
耳口王	-1011
谷卩	-1012
un	-1013
阝東	-1014
亻以	-1015
𠁣𠃛口	-1016
白方攵	-1017
心丿	-1018
一生	-1019
46	-1020
ro	-1021
臼儿	-1022
宀八犬	-1023
コ又	-1024
女又	-1025
口木土	-1026
中一贝	-1027
丷夫㔾	-1028
丿大口	-1029
▁飛	-1030
▁192	-1031
it	-1032
⺄十	-1033
𠂊亅	-1034
一丂	-1035
世木	-1036
䒑土永	-1037
里予	-1038
⿱⿺	-1039
▁头	-1040
厂干	-1041
▁⿻⿺	-1042
尢丶丿	-1043
𡗗日	-1044
▁皮	-1045
戈戈	-1046
罒乑	-1047
工頁	-1048
▁久	-1049
力口木	-1050
冫隹	-1051
戈刂	-1052
▁co	-1053
▁2012	-1054
コ一女	-1055
▁2008	-1056
el	-1057
▁zh	-1058
氵由	-1059
人㔾刂	-1060
us	-1061
冂丶	-1062
十贝	-1063
尹口阝	-1064
at	-1065
ic	-1066
十口刂	-1067
夫见	-1068
土八夂	-1069
龴疋	-1070
亠𠃊	-1071
几攵	-1072
山一几攵	-1073
隹口	-1074
扌户	-1075
勹缶	-1076
㐅㐅	-1077
十豆口	-1078
il	-1079
勹灬	-1080
𠂉大豆	-1081
⿸⿸	-1082
𠂊田一日	-1083
土儿土丸灬	-1084
▁}	-1085
耳阝	-1086
▁{	-1087
二丨刂	-1088
𠂇厶隹	-1089
宀丁	-1090
𠂉乙	-1091
▁2013	-1092
丬士衣	-1093
▁22	-1094
口寸	-1095
竹朿	-1096
人氺	-1097
艹乂	-1098
门口	-1099
木羊	-1100
宀八方	-1101
辶豕	-1102
一龰页	-1103
ur	-1104
广予	-1105
▁⿰⿳⿱⿻	-1106
肀一一田一刂	-1107
屯頁	-1108
口止巨	-1109
𠘧又耳	-1110
隹隹又	-1111
氏日	-1112
5⿱	-1113
䒑口	-1114
羊䒑口	-1115
木木手	-1116
匚㐅欠	-1117
87	-1118
宀木	-1119
氵酉	-1120
▁24	-1121
幺幺灬	-1122
am	-1123
冖𧘇	-1124
▁191	-1125
▁23	-1126
王王	-1127
口口木	-1128
目八攵	-1129
丿皿	-1130
艹非	-1131
▁2007	-1132
又见	-1133
▁⿱⿸	-1134
▁束	-1135
▁末	-1136
金艮	-1137
𠃌丨一	-1138
羊工	-1139
▁2006	-1140
尸毛	-1141
亠丷厂生	-1142
▁干	-1143
牙隹	-1144
丿之	-1145
⿸⿱⿱	-1146
st	-1147
纟工	-1148
𠂊彐心	-1149
▁2014	-1150
丬夕	-1151
丷夫力	-1152
▁⿰⿵	-1153
冖隹	-1154
幺大	-1155
▁!	-1156
氵隹十	-1157
夫夫	-1158
氵㔾	-1159
弓冫	-1160
工页	-1161
彡頁	-1162
▁⿱⿰⿷	-1163
氵聿	-1164
又戈	-1165
辶力	-1166
𠘧又酉	-1167
囗人	-1168
人人十	-1169
衤里	-1170
車斤	-1171
夫夫日	-1172
乛耳	-1173
乛耳攵	-1174
丰丰	-1175
冂㐅	-1176
▁见	-1177
巾白	-1178
彐冖巾	-1179
爫子	-1180
爿犬	-1181
et	-1182
口虫隹	-1183
䒑八	-1184
䒑八皿	-1185
▁臣	-1186
士示	-1187
广车	-1188
戊一𣥂	-1189
一厶月攵	-1190
士示欠	-1191
⿰⿻	-1192
夂田	-1193
龶贝	-1194
ch	-1195
▁the	-1196
幺幺灬頁	-1197
895	-1198
▁⿹⿻	-1199
习习白	-1200
亻十	-1201
户口	-1202
▁贝	-1203
金刂	-1204
辶𠂤	-1205
乡隹	-1206
扌白	-1207
丬夕大	-1208
囗韦	-1209
▁2005	-1210
𠂉母攵	-1211
刀金刂	-1212
丿乚	-1213
口夫隹	-1214
米女	-1215
木土	-1216
王不	-1217
匕月	-1218
▁⿸⿱	-1219
𠂊贝	-1220
▁31	-1221
▁朱	-1222
日小	-1223
戊𠃌皿	-1224
亻二	-1225
扌丸灬	-1226
▁26	-1227
𠂉巾	-1228
戈十車	-1229
ing	-1230
𠂊田灬日	-1231
人止	-1232
歹刂灬	-1233
勹丿	-1234
几口	-1235
一乚丿	-1236
一乚丿兀	-1237
一彑	-1238
丷干丸	-1239
▁2001	-1240
王丶	-1241
▁几	-1242
囗人皿	-1243
▁28	-1244
⿰⿸	-1245
犭虫	-1246
▁牛	-1247
▁谷	-1248
▁st	-1249
刀丿丶	-1250
凵土	-1251
匕匕心	-1252
⿴⿱	-1253
亠口子攵	-1254
大口	-1255
𠃑大口	-1256
罒非	-1257
刀丿丶木	-1258
ol	-1259
▁27	-1260
日皿	-1261
⿱⿱⿻	-1262
求攵	-1263
文刂	-1264
土儿土丸力	-1265
一𣥂	-1266
▁2000	-1267
予頁	-1268
大丷	-1269
▁x	-1270
大丷日小	-1271
as	-1272
人人一	-1273
日业	-1274
tion	-1275
凵田	-1276
⿱⿻⿻	-1277
▁⿱⿰⿸	-1278
人人夂	-1279
木才	-1280
月犬	-1281
⿰⿱⿵	-1282
冂二月犬	-1283
艹乙	-1284
⿳⿻	-1285
冖又	-1286
コ一冖又	-1287
土皮	-1288
▁巨	-1289
禾必	-1290
阝东	-1291
▁>	-1292
尸由	-1293
𠂉大口日	-1294
▁飞	-1295
木木示	-1296
土止	-1297
▁2015	-1298
耂匕日	-1299
亻又	-1300
冫水	-1301
木木疋	-1302
子小	-1303
▁29	-1304
夫丷	-1305
弗贝	-1306
一丰	-1307
田皿	-1308
八大	-1309
冂八大	-1310
日央	-1311
木及	-1312
▁in	-1313
月月	-1314
广土	-1315
▁<	-1316
丷酉寸	-1317
ow	-1318
口口口	-1319
耳又乑	-1320
▁尺	-1321
▁2004	-1322
ir	-1323
山夕	-1324
df	-1325
▁50	-1326
𠁣𠃛耳	-1327
土土兀	-1328
几丶木	-1329
▁an	-1330
𠂊厂㔾	-1331
口及	-1332
冂二月犬土	-1333
𠃋丿人刂	-1334
口止艮	-1335
朿刂	-1336
爫罒	-1337
目艮	-1338
木斤	-1339
禾火	-1340
又隹	-1341
屯页	-1342
干刂	-1343
▁u	-1344
龶母	-1345
ac	-1346
王缶	-1347
日大巾	-1348
ig	-1349
雨彐	-1350
▁br	-1351
禾厶	-1352
冖几	-1353
不口	-1354
ed	-1355
▁000	-1356
𠂉疋	-1357
▁ch	-1358
▁耳	-1359
辶禺	-1360
木隹	-1361
▁⿰⿱⿺	-1362
幺幺斤	-1363
口隹	-1364
石角	-1365
亻木	-1366
山石	-1367
𩰋𩰊	-1368
辶兆	-1369
戈廾	-1370
丨又	-1371
臼丨又	-1372
ent	-1373
冂口攵	-1374
扌戈	-1375
白小彡	-1376
▁100	-1377
宀于	-1378
▁'	-1379
▁ca	-1380
田糸	-1381
丬犬	-1382
雨隹	-1383
十廾	-1384
缶夬	-1385
os	-1386
▁乎	-1387
辶巛	-1388
乛工	-1389
乛工一	-1390
士乛工一	-1391
▁190	-1392
艹两	-1393
▁40	-1394
宀且	-1395
犭㔾	-1396
厶又	-1397
爫龴	-1398
广大	-1399
▁of	-1400
車㔾	-1401
丶尸	-1402
广車	-1403
8977	-1404
艹重	-1405
宀八牙	-1406
木木鬼	-1407
彑𧰨	-1408
辶白	-1409
耳耳	-1410
夕㔾	-1411
▁斗	-1412
女生	-1413
刀巴	-1414
大隹	-1415
丰寸	-1416
扌甫	-1417
▁2016	-1418
勹臼	-1419
讠上	-1420
艹隹	-1421
艹隹臼	-1422
▁=	-1423
▁2003	-1424
囗㐅	-1425
▁y	-1426
中心	-1427
大丶心	-1428
戈十车	-1429
䒑夫	-1430
辶米	-1431
阝車	-1432
子皿	-1433
山隹	-1434
丿囗㐅	-1435
▁申	-1436
口乎	-1437
𠂒口非	-1438
木白	-1439
丷酉大	-1440
臣又	-1441
▁⿰⿳⿱	-1442
ia	-1443
𡗗禾	-1444
止月	-1445
钅艮	-1446
冂大	-1447
𠂊冂大	-1448
氵甫	-1449
子乚	-1450
十豆寸	-1451
土丶	-1452
氵气	-1453
⺊尸	-1454
火乍	-1455
id	-1456
土厶卩	-1457
om	-1458
又又木	-1459
果页	-1460
▁甘	-1461
丷夫氺	-1462
爫缶	-1463
▁|	-1464
止𣥂頁	-1465
纟田	-1466
▁2002	-1467
一丨虫	-1468
弋丿	-1469
𠃌冫	-1470
𠂤止	-1471
厂㔾	-1472
丿土	-1473
丿土攵	-1474
田月	-1475
ra	-1476
▁肉	-1477
日十韦	-1478
⿰⿵	-1479
车斤	-1480
贝攵	-1481
月生	-1482
宀玉	-1483
丰丰豆	-1484
勹日	-1485
㡀攵	-1486
▁厂	-1487
黑犬	-1488
亻戈	-1489
川頁	-1490
亠口冖豕	-1491
火火冖木	-1492
女又力	-1493
大镸	-1494
大隹寸	-1495
▁⿰⿺	-1496
禾女鬼	-1497
𠃊米斤	-1498
气羊	-1499
口丩	-1500
⿷⿱	-1501
户口攵	-1502
十目	-1503
比十	-1504
户隹	-1505
隹灬	-1506
氵九	-1507
勹甫	-1508
氵九木	-1509
人人木隹	-1510
习习隹	-1511
ot	-1512
阝且	-1513
丨丿彐	-1514
▁2017	-1515
黑土	-1516
王朱	-1517
亠𧘇	-1518
▁井	-1519
戈十衣	-1520
亡口	-1521
木𠃓	-1522
亻山	-1523
ut	-1524
口未	-1525
木灬	-1526
夕㐄木	-1527
▁al	-1528
日大土	-1529
▁]	-1530
⺌冖口手	-1531
亠口冖几	-1532
扌斤口	-1533
爫工	-1534
爫工彐心	-1535
𠂊田一羊	-1536
▁2018	-1537
▁[	-1538
氵也	-1539
im	-1540
20	-1541
亻谷	-1542
50	-1543
凵丨月	-1544
▁han	-1545
田丁	-1546
心皿	-1547
心皿丁	-1548
灬皿	-1549
肀一灬皿	-1550
言川	-1551
几丶心	-1552
扌丸力	-1553
厂丁	-1554
彡页	-1555
▁60	-1556
um	-1557
幺力	-1558
石更	-1559
门耳	-1560
土厶皿	-1561
𠂉母攵糸	-1562
禾且	-1563
一田	-1564
一田一	-1565
ec	-1566
亠口冖毛	-1567
山豆	-1568
予页	-1569
爫木彡	-1570
龶夂	-1571
𠂊田灬羊	-1572
止𣥂页	-1573
亠口子阝	-1574
丷酉大阝	-1575
十豆彡	-1576
火火冖力	-1577
女未	-1578
不皿	-1579
目八才	-1580
艹冖力	-1581
扌乚	-1582
em	-1583
礻乚	-1584
䒑土食	-1585
舟见	-1586
大巳	-1587
覀大巳	-1588
扌疌	-1589
大示	-1590
iv	-1591
糸攵	-1592
山一糸攵	-1593
衤甫	-1594
丨日	-1595
▁1999	-1596
亚日	-1597
戈十隹	-1598
王王必	-1599
囗木	-1600
亠口了	-1601
▁1990	-1602
車欠	-1603
亻五	-1604
歹刂衣	-1605
▁ma	-1606
䒑土皿	-1607
丁頁	-1608
▁乙	-1609
𠄎丿	-1610
九朩	-1611
辶千	-1612
疋虫	-1613
▁1998	-1614
〢又	-1615
二丨力	-1616
⿴⿰	-1617
川页	-1618
串心	-1619
言寸	-1620
丰刀	-1621
扌巨	-1622
耂子	-1623
ter	-1624
▁35	-1625
丁页	-1626
一日	-1627
厶厶一日	-1628
彐火	-1629
▁⿱⿰⿳	-1630
▁韦	-1631
日干	-1632
▁?	-1633
巳廾	-1634
山己	-1635
土丷	-1636
㇇⿱	-1637
车九	-1638
中一㠯	-1639
⿱⿰⿱	-1640
尺⺀	-1641
亻乙	-1642
爿士	-1643
oo	-1644
囗禾	-1645
尸示	-1646
尸示寸	-1647
乚丿贝	-1648
山豆几	-1649
▁80	-1650
▁1997	-1651
三丨	-1652
牛攵	-1653
口口隹欠	-1654
▁la	-1655
亻禺	-1656
ad	-1657
歺又	-1658
▁32	-1659
巳灬	-1660
𦣞巳灬	-1661
冫中	-1662
氵干	-1663
言方	-1664
𠂊田大	-1665
𠂉力	-1666
镸彡	-1667
亠口子丸	-1668
and	-1669
歹朱	-1670
10	-1671
19	-1672
▁sa	-1673
ul	-1674
止匕糸	-1675
人朩	-1676
艹人朩	-1677
▁1980	-1678
車九	-1679
扌广	-1680
𠂉一罒	-1681
▁丘	-1682
彳重	-1683
op	-1684
贝才	-1685
纟丑	-1686
厶又乚	-1687
ri	-1688
言果	-1689
▁70	-1690
弓土	-1691
丿巾	-1692
ation	-1693
厶儿	-1694
广由	-1695
戊一火	-1696
彳皮	-1697
▁+	-1698
▁33	-1699
乛水	-1700
▁36	-1701
乛水一	-1702
▁189	-1703
⿳⿳	-1704
歹匕廾	-1705
氵冘	-1706
艹罒	-1707
土龰㐅	-1708
𠘧又皿	-1709
木不	-1710
夕㐄阝	-1711
夂口頁	-1712
口月	-1713
工贝	-1714
山己几	-1715
臣又土	-1716
▁2019	-1717
言斥	-1718
土龰卜	-1719
▁and	-1720
th	-1721
冖木	-1722
一丨犬	-1723
宀申	-1724
言丁	-1725
讠井	-1726
▁de	-1727
扌斥	-1728
▁ar	-1729
亻子	-1730
艹见	-1731
幺𠃌	-1732
▁90	-1733
幺幺心	-1734
▁1996	-1735
纟东	-1736
40	-1737
日子	-1738
户隹頁	-1739
冂二目	-1740
口巴	-1741
十冖子	-1742
车欠	-1743
ers	-1744
礻羊	-1745
▁500	-1746
▁45	-1747
歺又食	-1748
▁⿺⿵	-1749
又丶	-1750
㡀攵巾	-1751
目儿丶	-1752
匕口	-1753
䒑山刂	-1754
匕口灬	-1755
ay	-1756
亠口子丸灬	-1757
丿厶	-1758
止匕木	-1759
▁『	-1760
钅中	-1761
土甫	-1762
▁』	-1763
▁°	-1764
女且	-1765
木兆	-1766
ag	-1767
爫臼	-1768
丶丶	-1769
丶丶丶	-1770
小大	-1771
白小頁	-1772
30	-1773
阝车	-1774
虫虫	-1775
▁1995	-1776
▁1994	-1777
米立	-1778
罒心	-1779
宀丰罒心	-1780
牛也	-1781
丷干犬	-1782
亻犬	-1783
▁00	-1784
工口寸	-1785
木卯	-1786
辶了	-1787
扌兆	-1788
凵丨欠	-1789
日土	-1790
▁1993	-1791
48	-1792
▁186	-1793
8959	-1794
oc	-1795
田一口	-1796
ie	-1797
大电	-1798
木攵	-1799
𠃌丿	-1800
千口攵	-1801
▁com	-1802
讠方	-1803
亻申	-1804
▁1992	-1805
▁187	-1806
▁瓜	-1807
衤卜	-1808
夂口页	-1809
▁tw	-1810
▁th	-1811
口止兆	-1812
日大㣺	-1813
▁188	-1814
一大阝	-1815
艹罒冖	-1816
立十土	-1817
土口隹	-1818
▁1991	-1819
丨丨一	-1820
80	-1821
▁hans	-1822
氵匚	-1823
人人刂	-1824
ind	-1825
▁q	-1826
勹口攵手	-1827
讠川	-1828
氵白	-1829
𠂒儿贝	-1830
钅戋	-1831
八刀頁	-1832
12	-1833
日王	-1834
▁hk	-1835
丿田	-1836
儿厶	-1837
ov	-1838
大寸	-1839
丰阝巾	-1840
廿木	-1841
▁1949	-1842
千口乚	-1843
车两	-1844
▁un	-1845
王文	-1846
▁37	-1847
臼工	-1848
冖儿干	-1849
艹方	-1850
▁1970	-1851
口龶力	-1852
灬史	-1853
▁1950	-1854
臼土	-1855
車甫	-1856
ba	-1857
艹之	-1858
爫子乚	-1859
▁re	-1860
一史	-1861
▁隶	-1862
人干	-1863
田田	-1864
扌石	-1865
革月	-1866
艹罒冖夕	-1867
▁sh	-1868
▁col	-1869
匕匕灬	-1870
十冖子力	-1871
11	-1872
王白	-1873
木木幺	-1874
冖见	-1875
凵乚	-1876
▁300	-1877
▁1989	-1878
▁豆	-1879
广发	-1880
ard	-1881
金十	-1882
王文王	-1883
▁185	-1884
▁to	-1885
木彡	-1886
na	-1887
丰刀大	-1888
木示隶	-1889
忄不	-1890
▁34	-1891
▁hd	-1892
土欠	-1893
臣又糸	-1894
ub	-1895
土夬	-1896
av	-1897
25	-1898
▁1960	-1899
冖牛	-1900
廿灬	-1901
▁1988	-1902
li	-1903
一火	-1904
▁1945	-1905
▁sp	-1906
谷欠	-1907
龙衣	-1908
亻中	-1909
▁39	-1910
旡旡	-1911
果頁	-1912
旡旡日	-1913
re	-1914
▁mar	-1915
王皮	-1916
戈𠂇	-1917
▁⿱⿴⿱	-1918
口一𧘇	-1919
di	-1920
ta	-1921
ine	-1922
丰丰彐心	-1923
ang	-1924
竹聿	-1925
千臼	-1926
〢又土	-1927
矛木	-1928
厂里	-1929
ph	-1930
凵丨月土	-1931
og	-1932
石广	-1933
车由	-1934
宀由	-1935
車斤日	-1936
女己	-1937
21	-1938
丿丨刂	-1939
工丂	-1940
土川	-1941
讠寸	-1942
舟皿	-1943
阝月	-1944
▁55	-1945
糸言糸心	-1946
弓厶	-1947
▁mo	-1948
60	-1949
▁on	-1950
▁⿳⿳	-1951
▁is	-1952
15	-1953
勹田	-1954
𠂉丶见	-1955
丘山	-1956
▁1985	-1957
▁1986	-1958
斤欠	-1959
土方	-1960
▁1984	-1961
𠂊田灬里	-1962
衤由	-1963
戈十木	-1964
土鬼	-1965
▁pro	-1966
▁38	-1967
厂㔾页	-1968
te	-1969
▁1987	-1970
亠父阝	-1971
ik	-1972
冂㐅刂	-1973
白小心	-1974
又欠	-1975
und	-1976
屯阝	-1977
亻方	-1978
▁ne	-1979
人丶龴阝	-1980
匕頁	-1981
ou	-1982
ion	-1983
扌𠃓	-1984
▁虫	-1985
⺊贝	-1986
口斤	-1987
钅十	-1988
ows	-1989
禾禾日	-1990
刀贝	-1991
讠斥	-1992
16	-1993
疒了	-1994
est	-1995
▁am	-1996
▁42	-1997
丿言	-1998
艹戊	-1999
ap	-2000
卜皿	-2001
土卜皿	-2002
犭言	-2003
犭言犬	-2004
ess	-2005
千口予	-2006
几又	-2007
▁1982	-2008
大弓	-2009
丷夫手	-2010
ss	-2011
忄隹	-2012
▁43	-2013
▁75	-2014
丷夫刀	-2015
13	-2016
衤谷	-2017
▁65	-2018
ver	-2019
广木	-2020
覀土	-2021
▁⿻⿱	-2022
口口丨	-2023
▁wind	-2024
宀丰口刂	-2025
𠁣𠃛才	-2026
▁1983	-2027
氵𠃓	-2028
⿶⿳⿰	-2029
〢又糸	-2030
47	-2031
匕刂	-2032
厂彡頁	-2033
虍业	-2034
讠丁	-2035
17	-2036
月巴	-2037
ccdp	-2038
▁47	-2039
ack	-2040
ip	-2041
犭火	-2042
彳氵	-2043
土不	-2044
up	-2045
勹米	-2046
巛果	-2047
一八言	-2048
876	-2049
45	-2050
▁丈	-2051
氵永	-2052
业䒑夫	-2053
卩丶	-2054
𠂎丶	-2055
女又心	-2056
ber	-2057
▁⿻⿵	-2058
23	-2059
田一口犬	-2060
sp	-2061
▁⿰⿱⿱⿱⿰	-2062
口口田一口犬	-2063
毌贝	-2064
白儿	-2065
ts	-2066
▁49	-2067
▁46	-2068
由阝	-2069
▁1979	-2070
目八女	-2071
▁or	-2072
▁400	-2073
月永	-2074
42	-2075
▁en	-2076
▁fr	-2077
▁windows	-2078
爫女	-2079
▁tr	-2080
▁卜	-2081
人一朩斗	-2082
辶万	-2083
釆心	-2084
王册	-2085
子瓜	-2086
亚心	-2087
巛火	-2088
▁肃	-2089
ell	-2090
耒毛	-2091
▁1978	-2092
土土卜	-2093
犭王	-2094
▁ro	-2095
37	-2096
井一八⺀	-2097
▁ap	-2098
虍心	-2099
▁ii	-2100
讠果	-2101
女彐	-2102
由丂	-2103
几木	-2104
18	-2105
▁con	-2106
ge	-2107
▁册	-2108
彐寸	-2109
扌由	-2110
22	-2111
35	-2112
▁⿰⿱⿻	-2113
▁le	-2114
米且	-2115
▁te	-2116
▁%	-2117
▁180	-2118
虫朱	-2119
▁150	-2120
井一八木	-2121
▁1981	-2122
一厶廾	-2123
14	-2124
口内	-2125
竹龙	-2126
𠂉大巨	-2127
igh	-2128
人一朩又	-2129
口土	-2130
束刂	-2131
90	-2132
竹毛	-2133
一刂	-2134
▁48	-2135
ity	-2136
ab	-2137
ak	-2138
日女	-2139
▁jo	-2140
纟氏	-2141
ica	-2142
▁at	-2143
氵皮女	-2144
门才	-2145
𠃊人欠	-2146
27	-2147
朿朿	-2148
▁1958	-2149
▁⿰⿸⿸	-2150
ue	-2151
非一	-2152
26	-2153
▁1946	-2154
扌夫	-2155
车甫	-2156
丷八月	-2157
习习立	-2158
扌以	-2159
ill	-2160
匚王	-2161
丶丶丶皿	-2162
36	-2163
od	-2164
女𦣞	-2165
▁64	-2166
丿𠃌攵	-2167
又阝	-2168
灬心	-2169
二厶鬼	-2170
ich	-2171
尸巾	-2172
ist	-2173
尸巾刂	-2174
日十彡	-2175
月贝	-2176
一大㣺	-2177
⿱⿱⿰	-2178
all	-2179
亠幺田	-2180
if	-2181
氵王	-2182
▁85	-2183
24	-2184
小隹	-2185
▁56	-2186
▁⿰⿴	-2187
▁ph	-2188
冖且	-2189
土隹	-2190
uc	-2191
33	-2192
▁44	-2193
29	-2194
ong	-2195
垂阝	-2196
口口山	-2197
大冖牛	-2198
匕页	-2199
▁57	-2200
車由	-2201
癶豆阝	-2202
▁1930	-2203
▁ex	-2204
▁1940	-2205
ey	-2206
▁66	-2207
亻寸肉	-2208
▁兆	-2209
犭讠	-2210
犭讠犬	-2211
▁1948	-2212
𠂊彐	-2213
ear	-2214
𠃜目	-2215
艹肅	-2216
▁1000	-2217
釆丂	-2218
丿囗釆丂	-2219
扌甲	-2220
▁120	-2221
言羊	-2222
木木石	-2223
止匕角	-2224
28	-2225
丷八牛	-2226
▁1937	-2227
▁cn	-2228
丿二丨刂	-2229
▁1956	-2230
𠂤十	-2231
女兆	-2232
纟屯	-2233
▁1975	-2234
▁so	-2235
▁1947	-2236
亻九	-2237
39	-2238
𠂊丶	-2239
乛水一灬	-2240
肀月	-2241
艹亡	-2242
車車	-2243
▁⿰⿸⿱⿱	-2244
月刂心	-2245
亠里	-2246
亠里𧘇	-2247
歹戋	-2248
女乃	-2249
⿹⿱	-2250
乛亅丿	-2251
宀火	-2252
ry	-2253
86	-2254
覀贝	-2255
▁par	-2256
▁寸	-2257
▁pr	-2258
▁頁	-2259
▁ac	-2260
▁ad	-2261
▁jr	-2262
▁1941	-2263
▁bo	-2264
▁1973	-2265
礻巳	-2266
辶隶	-2267
▁1952	-2268
木乚	-2269
土厶力	-2270
▁1920	-2271
角虫	-2272
氵欠	-2273
▁600	-2274
▁1955	-2275
lay	-2276
月几	-2277
讠内	-2278
ian	-2279
ma	-2280
厂万	-2281
丿丿心	-2282
▁1972	-2283
bo	-2284
49	-2285
▁800	-2286
▁1966	-2287
▁76	-2288
70	-2289
忄亡	-2290
⺊又	-2291
io	-2292
32	-2293
▁1976	-2294
ff	-2295
38	-2296
▁1968	-2297
▁犬	-2298
▁59	-2299
ps	-2300
34	-2301
一中	-2302
一中冖	-2303
enter	-2304
ve	-2305
ord	-2306
ign	-2307
▁gr	-2308
非心	-2309
木木夕	-2310
亻弋衣	-2311
▁1977	-2312
亠丷厂彡页	-2313
十廾贝	-2314
▁1954	-2315
▁1974	-2316
▁179	-2317
木朱	-2318
▁1969	-2319
▁nba	-2320
氵中	-2321
▁⿳⿻	-2322
sh	-2323
亻韦	-2324
ly	-2325
▁77	-2326
bs	-2327
▁95	-2328
牙阝	-2329
艹肃	-2330
又丶虫	-2331
八刀皿	-2332
man	-2333
▁1959	-2334
⿱⿵	-2335
▁1965	-2336
彳金	-2337
八刀页	-2338
口贝力	-2339
刀牛虫	-2340
▁1938	-2341
口屯	-2342
▁cd	-2343
44	-2344
止匕隹	-2345
氵欠皿	-2346
▁1939	-2347
言刂	-2348
车斤日	-2349
八口𧘇	-2350
口欠	-2351
火丁	-2352
▁1944	-2353
75	-2354
一丂阝	-2355
▁1971	-2356
忄白	-2357
ft	-2358
九丶	-2359
▁1942	-2360
⿹⿻⿱	-2361
ud	-2362
彳钅	-2363
▁1964	-2364
立𧰨	-2365
▁1967	-2366
31	-2367
▁88	-2368
予象	-2369
ty	-2370
▁58	-2371
▁1957	-2372
▁41	-2373
艹禺力	-2374
⿰⿰	-2375
非文	-2376
▁99	-2377
士冖	-2378
月刂刀	-2379
亻丨攵	-2380
艹矛	-2381
人一朩攵	-2382
王白石	-2383
one	-2384
▁op	-2385
十月	-2386
十月丶	-2387
41	-2388
▁1936	-2389
▁ng	-2390
覀木	-2391
ice	-2392
龷八㣺	-2393
▁1961	-2394
石页	-2395
▁1963	-2396
se	-2397
一大口	-2398
土里	-2399
田田土	-2400
▁69	-2401
冫欠口	-2402
乃子	-2403
▁1953	-2404
虫工	-2405
幺大隹	-2406
鬼斗	-2407
▁hr	-2408
田比	-2409
▁⿻⿻	-2410
コ一丿	-2411
㐅乂木	-2412
㐅乂木大	-2413
䒑土女	-2414
立十言	-2415
▁1935	-2416
▁160	-2417
▁1943	-2418
pe	-2419
木卜	-2420
qu	-2421
宀禺	-2422
门王	-2423
▁51	-2424
▁sc	-2425
43	-2426
tic	-2427
▁舟	-2428
扌口	-2429
▁1962	-2430
土贝	-2431
▁id	-2432
▁52	-2433
▁goo	-2434
艹本	-2435
力力月	-2436
亻火	-2437
▁hant	-2438
目隹	-2439
扌爪	-2440
而寸	-2441
氵丁	-2442
宀八乙	-2443
丬士	-2444
▁177	-2445
石頁	-2446
耒井	-2447
ate	-2448
斤丶	-2449
ug	-2450
▁1951	-2451
⺌月刂	-2452
一廾瓦	-2453
𠁣𠃛王	-2454
ive	-2455
ton	-2456
ne	-2457
扌皮	-2458
ux	-2459
氵巨	-2460
氵巨木	-2461
䒑土灬	-2462
▁me	-2463
▁wh	-2464
辶韦	-2465
▁as	-2466
讠羊	-2467
尸水	-2468
▁67	-2469
金重	-2470
▁1927	-2471
纟文	-2472
钅甫	-2473
宀八乍	-2474
65	-2475
1900	-2476
乀丿口	-2477
▁sch	-2478
▁dv	-2479
丘阝	-2480
日大力	-2481
▁sao	-2482
ant	-2483
ock	-2484
ore	-2485
▁68	-2486
丿木	-2487
ith	-2488
丰刀糸	-2489
▁cr	-2490
▁lin	-2491
氵女	-2492
▁se	-2493
▁1928	-2494
▁inter	-2495
水日	-2496
▁79	-2497
▁1933	-2498
▁ed	-2499
匚儿力	-2500
口非	-2501
▁54	-2502
ect	-2503
宀必虫	-2504
ens	-2505
〢又贝	-2506
gle	-2507
ace	-2508
𠁣𠃛虫	-2509
▁弓	-2510
▁700	-2511
亠田	-2512
亡心	-2513
▁sm	-2514
▁1931	-2515
禾刂木	-2516
丿糸心	-2517
hn	-2518
int	-2519
▁⿱⿰⿱⿴	-2520
end	-2521
▁1932	-2522
ga	-2523
lo	-2524
▁car	-2525
𠂤巾	-2526
▁it	-2527
▁1934	-2528
▁sy	-2529
且厶心	-2530
尸雨	-2531
木干	-2532
▁ist	-2533
千口甘	-2534
ond	-2535
▁53	-2536
士冖豆	-2537
ke	-2538
目目隹	-2539
mp	-2540
刀口阝	-2541
亻士	-2542
▁tv	-2543
▁页	-2544
▁97	-2545
▁110	-2546
son	-2547
▁dr	-2548
氵户	-2549
ix	-2550
目垂	-2551
tr	-2552
卩示	-2553
乃又	-2554
乃又皿	-2555
𠂉丶金	-2556
56	-2557
▁96	-2558
yle	-2559
ina	-2560
▁86	-2561
▁爪	-2562
▁pa	-2563
▁ak	-2564
户攵	-2565
ick	-2566
扌斤言	-2567
贝贝	-2568
▁we	-2569
ern	-2570
厂万力	-2571
钅欠	-2572
▁87	-2573
▁istat	-2574
99	-2575
▁1929	-2576
▁ra	-2577
ii	-2578
⺌冖口贝	-2579
亠丷厂彡	-2580
▁丑	-2581
不一	-2582
⺌贝	-2583
ld	-2584
▁dvd	-2585
83	-2586
自犬	-2587
ment	-2588
▁⿸⿱⿱	-2589
口尺	-2590
xt	-2591
立十月	-2592
▁us	-2593
▁ht	-2594
▁bl	-2595
丨丿巾	-2596
▁gam	-2597
饣欠	-2598
ort	-2599
ib	-2600
▁1912	-2601
▁yo	-2602
▁140	-2603
ight	-2604
冫欠女	-2605
82	-2606
月非	-2607
▁qu	-2608
王廾	-2609
皮頁	-2610
▁man	-2611
ook	-2612
▁google	-2613
力口贝	-2614
月力	-2615
金欠	-2616
耳又女	-2617
▁cl	-2618
▁89	-2619
户月	-2620
▁⿷⿱	-2621
忄艮	-2622
▁be	-2623
▁72	-2624
eam	-2625
▁new	-2626
▁⿱⿰⿰	-2627
亻丨攵心	-2628
▁1925	-2629
▁center	-2630
ory	-2631
84	-2632
▁ge	-2633
▁play	-2634
ah	-2635
口巾	-2636
▁wor	-2637
忄乙	-2638
81	-2639
95	-2640
▁my	-2641
扌丑	-2642
コ一人	-2643
▁250	-2644
讠刂	-2645
⿻⿱	-2646
▁no	-2647
▁130	-2648
匚一	-2649
爪巴	-2650
衤果	-2651
▁mon	-2652
▁1918	-2653
▁back	-2654
▁170	-2655
▁style	-2656
55	-2657
己心	-2658
广比	-2659
▁⿸⿸⿸	-2660
贝贝女	-2661
口口一	-2662
月干	-2663
牛生	-2664
𠘧又糸	-2665
iss	-2666
ance	-2667
▁63	-2668
ll	-2669
▁1913	-2670
▁1919	-2671
目大	-2672
▁62	-2673
竹目大	-2674
小丿力	-2675
𠁣𠃛人	-2676
口口隹力	-2677
▁1924	-2678
67	-2679
八刀贝	-2680
▁1926	-2681
尸示寸心	-2682
53	-2683
57	-2684
62	-2685
▁john	-2686
▁166	-2687
gro	-2688
亠口𧘇	-2689
丷田一口	-2690
▁ip	-2691
dice	-2692
▁bd	-2693
co	-2694
ure	-2695
一巛工力	-2696
mm	-2697
▁ho	-2698
厂彡	-2699
▁1922	-2700
ai	-2701
59	-2702
▁sil	-2703
冫欠皿	-2704
乍心	-2705
身弓	-2706
▁codice	-2707
▁po	-2708
气弗	-2709
▁61	-2710
立十讠	-2711
木象	-2712
石专	-2713
so	-2714
ris	-2715
ung	-2716
戊丶	-2717
匕禾	-2718
▁wil	-2719
丂戈	-2720
禾丂戈	-2721
▁comp	-2722
礻斤	-2723
𠘧又月	-2724
人目	-2725
冂一八	-2726
木木火	-2727
▁柬	-2728
▁mus	-2729
ational	-2730
广龙	-2731
51	-2732
▁1914	-2733
ans	-2734
52	-2735
tv	-2736
69	-2737
土龰干	-2738
iz	-2739
▁肅	-2740
冫欠瓦	-2741
span	-2742
甘欠	-2743
乀丿寸	-2744
▁colspan	-2745
幺冖牛	-2746
门虫	-2747
▁3000	-2748
▁1911	-2749
▁av	-2750
68	-2751
艹夫	-2752
ide	-2753
▁bar	-2754
▁ser	-2755
▁欠	-2756
▁ngc	-2757
▁1917	-2758
to	-2759
▁dna	-2760
64	-2761
八厶𧘇	-2762
58	-2763
▁er	-2764
▁km	-2765
▁1923	-2766
丿士几	-2767
缶工	-2768
亻為	-2769
ground	-2770
户攵聿	-2771
▁align	-2772
ire	-2773
▁⿱⿱⿲	-2774
口甫	-2775
氵文	-2776
ence	-2777
夕㔾心	-2778
79	-2779
me	-2780
▁el	-2781
land	-2782
目民	-2783
艹巴	-2784
▁1921	-2785
▁74	-2786
一巛工頁	-2787
亻为	-2788
ary	-2789
𠂇月阝	-2790
54	-2791
76	-2792
木東	-2793
犭瓜	-2794
▁mv	-2795
▁background	-2796
age	-2797
㐅乂木大手	-2798
止龰	-2799
▁lov	-2800
米丂	-2801
▁can	-2802
▁coun	-2803
▁mac	-2804
▁bb	-2805
92	-2806
▁pl	-2807
▁color	-2808
▁尸	-2809
隹乃	-2810
車干	-2811
皮页	-2812
▁net	-2813
氵戋	-2814
ial	-2815
▁78	-2816
78	-2817
▁sup	-2818
ier	-2819
art	-2820
▁73	-2821
丿囗米丂	-2822
匚非	-2823
艮土	-2824
72	-2825
▁⿵⿱⿱	-2826
丰丰彐	-2827
▁1900	-2828
98	-2829
for	-2830
73	-2831
eat	-2832
⿱⿻⿱	-2833
71	-2834
匚甲	-2835
▁do	-2836
▁ps	-2837
▁per	-2838
父巴	-2839
土申	-2840
een	-2841
丿二丨小	-2842
cl	-2843
ank	-2844
辶尺	-2845
▁text	-2846
▁1910	-2847
63	-2848
▁戊	-2849
▁es	-2850
61	-2851
ley	-2852
lar	-2853
ha	-2854
爿一	-2855
片爿一	-2856
厶牛	-2857
▁71	-2858
且一八頁	-2859
人一口皿	-2860
▁2020	-2861
九日	-2862
▁mic	-2863
va	-2864
ite	-2865
74	-2866
ky	-2867
又力	-2868
▁900	-2869
ivers	-2870
▁fo	-2871
▁cp	-2872
且一八页	-2873
八丂	-2874
▁os	-2875
per	-2876
93	-2877
口口几	-2878
▁81	-2879
▁82	-2880
亡目	-2881
口且	-2882
▁silver	-2883
▁pc	-2884
▁98	-2885
ust	-2886
▁app	-2887
▁cor	-2888
ass	-2889
▁101	-2890
96	-2891
ster	-2892
94	-2893
ies	-2894
▁now	-2895
目夂	-2896
冂人目夂	-2897
纟千	-2898
97	-2899
𠁣𠃛甲	-2900
les	-2901
一八欠	-2902
疒艮	-2903
ath	-2904
𠁣𠃛月	-2905
竹由	-2906
▁met	-2907
氵谷	-2908
▁廿	-2909
5%	-2910
▁83	-2911
⺌冖口木	-2912
ead	-2913
▁intern	-2914
大隹田	-2915
ile	-2916
iel	-2917
▁84	-2918
女干	-2919
▁str	-2920
匚斤	-2921
▁ag	-2922
人一朩土	-2923
ann	-2924
▁gen	-2925
91	-2926
▁em	-2927
▁92	-2928
▁linux	-2929
01	-2930
宀八力	-2931
iki	-2932
▁1915	-2933
ml	-2934
▁1905	-2935
ok	-2936
▁1916	-2937
own	-2938
▁gu	-2939
立十瓜	-2940
tp	-2941
are	-2942
old	-2943
石几	-2944
言隹	-2945
ins	-2946
ish	-2947
use	-2948
ool	-2949
扌彐	-2950
▁her	-2951
tive	-2952
亻弋黑	-2953
𠂊田一禾	-2954
一自戈	-2955
ys	-2956
▁you	-2957
ube	-2958
火火冖虫	-2959
氵十	-2960
巛果刂	-2961
▁ua	-2962
木口	-2963
弓瓜	-2964
▁li	-2965
▁su	-2966
疋月	-2967
金甫	-2968
▁gro	-2969
立十束	-2970
km	-2971
▁1500	-2972
▁5000	-2973
be	-2974
▁ep	-2975
▁ba	-2976
▁ga	-2977
冫欠心	-2978
ara	-2979
▁love	-2980
ome	-2981
▁ta	-2982
▁min	-2983
▁禹	-2984
艹牙	-2985
非車	-2986
▁1909	-2987
人一口頁	-2988
▁1906	-2989
▁ste	-2990
▁univers	-2991
门木	-2992
▁he	-2993
丨丨比土	-2994
▁one	-2995
宀牛	-2996
尢力	-2997
犬廾	-2998
艹犬廾	-2999
臣卜	-3000
▁med	-3001
王攵	-3002
ood	-3003
▁dav	-3004
tor	-3005
火东	-3006
▁1907	-3007
门甲	-3008
▁air	-3009
ck	-3010
▁06	-3011
▁all	-3012
竹目大糸	-3013
宀臣	-3014
▁char	-3015
station	-3016
镸聿	-3017
木木彡	-3018
王鬼	-3019
户犬	-3020
酉州	-3021
口一心	-3022
▁93	-3023
▁go	-3024
覀米	-3025
▁da	-3026
▁har	-3027
幺幺田	-3028
▁world	-3029
▁09	-3030
▁res	-3031
uth	-3032
犭里	-3033
纟韦	-3034
丿米	-3035
▁cla	-3036
耂日灬	-3037
▁micro	-3038
gr	-3039
▁91	-3040
八丂皿	-3041
▁05	-3042
mb	-3043
ana	-3044
丆且	-3045
氵山	-3046
氵必	-3047
ho	-3048
▁1908	-3049
丿米丨	-3050
▁360	-3051
ms	-3052
ico	-3053
▁playstation	-3054
pa	-3055
氏丶阝	-3056
▁bro	-3057
▁1904	-3058
dr	-3059
大田	-3060
非衣	-3061
▁fl	-3062
▁ms	-3063
▁iii	-3064
ower	-3065
▁des	-3066
▁nh	-3067
▁ha	-3068
▁sw	-3069
▁tim	-3070
▁ab	-3071
▁105	-3072
▁tra	-3073
lex	-3074
▁mat	-3075
▁350	-3076
ls	-3077
▁pe	-3078
月方	-3079
da	-3080
▁94	-3081
bert	-3082
言永	-3083
lec	-3084
▁⿺⿸	-3085
▁live	-3086
enn	-3087
亻丈	-3088
urn	-3089
扌卜	-3090
冖果	-3091
文而	-3092
ose	-3093
彑冖果	-3094
tc	-3095
土立	-3096
ork	-3097
eng	-3098
ere	-3099
▁akb	-3100
𠃋丿人力	-3101
虍几彡	-3102
pl	-3103
▁07	-3104
▁school	-3105
ony	-3106
亠果	-3107
亠果𧘇	-3108
土及	-3109
ds	-3110
book	-3111
▁1895	-3112
艹户	-3113
ium	-3114
ki	-3115
▁1898	-3116
ka	-3117
艹心	-3118
▁vis	-3119
𠂊田灬由	-3120
stem	-3121
▁dis	-3122
氵世	-3123
牛土	-3124
月𠃓	-3125
门人	-3126
▁1903	-3127
女亚	-3128
rom	-3129
▁lo	-3130
6%	-3131
⿱⿵⿵	-3132
▁fa	-3133
丷豕土	-3134
士冖一	-3135
▁bas	-3136
▁with	-3137
月豕	-3138
▁super	-3139
▁1902	-3140
2%	-3141
口电	-3142
▁du	-3143
火柬	-3144
口止止	-3145
▁mm	-3146
3%	-3147
▁nor	-3148
ame	-3149
ven	-3150
口止戋	-3151
扌发	-3152
八厶頁	-3153
▁ea	-3154
mer	-3155
udi	-3156
olog	-3157
厶厶土	-3158
▁by	-3159
▁1901	-3160
▁face	-3161
pt	-3162
▁sn	-3163
4%	-3164
米糸	-3165
sa	-3166
der	-3167
ale	-3168
纟方	-3169
▁ty	-3170
㡀攵廾	-3171
▁na	-3172
米糸廾	-3173
歹千	-3174
羊乚	-3175
▁cc	-3176
▁ver	-3177
火户	-3178
ward	-3179
▁star	-3180
▁08	-3181
▁di	-3182
▁mc	-3183
木东	-3184
7%	-3185
匕禾頁	-3186
8%	-3187
犭且	-3188
丿土攵心	-3189
▁jav	-3190
tu	-3191
iti	-3192
丿丿丶	-3193
hz	-3194
▁⿰⿻⿵	-3195
丨丨一刂	-3196
里予土	-3197
▁system	-3198
ical	-3199
▁web	-3200
▁4000	-3201
▁bla	-3202
▁⿰⿱⿳	-3203
▁je	-3204
豸艮土	-3205
ata	-3206
中𧘇	-3207
oth	-3208
亠中𧘇	-3209
⿰⿳⿱	-3210
宀八缶	-3211
▁104	-3212
▁sur	-3213
禾隹	-3214
匚巾	-3215
liam	-3216
▁pet	-3217
▁ww	-3218
▁gra	-3219
▁int	-3220
鬼未	-3221
itt	-3222
▁01	-3223
石欠	-3224
禺心	-3225
千口甫	-3226
丘丿	-3227
氵末	-3228
▁ass	-3229
▁music	-3230
eal	-3231
口里	-3232
yn	-3233
▁che	-3234
eed	-3235
▁mor	-3236
禾刂牛	-3237
anc	-3238
▁ic	-3239
立口刂	-3240
▁pol	-3241
▁⿰⿱⿰⿱	-3242
pr	-3243
▁af	-3244
巛田	-3245
dp	-3246
ash	-3247
耳卯	-3248
cal	-3249
臣又月	-3250
耳火	-3251
▁sec	-3252
冫東	-3253
9%	-3254
月中	-3255
vel	-3256
ille	-3257
asa	-3258
soft	-3259
▁pla	-3260
ont	-3261
pm	-3262
tain	-3263
冂卄頁	-3264
亻卜	-3265
ker	-3266
艹甘	-3267
讠隹	-3268
▁ib	-3269
甫方攵	-3270
田皿頁	-3271
box	-3272
▁county	-3273
▁ka	-3274
▁jam	-3275
氵心	-3276
▁div	-3277
▁william	-3278
▁iv	-3279
▁103	-3280
br	-3281
▁high	-3282
冂口月	-3283
▁125	-3284
𠂊冫寸水	-3285
木更	-3286
▁val	-3287
1%	-3288
亻弋贝	-3289
▁rec	-3290
▁bu	-3291
▁vo	-3292
一白弓	-3293
凵㐅儿	-3294
▁1200	-3295
▁102	-3296
▁108	-3297
▁up	-3298
▁mark	-3299
钅内	-3300
▁ss	-3301
▁off	-3302
月重	-3303
▁04	-3304
广户	-3305
册刂	-3306
amp	-3307
eet	-3308
ner	-3309
氵文刂	-3310
▁del	-3311
▁mag	-3312
ited	-3313
亠口了灬	-3314
臣人	-3315
▁saint	-3316
月女	-3317
ler	-3318
ane	-3319
▁iso	-3320
▁dc	-3321
▁war	-3322
▁yout	-3323
心心	-3324
彐一八車	-3325
ae	-3326
纟丩	-3327
歺又米	-3328
▁ス	-3329
申𠃓	-3330
礻氏	-3331
▁1890	-3332
亻弋山	-3333
疒皮	-3334
▁tvb	-3335
▁02	-3336
▁university	-3337
▁international	-3338
▁gn	-3339
丷十	-3340
illa	-3341
▁ec	-3342
月土	-3343
▁ir	-3344
▁106	-3345
丶丶丶匕	-3346
木丈	-3347
ula	-3348
ス工页	-3349
▁1899	-3350
▁nowiki	-3351
覀土瓦	-3352
▁⿰⿹⿶	-3353
▁1896	-3354
urg	-3355
▁115	-3356
礻阝	-3357
虍力	-3358
▁220	-3359
▁game	-3360
幺月	-3361
幺月乚	-3362
彐氺刂	-3363
▁⿱⿻⿻	-3364
iro	-3365
ise	-3366
za	-3367
灬也	-3368
▁cb	-3369
▁mr	-3370
▁1897	-3371
▁youtube	-3372
icon	-3373
▁107	-3374
⺌冖口牙	-3375
▁111	-3376
▁facebook	-3377
▁⿳⿲	-3378
⿰⿱⿶	-3379
士冖一禾	-3380
丶丶丶匕彡	-3381
金隹	-3382
▁ter	-3383
木冖	-3384
木缶	-3385
木缶木冖	-3386
▁10%	-3387
▁microsoft	-3388
oss	-3389
未攵	-3390
▁⿸⿱⿰	-3391
ya	-3392
▁wal	-3393
▁gir	-3394
go	-3395
▁im	-3396
▁ev	-3397
口于	-3398
女我	-3399
月夫	-3400
丷夫目	-3401
▁50%	-3402
▁et	-3403
▁david	-3404
fer	-3405
uro	-3406
▁hy	-3407
▁1860	-3408
tin	-3409
▁cy	-3410
▁bbc	-3411
▁open	-3412
ham	-3413
口木𧘇	-3414
▁109	-3415
▁240	-3416
▁lim	-3417
▁1889	-3418
▁enter	-3419
日十戈	-3420
▁geor	-3421
ble	-3422
gb	-3423
ena	-3424
宀龙	-3425
ings	-3426
阝龙	-3427
山我	-3428
王厶	-3429
▁bea	-3430
ks	-3431
⿰⿱⿰	-3432
火頁	-3433
▁lu	-3434
oph	-3435
▁ds	-3436
fa	-3437
▁mk	-3438
𠂇口心	-3439
▁ber	-3440
九力	-3441
work	-3442
一廾阝	-3443
▁450	-3444
era	-3445
丬夕水	-3446
▁she	-3447
tions	-3448
▁san	-3449
𠂇火皿	-3450
氵斤	-3451
舟白	-3452
ons	-3453
▁1800	-3454
lin	-3455
扌末	-3456
uch	-3457
ement	-3458
雨文	-3459
▁cro	-3460
〢又月	-3461
▁mp	-3462
亻朱	-3463
che	-3464
po	-3465
ute	-3466
▁gl	-3467
▁巾	-3468
▁03	-3469
ude	-3470
▁comm	-3471
▁cm	-3472
▁cent	-3473
▁eng	-3474
way	-3475
▁ce	-3476
▁1880	-3477
丘丶	-3478
日隹	-3479
▁soc	-3480
山甲	-3481
ero	-3482
▁tech	-3483
05	-3484
氵夕	-3485
▁1894	-3486
▁sim	-3487
彐一八车	-3488
甘阝	-3489
▁red	-3490
饣虫	-3491
ino	-3492
门柬	-3493
八厶页	-3494
艹斤	-3495
门文	-3496
▁team	-3497
eth	-3498
ike	-3499
tis	-3500
▁win	-3501
orn	-3502
自木	-3503
▁http	-3504
▁1871	-3505
里儿土	-3506
𠂊冫寸酉	-3507
▁fla	-3508
▁ins	-3509
▁paul	-3510
夂卜口	-3511
虍文	-3512
几丶革	-3513
roid	-3514
▁nhk	-3515
弋心	-3516
▁don	-3517
dy	-3518
口比	-3519
▁128	-3520
car	-3521
钅隹	-3522
enti	-3523
ene	-3524
▁power	-3525
iet	-3526
匕禾页	-3527
糸言糸虫	-3528
▁group	-3529
酉鬼	-3530
▁city	-3531
mo	-3532
羊丑	-3533
石水	-3534
las	-3535
▁112	-3536
wa	-3537
▁national	-3538
▁sd	-3539
▁280	-3540
▁java	-3541
虫丰	-3542
▁not	-3543
my	-3544
▁113	-3545
▁mil	-3546
▁max	-3547
木隶	-3548
𠂎卩	-3549
▁1885	-3550
▁mich	-3551
非车	-3552
𠂊小心	-3553
▁1600	-3554
ius	-3555
osa	-3556
▁230	-3557
any	-3558
▁mer	-3559
竹立	-3560
▁sol	-3561
erica	-3562
att	-3563
▁ef	-3564
ze	-3565
▁rich	-3566
▁ts	-3567
一龰匕	-3568
彑氺刂	-3569
𠘧又石	-3570
▁210	-3571
木乚糸	-3572
▁ke	-3573
八刀山	-3574
▁1870	-3575
▁day	-3576
▁6000	-3577
cm	-3578
▁mod	-3579
▁118	-3580
▁tom	-3581
木果	-3582
▁ig	-3583
▁reg	-3584
▁trans	-3585
td	-3586
▁xbox	-3587
que	-3588
line	-3589
立十玉	-3590
一儿	-3591
月长	-3592
▁20%	-3593
osh	-3594
▁studi	-3595
wn	-3596
▁pop	-3597
亠口子丸土	-3598
言乍	-3599
▁alex	-3600
ics	-3601
▁fin	-3602
虍隹	-3603
str	-3604
▁sun	-3605
fo	-3606
let	-3607
▁cs	-3608
ald	-3609
▁155	-3610
▁out	-3611
▁rna	-3612
▁top	-3613
uk	-3614
大十	-3615
木冘	-3616
▁135	-3617
▁ang	-3618
▁sam	-3619
未攵厂里	-3620
ital	-3621
▁rad	-3622
▁android	-3623
父斤	-3624
贝长	-3625
▁sk	-3626
▁america	-3627
fr	-3628
▁bet	-3629
ark	-3630
02	-3631
04	-3632
▁pat	-3633
𠂊田灬屯	-3634
ese	-3635
▁艮	-3636
▁fc	-3637
竹二	-3638
▁1886	-3639
▁cap	-3640
03	-3641
丿丿皿	-3642
谷欠心	-3643
iver	-3644
▁30%	-3645
ult	-3646
▁⿰⿰⿴	-3647
𠂇工月土	-3648
⿻⿵	-3649
饣几	-3650
扌予	-3651
钅甲	-3652
ael	-3653
▁ur	-3654
▁117	-3655
▁dir	-3656
▁colle	-3657
衤彡	-3658
▁sar	-3659
厂犬	-3660
ita	-3661
▁rock	-3662
▁james	-3663
++	-3664
一止心	-3665
pg	-3666
bl	-3667
no	-3668
巾长	-3669
冂人禸	-3670
▁90%	-3671
▁1884	-3672
▁ko	-3673
艹巨	-3674
ott	-3675
木矛木	-3676
phone	-3677
▁116	-3678
ual	-3679
阝人土	-3680
▁750	-3681
por	-3682
▁kh	-3683
▁114	-3684
ave	-3685
戈十口	-3686
▁1861	-3687
▁mi	-3688
▁cpu	-3689
▁sal	-3690
▁thom	-3691
女女	-3692
oug	-3693
ield	-3694
berg	-3695
虫我	-3696
言朱	-3697
06	-3698
▁cont	-3699
ject	-3700
コ儿	-3701
白コ儿	-3702
▁tri	-3703
十豆口灬	-3704
▁big	-3705
▁that	-3706
ology	-3707
hel	-3708
▁123	-3709
▁vir	-3710
▁1887	-3711
▁from	-3712
氵弗	-3713
duc	-3714
▁80%	-3715
▁vol	-3716
▁2500	-3717
▁king	-3718
ior	-3719
tiv	-3720
▁org	-3721
艹朱	-3722
▁sl	-3723
▁1850	-3724
▁time	-3725
▁ibm	-3726
▁1892	-3727
▁show	-3728
▁sing	-3729
匚隹	-3730
甲一阝	-3731
▁gdp	-3732
yl	-3733
▁320	-3734
▁fir	-3735
▁jun	-3736
▁utc	-3737
小土	-3738
▁1893	-3739
革巴	-3740
ife	-3741
▁260	-3742
止止	-3743
▁1862	-3744
日立	-3745
del	-3746
ien	-3747
宀八弓	-3748
▁ben	-3749
▁phil	-3750
礻也	-3751
▁122	-3752
▁1888	-3753
▁class	-3754
又艮	-3755
▁robert	-3756
08	-3757
pp	-3758
▁禺	-3759
石夕	-3760
▁kn	-3761
▁bus	-3762
▁kar	-3763
口米	-3764
ス工力	-3765
爿女	-3766
ini	-3767
▁ol	-3768
𠂊田一里	-3769
▁free	-3770
火巨	-3771
豆寸	-3772
vice	-3773
▁michael	-3774
攵灬	-3775
100	-3776
口夫艮	-3777
▁jap	-3778
𠂊彐攵灬	-3779
ama	-3780
▁dj	-3781
⿱⿰⿹	-3782
▁games	-3783
▁酉	-3784
▁129	-3785
▁intel	-3786
ism	-3787
mun	-3788
undam	-3789
port	-3790
▁mg	-3791
▁119	-3792
200	-3793
▁are	-3794
竹目大厶	-3795
阝禺	-3796
▁121	-3797
▁oh	-3798
ella	-3799
木矛木心	-3800
▁1868	-3801
ste	-3802
凵丨隹	-3803
min	-3804
▁hen	-3805
罒方	-3806
▁bill	-3807
金丁	-3808
金柬	-3809
by	-3810
虫文	-3811
ora	-3812
can	-3813
▁ve	-3814
▁1876	-3815
▁1848	-3816
𠁣𠃛木	-3817
▁sg	-3818
▁550	-3819
▁ind	-3820
▁dd	-3821
▁boy	-3822
07	-3823
父卩	-3824
ild	-3825
▁bi	-3826
▁1883	-3827
ict	-3828
▁650	-3829
▁lea	-3830
▁type	-3831
▁oricon	-3832
亡女	-3833
ari	-3834
▁record	-3835
bi	-3836
白七	-3837
礻乍	-3838
ull	-3839
▁iphone	-3840
礻必	-3841
禾几	-3842
辶豆	-3843
▁si	-3844
▁ios	-3845
▁black	-3846
fs	-3847
女方	-3848
臣又豆	-3849
▁gener	-3850
oll	-3851
ano	-3852
▁der	-3853
▁ref	-3854
▁1864	-3855
▁jack	-3856
▁college	-3857
凵丨阝	-3858
𠂉一罒金	-3859
▁techn	-3860
ink	-3861
ange	-3862
▁dan	-3863
▁media	-3864
cy	-3865
▁127	-3866
▁70%	-3867
▁les	-3868
▁park	-3869
▁乍	-3870
〢又立	-3871
zz	-3872
冫东	-3873
▁wii	-3874
▁ju	-3875
▁arch	-3876
form	-3877
▁hot	-3878
▁sky	-3879
▁1877	-3880
▁unix	-3881
𠂊彐阝	-3882
ther	-3883
iation	-3884
车干	-3885
▁atp	-3886
▁fm	-3887
火火冖玉	-3888
▁euro	-3889
ja	-3890
亻鬼	-3891
金由	-3892
▁ok	-3893
▁gundam	-3894
土文	-3895
▁133	-3896
▁fil	-3897
tainment	-3898
cen	-3899
▁126	-3900
▁270	-3901
▁dem	-3902
▁rom	-3903
木木毛	-3904
▁assoc	-3905
fc	-3906
日大日	-3907
fl	-3908
▁inc	-3909
▁tour	-3910
ump	-3911
▁aut	-3912
金金	-3913
▁1879	-3914
▁entertainment	-3915
▁巳	-3916
丹彡	-3917
火土	-3918
▁fe	-3919
▁⿻⿹	-3920
木木非	-3921
▁lang	-3922
▁bm	-3923
▁wr	-3924
uss	-3925
wan	-3926
㐅朩刂	-3927
▁1874	-3928
𠁣𠃛文	-3929
▁1840	-3930
▁chr	-3931
▁japan	-3932
▁charles	-3933
金丑	-3934
▁145	-3935
fe	-3936
艹于	-3937
▁1865	-3938
▁club	-3939
▁wat	-3940
itter	-3941
山谷	-3942
隹十	-3943
▁env	-3944
▁fire	-3945
▁george	-3946
▁144	-3947
▁1872	-3948
▁1891	-3949
▁award	-3950
一也	-3951
月刂灬	-3952
▁7000	-3953
▁richard	-3954
▁vi	-3955
▁sci	-3956
▁1863	-3957
▁best	-3958
▁house	-3959
𠂉大隹	-3960
▁40%	-3961
▁life	-3962
its	-3963
▁cat	-3964
▁nat	-3965
▁van	-3966
工水	-3967
cri	-3968
▁aa	-3969
▁rev	-3970
▁1875	-3971
言柬	-3972
▁bel	-3973
yth	-3974
▁1867	-3975
▁chris	-3976
rag	-3977
ram	-3978
▁pal	-3979
▁dream	-3980
▁175	-3981
▁737	-3982
▁acc	-3983
▁fri	-3984
▁pri	-3985
tit	-3986
▁124	-3987
▁1882	-3988
人斗	-3989
▁miss	-3990
▁spec	-3991
竹本	-3992
耒禺	-3993
▁mid	-3994
ase	-3995
ors	-3996
▁www	-3997
火页	-3998
▁ul	-3999
▁165	-4000
▁ja	-4001
朿⺀	-4002
氵木	-4003
ily	-4004
▁5%	-4005
erson	-4006
▁1866	-4007
ko	-4008
央皿	-4009
▁west	-4010
▁apple	-4011
一攵	-4012
艹内	-4013
▁amd	-4014
钅月	-4015
▁pan	-4016
▁sir	-4017
木巨	-4018
▁1869	-4019
▁dist	-4020
ws	-4021
net	-4022
ake	-4023
女口心	-4024
牛冂刂手	-4025
▁art	-4026
▁land	-4027
▁kg	-4028
▁rh	-4029
▁mel	-4030
▁cv	-4031
▁1881	-4032
vin	-4033
宀丰口谷	-4034
▁1873	-4035
▁⿰⿱⿱⿱	-4036
09	-4037
龙土	-4038
ger	-4039
千口刂	-4040
▁lou	-4041
▁747	-4042
▁office	-4043
口肅	-4044
▁gar	-4045
▁rem	-4046
▁sub	-4047
ensis	-4048
ville	-4049
示示	-4050
▁ger	-4051
▁imp	-4052
▁was	-4053
▁gt	-4054
▁137	-4055
▁60%	-4056
▁first	-4057
艹甫	-4058
金内	-4059
vis	-4060
▁156	-4061
人示	-4062
sd	-4063
▁1400	-4064
▁1878	-4065
氵立	-4066
eas	-4067
uck	-4068
▁hel	-4069
▁led	-4070
▁south	-4071
扌乃	-4072
unt	-4073
氵且	-4074
act	-4075
we	-4076
ware	-4077
▁132	-4078
▁end	-4079
▁fam	-4080
▁hol	-4081
▁only	-4082
▁8000	-4083
ett	-4084
一丂頁	-4085
▁produc	-4086
▁冉	-4087
禾儿	-4088
101	-4089
▁cha	-4090
氵目	-4091
eder	-4092
千口自心	-4093
▁100%	-4094
▁gold	-4095
▁1300	-4096
▁north	-4097
▁limited	-4098
▁html	-4099
ura	-4100
able	-4101
▁log	-4102
ql	-4103
金巨	-4104
ugh	-4105
▁thomas	-4106
一兀頁	-4107
▁205	-4108
▁service	-4109
木鬼	-4110
▁sr	-4111
▁peter	-4112
ous	-4113
▁road	-4114
▁138	-4115
▁kbs	-4116
▁american	-4117
▁cal	-4118
▁mem	-4119
ander	-4120
▁jose	-4121
▁sony	-4122
爫寸	-4123
田八夂	-4124
▁ram	-4125
teg	-4126
丿丿丶心	-4127
▁mont	-4128
▁company	-4129
ima	-4130
⿱⿻⿹	-4131
▁ear	-4132
▁this	-4133
月工	-4134
▁china	-4135
ery	-4136
clude	-4137
hc	-4138
rol	-4139
扌丸土	-4140
▁fer	-4141
press	-4142
urs	-4143
urt	-4144
▁form	-4145
比土	-4146
ple	-4147
▁long	-4148
阝井	-4149
▁ob	-4150
▁dom	-4151
▁twitter	-4152
日未	-4153
弓丨丿刂	-4154
讠朱	-4155
▁sum	-4156
▁tro	-4157
▁nt	-4158
木甘	-4159
王王巴	-4160
▁ever	-4161
▁hall	-4162
▁臼	-4163
▁tc	-4164
▁wa	-4165
口龶阝	-4166
▁ele	-4167
▁wid	-4168
扌止	-4169
▁lam	-4170
001	-4171
▁380	-4172
▁may	-4173
▁fi	-4174
ution	-4175
▁direct	-4176
▁gi	-4177
▁mtv	-4178
▁pub	-4179
▁1830	-4180
▁project	-4181
人彡戈	-4182
itch	-4183
▁139	-4184
earch	-4185
▁chin	-4186
ning	-4187
▁arm	-4188
丷干丸土	-4189
▁1853	-4190
▁1859	-4191
▁chem	-4192
▁131	-4193
▁abc	-4194
▁lee	-4195
▁roy	-4196
▁over	-4197
ua	-4198
丿皿乑	-4199
urus	-4200
▁134	-4201
▁330	-4202
▁camp	-4203
王王比	-4204
▁136	-4205
▁prin	-4206
bor	-4207
mus	-4208
vid	-4209
▁if	-4210
▁146	-4211
ada	-4212
ani	-4213
ert	-4214
▁kr	-4215
▁⿺⿱⿱	-4216
cation	-4217
▁records	-4218
氵及	-4219
求衣	-4220
ates	-4221
▁lis	-4222
▁sig	-4223
▁1857	-4224
▁will	-4225
禾火心	-4226
▁adv	-4227
▁mov	-4228
▁ltd	-4229
▁ray	-4230
▁mbc	-4231
竹生	-4232
亠田久	-4233
▁nov	-4234
木丂	-4235
led	-4236
角斗	-4237
▁est	-4238
石石	-4239
ator	-4240
▁dig	-4241
𠂊冫寸木	-4242
▁christ	-4243
idge	-4244
▁154	-4245
▁214	-4246
▁sea	-4247
0⿱	-4248
bn	-4249
pc	-4250
氵于	-4251
火言	-4252
𡗗臼	-4253
▁gnu	-4254
▁1841	-4255
0%	-4256
勹二	-4257
iew	-4258
mann	-4259
unes	-4260
▁420	-4261
▁dos	-4262
▁nasa	-4263
火又	-4264
ling	-4265
▁por	-4266
▁1858	-4267
束欠	-4268
艹鬼	-4269
囗口禾	-4270
纟申	-4271
ira	-4272
⿱⿱⿴⿱	-4273
丿囗㐅儿	-4274
火言火又	-4275
▁cons	-4276
阝皮	-4277
▁il	-4278
ball	-4279
▁15%	-4280
▁law	-4281
▁ann	-4282
▁ast	-4283
▁mob	-4284
▁ri	-4285
▁152	-4286
sch	-4287
▁internet	-4288
耳心	-4289
▁mal	-4290
▁var	-4291
icode	-4292
▁1700	-4293
▁xp	-4294
目八力	-4295
ob	-4296
▁bur	-4297
▁jon	-4298
▁kong	-4299
▁unicode	-4300
▁association	-4301
口肃	-4302
ents	-4303
▁tai	-4304
竹干	-4305
gin	-4306
ular	-4307
土于	-4308
虫牙	-4309
eep	-4310
▁bal	-4311
▁1854	-4312
ny	-4313
士冖业	-4314
▁211	-4315
▁squ	-4316
▁tor	-4317
onic	-4318
▁tar	-4319
金屯	-4320
ime	-4321
▁mb	-4322
▁256	-4323
▁1100	-4324
▁1851	-4325
▁elec	-4326
▁street	-4327
▁studio	-4328
ush	-4329
▁sbs	-4330
ui	-4331
▁tem	-4332
丬夕酉	-4333
▁340	-4334
▁ham	-4335
▁mul	-4336
▁categ	-4337
itz	-4338
▁301	-4339
▁ova	-4340
木己	-4341
▁202	-4342
ford	-4343
▁168	-4344
▁enviro	-4345
eek	-4346
▁147	-4347
▁151	-4348
艹艮	-4349
言内	-4350
▁vic	-4351
▁td	-4352
▁fun	-4353
▁von	-4354
▁1856	-4355
▁batt	-4356
▁town	-4357
han	-4358
▁370	-4359
▁jul	-4360
▁men	-4361
gy	-4362
木册	-4363
▁1%	-4364
丿丿刂	-4365
▁25%	-4366
▁hong	-4367
▁news	-4368
▁ly	-4369
▁203	-4370
▁1847	-4371
丷丨	-4372
白鬼	-4373
讠柬	-4374
als	-4375
▁153	-4376
▁235	-4377
▁lib	-4378
eak	-4379
土丹	-4380
ney	-4381
tif	-4382
app	-4383
▁ah	-4384
ester	-4385
▁island	-4386
川一	-4387
▁hs	-4388
▁pag	-4389
▁hell	-4390
▁pres	-4391
▁green	-4392
▁category	-4393
氵发	-4394
com	-4395
lic	-4396
▁cur	-4397
▁mas	-4398
▁1852	-4399
xy	-4400
ough	-4401
▁key	-4402
eau	-4403
rey	-4404
cript	-4405
▁great	-4406
弓米	-4407
弓米弓	-4408
𠘧又金	-4409
▁480	-4410
▁bor	-4411
▁def	-4412
▁hum	-4413
▁home	-4414
木工	-4415
tra	-4416
▁soft	-4417
▁network	-4418
囗甫	-4419
ach	-4420
▁gp	-4421
burg	-4422
▁bay	-4423
▁lar	-4424
gue	-4425
ota	-4426
▁rob	-4427
▁good	-4428
▁post	-4429
丬女	-4430
ucn	-4431
丷干臼	-4432
▁doc	-4433
▁far	-4434
▁inf	-4435
▁rep	-4436
▁⿱⿰⿻⿱	-4437
▁river	-4438
▁au	-4439
ated	-4440
▁148	-4441
▁401	-4442
▁bit	-4443
饣我	-4444
gen	-4445
▁act	-4446
▁bab	-4447
▁gb	-4448
▁850	-4449
▁hal	-4450
▁fran	-4451
ns	-4452
一乚	-4453
广里	-4454
氵兆	-4455
一乚丶	-4456
▁1844	-4457
▁iucn	-4458
▁song	-4459
ct	-4460
▁1855	-4461
▁ll	-4462
▁va	-4463
▁girls	-4464
ury	-4465
▁159	-4466
▁215	-4467
▁blue	-4468
更生	-4469
▁cra	-4470
▁1849	-4471
▁instit	-4472
钅垂	-4473
女又弓	-4474
▁141	-4475
▁but	-4476
▁mir	-4477
▁hear	-4478
sm	-4479
女户	-4480
金甲	-4481
▁ry	-4482
▁alb	-4483
▁spr	-4484
▁line	-4485
▁grand	-4486
ni	-4487
匕水	-4488
▁ai	-4489
▁pp	-4490
人目又	-4491
▁henry	-4492
▁ru	-4493
▁sv	-4494
cess	-4495
▁221	-4496
▁mad	-4497
▁1815	-4498
include	-4499
氵虫	-4500
钅里	-4501
lat	-4502
cade	-4503
wood	-4504
▁how	-4505
pha	-4506
▁om	-4507
▁430	-4508
▁1812	-4509
▁east	-4510
▁vide	-4511
石申	-4512
ets	-4513
▁167	-4514
▁176	-4515
▁ice	-4516
▁rpg	-4517
▁218	-4518
▁142	-4519
▁143	-4520
▁158	-4521
▁1846	-4522
iety	-4523
▁173	-4524
▁204	-4525
do	-4526
▁mu	-4527
▁ny	-4528
▁ti	-4529
tics	-4530
▁206	-4531
▁tal	-4532
tl	-4533
bal	-4534
erv	-4535
▁163	-4536
▁ros	-4537
▁162	-4538
▁who	-4539
▁champ	-4540
xx	-4541
米子	-4542
户攵口	-4543
▁sin	-4544
▁real	-4545
▁frank	-4546
艹止	-4547
ron	-4548
▁ki	-4549
立十木	-4550
▁410	-4551
▁dar	-4552
▁hist	-4553
▁progr	-4554
▁white	-4555
▁db	-4556
▁cas	-4557
▁jean	-4558
▁hor	-4559
▁online	-4560
500	-4561
den	-4562
ters	-4563
▁api	-4564
▁server	-4565
艮心	-4566
201	-4567
tian	-4568
▁gal	-4569
▁leg	-4570
▁pas	-4571
▁tur	-4572
▁disc	-4573
▁science	-4574
衤末	-4575
rop	-4576
▁178	-4577
▁310	-4578
▁die	-4579
▁pre	-4580
▁thr	-4581
▁width	-4582
厂人	-4583
钅由	-4584
▁bank	-4585
▁az	-4586
▁tbs	-4587
▁xml	-4588
口永	-4589
ces	-4590
▁nbc	-4591
▁ret	-4592
▁girl	-4593
rpm	-4594
▁ni	-4595
▁code	-4596
▁general	-4597
厶廾	-4598
▁149	-4599
▁225	-4600
▁bon	-4601
▁1789	-4602
▁stand	-4603
▁state	-4604
▁joseph	-4605
▁tu	-4606
▁usb	-4607
▁hill	-4608
火田	-4609
▁290	-4610
▁engine	-4611
▁itunes	-4612
艹末	-4613
idae	-4614
⺌冖口衣	-4615
▁cross	-4616
zine	-4617
▁run	-4618
▁sen	-4619
▁1820	-4620
木戋	-4621
舟甲	-4622
子皿力	-4623
▁208	-4624
▁oper	-4625
ope	-4626
▁238	-4627
▁band	-4628
▁ae	-4629
▁bc	-4630
𠘧又木	-4631
土斤	-4632
扌弗	-4633
oma	-4634
▁md	-4635
urch	-4636
ci	-4637
犭艮	-4638
丿廾土	-4639
▁001	-4640
▁cho	-4641
▁num	-4642
▁1843	-4643
▁maga	-4644
▁year	-4645
cher	-4646
well	-4647
▁209	-4648
jo	-4649
▁157	-4650
▁glo	-4651
ops	-4652
▁spor	-4653
▁martin	-4654
金里	-4655
▁182	-4656
▁vii	-4657
si	-4658
▁207	-4659
▁1842	-4660
▁core	-4661
rew	-4662
⿸⿸⿸	-4663
edia	-4664
▁164	-4665
▁carl	-4666
▁battle	-4667
乙水	-4668
▁nav	-4669
▁two	-4670
▁prof	-4671
az	-4672
lam	-4673
ody	-4674
rich	-4675
▁212	-4676
▁dep	-4677
▁name	-4678
▁commun	-4679
▁ia	-4680
▁syn	-4681
▁expl	-4682
ington	-4683
▁united	-4684
pi	-4685
山民	-4686
301	-4687
▁league	-4688
▁246	-4689
丨丨比灬	-4690
▁1814	-4691
一大虫	-4692
▁ign	-4693
▁angel	-4694
耳止	-4695
ddf	-4696
▁dm	-4697
▁hu	-4698
ison	-4699
▁222	-4700
钅丁	-4701
士口頁	-4702
iller	-4703
▁1845	-4704
▁litt	-4705
▁video	-4706
▁society	-4707
▁isbn	-4708
ference	-4709
▁visual	-4710
忄鬼	-4711
▁fu	-4712
▁169	-4713
▁911	-4714
▁sel	-4715
field	-4716
▁book	-4717
▁radio	-4718
口犬	-4719
ain	-4720
▁601	-4721
ral	-4722
ret	-4723
▁216	-4724
▁has	-4725
▁way	-4726
▁10000	-4727
▁vista	-4728
force	-4729
▁1795	-4730
▁research	-4731
ona	-4732
oto	-4733
▁171	-4734
▁young	-4735
犬犬	-4736
▁xx	-4737
▁172	-4738
▁181	-4739
▁223	-4740
▁crh	-4741
▁dec	-4742
▁poly	-4743
▁mobile	-4744
金垂	-4745
ids	-4746
▁ceo	-4747
▁rea	-4748
▁magazine	-4749
501	-4750
▁1792	-4751
▁cu	-4752
▁edu	-4753
氵朱	-4754
而女	-4755
ila	-4756
raph	-4757
▁jac	-4758
▁sha	-4759
tical	-4760
▁work	-4761
▁cg	-4762
㐅乂玉	-4763
▁small	-4764
忄束	-4765
辶于	-4766
酉禾	-4767
ird	-4768
▁pv	-4769
▁ze	-4770
一兀页	-4771
▁640	-4772
丿𠃌攵虫	-4773
▁pass	-4774
zy	-4775
ola	-4776
une	-4777
▁440	-4778
▁720	-4779
▁ado	-4780
𠂊田一刂	-4781
uce	-4782
▁266	-4783
▁277	-4784
▁610	-4785
▁let	-4786
宀一	-4787
▁sat	-4788
▁cry	-4789
▁1776	-4790
▁plan	-4791
▁your	-4792
▁manag	-4793
ji	-4794
omo	-4795
peg	-4796
▁pm	-4797
艹冖火	-4798
▁217	-4799
▁285	-4800
ction	-4801
▁institute	-4802
▁cf	-4803
▁460	-4804
▁75%	-4805
▁box	-4806
▁louis	-4807
▁little	-4808
木方	-4809
▁184	-4810
▁pra	-4811
钅屯	-4812
▁ns	-4813
丷酉犬	-4814
▁777	-4815
▁cbs	-4816
▁jump	-4817
▁mary	-4818
▁model	-4819
▁under	-4820
ric	-4821
▁219	-4822
▁htc	-4823
vidia	-4824
▁cctv	-4825
▁smith	-4826
▁space	-4827
▁nvidia	-4828
亻两	-4829
衤寸	-4830
gar	-4831
▁183	-4832
▁mur	-4833
▁sta	-4834
▁3500	-4835
▁foot	-4836
▁皿	-4837
言且	-4838
钅刂	-4839
▁luc	-4840
▁pac	-4841
▁part	-4842
▁yu	-4843
宀八巾	-4844
cast	-4845
star	-4846
dition	-4847
忄斤	-4848
▁228	-4849
▁255	-4850
▁inv	-4851
▁mit	-4852
ritic	-4853
言牙	-4854
olf	-4855
▁560	-4856
▁cir	-4857
▁non	-4858
ations	-4859
▁franc	-4860
▁victor	-4861
讠乍	-4862
讠韦	-4863
ato	-4864
eee	-4865
ida	-4866
▁flash	-4867
宀石	-4868
日乍	-4869
ded	-4870
our	-4871
board	-4872
▁metac	-4873
win	-4874
ship	-4875
▁365	-4876
▁god	-4877
▁jan	-4878
annel	-4879
▁port	-4880
▁night	-4881
▁junior	-4882
▁ut	-4883
爿士大	-4884
▁275	-4885
▁nad	-4886
▁wwe	-4887
▁anti	-4888
▁store	-4889
▁ub	-4890
亻隹月	-4891
▁325	-4892
▁dor	-4893
▁sql	-4894
velop	-4895
𦣞页	-4896
▁rs	-4897
▁wi	-4898
▁288	-4899
▁den	-4900
▁chil	-4901
石乐	-4902
lan	-4903
rie	-4904
▁aw	-4905
𠁣𠃛心	-4906
▁1832	-4907
▁mach	-4908
目兆	-4909
300	-4910
380	-4911
▁1821	-4912
har	-4913
人人攵	-4914
八厶儿	-4915
ette	-4916
▁1793	-4917
▁cast	-4918
▁union	-4919
月寸	-4920
eel	-4921
▁kw	-4922
ures	-4923
▁161	-4924
▁ara	-4925
▁sem	-4926
革斤	-4927
▁pi	-4928
一八石	-4929
▁moz	-4930
▁1838	-4931
▁1839	-4932
▁eric	-4933
▁light	-4934
▁corpor	-4935
bus	-4936
▁low	-4937
丿囗㐅比	-4938
▁1801	-4939
▁sports	-4940
gs	-4941
hr	-4942
釆由	-4943
𦣞頁	-4944
off	-4945
ten	-4946
▁jim	-4947
▁1836	-4948
▁explor	-4949
▁master	-4950
▁asia	-4951
▁program	-4952
mar	-4953
▁gm	-4954
▁540	-4955
▁apg	-4956
▁aug	-4957
▁cer	-4958
氵亡	-4959
▁fn	-4960
𠂇月土	-4961
▁1810	-4962
氵屯	-4963
cus	-4964
▁dl	-4965
▁sound	-4966
木丶刂	-4967
𠂊彐隹	-4968
▁1837	-4969
▁plus	-4970
▁edward	-4971
日文	-4972
钅丑	-4973
gbt	-4974
ural	-4975
▁asp	-4976
ocket	-4977
▁chinese	-4978
▁metacritic	-4979
ote	-4980
▁mos	-4981
▁sti	-4982
▁tak	-4983
𠂊⺀	-4984
▁ot	-4985
▁239	-4986
▁psp	-4987
▁1806	-4988
▁word	-4989
▁brown	-4990
▁royal	-4991
▁church	-4992
vo	-4993
灬川	-4994
46⿹	-4995
onom	-4996
▁265	-4997
▁308	-4998
▁inst	-4999
▁express	-5000
hi	-5001
矛攵	-5002
401	-5003
𠂊⺀火	-5004
ustr	-5005
▁501	-5006
nt	-5007
囗口阝	-5008
▁213	-5009
▁233	-5010
▁530	-5011
▁95%	-5012
▁hea	-5013
▁nam	-5014
ender	-5015
▁develop	-5016
▁special	-5017
▁station	-5018
▁コ	-5019
eck	-5020
人人頁	-5021
ision	-5022
▁1790	-5023
mi	-5024
火夬	-5025
▁ya	-5026
▁hon	-5027
▁bern	-5028
▁what	-5029
灬阝	-5030
acy	-5031
ami	-5032
cil	-5033
wor	-5034
▁2%	-5035
▁ml	-5036
▁229	-5037
▁ace	-5038
▁ieee	-5039
▁sand	-5040
▁technology	-5041
reg	-5042
▁nm	-5043
立十刀	-5044
釆田阝	-5045
ache	-5046
▁arr	-5047
▁party	-5048
▁taiwan	-5049
▁champion	-5050
vi	-5051
▁311	-5052
▁802	-5053
▁950	-5054
▁maria	-5055
▁philip	-5056
止自	-5057
黑攵	-5058
tps	-5059
巳八夂	-5060
▁kir	-5061
山一黑攵	-5062
▁data	-5063
止自巳八夂	-5064
气山	-5065
gan	-5066
▁234	-5067
▁249	-5068
𠂊田灬比	-5069
▁1824	-5070
▁1825	-5071
亡民	-5072
女口糸	-5073
ally	-5074
▁emp	-5075
▁steph	-5076
zo	-5077
金玉	-5078
▁hi	-5079
▁lg	-5080
厶口心	-5081
iter	-5082
▁his	-5083
▁moon	-5084
口丁	-5085
day	-5086
ito	-5087
▁pu	-5088
▁580	-5089
▁1835	-5090
▁9000	-5091
▁mess	-5092
▁mini	-5093
▁pier	-5094
▁comic	-5095
▁journ	-5096
je	-5097
bra	-5098
▁fes	-5099
▁rap	-5100
▁channel	-5101
res	-5102
▁wo	-5103
ider	-5104
▁heart	-5105
永日	-5106
▁bad	-5107
con	-5108
iga	-5109
tim	-5110
▁512	-5111
▁aga	-5112
▁fal	-5113
▁https	-5114
▁advance	-5115
ye	-5116
cat	-5117
▁ax	-5118
▁174	-5119
▁bbs	-5120
▁1644	-5121
▁just	-5122
尸九	-5123
日广	-5124
▁3%	-5125
▁305	-5126
▁ash	-5127
▁jer	-5128
▁liv	-5129
▁next	-5130
竹尹	-5131
max	-5132
艹冖玉	-5133
▁224	-5134
▁245	-5135
▁rel	-5136
ional	-5137
▁1822	-5138
▁1831	-5139
olution	-5140
lad	-5141
2000	-5142
▁620	-5143
▁lan	-5144
▁hard	-5145
亻田	-5146
禾央	-5147
bar	-5148
▁gov	-5149
ights	-5150
▁inde	-5151
▁peop	-5152
▁tele	-5153
▁electr	-5154
丿乀	-5155
fox	-5156
ift	-5157
mhz	-5158
▁maj	-5159
▁vers	-5160
▁pagasa	-5161
lor	-5162
▁232	-5163
▁dam	-5164
▁uss	-5165
▁1796	-5166
▁1813	-5167
▁have	-5168
▁onlyinclude	-5169
火𠃓	-5170
▁vs	-5171
▁390	-5172
▁701	-5173
▁chi	-5174
▁ven	-5175
▁ipod	-5176
▁after	-5177
▁comput	-5178
竹及	-5179
901	-5180
aga	-5181
over	-5182
▁262	-5183
▁pap	-5184
antas	-5185
stein	-5186
▁like	-5187
▁langu	-5188
uz	-5189
扌母	-5190
日斤	-5191
400	-5192
cho	-5193
匕水页	-5194
raft	-5195
▁mot	-5196
▁lord	-5197
▁francis	-5198
▁cup	-5199
▁set	-5200
ister	-5201
▁lady	-5202
▁second	-5203
els	-5204
esh	-5205
eter	-5206
time	-5207
▁520	-5208
▁618	-5209
▁pin	-5210
▁rub	-5211
▁down	-5212
ection	-5213
▁georg	-5214
46⿱	-5215
⺊尸页	-5216
elle	-5217
rick	-5218
▁cin	-5219
▁1807	-5220
▁2100	-5221
▁clar	-5222
▁prem	-5223
▁europe	-5224
▁mozilla	-5225
▁corporation	-5226
习习欠	-5227
刀口力	-5228
▁ker	-5229
▁ren	-5230
▁1791	-5231
▁cell	-5232
lection	-5233
▁design	-5234
业阝	-5235
801	-5236
ule	-5237
inal	-5238
▁323	-5239
▁385	-5240
亠口小頁	-5241
人一口龙	-5242
ility	-5243
ition	-5244
▁prot	-5245
▁level	-5246
▁explorer	-5247
pn	-5248
▁rd	-5249
▁251	-5250
▁beta	-5251
▁pala	-5252
▁distr	-5253
▁phone	-5254
二贝	-5255
lip	-5256
䒑未阝	-5257
▁510	-5258
▁fox	-5259
▁had	-5260
▁ing	-5261
▁dark	-5262
cha	-5263
▁bh	-5264
▁py	-5265
丰寸灬	-5266
儿丨皿	-5267
iness	-5268
▁1788	-5269
▁1834	-5270
氵金	-5271
cel	-5272
sta	-5273
ston	-5274
▁226	-5275
▁237	-5276
▁252	-5277
▁dol	-5278
▁1816	-5279
▁firefox	-5280
aya	-5281
orm	-5282
zer	-5283
▁227	-5284
▁bey	-5285
▁jas	-5286
other	-5287
▁york	-5288
cr	-5289
out	-5290
口王阝	-5291
囗口示	-5292
▁mol	-5293
▁1775	-5294
▁1794	-5295
▁1833	-5296
▁force	-5297
▁digital	-5298
cs	-5299
iff	-5300
木木阝	-5301
▁rog	-5302
▁adam	-5303
▁again	-5304
▁found	-5305
彳方	-5306
col	-5307
▁303	-5308
▁307	-5309
▁equ	-5310
▁last	-5311
ograph	-5312
▁software	-5313
cle	-5314
ros	-5315
val	-5316
▁qq	-5317
▁621	-5318
▁680	-5319
▁mun	-5320
▁tan	-5321
▁arts	-5322
▁adobe	-5323
𠂉生	-5324
cas	-5325
ume	-5326
▁bs	-5327
▁pk	-5328
八厶瓦	-5329
▁kon	-5330
▁1828	-5331
▁mode	-5332
▁touch	-5333
get	-5334
▁pen	-5335
▁see	-5336
丿𠃌攵灬	-5337
▁1780	-5338
▁1829	-5339
▁more	-5340
▁rail	-5341
▁production	-5342
一户	-5343
彳非	-5344
贝戋	-5345
ren	-5346
▁bf	-5347
▁nd	-5348
丬夕木	-5349
匚㐅瓦	-5350
▁470	-5351
▁960	-5352
▁cnn	-5353
▁deb	-5354
▁kin	-5355
▁2300	-5356
▁gran	-5357
eme	-5358
face	-5359
▁366	-5360
▁425	-5361
▁ban	-5362
糸言糸金	-5363
▁1823	-5364
▁conc	-5365
▁muse	-5366
▁hello	-5367
▁square	-5368
kin	-5369
▁mt	-5370
癶豆几	-5371
▁241	-5372
▁254	-5373
▁630	-5374
▁767	-5375
▁kde	-5376
肀二	-5377
601	-5378
ema	-5379
key	-5380
ness	-5381
▁vin	-5382
▁1799	-5383
hs	-5384
尸米	-5385
礻止	-5386
⿶⿱⿰	-5387
口止果	-5388
ious	-5389
▁346	-5390
▁son	-5391
▁build	-5392
▁point	-5393
▁football	-5394
木且	-5395
▁tg	-5396
▁242	-5397
▁304	-5398
▁1826	-5399
▁anim	-5400
▁beat	-5401
▁fair	-5402
▁council	-5403
▁alexander	-5404
▁um	-5405
▁vl	-5406
▁1809	-5407
▁hold	-5408
ication	-5409
▁global	-5410
▁christian	-5411
ado	-5412
nes	-5413
士口页	-5414
▁780	-5415
▁cle	-5416
▁tel	-5417
▁sche	-5418
▁scott	-5419
ves	-5420
𠂊小玉	-5421
▁268	-5422
▁emu	-5423
▁lum	-5424
▁1804	-5425
▁lond	-5426
▁acade	-5427
口牙	-5428
row	-5429
uel	-5430
▁ku	-5431
▁⿴⿱	-5432
▁901	-5433
▁gun	-5434
sport	-5435
▁happ	-5436
▁sign	-5437
▁gy	-5438
▁kl	-5439
▁np	-5440
▁315	-5441
▁tam	-5442
▁yah	-5443
ental	-5444
▁frame	-5445
ization	-5446
kg	-5447
kh	-5448
匚久	-5449
火虫	-5450
耳冘	-5451
不一阝	-5452
𠂊彐皮	-5453
ease	-5454
rome	-5455
▁295	-5456
▁exp	-5457
▁old	-5458
formation	-5459
一川	-5460
宀心	-5461
钅本	-5462
omb	-5463
rise	-5464
▁244	-5465
▁253	-5466
▁273	-5467
▁312	-5468
⿱⿶⿱⿰	-5469
▁film	-5470
▁bg	-5471
▁php	-5472
▁lake	-5473
▁prim	-5474
▁stra	-5475
▁summer	-5476
▁district	-5477
久火	-5478
革央	-5479
mon	-5480
▁289	-5481
▁318	-5482
▁338	-5483
ython	-5484
▁jeff	-5485
▁alpha	-5486
osp	-5487
戊一小	-5488
矛攵女	-5489
▁bat	-5490
▁1808	-5491
▁1819	-5492
▁call	-5493
▁andrew	-5494
▁daniel	-5495
▁people	-5496
金肅	-5497
una	-5498
▁ct	-5499
▁ff	-5500
▁sf	-5501
lish	-5502
▁243	-5503
▁287	-5504
▁306	-5505
▁670	-5506
▁801	-5507
▁ath	-5508
▁emi	-5509
▁4500	-5510
▁sund	-5511
ely	-5512
och	-5513
▁485	-5514
▁757	-5515
▁fac	-5516
▁gps	-5517
▁1798	-5518
▁1802	-5519
▁baby	-5520
▁read	-5521
▁childr	-5522
一由	-5523
ipe	-5524
▁fif	-5525
▁ken	-5526
▁mvp	-5527
▁drag	-5528
▁block	-5529
▁train	-5530
ascript	-5531
bit	-5532
▁dt	-5533
▁271	-5534
▁eff	-5535
▁ske	-5536
▁gala	-5537
▁final	-5538
▁queen	-5539
▁water	-5540
▁centre	-5541
▁children	-5542
▁333	-5543
▁589	-5544
▁bob	-5545
▁eli	-5546
▁fly	-5547
▁get	-5548
▁gpl	-5549
▁mig	-5550
龷由八阝	-5551
▁rain	-5552
db	-5553
口垂	-5554
▁rt	-5555
▁arg	-5556
▁cop	-5557
▁2022	-5558
▁ipad	-5559
▁public	-5560
uv	-5561
iana	-5562
▁007	-5563
▁276	-5564
▁stad	-5565
▁basic	-5566
▁fried	-5567
▁social	-5568
hp	-5569
the	-5570
▁nar	-5571
▁head	-5572
▁orig	-5573
▁wood	-5574
▁austr	-5575
毛毛	-5576
民攵	-5577
言夬	-5578
▁231	-5579
▁286	-5580
▁415	-5581
▁bud	-5582
▁kan	-5583
▁pdf	-5584
▁sca	-5585
▁sus	-5586
▁1818	-5587
igo	-5588
▁ld	-5589
民攵心	-5590
▁bir	-5591
▁pay	-5592
▁1817	-5593
▁pack	-5594
▁tvbs	-5595
▁astro	-5596
▁which	-5597
▁friend	-5598
▁javascript	-5599
uf	-5600
艹韦	-5601
uld	-5602
日大手	-5603
豸艮心	-5604
ions	-5605
tual	-5606
▁279	-5607
▁324	-5608
▁357	-5609
▁bug	-5610
▁hom	-5611
▁1783	-5612
▁2200	-5613
▁place	-5614
▁london	-5615
▁control	-5616
▁geforce	-5617
heim	-5618
▁247	-5619
▁269	-5620
▁742	-5621
▁sor	-5622
▁lgbt	-5623
▁tran	-5624
▁⿺⿱⿻⿻	-5625
▁journal	-5626
gi	-5627
火山	-5628
ova	-5629
▁jt	-5630
▁296	-5631
▁hop	-5632
▁ron	-5633
▁tex	-5634
▁wom	-5635
▁base	-5636
▁russ	-5637
▁stud	-5638
ats	-5639
▁gh	-5640
esis	-5641
untu	-5642
▁299	-5643
▁cook	-5644
▁leon	-5645
一夕	-5646
bel	-5647
tia	-5648
war	-5649
▁hp	-5650
uble	-5651
▁690	-5652
▁830	-5653
▁abb	-5654
▁tcp	-5655
inger	-5656
▁1787	-5657
▁1803	-5658
▁2600	-5659
▁chan	-5660
▁earth	-5661
▁festiv	-5662
nd	-5663
王民	-5664
sson	-5665
▁gil	-5666
𠂊田灬刂	-5667
▁awards	-5668
夂月	-5669
aka	-5670
ots	-5671
▁258	-5672
▁264	-5673
▁386	-5674
▁710	-5675
▁our	-5676
▁1827	-5677
▁dest	-5678
▁dance	-5679
▁central	-5680
iii	-5681
til	-5682
立十子	-5683
ific	-5684
ines	-5685
tica	-5686
▁aaa	-5687
▁fut	-5688
▁hit	-5689
▁1811	-5690
▁2021	-5691
▁stan	-5692
艹我	-5693
ast	-5694
her	-5695
▁pt	-5696
▁525	-5697
▁gard	-5698
▁fantas	-5699
▁python	-5700
尸比	-5701
扌龙	-5702
门心	-5703
uct	-5704
▁eg	-5705
▁fx	-5706
ides	-5707
▁257	-5708
▁263	-5709
▁327	-5710
▁730	-5711
▁pos	-5712
▁1661	-5713
▁1805	-5714
▁shar	-5715
▁human	-5716
弓也	-5717
atus	-5718
less	-5719
▁236	-5720
▁248	-5721
▁660	-5722
▁blu	-5723
▁sts	-5724
▁1777	-5725
▁villa	-5726
▁market	-5727
工口	-5728
木乐	-5729
木由	-5730
ode	-5731
anda	-5732
anga	-5733
▁309	-5734
▁335	-5735
▁903	-5736
▁cam	-5737
▁hat	-5738
▁viv	-5739
▁andr	-5740
▁well	-5741
320	-5742
▁ie	-5743
▁od	-5744
▁281	-5745
▁aim	-5746
▁sho	-5747
女疌	-5748
oud	-5749
▁eb	-5750
厶口火	-5751
mond	-5752
▁302	-5753
▁313	-5754
▁314	-5755
▁334	-5756
▁570	-5757
▁787	-5758
▁joh	-5759
▁psy	-5760
▁sla	-5761
▁card	-5762
▁family	-5763
▁development	-5764
扌八	-5765
uri	-5766
▁328	-5767
▁355	-5768
▁758	-5769
▁bre	-5770
▁fel	-5771
▁festival	-5772
ng	-5773
方土	-5774
isc	-5775
二丨心	-5776
方方土	-5777
ible	-5778
▁820	-5779
▁asc	-5780
▁dev	-5781
▁1750	-5782
▁2400	-5783
▁sour	-5784
▁information	-5785
▁rf	-5786
火火木	-5787
cent	-5788
play	-5789
▁590	-5790
▁som	-5791
𠂊田灬兆	-5792
ering	-5793
▁1770	-5794
▁voice	-5795
▁process	-5796
eta	-5797
pan	-5798
▁pg	-5799
▁joe	-5800
▁rat	-5801
▁1645	-5802
▁anth	-5803
▁steve	-5804
忄冘	-5805
扌斗	-5806
bsd	-5807
cer	-5808
iko	-5809
ran	-5810
凵丨皮	-5811
chen	-5812
▁581	-5813
▁arth	-5814
▁moun	-5815
▁france	-5816
kb	-5817
▁85%	-5818
▁860	-5819
▁980	-5820
▁mak	-5821
▁pea	-5822
▁fall	-5823
▁mike	-5824
▁soul	-5825
▁beyond	-5826
▁operation	-5827
▁dy	-5828
▁319	-5829
▁dra	-5830
▁und	-5831
▁shin	-5832
▁drive	-5833
▁opera	-5834
酉干	-5835
isa	-5836
▁rc	-5837
贝贝缶	-5838
▁412	-5839
▁att	-5840
▁bul	-5841
▁hip	-5842
▁1648	-5843
▁alan	-5844
▁conn	-5845
▁indi	-5846
▁spir	-5847
▁virgin	-5848
▁management	-5849
nm	-5850
ban	-5851
dle	-5852
▁ci	-5853
▁ye	-5854
刀丿止	-5855
▁317	-5856
▁417	-5857
▁760	-5858
▁dun	-5859
▁gla	-5860
▁nca	-5861
▁nex	-5862
▁ten	-5863
▁meth	-5864
▁anton	-5865
▁multi	-5866
▁secret	-5867
▁language	-5868
木王	-5869
▁kd	-5870
▁nu	-5871
▁vr	-5872
幺幺土	-5873
eath	-5874
▁272	-5875
▁293	-5876
▁bag	-5877
▁tol	-5878
table	-5879
▁1582	-5880
▁1650	-5881
▁perf	-5882
▁4%	-5883
日一頁	-5884
itor	-5885
▁din	-5886
▁ent	-5887
▁pie	-5888
▁1640	-5889
▁main	-5890
▁organ	-5891
osaurus	-5892
▁edition	-5893
▁billboard	-5894
▁education	-5895
▁ay	-5896
人示田	-5897
alia	-5898
amin	-5899
▁267	-5900
▁413	-5901
▁brt	-5902
▁ghz	-5903
▁mass	-5904
▁press	-5905
▁shell	-5906
▁govern	-5907
山及	-5908
幺小	-5909
氵耳	-5910
men	-5911
ria	-5912
▁rac	-5913
▁they	-5914
▁yahoo	-5915
▁museum	-5916
▁series	-5917
▁business	-5918
讠且	-5919
ken	-5920
nam	-5921
sen	-5922
utc	-5923
▁rx	-5924
𠂉大聿	-5925
▁259	-5926
▁298	-5927
▁326	-5928
▁885	-5929
▁say	-5930
ealth	-5931
▁1760	-5932
▁bell	-5933
▁wild	-5934
ij	-5935
王久	-5936
aro	-5937
rad	-5938
ray	-5939
▁405	-5940
▁iec	-5941
▁raw	-5942
▁rfc	-5943
▁1784	-5944
▁chap	-5945
▁kiss	-5946
▁court	-5947
▁steam	-5948
ex	-5949
亻非	-5950
▁ee	-5951
chan	-5952
ques	-5953
▁329	-5954
▁375	-5955
▁490	-5956
▁978	-5957
▁985	-5958
▁cli	-5959
习习隹戈	-5960
▁1683	-5961
▁dohc	-5962
▁wond	-5963
▁every	-5964
par	-5965
▁ky	-5966
▁og	-5967
▁322	-5968
▁377	-5969
▁707	-5970
▁810	-5971
▁dat	-5972
▁nas	-5973
▁1636	-5974
▁systems	-5975
丿士贝	-5976
mail	-5977
▁407	-5978
▁607	-5979
▁fbi	-5980
▁scr	-5981
▁tab	-5982
▁1642	-5983
▁1786	-5984
▁beau	-5985
▁left	-5986
ission	-5987
▁single	-5988
des	-5989
eno	-5990
▁6%	-5991
▁8%	-5992
ches	-5993
▁294	-5994
▁gon	-5995
▁kit	-5996
▁meg	-5997
▁tit	-5998
丷干丸手	-5999
▁1368	-6000
▁know	-6001
▁true	-6002
▁zero	-6003
zi	-6004
扌夬	-6005
耳𠃊	-6006
umb	-6007
▁lor	-6008
▁mhz	-6009
▁tay	-6010
▁ton	-6011
▁ring	-6012
▁samu	-6013
▁penti	-6014
艹耳	-6015
金川	-6016
erm	-6017
𠂊口比	-6018
▁282	-6019
▁359	-6020
▁ess	-6021
▁pur	-6022
▁sars	-6023
▁history	-6024
dm	-6025
ili	-6026
zen	-6027
▁cw	-6028
ency	-6029
ites	-6030
▁278	-6031
▁284	-6032
▁416	-6033
▁bsd	-6034
▁dur	-6035
▁mah	-6036
ector	-6037
▁1779	-6038
▁cham	-6039
▁fore	-6040
▁liber	-6041
▁round	-6042
sk	-6043
疒且	-6044
600	-6045
bon	-6046
▁dh	-6047
ming	-6048
▁387	-6049
▁465	-6050
▁880	-6051
▁930	-6052
▁hay	-6053
▁los	-6054
▁tea	-6055
刀丿丶米	-6056
house	-6057
▁1774	-6058
▁four	-6059
▁link	-6060
▁seed	-6061
vision	-6062
▁stephen	-6063
fi	-6064
gn	-6065
sy	-6066
子子	-6067
石见	-6068
240	-6069
▁hx	-6070
▁uc	-6071
▁421	-6072
▁727	-6073
▁pun	-6074
▁1646	-6075
▁1797	-6076
▁2800	-6077
▁gang	-6078
▁libr	-6079
▁side	-6080
▁brand	-6081
▁pentium	-6082
olo	-6083
甲一斤	-6084
▁261	-6085
▁274	-6086
▁611	-6087
▁740	-6088
▁kim	-6089
▁mba	-6090
▁1781	-6091
▁fifa	-6092
▁mpeg	-6093
▁test	-6094
▁sunday	-6095
▁profess	-6096
5⿹	-6097
亻里	-6098
▁rb	-6099
▁291	-6100
▁321	-6101
▁arc	-6102
▁ext	-6103
▁mix	-6104
金白	-6105
red	-6106
uer	-6107
▁mx	-6108
▁331	-6109
▁336	-6110
▁343	-6111
▁345	-6112
▁870	-6113
▁eva	-6114
▁flo	-6115
▁hbo	-6116
▁saf	-6117
人人龰耳	-6118
lation	-6119
▁econom	-6120
女予	-6121
yes	-6122
▁lv	-6123
木木女	-6124
▁388	-6125
▁505	-6126
athan	-6127
▁hotel	-6128
▁ubuntu	-6129
王申	-6130
▁7%	-6131
▁uk	-6132
勹口灬	-6133
cape	-6134
iger	-6135
▁414	-6136
▁419	-6137
▁ball	-6138
▁edge	-6139
▁list	-6140
▁phys	-6141
▁some	-6142
▁johann	-6143
▁prince	-6144
▁williams	-6145
▁403	-6146
▁442	-6147
▁bou	-6148
▁ern	-6149
▁mik	-6150
▁1080	-6151
▁auto	-6152
▁count	-6153
▁simon	-6154
▁there	-6155
sl	-6156
白田	-6157
800	-6158
med	-6159
▁466	-6160
▁hero	-6161
▁take	-6162
change	-6163
▁broad	-6164
▁story	-6165
由月	-6166
ful	-6167
oli	-6168
pro	-6169
▁12%	-6170
▁316	-6171
▁339	-6172
▁civ	-6173
▁ipv	-6174
ities	-6175
▁audi	-6176
▁laur	-6177
ration	-6178
▁marie	-6179
▁works	-6180
▁dragon	-6181
▁academy	-6182
chi	-6183
oda	-6184
rix	-6185
wer	-6186
▁js	-6187
▁uh	-6188
▁xm	-6189
▁617	-6190
▁921	-6191
▁ari	-6192
▁bak	-6193
▁mis	-6194
▁mys	-6195
▁nik	-6196
ather	-6197
▁1662	-6198
▁jess	-6199
▁rade	-6200
▁shad	-6201
▁feder	-6202
▁arthur	-6203
▁socket	-6204
issement	-6205
▁virtual	-6206
oe	-6207
疒久	-6208
阝千	-6209
革末	-6210
ror	-6211
yer	-6212
▁nc	-6213
▁348	-6214
▁356	-6215
▁ati	-6216
▁bes	-6217
▁bmw	-6218
▁ddr	-6219
▁nfl	-6220
▁gall	-6221
▁speed	-6222
▁computer	-6223
▁292	-6224
▁625	-6225
▁jos	-6226
▁mmc	-6227
▁1570	-6228
▁1680	-6229
▁1723	-6230
▁1763	-6231
▁1782	-6232
▁lind	-6233
▁arrond	-6234
▁indust	-6235
kt	-6236
冖水	-6237
目来	-6238
言非	-6239
330	-6240
tern	-6241
▁619	-6242
▁css	-6243
▁gab	-6244
▁ill	-6245
▁sav	-6246
mg	-6247
oh	-6248
⿳𭕄	-6249
lie	-6250
ype	-6251
匚儿戈	-6252
▁342	-6253
▁35%	-6254
▁352	-6255
▁384	-6256
▁389	-6257
▁502	-6258
▁515	-6259
▁kal	-6260
▁tas	-6261
atory	-6262
▁15000	-6263
▁number	-6264
▁pierre	-6265
▁source	-6266
▁arrondissement	-6267
uy	-6268
工阝	-6269
▁gw	-6270
▁oc	-6271
木木米	-6272
▁297	-6273
▁583	-6274
▁639	-6275
▁840	-6276
▁970	-6277
▁alt	-6278
▁dal	-6279
▁hiv	-6280
▁wta	-6281
▁conf	-6282
▁flor	-6283
▁ncaa	-6284
▁appli	-6285
cep	-6286
don	-6287
ifi	-6288
uma	-6289
▁427	-6290
▁627	-6291
▁770	-6292
▁dim	-6293
▁las	-6294
▁pci	-6295
▁pon	-6296
▁std	-6297
▁aven	-6298
▁dead	-6299
▁gene	-6300
▁unit	-6301
▁times	-6302
▁track	-6303
▁apache	-6304
▁bridge	-6305
▁jackson	-6306
lab	-6307
pot	-6308
▁pd	-6309
禾几页	-6310
titu	-6311
▁705	-6312
▁920	-6313
▁bin	-6314
▁fan	-6315
▁jay	-6316
▁lew	-6317
▁1778	-6318
▁crea	-6319
▁sport	-6320
▁august	-6321
▁radeon	-6322
文糸	-6323
rib	-6324
▁622	-6325
▁999	-6326
▁dog	-6327
▁gor	-6328
▁mes	-6329
▁ped	-6330
▁tre	-6331
▁via	-6332
▁⿰⿱⿵	-6333
agram	-6334
▁1592	-6335
▁boss	-6336
▁nick	-6337
▁ross	-6338
▁common	-6339
▁johnson	-6340
▁reference	-6341
▁ft	-6342
elli	-6343
▁344	-6344
▁got	-6345
▁kat	-6346
▁pot	-6347
冂二目力	-6348
▁1620	-6349
▁1755	-6350
▁fort	-6351
▁phot	-6352
▁turn	-6353
▁right	-6354
▁double	-6355
▁theory	-6356
ox	-6357
ges	-6358
tran	-6359
▁402	-6360
▁411	-6361
▁940	-6362
▁abo	-6363
▁pow	-6364
▁rot	-6365
▁wel	-6366
𠂊冫寸大	-6367
▁file	-6368
▁stage	-6369
口頁	-6370
大力	-6371
ips	-6372
ols	-6373
車斤土	-6374
lion	-6375
▁354	-6376
▁404	-6377
▁445	-6378
▁cel	-6379
▁lot	-6380
▁sas	-6381
▁yes	-6382
▁1772	-6383
▁zone	-6384
▁standard	-6385
▁framework	-6386
▁collection	-6387
彳弗	-6388
alk	-6389
ias	-6390
lah	-6391
▁za	-6392
▁337	-6393
▁358	-6394
▁528	-6395
▁1667	-6396
▁anal	-6397
▁cult	-6398
▁ascii	-6399
▁order	-6400
▁foundation	-6401
木斥	-6402
▁rr	-6403
禾儿頁	-6404
rent	-6405
▁535	-6406
▁wan	-6407
ident	-6408
▁cole	-6409
▁kenn	-6410
ective	-6411
▁major	-6412
▁never	-6413
▁three	-6414
▁golden	-6415
▁person	-6416
▁patrick	-6417
kw	-6418
eri	-6419
kit	-6420
▁lc	-6421
bour	-6422
▁45%	-6423
▁533	-6424
▁555	-6425
▁626	-6426
▁tun	-6427
亠口小页	-6428
𠂊田一非	-6429
erial	-6430
▁1724	-6431
▁2700	-6432
▁anna	-6433
▁where	-6434
▁enterp	-6435
yp	-6436
木石	-6437
钅白	-6438
▁bt	-6439
▁546	-6440
▁its	-6441
itish	-6442
▁1590	-6443
▁1727	-6444
▁cour	-6445
▁mind	-6446
▁sant	-6447
▁toky	-6448
▁album	-6449
▁chang	-6450
▁graph	-6451
▁access	-6452
▁walter	-6453
▁european	-6454
yd	-6455
疒巴	-6456
扌丸手	-6457
loid	-6458
▁447	-6459
▁lie	-6460
▁1457	-6461
▁chen	-6462
▁hyper	-6463
▁samuel	-6464
▁british	-6465
▁capital	-6466
din	-6467
▁ox	-6468
ogue	-6469
vers	-6470
▁383	-6471
▁605	-6472
▁1637	-6473
▁1785	-6474
▁field	-6475
▁start	-6476
▁action	-6477
钅重	-6478
𭕄⿻	-6479
46⿷	-6480
acs	-6481
iny	-6482
▁fs	-6483
▁lr	-6484
▁qs	-6485
人人耳	-6486
tist	-6487
▁351	-6488
▁395	-6489
▁409	-6490
▁kor	-6491
▁map	-6492
糸言糸山	-6493
▁1580	-6494
▁hand	-6495
▁lost	-6496
▁smart	-6497
于皿	-6498
夂口隹	-6499
▁615	-6500
▁ori	-6501
ellow	-6502
▁1598	-6503
▁1628	-6504
▁1736	-6505
▁doug	-6506
▁math	-6507
▁rose	-6508
▁happy	-6509
▁jones	-6510
▁player	-6511
▁states	-6512
▁services	-6513
oop	-6514
ril	-6515
▁ls	-6516
imax	-6517
▁448	-6518
▁545	-6519
▁910	-6520
▁3200	-6521
▁greg	-6522
▁were	-6523
▁function	-6524
▁friedrich	-6525
▁instagram	-6526
王耳	-6527
舟方	-6528
辶十	-6529
bby	-6530
pur	-6531
▁xi	-6532
小丿女	-6533
ears	-6534
hema	-6535
▁353	-6536
▁361	-6537
▁mom	-6538
ument	-6539
▁fish	-6540
▁karl	-6541
▁plat	-6542
▁building	-6543
lon	-6544
▁df	-6545
匚儿斗	-6546
口夫欠	-6547
tier	-6548
▁369	-6549
▁398	-6550
▁428	-6551
▁613	-6552
▁abd	-6553
▁bra	-6554
▁eth	-6555
▁lte	-6556
▁msn	-6557
▁tap	-6558
▁1745	-6559
▁imax	-6560
▁mill	-6561
▁qual	-6562
▁rand	-6563
▁wall	-6564
▁seven	-6565
▁stone	-6566
▁library	-6567
▁stadium	-6568
mad	-6569
十罒心	-6570
幺大谷	-6571
立日欠	-6572
core	-6573
ects	-6574
lips	-6575
▁585	-6576
▁614	-6577
▁mcc	-6578
糸言糸木	-6579
▁robin	-6580
▁interac	-6581
▁pacific	-6582
hd	-6583
一虫	-6584
bro	-6585
roll	-6586
▁523	-6587
▁685	-6588
▁six	-6589
凵丨一虫	-6590
𠂊田灬非	-6591
▁1622	-6592
▁1720	-6593
▁1730	-6594
▁amaz	-6595
▁feat	-6596
▁make	-6597
▁mand	-6598
▁blood	-6599
▁metal	-6600
▁paris	-6601
▁santa	-6602
▁eleven	-6603
rd	-6604
亻羊	-6605
来贝	-6606
ali	-6607
ika	-6608
▁vv	-6609
fred	-6610
kins	-6611
▁fre	-6612
▁1550	-6613
▁1623	-6614
▁1759	-6615
▁days	-6616
▁tony	-6617
▁voca	-6618
▁wiki	-6619
ht	-6620
豸里	-6621
▁gs	-6622
▁655	-6623
bourg	-6624
▁1625	-6625
▁20000	-6626
朱阝	-6627
谷阝	-6628
hen	-6629
▁tf	-6630
镸彡毛	-6631
helm	-6632
odon	-6633
ynam	-6634
▁363	-6635
▁529	-6636
▁jet	-6637
▁kam	-6638
enger	-6639
▁2030	-6640
▁memor	-6641
▁ville	-6642
▁galaxy	-6643
__	-6644
巾隹	-6645
▁rn	-6646
▁sb	-6647
▁65%	-6648
▁715	-6649
▁abs	-6650
▁aur	-6651
▁nmb	-6652
▁1560	-6653
▁1573	-6654
▁auth	-6655
▁full	-6656
▁lead	-6657
▁pers	-6658
iction	-6659
▁avenue	-6660
▁harris	-6661
▁wilson	-6662
▁english	-6663
疒豆	-6664
讠牙	-6665
钅巴	-6666
109	-6667
uts	-6668
▁ck	-6669
口龶见	-6670
艹冖虫	-6671
tice	-6672
▁283	-6673
▁379	-6674
▁432	-6675
▁790	-6676
▁98%	-6677
▁jar	-6678
▁ted	-6679
ittee	-6680
▁1568	-6681
▁boys	-6682
▁burn	-6683
▁cali	-6684
▁nicon	-6685
▁spring	-6686
口自	-6687
dom	-6688
yan	-6689
▁ix	-6690
▁tl	-6691
bach	-6692
ench	-6693
▁418	-6694
▁hav	-6695
▁jus	-6696
▁ner	-6697
人一口页	-6698
light	-6699
opher	-6700
▁1735	-6701
▁1740	-6702
▁cher	-6703
▁fred	-6704
▁most	-6705
▁ruby	-6706
▁stop	-6707
▁rober	-6708
▁tokyo	-6709
▁albert	-6710
ief	-6711
ize	-6712
oni	-6713
▁kt	-6714
▁lp	-6715
未攵厂	-6716
𠂇巾阝	-6717
ando	-6718
▁406	-6719
▁ala	-6720
▁bow	-6721
▁fis	-6722
▁him	-6723
▁hkt	-6724
▁pse	-6725
▁vit	-6726
usion	-6727
▁1478	-6728
▁1757	-6729
▁acid	-6730
▁lisp	-6731
▁mnet	-6732
▁nord	-6733
▁⿰⿱𭕄⿻	-6734
虫冉	-6735
金甘	-6736
700	-6737
hed	-6738
mph	-6739
▁rp	-6740
八刀木	-6741
ding	-6742
lace	-6743
▁455	-6744
▁51%	-6745
▁519	-6746
▁527	-6747
▁ave	-6748
▁mam	-6749
▁rca	-6750
▁sug	-6751
▁1649	-6752
▁1688	-6753
▁here	-6754
▁made	-6755
土儿土丸𧘇	-6756
▁kevin	-6757
▁division	-6758
冂丨	-6759
uit	-6760
▁378	-6761
▁436	-6762
▁451	-6763
▁rod	-6764
▁1643	-6765
▁5500	-6766
▁nico	-6767
▁week	-6768
▁niconico	-6769
缶本	-6770
阝止	-6771
vey	-6772
▁gd	-6773
▁tm	-6774
ersh	-6775
ogen	-6776
▁332	-6777
▁347	-6778
▁371	-6779
▁408	-6780
▁495	-6781
▁548	-6782
▁atr	-6783
▁ell	-6784
▁hey	-6785
▁usa	-6786
▁1369	-6787
▁priv	-6788
▁sail	-6789
▁sher	-6790
▁tower	-6791
▁taylor	-6792
ological	-6793
▁portable	-6794
日卯	-6795
爫见	-6796
fan	-6797
tha	-6798
tie	-6799
▁nr	-6800
𠘧又心	-6801
▁368	-6802
▁396	-6803
▁399	-6804
▁446	-6805
▁488	-6806
▁547	-6807
▁612	-6808
▁99%	-6809
▁aff	-6810
▁bac	-6811
▁hyd	-6812
▁1634	-6813
▁1647	-6814
▁1651	-6815
▁cosp	-6816
▁gear	-6817
▁machine	-6818
亚土	-6819
讠非	-6820
𠂆万	-6821
bol	-6822
▁rg	-6823
▁433	-6824
▁489	-6825
▁907	-6826
▁cos	-6827
▁dia	-6828
▁yam	-6829
works	-6830
worth	-6831
▁1469	-6832
▁1616	-6833
▁1748	-6834
intosh	-6835
▁infin	-6836
▁lewis	-6837
▁repub	-6838
▁their	-6839
▁section	-6840
isk	-6841
月月刂	-6842
vent	-6843
▁374	-6844
▁645	-6845
▁hun	-6846
▁pil	-6847
▁1475	-6848
▁1609	-6849
▁1626	-6850
▁6500	-6851
▁extr	-6852
▁magn	-6853
▁contin	-6854
▁freder	-6855
nia	-6856
▁372	-6857
▁511	-6858
▁675	-6859
▁iss	-6860
▁nig	-6861
▁1630	-6862
▁1658	-6863
▁1768	-6864
▁about	-6865
▁magic	-6866
▁health	-6867
▁alexand	-6868
▁committee	-6869
py	-6870
目疌	-6871
utt	-6872
丿大山	-6873
乡隹瓦	-6874
rian	-6875
▁513	-6876
▁689	-6877
▁ant	-6878
▁fab	-6879
▁gem	-6880
火火冖火	-6881
▁1466	-6882
▁1756	-6883
▁prop	-6884
▁break	-6885
▁wilhelm	-6886
▁enterprise	-6887
wh	-6888
石木	-6889
辶入	-6890
cia	-6891
elf	-6892
nie	-6893
人人艮	-6894
▁487	-6895
▁499	-6896
▁518	-6897
▁532	-6898
▁556	-6899
▁586	-6900
▁667	-6901
▁wea	-6902
abeth	-6903
▁1621	-6904
▁1624	-6905
▁1769	-6906
▁1771	-6907
▁afri	-6908
▁five	-6909
▁walk	-6910
▁wing	-6911
▁depart	-6912
▁complex	-6913
esa	-6914
ost	-6915
口木火	-6916
agne	-6917
iano	-6918
▁341	-6919
▁367	-6920
▁506	-6921
▁537	-6922
▁587	-6923
▁616	-6924
▁ali	-6925
▁gas	-6926
▁tnt	-6927
▁tot	-6928
▁1618	-6929
▁1733	-6930
▁1773	-6931
▁area	-6932
▁espn	-6933
▁hosp	-6934
▁kill	-6935
▁mega	-6936
▁nich	-6937
▁perl	-6938
▁ultra	-6939
▁termin	-6940
▁cosplay	-6941
▁directx	-6942
wc	-6943
yo	-6944
aki	-6945
𠘧又缶	-6946
back	-6947
elly	-6948
ways	-6949
▁18%	-6950
▁475	-6951
▁633	-6952
▁735	-6953
▁925	-6954
▁aba	-6955
▁ale	-6956
▁1610	-6957
▁1652	-6958
▁1660	-6959
▁1725	-6960
▁1762	-6961
▁solo	-6962
亠丷厂生刂	-6963
▁chrome	-6964
▁valley	-6965
▁wonder	-6966
虫斗	-6967
gam	-6968
ages	-6969
▁55%	-6970
▁717	-6971
▁any	-6972
▁vcd	-6973
▁1260	-6974
▁1619	-6975
▁1664	-6976
▁1765	-6977
▁mart	-6978
▁mrna	-6979
▁brian	-6980
▁index	-6981
▁offic	-6982
▁other	-6983
▁roger	-6984
束力	-6985
lus	-6986
pon	-6987
▁pf	-6988
ater	-6989
view	-6990
▁486	-6991
▁536	-6992
▁553	-6993
▁628	-6994
▁636	-6995
▁986	-6996
▁fat	-6997
▁haw	-6998
▁nan	-6999
▁nec	-7000
▁rol	-7001
十口儿刂	-7002
▁1547	-7003
▁1577	-7004
▁1627	-7005
▁1761	-7006
▁mars	-7007
▁shop	-7008
▁stri	-7009
▁when	-7010
▁secur	-7011
▁mathema	-7012
▁vocaloid	-7013
5⿸	-7014
戋皿	-7015
扌柬	-7016
金土	-7017
701	-7018
cht	-7019
mal	-7020
nel	-7021
ogo	-7022
ove	-7023
tex	-7024
▁9%	-7025
ipal	-7026
▁349	-7027
▁364	-7028
▁477	-7029
▁539	-7030
▁635	-7031
▁762	-7032
▁973	-7033
▁cba	-7034
▁ccd	-7035
▁jag	-7036
▁lol	-7037
▁1615	-7038
▁deep	-7039
▁mount	-7040
▁future	-7041
▁garden	-7042
▁michel	-7043
▁version	-7044
▁gamespot	-7045
口亚	-7046
扌工	-7047
uda	-7048
▁cx	-7049
▁eu	-7050
女又巾	-7051
▁33%	-7052
▁422	-7053
▁443	-7054
▁524	-7055
▁552	-7056
▁629	-7057
▁990	-7058
▁bol	-7059
▁fda	-7060
▁pad	-7061
▁wol	-7062
𠂊田一屯	-7063
▁7500	-7064
▁kids	-7065
▁maur	-7066
▁front	-7067
▁women	-7068
▁method	-7069
▁formation	-7070
▁transport	-7071
束頁	-7072
▁dx	-7073
▁gc	-7074
八刀心	-7075
ipei	-7076
▁476	-7077
▁623	-7078
▁kid	-7079
▁nuc	-7080
▁sna	-7081
▁vel	-7082
anger	-7083
space	-7084
▁1370	-7085
▁1583	-7086
▁1631	-7087
▁1689	-7088
▁3600	-7089
▁fern	-7090
▁food	-7091
▁const	-7092
▁parti	-7093
▁pseud	-7094
▁championship	-7095
日兆	-7096
350	-7097
umi	-7098
▁tt	-7099
▁454	-7100
▁508	-7101
▁514	-7102
▁688	-7103
▁825	-7104
▁lcd	-7105
▁sud	-7106
コ一人贝	-7107
▁1659	-7108
▁1684	-7109
▁2025	-7110
▁alli	-7111
▁also	-7112
▁gate	-7113
▁gamec	-7114
▁motor	-7115
▁alfred	-7116
gl	-7117
目丁	-7118
gra	-7119
imo	-7120
▁qt	-7121
ione	-7122
▁435	-7123
▁534	-7124
▁577	-7125
▁588	-7126
▁634	-7127
▁637	-7128
▁647	-7129
▁962	-7130
▁blo	-7131
▁fro	-7132
▁kap	-7133
▁sex	-7134
▁tag	-7135
inder	-7136
ments	-7137
▁1250	-7138
▁1450	-7139
▁1571	-7140
▁1585	-7141
▁1753	-7142
enberg	-7143
▁harry	-7144
▁taipei	-7145
▁studios	-7146
氵巳	-7147
门三	-7148
aco	-7149
bin	-7150
uty	-7151
▁dp	-7152
▁kc	-7153
▁pb	-7154
冂卄禾	-7155
ania	-7156
host	-7157
phal	-7158
pson	-7159
reis	-7160
▁393	-7161
▁424	-7162
▁453	-7163
▁503	-7164
▁517	-7165
▁542	-7166
▁606	-7167
▁713	-7168
▁803	-7169
▁1584	-7170
▁1722	-7171
▁fami	-7172
▁mail	-7173
▁pict	-7174
▁ryan	-7175
▁symb	-7176
▁allen	-7177
▁clark	-7178
▁dynam	-7179
▁jason	-7180
▁archit	-7181
▁mission	-7182
▁mountain	-7183
110	-7184
lis	-7185
▁hm	-7186
覀示瓜	-7187
arch	-7188
down	-7189
▁382	-7190
▁397	-7191
▁439	-7192
▁468	-7193
▁551	-7194
▁642	-7195
▁718	-7196
▁bil	-7197
▁bot	-7198
▁inn	-7199
𠂊田灬方	-7200
ember	-7201
rough	-7202
struc	-7203
under	-7204
▁1569	-7205
▁gary	-7206
▁lear	-7207
▁prod	-7208
▁quad	-7209
▁tell	-7210
▁gnome	-7211
豸才	-7212
die	-7213
fel	-7214
夫丷页	-7215
acle	-7216
cell	-7217
etta	-7218
▁549	-7219
▁716	-7220
▁alg	-7221
▁cis	-7222
▁jud	-7223
未攵厂牛	-7224
▁1454	-7225
▁1553	-7226
▁1685	-7227
▁ener	-7228
▁into	-7229
▁note	-7230
▁alice	-7231
▁bruce	-7232
▁death	-7233
▁roman	-7234
▁active	-7235
▁report	-7236
▁macintosh	-7237
疒羊	-7238
cam	-7239
mas	-7240
ole	-7241
uff	-7242
一丂页	-7243
engl	-7244
stal	-7245
▁381	-7246
▁516	-7247
▁554	-7248
▁684	-7249
▁712	-7250
▁age	-7251
▁gri	-7252
▁pak	-7253
▁1521	-7254
▁1601	-7255
▁1701	-7256
▁1707	-7257
▁1713	-7258
▁1728	-7259
▁cath	-7260
▁gord	-7261
▁scot	-7262
▁sega	-7263
▁wave	-7264
▁struct	-7265
▁airport	-7266
▁fantasy	-7267
▁gamecube	-7268
▁holdings	-7269
gu	-7270
囗屯	-7271
大火	-7272
金皮	-7273
钅玉	-7274
𠂉丹	-7275
25%	-7276
oro	-7277
agar	-7278
▁423	-7279
▁544	-7280
▁668	-7281
▁755	-7282
▁927	-7283
▁aqu	-7284
▁cac	-7285
▁did	-7286
▁hxd	-7287
▁lyn	-7288
▁neo	-7289
▁obs	-7290
▁zip	-7291
ollow	-7292
▁1604	-7293
▁1766	-7294
▁1767	-7295
▁mytv	-7296
▁stor	-7297
▁very	-7298
▁view	-7299
▁12000	-7300
▁board	-7301
▁exper	-7302
▁modern	-7303
▁anthony	-7304
▁hospital	-7305
▁universal	-7306
hu	-7307
㐅刂	-7308
𠂉𠃓	-7309
hol	-7310
▁cz	-7311
立十糸	-7312
ense	-7313
igan	-7314
illy	-7315
▁373	-7316
▁426	-7317
▁538	-7318
▁646	-7319
▁682	-7320
▁721	-7321
▁cia	-7322
▁ful	-7323
▁gsm	-7324
▁que	-7325
▁⿰⿰⿱	-7326
𠂉大巨木	-7327
▁1565	-7328
▁1575	-7329
▁1586	-7330
▁bang	-7331
▁come	-7332
au	-7333
乃小	-7334
米果	-7335
gie	-7336
▁nf	-7337
丷夫己	-7338
▁457	-7339
▁det	-7340
▁kom	-7341
▁pia	-7342
▁sid	-7343
▁1603	-7344
▁1629	-7345
▁1638	-7346
▁1670	-7347
▁than	-7348
▁movie	-7349
▁planet	-7350
ku	-7351
王玉	-7352
ees	-7353
▁io	-7354
▁xe	-7355
ries	-7356
tech	-7357
▁362	-7358
▁472	-7359
▁576	-7360
▁648	-7361
▁681	-7362
▁amp	-7363
▁bun	-7364
▁mut	-7365
丨丨比阝	-7366
糸言糸手	-7367
aster	-7368
▁1050	-7369
▁1567	-7370
▁1655	-7371
▁1715	-7372
▁1758	-7373
▁poem	-7374
▁talk	-7375
ential	-7376
▁wester	-7377
▁surface	-7378
cf	-7379
hl	-7380
火韦	-7381
113	-7382
alo	-7383
phy	-7384
ved	-7385
▁mn	-7386
ccff	-7387
▁392	-7388
▁933	-7389
𠂊田灬工	-7390
ennis	-7391
▁1572	-7392
▁2023	-7393
▁fast	-7394
▁rick	-7395
▁davis	-7396
▁howard	-7397
▁sailor	-7398
bu	-7399
nh	-7400
目于	-7401
cci	-7402
ori	-7403
▁ou	-7404
䒑土水	-7405
尢丶山	-7406
inus	-7407
▁394	-7408
▁494	-7409
▁566	-7410
▁725	-7411
▁936	-7412
▁bos	-7413
▁oly	-7414
▁ria	-7415
estra	-7416
▁1679	-7417
▁1714	-7418
▁1764	-7419
▁body	-7420
▁jane	-7421
▁kara	-7422
▁lisa	-7423
▁lock	-7424
▁democ	-7425
▁marsh	-7426
▁table	-7427
▁attack	-7428
▁ccccff	-7429
▁government	-7430
王韦	-7431
门隹	-7432
ago	-7433
bat	-7434
ted	-7435
口寸灬	-7436
口贝阝	-7437
inae	-7438
iron	-7439
oper	-7440
▁14%	-7441
▁456	-7442
▁522	-7443
▁711	-7444
▁719	-7445
▁918	-7446
▁975	-7447
▁wik	-7448
▁⿱⿳⿳	-7449
人一口阝	-7450
craft	-7451
▁anne	-7452
▁blog	-7453
▁kent	-7454
▁page	-7455
▁palm	-7456
▁yosh	-7457
▁opengl	-7458
灬大	-7459
车乚	-7460
99%	-7461
bda	-7462
▁kv	-7463
▁vt	-7464
enny	-7465
haus	-7466
▁464	-7467
▁531	-7468
▁541	-7469
▁596	-7470
▁722	-7471
▁905	-7472
▁dns	-7473
▁1632	-7474
▁1729	-7475
▁rank	-7476
▁wolf	-7477
▁wong	-7478
▁lucas	-7479
▁turbo	-7480
▁switch	-7481
dc	-7482
iy	-7483
zh	-7484
业㡀	-7485
口言	-7486
民日	-7487
enz	-7488
tig	-7489
▁zo	-7490
hard	-7491
▁050	-7492
▁13%	-7493
▁444	-7494
▁509	-7495
▁526	-7496
▁751	-7497
▁805	-7498
▁fol	-7499
▁oce	-7500
▁sdk	-7501
▁1453	-7502
▁1460	-7503
▁1737	-7504
▁1738	-7505
▁barb	-7506
▁pink	-7507
▁scan	-7508
▁teau	-7509
▁trin	-7510
▁march	-7511
▁peace	-7512
▁princ	-7513
▁sweet	-7514
▁exchange	-7515
▁engineering	-7516
af	-7517
dd	-7518
钅川	-7519
cin	-7520
kia	-7521
mes	-7522
▁vp	-7523
镸彡冉	-7524
1000	-7525
ista	-7526
itar	-7527
mark	-7528
ones	-7529
▁429	-7530
▁458	-7531
▁493	-7532
▁562	-7533
▁745	-7534
▁lil	-7535
eatre	-7536
▁1517	-7537
▁1635	-7538
▁1681	-7539
▁1747	-7540
▁brad	-7541
▁vita	-7542
▁stars	-7543
▁miller	-7544
▁season	-7545
tz	-7546
广羊	-7547
340	-7548
75%	-7549
bes	-7550
gon	-7551
oco	-7552
▁ek	-7553
山豆頁	-7554
止匕石	-7555
atch	-7556
ique	-7557
▁434	-7558
▁438	-7559
▁479	-7560
▁496	-7561
▁521	-7562
▁686	-7563
▁731	-7564
▁766	-7565
▁863	-7566
▁945	-7567
▁joy	-7568
▁put	-7569
▁1525	-7570
▁1605	-7571
▁1734	-7572
▁cube	-7573
▁dave	-7574
▁khan	-7575
▁roll	-7576
▁xiii	-7577
▁delta	-7578
▁storm	-7579
▁archive	-7580
▁classic	-7581
ih	-7582
ade	-7583
▁dk	-7584
▁ue	-7585
ival	-7586
▁11%	-7587
▁484	-7588
▁565	-7589
▁568	-7590
▁598	-7591
▁624	-7592
▁796	-7593
▁815	-7594
▁846	-7595
▁cad	-7596
▁eos	-7597
▁ncc	-7598
▁oem	-7599
angel	-7600
▁1150	-7601
▁1371	-7602
▁1556	-7603
▁1613	-7604
▁1710	-7605
▁ling	-7606
▁christopher	-7607
钅贝	-7608
02%	-7609
bas	-7610
cad	-7611
口口瓦	-7612
口止八	-7613
日一毛	-7614
bell	-7615
gate	-7616
stra	-7617
▁563	-7618
▁575	-7619
▁597	-7620
▁603	-7621
▁604	-7622
▁877	-7623
▁890	-7624
▁926	-7625
▁cri	-7626
▁dip	-7627
▁gui	-7628
▁rud	-7629
▁1024	-7630
▁1665	-7631
▁1751	-7632
▁brun	-7633
▁hein	-7634
▁look	-7635
▁whit	-7636
▁debian	-7637
bw	-7638
vs	-7639
木柬	-7640
钅目	-7641
龙耳	-7642
iva	-7643
▁hc	-7644
▁ow	-7645
▁pw	-7646
宀八串	-7647
戈戈皿	-7648
bury	-7649
▁507	-7650
▁651	-7651
▁687	-7652
▁bom	-7653
▁gay	-7654
▁iup	-7655
▁npc	-7656
▁vhs	-7657
▁vor	-7658
thers	-7659
▁1526	-7660
▁1559	-7661
▁3300	-7662
▁cdma	-7663
▁demo	-7664
▁eliz	-7665
▁orch	-7666
▁smap	-7667
▁25000	-7668
▁pascal	-7669
▁anderson	-7670
of	-7671
oy	-7672
月甫	-7673
氵日	-7674
fly	-7675
lem	-7676
▁bp	-7677
▁ej	-7678
▁ez	-7679
▁kk	-7680
ande	-7681
endo	-7682
▁847	-7683
▁865	-7684
▁876	-7685
▁atm	-7686
▁bec	-7687
▁das	-7688
▁eug	-7689
▁hud	-7690
▁reb	-7691
▁sap	-7692
▁sul	-7693
acter	-7694
▁1130	-7695
▁1350	-7696
▁1639	-7697
▁1654	-7698
▁army	-7699
▁avex	-7700
▁cycl	-7701
▁gian	-7702
▁juan	-7703
▁stat	-7704
▁drama	-7705
▁lambda	-7706
▁friends	-7707
▁victoria	-7708
▁commission	-7709
▁interactive	-7710
np	-7711
01%	-7712
116	-7713
kar	-7714
rin	-7715
口止重	-7716
head	-7717
ross	-7718
▁567	-7719
▁768	-7720
▁826	-7721
▁ats	-7722
▁cit	-7723
▁gpu	-7724
▁hms	-7725
▁kil	-7726
▁leo	-7727
▁lev	-7728
▁pip	-7729
▁sac	-7730
▁1540	-7731
▁1657	-7732
▁1721	-7733
▁1726	-7734
▁atom	-7735
▁ther	-7736
▁henri	-7737
▁twins	-7738
▁theatre	-7739
▁virginia	-7740
必皿	-7741
bis	-7742
lev	-7743
ulo	-7744
▁kb	-7745
▁504	-7746
▁609	-7747
▁632	-7748
▁643	-7749
▁756	-7750
▁929	-7751
▁951	-7752
▁aer	-7753
▁boo	-7754
▁chu	-7755
▁nac	-7756
▁nak	-7757
▁obe	-7758
ating	-7759
eater	-7760
▁1593	-7761
▁1607	-7762
▁bios	-7763
▁caro	-7764
▁fact	-7765
▁nets	-7766
▁tang	-7767
▁plaza	-7768
▁return	-7769
▁singap	-7770
▁triple	-7771
▁medical	-7772
▁western	-7773
▁advanced	-7774
▁messenger	-7775
▁generation	-7776
忄千	-7777
氵里	-7778
met	-7779
omy	-7780
▁ks	-7781
日一页	-7782
ales	-7783
alis	-7784
oche	-7785
pend	-7786
ties	-7787
▁557	-7788
▁638	-7789
▁763	-7790
▁813	-7791
▁845	-7792
▁fem	-7793
▁wir	-7794
羊䒑口阝	-7795
▁1524	-7796
▁1578	-7797
▁1611	-7798
▁1672	-7799
▁1673	-7800
▁1687	-7801
▁diam	-7802
▁hart	-7803
▁metro	-7804
▁parad	-7805
▁living	-7806
wi	-7807
一未	-7808
亻瓦	-7809
女丑	-7810
106	-7811
125	-7812
zan	-7813
zar	-7814
▁xy	-7815
匕水頁	-7816
木木糸	-7817
𠃊目八	-7818
iday	-7819
ress	-7820
▁17%	-7821
▁599	-7822
▁746	-7823
▁835	-7824
▁dif	-7825
▁fig	-7826
▁jyp	-7827
▁lud	-7828
▁ral	-7829
▁1472	-7830
▁1599	-7831
▁1614	-7832
▁1653	-7833
▁1718	-7834
▁1741	-7835
▁logo	-7836
▁sequ	-7837
▁olymp	-7838
▁canada	-7839
▁invest	-7840
▁bernard	-7841
du	-7842
lu	-7843
一尸	-7844
一阝	-7845
钅不	-7846
102	-7847
121	-7848
arc	-7849
mbr	-7850
mur	-7851
ono	-7852
▁nk	-7853
▁vf	-7854
bird	-7855
ners	-7856
olic	-7857
▁391	-7858
▁816	-7859
▁919	-7860
▁979	-7861
▁alf	-7862
▁ges	-7863
▁ian	-7864
▁nom	-7865
▁ois	-7866
▁ras	-7867
▁row	-7868
▁rue	-7869
▁tet	-7870
弋一止贝	-7871
alian	-7872
iment	-7873
▁1499	-7874
▁1669	-7875
▁1717	-7876
▁1752	-7877
▁dual	-7878
▁maca	-7879
▁saab	-7880
▁artist	-7881
▁histor	-7882
▁johnny	-7883
▁against	-7884
▁califor	-7885
▁concert	-7886
▁dreamcast	-7887
ju	-7888
vc	-7889
丷田	-7890
金朱	-7891
dor	-7892
ils	-7893
zzo	-7894
一由心	-7895
丷田日	-7896
丿丿火	-7897
八刀阝	-7898
冖车阝	-7899
口口頁	-7900
inte	-7901
▁431	-7902
▁452	-7903
▁561	-7904
▁704	-7905
▁823	-7906
▁829	-7907
▁937	-7908
▁amb	-7909
▁guy	-7910
▁isa	-7911
▁itv	-7912
▁lab	-7913
▁rim	-7914
丨丨比米	-7915
ature	-7916
tdown	-7917
▁1280	-7918
▁1589	-7919
▁1732	-7920
▁benj	-7921
▁lion	-7922
▁path	-7923
▁scar	-7924
▁self	-7925
▁energy	-7926
▁matthe	-7927
▁review	-7928
ications	-7929
▁security	-7930
dh	-7931
dn	-7932
勹言	-7933
艹氏	-7934
金戉	-7935
gas	-7936
一由寸	-7937
ancy	-7938
body	-7939
ilog	-7940
lica	-7941
osph	-7942
otte	-7943
uber	-7944
ules	-7945
▁461	-7946
▁49%	-7947
▁558	-7948
▁677	-7949
▁824	-7950
▁902	-7951
▁912	-7952
▁914	-7953
▁935	-7954
▁amx	-7955
▁hur	-7956
▁irt	-7957
world	-7958
▁1435	-7959
▁1641	-7960
▁1682	-7961
▁1690	-7962
▁1697	-7963
▁1709	-7964
▁1749	-7965
▁1754	-7966
▁3166	-7967
▁bomb	-7968
▁burg	-7969
▁cass	-7970
▁dash	-7971
▁hack	-7972
▁snow	-7973
▁thor	-7974
▁wash	-7975
office	-7976
▁begin	-7977
▁moham	-7978
▁munic	-7979
▁short	-7980
vention	-7981
▁carlos	-7982
▁forever	-7983
oi	-7984
歹央	-7985
105	-7986
190	-7987
dal	-7988
ios	-7989
tes	-7990
ues	-7991
▁sq	-7992
火火阝	-7993
ophy	-7994
town	-7995
▁441	-7996
▁478	-7997
▁644	-7998
▁652	-7999
▁658	-8000
▁938	-8001
▁hab	-8002
▁ide	-8003
▁kle	-8004
▁ris	-8005
▁sak	-8006
▁1719	-8007
▁1742	-8008
▁1744	-8009
▁andy	-8010
▁midi	-8011
ension	-8012
▁arena	-8013
▁baron	-8014
▁being	-8015
▁civil	-8016
▁money	-8017
▁quick	-8018
▁think	-8019
▁gordon	-8020
▁thunder	-8021
▁original	-8022
▁noinclude	-8023
lr	-8024
rt	-8025
山由	-8026
文口	-8027
非虫	-8028
饣耳	-8029
eco	-8030
leg	-8031
oke	-8032
oux	-8033
▁cj	-8034
▁ik	-8035
▁rm	-8036
▁wu	-8037
olis	-8038
▁482	-8039
▁571	-8040
▁573	-8041
▁582	-8042
▁602	-8043
▁649	-8044
▁708	-8045
▁759	-8046
▁775	-8047
▁988	-8048
▁exo	-8049
▁hem	-8050
▁ica	-8051
▁toy	-8052
▁vvv	-8053
▁1430	-8054
▁1562	-8055
▁gram	-8056
▁grow	-8057
▁iron	-8058
▁ster	-8059
▁based	-8060
▁exile	-8061
chester	-8062
▁intell	-8063
▁douglas	-8064
▁conference	-8065
▁television	-8066
ru	-8067
山见	-8068
虫甘	-8069
𠃊目	-8070
11%	-8071
imp	-8072
▁mh	-8073
▁mw	-8074
▁nn	-8075
▁wm	-8076
wick	-8077
▁578	-8078
▁798	-8079
▁821	-8080
▁965	-8081
▁fra	-8082
▁lun	-8083
▁nin	-8084
berry	-8085
▁1520	-8086
▁1523	-8087
▁1588	-8088
▁1595	-8089
▁1633	-8090
▁been	-8091
▁berg	-8092
▁sola	-8093
▁admin	-8094
▁ghost	-8095
▁labor	-8096
▁medic	-8097
▁valve	-8098
▁author	-8099
▁memory	-8100
▁freebsd	-8101
▁benjamin	-8102
▁countdown	-8103
▁elizabeth	-8104
▁evolution	-8105
▁singapore	-8106
王禹	-8107
122	-8108
kir	-8109
oon	-8110
▁lm	-8111
▁px	-8112
▁vb	-8113
口止石	-8114
𠃊目小	-8115
bers	-8116
ente	-8117
itan	-8118
▁16%	-8119
▁641	-8120
▁691	-8121
▁733	-8122
▁748	-8123
▁875	-8124
▁908	-8125
▁923	-8126
▁obj	-8127
▁pul	-8128
▁tes	-8129
▁1579	-8130
▁1705	-8131
▁8500	-8132
▁case	-8133
▁coco	-8134
▁then	-8135
▁wise	-8136
▁iupac	-8137
▁moore	-8138
▁texas	-8139
▁commer	-8140
▁command	-8141
▁russell	-8142
▁community	-8143
yr	-8144
日方	-8145
气乃	-8146
石隹	-8147
14%	-8148
264	-8149
310	-8150
icy	-8151
jan	-8152
mic	-8153
▁jp	-8154
▁oz	-8155
覀示刂	-8156
bang	-8157
rial	-8158
▁676	-8159
▁702	-8160
▁736	-8161
▁761	-8162
▁839	-8163
▁884	-8164
▁arn	-8165
▁beh	-8166
▁pix	-8167
▁tin	-8168
▁use	-8169
▁1492	-8170
▁1587	-8171
▁1608	-8172
▁2050	-8173
▁fate	-8174
▁imag	-8175
▁kind	-8176
▁marc	-8177
▁canon	-8178
▁catal	-8179
▁reich	-8180
▁watch	-8181
▁proper	-8182
▁frances	-8183
▁leonard	-8184
▁premier	-8185
▁village	-8186
▁francisco	-8187
▁department	-8188
tt	-8189
纟非	-8190
900	-8191
kes	-8192
lav	-8193
tus	-8194
冂一谷	-8195
anch	-8196
hedr	-8197
ping	-8198
ysis	-8199
▁004	-8200
▁471	-8201
▁692	-8202
▁726	-8203
▁811	-8204
▁818	-8205
▁888	-8206
▁993	-8207
▁apm	-8208
▁hir	-8209
▁ost	-8210
▁pit	-8211
utsch	-8212
▁1127	-8213
▁1277	-8214
▁1530	-8215
▁1564	-8216
▁1576	-8217
▁1676	-8218
▁cris	-8219
▁kris	-8220
冂一谷又土	-8221
▁asian	-8222
▁freed	-8223
▁image	-8224
▁jimmy	-8225
▁tourn	-8226
▁morris	-8227
▁mother	-8228
▁window	-8229
▁netscape	-8230
▁republic	-8231
▁frederick	-8232
kn	-8233
土丘	-8234
弓耳	-8235
灬又	-8236
石本	-8237
阝垂	-8238
15%	-8239
37%	-8240
67%	-8241
adi	-8242
tio	-8243
▁dz	-8244
▁mf	-8245
▁nl	-8246
▁tp	-8247
䒑土心	-8248
日大阝	-8249
anth	-8250
icus	-8251
▁437	-8252
▁474	-8253
▁481	-8254
▁683	-8255
▁765	-8256
▁785	-8257
▁817	-8258
▁bee	-8259
▁imm	-8260
▁psv	-8261
▁rin	-8262
▁url	-8263
ament	-8264
istry	-8265
▁1464	-8266
▁1574	-8267
▁dick	-8268
▁mall	-8269
▁pear	-8270
▁tree	-8271
▁franz	-8272
▁match	-8273
▁antonio	-8274
▁california	-8275
火乐	-8276
126	-8277
edy	-8278
gio	-8279
kan	-8280
▁bj	-8281
kien	-8282
odes	-8283
oshi	-8284
▁376	-8285
▁469	-8286
▁666	-8287
▁669	-8288
▁842	-8289
▁939	-8290
▁969	-8291
▁sie	-8292
▁tax	-8293
lines	-8294
▁1011	-8295
▁1180	-8296
▁1546	-8297
▁1612	-8298
▁1656	-8299
▁1746	-8300
▁bass	-8301
▁coll	-8302
▁gaga	-8303
▁brook	-8304
▁trust	-8305
ography	-8306
▁middle	-8307
▁orange	-8308
▁wright	-8309
▁studies	-8310
▁southern	-8311
aw	-8312
gh	-8313
土隶	-8314
犭弗	-8315
107	-8316
emy	-8317
fri	-8318
iah	-8319
▁fd	-8320
▁ws	-8321
ashi	-8322
iser	-8323
stad	-8324
tric	-8325
▁497	-8326
▁498	-8327
▁741	-8328
▁904	-8329
▁add	-8330
▁afi	-8331
▁dll	-8332
▁exe	-8333
▁fit	-8334
music	-8335
order	-8336
tiful	-8337
▁1066	-8338
▁1527	-8339
▁1542	-8340
▁1675	-8341
▁1699	-8342
▁dear	-8343
▁inte	-8344
▁root	-8345
easure	-8346
ything	-8347
▁beach	-8348
▁chart	-8349
▁clear	-8350
▁initi	-8351
▁prote	-8352
▁psych	-8353
▁score	-8354
▁urban	-8355
▁search	-8356
▁independ	-8357
▁architect	-8358
oa	-8359
33%	-8360
96%	-8361
uto	-8362
▁fw	-8363
▁ji	-8364
▁uv	-8365
⺊口乚	-8366
agen	-8367
lass	-8368
onia	-8369
ving	-8370
wart	-8371
▁574	-8372
▁661	-8373
▁729	-8374
▁738	-8375
▁781	-8376
▁828	-8377
▁955	-8378
▁982	-8379
▁kur	-8380
▁ufo	-8381
stone	-8382
▁1125	-8383
▁1666	-8384
▁3700	-8385
▁3800	-8386
▁bing	-8387
▁fron	-8388
▁hugh	-8389
▁jpeg	-8390
▁pont	-8391
▁shah	-8392
▁vent	-8393
▁30000	-8394
▁activ	-8395
▁honey	-8396
▁spect	-8397
▁nature	-8398
▁winter	-8399
▁tolkien	-8400
▁electric	-8401
▁revolution	-8402
cp	-8403
木予	-8404
05%	-8405
13%	-8406
52%	-8407
ars	-8408
elo	-8409
emb	-8410
pin	-8411
▁aj	-8412
▁sj	-8413
lard	-8414
othy	-8415
▁467	-8416
▁492	-8417
▁559	-8418
▁572	-8419
▁659	-8420
▁749	-8421
▁874	-8422
▁881	-8423
▁ans	-8424
▁kai	-8425
▁lip	-8426
▁plc	-8427
▁syl	-8428
▁vip	-8429
凵丨凵示	-8430
ilton	-8431
rence	-8432
▁1668	-8433
▁1692	-8434
▁buff	-8435
▁matt	-8436
▁shir	-8437
▁viii	-8438
▁guide	-8439
▁montb	-8440
▁sarah	-8441
▁total	-8442
▁associ	-8443
▁change	-8444
▁yoshiki	-8445
▁administ	-8446
竹世	-8447
03%	-8448
103	-8449
104	-8450
▁kp	-8451
▁lt	-8452
▁wy	-8453
木木止	-8454
𠁣𠃛隹	-8455
omer	-8456
▁491	-8457
▁543	-8458
▁579	-8459
▁698	-8460
▁714	-8461
▁866	-8462
▁987	-8463
▁ibn	-8464
▁kol	-8465
▁rex	-8466
▁stu	-8467
▁1230	-8468
▁1451	-8469
▁1519	-8470
▁1536	-8471
▁1731	-8472
▁dean	-8473
▁flow	-8474
▁ford	-8475
▁hide	-8476
▁minor	-8477
▁skype	-8478
▁amazon	-8479
▁castle	-8480
▁medium	-8481
▁alliance	-8482
▁references	-8483
里灬	-8484
金目	-8485
203	-8486
air	-8487
hal	-8488
log	-8489
▁tb	-8490
▁wc	-8491
▁zu	-8492
习习廾	-8493
anny	-8494
▁662	-8495
▁679	-8496
▁744	-8497
▁808	-8498
▁833	-8499
▁897	-8500
▁996	-8501
▁nes	-8502
▁ntt	-8503
▁psr	-8504
▁sad	-8505
▁xen	-8506
umont	-8507
▁1440	-8508
▁1442	-8509
▁1534	-8510
▁1545	-8511
▁1555	-8512
▁1674	-8513
▁brav	-8514
▁circ	-8515
▁room	-8516
▁want	-8517
▁sigma	-8518
▁years	-8519
▁matthew	-8520
▁perfect	-8521
▁support	-8522
▁beautiful	-8523
火欠	-8524
竹艮	-8525
钅土	-8526
08%	-8527
cap	-8528
lix	-8529
▁yg	-8530
乀丿虫	-8531
竹艮皿	-8532
icen	-8533
ints	-8534
lock	-8535
type	-8536
▁657	-8537
▁786	-8538
▁838	-8539
▁882	-8540
▁dsm	-8541
▁esp	-8542
▁lod	-8543
▁oak	-8544
▁sis	-8545
▁sit	-8546
▁tow	-8547
▁1276	-8548
▁1420	-8549
▁1522	-8550
▁1561	-8551
▁1702	-8552
▁1739	-8553
▁sens	-8554
▁step	-8555
▁carol	-8556
▁charl	-8557
▁elect	-8558
▁nokia	-8559
▁piece	-8560
▁prime	-8561
▁grande	-8562
▁country	-8563
▁destiny	-8564
▁primary	-8565
▁through	-8566
氵来	-8567
言斤	-8568
讠夬	-8569
32%	-8570
40%	-8571
bow	-8572
ree	-8573
yon	-8574
▁hz	-8575
▁iu	-8576
▁jd	-8577
vens	-8578
▁483	-8579
▁593	-8580
▁886	-8581
▁887	-8582
▁922	-8583
▁976	-8584
▁997	-8585
▁tru	-8586
▁utf	-8587
overy	-8588
▁1275	-8589
▁1380	-8590
▁1563	-8591
▁1566	-8592
▁1678	-8593
▁aust	-8594
▁chun	-8595
▁hope	-8596
▁audio	-8597
▁excel	-8598
▁grace	-8599
▁smile	-8600
▁scheme	-8601
▁walker	-8602
▁jacques	-8603
▁roberts	-8604
土亚	-8605
女臣	-8606
85%	-8607
93%	-8608
ben	-8609
het	-8610
usa	-8611
▁vm	-8612
𠂇子攵	-8613
idea	-8614
ilis	-8615
riel	-8616
▁22%	-8617
▁584	-8618
▁723	-8619
▁822	-8620
▁827	-8621
▁895	-8622
▁947	-8623
▁acg	-8624
▁aps	-8625
▁dsp	-8626
▁kab	-8627
▁nit	-8628
▁tee	-8629
▁vie	-8630
井一八言	-8631
火火冖水	-8632
color	-8633
point	-8634
▁1001	-8635
▁1220	-8636
▁1385	-8637
▁1529	-8638
▁1602	-8639
▁1704	-8640
▁cash	-8641
▁spin	-8642
▁ward	-8643
▁kelly	-8644
▁selec	-8645
▁factor	-8646
▁legend	-8647
▁object	-8648
▁police	-8649
▁provin	-8650
▁vision	-8651
▁display	-8652
▁premium	-8653
rh	-8654
sc	-8655
wo	-8656
石𠃓	-8657
艹弓	-8658
金不	-8659
04%	-8660
95%	-8661
mum	-8662
▁eh	-8663
▁fb	-8664
▁fp	-8665
chin	-8666
ello	-8667
▁663	-8668
▁728	-8669
▁732	-8670
▁807	-8671
▁855	-8672
▁898	-8673
▁948	-8674
▁caf	-8675
▁fur	-8676
▁jen	-8677
▁oct	-8678
▁rip	-8679
▁spy	-8680
▁tac	-8681
▁wag	-8682
乛耳攵心	-8683
▁1541	-8684
▁1591	-8685
▁1617	-8686
▁1691	-8687
▁1703	-8688
▁iris	-8689
▁nova	-8690
▁billy	-8691
▁child	-8692
▁liter	-8693
▁songs	-8694
▁heaven	-8695
▁perfor	-8696
▁spirit	-8697
mw	-8698
wr	-8699
禺頁	-8700
耒巴	-8701
07%	-8702
20%	-8703
45%	-8704
79%	-8705
86%	-8706
iri	-8707
mit	-8708
ois	-8709
pal	-8710
冂口木	-8711
立十手	-8712
cept	-8713
osis	-8714
▁052	-8715
▁23%	-8716
▁24%	-8717
▁449	-8718
▁695	-8719
▁809	-8720
▁812	-8721
▁836	-8722
▁966	-8723
▁ana	-8724
▁ein	-8725
▁lex	-8726
▁nap	-8727
▁rio	-8728
𠂊田灬弗	-8729
dford	-8730
▁1135	-8731
▁1278	-8732
▁1403	-8733
▁1412	-8734
▁1415	-8735
▁1711	-8736
▁carr	-8737
▁easy	-8738
▁less	-8739
▁need	-8740
▁ober	-8741
▁gamer	-8742
▁hydro	-8743
▁youth	-8744
▁nation	-8745
▁norman	-8746
▁environ	-8747
ification	-8748
px	-8749
讠几	-8750
00%	-8751
115	-8752
iae	-8753
rot	-8754
var	-8755
▁xf	-8756
aker	-8757
iers	-8758
ifer	-8759
▁459	-8760
▁592	-8761
▁753	-8762
▁788	-8763
▁864	-8764
▁924	-8765
▁967	-8766
▁cab	-8767
▁kra	-8768
▁kun	-8769
▁occ	-8770
▁pav	-8771
▁tha	-8772
▁1010	-8773
▁1225	-8774
▁1382	-8775
▁1404	-8776
▁1506	-8777
▁1511	-8778
▁1516	-8779
▁1535	-8780
▁1552	-8781
▁1581	-8782
▁1606	-8783
▁1743	-8784
▁born	-8785
▁duke	-8786
▁echo	-8787
▁fund	-8788
▁race	-8789
▁wang	-8790
▁local	-8791
▁ocean	-8792
ulation	-8793
▁doctor	-8794
▁margar	-8795
▁morning	-8796
▁natural	-8797
▁princess	-8798
kv	-8799
二女	-8800
钅甘	-8801
esp	-8802
rid	-8803
uta	-8804
wig	-8805
▁uf	-8806
土土阝	-8807
𠂒口阝	-8808
▁473	-8809
▁569	-8810
▁656	-8811
▁752	-8812
▁789	-8813
▁843	-8814
▁896	-8815
▁946	-8816
▁961	-8817
▁ach	-8818
▁bef	-8819
▁cbe	-8820
▁fed	-8821
▁nog	-8822
ether	-8823
ienne	-8824
▁1399	-8825
▁1508	-8826
▁1509	-8827
▁1533	-8828
▁1537	-8829
▁4800	-8830
▁eyes	-8831
▁terr	-8832
▁daily	-8833
▁trade	-8834
▁donald	-8835
▁another	-8836
▁powerpc	-8837
▁produce	-8838
丿干	-8839
冂山	-8840
毛求	-8841
111	-8842
29%	-8843
48%	-8844
rov	-8845
▁hg	-8846
火火刂	-8847
0000	-8848
asia	-8849
ians	-8850
more	-8851
▁594	-8852
▁608	-8853
▁703	-8854
▁771	-8855
▁792	-8856
▁806	-8857
▁849	-8858
▁852	-8859
▁917	-8860
▁971	-8861
▁981	-8862
▁cut	-8863
▁gre	-8864
▁pam	-8865
▁rid	-8866
▁uni	-8867
▁1170	-8868
▁1279	-8869
▁1376	-8870
▁1510	-8871
▁1695	-8872
▁1696	-8873
▁1698	-8874
▁boot	-8875
▁even	-8876
▁host	-8877
▁macb	-8878
▁camer	-8879
▁emule	-8880
▁guard	-8881
▁tommy	-8882
▁effect	-8883
▁follow	-8884
▁graham	-8885
▁distrib	-8886
▁technolog	-8887
ev	-8888
189	-8889
58%	-8890
92%	-8891
lim	-8892
oul	-8893
小丿衣	-8894
扌丸𧘇	-8895
card	-8896
case	-8897
onda	-8898
▁654	-8899
▁697	-8900
▁743	-8901
▁848	-8902
▁862	-8903
▁943	-8904
▁972	-8905
▁983	-8906
▁atv	-8907
▁ich	-8908
▁ips	-8909
▁lat	-8910
▁len	-8911
gress	-8912
lands	-8913
▁1067	-8914
▁1320	-8915
▁1388	-8916
▁1558	-8917
▁1716	-8918
▁bour	-8919
▁cool	-8920
▁ifpi	-8921
▁leop	-8922
▁raid	-8923
▁rela	-8924
▁them	-8925
▁vvvf	-8926
▁wifi	-8927
▁maker	-8928
▁terra	-8929
▁animax	-8930
▁proble	-8931
▁shinee	-8932
▁diamond	-8933
▁factory	-8934
▁myspace	-8935
▁perfume	-8936
▁memorial	-8937
jn	-8938
禾末	-8939
金衣	-8940
钅朱	-8941
17%	-8942
22%	-8943
231	-8944
50%	-8945
61%	-8946
eda	-8947
ete	-8948
uru	-8949
▁hl	-8950
▁sz	-8951
▁vc	-8952
▁yf	-8953
anni	-8954
illi	-8955
toon	-8956
▁002	-8957
▁564	-8958
▁653	-8959
▁754	-8960
▁883	-8961
▁915	-8962
▁97%	-8963
▁995	-8964
▁bis	-8965
▁cum	-8966
▁dag	-8967
▁gym	-8968
▁nag	-8969
▁pel	-8970
▁sce	-8971
uster	-8972
▁1392	-8973
▁1712	-8974
▁dota	-8975
▁epic	-8976
▁jord	-8977
▁kick	-8978
▁mong	-8979
▁netf	-8980
▁null	-8981
▁oliv	-8982
▁penn	-8983
▁coast	-8984
▁macos	-8985
▁prize	-8986
▁still	-8987
▁tiger	-8988
▁partic	-8989
▁crystal	-8990
▁intellig	-8991
▁lawrence	-8992
▁municipal	-8993
几歹	-8994
木巴	-8995
氵尺	-8996
虫乚	-8997
钅必	-8998
123	-8999
23%	-9000
27%	-9001
30%	-9002
35%	-9003
62%	-9004
put	-9005
▁hb	-9006
▁nv	-9007
▁ud	-9008
anti	-9009
bank	-9010
east	-9011
eaux	-9012
ulus	-9013
▁017	-9014
▁724	-9015
▁814	-9016
▁aks	-9017
▁lac	-9018
eland	-9019
▁1030	-9020
▁1040	-9021
▁1086	-9022
▁1557	-9023
▁ange	-9024
▁coff	-9025
▁otto	-9026
▁rows	-9027
▁books	-9028
▁creek	-9029
▁monte	-9030
▁shock	-9031
▁vogue	-9032
▁comple	-9033
▁forest	-9034
▁sainte	-9035
▁simple	-9036
▁travel	-9037
▁yellow	-9038
▁bgcolor	-9039
▁element	-9040
▁jonathan	-9041
▁electronic	-9042
zj	-9043
气川	-9044
金卯	-9045
阝鬼	-9046
雨非	-9047
202	-9048
84%	-9049
98%	-9050
ati	-9051
far	-9052
lyn	-9053
▁dg	-9054
▁ei	-9055
▁nx	-9056
▁tz	-9057
力口衣	-9058
brid	-9059
omet	-9060
oria	-9061
ythm	-9062
▁739	-9063
▁878	-9064
▁913	-9065
▁934	-9066
▁aro	-9067
▁dlc	-9068
▁gig	-9069
▁hug	-9070
▁kad	-9071
▁vas	-9072
▁⿱⿳⿻	-9073
osaur	-9074
▁1129	-9075
▁1240	-9076
▁1514	-9077
▁1548	-9078
▁1677	-9079
▁4200	-9080
▁iata	-9081
▁pent	-9082
▁phen	-9083
▁scho	-9084
▁trna	-9085
▁viet	-9086
▁price	-9087
▁stein	-9088
▁study	-9089
▁hunter	-9090
▁mechan	-9091
▁oliver	-9092
▁stream	-9093
▁movement	-9094
▁application	-9095
▁professional	-9096
rs	-9097
木比	-9098
矛𧘇	-9099
車乚	-9100
207	-9101
24%	-9102
65%	-9103
72%	-9104
aku	-9105
ala	-9106
bur	-9107
ety	-9108
ido	-9109
oka	-9110
uki	-9111
enne	-9112
ting	-9113
▁784	-9114
▁819	-9115
▁832	-9116
▁957	-9117
▁ark	-9118
▁cct	-9119
▁ctv	-9120
▁ens	-9121
▁hag	-9122
▁nel	-9123
▁ome	-9124
▁1070	-9125
▁1206	-9126
▁1234	-9127
▁1480	-9128
▁1490	-9129
▁1513	-9130
▁1515	-9131
▁1549	-9132
▁1596	-9133
▁barr	-9134
▁giov	-9135
▁give	-9136
▁half	-9137
▁roth	-9138
▁soph	-9139
▁wars	-9140
ularia	-9141
▁plant	-9142
▁stock	-9143
ination	-9144
▁agency	-9145
▁dennis	-9146
▁german	-9147
▁observ	-9148
▁aircraft	-9149
▁brothers	-9150
▁economic	-9151
▁president	-9152
mc	-9153
wd	-9154
户非	-9155
艹且	-9156
16%	-9157
204	-9158
28%	-9159
38%	-9160
39%	-9161
42%	-9162
57%	-9163
82%	-9164
pus	-9165
ser	-9166
uis	-9167
wal	-9168
zza	-9169
▁bw	-9170
▁tn	-9171
亠矛𧘇	-9172
alle	-9173
bson	-9174
izon	-9175
olla	-9176
ount	-9177
vais	-9178
▁463	-9179
▁678	-9180
▁831	-9181
▁837	-9182
▁dod	-9183
▁riv	-9184
▁won	-9185
一中冖石	-9186
sters	-9187
▁1340	-9188
▁1470	-9189
▁bart	-9190
▁clay	-9191
▁josh	-9192
▁appro	-9193
▁canad	-9194
▁gmail	-9195
▁staff	-9196
▁these	-9197
▁value	-9198
▁device	-9199
▁flight	-9200
▁identi	-9201
▁justice	-9202
▁rowspan	-9203
▁pictures	-9204
▁robinson	-9205
▁environment	-9206
uh	-9207
艹果	-9208
18%	-9209
60%	-9210
68%	-9211
89%	-9212
dio	-9213
iza	-9214
mir	-9215
一八糸	-9216
rier	-9217
▁769	-9218
▁916	-9219
▁928	-9220
▁949	-9221
▁977	-9222
▁atc	-9223
▁hyp	-9224
▁jin	-9225
▁lon	-9226
▁mud	-9227
▁nts	-9228
▁pga	-9229
▁pir	-9230
▁rig	-9231
▁saw	-9232
▁tec	-9233
kreis	-9234
▁1139	-9235
▁1375	-9236
▁1390	-9237
▁1402	-9238
▁1532	-9239
▁1663	-9240
▁1686	-9241
▁ferr	-9242
▁heat	-9243
▁hend	-9244
▁hunt	-9245
▁merc	-9246
▁nint	-9247
▁quar	-9248
▁rate	-9249
▁cover	-9250
▁grant	-9251
▁param	-9252
▁integr	-9253
▁gallery	-9254
▁broadcast	-9255
▁technologies	-9256
大車	-9257
目目	-9258
竹肅	-9259
117	-9260
124	-9261
55%	-9262
71%	-9263
abe	-9264
ahl	-9265
ige	-9266
ulf	-9267
山大車	-9268
氵𠃓火	-9269
anna	-9270
aria	-9271
bber	-9272
king	-9273
ring	-9274
sten	-9275
▁003	-9276
▁631	-9277
▁671	-9278
▁709	-9279
▁868	-9280
▁bmg	-9281
▁bmp	-9282
▁jes	-9283
▁lem	-9284
▁lux	-9285
▁nic	-9286
▁snh	-9287
▁wwf	-9288
opter	-9289
▁1330	-9290
▁1381	-9291
▁1445	-9292
▁1693	-9293
▁alph	-9294
▁buck	-9295
▁idol	-9296
▁lane	-9297
▁mala	-9298
▁sent	-9299
▁user	-9300
▁yang	-9301
▁beast	-9302
▁faith	-9303
▁nexus	-9304
▁thing	-9305
▁justin	-9306
▁rights	-9307
▁deutsch	-9308
▁macbook	-9309
▁netflix	-9310
▁private	-9311
▁solaris	-9312
▁material	-9313
▁thompson	-9314
▁australia	-9315
▁universit	-9316
▁communications	-9317
女以	-9318
戊臣	-9319
王页	-9320
129	-9321
135	-9322
63%	-9323
87%	-9324
asi	-9325
det	-9326
erg	-9327
lag	-9328
uan	-9329
ulu	-9330
▁lf	-9331
▁oe	-9332
▁ug	-9333
口止皮	-9334
ards	-9335
dium	-9336
ilia	-9337
ized	-9338
lear	-9339
▁21%	-9340
▁673	-9341
▁699	-9342
▁764	-9343
▁783	-9344
▁968	-9345
▁989	-9346
▁gap	-9347
▁lay	-9348
▁mcd	-9349
▁tog	-9350
icago	-9351
▁1060	-9352
▁1140	-9353
▁1406	-9354
▁1528	-9355
▁1597	-9356
▁1694	-9357
▁bird	-9358
▁cosm	-9359
▁earl	-9360
▁exec	-9361
▁rosa	-9362
▁ship	-9363
action	-9364
▁chung	-9365
▁conso	-9366
▁pedro	-9367
▁estate	-9368
▁flower	-9369
▁moment	-9370
▁oracle	-9371
▁symbian	-9372
▁analysis	-9373
▁medicine	-9374
▁federation	-9375
口黑	-9376
山山	-9377
广阝	-9378
日火	-9379
白木	-9380
礻乃	-9381
艹虫	-9382
金本	-9383
128	-9384
150	-9385
19%	-9386
205	-9387
36%	-9388
53%	-9389
54%	-9390
64%	-9391
66%	-9392
73%	-9393
74%	-9394
76%	-9395
77%	-9396
999	-9397
aha	-9398
idi	-9399
kov	-9400
nik	-9401
omi	-9402
▁rv	-9403
目八缶	-9404
▁26%	-9405
▁706	-9406
▁794	-9407
▁909	-9408
▁932	-9409
▁998	-9410
▁bap	-9411
▁dei	-9412
▁eif	-9413
▁fia	-9414
▁jal	-9415
▁kay	-9416
▁lav	-9417
▁mey	-9418
▁ran	-9419
▁ree	-9420
▁seg	-9421
▁tgv	-9422
▁why	-9423
▁yak	-9424
丷八白木	-9425
𠂊田灬身	-9426
itary	-9427
ledge	-9428
uchus	-9429
▁1214	-9430
▁1236	-9431
▁1409	-9432
▁1487	-9433
▁1554	-9434
▁1706	-9435
▁2900	-9436
▁astr	-9437
▁jazz	-9438
▁nato	-9439
▁rest	-9440
▁sohc	-9441
▁vict	-9442
motion	-9443
▁bobby	-9444
▁crazy	-9445
▁fight	-9446
▁jacob	-9447
▁jerry	-9448
▁swing	-9449
▁utric	-9450
▁athlon	-9451
▁cinema	-9452
▁gangan	-9453
▁hybrid	-9454
▁legacy	-9455
▁origin	-9456
▁evangel	-9457
▁monster	-9458
▁stewart	-9459
▁airlines	-9460
▁campbell	-9461
▁greatest	-9462
▁christmas	-9463
▁washington	-9464
ew	-9465
扌垂	-9466
白匕	-9467
12%	-9468
21%	-9469
34%	-9470
56%	-9471
69%	-9472
97%	-9473
chy	-9474
pes	-9475
ski	-9476
code	-9477
nell	-9478
▁070	-9479
▁28%	-9480
▁462	-9481
▁891	-9482
▁956	-9483
▁acp	-9484
▁eye	-9485
▁ipa	-9486
▁rer	-9487
▁upd	-9488
▁wav	-9489
onica	-9490
▁1413	-9491
▁1502	-9492
▁1531	-9493
▁1539	-9494
▁1594	-9495
▁3400	-9496
▁coup	-9497
▁feel	-9498
▁nano	-9499
▁quin	-9500
▁⿰⿱⿱⿻	-9501
▁paper	-9502
▁advent	-9503
▁cooper	-9504
▁strate	-9505
▁without	-9506
▁platform	-9507
▁sciences	-9508
▁transform	-9509
▁productions	-9510
▁utricularia	-9511
hy	-9512
yt	-9513
二儿	-9514
土艮	-9515
目冘	-9516
金必	-9517
10%	-9518
360	-9519
41%	-9520
51%	-9521
imi	-9522
owa	-9523
▁gf	-9524
乡隹土	-9525
arts	-9526
onne	-9527
▁595	-9528
▁984	-9529
▁bod	-9530
▁hus	-9531
▁nds	-9532
▁nem	-9533
▁pom	-9534
▁rif	-9535
illon	-9536
iting	-9537
shire	-9538
▁1138	-9539
▁1421	-9540
▁1439	-9541
▁1493	-9542
▁1512	-9543
▁bent	-9544
▁fine	-9545
▁lons	-9546
▁ming	-9547
▁shot	-9548
▁soho	-9549
▁visa	-9550
▁	-9551
⿱	-9552
⿰	-9553
一	-9554
口	-9555
8	-9556
c	-9557
d	-9558
p	-9559
⿹	-9560
⿻	-9561
⿸	-9562
土	-9563
日	-9564
人	-9565
丿	-9566
八	-9567
丶	-9568
⿵	-9569
,	-9570
亻	-9571
⿳	-9572
勹	-9573
⿺	-9574
丨	-9575
白	-9576
⿴	-9577
亠	-9578
十	-9579
木	-9580
厶	-9581
1	-9582
氵	-9583
月	-9584
又	-9585
冂	-9586
。	-9587
5	-9588
宀	-9589
囗	-9590
寸	-9591
b	-9592
丷	-9593
幺	-9594
辶	-9595
6	-9596
e	-9597
a	-9598
冖	-9599
扌	-9600
禾	-9601
大	-9602
艹	-9603
二	-9604
立	-9605
儿	-9606
阝	-9607
9	-9608
目	-9609
刂	-9610
0	-9611
夂	-9612
f	-9613
龰	-9614
女	-9615
彳	-9616
䒑	-9617
匕	-9618
王	-9619
言	-9620
攵	-9621
丁	-9622
小	-9623
子	-9624
𠃌	-9625
止	-9626
𠂉	-9627
夕	-9628
力	-9629
心	-9630
田	-9631
巾	-9632
戈	-9633
𠂊	-9634
年	-9635
𠂇	-9636
工	-9637
7	-9638
2	-9639
、	-9640
广	-9641
⺌	-9642
隹	-9643
也	-9644
尸	-9645
冫	-9646
凵	-9647
斤	-9648
⿶	-9649
㐅	-9650
4	-9651
刀	-9652
乂	-9653
且	-9654
竹	-9655
弓	-9656
灬	-9657
罒	-9658
方	-9659
士	-9660
纟	-9661
讠	-9662
⺊	-9663
龷	-9664
牛	-9665
耳	-9666
廾	-9667
耂	-9668
𠘧	-9669
彐	-9670
亅	-9671
生	-9672
厂	-9673
戊	-9674
干	-9675
車	-9676
⿲	-9677
山	-9678
自	-9679
乚	-9680
卜	-9681
几	-9682
糸	-9683
由	-9684
龶	-9685
巳	-9686
米	-9687
乛	-9688
𠁣	-9689
𠃛	-9690
业	-9691
以	-9692
3	-9693
⿷	-9694
兀	-9695
朩	-9696
為	-9697
豕	-9698
甲	-9699
i	-9700
𠂆	-9701
⺀	-9702
爫	-9703
o	-9704
贝	-9705
匚	-9706
入	-9707
r	-9708
弋	-9709
车	-9710
n	-9711
彡	-9712
欠	-9713
玉	-9714
卩	-9715
示	-9716
乀	-9717
犬	-9718
为	-9719
s	-9720
t	-9721
龴	-9722
皮	-9723
母	-9724
礻	-9725
及	-9726
豆	-9727
火	-9728
井	-9729
虫	-9730
里	-9731
𭕄	-9732
忄	-9733
𧘇	-9734
衤	-9735
廿	-9736
重	-9737
頁	-9738
l	-9739
⺆	-9740
己	-9741
艮	-9742
夫	-9743
皿	-9744
雨	-9745
本	-9746
覀	-9747
乍	-9748
𠄌	-9749
石	-9750
羊	-9751
于	-9752
巴	-9753
:	-9754
丆	-9755
金	-9756
廴	-9757
m	-9758
𠂒	-9759
虍	-9760
钅	-9761
父	-9762
歹	-9763
文	-9764
比	-9765
聿	-9766
㇇	-9767
》	-9768
《	-9769
癶	-9770
习	-9771
h	-9772
门	-9773
民	-9774
丰	-9775
千	-9776
爿	-9777
u	-9778
曲	-9779
コ	-9780
州	-9781
氺	-9782
·	-9783
犭	-9784
㠯	-9785
」	-9786
「	-9787
见	-9788
斗	-9789
手	-9790
尢	-9791
丂	-9792
我	-9793
𠃋	-9794
世	-9795
页	-9796
冉	-9797
户	-9798
巛	-9799
“	-9800
中	-9801
非	-9802
求	-9803
g	-9804
卄	-9805
央	-9806
㐄	-9807
事	-9808
舟	-9809
𫝀	-9810
酉	-9811
衣	-9812
肀	-9813
未	-9814
角	-9815
𠃊	-9816
釆	-9817
吏	-9818
臣	-9819
氏	-9820
㔾	-9821
片	-9822
九	-9823
长	-9824
;	-9825
尹	-9826
发	-9827
身	-9828
"	-9829
上	-9830
束	-9831
丬	-9832
五	-9833
甫	-9834
丸	-9835
来	-9836
水	-9837
丱	-9838
東	-9839
臼	-9840
东	-9841
谷	-9842
内	-9843
才	-9844
k	-9845
头	-9846
夬	-9847
𡗗	-9848
不	-9849
黑	-9850
𣥂	-9851
ス	-9852
冎	-9853
y	-9854
而	-9855
申	-9856
疒	-9857
乡	-9858
专	-9859
v	-9860
史	-9861
革	-9862
w	-9863
乃	-9864
丘	-9865
已	-9866
必	-9867
亡	-9868
𠂤	-9869
川	-9870
予	-9871
𠃓	-9872
卌	-9873
柬	-9874
牙	-9875
气	-9876
禺	-9877
七	-9878
弗	-9879
彑	-9880
丩	-9881
禹	-9882
戋	-9883
缶	-9884
甘	-9885
禸	-9886
了	-9887
矛	-9888
疋	-9889
永	-9890
毌	-9891
乙	-9892
/	-9893
三	-9894
巨	-9895
屯	-9896
〢	-9897
𧰨	-9898
z	-9899
更	-9900
隶	-9901
朱	-9902
瓦	-9903
韦	-9904
x	-9905
书	-9906
龵	-9907
%	-9908
朿	-9909
兆	-9910
鬼	-9911
果	-9912
毛	-9913
j	-9914
𠃜	-9915
ユ	-9916
象	-9917
戉	-9918
乑	-9919
㇀	-9920
饣	-9921
乐	-9922
耒	-9923
丫	-9924
—	-9925
旡	-9926
_	-9927
承	-9928
卅	-9929
尺	-9930
丹	-9931
乎	-9932
之	-9933
乁	-9934
久	-9935
⺄	-9936
飛	-9937
丑	-9938
末	-9939
}	-9940
{	-9941
镸	-9942
斥	-9943
两	-9944
!	-9945
食	-9946
瓜	-9947
龙	-9948
𠃑	-9949
亚	-9950
肉	-9951
>	-9952
飞	-9953
<	-9954
q	-9955
𩰊	-9956
𩰋	-9957
㣺	-9958
'	-9959
豸	-9960
𦣞	-9961
=	-9962
|	-9963
㡀	-9964
𠂎	-9965
册	-9966
]	-9967
[	-9968
疌	-9969
+	-9970
冘	-9971
𠄎	-9972
串	-9973
?	-9974
卯	-9975
歺	-9976
肃	-9977
万	-9978
电	-9979
垂	-9980
爪	-9981
肅	-9982
『	-9983
』	-9984
°	-9985
丈	-9986
